{
  "version": "1.0",
  "truncation": null,
  "padding": null,
  "added_tokens": [
    {
      "id": 0,
      "content": "[UNK]",
      "single_word": false,
      "lstrip": false,
      "rstrip": false,
      "normalized": false,
      "special": true
    },
    {
      "id": 1,
      "content": "[CLS]",
      "single_word": false,
      "lstrip": false,
      "rstrip": false,
      "normalized": false,
      "special": true
    },
    {
      "id": 2,
      "content": "[SEP]",
      "single_word": false,
      "lstrip": false,
      "rstrip": false,
      "normalized": false,
      "special": true
    },
    {
      "id": 3,
      "content": "[PAD]",
      "single_word": false,
      "lstrip": false,
      "rstrip": false,
      "normalized": false,
      "special": true
    },
    {
      "id": 4,
      "content": "[MASK]",
      "single_word": false,
      "lstrip": false,
      "rstrip": false,
      "normalized": false,
      "special": true
    }
  ],
  "normalizer": {
    "type": "Sequence",
    "normalizers": [
      {
        "type": "NFD"
      },
      {
        "type": "Lowercase"
      },
      {
        "type": "StripAccents"
      }
    ]
  },
  "pre_tokenizer": {
    "type": "Whitespace"
  },
  "post_processor": {
    "type": "TemplateProcessing",
    "single": [
      {
        "SpecialToken": {
          "id": "[CLS]",
          "type_id": 0
        }
      },
      {
        "Sequence": {
          "id": "A",
          "type_id": 0
        }
      },
      {
        "SpecialToken": {
          "id": "[SEP]",
          "type_id": 0
        }
      }
    ],
    "pair": [
      {
        "SpecialToken": {
          "id": "[CLS]",
          "type_id": 0
        }
      },
      {
        "Sequence": {
          "id": "A",
          "type_id": 0
        }
      },
      {
        "SpecialToken": {
          "id": "[SEP]",
          "type_id": 0
        }
      },
      {
        "Sequence": {
          "id": "B",
          "type_id": 1
        }
      },
      {
        "SpecialToken": {
          "id": "[SEP]",
          "type_id": 1
        }
      }
    ],
    "special_tokens": {
      "[CLS]": {
        "id": "[CLS]",
        "ids": [
          1
        ],
        "tokens": [
          "[CLS]"
        ]
      },
      "[SEP]": {
        "id": "[SEP]",
        "ids": [
          2
        ],
        "tokens": [
          "[SEP]"
        ]
      }
    }
  },
  "decoder": null,
  "model": {
    "type": "WordPiece",
    "unk_token": "[UNK]",
    "continuing_subword_prefix": "##",
    "max_input_chars_per_word": 100,
    "vocab": {
      "[UNK]": 0,
      "[CLS]": 1,
      "[SEP]": 2,
      "[PAD]": 3,
      "[MASK]": 4,
      "!": 5,
      "\"": 6,
      "'": 7,
      ",": 8,
      ".": 9,
      "0": 10,
      "1": 11,
      "2": 12,
      "3": 13,
      "4": 14,
      "5": 15,
      "6": 16,
      "7": 17,
      "8": 18,
      "9": 19,
      ":": 20,
      ";": 21,
      "?": 22,
      "a": 23,
      "b": 24,
      "c": 25,
      "d": 26,
      "e": 27,
      "f": 28,
      "g": 29,
      "h": 30,
      "i": 31,
      "j": 32,
      "k": 33,
      "l": 34,
      "m": 35,
      "n": 36,
      "o": 37,
      "p": 38,
      "q": 39,
      "r": 40,
      "s": 41,
      "t": 42,
      "u": 43,
      "v": 44,
      "w": 45,
      "x": 46,
      "y": 47,
      "z": 48,
      "##a": 49,
      "##r": 50,
      "##o": 51,
      "##q": 52,
      "##u": 53,
      "##e": 54,
      "##t": 55,
      "##d": 56,
      "##i": 57,
      "##m": 58,
      "##7": 59,
      "##1": 60,
      "##5": 61,
      "##c": 62,
      "##h": 63,
      "##n": 64,
      "##s": 65,
      "##g": 66,
      "##z": 67,
      "##v": 68,
      "##l": 69,
      "##k": 70,
      "##p": 71,
      "##3": 72,
      "##b": 73,
      "##y": 74,
      "##w": 75,
      "##x": 76,
      "##j": 77,
      "##f": 78,
      "##2": 79,
      "##4": 80,
      "##0": 81,
      "##8": 82,
      "##6": 83,
      "##9": 84,
      "##.": 85,
      "##'": 86,
      "th": 87,
      "the": 88,
      "##er": 89,
      "##in": 90,
      "##ed": 91,
      "##on": 92,
      "##nd": 93,
      "##es": 94,
      "##or": 95,
      "##at": 96,
      "##en": 97,
      "##ar": 98,
      "in": 99,
      "of": 100,
      "##an": 101,
      "##al": 102,
      "##ing": 103,
      "##it": 104,
      "##as": 105,
      "and": 106,
      "##is": 107,
      "to": 108,
      "##ic": 109,
      "##ou": 110,
      "##ion": 111,
      "##re": 112,
      "##om": 113,
      "##el": 114,
      "##il": 115,
      "##ec": 116,
      "##ent": 117,
      "##st": 118,
      "##th": 119,
      "##am": 120,
      "##ro": 121,
      "on": 122,
      "was": 123,
      "##ad": 124,
      "##ac": 125,
      "##le": 126,
      "##ur": 127,
      "st": 128,
      "##et": 129,
      "for": 130,
      "##ly": 131,
      "##ol": 132,
      "##ir": 133,
      "wh": 134,
      "as": 135,
      "##id": 136,
      "##ter": 137,
      "##iv": 138,
      "##ig": 139,
      "re": 140,
      "##ith": 141,
      "##im": 142,
      "##ow": 143,
      "##ay": 144,
      "be": 145,
      "##ch": 146,
      "al": 147,
      "##ut": 148,
      "with": 149,
      "##ation": 150,
      "##ers": 151,
      "that": 152,
      "##ot": 153,
      "##em": 154,
      "it": 155,
      "con": 156,
      "an": 157,
      "by": 158,
      "at": 159,
      "fr": 160,
      "is": 161,
      "he": 162,
      "##us": 163,
      "##ce": 164,
      "ch": 165,
      "##ver": 166,
      "sh": 167,
      "##ul": 168,
      "##est": 169,
      "##os": 170,
      "##and": 171,
      "##ain": 172,
      "19": 173,
      "his": 174,
      "##av": 175,
      "##ag": 176,
      "##um": 177,
      "com": 178,
      "##ere": 179,
      "su": 180,
      "se": 181,
      "from": 182,
      "##ct": 183,
      "##ess": 184,
      "##od": 185,
      "pro": 186,
      "de": 187,
      "##ri": 188,
      "##ap": 189,
      "20": 190,
      "##ist": 191,
      "##ect": 192,
      "ne": 193,
      "##igh": 194,
      "##un": 195,
      "##op": 196,
      "##ill": 197,
      "##ies": 198,
      "##ich": 199,
      "##ber": 200,
      "##ard": 201,
      "or": 202,
      "##art": 203,
      "##if": 204,
      "ar": 205,
      "##ld": 206,
      "ex": 207,
      "were": 208,
      "##ak": 209,
      "##all": 210,
      "pl": 211,
      "##ate": 212,
      "##oc": 213,
      "un": 214,
      "##ab": 215,
      "pr": 216,
      "##pp": 217,
      "le": 218,
      "##ant": 219,
      "sp": 220,
      "##ud": 221,
      "##ther": 222,
      "##gh": 223,
      "##ort": 224,
      "##ong": 225,
      "##ated": 226,
      "##se": 227,
      "tr": 228,
      "##ity": 229,
      "##ie": 230,
      "##ive": 231,
      "en": 232,
      "##ame": 233,
      "had": 234,
      "##ish": 235,
      "##ore": 236,
      "##ge": 237,
      "##ack": 238,
      "##ear": 239,
      "##ip": 240,
      "##our": 241,
      "##ast": 242,
      "which": 243,
      "##ell": 244,
      "##ov": 245,
      "##ough": 246,
      "are": 247,
      "##ian": 248,
      "##ment": 249,
      "af": 250,
      "not": 251,
      "##ial": 252,
      "##ound": 253,
      "##ost": 254,
      "##ight": 255,
      "cl": 256,
      "rec": 257,
      "##pt": 258,
      "##ia": 259,
      "##qu": 260,
      "##ust": 261,
      "##ary": 262,
      "wor": 263,
      "br": 264,
      "##ine": 265,
      "##oun": 266,
      "ad": 267,
      "##cc": 268,
      "##ical": 269,
      "##ave": 270,
      "fir": 271,
      "her": 272,
      "comp": 273,
      "but": 274,
      "##ord": 275,
      "##te": 276,
      "this": 277,
      "200": 278,
      "bo": 279,
      "sc": 280,
      "##ould": 281,
      "inc": 282,
      "tw": 283,
      "##ous": 284,
      "ab": 285,
      "after": 286,
      "first": 287,
      "gr": 288,
      "cont": 289,
      "##so": 290,
      "##ions": 291,
      "##ach": 292,
      "res": 293,
      "its": 294,
      "new": 295,
      "##ome": 296,
      "their": 297,
      "am": 298,
      "all": 299,
      "##ure": 300,
      "ro": 301,
      "man": 302,
      "one": 303,
      "##ue": 304,
      "##per": 305,
      "int": 306,
      "per": 307,
      "##ass": 308,
      "##ign": 309,
      "also": 310,
      "mar": 311,
      "##ub": 312,
      "us": 313,
      "##ok": 314,
      "rel": 315,
      "##out": 316,
      "##ater": 317,
      "##oll": 318,
      "tim": 319,
      "##00": 320,
      "##og": 321,
      "##ide": 322,
      "##age": 323,
      "##ond": 324,
      "they": 325,
      "##orm": 326,
      "ser": 327,
      "##ire": 328,
      "##ath": 329,
      "two": 330,
      "##ru": 331,
      "ag": 332,
      "part": 333,
      "##ry": 334,
      "who": 335,
      "fe": 336,
      "comm": 337,
      "##rit": 338,
      "have": 339,
      "des": 340,
      "##ans": 341,
      "bec": 342,
      "go": 343,
      "##ally": 344,
      "##ff": 345,
      "##ence": 346,
      "she": 347,
      "dis": 348,
      "app": 349,
      "##du": 350,
      "##ree": 351,
      "##ile": 352,
      "##ra": 353,
      "we": 354,
      "18": 355,
      "##ance": 356,
      "##pl": 357,
      "year": 358,
      "##own": 359,
      "##ition": 360,
      "off": 361,
      "##iz": 362,
      "has": 363,
      "play": 364,
      "##act": 365,
      "##uring": 366,
      "been": 367,
      "##ely": 368,
      "over": 369,
      "im": 370,
      "201": 371,
      "car": 372,
      "co": 373,
      "##lud": 374,
      "##ice": 375,
      "##ult": 376,
      "out": 377,
      "##ember": 378,
      "up": 379,
      "##ke": 380,
      "##ations": 381,
      "##ory": 382,
      "inter": 383,
      "ev": 384,
      "me": 385,
      "##ace": 386,
      "dec": 387,
      "fin": 388,
      "te": 389,
      "##wn": 390,
      "##ens": 391,
      "when": 392,
      "##land": 393,
      "pre": 394,
      "##ade": 395,
      "##ib": 396,
      "##pr": 397,
      "time": 398,
      "other": 399,
      "nor": 400,
      "##ail": 401,
      "during": 402,
      "can": 403,
      "##ount": 404,
      "##urn": 405,
      "includ": 406,
      "fl": 407,
      "ind": 408,
      "##ced": 409,
      "would": 410,
      "##ric": 411,
      "sec": 412,
      "##one": 413,
      "##ks": 414,
      "fil": 415,
      "##man": 416,
      "##we": 417,
      "##ward": 418,
      "into": 419,
      "##nder": 420,
      "##ang": 421,
      "him": 422,
      "bl": 423,
      "act": 424,
      "att": 425,
      "##ite": 426,
      "##ted": 427,
      "##ates": 428,
      "ear": 429,
      "war": 430,
      "##ph": 431,
      "##ied": 432,
      "jo": 433,
      "##able": 434,
      "##ased": 435,
      "more": 436,
      "char": 437,
      "high": 438,
      "##ited": 439,
      "cent": 440,
      "##ase": 441,
      "##ose": 442,
      "bet": 443,
      "##amp": 444,
      "film": 445,
      "par": 446,
      "form": 447,
      "##way": 448,
      "##ents": 449,
      "acc": 450,
      "##les": 451,
      "sou": 452,
      "##ces": 453,
      "##ors": 454,
      "el": 455,
      "##ason": 456,
      "##aw": 457,
      "##old": 458,
      "##form": 459,
      "cons": 460,
      "##ings": 461,
      "while": 462,
      "no": 463,
      "mus": 464,
      "##ild": 465,
      "most": 466,
      "##vel": 467,
      "some": 468,
      "game": 469,
      "kn": 470,
      "thr": 471,
      "there": 472,
      "##ts": 473,
      "po": 474,
      "rem": 475,
      "##port": 476,
      "##ind": 477,
      "gen": 478,
      "##ick": 479,
      "ass": 480,
      "##fer": 481,
      "##ious": 482,
      "##ake": 483,
      "so": 484,
      "how": 485,
      "##aus": 486,
      "qu": 487,
      "em": 488,
      "pe": 489,
      "bu": 490,
      "later": 491,
      "##iss": 492,
      "song": 493,
      "##gr": 494,
      "again": 495,
      "##ft": 496,
      "only": 497,
      "##gan": 498,
      "reg": 499,
      "##att": 500,
      "##ved": 501,
      "under": 502,
      "##rib": 503,
      "work": 504,
      "##pe": 505,
      "##eld": 506,
      "##ood": 507,
      "##reat": 508,
      "may": 509,
      "them": 510,
      "sy": 511,
      "than": 512,
      "ret": 513,
      "##ve": 514,
      "produ": 515,
      "sch": 516,
      "##ered": 517,
      "three": 518,
      "##als": 519,
      "about": 520,
      "##ubl": 521,
      "##ix": 522,
      "##ween": 523,
      "199": 524,
      "between": 525,
      "##ons": 526,
      "##ollow": 527,
      "ph": 528,
      "day": 529,
      "##ction": 530,
      "air": 531,
      "north": 532,
      "bro": 533,
      "col": 534,
      "through": 535,
      "mon": 536,
      "rele": 537,
      "record": 538,
      "##hip": 539,
      "follow": 540,
      "min": 541,
      "eng": 542,
      "##ock": 543,
      "second": 544,
      "##ational": 545,
      "ma": 546,
      "##fore": 547,
      "end": 548,
      "li": 549,
      "##eric": 550,
      "##ict": 551,
      "num": 552,
      "##ters": 553,
      "ac": 554,
      "sub": 555,
      "##hn": 556,
      "dr": 557,
      "pres": 558,
      "##iew": 559,
      "##orn": 560,
      "sa": 561,
      "alb": 562,
      "season": 563,
      "##ton": 564,
      "four": 565,
      "def": 566,
      "au": 567,
      "ep": 568,
      "##ey": 569,
      "pos": 570,
      "do": 571,
      "americ": 572,
      "world": 573,
      "where": 574,
      "cap": 575,
      "before": 576,
      "##ral": 577,
      "team": 578,
      "mov": 579,
      "south": 580,
      "##ular": 581,
      "##ating": 582,
      "spec": 583,
      "##ames": 584,
      "writ": 585,
      "arm": 586,
      "sm": 587,
      "lar": 588,
      "made": 589,
      "gu": 590,
      "##ision": 591,
      "will": 592,
      "##ived": 593,
      "such": 594,
      "pol": 595,
      "sur": 596,
      "sing": 597,
      "000": 598,
      "album": 599,
      "##atch": 600,
      "publ": 601,
      "rev": 602,
      "##io": 603,
      "##son": 604,
      "##ished": 605,
      "sever": 606,
      "##ever": 607,
      "years": 608,
      "##ained": 609,
      "##ode": 610,
      "##ics": 611,
      "supp": 612,
      "##ros": 613,
      "call": 614,
      "loc": 615,
      "10": 616,
      "##ery": 617,
      "count": 618,
      "str": 619,
      "show": 620,
      "##red": 621,
      "add": 622,
      "inv": 623,
      "both": 624,
      "gener": 625,
      "##ected": 626,
      "##tern": 627,
      "##ual": 628,
      "then": 629,
      "however": 630,
      "##ily": 631,
      "used": 632,
      "epis": 633,
      "##ning": 634,
      "mill": 635,
      "being": 636,
      "these": 637,
      "back": 638,
      "##au": 639,
      "well": 640,
      "##ury": 641,
      "stud": 642,
      "##ection": 643,
      "series": 644,
      "##ific": 645,
      "against": 646,
      "batt": 647,
      "ed": 648,
      "##air": 649,
      "set": 650,
      "##ten": 651,
      "##ale": 652,
      "##ank": 653,
      "charac": 654,
      "inst": 655,
      "##oup": 656,
      "found": 657,
      "number": 658,
      "bel": 659,
      "lead": 660,
      "many": 661,
      "##ement": 662,
      "ste": 663,
      "##velop": 664,
      "##led": 665,
      "sim": 666,
      "17": 667,
      "music": 668,
      "long": 669,
      "rece": 670,
      "main": 671,
      "perform": 672,
      "##ife": 673,
      "city": 674,
      "op": 675,
      "ter": 676,
      "##ane": 677,
      "pop": 678,
      "##int": 679,
      "##ool": 680,
      "##ause": 681,
      "##az": 682,
      "brit": 683,
      "##ince": 684,
      "##oy": 685,
      "became": 686,
      "##ron": 687,
      "##other": 688,
      "##fl": 689,
      "united": 690,
      "develop": 691,
      "several": 692,
      "dire": 693,
      "including": 694,
      "met": 695,
      "art": 696,
      "##igin": 697,
      "sl": 698,
      "state": 699,
      "cre": 700,
      "mil": 701,
      "##ower": 702,
      "div": 703,
      "origin": 704,
      "##vern": 705,
      "##ised": 706,
      "##ise": 707,
      "ob": 708,
      "15": 709,
      "12": 710,
      "early": 711,
      "##ier": 712,
      "198": 713,
      "did": 714,
      "appear": 715,
      "trans": 716,
      "##ather": 717,
      "##ures": 718,
      "##ork": 719,
      "nov": 720,
      "##ines": 721,
      "##its": 722,
      "194": 723,
      "dist": 724,
      "ship": 725,
      "##are": 726,
      "hist": 727,
      "##til": 728,
      "##rop": 729,
      "contin": 730,
      "govern": 731,
      "win": 732,
      "##ities": 733,
      "##elf": 734,
      "##olog": 735,
      "conc": 736,
      "episode": 737,
      "prov": 738,
      "##ley": 739,
      "states": 740,
      "##ross": 741,
      "est": 742,
      "##iet": 743,
      "said": 744,
      "##ird": 745,
      "john": 746,
      "ann": 747,
      "following": 748,
      "##ful": 749,
      "cr": 750,
      "##uch": 751,
      "##ield": 752,
      "crit": 753,
      "design": 754,
      "group": 755,
      "run": 756,
      "could": 757,
      "dif": 758,
      "const": 759,
      "##eng": 760,
      "##ative": 761,
      "return": 762,
      "med": 763,
      "16": 764,
      "##ouse": 765,
      "oper": 766,
      "american": 767,
      "pers": 768,
      "alth": 769,
      "exp": 770,
      "##der": 771,
      "ger": 772,
      "bar": 773,
      "##tend": 774,
      "known": 775,
      "##ann": 776,
      "although": 777,
      "comple": 778,
      "near": 779,
      "direct": 780,
      "aust": 781,
      "##ah": 782,
      "any": 783,
      "##ivers": 784,
      "west": 785,
      "sign": 786,
      "##tain": 787,
      "##uc": 788,
      "##emb": 789,
      "serv": 790,
      "har": 791,
      "king": 792,
      "jun": 793,
      "pass": 794,
      "down": 795,
      "197": 796,
      "mod": 797,
      "##ually": 798,
      "##sp": 799,
      "11": 800,
      "##anc": 801,
      "desc": 802,
      "land": 803,
      "##ting": 804,
      "##ty": 805,
      "196": 806,
      "##ident": 807,
      "fam": 808,
      "##ought": 809,
      "##iver": 810,
      "disc": 811,
      "##iam": 812,
      "##ued": 813,
      "began": 814,
      "red": 815,
      "like": 816,
      "gre": 817,
      "lo": 818,
      "offic": 819,
      "##ined": 820,
      "until": 821,
      "eff": 822,
      "feat": 823,
      "##row": 824,
      "##ople": 825,
      "##ern": 826,
      "##ject": 827,
      "##aking": 828,
      "##ange": 829,
      "##enn": 830,
      "along": 831,
      "##ism": 832,
      "because": 833,
      "school": 834,
      "own": 835,
      "##ele": 836,
      "##0s": 837,
      "##ided": 838,
      "released": 839,
      "port": 840,
      "open": 841,
      "##ccess": 842,
      "##ized": 843,
      "called": 844,
      "resp": 845,
      "prev": 846,
      "##gin": 847,
      "##ys": 848,
      "national": 849,
      "##els": 850,
      "star": 851,
      "##ists": 852,
      "wee": 853,
      "ju": 854,
      "maj": 855,
      "##aph": 856,
      "people": 857,
      "##ured": 858,
      "##stem": 859,
      "you": 860,
      "imp": 861,
      "##ially": 862,
      "bre": 863,
      "adv": 864,
      "##gg": 865,
      "class": 866,
      "million": 867,
      "##osed": 868,
      "just": 869,
      "##rol": 870,
      "cour": 871,
      "system": 872,
      "##ium": 873,
      "id": 874,
      "dep": 875,
      "british": 876,
      "##ull": 877,
      "##ution": 878,
      "ever": 879,
      "since": 880,
      "head": 881,
      "13": 882,
      "six": 883,
      "##ession": 884,
      "##end": 885,
      "##ash": 886,
      "best": 887,
      "around": 888,
      "aug": 889,
      "cor": 890,
      "award": 891,
      "major": 892,
      "ge": 893,
      "if": 894,
      "var": 895,
      "##cept": 896,
      "each": 897,
      "success": 898,
      "attack": 899,
      "##up": 900,
      "sept": 901,
      "##any": 902,
      "la": 903,
      "##ently": 904,
      "av": 905,
      "##ments": 906,
      "##ark": 907,
      "##xt": 908,
      "character": 909,
      "##ets": 910,
      "coll": 911,
      "##oot": 912,
      "use": 913,
      "september": 914,
      "describ": 915,
      "arr": 916,
      "life": 917,
      "##ene": 918,
      "start": 919,
      "august": 920,
      "##amed": 921,
      "same": 922,
      "##ible": 923,
      "road": 924,
      "tri": 925,
      "east": 926,
      "##aced": 927,
      "occ": 928,
      "##ont": 929,
      "support": 930,
      "final": 931,
      "oct": 932,
      "result": 933,
      "another": 934,
      "five": 935,
      "dem": 936,
      "hel": 937,
      "14": 938,
      "sw": 939,
      "##ired": 940,
      "km": 941,
      "ty": 942,
      "public": 943,
      "build": 944,
      "great": 945,
      "##ik": 946,
      "lit": 947,
      "##ains": 948,
      "old": 949,
      "my": 950,
      "austral": 951,
      "##aving": 952,
      "camp": 953,
      "gl": 954,
      "##eter": 955,
      "ext": 956,
      "prom": 957,
      "took": 958,
      "195": 959,
      "##cl": 960,
      "band": 961,
      "##ues": 962,
      "sk": 963,
      "german": 964,
      "book": 965,
      "line": 966,
      "area": 967,
      "mid": 968,
      "house": 969,
      "##ruct": 970,
      "rep": 971,
      "small": 972,
      "##ob": 973,
      "##ep": 974,
      "march": 975,
      "##ner": 976,
      "report": 977,
      "consid": 978,
      "193": 979,
      "##ove": 980,
      "ra": 981,
      "century": 982,
      "##ober": 983,
      "turn": 984,
      "##urch": 985,
      "received": 986,
      "##und": 987,
      "october": 988,
      "chr": 989,
      "stre": 990,
      "##uss": 991,
      "##ble": 992,
      "univers": 993,
      "##ger": 994,
      "##ants": 995,
      "##ically": 996,
      "##ives": 997,
      "##ead": 998,
      "191": 999,
      "##thern": 1000,
      "what": 1001,
      "games": 1002,
      "due": 1003,
      "short": 1004,
      "partic": 1005,
      "last": 1006,
      "government": 1007,
      "##ison": 1008,
      "##app": 1009,
      "hal": 1010,
      "##ins": 1011,
      "rest": 1012,
      "vers": 1013,
      "##ately": 1014,
      "##ility": 1015,
      "##aining": 1016,
      "ent": 1017,
      "ke": 1018,
      "command": 1019,
      "match": 1020,
      "##ored": 1021,
      "##ina": 1022,
      "eu": 1023,
      "way": 1024,
      "##ians": 1025,
      "##ink": 1026,
      "june": 1027,
      "##tle": 1028,
      "home": 1029,
      "##oss": 1030,
      "mag": 1031,
      "jan": 1032,
      "mark": 1033,
      "single": 1034,
      "third": 1035,
      "prot": 1036,
      "del": 1037,
      "general": 1038,
      "squ": 1039,
      "july": 1040,
      "child": 1041,
      "leg": 1042,
      "tit": 1043,
      "##ission": 1044,
      "##iving": 1045,
      "november": 1046,
      "##inc": 1047,
      "men": 1048,
      "apr": 1049,
      "death": 1050,
      "much": 1051,
      "review": 1052,
      "island": 1053,
      "event": 1054,
      "track": 1055,
      "york": 1056,
      "reach": 1057,
      "##ute": 1058,
      "##lish": 1059,
      "care": 1060,
      "april": 1061,
      "fur": 1062,
      "differ": 1063,
      "##raft": 1064,
      "dam": 1065,
      "large": 1066,
      "##uary": 1067,
      "power": 1068,
      "top": 1069,
      "accord": 1070,
      "even": 1071,
      "left": 1072,
      "town": 1073,
      "##ogr": 1074,
      "soc": 1075,
      "person": 1076,
      "##ural": 1077,
      "##sc": 1078,
      "allow": 1079,
      "##ling": 1080,
      "cast": 1081,
      "gun": 1082,
      "##ively": 1083,
      "vide": 1084,
      "##ench": 1085,
      "conv": 1086,
      "##res": 1087,
      "30": 1088,
      "month": 1089,
      "##aim": 1090,
      "##bo": 1091,
      "##ert": 1092,
      "##idge": 1093,
      "##ilt": 1094,
      "kill": 1095,
      "story": 1096,
      "appro": 1097,
      "intern": 1098,
      "progr": 1099,
      "based": 1100,
      "vis": 1101,
      "##ats": 1102,
      "family": 1103,
      "place": 1104,
      "cur": 1105,
      "##ague": 1106,
      "now": 1107,
      "##ms": 1108,
      "vict": 1109,
      "cal": 1110,
      "incre": 1111,
      "spe": 1112,
      "park": 1113,
      "black": 1114,
      "##ified": 1115,
      "right": 1116,
      "expl": 1117,
      "##over": 1118,
      "law": 1119,
      "company": 1120,
      "army": 1121,
      "##ales": 1122,
      "##avy": 1123,
      "ele": 1124,
      "##empt": 1125,
      "enter": 1126,
      "conf": 1127,
      "december": 1128,
      "25": 1129,
      "played": 1130,
      "club": 1131,
      "##enc": 1132,
      "addition": 1133,
      "storm": 1134,
      "according": 1135,
      "far": 1136,
      "river": 1137,
      "included": 1138,
      "##by": 1139,
      "name": 1140,
      "post": 1141,
      "##ps": 1142,
      "##..": 1143,
      "led": 1144,
      "battle": 1145,
      "##rote": 1146,
      "january": 1147,
      "water": 1148,
      "##erg": 1149,
      "##ention": 1150,
      "##ient": 1151,
      "##bert": 1152,
      "192": 1153,
      "hand": 1154,
      "##ime": 1155,
      "##aged": 1156,
      "wind": 1157,
      "##apan": 1158,
      "##ball": 1159,
      "##side": 1160,
      "##ograph": 1161,
      "##ll": 1162,
      "wrote": 1163,
      "wom": 1164,
      "won": 1165,
      "ang": 1166,
      "ii": 1167,
      "##ared": 1168,
      "hum": 1169,
      "##ven": 1170,
      "##ony": 1171,
      "japan": 1172,
      "ant": 1173,
      "times": 1174,
      "##min": 1175,
      "##ages": 1176,
      "val": 1177,
      "organ": 1178,
      "opp": 1179,
      "pat": 1180,
      "##ience": 1181,
      "...": 1182,
      "previous": 1183,
      "requ": 1184,
      "within": 1185,
      "##ract": 1186,
      "##ody": 1187,
      "make": 1188,
      "described": 1189,
      "##br": 1190,
      "init": 1191,
      "##ital": 1192,
      "##med": 1193,
      "##sh": 1194,
      "those": 1195,
      "rad": 1196,
      "still": 1197,
      "euro": 1198,
      "control": 1199,
      "bill": 1200,
      "champ": 1201,
      "##ott": 1202,
      "video": 1203,
      "next": 1204,
      "late": 1205,
      "named": 1206,
      "memb": 1207,
      "stand": 1208,
      "##ides": 1209,
      "##omin": 1210,
      "belie": 1211,
      "bus": 1212,
      "##erv": 1213,
      "among": 1214,
      "original": 1215,
      "further": 1216,
      "attempt": 1217,
      "##por": 1218,
      "##aff": 1219,
      "##ister": 1220,
      "repl": 1221,
      "rou": 1222,
      "##iven": 1223,
      "##na": 1224,
      "##ilar": 1225,
      "very": 1226,
      "league": 1227,
      "effect": 1228,
      "release": 1229,
      "##ech": 1230,
      "force": 1231,
      "though": 1232,
      "dest": 1233,
      "view": 1234,
      "##ne": 1235,
      "poss": 1236,
      "foot": 1237,
      "iss": 1238,
      "##ature": 1239,
      "##iod": 1240,
      "##ested": 1241,
      "##bru": 1242,
      "bas": 1243,
      "real": 1244,
      "100": 1245,
      "##ior": 1246,
      "list": 1247,
      "cy": 1248,
      "exper": 1249,
      "commun": 1250,
      "species": 1251,
      "members": 1252,
      "##mer": 1253,
      "deb": 1254,
      "##itions": 1255,
      "##ret": 1256,
      "sound": 1257,
      "polit": 1258,
      "##ival": 1259,
      "inf": 1260,
      "##ren": 1261,
      "former": 1262,
      "milit": 1263,
      "auth": 1264,
      "ref": 1265,
      "christ": 1266,
      "history": 1267,
      "##atter": 1268,
      "febru": 1269,
      "february": 1270,
      "tak": 1271,
      "##pend": 1272,
      "similar": 1273,
      "infl": 1274,
      "white": 1275,
      "mich": 1276,
      "fle": 1277,
      "elect": 1278,
      "sold": 1279,
      "period": 1280,
      "tele": 1281,
      "tour": 1282,
      "##ances": 1283,
      "repr": 1284,
      "division": 1285,
      "days": 1286,
      "built": 1287,
      "route": 1288,
      "sol": 1289,
      "tem": 1290,
      "roy": 1291,
      "super": 1292,
      "side": 1293,
      "plan": 1294,
      "##ences": 1295,
      "held": 1296,
      "##augh": 1297,
      "europe": 1298,
      "youn": 1299,
      "##ler": 1300,
      "university": 1301,
      "##thing": 1302,
      "rock": 1303,
      "##ness": 1304,
      "##ented": 1305,
      "good": 1306,
      "beh": 1307,
      "point": 1308,
      "french": 1309,
      "arch": 1310,
      "light": 1311,
      "cle": 1312,
      "church": 1313,
      "say": 1314,
      "president": 1315,
      "pa": 1316,
      "service": 1317,
      "local": 1318,
      "estab": 1319,
      "desp": 1320,
      "role": 1321,
      "help": 1322,
      "##ney": 1323,
      "##wards": 1324,
      "equ": 1325,
      "21": 1326,
      "##tended": 1327,
      "order": 1328,
      "##itch": 1329,
      "fre": 1330,
      "2010": 1331,
      "##oci": 1332,
      "came": 1333,
      "##ropical": 1334,
      "coun": 1335,
      "every": 1336,
      "tot": 1337,
      "eas": 1338,
      "##ense": 1339,
      "cross": 1340,
      "having": 1341,
      "det": 1342,
      "never": 1343,
      "week": 1344,
      "caus": 1345,
      "william": 1346,
      "mor": 1347,
      "##ipp": 1348,
      "begin": 1349,
      "few": 1350,
      "sum": 1351,
      "##ford": 1352,
      "##uted": 1353,
      "##line": 1354,
      "##ulation": 1355,
      "mount": 1356,
      "associ": 1357,
      "player": 1358,
      "##ax": 1359,
      "prof": 1360,
      "prop": 1361,
      "see": 1362,
      "often": 1363,
      "common": 1364,
      "##par": 1365,
      "production": 1366,
      "take": 1367,
      "24": 1368,
      "half": 1369,
      "##ices": 1370,
      "hur": 1371,
      "##ards": 1372,
      "##atic": 1373,
      "je": 1374,
      "mo": 1375,
      "2008": 1376,
      "continued": 1377,
      "##ened": 1378,
      "geor": 1379,
      "low": 1380,
      "2009": 1381,
      "##ese": 1382,
      "career": 1383,
      "##ength": 1384,
      "claim": 1385,
      "pri": 1386,
      "histor": 1387,
      "chart": 1388,
      "sty": 1389,
      "level": 1390,
      "##ator": 1391,
      "sent": 1392,
      "fire": 1393,
      "press": 1394,
      "different": 1395,
      "without": 1396,
      "##thers": 1397,
      "2011": 1398,
      "##omb": 1399,
      "fun": 1400,
      "##ck": 1401,
      "##estern": 1402,
      "despite": 1403,
      "##ption": 1404,
      "##ars": 1405,
      "cover": 1406,
      "##ots": 1407,
      "england": 1408,
      "##ying": 1409,
      "rom": 1410,
      "less": 1411,
      "##ology": 1412,
      "court": 1413,
      "##ests": 1414,
      "22": 1415,
      "considered": 1416,
      "##read": 1417,
      "##af": 1418,
      "##ruction": 1419,
      "comb": 1420,
      "party": 1421,
      "stat": 1422,
      "##ried": 1423,
      "##omet": 1424,
      "##erc": 1425,
      "ten": 1426,
      "dav": 1427,
      "##ops": 1428,
      "fact": 1429,
      "field": 1430,
      "##ves": 1431,
      "##iend": 1432,
      "repres": 1433,
      "##aster": 1434,
      "night": 1435,
      "country": 1436,
      "don": 1437,
      "2007": 1438,
      "tre": 1439,
      "county": 1440,
      "##ush": 1441,
      "tro": 1442,
      "champions": 1443,
      "##con": 1444,
      "songs": 1445,
      "friend": 1446,
      "royal": 1447,
      "development": 1448,
      "##amm": 1449,
      "hy": 1450,
      "##ones": 1451,
      "colle": 1452,
      "english": 1453,
      "military": 1454,
      "moved": 1455,
      "##ring": 1456,
      "highway": 1457,
      "influ": 1458,
      "##essed": 1459,
      "written": 1460,
      "version": 1461,
      "want": 1462,
      "position": 1463,
      "trad": 1464,
      "strong": 1465,
      "##vision": 1466,
      "become": 1467,
      "ve": 1468,
      "lim": 1469,
      "forces": 1470,
      "little": 1471,
      "##alk": 1472,
      "mi": 1473,
      "vol": 1474,
      "chang": 1475,
      "##rodu": 1476,
      "lost": 1477,
      "anim": 1478,
      "defe": 1479,
      "2012": 1480,
      "23": 1481,
      "bur": 1482,
      "lond": 1483,
      "##ize": 1484,
      "building": 1485,
      "son": 1486,
      "tropical": 1487,
      "##ches": 1488,
      "given": 1489,
      "london": 1490,
      "miss": 1491,
      "total": 1492,
      "sugg": 1493,
      "invol": 1494,
      "author": 1495,
      "##elt": 1496,
      "##let": 1497,
      "ord": 1498,
      "##craft": 1499,
      "international": 1500,
      "refer": 1501,
      "vir": 1502,
      "announ": 1503,
      "phil": 1504,
      "##ae": 1505,
      "pur": 1506,
      "190": 1507,
      "ru": 1508,
      "hour": 1509,
      "lab": 1510,
      "##ai": 1511,
      "read": 1512,
      "free": 1513,
      "street": 1514,
      "##ald": 1515,
      "project": 1516,
      "##eder": 1517,
      "##ising": 1518,
      "young": 1519,
      "import": 1520,
      "sel": 1521,
      "##iety": 1522,
      "eight": 1523,
      "##sequ": 1524,
      "aff": 1525,
      "canad": 1526,
      "rail": 1527,
      "get": 1528,
      "gold": 1529,
      "ly": 1530,
      "sal": 1531,
      "gave": 1532,
      "earl": 1533,
      "##irc": 1534,
      "sit": 1535,
      "station": 1536,
      "went": 1537,
      "##bs": 1538,
      "performance": 1539,
      "find": 1540,
      "vi": 1541,
      "cop": 1542,
      "returned": 1543,
      "using": 1544,
      "##ailed": 1545,
      "##que": 1546,
      "need": 1547,
      "broad": 1548,
      "jack": 1549,
      "published": 1550,
      "coast": 1551,
      "produced": 1552,
      "hit": 1553,
      "##ham": 1554,
      "conn": 1555,
      "western": 1556,
      "capt": 1557,
      "compet": 1558,
      "arg": 1559,
      "reported": 1560,
      "##xim": 1561,
      "trav": 1562,
      "hun": 1563,
      "popular": 1564,
      "let": 1565,
      "##ably": 1566,
      "particular": 1567,
      "recorded": 1568,
      "mass": 1569,
      "children": 1570,
      "television": 1571,
      "larg": 1572,
      "##self": 1573,
      "ins": 1574,
      "stated": 1575,
      "##ories": 1576,
      "aircraft": 1577,
      "du": 1578,
      "##aign": 1579,
      "special": 1580,
      "inde": 1581,
      "ships": 1582,
      "##ensive": 1583,
      "##oph": 1584,
      "##ency": 1585,
      "father": 1586,
      "ground": 1587,
      "2006": 1588,
      "campaign": 1589,
      "dev": 1590,
      "##ged": 1591,
      "should": 1592,
      "circ": 1593,
      "##ama": 1594,
      "include": 1595,
      "too": 1596,
      "##yl": 1597,
      "making": 1598,
      "##echn": 1599,
      "##cer": 1600,
      "rich": 1601,
      "ide": 1602,
      "live": 1603,
      "##ple": 1604,
      "critic": 1605,
      "##ington": 1606,
      "cult": 1607,
      "love": 1608,
      "dou": 1609,
      "hom": 1610,
      "27": 1611,
      "age": 1612,
      "vo": 1613,
      "##ief": 1614,
      "front": 1615,
      "hurric": 1616,
      "destro": 1617,
      "women": 1618,
      "28": 1619,
      "##day": 1620,
      "central": 1621,
      "throughout": 1622,
      "##used": 1623,
      "upon": 1624,
      "prim": 1625,
      "##ett": 1626,
      "##ints": 1627,
      "50": 1628,
      "##iment": 1629,
      "region": 1630,
      "once": 1631,
      "cer": 1632,
      "##ploy": 1633,
      "##iness": 1634,
      "suff": 1635,
      "test": 1636,
      "sen": 1637,
      "##co": 1638,
      "himself": 1639,
      "wr": 1640,
      "official": 1641,
      "australia": 1642,
      "##ky": 1643,
      "##mit": 1644,
      "championship": 1645,
      "depart": 1646,
      "##cess": 1647,
      "2013": 1648,
      "##ef": 1649,
      "mot": 1650,
      "wall": 1651,
      "techn": 1652,
      "characters": 1653,
      "aud": 1654,
      "##ned": 1655,
      "ball": 1656,
      "##alth": 1657,
      "vill": 1658,
      "fav": 1659,
      "sea": 1660,
      "26": 1661,
      "present": 1662,
      "##rew": 1663,
      "ft": 1664,
      "squad": 1665,
      "40": 1666,
      "##itive": 1667,
      "players": 1668,
      "##vers": 1669,
      "relations": 1670,
      "##play": 1671,
      "mad": 1672,
      "tur": 1673,
      "instead": 1674,
      "cas": 1675,
      "fall": 1676,
      "##ges": 1677,
      "commit": 1678,
      "southern": 1679,
      "title": 1680,
      "base": 1681,
      "##raw": 1682,
      "##akes": 1683,
      "seven": 1684,
      "obs": 1685,
      "away": 1686,
      "james": 1687,
      "writing": 1688,
      "cost": 1689,
      "hor": 1690,
      "across": 1691,
      "center": 1692,
      "hall": 1693,
      "fem": 1694,
      "189": 1695,
      "##ape": 1696,
      "remained": 1697,
      "died": 1698,
      "ir": 1699,
      "introdu": 1700,
      "months": 1701,
      "##ams": 1702,
      "developed": 1703,
      "signific": 1704,
      "enc": 1705,
      "fort": 1706,
      "cam": 1707,
      "full": 1708,
      "political": 1709,
      "cond": 1710,
      "look": 1711,
      "grand": 1712,
      "various": 1713,
      "occur": 1714,
      "##lo": 1715,
      "##wh": 1716,
      "manag": 1717,
      "##unch": 1718,
      "fac": 1719,
      "ap": 1720,
      "##ument": 1721,
      "fif": 1722,
      "wood": 1723,
      "hurricane": 1724,
      "pal": 1725,
      "promot": 1726,
      "hill": 1727,
      "##get": 1728,
      "##utes": 1729,
      "##ither": 1730,
      "put": 1731,
      "hot": 1732,
      "##gether": 1733,
      "##fic": 1734,
      "aver": 1735,
      "modern": 1736,
      "pra": 1737,
      "##acy": 1738,
      "hon": 1739,
      "fight": 1740,
      "##field": 1741,
      "##ering": 1742,
      "decl": 1743,
      "##ration": 1744,
      "ill": 1745,
      "office": 1746,
      "##isted": 1747,
      "##ries": 1748,
      "##ille": 1749,
      "big": 1750,
      "race": 1751,
      "bow": 1752,
      "##inted": 1753,
      "hard": 1754,
      "works": 1755,
      "##ked": 1756,
      "##ael": 1757,
      "felt": 1758,
      "areas": 1759,
      "san": 1760,
      "mal": 1761,
      "sil": 1762,
      "noted": 1763,
      "indust": 1764,
      "america": 1765,
      "eventually": 1766,
      "russ": 1767,
      "born": 1768,
      "announced": 1769,
      "created": 1770,
      "miles": 1771,
      "style": 1772,
      "reached": 1773,
      "cro": 1774,
      "college": 1775,
      "hop": 1776,
      "destroy": 1777,
      "##dom": 1778,
      "japanese": 1779,
      "mer": 1780,
      "stri": 1781,
      "engine": 1782,
      "bri": 1783,
      "successful": 1784,
      "northern": 1785,
      "sun": 1786,
      "non": 1787,
      "hold": 1788,
      "##most": 1789,
      "nat": 1790,
      "body": 1791,
      "seen": 1792,
      "29": 1793,
      "pain": 1794,
      "heavy": 1795,
      "sym": 1796,
      "mc": 1797,
      "2005": 1798,
      "agre": 1799,
      "followed": 1800,
      "range": 1801,
      "together": 1802,
      "meet": 1803,
      "##ements": 1804,
      "##ee": 1805,
      "mem": 1806,
      "performed": 1807,
      "##orts": 1808,
      "rh": 1809,
      "##ress": 1810,
      "##ization": 1811,
      "served": 1812,
      "civ": 1813,
      "brown": 1814,
      "##iting": 1815,
      "##ality": 1816,
      "member": 1817,
      "struct": 1818,
      "sn": 1819,
      "construction": 1820,
      "##work": 1821,
      "bridge": 1822,
      "##ows": 1823,
      "##ana": 1824,
      "##elling": 1825,
      "activ": 1826,
      "george": 1827,
      "cut": 1828,
      "hen": 1829,
      "ho": 1830,
      "mur": 1831,
      "mix": 1832,
      "football": 1833,
      "##enth": 1834,
      "curr": 1835,
      "2014": 1836,
      "killed": 1837,
      "god": 1838,
      "##ug": 1839,
      "tor": 1840,
      "mm": 1841,
      "significant": 1842,
      "hol": 1843,
      "##iction": 1844,
      "##idence": 1845,
      "round": 1846,
      "able": 1847,
      "saw": 1848,
      "taken": 1849,
      "esc": 1850,
      "##ids": 1851,
      "bomb": 1852,
      "impro": 1853,
      "ident": 1854,
      "##cent": 1855,
      "##me": 1856,
      "becom": 1857,
      "##lished": 1858,
      "action": 1859,
      "sat": 1860,
      "reb": 1861,
      "##olution": 1862,
      "points": 1863,
      "los": 1864,
      "que": 1865,
      "human": 1866,
      "does": 1867,
      "wash": 1868,
      "thought": 1869,
      "mean": 1870,
      "##ecut": 1871,
      "established": 1872,
      "originally": 1873,
      "gar": 1874,
      "thom": 1875,
      "australian": 1876,
      "subsequ": 1877,
      "grow": 1878,
      "others": 1879,
      "##aval": 1880,
      "##enced": 1881,
      "##irl": 1882,
      "pi": 1883,
      "entire": 1884,
      "appeared": 1885,
      "insp": 1886,
      "located": 1887,
      "##rict": 1888,
      "david": 1889,
      "director": 1890,
      "surv": 1891,
      "features": 1892,
      "##be": 1893,
      "##anch": 1894,
      "voc": 1895,
      "crew": 1896,
      "process": 1897,
      "##oon": 1898,
      "##ox": 1899,
      "commission": 1900,
      "business": 1901,
      "##bur": 1902,
      "started": 1903,
      "stage": 1904,
      "pot": 1905,
      "playing": 1906,
      "expr": 1907,
      "caused": 1908,
      "##aves": 1909,
      "den": 1910,
      "decided": 1911,
      "afric": 1912,
      "##ray": 1913,
      "critics": 1914,
      "##ects": 1915,
      "civil": 1916,
      "##yn": 1917,
      "##gar": 1918,
      "kingdom": 1919,
      "word": 1920,
      "feet": 1921,
      "rather": 1922,
      "rank": 1923,
      "##ators": 1924,
      "fourth": 1925,
      "##ript": 1926,
      "whe": 1927,
      "##odes": 1928,
      "mater": 1929,
      "fell": 1930,
      "ur": 1931,
      "##aur": 1932,
      "##ament": 1933,
      "##arch": 1934,
      "##ells": 1935,
      "econ": 1936,
      "inform": 1937,
      "##ius": 1938,
      "behind": 1939,
      "independ": 1940,
      "edu": 1941,
      "formed": 1942,
      "econom": 1943,
      "##ara": 1944,
      "site": 1945,
      "discover": 1946,
      "represent": 1947,
      "added": 1948,
      "magaz": 1949,
      "resear": 1950,
      "##cil": 1951,
      "ital": 1952,
      "fleet": 1953,
      "##ogn": 1954,
      "case": 1955,
      "important": 1956,
      "research": 1957,
      "invest": 1958,
      "soon": 1959,
      "31": 1960,
      "##ani": 1961,
      "ham": 1962,
      "pred": 1963,
      "##ample": 1964,
      "##reek": 1965,
      "188": 1966,
      "comment": 1967,
      "##ivid": 1968,
      "##ateg": 1969,
      "##den": 1970,
      "##emy": 1971,
      "know": 1972,
      "##esh": 1973,
      "jud": 1974,
      "##wood": 1975,
      "eastern": 1976,
      "guns": 1977,
      "mart": 1978,
      "damage": 1979,
      "##iers": 1980,
      "completed": 1981,
      "bi": 1982,
      "almost": 1983,
      "##eal": 1984,
      "sex": 1985,
      "mult": 1986,
      "green": 1987,
      "educ": 1988,
      "peak": 1989,
      "##dle": 1990,
      "##oth": 1991,
      "inj": 1992,
      "population": 1993,
      "##ata": 1994,
      "neg": 1995,
      "##aces": 1996,
      "close": 1997,
      "##aps": 1998,
      "tom": 1999,
      "interv": 2000,
      "lang": 2001,
      "indian": 2002,
      "##less": 2003,
      "pen": 2004,
      "initially": 2005,
      "key": 2006,
      "##ination": 2007,
      "jour": 2008,
      "mother": 2009,
      "treat": 2010,
      "loss": 2011,
      "##oney": 2012,
      "##ways": 2013,
      "##itar": 2014,
      "opened": 2015,
      "scre": 2016,
      "lack": 2017,
      "creat": 2018,
      "awards": 2019,
      "princ": 2020,
      "##ki": 2021,
      "host": 2022,
      "cup": 2023,
      "social": 2024,
      "pract": 2025,
      "proble": 2026,
      "michael": 2027,
      "2004": 2028,
      "typ": 2029,
      "##ino": 2030,
      "girl": 2031,
      "relationship": 2032,
      "individ": 2033,
      "##ew": 2034,
      "ul": 2035,
      "##ceed": 2036,
      "##to": 2037,
      "##omm": 2038,
      "186": 2039,
      "##rick": 2040,
      "fund": 2041,
      "nar": 2042,
      "##lin": 2043,
      "leading": 2044,
      "aut": 2045,
      "##su": 2046,
      "weeks": 2047,
      "net": 2048,
      "radio": 2049,
      "tradition": 2050,
      "separ": 2051,
      "##go": 2052,
      "working": 2053,
      "bay": 2054,
      "clos": 2055,
      "worked": 2056,
      "sus": 2057,
      "##cast": 2058,
      "diffic": 2059,
      "difficult": 2060,
      "sam": 2061,
      "##ship": 2062,
      "secret": 2063,
      "towards": 2064,
      "##ped": 2065,
      "recording": 2066,
      "appo": 2067,
      "##medi": 2068,
      "2015": 2069,
      "lou": 2070,
      "prem": 2071,
      "approach": 2072,
      "bal": 2073,
      "france": 2074,
      "council": 2075,
      "##umb": 2076,
      "##istic": 2077,
      "union": 2078,
      "scene": 2079,
      "sour": 2080,
      "rain": 2081,
      "er": 2082,
      "##imes": 2083,
      "wid": 2084,
      "mel": 2085,
      "goal": 2086,
      "##asing": 2087,
      "##ster": 2088,
      "republ": 2089,
      "##asion": 2090,
      "room": 2091,
      "henry": 2092,
      "##igned": 2093,
      "quick": 2094,
      "mac": 2095,
      "reve": 2096,
      "norm": 2097,
      "##head": 2098,
      "break": 2099,
      "##ena": 2100,
      "material": 2101,
      "##ica": 2102,
      "accept": 2103,
      "robert": 2104,
      "records": 2105,
      "navy": 2106,
      "vot": 2107,
      "grad": 2108,
      "earth": 2109,
      "training": 2110,
      "least": 2111,
      "scored": 2112,
      "provided": 2113,
      "angel": 2114,
      "wanted": 2115,
      "must": 2116,
      "ey": 2117,
      "rob": 2118,
      "di": 2119,
      "troops": 2120,
      "fig": 2121,
      "500": 2122,
      "brought": 2123,
      "average": 2124,
      "##oring": 2125,
      "ach": 2126,
      "dut": 2127,
      "##board": 2128,
      "recogn": 2129,
      "featured": 2130,
      "##iding": 2131,
      "brig": 2132,
      "either": 2133,
      "cru": 2134,
      "quar": 2135,
      "redu": 2136,
      "interest": 2137,
      "paul": 2138,
      "foc": 2139,
      "proper": 2140,
      "allowed": 2141,
      "nomin": 2142,
      "tar": 2143,
      "##uck": 2144,
      "launch": 2145,
      "past": 2146,
      "estim": 2147,
      "187": 2148,
      "ale": 2149,
      "##ential": 2150,
      "contract": 2151,
      "##ological": 2152,
      "wife": 2153,
      "feder": 2154,
      "victory": 2155,
      "respect": 2156,
      "fut": 2157,
      "colon": 2158,
      "studio": 2159,
      "rap": 2160,
      "placed": 2161,
      "generally": 2162,
      "inn": 2163,
      "fa": 2164,
      "captain": 2165,
      "avail": 2166,
      "washington": 2167,
      "watch": 2168,
      "cho": 2169,
      "priv": 2170,
      "rul": 2171,
      "exc": 2172,
      "phys": 2173,
      "runs": 2174,
      "example": 2175,
      "dark": 2176,
      "events": 2177,
      "##ico": 2178,
      "magazine": 2179,
      "pet": 2180,
      "##osp": 2181,
      "chief": 2182,
      "##ma": 2183,
      "der": 2184,
      "mat": 2185,
      "republic": 2186,
      "battal": 2187,
      "board": 2188,
      "##li": 2189,
      "summer": 2190,
      "##antic": 2191,
      "##duct": 2192,
      "staff": 2193,
      "wil": 2194,
      "ver": 2195,
      "stru": 2196,
      "joined": 2197,
      "designed": 2198,
      "##gn": 2199,
      "##uel": 2200,
      "squadron": 2201,
      "##ground": 2202,
      "particip": 2203,
      "##aper": 2204,
      "dro": 2205,
      "##ville": 2206,
      "##ming": 2207,
      "hours": 2208,
      "##ze": 2209,
      "2003": 2210,
      "surf": 2211,
      "pan": 2212,
      "regular": 2213,
      "employ": 2214,
      "middle": 2215,
      "speed": 2216,
      "nine": 2217,
      "shot": 2218,
      "operation": 2219,
      "35": 2220,
      "threat": 2221,
      "opening": 2222,
      "##mp": 2223,
      "esp": 2224,
      "##iff": 2225,
      "believed": 2226,
      "come": 2227,
      "regard": 2228,
      "length": 2229,
      "media": 2230,
      "##tim": 2231,
      "##anks": 2232,
      "ber": 2233,
      "##ving": 2234,
      "cycl": 2235,
      "ox": 2236,
      "bir": 2237,
      "mary": 2238,
      "flight": 2239,
      "##erous": 2240,
      "##ka": 2241,
      "replaced": 2242,
      "mph": 2243,
      "winds": 2244,
      "prior": 2245,
      "##aut": 2246,
      "scen": 2247,
      "relig": 2248,
      "infant": 2249,
      "pay": 2250,
      "stone": 2251,
      "quest": 2252,
      "deter": 2253,
      "##her": 2254,
      "involved": 2255,
      "##imin": 2256,
      "stop": 2257,
      "police": 2258,
      "fish": 2259,
      "mcc": 2260,
      "european": 2261,
      "langu": 2262,
      "earlier": 2263,
      "##osition": 2264,
      "##west": 2265,
      "minutes": 2266,
      "##fall": 2267,
      "finished": 2268,
      "conduct": 2269,
      "society": 2270,
      "news": 2271,
      "##off": 2272,
      "saying": 2273,
      "contrib": 2274,
      "##ening": 2275,
      "immedi": 2276,
      "sequ": 2277,
      "possible": 2278,
      "##ago": 2279,
      "pil": 2280,
      "lu": 2281,
      "##etic": 2282,
      "depr": 2283,
      "indic": 2284,
      "change": 2285,
      "transport": 2286,
      "ny": 2287,
      "trib": 2288,
      "##erson": 2289,
      "cred": 2290,
      "keep": 2291,
      "space": 2292,
      "association": 2293,
      "remov": 2294,
      "largest": 2295,
      "highest": 2296,
      "particularly": 2297,
      "beginning": 2298,
      "boy": 2299,
      "scott": 2300,
      "fly": 2301,
      "##for": 2302,
      "bad": 2303,
      "films": 2304,
      "commerc": 2305,
      "exist": 2306,
      "lower": 2307,
      "plat": 2308,
      "atl": 2309,
      "es": 2310,
      "##omp": 2311,
      "##ems": 2312,
      "##ecutive": 2313,
      "available": 2314,
      "uk": 2315,
      "##ification": 2316,
      "virgin": 2317,
      "##men": 2318,
      "##anish": 2319,
      "adm": 2320,
      "admin": 2321,
      "piec": 2322,
      "percent": 2323,
      "##icle": 2324,
      "2000": 2325,
      "respons": 2326,
      "forced": 2327,
      "better": 2328,
      "section": 2329,
      "assist": 2330,
      "flor": 2331,
      "##east": 2332,
      "weak": 2333,
      "deal": 2334,
      "roman": 2335,
      "achie": 2336,
      "2001": 2337,
      "outside": 2338,
      "##anned": 2339,
      "taking": 2340,
      "##eth": 2341,
      "lear": 2342,
      "##ula": 2343,
      "program": 2344,
      "meas": 2345,
      "disp": 2346,
      "##sel": 2347,
      "novel": 2348,
      "anti": 2349,
      "##reg": 2350,
      "committe": 2351,
      "heart": 2352,
      "grant": 2353,
      "charles": 2354,
      "thomas": 2355,
      "turned": 2356,
      "increased": 2357,
      "ended": 2358,
      "##ades": 2359,
      "##hib": 2360,
      "reason": 2361,
      "units": 2362,
      "clear": 2363,
      "##itz": 2364,
      "##bor": 2365,
      "feel": 2366,
      "smith": 2367,
      "community": 2368,
      "calif": 2369,
      "##ises": 2370,
      "nin": 2371,
      "##ases": 2372,
      "acad": 2373,
      "passed": 2374,
      "praised": 2375,
      "reviews": 2376,
      "hous": 2377,
      "californ": 2378,
      "somet": 2379,
      "##wer": 2380,
      "move": 2381,
      "##ography": 2382,
      "##key": 2383,
      "going": 2384,
      "##tr": 2385,
      "product": 2386,
      "beat": 2387,
      "above": 2388,
      "emp": 2389,
      "appearance": 2390,
      "tex": 2391,
      "future": 2392,
      "##gen": 2393,
      "##ios": 2394,
      "thus": 2395,
      "ath": 2396,
      "additional": 2397,
      "phot": 2398,
      "bird": 2399,
      "##ocr": 2400,
      "##iation": 2401,
      "2002": 2402,
      "guitar": 2403,
      "##ude": 2404,
      "##of": 2405,
      "##itor": 2406,
      "lik": 2407,
      "##aded": 2408,
      "daugh": 2409,
      "##oke": 2410,
      "enough": 2411,
      "coach": 2412,
      "castle": 2413,
      "infantry": 2414,
      "liter": 2415,
      "##ership": 2416,
      "ordered": 2417,
      "lake": 2418,
      "type": 2419,
      "previously": 2420,
      "brother": 2421,
      "canada": 2422,
      "##gress": 2423,
      "##arily": 2424,
      "signed": 2425,
      "account": 2426,
      "musical": 2427,
      "minor": 2428,
      "territ": 2429,
      "##rison": 2430,
      "richard": 2431,
      "shar": 2432,
      "market": 2433,
      "doc": 2434,
      "elements": 2435,
      "alex": 2436,
      "rights": 2437,
      "##pped": 2438,
      "ren": 2439,
      "instit": 2440,
      "theat": 2441,
      "dig": 2442,
      "california": 2443,
      "##elled": 2444,
      "##nes": 2445,
      "##aled": 2446,
      "positive": 2447,
      "lat": 2448,
      "viol": 2449,
      "##agon": 2450,
      "corn": 2451,
      "prob": 2452,
      "nec": 2453,
      "dead": 2454,
      "##nal": 2455,
      "parts": 2456,
      "our": 2457,
      "food": 2458,
      "##ference": 2459,
      "abs": 2460,
      "pac": 2461,
      "lord": 2462,
      "##ida": 2463,
      "give": 2464,
      "##pper": 2465,
      "lines": 2466,
      "money": 2467,
      "travel": 2468,
      "profession": 2469,
      "female": 2470,
      "##rated": 2471,
      "spent": 2472,
      "poor": 2473,
      "overall": 2474,
      "impr": 2475,
      "fer": 2476,
      "told": 2477,
      "pow": 2478,
      "personal": 2479,
      "##kn": 2480,
      "##ilities": 2481,
      "mach": 2482,
      "directed": 2483,
      "wat": 2484,
      "scient": 2485,
      "flood": 2486,
      "ps": 2487,
      "##ga": 2488,
      "committee": 2489,
      "##berg": 2490,
      "##back": 2491,
      "##uation": 2492,
      "victor": 2493,
      "45": 2494,
      "deep": 2495,
      "cath": 2496,
      "failed": 2497,
      "interview": 2498,
      "blue": 2499,
      "##uter": 2500,
      "##usion": 2501,
      "domin": 2502,
      "required": 2503,
      "##ections": 2504,
      "roll": 2505,
      "tax": 2506,
      "debut": 2507,
      "groups": 2508,
      "chap": 2509,
      "germany": 2510,
      "happ": 2511,
      "square": 2512,
      "kil": 2513,
      "##ension": 2514,
      "broadcast": 2515,
      "district": 2516,
      "##bers": 2517,
      "term": 2518,
      "env": 2519,
      "##ston": 2520,
      "itself": 2521,
      "health": 2522,
      "unc": 2523,
      "anal": 2524,
      "constit": 2525,
      "peter": 2526,
      "evidence": 2527,
      "christian": 2528,
      "india": 2529,
      "sometimes": 2530,
      "##isl": 2531,
      "##thod": 2532,
      "battalion": 2533,
      "frank": 2534,
      "object": 2535,
      "wal": 2536,
      "60": 2537,
      "hu": 2538,
      "##mar": 2539,
      "prison": 2540,
      "##ibility": 2541,
      "election": 2542,
      "investig": 2543,
      "asked": 2544,
      "bank": 2545,
      "transfer": 2546,
      "occup": 2547,
      "185": 2548,
      "##ready": 2549,
      "##ume": 2550,
      "except": 2551,
      "defend": 2552,
      "##erved": 2553,
      "parl": 2554,
      "##stand": 2555,
      "strength": 2556,
      "##ability": 2557,
      "living": 2558,
      "##edy": 2559,
      "critical": 2560,
      "##ique": 2561,
      "##ays": 2562,
      "sov": 2563,
      "whose": 2564,
      "mex": 2565,
      "##cing": 2566,
      "commercial": 2567,
      "##aker": 2568,
      "appl": 2569,
      "doct": 2570,
      "##eign": 2571,
      "natural": 2572,
      "ha": 2573,
      "study": 2574,
      "##ream": 2575,
      "already": 2576,
      "##airs": 2577,
      "complete": 2578,
      "claimed": 2579,
      "governor": 2580,
      "react": 2581,
      "approxim": 2582,
      "score": 2583,
      "##ii": 2584,
      "clim": 2585,
      "muse": 2586,
      "##round": 2587,
      "administ": 2588,
      "bey": 2589,
      "soviet": 2590,
      "franc": 2591,
      "introduced": 2592,
      "frequ": 2593,
      "##onna": 2594,
      "whom": 2595,
      "##bc": 2596,
      "usually": 2597,
      "think": 2598,
      "##igan": 2599,
      "minister": 2600,
      "amb": 2601,
      "##apt": 2602,
      "burn": 2603,
      "woman": 2604,
      "students": 2605,
      "bat": 2606,
      "32": 2607,
      "##ores": 2608,
      "##onst": 2609,
      "quickly": 2610,
      "idea": 2611,
      "limited": 2612,
      "wild": 2613,
      "bud": 2614,
      "##enue": 2615,
      "##ully": 2616,
      "chic": 2617,
      "education": 2618,
      "might": 2619,
      "guard": 2620,
      "##ha": 2621,
      "effects": 2622,
      "construct": 2623,
      "entertain": 2624,
      "movement": 2625,
      "concern": 2626,
      "stars": 2627,
      "subject": 2628,
      "issue": 2629,
      "##eless": 2630,
      "##onse": 2631,
      "slow": 2632,
      "certain": 2633,
      "queen": 2634,
      "##ev": 2635,
      "commander": 2636,
      "##atory": 2637,
      "tun": 2638,
      "ol": 2639,
      "polic": 2640,
      "lay": 2641,
      "your": 2642,
      "centre": 2643,
      "##bour": 2644,
      "department": 2645,
      "lib": 2646,
      "espec": 2647,
      "plant": 2648,
      "arrived": 2649,
      "fifth": 2650,
      "ben": 2651,
      "surface": 2652,
      "hosp": 2653,
      "pun": 2654,
      "pitch": 2655,
      "kh": 2656,
      "especially": 2657,
      "sand": 2658,
      "face": 2659,
      "decision": 2660,
      "anc": 2661,
      "syn": 2662,
      "britain": 2663,
      "services": 2664,
      "contr": 2665,
      "##ergy": 2666,
      "##aint": 2667,
      "##ump": 2668,
      "##wor": 2669,
      "##ties": 2670,
      "operations": 2671,
      "village": 2672,
      "parliam": 2673,
      "teams": 2674,
      "voice": 2675,
      "self": 2676,
      "compl": 2677,
      "##oor": 2678,
      "shows": 2679,
      "response": 2680,
      "museum": 2681,
      "##anded": 2682,
      "box": 2683,
      "industry": 2684,
      "gard": 2685,
      "larger": 2686,
      "walk": 2687,
      "ot": 2688,
      "ran": 2689,
      "writer": 2690,
      "gro": 2691,
      "becoming": 2692,
      "lyric": 2693,
      "mr": 2694,
      "remaining": 2695,
      "estimated": 2696,
      "fest": 2697,
      "latter": 2698,
      "science": 2699,
      "plot": 2700,
      "remain": 2701,
      "defeated": 2702,
      "##mon": 2703,
      "ultim": 2704,
      "carried": 2705,
      "heav": 2706,
      "parliament": 2707,
      "access": 2708,
      "impact": 2709,
      "establish": 2710,
      "network": 2711,
      "discuss": 2712,
      "##aries": 2713,
      "multip": 2714,
      "draw": 2715,
      "cm": 2716,
      "blood": 2717,
      "pressure": 2718,
      "surround": 2719,
      "##ba": 2720,
      "##iron": 2721,
      "lie": 2722,
      "scenes": 2723,
      "consider": 2724,
      "brief": 2725,
      "##outh": 2726,
      "structure": 2727,
      "flag": 2728,
      "##ective": 2729,
      "leaving": 2730,
      "##ulf": 2731,
      "running": 2732,
      "episodes": 2733,
      "36": 2734,
      "jew": 2735,
      "changes": 2736,
      "bul": 2737,
      "1999": 2738,
      "virginia": 2739,
      "complet": 2740,
      "cand": 2741,
      "##ror": 2742,
      "acqu": 2743,
      "naval": 2744,
      "##porary": 2745,
      "suggested": 2746,
      "##ites": 2747,
      "entered": 2748,
      "sem": 2749,
      "nearly": 2750,
      "##orial": 2751,
      "mas": 2752,
      "depression": 2753,
      "diss": 2754,
      "appointed": 2755,
      "quarter": 2756,
      "winning": 2757,
      "date": 2758,
      "approximately": 2759,
      "##ift": 2760,
      "fail": 2761,
      "chall": 2762,
      "twent": 2763,
      "subst": 2764,
      "##ania": 2765,
      "dom": 2766,
      "size": 2767,
      "##ears": 2768,
      "leader": 2769,
      "##ining": 2770,
      "language": 2771,
      "capital": 2772,
      "##inct": 2773,
      "got": 2774,
      "fant": 2775,
      "shortly": 2776,
      "##erve": 2777,
      "islands": 2778,
      "federal": 2779,
      "emb": 2780,
      "##ander": 2781,
      "favor": 2782,
      "script": 2783,
      "course": 2784,
      "today": 2785,
      "finally": 2786,
      "empire": 2787,
      "jackson": 2788,
      "wide": 2789,
      "screen": 2790,
      "##oms": 2791,
      "cann": 2792,
      "regiment": 2793,
      "##change": 2794,
      "upper": 2795,
      "tracks": 2796,
      "amount": 2797,
      "oly": 2798,
      "influence": 2799,
      "destroyed": 2800,
      "proposed": 2801,
      "##king": 2802,
      "daughter": 2803,
      "aw": 2804,
      "##anced": 2805,
      "purch": 2806,
      "##pre": 2807,
      "##ulated": 2808,
      "princip": 2809,
      "##ecting": 2810,
      "##ris": 2811,
      "mission": 2812,
      "75": 2813,
      "wing": 2814,
      "higher": 2815,
      "olymp": 2816,
      "manager": 2817,
      "producer": 2818,
      "spanish": 2819,
      "louis": 2820,
      "current": 2821,
      "lad": 2822,
      "experience": 2823,
      "##burg": 2824,
      "arrang": 2825,
      "environ": 2826,
      "##oid": 2827,
      "subsequently": 2828,
      "provide": 2829,
      "horse": 2830,
      "300": 2831,
      "corps": 2832,
      "gi": 2833,
      "battles": 2834,
      "nature": 2835,
      "railway": 2836,
      "##selves": 2837,
      "##mitted": 2838,
      "##idents": 2839,
      "spir": 2840,
      "compared": 2841,
      "breed": 2842,
      "brigade": 2843,
      "professional": 2844,
      "altern": 2845,
      "complex": 2846,
      "##ishing": 2847,
      "intended": 2848,
      "immediately": 2849,
      "##abor": 2850,
      "emerg": 2851,
      "married": 2852,
      "##iser": 2853,
      "democr": 2854,
      "##inese": 2855,
      "iron": 2856,
      "private": 2857,
      "saf": 2858,
      "fans": 2859,
      "cele": 2860,
      "supported": 2861,
      "temper": 2862,
      "pict": 2863,
      "184": 2864,
      "agreed": 2865,
      "##ta": 2866,
      "stay": 2867,
      "touch": 2868,
      "journal": 2869,
      "shoot": 2870,
      "pu": 2871,
      "intens": 2872,
      "liber": 2873,
      "##alled": 2874,
      "compan": 2875,
      "done": 2876,
      "edward": 2877,
      "feature": 2878,
      "model": 2879,
      "bord": 2880,
      "increasing": 2881,
      "80": 2882,
      "awarded": 2883,
      "weap": 2884,
      "display": 2885,
      "chicago": 2886,
      "##tained": 2887,
      "initial": 2888,
      "chinese": 2889,
      "whether": 2890,
      "helped": 2891,
      "related": 2892,
      "mont": 2893,
      "##ria": 2894,
      "##val": 2895,
      "planned": 2896,
      "legisl": 2897,
      "concept": 2898,
      "fair": 2899,
      "##down": 2900,
      "card": 2901,
      "officer": 2902,
      "imm": 2903,
      "soldiers": 2904,
      "##icles": 2905,
      "create": 2906,
      "##he": 2907,
      "bring": 2908,
      "fiction": 2909,
      "books": 2910,
      "longer": 2911,
      "trade": 2912,
      "van": 2913,
      "here": 2914,
      "penn": 2915,
      "1998": 2916,
      "##atively": 2917,
      "##oles": 2918,
      "color": 2919,
      "attract": 2920,
      "cause": 2921,
      "##teen": 2922,
      "captured": 2923,
      "valley": 2924,
      "yet": 2925,
      "gal": 2926,
      "buildings": 2927,
      "kar": 2928,
      "plans": 2929,
      "unit": 2930,
      "block": 2931,
      "forward": 2932,
      "33": 2933,
      "changed": 2934,
      "ple": 2935,
      "conclud": 2936,
      "cat": 2937,
      "withd": 2938,
      "winter": 2939,
      "associated": 2940,
      "##asy": 2941,
      "friends": 2942,
      "##ex": 2943,
      "something": 2944,
      "##chester": 2945,
      "kore": 2946,
      "officers": 2947,
      "mom": 2948,
      "spring": 2949,
      "##nel": 2950,
      "##acing": 2951,
      "dance": 2952,
      "remains": 2953,
      "mostly": 2954,
      "ash": 2955,
      "pacific": 2956,
      "sev": 2957,
      "billboard": 2958,
      "##aring": 2959,
      "##ban": 2960,
      "##ector": 2961,
      "ut": 2962,
      "archit": 2963,
      "themselves": 2964,
      "johnson": 2965,
      "##gy": 2966,
      "standard": 2967,
      "singles": 2968,
      "##rupt": 2969,
      "instr": 2970,
      "##ny": 2971,
      "##ken": 2972,
      "teach": 2973,
      "countries": 2974,
      "##rd": 2975,
      "mixed": 2976,
      "conserv": 2977,
      "lyrics": 2978,
      "probably": 2979,
      "exam": 2980,
      "really": 2981,
      "sir": 2982,
      "##umn": 2983,
      "##riage": 2984,
      "##ope": 2985,
      "method": 2986,
      "extended": 2987,
      "hero": 2988,
      "moving": 2989,
      "ray": 2990,
      "numerous": 2991,
      "financ": 2992,
      "##uit": 2993,
      "attend": 2994,
      "##can": 2995,
      "portray": 2996,
      "contem": 2997,
      "copies": 2998,
      "always": 2999,
      "information": 3000,
      "birth": 3001,
      "scot": 3002,
      "rid": 3003,
      "visit": 3004,
      "nation": 3005,
      "ast": 3006,
      "location": 3007,
      "tas": 3008,
      "goals": 3009,
      "oce": 3010,
      "admir": 3011,
      "individual": 3012,
      "37": 3013,
      "distrib": 3014,
      "##ych": 3015,
      "focus": 3016,
      "issued": 3017,
      "##isions": 3018,
      "congress": 3019,
      "##icted": 3020,
      "##ands": 3021,
      "counter": 3022,
      "##icated": 3023,
      "cit": 3024,
      "confl": 3025,
      "background": 3026,
      "leave": 3027,
      "energy": 3028,
      "status": 3029,
      "atlantic": 3030,
      "includes": 3031,
      "kr": 3032,
      "rat": 3033,
      "##olic": 3034,
      "##andon": 3035,
      "suffered": 3036,
      "artist": 3037,
      "via": 3038,
      "conference": 3039,
      "jim": 3040,
      "singer": 3041,
      "1997": 3042,
      "##well": 3043,
      "mess": 3044,
      "hospital": 3045,
      "traff": 3046,
      "male": 3047,
      "veh": 3048,
      "fit": 3049,
      "##ication": 3050,
      "tal": 3051,
      "problems": 3052,
      "prec": 3053,
      "martin": 3054,
      "florida": 3055,
      "bene": 3056,
      "albums": 3057,
      "termin": 3058,
      "meeting": 3059,
      "maxim": 3060,
      "likely": 3061,
      "##hood": 3062,
      "70": 3063,
      "edition": 3064,
      "ce": 3065,
      "gall": 3066,
      "double": 3067,
      "increase": 3068,
      "sales": 3069,
      "china": 3070,
      "carry": 3071,
      "removed": 3072,
      "assemb": 3073,
      "independent": 3074,
      "morn": 3075,
      "##bury": 3076,
      "celebr": 3077,
      "movie": 3078,
      "bond": 3079,
      "00": 3080,
      "lin": 3081,
      "##fact": 3082,
      "##ili": 3083,
      "##bed": 3084,
      "dog": 3085,
      "texas": 3086,
      "inspired": 3087,
      "dv": 3088,
      "foreign": 3089,
      "master": 3090,
      "##atives": 3091,
      "revolution": 3092,
      "rang": 3093,
      "terms": 3094,
      "primary": 3095,
      "creek": 3096,
      "##ously": 3097,
      "majority": 3098,
      "##ental": 3099,
      "mu": 3100,
      "kind": 3101,
      "##gs": 3102,
      "rout": 3103,
      "offered": 3104,
      "##vey": 3105,
      "##jected": 3106,
      "consist": 3107,
      "minute": 3108,
      "refl": 3109,
      "ice": 3110,
      "##vin": 3111,
      "tons": 3112,
      "compos": 3113,
      "##aily": 3114,
      "sar": 3115,
      "ens": 3116,
      "##lands": 3117,
      "##aj": 3118,
      "attacks": 3119,
      "stad": 3120,
      "drum": 3121,
      "adop": 3122,
      "qual": 3123,
      "##isc": 3124,
      "makes": 3125,
      "fox": 3126,
      "##iter": 3127,
      "entertainment": 3128,
      "takes": 3129,
      "confir": 3130,
      "damaged": 3131,
      "raised": 3132,
      "##era": 3133,
      "od": 3134,
      "oil": 3135,
      "composed": 3136,
      "ranked": 3137,
      "environment": 3138,
      "canadian": 3139,
      "##oo": 3140,
      "##ounds": 3141,
      "183": 3142,
      "carol": 3143,
      "daily": 3144,
      "letter": 3145,
      "adult": 3146,
      "appears": 3147,
      "log": 3148,
      "fighting": 3149,
      "mountain": 3150,
      "selected": 3151,
      "africa": 3152,
      "observ": 3153,
      "und": 3154,
      "intell": 3155,
      "revealed": 3156,
      "##abit": 3157,
      "combat": 3158,
      "cyclone": 3159,
      "categ": 3160,
      "discovered": 3161,
      "train": 3162,
      "concert": 3163,
      "simp": 3164,
      "metal": 3165,
      "determ": 3166,
      "active": 3167,
      "bor": 3168,
      "russian": 3169,
      "ign": 3170,
      "##ify": 3171,
      "##ucle": 3172,
      "inside": 3173,
      "##com": 3174,
      "dun": 3175,
      "##hl": 3176,
      "twenty": 3177,
      "conditions": 3178,
      "kent": 3179,
      "unable": 3180,
      "launched": 3181,
      "tv": 3182,
      "##uries": 3183,
      "inters": 3184,
      "accomp": 3185,
      "greater": 3186,
      "34": 3187,
      "wrest": 3188,
      "##light": 3189,
      "morning": 3190,
      "##umed": 3191,
      "deg": 3192,
      "respectively": 3193,
      "mic": 3194,
      "##ails": 3195,
      "era": 3196,
      "38": 3197,
      "incor": 3198,
      "dar": 3199,
      "##urs": 3200,
      "whole": 3201,
      "sched": 3202,
      "numbers": 3203,
      "issues": 3204,
      "needed": 3205,
      "smaller": 3206,
      "below": 3207,
      "angeles": 3208,
      "sister": 3209,
      "thir": 3210,
      "lived": 3211,
      "##ado": 3212,
      "yard": 3213,
      "iv": 3214,
      "contains": 3215,
      "attempted": 3216,
      "slight": 3217,
      "attacked": 3218,
      "schol": 3219,
      "wa": 3220,
      "yards": 3221,
      "stra": 3222,
      "traditional": 3223,
      "##ste": 3224,
      "shown": 3225,
      "bed": 3226,
      "ven": 3227,
      "1995": 3228,
      "##aught": 3229,
      "occurred": 3230,
      "##rect": 3231,
      "##lor": 3232,
      "newsp": 3233,
      "religious": 3234,
      "ca": 3235,
      "pick": 3236,
      "ali": 3237,
      "##zz": 3238,
      "##uals": 3239,
      "nick": 3240,
      "rein": 3241,
      "silver": 3242,
      "cart": 3243,
      "##aging": 3244,
      "iii": 3245,
      "sports": 3246,
      "defeat": 3247,
      "##ole": 3248,
      "##ortun": 3249,
      "##joy": 3250,
      "alle": 3251,
      "actor": 3252,
      "annual": 3253,
      "tourn": 3254,
      "experi": 3255,
      "##uments": 3256,
      "elected": 3257,
      "ring": 3258,
      "##ault": 3259,
      "cab": 3260,
      "referred": 3261,
      "peace": 3262,
      "festival": 3263,
      "##ya": 3264,
      "##osph": 3265,
      "neigh": 3266,
      "##izing": 3267,
      "reform": 3268,
      "mind": 3269,
      "francis": 3270,
      "##urity": 3271,
      "##rial": 3272,
      "constant": 3273,
      "bab": 3274,
      "1996": 3275,
      "luc": 3276,
      "19th": 3277,
      "##vert": 3278,
      "schools": 3279,
      "asp": 3280,
      "audience": 3281,
      "##oud": 3282,
      "largely": 3283,
      "resulted": 3284,
      "jose": 3285,
      "##ette": 3286,
      "bon": 3287,
      "theme": 3288,
      "2016": 3289,
      "assigned": 3290,
      "covered": 3291,
      "ris": 3292,
      "##my": 3293,
      "dra": 3294,
      "##olk": 3295,
      "express": 3296,
      "sav": 3297,
      "magn": 3298,
      "ocean": 3299,
      "link": 3300,
      "##ker": 3301,
      "architect": 3302,
      "fast": 3303,
      "prince": 3304,
      "listed": 3305,
      "variety": 3306,
      "##rovers": 3307,
      "purp": 3308,
      "italian": 3309,
      "##osaur": 3310,
      "cham": 3311,
      "os": 3312,
      "##uated": 3313,
      "90": 3314,
      "pair": 3315,
      "che": 3316,
      "coup": 3317,
      "collection": 3318,
      "glob": 3319,
      "competition": 3320,
      "names": 3321,
      "suggest": 3322,
      "earned": 3323,
      "eth": 3324,
      "##ari": 3325,
      "recover": 3326,
      "1994": 3327,
      "expected": 3328,
      "##asc": 3329,
      "##ocks": 3330,
      "commented": 3331,
      "##quar": 3332,
      "controvers": 3333,
      "haw": 3334,
      "stadium": 3335,
      "starting": 3336,
      "##enant": 3337,
      "closed": 3338,
      "##aped": 3339,
      "rapid": 3340,
      "dvd": 3341,
      "attention": 3342,
      "##itude": 3343,
      "nucle": 3344,
      "question": 3345,
      "imper": 3346,
      "prevent": 3347,
      "michigan": 3348,
      "giving": 3349,
      "zeal": 3350,
      "##rian": 3351,
      "airport": 3352,
      "refused": 3353,
      "legal": 3354,
      "spl": 3355,
      "viet": 3356,
      "extre": 3357,
      "economic": 3358,
      "figh": 3359,
      "continu": 3360,
      "crow": 3361,
      "mir": 3362,
      "greatest": 3363,
      "cust": 3364,
      "culture": 3365,
      "##amb": 3366,
      "##tered": 3367,
      "sett": 3368,
      "waters": 3369,
      "repe": 3370,
      "pit": 3371,
      "##use": 3372,
      "performances": 3373,
      "enjoy": 3374,
      "contact": 3375,
      "psych": 3376,
      "tower": 3377,
      "##uk": 3378,
      "electric": 3379,
      "ability": 3380,
      "serious": 3381,
      "disapp": 3382,
      "##ipped": 3383,
      "stories": 3384,
      "native": 3385,
      "wales": 3386,
      "hund": 3387,
      "promin": 3388,
      "ros": 3389,
      "meant": 3390,
      "declared": 3391,
      "rate": 3392,
      "forest": 3393,
      "direction": 3394,
      "##bridge": 3395,
      "matches": 3396,
      "things": 3397,
      "vocals": 3398,
      "##bre": 3399,
      "49": 3400,
      "stan": 3401,
      "hundred": 3402,
      "##yr": 3403,
      "mention": 3404,
      "poll": 3405,
      "mun": 3406,
      "abandon": 3407,
      "levels": 3408,
      "180": 3409,
      "words": 3410,
      "die": 3411,
      "swe": 3412,
      "##ples": 3413,
      "progress": 3414,
      "##yan": 3415,
      "nearby": 3416,
      "hus": 3417,
      "chann": 3418,
      "##ims": 3419,
      "search": 3420,
      "produce": 3421,
      "mech": 3422,
      "##ij": 3423,
      "marriage": 3424,
      "steph": 3425,
      "necess": 3426,
      "cry": 3427,
      "doctor": 3428,
      "farm": 3429,
      "practice": 3430,
      "constructed": 3431,
      "kenn": 3432,
      "defense": 3433,
      "text": 3434,
      "fill": 3435,
      "##iest": 3436,
      "advance": 3437,
      "reception": 3438,
      "emper": 3439,
      "hyd": 3440,
      "constitution": 3441,
      "occasion": 3442,
      "anth": 3443,
      "##hold": 3444,
      "41": 3445,
      "##odies": 3446,
      "lot": 3447,
      "fantasy": 3448,
      "beach": 3449,
      "##win": 3450,
      "candid": 3451,
      "##road": 3452,
      "##gu": 3453,
      "##ca": 3454,
      "marsh": 3455,
      "notes": 3456,
      "separate": 3457,
      "vocal": 3458,
      "##wide": 3459,
      "##overs": 3460,
      "highly": 3461,
      "##kin": 3462,
      "1992": 3463,
      "means": 3464,
      "labor": 3465,
      "oh": 3466,
      "##ging": 3467,
      "writers": 3468,
      "##ional": 3469,
      "overs": 3470,
      "medical": 3471,
      "chem": 3472,
      "spot": 3473,
      "1st": 3474,
      "zealand": 3475,
      "directly": 3476,
      "executive": 3477,
      "exhib": 3478,
      "ultimately": 3479,
      "##ishop": 3480,
      "les": 3481,
      "sle": 3482,
      "northwest": 3483,
      "susp": 3484,
      "##itation": 3485,
      "ess": 3486,
      "##ellow": 3487,
      "presented": 3488,
      "continue": 3489,
      "reduced": 3490,
      "effort": 3491,
      "400": 3492,
      "##ona": 3493,
      "african": 3494,
      "mexico": 3495,
      "flow": 3496,
      "##gl": 3497,
      "orch": 3498,
      "##rie": 3499,
      "cub": 3500,
      "admiral": 3501,
      "weather": 3502,
      "bound": 3503,
      "multiple": 3504,
      "##writ": 3505,
      "jer": 3506,
      "dism": 3507,
      "##rey": 3508,
      "brad": 3509,
      "##ibly": 3510,
      "##ires": 3511,
      "dyn": 3512,
      "animals": 3513,
      "mechan": 3514,
      "houses": 3515,
      "efforts": 3516,
      "strateg": 3517,
      "##uct": 3518,
      "##oper": 3519,
      "source": 3520,
      "settle": 3521,
      "tried": 3522,
      "##band": 3523,
      "chris": 3524,
      "attended": 3525,
      "memorial": 3526,
      "55": 3527,
      "##rical": 3528,
      "gas": 3529,
      "batter": 3530,
      "path": 3531,
      "studies": 3532,
      "accepted": 3533,
      "inch": 3534,
      "stating": 3535,
      "crick": 3536,
      "lif": 3537,
      "libr": 3538,
      "financial": 3539,
      "talk": 3540,
      "rough": 3541,
      "positions": 3542,
      "rule": 3543,
      "##gian": 3544,
      "##vement": 3545,
      "seem": 3546,
      "depend": 3547,
      "specific": 3548,
      "20th": 3549,
      "madonna": 3550,
      "thick": 3551,
      "##mas": 3552,
      "bob": 3553,
      "prep": 3554,
      "advent": 3555,
      "honor": 3556,
      "incorpor": 3557,
      "da": 3558,
      "ending": 3559,
      "##ogue": 3560,
      "scr": 3561,
      "begins": 3562,
      "favour": 3563,
      "recomm": 3564,
      "##track": 3565,
      "cerem": 3566,
      "lieut": 3567,
      "##ung": 3568,
      "speech": 3569,
      "organization": 3570,
      "##rier": 3571,
      "symb": 3572,
      "pilot": 3573,
      "traffic": 3574,
      "enemy": 3575,
      "1991": 3576,
      "theatre": 3577,
      "##eck": 3578,
      "cases": 3579,
      "sides": 3580,
      "kilomet": 3581,
      "scotland": 3582,
      "true": 3583,
      "1993": 3584,
      "arab": 3585,
      "jones": 3586,
      "179": 3587,
      "##anes": 3588,
      "drive": 3589,
      "##illery": 3590,
      "prepar": 3591,
      "##ersey": 3592,
      "chair": 3593,
      "bell": 3594,
      "pack": 3595,
      "flying": 3596,
      "39": 3597,
      "saint": 3598,
      "responsible": 3599,
      "##ners": 3600,
      "mos": 3601,
      "managed": 3602,
      "forms": 3603,
      "ll": 3604,
      "wound": 3605,
      "meaning": 3606,
      "##house": 3607,
      "mob": 3608,
      "resulting": 3609,
      "formation": 3610,
      "greek": 3611,
      "cold": 3612,
      "kept": 3613,
      "##ero": 3614,
      "42": 3615,
      "tournament": 3616,
      "##uff": 3617,
      "dropped": 3618,
      "showed": 3619,
      "academy": 3620,
      "compr": 3621,
      "soundtrack": 3622,
      "diam": 3623,
      "ram": 3624,
      "authority": 3625,
      "policy": 3626,
      "rose": 3627,
      "##like": 3628,
      "bost": 3629,
      "quality": 3630,
      "prime": 3631,
      "48": 3632,
      "strugg": 3633,
      "##utions": 3634,
      "row": 3635,
      "emperor": 3636,
      "hors": 3637,
      "##isation": 3638,
      "##olf": 3639,
      "wick": 3640,
      "exped": 3641,
      "artillery": 3642,
      "##cel": 3643,
      "182": 3644,
      "combined": 3645,
      "##ceeded": 3646,
      "boat": 3647,
      "acting": 3648,
      "dru": 3649,
      "##nam": 3650,
      "ded": 3651,
      "founded": 3652,
      "secretary": 3653,
      "continues": 3654,
      "edge": 3655,
      "marked": 3656,
      "spirit": 3657,
      "passeng": 3658,
      "trial": 3659,
      "inches": 3660,
      "property": 3661,
      "##une": 3662,
      "uses": 3663,
      "lieutenant": 3664,
      "williams": 3665,
      "systems": 3666,
      "encoun": 3667,
      "wit": 3668,
      "subsequent": 3669,
      "##cend": 3670,
      "artists": 3671,
      "propos": 3672,
      "contemporary": 3673,
      "chron": 3674,
      "attempts": 3675,
      "territory": 3676,
      "##ols": 3677,
      "##iated": 3678,
      "draft": 3679,
      "##thur": 3680,
      "northeast": 3681,
      "181": 3682,
      "rear": 3683,
      "##essions": 3684,
      "appar": 3685,
      "##ican": 3686,
      "suppl": 3687,
      "companies": 3688,
      "potential": 3689,
      "administration": 3690,
      "presence": 3691,
      "perf": 3692,
      "metres": 3693,
      "viewers": 3694,
      "planet": 3695,
      "allowing": 3696,
      "thous": 3697,
      "##ada": 3698,
      "sixth": 3699,
      "studios": 3700,
      "##icip": 3701,
      "##ils": 3702,
      "recent": 3703,
      "ni": 3704,
      "##essor": 3705,
      "##osh": 3706,
      "officials": 3707,
      "conducted": 3708,
      "##gypt": 3709,
      "##enge": 3710,
      "convention": 3711,
      "coal": 3712,
      "scale": 3713,
      "target": 3714,
      "##ulations": 3715,
      "maintain": 3716,
      "fear": 3717,
      "programm": 3718,
      "respond": 3719,
      "job": 3720,
      "rod": 3721,
      "##ls": 3722,
      "behav": 3723,
      "1942": 3724,
      "distinct": 3725,
      "##ingu": 3726,
      "digital": 3727,
      "machine": 3728,
      "contrast": 3729,
      "egypt": 3730,
      "headquar": 3731,
      "##ket": 3732,
      "fat": 3733,
      "transferred": 3734,
      "##standing": 3735,
      "lee": 3736,
      "parents": 3737,
      "scoring": 3738,
      "opportun": 3739,
      "temple": 3740,
      "maximum": 3741,
      "##aming": 3742,
      "senior": 3743,
      "coming": 3744,
      "yellow": 3745,
      "colour": 3746,
      "mol": 3747,
      "demonst": 3748,
      "latin": 3749,
      "dise": 3750,
      "figure": 3751,
      "allied": 3752,
      "corpor": 3753,
      "65": 3754,
      "seg": 3755,
      "47": 3756,
      "collabor": 3757,
      "beaut": 3758,
      "torped": 3759,
      "therefore": 3760,
      "primarily": 3761,
      "filming": 3762,
      "relatively": 3763,
      "featuring": 3764,
      "owned": 3765,
      "oxford": 3766,
      "theory": 3767,
      "##inem": 3768,
      "elev": 3769,
      "peaked": 3770,
      "opt": 3771,
      "student": 3772,
      "becomes": 3773,
      "apart": 3774,
      "##ription": 3775,
      "titled": 3776,
      "torpedo": 3777,
      "push": 3778,
      "joseph": 3779,
      "actually": 3780,
      "wear": 3781,
      "piece": 3782,
      "recommend": 3783,
      "hers": 3784,
      "portion": 3785,
      "mort": 3786,
      "##aga": 3787,
      "battleship": 3788,
      "distance": 3789,
      "concluded": 3790,
      "citiz": 3791,
      "sac": 3792,
      "sr": 3793,
      "##rain": 3794,
      "mile": 3795,
      "boston": 3796,
      "##orter": 3797,
      "stock": 3798,
      "harrison": 3799,
      "##ips": 3800,
      "ton": 3801,
      "write": 3802,
      "##oe": 3803,
      "situation": 3804,
      "jeff": 3805,
      "broke": 3806,
      "manchester": 3807,
      "function": 3808,
      "observed": 3809,
      "selling": 3810,
      "##ees": 3811,
      "52": 3812,
      "security": 3813,
      "physical": 3814,
      "mut": 3815,
      "alongside": 3816,
      "swed": 3817,
      "invasion": 3818,
      "plays": 3819,
      "46": 3820,
      "bass": 3821,
      "share": 3822,
      "tru": 3823,
      "mis": 3824,
      "lov": 3825,
      "divided": 3826,
      "concent": 3827,
      "paid": 3828,
      "seconds": 3829,
      "resist": 3830,
      "##eas": 3831,
      "calling": 3832,
      "doll": 3833,
      "rating": 3834,
      "transl": 3835,
      "cities": 3836,
      "slightly": 3837,
      "##stein": 3838,
      "returning": 3839,
      "powerful": 3840,
      "border": 3841,
      "##ications": 3842,
      "columb": 3843,
      "jersey": 3844,
      "inh": 3845,
      "results": 3846,
      "##ano": 3847,
      "1944": 3848,
      "tree": 3849,
      "43": 3850,
      "arts": 3851,
      "historian": 3852,
      "historical": 3853,
      "##edd": 3854,
      "##lement": 3855,
      "management": 3856,
      "sust": 3857,
      "ow": 3858,
      "conver": 3859,
      "64": 3860,
      "kg": 3861,
      "onto": 3862,
      "imperial": 3863,
      "##ini": 3864,
      "minim": 3865,
      "ott": 3866,
      "vess": 3867,
      "sources": 3868,
      "##ita": 3869,
      "else": 3870,
      "platform": 3871,
      "crash": 3872,
      "adj": 3873,
      "ire": 3874,
      "44": 3875,
      "nothing": 3876,
      "##iced": 3877,
      "##istics": 3878,
      "influenced": 3879,
      "##ider": 3880,
      "##ety": 3881,
      "actions": 3882,
      "freed": 3883,
      "birds": 3884,
      "activity": 3885,
      "innings": 3886,
      "##de": 3887,
      "##ns": 3888,
      "trust": 3889,
      "##unt": 3890,
      "residents": 3891,
      "suc": 3892,
      "fan": 3893,
      "comedy": 3894,
      "athlet": 3895,
      "promoted": 3896,
      "bbc": 3897,
      "designated": 3898,
      "poet": 3899,
      "##astic": 3900,
      "passing": 3901,
      "nominated": 3902,
      "resc": 3903,
      "ban": 3904,
      "cricket": 3905,
      "crown": 3906,
      "appeal": 3907,
      "completely": 3908,
      "##anna": 3909,
      "conflict": 3910,
      "croat": 3911,
      "guest": 3912,
      "problem": 3913,
      "lane": 3914,
      "height": 3915,
      "mainly": 3916,
      "bit": 3917,
      "weight": 3918,
      "premi": 3919,
      "avenue": 3920,
      "1990": 3921,
      "struck": 3922,
      "trail": 3923,
      "sexual": 3924,
      "arms": 3925,
      "##istry": 3926,
      "rot": 3927,
      "sought": 3928,
      "paris": 3929,
      "encour": 3930,
      "paper": 3931,
      "sense": 3932,
      "hands": 3933,
      "seasons": 3934,
      "webs": 3935,
      "##za": 3936,
      "orchest": 3937,
      "##apped": 3938,
      "##po": 3939,
      "##lers": 3940,
      "equip": 3941,
      "150": 3942,
      "feed": 3943,
      "tend": 3944,
      "##rate": 3945,
      "branch": 3946,
      "doub": 3947,
      "cultural": 3948,
      "gh": 3949,
      "eye": 3950,
      "pul": 3951,
      "charge": 3952,
      "reaching": 3953,
      "1945": 3954,
      "##ills": 3955,
      "merc": 3956,
      "1941": 3957,
      "document": 3958,
      "##while": 3959,
      "##sen": 3960,
      "spect": 3961,
      "weapons": 3962,
      "graph": 3963,
      "italy": 3964,
      "ancient": 3965,
      "##olved": 3966,
      "dang": 3967,
      "electron": 3968,
      "americans": 3969,
      "channel": 3970,
      "widely": 3971,
      "##omy": 3972,
      "cell": 3973,
      "image": 3974,
      "medal": 3975,
      "##cher": 3976,
      "baseball": 3977,
      "gil": 3978,
      "alone": 3979,
      "##iance": 3980,
      "emot": 3981,
      "##cers": 3982,
      "wars": 3983,
      "appearances": 3984,
      "##ih": 3985,
      "##iano": 3986,
      "confirmed": 3987,
      "content": 3988,
      "##oman": 3989,
      "instrument": 3990,
      "gained": 3991,
      "intellig": 3992,
      "##ylv": 3993,
      "##phy": 3994,
      "beyond": 3995,
      "##pass": 3996,
      "##rative": 3997,
      "##cle": 3998,
      "##la": 3999,
      "choice": 4000,
      "ireland": 4001,
      "join": 4002,
      "liver": 4003,
      "brothers": 4004,
      "steam": 4005,
      "compar": 4006,
      "murder": 4007,
      "older": 4008,
      "##adel": 4009,
      "reign": 4010,
      "steel": 4011,
      "deliv": 4012,
      "2nd": 4013,
      "proved": 4014,
      "library": 4015,
      "element": 4016,
      "analys": 4017,
      "dw": 4018,
      "##uled": 4019,
      "ec": 4020,
      "##iber": 4021,
      "manu": 4022,
      "floor": 4023,
      "headquarters": 4024,
      "explained": 4025,
      "vari": 4026,
      "##ota": 4027,
      "entr": 4028,
      "##zy": 4029,
      "defence": 4030,
      "says": 4031,
      "offer": 4032,
      "ahead": 4033,
      "##town": 4034,
      "##erse": 4035,
      "negot": 4036,
      "##known": 4037,
      "sens": 4038,
      "expans": 4039,
      "serve": 4040,
      "rainfall": 4041,
      "##ura": 4042,
      "cert": 4043,
      "##ques": 4044,
      "causing": 4045,
      "dim": 4046,
      "##ighth": 4047,
      "versions": 4048,
      "comes": 4049,
      "send": 4050,
      "hotel": 4051,
      "##theless": 4052,
      "victoria": 4053,
      "suit": 4054,
      "##inn": 4055,
      "##oration": 4056,
      "##mans": 4057,
      "51": 4058,
      "require": 4059,
      "sant": 4060,
      "fal": 4061,
      "1989": 4062,
      "expressed": 4063,
      "catholic": 4064,
      "charl": 4065,
      "1943": 4066,
      "equipment": 4067,
      "##bon": 4068,
      "workers": 4069,
      "split": 4070,
      "roads": 4071,
      "reports": 4072,
      "growth": 4073,
      "pattern": 4074,
      "article": 4075,
      "matter": 4076,
      "sport": 4077,
      "prominent": 4078,
      "offensive": 4079,
      "advanced": 4080,
      "gross": 4081,
      "##ds": 4082,
      "surpr": 4083,
      "##cy": 4084,
      "##ancy": 4085,
      "identified": 4086,
      "##yth": 4087,
      "officially": 4088,
      "drama": 4089,
      "capture": 4090,
      "husband": 4091,
      "bol": 4092,
      "worldwide": 4093,
      "setting": 4094,
      "snow": 4095,
      "il": 4096,
      "armed": 4097,
      "charts": 4098,
      "pap": 4099,
      "interact": 4100,
      "soft": 4101,
      "category": 4102,
      "manufact": 4103,
      "tells": 4104,
      "heavily": 4105,
      "bott": 4106,
      "##icient": 4107,
      "##mark": 4108,
      "senate": 4109,
      "rush": 4110,
      "reserve": 4111,
      "surre": 4112,
      "catch": 4113,
      "computer": 4114,
      "dutch": 4115,
      "extra": 4116,
      "dani": 4117,
      "##iring": 4118,
      "justice": 4119,
      "represented": 4120,
      "activities": 4121,
      "escape": 4122,
      "stephen": 4123,
      "spread": 4124,
      "meanwhile": 4125,
      "pieces": 4126,
      "leaves": 4127,
      "places": 4128,
      "treatment": 4129,
      "##ece": 4130,
      "tay": 4131,
      "trees": 4132,
      "actress": 4133,
      "leaders": 4134,
      "avoid": 4135,
      "unf": 4136,
      "fired": 4137,
      "believe": 4138,
      "figures": 4139,
      "injury": 4140,
      "jul": 4141,
      "toward": 4142,
      "##tar": 4143,
      "why": 4144,
      "##ule": 4145,
      "duke": 4146,
      "agreement": 4147,
      "none": 4148,
      "##rich": 4149,
      "supply": 4150,
      "expedition": 4151,
      "##ube": 4152,
      "##abeth": 4153,
      "mig": 4154,
      "##where": 4155,
      "##ylvania": 4156,
      "lives": 4157,
      "unknown": 4158,
      "doing": 4159,
      "##bit": 4160,
      "1940": 4161,
      "casual": 4162,
      "unlike": 4163,
      "data": 4164,
      "eliz": 4165,
      "laid": 4166,
      "editor": 4167,
      "albert": 4168,
      "strike": 4169,
      "golden": 4170,
      "##emic": 4171,
      "imag": 4172,
      "illust": 4173,
      "consisted": 4174,
      "dream": 4175,
      "carl": 4176,
      "debuted": 4177,
      "##yer": 4178,
      "##acity": 4179,
      "exec": 4180,
      "1980s": 4181,
      "##ads": 4182,
      "walls": 4183,
      "din": 4184,
      "##bn": 4185,
      "shel": 4186,
      "aired": 4187,
      "ta": 4188,
      "clar": 4189,
      "##bi": 4190,
      "argued": 4191,
      "##pool": 4192,
      "typically": 4193,
      "##osen": 4194,
      "severe": 4195,
      "opin": 4196,
      "georg": 4197,
      "couple": 4198,
      "##ached": 4199,
      "mounted": 4200,
      "homer": 4201,
      "moment": 4202,
      "polish": 4203,
      "reference": 4204,
      "twice": 4205,
      "##don": 4206,
      "finish": 4207,
      "claims": 4208,
      "md": 4209,
      "##esis": 4210,
      "affected": 4211,
      "spin": 4212,
      "photograph": 4213,
      "##icks": 4214,
      "actors": 4215,
      "##oul": 4216,
      "cra": 4217,
      "faced": 4218,
      "animal": 4219,
      "stations": 4220,
      "##inson": 4221,
      "600": 4222,
      "powers": 4223,
      "nations": 4224,
      "industrial": 4225,
      "opposition": 4226,
      "bart": 4227,
      "store": 4228,
      "emph": 4229,
      "challeng": 4230,
      "maintained": 4231,
      "jon": 4232,
      "supre": 4233,
      "technology": 4234,
      "trying": 4235,
      "1970s": 4236,
      "value": 4237,
      "protection": 4238,
      "pros": 4239,
      "knight": 4240,
      "fellow": 4241,
      "visited": 4242,
      "##osoph": 4243,
      "horses": 4244,
      "##iles": 4245,
      "orders": 4246,
      "criticized": 4247,
      "convers": 4248,
      "assault": 4249,
      "##oty": 4250,
      "landing": 4251,
      "dur": 4252,
      "accident": 4253,
      "delay": 4254,
      "motor": 4255,
      "tech": 4256,
      "fuel": 4257,
      "adapt": 4258,
      "holly": 4259,
      "carolina": 4260,
      "##ifying": 4261,
      "broken": 4262,
      "1960s": 4263,
      "hair": 4264,
      "sail": 4265,
      "fully": 4266,
      "##gers": 4267,
      "resident": 4268,
      "sky": 4269,
      "abb": 4270,
      "growing": 4271,
      "##acement": 4272,
      "label": 4273,
      "barb": 4274,
      "chosen": 4275,
      "##ockey": 4276,
      "twel": 4277,
      "spend": 4278,
      "##agn": 4279,
      "som": 4280,
      "notable": 4281,
      "motion": 4282,
      "ba": 4283,
      "cooper": 4284,
      "institute": 4285,
      "mul": 4286,
      "scottish": 4287,
      "clin": 4288,
      "twelve": 4289,
      "53": 4290,
      "##lines": 4291,
      "producers": 4292,
      "youth": 4293,
      "frequently": 4294,
      "criticism": 4295,
      "##stone": 4296,
      "1987": 4297,
      "seventh": 4298,
      "solo": 4299,
      "table": 4300,
      "wounded": 4301,
      "joint": 4302,
      "1988": 4303,
      "philosoph": 4304,
      "penns": 4305,
      "85": 4306,
      "looking": 4307,
      "accompan": 4308,
      "##more": 4309,
      "condition": 4310,
      "vice": 4311,
      "##har": 4312,
      "newspaper": 4313,
      "lands": 4314,
      "oppos": 4315,
      "inte": 4316,
      "sher": 4317,
      "surrounding": 4318,
      "billion": 4319,
      "independence": 4320,
      "reinfor": 4321,
      "degree": 4322,
      "operated": 4323,
      "urban": 4324,
      "register": 4325,
      "lew": 4326,
      "##ordin": 4327,
      "assembly": 4328,
      "nuclear": 4329,
      "##rael": 4330,
      "republican": 4331,
      "bc": 4332,
      "##izes": 4333,
      "comic": 4334,
      "##yle": 4335,
      "##ala": 4336,
      "math": 4337,
      "serving": 4338,
      "chor": 4339,
      "grew": 4340,
      "moon": 4341,
      "dry": 4342,
      "##ayer": 4343,
      "southeast": 4344,
      "et": 4345,
      "creation": 4346,
      "simply": 4347,
      "follows": 4348,
      "cool": 4349,
      "rival": 4350,
      "famous": 4351,
      "champion": 4352,
      "losing": 4353,
      "vote": 4354,
      "expansion": 4355,
      "##aly": 4356,
      "contained": 4357,
      "risk": 4358,
      "habit": 4359,
      "newly": 4360,
      "killing": 4361,
      "incident": 4362,
      "passes": 4363,
      "herself": 4364,
      "andrew": 4365,
      "weekly": 4366,
      "##wise": 4367,
      "##onc": 4368,
      "individuals": 4369,
      "##rid": 4370,
      "caval": 4371,
      "ends": 4372,
      "experiment": 4373,
      "christmas": 4374,
      "##ivity": 4375,
      "cinem": 4376,
      "fresh": 4377,
      "##lam": 4378,
      "##urb": 4379,
      "oppon": 4380,
      "normal": 4381,
      "heard": 4382,
      "agric": 4383,
      "##ola": 4384,
      "honour": 4385,
      "54": 4386,
      "perfect": 4387,
      "nav": 4388,
      "##ocked": 4389,
      "homes": 4390,
      "##ici": 4391,
      "consecutive": 4392,
      "##ledge": 4393,
      "##isters": 4394,
      "emphas": 4395,
      "wilson": 4396,
      "taylor": 4397,
      "##mission": 4398,
      "crossing": 4399,
      "attrib": 4400,
      "jac": 4401,
      "measure": 4402,
      "cannot": 4403,
      "website": 4404,
      "narrow": 4405,
      "thing": 4406,
      "evac": 4407,
      "supporting": 4408,
      "consequ": 4409,
      "parall": 4410,
      "##pton": 4411,
      "chose": 4412,
      "elizabeth": 4413,
      "perman": 4414,
      "##fully": 4415,
      "opposed": 4416,
      "95": 4417,
      "97": 4418,
      "sequence": 4419,
      "joe": 4420,
      "alexander": 4421,
      "participated": 4422,
      "##worth": 4423,
      "56": 4424,
      "historic": 4425,
      "##water": 4426,
      "aer": 4427,
      "##mond": 4428,
      "1986": 4429,
      "rare": 4430,
      "wave": 4431,
      "leadership": 4432,
      "adopted": 4433,
      "##aling": 4434,
      "poly": 4435,
      "##ote": 4436,
      "eld": 4437,
      "##resp": 4438,
      "eyes": 4439,
      "##och": 4440,
      "capacity": 4441,
      "egg": 4442,
      "##gend": 4443,
      "skin": 4444,
      "abandoned": 4445,
      "try": 4446,
      "disease": 4447,
      "agricult": 4448,
      "von": 4449,
      "##rane": 4450,
      "##ancing": 4451,
      "advant": 4452,
      "standing": 4453,
      "rise": 4454,
      "##iled": 4455,
      "extend": 4456,
      "filmed": 4457,
      "famil": 4458,
      "tall": 4459,
      "democratic": 4460,
      "defin": 4461,
      "visual": 4462,
      "dub": 4463,
      "dan": 4464,
      "straight": 4465,
      "themes": 4466,
      "basis": 4467,
      "negative": 4468,
      "trip": 4469,
      "##jo": 4470,
      "pennsylvania": 4471,
      "max": 4472,
      "budget": 4473,
      "deploy": 4474,
      "plants": 4475,
      "bowl": 4476,
      "##born": 4477,
      "##greg": 4478,
      "rac": 4479,
      "volume": 4480,
      "rand": 4481,
      "prompt": 4482,
      "sund": 4483,
      "failure": 4484,
      "creating": 4485,
      "benef": 4486,
      "pier": 4487,
      "drop": 4488,
      "mike": 4489,
      "regarded": 4490,
      "##hire": 4491,
      "whit": 4492,
      "possibly": 4493,
      "sin": 4494,
      "tank": 4495,
      "column": 4496,
      "177": 4497,
      "##kins": 4498,
      "##ato": 4499,
      "treaty": 4500,
      "harry": 4501,
      "irish": 4502,
      "bodies": 4503,
      "palace": 4504,
      "##een": 4505,
      "##under": 4506,
      "distingu": 4507,
      "mt": 4508,
      "girls": 4509,
      "colonel": 4510,
      "arc": 4511,
      "foundation": 4512,
      "lady": 4513,
      "kid": 4514,
      "canal": 4515,
      "interchange": 4516,
      "domest": 4517,
      "##ko": 4518,
      "excl": 4519,
      "spain": 4520,
      "horn": 4521,
      "ideas": 4522,
      "kick": 4523,
      "legend": 4524,
      "eag": 4525,
      "lap": 4526,
      "zone": 4527,
      "##illy": 4528,
      "advert": 4529,
      "retired": 4530,
      "dismiss": 4531,
      "gri": 4532,
      "##uses": 4533,
      "##gal": 4534,
      "surrender": 4535,
      "bru": 4536,
      "lind": 4537,
      "extensive": 4538,
      "ridge": 4539,
      "mist": 4540,
      "##isers": 4541,
      "seat": 4542,
      "##azz": 4543,
      "tell": 4544,
      "aid": 4545,
      "76": 4546,
      "younger": 4547,
      "hockey": 4548,
      "scholars": 4549,
      "atm": 4550,
      "franch": 4551,
      "nob": 4552,
      "garden": 4553,
      "railroad": 4554,
      "basket": 4555,
      "worth": 4556,
      "bishop": 4557,
      "analysis": 4558,
      "##set": 4559,
      "classic": 4560,
      "explos": 4561,
      "dial": 4562,
      "aim": 4563,
      "178": 4564,
      "opera": 4565,
      "tel": 4566,
      "pin": 4567,
      "##anda": 4568,
      "repeated": 4569,
      "improved": 4570,
      "achieved": 4571,
      "drew": 4572,
      "roles": 4573,
      "##eman": 4574,
      "effective": 4575,
      "patrol": 4576,
      "1939": 4577,
      "1990s": 4578,
      "briefly": 4579,
      "hay": 4580,
      "israel": 4581,
      "glass": 4582,
      "sud": 4583,
      "soul": 4584,
      "hope": 4585,
      "core": 4586,
      "gate": 4587,
      "unsu": 4588,
      "gameplay": 4589,
      "currently": 4590,
      "##orters": 4591,
      "southwest": 4592,
      "chamber": 4593,
      "banks": 4594,
      "lem": 4595,
      "household": 4596,
      "necessary": 4597,
      "61": 4598,
      "vehicles": 4599,
      "trou": 4600,
      "merch": 4601,
      "granted": 4602,
      "economy": 4603,
      "defensive": 4604,
      "arthur": 4605,
      "purpose": 4606,
      "piano": 4607,
      "turns": 4608,
      "rejected": 4609,
      "citizens": 4610,
      "caught": 4611,
      "##arked": 4612,
      "calc": 4613,
      "regional": 4614,
      "ped": 4615,
      "organized": 4616,
      "fame": 4617,
      "recently": 4618,
      "note": 4619,
      "66": 4620,
      "braz": 4621,
      "sell": 4622,
      "kilometres": 4623,
      "extr": 4624,
      "speak": 4625,
      "##ias": 4626,
      "kir": 4627,
      "tam": 4628,
      "receive": 4629,
      "expanded": 4630,
      "atmosph": 4631,
      "secondary": 4632,
      "##iana": 4633,
      "province": 4634,
      "synth": 4635,
      "authorities": 4636,
      "1968": 4637,
      "flooding": 4638,
      "##oma": 4639,
      "commissioned": 4640,
      "jr": 4641,
      "marine": 4642,
      "##elle": 4643,
      "didn": 4644,
      "1985": 4645,
      "online": 4646,
      "##lusion": 4647,
      "types": 4648,
      "roof": 4649,
      "cavalry": 4650,
      "ohio": 4651,
      "ka": 4652,
      "##iments": 4653,
      "##ja": 4654,
      "families": 4655,
      "successfully": 4656,
      "ori": 4657,
      "performing": 4658,
      "letters": 4659,
      "determined": 4660,
      "freedom": 4661,
      "1970": 4662,
      "ble": 4663,
      "flu": 4664,
      "describes": 4665,
      "transform": 4666,
      "literature": 4667,
      "fought": 4668,
      "genus": 4669,
      "cd": 4670,
      "##wall": 4671,
      "##utation": 4672,
      "assistant": 4673,
      "agent": 4674,
      "picture": 4675,
      "unus": 4676,
      "safety": 4677,
      "##iday": 4678,
      "hydro": 4679,
      "##adelph": 4680,
      "tail": 4681,
      "upgr": 4682,
      "##uate": 4683,
      "##uls": 4684,
      "goes": 4685,
      "custom": 4686,
      "##inger": 4687,
      "singing": 4688,
      "fro": 4689,
      "prefer": 4690,
      "##pi": 4691,
      "800": 4692,
      "freeway": 4693,
      "##iate": 4694,
      "acquired": 4695,
      "##umber": 4696,
      "journey": 4697,
      "philadelph": 4698,
      "titles": 4699,
      "lic": 4700,
      "suggests": 4701,
      "commonly": 4702,
      "##stream": 4703,
      "##ella": 4704,
      "gives": 4705,
      "planning": 4706,
      "##alty": 4707,
      "centuries": 4708,
      "deck": 4709,
      "##ading": 4710,
      "supreme": 4711,
      "##ym": 4712,
      "spr": 4713,
      "##oted": 4714,
      "##che": 4715,
      "mentioned": 4716,
      "##ester": 4717,
      "1984": 4718,
      "cambridge": 4719,
      "georgia": 4720,
      "##rif": 4721,
      "##illa": 4722,
      "revol": 4723,
      "57": 4724,
      "controlled": 4725,
      "scheduled": 4726,
      "##oln": 4727,
      "##dy": 4728,
      "contain": 4729,
      "ron": 4730,
      "withdraw": 4731,
      "web": 4732,
      "mouth": 4733,
      "vac": 4734,
      "myth": 4735,
      "protect": 4736,
      "philadelphia": 4737,
      "120": 4738,
      "shooting": 4739,
      "sets": 4740,
      "alternative": 4741,
      "cook": 4742,
      "##attle": 4743,
      "##haps": 4744,
      "contest": 4745,
      "chance": 4746,
      "simple": 4747,
      "perhaps": 4748,
      "regarding": 4749,
      "crime": 4750,
      "virt": 4751,
      "unique": 4752,
      "decre": 4753,
      "ss": 4754,
      "micro": 4755,
      "az": 4756,
      "dip": 4757,
      "prote": 4758,
      "reaction": 4759,
      "fix": 4760,
      "##outs": 4761,
      "finds": 4762,
      "principal": 4763,
      "save": 4764,
      "62": 4765,
      "sie": 4766,
      "witness": 4767,
      "russia": 4768,
      "request": 4769,
      "submar": 4770,
      "estate": 4771,
      "extrem": 4772,
      "integr": 4773,
      "trains": 4774,
      "facilities": 4775,
      "specim": 4776,
      "1967": 4777,
      "recru": 4778,
      "demand": 4779,
      "##amin": 4780,
      "reading": 4781,
      "gain": 4782,
      "korean": 4783,
      "tag": 4784,
      "##aven": 4785,
      "crowd": 4786,
      "##umes": 4787,
      "containing": 4788,
      "session": 4789,
      "exchange": 4790,
      "accompanied": 4791,
      "rated": 4792,
      "arrival": 4793,
      "lis": 4794,
      "kel": 4795,
      "scientific": 4796,
      "nintend": 4797,
      "belong": 4798,
      "linc": 4799,
      "dram": 4800,
      "tact": 4801,
      "price": 4802,
      "touchdown": 4803,
      "thor": 4804,
      "fighter": 4805,
      "brid": 4806,
      "ceremony": 4807,
      "jenn": 4808,
      "wrestling": 4809,
      "boats": 4810,
      "hits": 4811,
      "rub": 4812,
      "1980": 4813,
      "liverpool": 4814,
      "rules": 4815,
      "quite": 4816,
      "brook": 4817,
      "evening": 4818,
      "selection": 4819,
      "nintendo": 4820,
      "moder": 4821,
      "entirely": 4822,
      "asia": 4823,
      "##unk": 4824,
      "mand": 4825,
      "columbia": 4826,
      "##aver": 4827,
      "existing": 4828,
      "cloud": 4829,
      "firm": 4830,
      "dedicated": 4831,
      "rum": 4832,
      "intensity": 4833,
      "fash": 4834,
      "contributed": 4835,
      "locations": 4836,
      "concer": 4837,
      "ok": 4838,
      "singap": 4839,
      "jewish": 4840,
      "##etts": 4841,
      "##agan": 4842,
      "brand": 4843,
      "purchased": 4844,
      "publish": 4845,
      "58": 4846,
      "casualties": 4847,
      "kings": 4848,
      "grey": 4849,
      "provides": 4850,
      "windows": 4851,
      "resemb": 4852,
      "adap": 4853,
      "brazil": 4854,
      "##station": 4855,
      "campus": 4856,
      "ax": 4857,
      "throw": 4858,
      "74": 4859,
      "##room": 4860,
      "battery": 4861,
      "resistance": 4862,
      "advantage": 4863,
      "page": 4864,
      "##shire": 4865,
      "##inity": 4866,
      "carey": 4867,
      "remix": 4868,
      "occupied": 4869,
      "##ulate": 4870,
      "##hol": 4871,
      "boys": 4872,
      "eighth": 4873,
      "publication": 4874,
      "sites": 4875,
      "francisco": 4876,
      "##respond": 4877,
      "correspond": 4878,
      "holding": 4879,
      "basketball": 4880,
      "singapore": 4881,
      "mah": 4882,
      "lincoln": 4883,
      "gib": 4884,
      "72": 4885,
      "##oses": 4886,
      "##iences": 4887,
      "gulf": 4888,
      "##itt": 4889,
      "1983": 4890,
      "1969": 4891,
      "heads": 4892,
      "ga": 4893,
      "##ables": 4894,
      "gay": 4895,
      "protected": 4896,
      "1964": 4897,
      "regions": 4898,
      "resour": 4899,
      "bright": 4900,
      "drawn": 4901,
      "coastal": 4902,
      "nap": 4903,
      "##eds": 4904,
      "elimin": 4905,
      "miller": 4906,
      "disney": 4907,
      "receiving": 4908,
      "ell": 4909,
      "closely": 4910,
      "gill": 4911,
      "##laim": 4912,
      "cars": 4913,
      "judge": 4914,
      "opportunity": 4915,
      "##itled": 4916,
      "turning": 4917,
      "laws": 4918,
      "1914": 4919,
      "playstation": 4920,
      "structures": 4921,
      "hms": 4922,
      "tenn": 4923,
      "code": 4924,
      "##kes": 4925,
      "bush": 4926,
      "lewis": 4927,
      "generation": 4928,
      "##rons": 4929,
      "calls": 4930,
      "consists": 4931,
      "roughly": 4932,
      "1918": 4933,
      "##fri": 4934,
      "##iny": 4935,
      "conqu": 4936,
      "corner": 4937,
      "steve": 4938,
      "##burgh": 4939,
      "##onic": 4940,
      "grade": 4941,
      "acts": 4942,
      "brian": 4943,
      "reserv": 4944,
      "anderson": 4945,
      "59": 4946,
      "schem": 4947,
      "1982": 4948,
      "1971": 4949,
      "lb": 4950,
      "experienced": 4951,
      "##wick": 4952,
      "##usc": 4953,
      "anything": 4954,
      "1966": 4955,
      "1972": 4956,
      "byz": 4957,
      "towns": 4958,
      "fashion": 4959,
      "task": 4960,
      "rolling": 4961,
      "olympic": 4962,
      "1979": 4963,
      "losses": 4964,
      "##fort": 4965,
      "##garian": 4966,
      "##ware": 4967,
      "defined": 4968,
      "##eb": 4969,
      "##ocated": 4970,
      "##iger": 4971,
      "protest": 4972,
      "##box": 4973,
      "survey": 4974,
      "focused": 4975,
      "viewed": 4976,
      "hem": 4977,
      "engaged": 4978,
      "providing": 4979,
      "byzant": 4980,
      "retire": 4981,
      "politics": 4982,
      "symbol": 4983,
      "hind": 4984,
      "relief": 4985,
      "##awa": 4986,
      "armour": 4987,
      "developing": 4988,
      "hip": 4989,
      "99": 4990,
      "1965": 4991,
      "nhl": 4992,
      "bands": 4993,
      "uncle": 4994,
      "oak": 4995,
      "rapidly": 4996,
      "shared": 4997,
      "intelligence": 4998,
      "composition": 4999,
      "bottom": 5000,
      "investigation": 5001,
      "ther": 5002,
      "3rd": 5003,
      "phase": 5004,
      "hired": 5005,
      "wond": 5006,
      "males": 5007,
      "shall": 5008,
      "##ucky": 5009,
      "map": 5010,
      "semi": 5011,
      "hollywood": 5012,
      "enl": 5013,
      "instruct": 5014,
      "highlight": 5015,
      "temperature": 5016,
      "1975": 5017,
      "tow": 5018,
      "germans": 5019,
      "hyp": 5020,
      "walter": 5021,
      "flat": 5022,
      "solid": 5023,
      "everything": 5024,
      "mountains": 5025,
      "faith": 5026,
      "missing": 5027,
      "recognized": 5028,
      "18th": 5029,
      "exact": 5030,
      "guy": 5031,
      "painting": 5032,
      "##ifically": 5033,
      "##oster": 5034,
      "personnel": 5035,
      "belief": 5036,
      "davis": 5037,
      "vent": 5038,
      "##gun": 5039,
      "##mann": 5040,
      "junior": 5041,
      "63": 5042,
      "cou": 5043,
      "hart": 5044,
      "##bound": 5045,
      "appoint": 5046,
      "getting": 5047,
      "1974": 5048,
      "isol": 5049,
      "##gest": 5050,
      "introduction": 5051,
      "bes": 5052,
      "falls": 5053,
      "step": 5054,
      "shape": 5055,
      "prepared": 5056,
      "substant": 5057,
      "hell": 5058,
      "gord": 5059,
      "typh": 5060,
      "##mouth": 5061,
      "thin": 5062,
      "73": 5063,
      "tick": 5064,
      "knew": 5065,
      "##rel": 5066,
      "##ilton": 5067,
      "serb": 5068,
      "1973": 5069,
      "rome": 5070,
      "77": 5071,
      "domestic": 5072,
      "franchise": 5073,
      "significantly": 5074,
      "projects": 5075,
      "intersection": 5076,
      "approved": 5077,
      "ans": 5078,
      "descend": 5079,
      "global": 5080,
      "naz": 5081,
      "opinion": 5082,
      "amend": 5083,
      "##pa": 5084,
      "literary": 5085,
      "adding": 5086,
      "sort": 5087,
      "folk": 5088,
      "penins": 5089,
      "##ua": 5090,
      "archae": 5091,
      "syd": 5092,
      "cens": 5093,
      "##friend": 5094,
      "1976": 5095,
      "philipp": 5096,
      "knowledge": 5097,
      "confeder": 5098,
      "reasons": 5099,
      "wheel": 5100,
      "##iot": 5101,
      "##eper": 5102,
      "wings": 5103,
      "##wart": 5104,
      "unsuccess": 5105,
      "##sey": 5106,
      "challenge": 5107,
      "##ologist": 5108,
      "raid": 5109,
      "ward": 5110,
      "hung": 5111,
      "sab": 5112,
      "playoff": 5113,
      "##iful": 5114,
      "250": 5115,
      "##erted": 5116,
      "cris": 5117,
      "shaped": 5118,
      "unl": 5119,
      "musl": 5120,
      "han": 5121,
      "jean": 5122,
      "rar": 5123,
      "settlement": 5124,
      "views": 5125,
      "bull": 5126,
      "##achus": 5127,
      "promotion": 5128,
      "escort": 5129,
      "vic": 5130,
      "##iro": 5131,
      "poem": 5132,
      "autom": 5133,
      "##atures": 5134,
      "operating": 5135,
      "##asty": 5136,
      "storyline": 5137,
      "exerc": 5138,
      "parallel": 5139,
      "##aka": 5140,
      "equal": 5141,
      "shut": 5142,
      "##unte": 5143,
      "67": 5144,
      "##break": 5145,
      "bern": 5146,
      "renamed": 5147,
      "rebu": 5148,
      "##ador": 5149,
      "cabin": 5150,
      "reputation": 5151,
      "thirty": 5152,
      "##iel": 5153,
      "scul": 5154,
      "watched": 5155,
      "labour": 5156,
      "nevertheless": 5157,
      "employed": 5158,
      "beyonc": 5159,
      "proceed": 5160,
      "volunte": 5161,
      "allies": 5162,
      "popularity": 5163,
      "religion": 5164,
      "baby": 5165,
      "##istan": 5166,
      "injured": 5167,
      "fine": 5168,
      "ari": 5169,
      "internal": 5170,
      "matt": 5171,
      "##ping": 5172,
      "stages": 5173,
      "professor": 5174,
      "females": 5175,
      "paint": 5176,
      "guide": 5177,
      "uns": 5178,
      "##itan": 5179,
      "increasingly": 5180,
      "kentucky": 5181,
      "##lav": 5182,
      "##antly": 5183,
      "cape": 5184,
      "humans": 5185,
      "cited": 5186,
      "##ira": 5187,
      "limit": 5188,
      "headed": 5189,
      "gramm": 5190,
      "##zen": 5191,
      "neither": 5192,
      "neut": 5193,
      "blues": 5194,
      "models": 5195,
      "torn": 5196,
      "##eral": 5197,
      "heat": 5198,
      "wealth": 5199,
      "declined": 5200,
      "finding": 5201,
      "hills": 5202,
      "connected": 5203,
      "82": 5204,
      "##icts": 5205,
      "consc": 5206,
      "collected": 5207,
      "sculpt": 5208,
      "68": 5209,
      "96": 5210,
      "converted": 5211,
      "details": 5212,
      "ross": 5213,
      "depth": 5214,
      "sustained": 5215,
      "sed": 5216,
      "##ifications": 5217,
      "raf": 5218,
      "existence": 5219,
      "enjoyed": 5220,
      "violence": 5221,
      "grav": 5222,
      "1946": 5223,
      "canc": 5224,
      "learned": 5225,
      "##inum": 5226,
      "norway": 5227,
      "entry": 5228,
      "consum": 5229,
      "1981": 5230,
      "connect": 5231,
      "##onym": 5232,
      "controversy": 5233,
      "sad": 5234,
      "ken": 5235,
      "massachus": 5236,
      "olympics": 5237,
      "volcan": 5238,
      "1950s": 5239,
      "##ients": 5240,
      "##ceived": 5241,
      "shr": 5242,
      "applied": 5243,
      "impl": 5244,
      "championships": 5245,
      "massachusetts": 5246,
      "outer": 5247,
      "1917": 5248,
      "allows": 5249,
      "##istol": 5250,
      "triple": 5251,
      "##ipe": 5252,
      "crimin": 5253,
      "camera": 5254,
      "evolution": 5255,
      "bron": 5256,
      "swim": 5257,
      "ways": 5258,
      "##iform": 5259,
      "87": 5260,
      "cells": 5261,
      "##ctions": 5262,
      "clark": 5263,
      "ts": 5264,
      "nest": 5265,
      "approached": 5266,
      "gang": 5267,
      "decade": 5268,
      "carrying": 5269,
      "entrance": 5270,
      "160": 5271,
      "easily": 5272,
      "##ropri": 5273,
      "designs": 5274,
      "##ava": 5275,
      "loy": 5276,
      "tests": 5277,
      "gray": 5278,
      "description": 5279,
      "responded": 5280,
      "##osis": 5281,
      "lam": 5282,
      "foss": 5283,
      "interp": 5284,
      "extension": 5285,
      "confron": 5286,
      "scar": 5287,
      "downlo": 5288,
      "discovery": 5289,
      "buried": 5290,
      "duty": 5291,
      "chairman": 5292,
      "700": 5293,
      "##psons": 5294,
      "hang": 5295,
      "lev": 5296,
      "gradually": 5297,
      "succeeded": 5298,
      "bath": 5299,
      "mayor": 5300,
      "convoy": 5301,
      "##rec": 5302,
      "arsen": 5303,
      "specifically": 5304,
      "technical": 5305,
      "##iat": 5306,
      "sections": 5307,
      "showing": 5308,
      "hull": 5309,
      "breeding": 5310,
      "raw": 5311,
      "simpsons": 5312,
      "programs": 5313,
      "##ignment": 5314,
      "1948": 5315,
      "pear": 5316,
      "acres": 5317,
      "sax": 5318,
      "door": 5319,
      "##onia": 5320,
      "stret": 5321,
      "astron": 5322,
      "sons": 5323,
      "##itors": 5324,
      "jay": 5325,
      "vel": 5326,
      "municip": 5327,
      "69": 5328,
      "address": 5329,
      "1960": 5330,
      "##hr": 5331,
      "items": 5332,
      "purs": 5333,
      "prisoners": 5334,
      "prize": 5335,
      "exclus": 5336,
      "arranged": 5337,
      "shop": 5338,
      "nich": 5339,
      "tu": 5340,
      "credited": 5341,
      "cad": 5342,
      "mode": 5343,
      "##str": 5344,
      "install": 5345,
      "gone": 5346,
      "similarly": 5347,
      "statement": 5348,
      "util": 5349,
      "teen": 5350,
      "weakened": 5351,
      "seems": 5352,
      "producing": 5353,
      "##ati": 5354,
      "premier": 5355,
      "vietnam": 5356,
      "additionally": 5357,
      "##arm": 5358,
      "winner": 5359,
      "improve": 5360,
      "91": 5361,
      "earliest": 5362,
      "cryst": 5363,
      "78": 5364,
      "landfall": 5365,
      "##ima": 5366,
      "daniel": 5367,
      "parties": 5368,
      "##come": 5369,
      "rural": 5370,
      "warning": 5371,
      "1978": 5372,
      "presidential": 5373,
      "threatened": 5374,
      "nas": 5375,
      "##ali": 5376,
      "##una": 5377,
      "candidate": 5378,
      "ker": 5379,
      "##put": 5380,
      "fields": 5381,
      "rene": 5382,
      "engineer": 5383,
      "distribution": 5384,
      "retained": 5385,
      "legacy": 5386,
      "sounds": 5387,
      "bear": 5388,
      "combination": 5389,
      "##inary": 5390,
      "inner": 5391,
      "sydney": 5392,
      "bac": 5393,
      "brain": 5394,
      "##inal": 5395,
      "jam": 5396,
      "lasted": 5397,
      "adam": 5398,
      "spok": 5399,
      "ottoman": 5400,
      "genre": 5401,
      "routes": 5402,
      "##bl": 5403,
      "1915": 5404,
      "##wich": 5405,
      "hear": 5406,
      "poland": 5407,
      "products": 5408,
      "##ogen": 5409,
      "mtv": 5410,
      "##entions": 5411,
      "kim": 5412,
      "moore": 5413,
      "divisions": 5414,
      "##inking": 5415,
      "replace": 5416,
      "maryland": 5417,
      "hugh": 5418,
      "supplies": 5419,
      "ones": 5420,
      "chemical": 5421,
      "lock": 5422,
      "94": 5423,
      "##cop": 5424,
      "dress": 5425,
      "1950": 5426,
      "kur": 5427,
      "animated": 5428,
      "interior": 5429,
      "evil": 5430,
      "adapted": 5431,
      "##va": 5432,
      "formula": 5433,
      "downtown": 5434,
      "basic": 5435,
      "afterwards": 5436,
      "repair": 5437,
      "##han": 5438,
      "1977": 5439,
      "engines": 5440,
      "81": 5441,
      "grounds": 5442,
      "delivered": 5443,
      "peninsula": 5444,
      "##rations": 5445,
      "speaking": 5446,
      "agency": 5447,
      "##hi": 5448,
      "98": 5449,
      "cow": 5450,
      "cul": 5451,
      "dele": 5452,
      "##time": 5453,
      "frag": 5454,
      "filled": 5455,
      "##imet": 5456,
      "alt": 5457,
      "clean": 5458,
      "message": 5459,
      "surviv": 5460,
      "stopped": 5461,
      "##ela": 5462,
      "entitled": 5463,
      "rhodes": 5464,
      "jane": 5465,
      "1963": 5466,
      "equival": 5467,
      "affairs": 5468,
      "##rets": 5469,
      "supporters": 5470,
      "permanent": 5471,
      "##rence": 5472,
      "indicated": 5473,
      "extremely": 5474,
      "wides": 5475,
      "magic": 5476,
      "sha": 5477,
      "##izations": 5478,
      "engineering": 5479,
      "##rest": 5480,
      "ak": 5481,
      "##apes": 5482,
      "inspir": 5483,
      "deaths": 5484,
      "1916": 5485,
      "diamond": 5486,
      "71": 5487,
      "climate": 5488,
      "secure": 5489,
      "greg": 5490,
      "buff": 5491,
      "fruit": 5492,
      "proposal": 5493,
      "##rant": 5494,
      "mine": 5495,
      "returns": 5496,
      "alien": 5497,
      "##ora": 5498,
      "mulder": 5499,
      "deleg": 5500,
      "spons": 5501,
      "##issance": 5502,
      "gordon": 5503,
      "restaur": 5504,
      "knots": 5505,
      "89": 5506,
      "##aud": 5507,
      "streets": 5508,
      "##emies": 5509,
      "typhoon": 5510,
      "acid": 5511,
      "ira": 5512,
      "las": 5513,
      "harv": 5514,
      "##nic": 5515,
      "tanks": 5516,
      "##book": 5517,
      "##tic": 5518,
      "jes": 5519,
      "##iversary": 5520,
      "mans": 5521,
      "survived": 5522,
      "kat": 5523,
      "classical": 5524,
      "1962": 5525,
      "1919": 5526,
      "pig": 5527,
      "importance": 5528,
      "switch": 5529,
      "describing": 5530,
      "compon": 5531,
      "writes": 5532,
      "convin": 5533,
      "implement": 5534,
      "composer": 5535,
      "bought": 5536,
      "##bourne": 5537,
      "giant": 5538,
      "print": 5539,
      "##ropol": 5540,
      "songwrit": 5541,
      "holy": 5542,
      "concerns": 5543,
      "ruled": 5544,
      "rab": 5545,
      "someone": 5546,
      "tra": 5547,
      "typical": 5548,
      "flo": 5549,
      "entering": 5550,
      "##inois": 5551,
      "alf": 5552,
      "medie": 5553,
      "rivers": 5554,
      "##aki": 5555,
      "ratings": 5556,
      "##wa": 5557,
      "88": 5558,
      "causes": 5559,
      "environmental": 5560,
      "remember": 5561,
      "armor": 5562,
      "1938": 5563,
      "eric": 5564,
      "studied": 5565,
      "arrested": 5566,
      "##ographic": 5567,
      "vul": 5568,
      "portrayed": 5569,
      "##entially": 5570,
      "images": 5571,
      "decline": 5572,
      "voted": 5573,
      "preced": 5574,
      "retreat": 5575,
      "drug": 5576,
      "reh": 5577,
      "universe": 5578,
      "reduce": 5579,
      "recalled": 5580,
      "##heim": 5581,
      "##met": 5582,
      "intention": 5583,
      "ago": 5584,
      "eleven": 5585,
      "purchase": 5586,
      "##eller": 5587,
      "sale": 5588,
      "cruiser": 5589,
      "##aine": 5590,
      "##ingly": 5591,
      "##omic": 5592,
      "actual": 5593,
      "quant": 5594,
      "capable": 5595,
      "##ansas": 5596,
      "feeling": 5597,
      "medieval": 5598,
      "correct": 5599,
      "corporation": 5600,
      "siege": 5601,
      "pav": 5602,
      "##know": 5603,
      "bang": 5604,
      "79": 5605,
      "owner": 5606,
      "academic": 5607,
      "objects": 5608,
      "liberal": 5609,
      "alliance": 5610,
      "recognition": 5611,
      "driving": 5612,
      "##ji": 5613,
      "chapter": 5614,
      "equipped": 5615,
      "sessions": 5616,
      "nomination": 5617,
      "thousands": 5618,
      "kong": 5619,
      "nel": 5620,
      "identity": 5621,
      "##adow": 5622,
      "hunting": 5623,
      "tony": 5624,
      "funds": 5625,
      "offers": 5626,
      "noting": 5627,
      "historians": 5628,
      "concerned": 5629,
      "bos": 5630,
      "connection": 5631,
      "anniversary": 5632,
      "bach": 5633,
      "finals": 5634,
      "meters": 5635,
      "passage": 5636,
      "references": 5637,
      "decades": 5638,
      "crossed": 5639,
      "consisting": 5640,
      "debate": 5641,
      "##itage": 5642,
      "admitted": 5643,
      "camer": 5644,
      "recommended": 5645,
      "flash": 5646,
      "undert": 5647,
      "##ugh": 5648,
      "##kend": 5649,
      "interested": 5650,
      "175": 5651,
      "##encies": 5652,
      "thunder": 5653,
      "##right": 5654,
      "alan": 5655,
      "invited": 5656,
      "princess": 5657,
      "colonial": 5658,
      "sight": 5659,
      "dougl": 5660,
      "##icide": 5661,
      "installed": 5662,
      "adams": 5663,
      "breaking": 5664,
      "##eline": 5665,
      "considerable": 5666,
      "##oir": 5667,
      "1956": 5668,
      "starts": 5669,
      "1930s": 5670,
      "pound": 5671,
      "warm": 5672,
      "##ipping": 5673,
      "##ishes": 5674,
      "universal": 5675,
      "programme": 5676,
      "##aken": 5677,
      "margin": 5678,
      "courts": 5679,
      "establishment": 5680,
      "colony": 5681,
      "dipl": 5682,
      "##eston": 5683,
      "eat": 5684,
      "##aked": 5685,
      "decor": 5686,
      "hamilton": 5687,
      "jord": 5688,
      "enemies": 5689,
      "subs": 5690,
      "##acks": 5691,
      "charged": 5692,
      "duties": 5693,
      "remainder": 5694,
      "##ranean": 5695,
      "##pread": 5696,
      "simon": 5697,
      "92": 5698,
      "veter": 5699,
      "1936": 5700,
      "improv": 5701,
      "monument": 5702,
      "cos": 5703,
      "##mus": 5704,
      "styles": 5705,
      "truth": 5706,
      "##oked": 5707,
      "utc": 5708,
      "manner": 5709,
      "maria": 5710,
      "widespread": 5711,
      "ech": 5712,
      "130": 5713,
      "arsenal": 5714,
      "dates": 5715,
      "jump": 5716,
      "shield": 5717,
      "ready": 5718,
      "sharp": 5719,
      "negoti": 5720,
      "##cement": 5721,
      "93": 5722,
      "promote": 5723,
      "communist": 5724,
      "bid": 5725,
      "salt": 5726,
      "shear": 5727,
      "pictures": 5728,
      "conservative": 5729,
      "indones": 5730,
      "##oes": 5731,
      "##osaurus": 5732,
      "84": 5733,
      "nether": 5734,
      "continuing": 5735,
      "pad": 5736,
      "slowly": 5737,
      "thro": 5738,
      "##ilation": 5739,
      "shore": 5740,
      "bure": 5741,
      "aspects": 5742,
      "departure": 5743,
      "occasionally": 5744,
      "1920": 5745,
      "##aham": 5746,
      "##zer": 5747,
      "behavior": 5748,
      "##iques": 5749,
      "wel": 5750,
      "diet": 5751,
      "classes": 5752,
      "myst": 5753,
      "##iling": 5754,
      "nba": 5755,
      "1961": 5756,
      "electronic": 5757,
      "matth": 5758,
      "resources": 5759,
      "##ram": 5760,
      "##eton": 5761,
      "beautiful": 5762,
      "##igation": 5763,
      "romantic": 5764,
      "transition": 5765,
      "hitler": 5766,
      "happy": 5767,
      "kennedy": 5768,
      "marc": 5769,
      "rhyth": 5770,
      "wearing": 5771,
      "posted": 5772,
      "emergency": 5773,
      "plate": 5774,
      "argent": 5775,
      "wwe": 5776,
      "acclaim": 5777,
      "howard": 5778,
      "disappo": 5779,
      "sunday": 5780,
      "##akers": 5781,
      "scout": 5782,
      "assistance": 5783,
      "hou": 5784,
      "treas": 5785,
      "1953": 5786,
      "##apping": 5787,
      "superior": 5788,
      "senator": 5789,
      "orchestra": 5790,
      "jur": 5791,
      "indiana": 5792,
      "barr": 5793,
      "vessels": 5794,
      "ride": 5795,
      "formal": 5796,
      "##uous": 5797,
      "occurs": 5798,
      "##ante": 5799,
      "accur": 5800,
      "leon": 5801,
      "carbon": 5802,
      "certified": 5803,
      "##athan": 5804,
      "norwe": 5805,
      "dated": 5806,
      "##icit": 5807,
      "income": 5808,
      "destruction": 5809,
      "credits": 5810,
      "pure": 5811,
      "memory": 5812,
      "##oli": 5813,
      "scully": 5814,
      "attached": 5815,
      "populations": 5816,
      "17th": 5817,
      "credit": 5818,
      "properties": 5819,
      "demol": 5820,
      "animation": 5821,
      "##icate": 5822,
      "ancest": 5823,
      "passengers": 5824,
      "1930": 5825,
      "dean": 5826,
      "##ensions": 5827,
      "chorus": 5828,
      "shots": 5829,
      "ryan": 5830,
      "oldest": 5831,
      "involving": 5832,
      "mathem": 5833,
      "turk": 5834,
      "equivalent": 5835,
      "chapel": 5836,
      "terminus": 5837,
      "##regon": 5838,
      "1947": 5839,
      "classification": 5840,
      "circum": 5841,
      "na": 5842,
      "##ione": 5843,
      "##oard": 5844,
      "##aware": 5845,
      "acknow": 5846,
      "##after": 5847,
      "sequel": 5848,
      "##otic": 5849,
      "architecture": 5850,
      "gam": 5851,
      "heritage": 5852,
      "oregon": 5853,
      "expand": 5854,
      "adventure": 5855,
      "1958": 5856,
      "settled": 5857,
      "86": 5858,
      "##uing": 5859,
      "portug": 5860,
      "##veland": 5861,
      "tunnel": 5862,
      "pink": 5863,
      "obtained": 5864,
      "bombard": 5865,
      "sleep": 5866,
      "rescue": 5867,
      "dynasty": 5868,
      "wins": 5869,
      "accused": 5870,
      "authors": 5871,
      "medic": 5872,
      "cant": 5873,
      "worst": 5874,
      "1957": 5875,
      "derived": 5876,
      "rig": 5877,
      "##ooth": 5878,
      "junction": 5879,
      "shell": 5880,
      "finishing": 5881,
      "ninth": 5882,
      "charges": 5883,
      "incorporated": 5884,
      "##anian": 5885,
      "##agues": 5886,
      "1937": 5887,
      "reviewers": 5888,
      "favorite": 5889,
      "inher": 5890,
      "##ivals": 5891,
      "douglas": 5892,
      "##orney": 5893,
      "##anth": 5894,
      "collect": 5895,
      "cleveland": 5896,
      "##eastern": 5897,
      "ko": 5898,
      "crisis": 5899,
      "lenn": 5900,
      "committed": 5901,
      "hosted": 5902,
      "replacement": 5903,
      "illinois": 5904,
      "circuit": 5905,
      "prey": 5906,
      "belt": 5907,
      "sword": 5908,
      "##etime": 5909,
      "bringing": 5910,
      "##ules": 5911,
      "segment": 5912,
      "vehicle": 5913,
      "moves": 5914,
      "missions": 5915,
      "grass": 5916,
      "supposed": 5917,
      "4th": 5918,
      "pope": 5919,
      "andy": 5920,
      "assumed": 5921,
      "mediter": 5922,
      "denied": 5923,
      "stanley": 5924,
      "rooms": 5925,
      "##western": 5926,
      "##ommod": 5927,
      "110": 5928,
      "##da": 5929,
      "##ched": 5930,
      "representatives": 5931,
      "weekend": 5932,
      "clubs": 5933,
      "interpret": 5934,
      "bou": 5935,
      "recre": 5936,
      "biograph": 5937,
      "unusual": 5938,
      "dens": 5939,
      "##bar": 5940,
      "theater": 5941,
      "mediterranean": 5942,
      "commanded": 5943,
      "musicians": 5944,
      "fictional": 5945,
      "deem": 5946,
      "strongly": 5947,
      "1959": 5948,
      "seeing": 5949,
      "circulation": 5950,
      "beatles": 5951,
      "kevin": 5952,
      "outstanding": 5953,
      "##agonist": 5954,
      "mexican": 5955,
      "begun": 5956,
      "deput": 5957,
      "completion": 5958,
      "surviving": 5959,
      "bruce": 5960,
      "roger": 5961,
      "rebell": 5962,
      "intercept": 5963,
      "neighbor": 5964,
      "solar": 5965,
      "##suit": 5966,
      "materials": 5967,
      "transportation": 5968,
      "rif": 5969,
      "##ruption": 5970,
      "reality": 5971,
      "bristol": 5972,
      "consult": 5973,
      "cathed": 5974,
      "alleged": 5975,
      "norwegian": 5976,
      "attorney": 5977,
      "costs": 5978,
      "##ician": 5979,
      "wickets": 5980,
      "exception": 5981,
      "persu": 5982,
      "gust": 5983,
      "tied": 5984,
      "possibility": 5985,
      "lanc": 5986,
      "##uge": 5987,
      "methods": 5988,
      "monarch": 5989,
      "sailed": 5990,
      "ford": 5991,
      "consp": 5992,
      "responsibility": 5993,
      "1955": 5994,
      "haz": 5995,
      "##borne": 5996,
      "1954": 5997,
      "##ek": 5998,
      "everyone": 5999,
      "passenger": 6000,
      "##math": 6001,
      "##itable": 6002,
      "praise": 6003,
      "philip": 6004,
      "isbn": 6005,
      "vision": 6006,
      "driven": 6007,
      "characteristics": 6008,
      "##works": 6009,
      "opposite": 6010,
      "differences": 6011,
      "cem": 6012,
      "##state": 6013,
      "missed": 6014,
      "representative": 6015,
      "carrier": 6016,
      "cancer": 6017,
      "atmosphere": 6018,
      "ku": 6019,
      "scheme": 6020,
      "conservation": 6021,
      "audio": 6022,
      "bot": 6023,
      "##rus": 6024,
      "desire": 6025,
      "pret": 6026,
      "thereafter": 6027,
      "##weight": 6028,
      "mes": 6029,
      "vary": 6030,
      "##ager": 6031,
      "##erto": 6032,
      "nic": 6033,
      "korea": 6034,
      "buy": 6035,
      "recovered": 6036,
      "lisa": 6037,
      "massive": 6038,
      "conte": 6039,
      "otherwise": 6040,
      "orange": 6041,
      "throne": 6042,
      "##erged": 6043,
      "##burn": 6044,
      "funding": 6045,
      "platinum": 6046,
      "obl": 6047,
      "strategy": 6048,
      "wrong": 6049,
      "attributed": 6050,
      "om": 6051,
      "##char": 6052,
      "##onto": 6053,
      "gle": 6054,
      "dragon": 6055,
      "warri": 6056,
      "serves": 6057,
      "##organ": 6058,
      "cu": 6059,
      "shif": 6060,
      "stayed": 6061,
      "phill": 6062,
      "emerged": 6063,
      "##arian": 6064,
      "reconst": 6065,
      "twin": 6066,
      "effectively": 6067,
      "communities": 6068,
      "classified": 6069,
      "sid": 6070,
      "sweet": 6071,
      "outbreak": 6072,
      "##ucks": 6073,
      "township": 6074,
      "##ami": 6075,
      "punk": 6076,
      "ministry": 6077,
      "morris": 6078,
      "weapon": 6079,
      "##alf": 6080,
      "adults": 6081,
      "aboard": 6082,
      "retirement": 6083,
      "anton": 6084,
      "##elsh": 6085,
      "##path": 6086,
      "accommod": 6087,
      "1952": 6088,
      "robinson": 6089,
      "dor": 6090,
      "83": 6091,
      "regularly": 6092,
      "##urr": 6093,
      "crosses": 6094,
      "dissip": 6095,
      "##ez": 6096,
      "morgan": 6097,
      "accounts": 6098,
      "documentary": 6099,
      "pir": 6100,
      "hat": 6101,
      "partn": 6102,
      "norman": 6103,
      "nelson": 6104,
      "ille": 6105,
      "##enses": 6106,
      "##aza": 6107,
      "circle": 6108,
      "##bell": 6109,
      "hawai": 6110,
      "mobile": 6111,
      "underground": 6112,
      "lith": 6113,
      "##riers": 6114,
      "falling": 6115,
      "lies": 6116,
      "stead": 6117,
      "expect": 6118,
      "angle": 6119,
      "voy": 6120,
      "attracted": 6121,
      "pleas": 6122,
      "wonder": 6123,
      "crop": 6124,
      "mck": 6125,
      "enterpr": 6126,
      "satis": 6127,
      "stood": 6128,
      "submarine": 6129,
      "forming": 6130,
      "summ": 6131,
      "premiere": 6132,
      "##isms": 6133,
      "wre": 6134,
      "ah": 6135,
      "trials": 6136,
      "1933": 6137,
      "##ersed": 6138,
      "factor": 6139,
      "racing": 6140,
      "##oslav": 6141,
      "elections": 6142,
      "criminal": 6143,
      "commem": 6144,
      "##phone": 6145,
      "parks": 6146,
      "movements": 6147,
      "renew": 6148,
      "##rupted": 6149,
      "advis": 6150,
      "##pective": 6151,
      "injuries": 6152,
      "battleships": 6153,
      "lyn": 6154,
      "##pping": 6155,
      "##apers": 6156,
      "aftermath": 6157,
      "batting": 6158,
      "176": 6159,
      "pull": 6160,
      "needs": 6161,
      "raise": 6162,
      "##ompl": 6163,
      "##abled": 6164,
      "votes": 6165,
      "##sole": 6166,
      "inspiration": 6167,
      "separated": 6168,
      "immig": 6169,
      "sweden": 6170,
      "##oking": 6171,
      "patrick": 6172,
      "races": 6173,
      "vert": 6174,
      "garrison": 6175,
      "predec": 6176,
      "enth": 6177,
      "relative": 6178,
      "allen": 6179,
      "sudden": 6180,
      "##uting": 6181,
      "shark": 6182,
      "soph": 6183,
      "earn": 6184,
      "welsh": 6185,
      "chain": 6186,
      "temporary": 6187,
      "bag": 6188,
      "##idden": 6189,
      "1910": 6190,
      "symph": 6191,
      "1935": 6192,
      "orb": 6193,
      "remn": 6194,
      "queens": 6195,
      "dod": 6196,
      "plane": 6197,
      "flank": 6198,
      "difficulty": 6199,
      "partner": 6200,
      "1951": 6201,
      "distinguished": 6202,
      "1949": 6203,
      "##rett": 6204,
      "seemed": 6205,
      "requested": 6206,
      "delayed": 6207,
      "nom": 6208,
      "##teenth": 6209,
      "ports": 6210,
      "shir": 6211,
      "facility": 6212,
      "##bing": 6213,
      "depict": 6214,
      "restored": 6215,
      "surrounded": 6216,
      "elder": 6217,
      "##ran": 6218,
      "standards": 6219,
      "gets": 6220,
      "toronto": 6221,
      "matthew": 6222,
      "wedd": 6223,
      "##dh": 6224,
      "##ss": 6225,
      "hoped": 6226,
      "13th": 6227,
      "sor": 6228,
      "##uts": 6229,
      "claiming": 6230,
      "##imate": 6231,
      "elsewhere": 6232,
      "pel": 6233,
      "bridges": 6234,
      "netherlands": 6235,
      "childhood": 6236,
      "kl": 6237,
      "convection": 6238,
      "penalty": 6239,
      "amaz": 6240,
      "##ogy": 6241,
      "metropol": 6242,
      "reviewer": 6243,
      "arn": 6244,
      "16th": 6245,
      "byzantine": 6246,
      "murd": 6247,
      "frame": 6248,
      "mars": 6249,
      "##aug": 6250,
      "##oyd": 6251,
      "harm": 6252,
      "meets": 6253,
      "stands": 6254,
      "temperatures": 6255,
      "convinced": 6256,
      "rud": 6257,
      "##abil": 6258,
      "greatly": 6259,
      "##rell": 6260,
      "examples": 6261,
      "divers": 6262,
      "jews": 6263,
      "moderate": 6264,
      "ages": 6265,
      "cathedral": 6266,
      "uss": 6267,
      "publishing": 6268,
      "dangerous": 6269,
      "jazz": 6270,
      "lor": 6271,
      "jacob": 6272,
      "iraq": 6273,
      "involvement": 6274,
      "kiss": 6275,
      "appropri": 6276,
      "painted": 6277,
      "wolf": 6278,
      "jordan": 6279,
      "tub": 6280,
      "##lets": 6281,
      "internet": 6282,
      "cycle": 6283,
      "easy": 6284,
      "rick": 6285,
      "obtain": 6286,
      "wooden": 6287,
      "gor": 6288,
      "##yard": 6289,
      "alco": 6290,
      "desert": 6291,
      "accompl": 6292,
      "hundreds": 6293,
      "spoke": 6294,
      "wright": 6295,
      "##oz": 6296,
      "immediate": 6297,
      "learn": 6298,
      "molec": 6299,
      "eggs": 6300,
      "fled": 6301,
      "##berts": 6302,
      "##iley": 6303,
      "anyone": 6304,
      "recordings": 6305,
      "tries": 6306,
      "anne": 6307,
      "7th": 6308,
      "insur": 6309,
      "excell": 6310,
      "##eness": 6311,
      "parish": 6312,
      "##ien": 6313,
      "##pson": 6314,
      "toll": 6315,
      "coin": 6316,
      "drag": 6317,
      "satell": 6318,
      "strip": 6319,
      "appearing": 6320,
      "learning": 6321,
      "salv": 6322,
      "encouraged": 6323,
      "somewh": 6324,
      "somewhat": 6325,
      "fu": 6326,
      "bureau": 6327,
      "dal": 6328,
      "##omot": 6329,
      "suffering": 6330,
      "leaf": 6331,
      "displ": 6332,
      "armen": 6333,
      "measures": 6334,
      "prohib": 6335,
      "safe": 6336,
      "techniques": 6337,
      "graphics": 6338,
      "1900": 6339,
      "croatian": 6340,
      "poetry": 6341,
      "##mi": 6342,
      "veget": 6343,
      "russell": 6344,
      "kelly": 6345,
      "legislation": 6346,
      "determine": 6347,
      "##yd": 6348,
      "bears": 6349,
      "mamm": 6350,
      "horror": 6351,
      "dismissed": 6352,
      "hud": 6353,
      "hin": 6354,
      "##bro": 6355,
      "patri": 6356,
      "kw": 6357,
      "thompson": 6358,
      "dating": 6359,
      "5th": 6360,
      "hub": 6361,
      "##arn": 6362,
      "##going": 6363,
      "interests": 6364,
      "ensure": 6365,
      "assass": 6366,
      "facing": 6367,
      "pak": 6368,
      "whereas": 6369,
      "attempting": 6370,
      "journalist": 6371,
      "nickn": 6372,
      "##agement": 6373,
      "usa": 6374,
      "hend": 6375,
      "fighters": 6376,
      "absor": 6377,
      "wy": 6378,
      "##ito": 6379,
      "##agre": 6380,
      "fitted": 6381,
      "buck": 6382,
      "islam": 6383,
      "upd": 6384,
      "gent": 6385,
      "nfl": 6386,
      "holds": 6387,
      "carter": 6388,
      "commonwe": 6389,
      "thousand": 6390,
      "weigh": 6391,
      "starred": 6392,
      "puerto": 6393,
      "bypass": 6394,
      "attacking": 6395,
      "adaptation": 6396,
      "depos": 6397,
      "trophy": 6398,
      "##body": 6399,
      "##rad": 6400,
      "formerly": 6401,
      "commonwealth": 6402,
      "enfor": 6403,
      "visible": 6404,
      "##war": 6405,
      "06": 6406,
      "closer": 6407,
      "6th": 6408,
      "##ux": 6409,
      "biggest": 6410,
      "extreme": 6411,
      "spears": 6412,
      "theor": 6413,
      "option": 6414,
      "questions": 6415,
      "##iva": 6416,
      "wet": 6417,
      "##ighter": 6418,
      "##itzer": 6419,
      "hungarian": 6420,
      "absence": 6421,
      "bh": 6422,
      "bats": 6423,
      "modified": 6424,
      "##agu": 6425,
      "neck": 6426,
      "conclusion": 6427,
      "##elsen": 6428,
      "mitch": 6429,
      "deemed": 6430,
      "dj": 6431,
      "batman": 6432,
      "##alo": 6433,
      "apparently": 6434,
      "premiered": 6435,
      "##real": 6436,
      "parker": 6437,
      "##night": 6438,
      "controversial": 6439,
      "landed": 6440,
      "landsc": 6441,
      "laboratory": 6442,
      "lion": 6443,
      "##acent": 6444,
      "novels": 6445,
      "narrative": 6446,
      "harris": 6447,
      "diplom": 6448,
      "productions": 6449,
      "distributed": 6450,
      "longest": 6451,
      "murray": 6452,
      "territories": 6453,
      "instruments": 6454,
      "##rete": 6455,
      "leads": 6456,
      "1913": 6457,
      "operate": 6458,
      "stor": 6459,
      "understand": 6460,
      "trained": 6461,
      "##mes": 6462,
      "##olph": 6463,
      "victims": 6464,
      "##sk": 6465,
      "1926": 6466,
      "12th": 6467,
      "restoration": 6468,
      "900": 6469,
      "gallery": 6470,
      "enh": 6471,
      "alph": 6472,
      "scand": 6473,
      "joy": 6474,
      "creative": 6475,
      "##vis": 6476,
      "1927": 6477,
      "rhythm": 6478,
      "acknowled": 6479,
      "bronze": 6480,
      "files": 6481,
      "unsuccessful": 6482,
      "mainstream": 6483,
      "visitors": 6484,
      "unp": 6485,
      "uniform": 6486,
      "releases": 6487,
      "refuge": 6488,
      "discip": 6489,
      "sees": 6490,
      "dna": 6491,
      "representing": 6492,
      "arrangement": 6493,
      "believes": 6494,
      "##chang": 6495,
      "substit": 6496,
      "##ivan": 6497,
      "depicted": 6498,
      "influential": 6499,
      "##eler": 6500,
      "resolution": 6501,
      "owners": 6502,
      "dynam": 6503,
      "##ares": 6504,
      "yan": 6505,
      "basin": 6506,
      "abbey": 6507,
      "excess": 6508,
      "1934": 6509,
      "dominated": 6510,
      "looked": 6511,
      "dre": 6512,
      "liqu": 6513,
      "harbor": 6514,
      "houston": 6515,
      "finn": 6516,
      "1921": 6517,
      "apple": 6518,
      "berlin": 6519,
      "coins": 6520,
      "secured": 6521,
      "raaf": 6522,
      "churches": 6523,
      "##iant": 6524,
      "##owa": 6525,
      "locomot": 6526,
      "videos": 6527,
      "exit": 6528,
      "##ixon": 6529,
      "notably": 6530,
      "santa": 6531,
      "wol": 6532,
      "##asions": 6533,
      "##aska": 6534,
      "informed": 6535,
      "comics": 6536,
      "lod": 6537,
      "yug": 6538,
      "watching": 6539,
      "##aws": 6540,
      "##gets": 6541,
      "legs": 6542,
      "expos": 6543,
      "reun": 6544,
      "##illing": 6545,
      "driver": 6546,
      "wag": 6547,
      "indians": 6548,
      "##gate": 6549,
      "offices": 6550,
      "giants": 6551,
      "cemet": 6552,
      "sure": 6553,
      "cemetery": 6554,
      "sull": 6555,
      "roberts": 6556,
      "1912": 6557,
      "deployed": 6558,
      "swedish": 6559,
      "hut": 6560,
      "simpson": 6561,
      "neighbour": 6562,
      "##atically": 6563,
      "languages": 6564,
      "guardian": 6565,
      "apparent": 6566,
      "tone": 6567,
      "relationships": 6568,
      "##rig": 6569,
      "aftern": 6570,
      "##ultane": 6571,
      "simultane": 6572,
      "##roit": 6573,
      "##ture": 6574,
      "imposs": 6575,
      "dick": 6576,
      "clo": 6577,
      "##aya": 6578,
      "housing": 6579,
      "08": 6580,
      "##eenth": 6581,
      "cher": 6582,
      "##ila": 6583,
      "##apse": 6584,
      "##illed": 6585,
      "cov": 6586,
      "hearing": 6587,
      "##iph": 6588,
      "testing": 6589,
      "behavi": 6590,
      "deliver": 6591,
      "device": 6592,
      "terror": 6593,
      "##certain": 6594,
      "1932": 6595,
      "dies": 6596,
      "skills": 6597,
      "##vens": 6598,
      "achieve": 6599,
      "pregn": 6600,
      "influences": 6601,
      "diagn": 6602,
      "tie": 6603,
      "##fr": 6604,
      "warner": 6605,
      "detail": 6606,
      "cock": 6607,
      "pale": 6608,
      "freder": 6609,
      "operational": 6610,
      "impressed": 6611,
      "generated": 6612,
      "##coming": 6613,
      "jason": 6614,
      "liz": 6615,
      "reportedly": 6616,
      "intense": 6617,
      "casting": 6618,
      "factors": 6619,
      "mete": 6620,
      "mud": 6621,
      "##cr": 6622,
      "opponents": 6623,
      "happened": 6624,
      "abd": 6625,
      "emotional": 6626,
      "window": 6627,
      "surg": 6628,
      "commemor": 6629,
      "sang": 6630,
      "##fare": 6631,
      "render": 6632,
      "agents": 6633,
      "##iously": 6634,
      "disappear": 6635,
      "nbc": 6636,
      "##ternal": 6637,
      "anthony": 6638,
      "agricultural": 6639,
      "drums": 6640,
      "cod": 6641,
      "firing": 6642,
      "successor": 6643,
      "employees": 6644,
      "cabinet": 6645,
      "bapt": 6646,
      "##lying": 6647,
      "dialogue": 6648,
      "footage": 6649,
      "experiences": 6650,
      "yugoslav": 6651,
      "download": 6652,
      "fred": 6653,
      "cob": 6654,
      "##uv": 6655,
      "satur": 6656,
      "somers": 6657,
      "gaga": 6658,
      "rising": 6659,
      "clay": 6660,
      "cloth": 6661,
      "reprodu": 6662,
      "trek": 6663,
      "um": 6664,
      "raj": 6665,
      "teeth": 6666,
      "mainten": 6667,
      "fisher": 6668,
      "defended": 6669,
      "croatia": 6670,
      "fishing": 6671,
      "scientists": 6672,
      "negotiations": 6673,
      "09": 6674,
      "lose": 6675,
      "lowest": 6676,
      "maintenance": 6677,
      "##fire": 6678,
      "revolutionary": 6679,
      "stem": 6680,
      "cz": 6681,
      "executed": 6682,
      "##icial": 6683,
      "##otype": 6684,
      "zero": 6685,
      "ark": 6686,
      "medium": 6687,
      "discussed": 6688,
      "fried": 6689,
      "##opes": 6690,
      "belg": 6691,
      "gather": 6692,
      "personality": 6693,
      "normally": 6694,
      "rit": 6695,
      "treated": 6696,
      "gilbert": 6697,
      "1911": 6698,
      "detroit": 6699,
      "##lad": 6700,
      "laur": 6701,
      "1929": 6702,
      "##igen": 6703,
      "feud": 6704,
      "140": 6705,
      "enters": 6706,
      "##aints": 6707,
      "##arts": 6708,
      "format": 6709,
      "asian": 6710,
      "tribute": 6711,
      "interstate": 6712,
      "tenth": 6713,
      "afternoon": 6714,
      "lob": 6715,
      "stewart": 6716,
      "christoph": 6717,
      "resign": 6718,
      "sympt": 6719,
      "drawing": 6720,
      "##anny": 6721,
      "clinton": 6722,
      "residential": 6723,
      "##achment": 6724,
      "carib": 6725,
      "radar": 6726,
      "flew": 6727,
      "jesus": 6728,
      "resigned": 6729,
      "melbourne": 6730,
      "accompany": 6731,
      "goods": 6732,
      "arrest": 6733,
      "1931": 6734,
      "vessel": 6735,
      "duch": 6736,
      "##esc": 6737,
      "difference": 6738,
      "advoc": 6739,
      "detailed": 6740,
      "ethnic": 6741,
      "tornado": 6742,
      "boil": 6743,
      "##iliar": 6744,
      "storms": 6745,
      "aged": 6746,
      "evans": 6747,
      "formally": 6748,
      "pointed": 6749,
      "portra": 6750,
      "nielsen": 6751,
      "partnership": 6752,
      "inhabit": 6753,
      "1922": 6754,
      "prevented": 6755,
      "##ontin": 6756,
      "reveals": 6757,
      "militia": 6758,
      "preferred": 6759,
      "##tz": 6760,
      "trig": 6761,
      "loop": 6762,
      "xbox": 6763,
      "ay": 6764,
      "pushed": 6765,
      "innov": 6766,
      "##inces": 6767,
      "directors": 6768,
      "stable": 6769,
      "tempor": 6770,
      "##oen": 6771,
      "forb": 6772,
      "keeping": 6773,
      "##ructure": 6774,
      "huge": 6775,
      "erect": 6776,
      "arriving": 6777,
      "3d": 6778,
      "apprec": 6779,
      "exposed": 6780,
      "seas": 6781,
      "isolated": 6782,
      "organizations": 6783,
      "neighborhood": 6784,
      "sisters": 6785,
      "##orous": 6786,
      "synd": 6787,
      "breath": 6788,
      "##oral": 6789,
      "atlant": 6790,
      "substantial": 6791,
      "mit": 6792,
      "prosp": 6793,
      "disturb": 6794,
      "metro": 6795,
      "forty": 6796,
      "partly": 6797,
      "handed": 6798,
      "sevent": 6799,
      "##mun": 6800,
      "muslim": 6801,
      "marshall": 6802,
      "sic": 6803,
      "origins": 6804,
      "institution": 6805,
      "moments": 6806,
      "smooth": 6807,
      "linked": 6808,
      "##using": 6809,
      "founder": 6810,
      "turkish": 6811,
      "forec": 6812,
      "sarah": 6813,
      "joh": 6814,
      "departed": 6815,
      "##wan": 6816,
      "glac": 6817,
      "analy": 6818,
      "austria": 6819,
      "samuel": 6820,
      "imprison": 6821,
      "mack": 6822,
      "##iner": 6823,
      "benn": 6824,
      "kal": 6825,
      "##arf": 6826,
      "herald": 6827,
      "05": 6828,
      "##gi": 6829,
      "factory": 6830,
      "enthus": 6831,
      "##rose": 6832,
      "##olis": 6833,
      "designer": 6834,
      "pam": 6835,
      "##rees": 6836,
      "meteor": 6837,
      "##ras": 6838,
      "suspend": 6839,
      "existed": 6840,
      "continental": 6841,
      "colorado": 6842,
      "##asts": 6843,
      "manh": 6844,
      "fifteen": 6845,
      "frequent": 6846,
      "pione": 6847,
      "avo": 6848,
      "dramatic": 6849,
      "hans": 6850,
      "##ologists": 6851,
      "ranking": 6852,
      "periods": 6853,
      "lennon": 6854,
      "##lie": 6855,
      "proced": 6856,
      "greece": 6857,
      "extent": 6858,
      "wedding": 6859,
      "baltim": 6860,
      "participate": 6861,
      "##hel": 6862,
      "##bean": 6863,
      "impossible": 6864,
      "jess": 6865,
      "baltimore": 6866,
      "##gas": 6867,
      "amph": 6868,
      "instance": 6869,
      "load": 6870,
      "shock": 6871,
      "moral": 6872,
      "170": 6873,
      "seeking": 6874,
      "insc": 6875,
      "##usted": 6876,
      "cruisers": 6877,
      "instrumental": 6878,
      "lun": 6879,
      "scholar": 6880,
      "initi": 6881,
      "anticip": 6882,
      "catal": 6883,
      "##inder": 6884,
      "##roll": 6885,
      "technique": 6886,
      "deputy": 6887,
      "teamm": 6888,
      "specimens": 6889,
      "alter": 6890,
      "mail": 6891,
      "taught": 6892,
      "aqu": 6893,
      "ye": 6894,
      "##ressed": 6895,
      "grace": 6896,
      "malays": 6897,
      "##spec": 6898,
      "##20": 6899,
      "helic": 6900,
      "turb": 6901,
      "sullivan": 6902,
      "concerts": 6903,
      "seek": 6904,
      "ern": 6905,
      "##rating": 6906,
      "##tw": 6907,
      "oxy": 6908,
      "ghost": 6909,
      "verse": 6910,
      "hunt": 6911,
      "##lyn": 6912,
      "rarely": 6913,
      "15th": 6914,
      "occupation": 6915,
      "aware": 6916,
      "tan": 6917,
      "amendment": 6918,
      "##music": 6919,
      "gates": 6920,
      "friendly": 6921,
      "creator": 6922,
      "newspapers": 6923,
      "phen": 6924,
      "rug": 6925,
      "fab": 6926,
      "spending": 6927,
      "diameter": 6928,
      "finale": 6929,
      "goth": 6930,
      "dir": 6931,
      "upgraded": 6932,
      "alab": 6933,
      "dave": 6934,
      "armament": 6935,
      "doesn": 6936,
      "relie": 6937,
      "withdrew": 6938,
      "nag": 6939,
      "##enh": 6940,
      "##oust": 6941,
      "lect": 6942,
      "arena": 6943,
      "metropolitan": 6944,
      "absol": 6945,
      "##otes": 6946,
      "timber": 6947,
      "assess": 6948,
      "eagle": 6949,
      "##aria": 6950,
      "listen": 6951,
      "exhibition": 6952,
      "uncertain": 6953,
      "precip": 6954,
      "chase": 6955,
      "picked": 6956,
      "encountered": 6957,
      "covers": 6958,
      "##iami": 6959,
      "rav": 6960,
      "permission": 6961,
      "poison": 6962,
      "divor": 6963,
      "frederick": 6964,
      "mathemat": 6965,
      "pounds": 6966,
      "chanc": 6967,
      "joining": 6968,
      "blow": 6969,
      "procl": 6970,
      "pip": 6971,
      "##eing": 6972,
      "##umin": 6973,
      "refere": 6974,
      "tod": 6975,
      "##icians": 6976,
      "collaps": 6977,
      "1928": 6978,
      "boss": 6979,
      "10th": 6980,
      "difficulties": 6981,
      "mario": 6982,
      "changing": 6983,
      "policies": 6984,
      "##boy": 6985,
      "skull": 6986,
      "somerset": 6987,
      "rates": 6988,
      "anch": 6989,
      "mississ": 6990,
      "legislature": 6991,
      "cous": 6992,
      "multi": 6993,
      "##iller": 6994,
      "partially": 6995,
      "##obi": 6996,
      "inaug": 6997,
      "##idae": 6998,
      "seed": 6999,
      "dece": 7000,
      "restrict": 7001,
      "turrets": 7002,
      "1925": 7003,
      "advice": 7004,
      "schedule": 7005,
      "trend": 7006,
      "merchant": 7007,
      "##anium": 7008,
      "bombers": 7009,
      "suicide": 7010,
      "miami": 7011,
      "##eted": 7012,
      "##borough": 7013,
      "sank": 7014,
      "inqu": 7015,
      "##sea": 7016,
      "athletic": 7017,
      "gab": 7018,
      "anglo": 7019,
      "pilots": 7020,
      "unn": 7021,
      "cole": 7022,
      "loan": 7023,
      "aggress": 7024,
      "disaster": 7025,
      "restric": 7026,
      "federation": 7027,
      "adjacent": 7028,
      "plus": 7029,
      "affair": 7030,
      "traveled": 7031,
      "gap": 7032,
      "hamm": 7033,
      "seattle": 7034,
      "refers": 7035,
      "##eu": 7036,
      "anna": 7037,
      "sector": 7038,
      "benefit": 7039,
      "##opter": 7040,
      "agree": 7041,
      "waves": 7042,
      "teacher": 7043,
      "plain": 7044,
      "pref": 7045,
      "param": 7046,
      "philosophy": 7047,
      "##olas": 7048,
      "seats": 7049,
      "9th": 7050,
      "gardens": 7051,
      "proport": 7052,
      "marry": 7053,
      "phr": 7054,
      "signs": 7055,
      "comments": 7056,
      "##amese": 7057,
      "1924": 7058,
      "cha": 7059,
      "pitched": 7060,
      "harbour": 7061,
      "shakes": 7062,
      "criticised": 7063,
      "holl": 7064,
      "mines": 7065,
      "minimum": 7066,
      "iowa": 7067,
      "##ello": 7068,
      "explo": 7069,
      "coordin": 7070,
      "meat": 7071,
      "soldier": 7072,
      "danc": 7073,
      "alabama": 7074,
      "1920s": 7075,
      "soil": 7076,
      "australians": 7077,
      "napole": 7078,
      "destroyers": 7079,
      "bases": 7080,
      "struggle": 7081,
      "prompted": 7082,
      "municipal": 7083,
      "remove": 7084,
      "swift": 7085,
      "compete": 7086,
      "surprise": 7087,
      "whil": 7088,
      "bom": 7089,
      "mint": 7090,
      "collapse": 7091,
      "##uman": 7092,
      "margar": 7093,
      "missou": 7094,
      "##attan": 7095,
      "potter": 7096,
      "##aire": 7097,
      "##power": 7098,
      "caribbean": 7099,
      "habitat": 7100,
      "neutral": 7101,
      "span": 7102,
      "overl": 7103,
      "km2": 7104,
      "spiritual": 7105,
      "forcing": 7106,
      "indeed": 7107,
      "charlie": 7108,
      "medicine": 7109,
      "rebellion": 7110,
      "07": 7111,
      "##uster": 7112,
      "string": 7113,
      "lawrence": 7114,
      "grown": 7115,
      "minnes": 7116,
      "##imb": 7117,
      "manusc": 7118,
      "armored": 7119,
      "bros": 7120,
      "14th": 7121,
      "enterprise": 7122,
      "powered": 7123,
      "designation": 7124,
      "##attered": 7125,
      "walker": 7126,
      "##isd": 7127,
      "teaching": 7128,
      "paintings": 7129,
      "whilst": 7130,
      "manuscript": 7131,
      "capit": 7132,
      "copy": 7133,
      "sufficient": 7134,
      "citing": 7135,
      "##sa": 7136,
      "stream": 7137,
      "survivors": 7138,
      "yor": 7139,
      "protagonist": 7140,
      "1923": 7141,
      "values": 7142,
      "fifty": 7143,
      "satellite": 7144,
      "yanke": 7145,
      "forg": 7146,
      "##col": 7147,
      "wreck": 7148,
      "possession": 7149,
      "halo": 7150,
      "##mo": 7151,
      "##thy": 7152,
      "##ige": 7153,
      "myster": 7154,
      "covering": 7155,
      "appointment": 7156,
      "ian": 7157,
      "##pan": 7158,
      "khan": 7159,
      "restaurant": 7160,
      "##nings": 7161,
      "tip": 7162,
      "describe": 7163,
      "approval": 7164,
      "encounter": 7165,
      "##rum": 7166,
      "##eland": 7167,
      "marketing": 7168,
      "ecc": 7169,
      "provinc": 7170,
      "rounds": 7171,
      "travelled": 7172,
      "multipl": 7173,
      "collaboration": 7174,
      "##udes": 7175,
      "##athers": 7176,
      "depending": 7177,
      "##ding": 7178,
      "nazi": 7179,
      "pretty": 7180,
      "candidates": 7181,
      "charter": 7182,
      "understanding": 7183,
      "poems": 7184,
      "communication": 7185,
      "balance": 7186,
      "fortress": 7187,
      "##inction": 7188,
      "indicate": 7189,
      "hungary": 7190,
      "oxygen": 7191,
      "mall": 7192,
      "victories": 7193,
      "cyl": 7194,
      "situated": 7195,
      "displayed": 7196,
      "recur": 7197,
      "brill": 7198,
      "dollars": 7199,
      "pine": 7200,
      "meg": 7201,
      "bowling": 7202,
      "benj": 7203,
      "minimal": 7204,
      "pc": 7205,
      "battalions": 7206,
      "hamp": 7207,
      "##usal": 7208,
      "##ascar": 7209,
      "ry": 7210,
      "##encing": 7211,
      "survive": 7212,
      "dispute": 7213,
      "##rates": 7214,
      "villages": 7215,
      "nam": 7216,
      "##fe": 7217,
      "violent": 7218,
      "rugby": 7219,
      "legislative": 7220,
      "##rom": 7221,
      "earthqu": 7222,
      "belgium": 7223,
      "dock": 7224,
      "##lev": 7225,
      "jar": 7226,
      "alive": 7227,
      "closing": 7228,
      "telling": 7229,
      "sugar": 7230,
      "assisted": 7231,
      "degrees": 7232,
      "cot": 7233,
      "serial": 7234,
      "femin": 7235,
      "gear": 7236,
      "wake": 7237,
      "forests": 7238,
      "pron": 7239,
      "diego": 7240,
      "ml": 7241,
      "priest": 7242,
      "software": 7243,
      "dancing": 7244,
      "interpre": 7245,
      "amongst": 7246,
      "helping": 7247,
      "funeral": 7248,
      "kit": 7249,
      "cargo": 7250,
      "ski": 7251,
      "shakesp": 7252,
      "marks": 7253,
      "clock": 7254,
      "playoffs": 7255,
      "ral": 7256,
      "guil": 7257,
      "colonies": 7258,
      "symptoms": 7259,
      "asks": 7260,
      "acted": 7261,
      "eliminated": 7262,
      "shakespear": 7263,
      "dc": 7264,
      "infr": 7265,
      "fel": 7266,
      "jok": 7267,
      "riders": 7268,
      "##avery": 7269,
      "monster": 7270,
      "hypoth": 7271,
      "purposes": 7272,
      "tomb": 7273,
      "prol": 7274,
      "christopher": 7275,
      "01": 7276,
      "##esses": 7277,
      "drivers": 7278,
      "##velt": 7279,
      "##ecraft": 7280,
      "nad": 7281,
      "##imeter": 7282,
      "behaviour": 7283,
      "hipp": 7284,
      "circumst": 7285,
      "reconna": 7286,
      "repairs": 7287,
      "alfred": 7288,
      "pars": 7289,
      "mississipp": 7290,
      "##car": 7291,
      "simpl": 7292,
      "trouble": 7293,
      "hong": 7294,
      "fatal": 7295,
      "orbit": 7296,
      "occasions": 7297,
      "compilation": 7298,
      "roose": 7299,
      "mason": 7300,
      "##enz": 7301,
      "blind": 7302,
      "quiet": 7303,
      "concrete": 7304,
      "1908": 7305,
      "benjamin": 7306,
      "subt": 7307,
      "alcohol": 7308,
      "minnesota": 7309,
      "kin": 7310,
      "##hed": 7311,
      "inland": 7312,
      "1909": 7313,
      "sympath": 7314,
      "vietn": 7315,
      "##tt": 7316,
      "##lus": 7317,
      "1905": 7318,
      "##fted": 7319,
      "administrative": 7320,
      "vietnamese": 7321,
      "statue": 7322,
      "lists": 7323,
      "brun": 7324,
      "reconnaissance": 7325,
      "tab": 7326,
      "##atus": 7327,
      "##athered": 7328,
      "11th": 7329,
      "preserved": 7330,
      "publicly": 7331,
      "grammy": 7332,
      "horiz": 7333,
      "preparation": 7334,
      "tang": 7335,
      "105": 7336,
      "21st": 7337,
      "sick": 7338,
      "##ses": 7339,
      "mental": 7340,
      "abilities": 7341,
      "articles": 7342,
      "businesses": 7343,
      "console": 7344,
      "pool": 7345,
      "##inals": 7346,
      "voiced": 7347,
      "manhattan": 7348,
      "125": 7349,
      "concurr": 7350,
      "highways": 7351,
      "defeating": 7352,
      "stevens": 7353,
      "illness": 7354,
      "cannon": 7355,
      "sole": 7356,
      "franklin": 7357,
      "stro": 7358,
      "##jan": 7359,
      "elabor": 7360,
      "touring": 7361,
      "export": 7362,
      "ammun": 7363,
      "roosevelt": 7364,
      "##ounced": 7365,
      "attendance": 7366,
      "resumed": 7367,
      "bran": 7368,
      "communications": 7369,
      "residence": 7370,
      "signal": 7371,
      "jet": 7372,
      "nash": 7373,
      "##sex": 7374,
      "argument": 7375,
      "kansas": 7376,
      "competed": 7377,
      "intensified": 7378,
      "believing": 7379,
      "##acher": 7380,
      "##ivated": 7381,
      "##atherine": 7382,
      "ammunition": 7383,
      "03": 7384,
      "alignment": 7385,
      "surge": 7386,
      "thinking": 7387,
      "coff": 7388,
      "archb": 7389,
      "excav": 7390,
      "04": 7391,
      "164": 7392,
      "flights": 7393,
      "##kel": 7394,
      "frig": 7395,
      "portland": 7396,
      "counties": 7397,
      "dollar": 7398,
      "icon": 7399,
      "rib": 7400,
      "##orph": 7401,
      "spar": 7402,
      "fallen": 7403,
      "airborne": 7404,
      "backing": 7405,
      "crews": 7406,
      "strategic": 7407,
      "vs": 7408,
      "signing": 7409,
      "1907": 7410,
      "subjects": 7411,
      "deliber": 7412,
      "opponent": 7413,
      "witch": 7414,
      "##lan": 7415,
      "usd": 7416,
      "assists": 7417,
      "walking": 7418,
      "nu": 7419,
      "friendship": 7420,
      "##rh": 7421,
      "willing": 7422,
      "##unc": 7423,
      "audiences": 7424,
      "##ulating": 7425,
      "ceremon": 7426,
      "usual": 7427,
      "documents": 7428,
      "##agen": 7429,
      "suitable": 7430,
      "##acle": 7431,
      "genetic": 7432,
      "telegr": 7433,
      "interesting": 7434,
      "alternate": 7435,
      "philippines": 7436,
      "doubt": 7437,
      "##icity": 7438,
      "mush": 7439,
      "sib": 7440,
      "##mat": 7441,
      "engineers": 7442,
      "nit": 7443,
      "mississippi": 7444,
      "select": 7445,
      "stu": 7446,
      "scor": 7447,
      "165": 7448,
      "feelings": 7449,
      "atomic": 7450,
      "noble": 7451,
      "saturday": 7452,
      "rach": 7453,
      "##mont": 7454,
      "radical": 7455,
      "abol": 7456,
      "loyal": 7457,
      "anime": 7458,
      "guards": 7459,
      "tribes": 7460,
      "provincial": 7461,
      "sas": 7462,
      "submitted": 7463,
      "woods": 7464,
      "completing": 7465,
      "percentage": 7466,
      "##bal": 7467,
      "chand": 7468,
      "liv": 7469,
      "waiting": 7470,
      "functions": 7471,
      "rever": 7472,
      "ownership": 7473,
      "##iac": 7474,
      "##emen": 7475,
      "charity": 7476,
      "##itated": 7477,
      "amate": 7478,
      "##ika": 7479,
      "behalf": 7480,
      "##sters": 7481,
      "organisation": 7482,
      "##bu": 7483,
      "##donald": 7484,
      "asking": 7485,
      "##uda": 7486,
      "hook": 7487,
      "##iveness": 7488,
      "publications": 7489,
      "disord": 7490,
      "tast": 7491,
      "lex": 7492,
      "tenness": 7493,
      "autobi": 7494,
      "alexand": 7495,
      "shakespeare": 7496,
      "evolved": 7497,
      "campbell": 7498,
      "ramp": 7499,
      "retail": 7500,
      "polar": 7501,
      "artistic": 7502,
      "stick": 7503,
      "adopt": 7504,
      "laugh": 7505,
      "pok": 7506,
      "len": 7507,
      "##odore": 7508,
      "chronicle": 7509,
      "explosion": 7510,
      "##ods": 7511,
      "targets": 7512,
      "frust": 7513,
      "obv": 7514,
      "false": 7515,
      "cinema": 7516,
      "registered": 7517,
      "##dale": 7518,
      "remark": 7519,
      "vinc": 7520,
      "wire": 7521,
      "##rator": 7522,
      "birthday": 7523,
      "lt": 7524,
      "##ifer": 7525,
      "butter": 7526,
      "hindu": 7527,
      "lakes": 7528,
      "hole": 7529,
      "suspended": 7530,
      "cartoon": 7531,
      "##onymous": 7532,
      "pic": 7533,
      "revenue": 7534,
      "margaret": 7535,
      "josh": 7536,
      "proc": 7537,
      "pole": 7538,
      "favorable": 7539,
      "steven": 7540,
      "rice": 7541,
      "##ader": 7542,
      "movies": 7543,
      "astronom": 7544,
      "por": 7545,
      "reluct": 7546,
      "warren": 7547,
      "civilian": 7548,
      "beauty": 7549,
      "##kh": 7550,
      "##leton": 7551,
      "poorly": 7552,
      "heading": 7553,
      "lucas": 7554,
      "provision": 7555,
      "borough": 7556,
      "egyptian": 7557,
      "##elli": 7558,
      "brick": 7559,
      "guer": 7560,
      "replacing": 7561,
      "pace": 7562,
      "forth": 7563,
      "comfort": 7564,
      "liked": 7565,
      "guilty": 7566,
      "hob": 7567,
      "stores": 7568,
      "##gression": 7569,
      "recip": 7570,
      "shells": 7571,
      "quad": 7572,
      "aimed": 7573,
      "cliff": 7574,
      "measured": 7575,
      "ze": 7576,
      "offering": 7577,
      "tennessee": 7578,
      "cass": 7579,
      "pup": 7580,
      "armies": 7581,
      "boundary": 7582,
      "gran": 7583,
      "ruth": 7584,
      "clearly": 7585,
      "##fish": 7586,
      "acceler": 7587,
      "underst": 7588,
      "ideal": 7589,
      "louisiana": 7590,
      "rocks": 7591,
      "##sky": 7592,
      "carn": 7593,
      "expensive": 7594,
      "##inea": 7595,
      "solution": 7596,
      "temporarily": 7597,
      "##die": 7598,
      "missouri": 7599,
      "360": 7600,
      "lon": 7601,
      "##lec": 7602,
      "recognised": 7603,
      "simultaneously": 7604,
      "shipping": 7605,
      "tox": 7606,
      "filed": 7607,
      "vulner": 7608,
      "execut": 7609,
      "sequences": 7610,
      "##uable": 7611,
      "##lah": 7612,
      "engagement": 7613,
      "remnants": 7614,
      "1906": 7615,
      "storage": 7616,
      "represents": 7617,
      "galax": 7618,
      "billy": 7619,
      "##ishment": 7620,
      "blocks": 7621,
      "craw": 7622,
      "monaster": 7623,
      "readers": 7624,
      "err": 7625,
      "montreal": 7626,
      "essential": 7627,
      "##wned": 7628,
      "aviation": 7629,
      "1904": 7630,
      "wore": 7631,
      "wants": 7632,
      "saved": 7633,
      "conspir": 7634,
      "palest": 7635,
      "coverage": 7636,
      "chel": 7637,
      "##rot": 7638,
      "mini": 7639,
      "coinc": 7640,
      "patterns": 7641,
      "##reh": 7642,
      "mining": 7643,
      "sket": 7644,
      "cancelled": 7645,
      "phoen": 7646,
      "talent": 7647,
      "##oh": 7648,
      "##oming": 7649,
      "##tha": 7650,
      "comparison": 7651,
      "aside": 7652,
      "surgery": 7653,
      "tight": 7654,
      "##oto": 7655,
      "suggesting": 7656,
      "czech": 7657,
      "stern": 7658,
      "##rix": 7659,
      "faster": 7660,
      "wish": 7661,
      "##ribed": 7662,
      "perspective": 7663,
      "thirteen": 7664,
      "overseas": 7665,
      "spotted": 7666,
      "familiar": 7667,
      "maneu": 7668,
      "phone": 7669,
      "subspec": 7670,
      "reflected": 7671,
      "zh": 7672,
      "wasn": 7673,
      "##essive": 7674,
      "matters": 7675,
      "kirk": 7676,
      "carp": 7677,
      "practices": 7678,
      "institutions": 7679,
      "rebuilt": 7680,
      "jos": 7681,
      "furn": 7682,
      "graham": 7683,
      "protein": 7684,
      "empt": 7685,
      "dogs": 7686,
      "##ctic": 7687,
      "hunter": 7688,
      "agriculture": 7689,
      "notice": 7690,
      "underw": 7691,
      "globe": 7692,
      "##iary": 7693,
      "furthermore": 7694,
      "predomin": 7695,
      "osc": 7696,
      "##life": 7697,
      "##artney": 7698,
      "destroyer": 7699,
      "mys": 7700,
      "shadow": 7701,
      "pulled": 7702,
      "vertical": 7703,
      "fastest": 7704,
      "skel": 7705,
      "escaped": 7706,
      "crystal": 7707,
      "flagship": 7708,
      "archbishop": 7709,
      "roots": 7710,
      "badly": 7711,
      "ariz": 7712,
      "ranks": 7713,
      "propag": 7714,
      "satisf": 7715,
      "bah": 7716,
      "strict": 7717,
      "summit": 7718,
      "jobs": 7719,
      "amounts": 7720,
      "dy": 7721,
      "##ylan": 7722,
      "115": 7723,
      "lacked": 7724,
      "drove": 7725,
      "drugs": 7726,
      "subspecies": 7727,
      "sult": 7728,
      "allmusic": 7729,
      "contributions": 7730,
      "oliv": 7731,
      "##estone": 7732,
      "decides": 7733,
      "lesser": 7734,
      "exclud": 7735,
      "application": 7736,
      "cuba": 7737,
      "panel": 7738,
      "slaves": 7739,
      "autumn": 7740,
      "ms": 7741,
      "mitchell": 7742,
      "confederate": 7743,
      "coc": 7744,
      "cave": 7745,
      "argues": 7746,
      "wicket": 7747,
      "stretch": 7748,
      "sover": 7749,
      "bulk": 7750,
      "sq": 7751,
      "unex": 7752,
      "subur": 7753,
      "portions": 7754,
      "gene": 7755,
      "intellect": 7756,
      "retrie": 7757,
      "sovereign": 7758,
      "##yon": 7759,
      "##kshire": 7760,
      "##osing": 7761,
      "quarterback": 7762,
      "##bra": 7763,
      "indies": 7764,
      "severely": 7765,
      "controls": 7766,
      "spider": 7767,
      "squadrons": 7768,
      "earning": 7769,
      "context": 7770,
      "toky": 7771,
      "##issions": 7772,
      "triang": 7773,
      "striking": 7774,
      "godd": 7775,
      "expression": 7776,
      "starring": 7777,
      "tale": 7778,
      "##urally": 7779,
      "printed": 7780,
      "persian": 7781,
      "##nie": 7782,
      "tamil": 7783,
      "warship": 7784,
      "curt": 7785,
      "distinctive": 7786,
      "condem": 7787,
      "ambass": 7788,
      "tack": 7789,
      "mainland": 7790,
      "inhabitants": 7791,
      "fo": 7792,
      "si": 7793,
      "guitarist": 7794,
      "ferry": 7795,
      "bench": 7796,
      "sony": 7797,
      "wider": 7798,
      "arizona": 7799,
      "rico": 7800,
      "chick": 7801,
      "restricted": 7802,
      "characterized": 7803,
      "mik": 7804,
      "tort": 7805,
      "vast": 7806,
      "##father": 7807,
      "coron": 7808,
      "##lings": 7809,
      "##fts": 7810,
      "##roph": 7811,
      "planets": 7812,
      "stere": 7813,
      "liberty": 7814,
      "crus": 7815,
      "ranging": 7816,
      "173": 7817,
      "##rog": 7818,
      "visiting": 7819,
      "excellent": 7820,
      "##unes": 7821,
      "##ieties": 7822,
      "##ucing": 7823,
      "sitting": 7824,
      "bald": 7825,
      "dylan": 7826,
      "##din": 7827,
      "commanding": 7828,
      "pearl": 7829,
      "phenom": 7830,
      "jury": 7831,
      "##rants": 7832,
      "beth": 7833,
      "revival": 7834,
      "bonus": 7835,
      "fixed": 7836,
      "##fa": 7837,
      "toy": 7838,
      "101": 7839,
      "definition": 7840,
      "rings": 7841,
      "observations": 7842,
      "constitutional": 7843,
      "##idency": 7844,
      "meetings": 7845,
      "taxon": 7846,
      "bun": 7847,
      "wilhel": 7848,
      "holiday": 7849,
      "fault": 7850,
      "vib": 7851,
      "threw": 7852,
      "explain": 7853,
      "bombing": 7854,
      "wine": 7855,
      "explains": 7856,
      "athletes": 7857,
      "tiss": 7858,
      "wait": 7859,
      "nik": 7860,
      "plut": 7861,
      "##orship": 7862,
      "##cements": 7863,
      "carriers": 7864,
      "ultimate": 7865,
      "dominant": 7866,
      "demonstrated": 7867,
      "##ova": 7868,
      "illegal": 7869,
      "oklah": 7870,
      "heir": 7871,
      "clash": 7872,
      "marie": 7873,
      "maur": 7874,
      "arrive": 7875,
      "broadway": 7876,
      "##ski": 7877,
      "danger": 7878,
      "mrs": 7879,
      "parliamentary": 7880,
      "marvel": 7881,
      "##unction": 7882,
      "educational": 7883,
      "##owed": 7884,
      "founding": 7885,
      "artific": 7886,
      "metall": 7887,
      "austrian": 7888,
      "pill": 7889,
      "yield": 7890,
      "##utt": 7891,
      "acoust": 7892,
      "biography": 7893,
      "hidden": 7894,
      "sig": 7895,
      "##itter": 7896,
      "bone": 7897,
      "8th": 7898,
      "dust": 7899,
      "rook": 7900,
      "coat": 7901,
      "northward": 7902,
      "prepare": 7903,
      "harvey": 7904,
      "##oga": 7905,
      "artwork": 7906,
      "aerial": 7907,
      "cruc": 7908,
      "##inations": 7909,
      "##storm": 7910,
      "arist": 7911,
      "grave": 7912,
      "flower": 7913,
      "murphy": 7914,
      "bombs": 7915,
      "predicted": 7916,
      "talking": 7917,
      "hav": 7918,
      "abund": 7919,
      "174": 7920,
      "pm": 7921,
      "beam": 7922,
      "check": 7923,
      "terr": 7924,
      "tig": 7925,
      "switzer": 7926,
      "experimental": 7927,
      "peaking": 7928,
      "reaches": 7929,
      "##away": 7930,
      "amy": 7931,
      "barry": 7932,
      "1901": 7933,
      "dread": 7934,
      "##esth": 7935,
      "ticket": 7936,
      "##equ": 7937,
      "delaware": 7938,
      "vii": 7939,
      "slave": 7940,
      "conscious": 7941,
      "lanes": 7942,
      "abc": 7943,
      "millimet": 7944,
      "declar": 7945,
      "switzerland": 7946,
      "overt": 7947,
      "feeding": 7948,
      "conversion": 7949,
      "households": 7950,
      "disagre": 7951,
      "steps": 7952,
      "nominations": 7953,
      "apartment": 7954,
      "ballad": 7955,
      "symphony": 7956,
      "amateur": 7957,
      "oklahoma": 7958,
      "crush": 7959,
      "chest": 7960,
      "accum": 7961,
      "westward": 7962,
      "feels": 7963,
      "##whel": 7964,
      "seriously": 7965,
      "bour": 7966,
      "innoc": 7967,
      "backed": 7968,
      "repeatedly": 7969,
      "liquid": 7970,
      "berg": 7971,
      "baker": 7972,
      "##uations": 7973,
      "##onian": 7974,
      "useful": 7975,
      "membership": 7976,
      "predecessor": 7977,
      "census": 7978,
      "swimming": 7979,
      "wells": 7980,
      "155": 7981,
      "considering": 7982,
      "choose": 7983,
      "consol": 7984,
      "preserv": 7985,
      "##atched": 7986,
      "copper": 7987,
      "layer": 7988,
      "##je": 7989,
      "##ensis": 7990,
      "mate": 7991,
      "##here": 7992,
      "congreg": 7993,
      "audition": 7994,
      "ninet": 7995,
      "kurt": 7996,
      "bones": 7997,
      "consequently": 7998,
      "circumstances": 7999,
      "attained": 8000,
      "thanks": 8001,
      "bod": 8002,
      "rp": 8003,
      "thel": 8004,
      "perry": 8005,
      "lithu": 8006,
      "statistics": 8007,
      "delivery": 8008,
      "##suing": 8009,
      "melody": 8010,
      "physics": 8011,
      "02": 8012,
      "gw": 8013,
      "fasc": 8014,
      "memor": 8015,
      "alleg": 8016,
      "todd": 8017,
      "##mal": 8018,
      "##rod": 8019,
      "perceived": 8020,
      "1903": 8021,
      "patron": 8022,
      "##gie": 8023,
      "##umps": 8024,
      "looks": 8025,
      "shaw": 8026,
      "millenn": 8027,
      "barn": 8028,
      "leslie": 8029,
      "revolt": 8030,
      "##iders": 8031,
      "prost": 8032,
      "##icut": 8033,
      "##lined": 8034,
      "anat": 8035,
      "1902": 8036,
      "stones": 8037,
      "sunk": 8038,
      "##oned": 8039,
      "valuable": 8040,
      "##erb": 8041,
      "flowers": 8042,
      "subsid": 8043,
      "pyr": 8044,
      "listing": 8045,
      "improvements": 8046,
      "comed": 8047,
      "blu": 8048,
      "mong": 8049,
      "##agh": 8050,
      "remarked": 8051,
      "pages": 8052,
      "##urer": 8053,
      "##estyle": 8054,
      "tactics": 8055,
      "vig": 8056,
      "retain": 8057,
      "denn": 8058,
      "duo": 8059,
      "denmark": 8060,
      "engage": 8061,
      "guar": 8062,
      "turret": 8063,
      "##riptions": 8064,
      "towers": 8065,
      "tokyo": 8066,
      "rih": 8067,
      "##ci": 8068,
      "recon": 8069,
      "battlec": 8070,
      "jonathan": 8071,
      "promised": 8072,
      "personally": 8073,
      "hann": 8074,
      "bernard": 8075,
      "landscape": 8076,
      "battlecru": 8077,
      "##ridge": 8078,
      "johnny": 8079,
      "renov": 8080,
      "musician": 8081,
      "theatrical": 8082,
      "ask": 8083,
      "airlines": 8084,
      "dinosaur": 8085,
      "compens": 8086,
      "eve": 8087,
      "edwards": 8088,
      "execution": 8089,
      "enlisted": 8090,
      "airfield": 8091,
      "dawn": 8092,
      "atlanta": 8093,
      "hog": 8094,
      "extract": 8095,
      "##shore": 8096,
      "compound": 8097,
      "obst": 8098,
      "##apolis": 8099,
      "##enson": 8100,
      "demands": 8101,
      "sixteen": 8102,
      "madag": 8103,
      "strengthened": 8104,
      "rihanna": 8105,
      "ment": 8106,
      "##adi": 8107,
      "travels": 8108,
      "nixon": 8109,
      "campaigns": 8110,
      "spart": 8111,
      "sung": 8112,
      "kids": 8113,
      "garn": 8114,
      "elevation": 8115,
      "##ois": 8116,
      "raising": 8117,
      "explan": 8118,
      "funny": 8119,
      "##mingham": 8120,
      "rede": 8121,
      "demanded": 8122,
      "parent": 8123,
      "mechanical": 8124,
      "gy": 8125,
      "##inian": 8126,
      "##abs": 8127,
      "profile": 8128,
      "##uma": 8129,
      "papers": 8130,
      "juan": 8131,
      "arnold": 8132,
      "##rim": 8133,
      "##rome": 8134,
      "##bard": 8135,
      "isa": 8136,
      "burns": 8137,
      "qualified": 8138,
      "spa": 8139,
      "aggreg": 8140,
      "succession": 8141,
      "morph": 8142,
      "pitts": 8143,
      "illustrated": 8144,
      "patt": 8145,
      "waste": 8146,
      "kam": 8147,
      "bra": 8148,
      "insisted": 8149,
      "clothing": 8150,
      "168": 8151,
      "keith": 8152,
      "##oons": 8153,
      "##mith": 8154,
      "interpretation": 8155,
      "worship": 8156,
      "##rows": 8157,
      "m2": 8158,
      "ruling": 8159,
      "electricity": 8160,
      "beats": 8161,
      "compounds": 8162,
      "settlers": 8163,
      "canter": 8164,
      "jimmy": 8165,
      "##grad": 8166,
      "##ugg": 8167,
      "##bird": 8168,
      "mirror": 8169,
      "##ensively": 8170,
      "lying": 8171,
      "nut": 8172,
      "##ni": 8173,
      "dressed": 8174,
      "judg": 8175,
      "orn": 8176,
      "phoenix": 8177,
      "fewer": 8178,
      "gentle": 8179,
      "hood": 8180,
      "##ghan": 8181,
      "struggled": 8182,
      "glee": 8183,
      "cash": 8184,
      "sak": 8185,
      "hybr": 8186,
      "baron": 8187,
      "bak": 8188,
      "gau": 8189,
      "vik": 8190,
      "demolished": 8191,
      "nh": 8192,
      "##di": 8193,
      "erected": 8194,
      "patch": 8195,
      "##osa": 8196,
      "encl": 8197,
      "succeed": 8198,
      "##asa": 8199,
      "fourteen": 8200,
      "trading": 8201,
      "stronger": 8202,
      "decisions": 8203,
      "persons": 8204,
      "py": 8205,
      "increases": 8206,
      "riding": 8207,
      "tales": 8208,
      "##lain": 8209,
      "shift": 8210,
      "ov": 8211,
      "##acked": 8212,
      "passion": 8213,
      "cutting": 8214,
      "tracy": 8215,
      "insects": 8216,
      "yankees": 8217,
      "mills": 8218,
      "##ovi": 8219,
      "removal": 8220,
      "##enberg": 8221,
      "neu": 8222,
      "external": 8223,
      "surpass": 8224,
      "daughters": 8225,
      "pursue": 8226,
      "166": 8227,
      "objective": 8228,
      "advertising": 8229,
      "culmin": 8230,
      "trench": 8231,
      "meter": 8232,
      "birmingham": 8233,
      "lights": 8234,
      "##jection": 8235,
      "warfare": 8236,
      "defences": 8237,
      "paras": 8238,
      "superst": 8239,
      "deterior": 8240,
      "mccartney": 8241,
      "developers": 8242,
      "burial": 8243,
      "exactly": 8244,
      "resol": 8245,
      "wayne": 8246,
      "killer": 8247,
      "overwhel": 8248,
      "bobby": 8249,
      "##nik": 8250,
      "##aro": 8251,
      "discovers": 8252,
      "mercury": 8253,
      "##folk": 8254,
      "unre": 8255,
      "obama": 8256,
      "organised": 8257,
      "affect": 8258,
      "wis": 8259,
      "magazines": 8260,
      "buddh": 8261,
      "griff": 8262,
      "fate": 8263,
      "altered": 8264,
      "109": 8265,
      "defending": 8266,
      "ranges": 8267,
      "fossil": 8268,
      "##vi": 8269,
      "##xual": 8270,
      "stal": 8271,
      "concentration": 8272,
      "bacter": 8273,
      "cancel": 8274,
      "comprom": 8275,
      "wealthy": 8276,
      "fis": 8277,
      "##lock": 8278,
      "manga": 8279,
      "employment": 8280,
      "hydrogen": 8281,
      "hudson": 8282,
      "163": 8283,
      "fold": 8284,
      "electrical": 8285,
      "loved": 8286,
      "gosp": 8287,
      "approaching": 8288,
      "dall": 8289,
      "mant": 8290,
      "debt": 8291,
      "exercise": 8292,
      "##esty": 8293,
      "armoured": 8294,
      "adventures": 8295,
      "raids": 8296,
      "##cles": 8297,
      "eval": 8298,
      "establishing": 8299,
      "exposure": 8300,
      "karl": 8301,
      "venue": 8302,
      "commentary": 8303,
      "hearts": 8304,
      "##zzle": 8305,
      "limits": 8306,
      "disl": 8307,
      "rachel": 8308,
      "ced": 8309,
      "mood": 8310,
      "connecticut": 8311,
      "jurisd": 8312,
      "connecting": 8313,
      "##acre": 8314,
      "rend": 8315,
      "gods": 8316,
      "aggressive": 8317,
      "centers": 8318,
      "jup": 8319,
      "profit": 8320,
      "investment": 8321,
      "hence": 8322,
      "epic": 8323,
      "partial": 8324,
      "aspect": 8325,
      "architectural": 8326,
      "ontar": 8327,
      "tong": 8328,
      "shak": 8329,
      "##ike": 8330,
      "outd": 8331,
      "canterbury": 8332,
      "mature": 8333,
      "yu": 8334,
      "friday": 8335,
      "prove": 8336,
      "dimension": 8337,
      "ontario": 8338,
      "morrison": 8339,
      "##caa": 8340,
      "vanc": 8341,
      "trick": 8342,
      "indicating": 8343,
      "ongoing": 8344,
      "##enna": 8345,
      "markets": 8346,
      "determin": 8347,
      "traveling": 8348,
      "dwarf": 8349,
      "napoleon": 8350,
      "##eon": 8351,
      "exter": 8352,
      "extrat": 8353,
      "improvement": 8354,
      "isot": 8355,
      "shorter": 8356,
      "announcement": 8357,
      "withdrawal": 8358,
      "spur": 8359,
      "unless": 8360,
      "##stan": 8361,
      "celebrated": 8362,
      "leonard": 8363,
      "appropriate": 8364,
      "madagascar": 8365,
      "maid": 8366,
      "sultan": 8367,
      "ri": 8368,
      "stationed": 8369,
      "evacuated": 8370,
      "pruss": 8371,
      "edited": 8372,
      "radiation": 8373,
      "dissipated": 8374,
      "acknowledged": 8375,
      "extratropical": 8376,
      "tna": 8377,
      "putting": 8378,
      "predict": 8379,
      "permitted": 8380,
      "slavery": 8381,
      "dict": 8382,
      "##ulous": 8383,
      "##ifies": 8384,
      "pend": 8385,
      "152": 8386,
      "survival": 8387,
      "discussion": 8388,
      "bomber": 8389,
      "##low": 8390,
      "asc": 8391,
      "realized": 8392,
      "spac": 8393,
      "nurs": 8394,
      "##10": 8395,
      "youngest": 8396,
      "tube": 8397,
      "placing": 8398,
      "sciences": 8399,
      "initiated": 8400,
      "dubbed": 8401,
      "precipitation": 8402,
      "honey": 8403,
      "arrangements": 8404,
      "acoustic": 8405,
      "graduated": 8406,
      "kills": 8407,
      "volumes": 8408,
      "silent": 8409,
      "mcm": 8410,
      "hosts": 8411,
      "hawaii": 8412,
      "mend": 8413,
      "qualifying": 8414,
      "recovery": 8415,
      "photographs": 8416,
      "disappoint": 8417,
      "industries": 8418,
      "##iable": 8419,
      "##gle": 8420,
      "cler": 8421,
      "hardy": 8422,
      "##bec": 8423,
      "stol": 8424,
      "##anger": 8425,
      "graduate": 8426,
      "gary": 8427,
      "##rine": 8428,
      "voices": 8429,
      "angl": 8430,
      "##bow": 8431,
      "##uese": 8432,
      "synthes": 8433,
      "##ouver": 8434,
      "requires": 8435,
      "strongest": 8436,
      "burning": 8437,
      "##anz": 8438,
      "##itis": 8439,
      "fract": 8440,
      "attitude": 8441,
      "originated": 8442,
      "parach": 8443,
      "estimates": 8444,
      "reporter": 8445,
      "confront": 8446,
      "jupiter": 8447,
      "vamp": 8448,
      "trium": 8449,
      "vancouver": 8450,
      "referring": 8451,
      "affili": 8452,
      "##amental": 8453,
      "echo": 8454,
      "##itudes": 8455,
      "##opp": 8456,
      "trough": 8457,
      "tubes": 8458,
      "##feld": 8459,
      "knock": 8460,
      "donated": 8461,
      "exclusive": 8462,
      "exha": 8463,
      "edin": 8464,
      "sonic": 8465,
      "harmon": 8466,
      "devast": 8467,
      "tooth": 8468,
      "conventional": 8469,
      "##mund": 8470,
      "expert": 8471,
      "endors": 8472,
      "supplement": 8473,
      "specimen": 8474,
      "truck": 8475,
      "transit": 8476,
      "##aser": 8477,
      "colleagues": 8478,
      "closest": 8479,
      "##autical": 8480,
      "##itively": 8481,
      "104": 8482,
      "172": 8483,
      "##hard": 8484,
      "southeastern": 8485,
      "minority": 8486,
      "parody": 8487,
      "nerv": 8488,
      "bearing": 8489,
      "##oven": 8490,
      "##pled": 8491,
      "pakistan": 8492,
      "decide": 8493,
      "translation": 8494,
      "fore": 8495,
      "guinea": 8496,
      "##agger": 8497,
      "drinking": 8498,
      "##efa": 8499,
      "earthquake": 8500,
      "recall": 8501,
      "signature": 8502,
      "indicates": 8503,
      "scattered": 8504,
      "portuguese": 8505,
      "wool": 8506,
      "promotional": 8507,
      "visits": 8508,
      "watershed": 8509,
      "cord": 8510,
      "bradman": 8511,
      "challenged": 8512,
      "manor": 8513,
      "attending": 8514,
      "axis": 8515,
      "density": 8516,
      "legit": 8517,
      "craft": 8518,
      "gathered": 8519,
      "uefa": 8520,
      "lawyer": 8521,
      "merely": 8522,
      "luke": 8523,
      "concentrated": 8524,
      "##ivation": 8525,
      "heaven": 8526,
      "supplied": 8527,
      "users": 8528,
      "programming": 8529,
      "emphasis": 8530,
      "collapsed": 8531,
      "kap": 8532,
      "##hous": 8533,
      "preparations": 8534,
      "dwight": 8535,
      "identify": 8536,
      "traditionally": 8537,
      "##hem": 8538,
      "andre": 8539,
      "alice": 8540,
      "overlo": 8541,
      "coalition": 8542,
      "biographer": 8543,
      "ncaa": 8544,
      "gren": 8545,
      "governments": 8546,
      "annually": 8547,
      "cruise": 8548,
      "screenplay": 8549,
      "facult": 8550,
      "democrats": 8551,
      "territorial": 8552,
      "cotton": 8553,
      "indigen": 8554,
      "beng": 8555,
      "##ingham": 8556,
      "achievement": 8557,
      "cousin": 8558,
      "principles": 8559,
      "artificial": 8560,
      "smart": 8561,
      "devil": 8562,
      "##imented": 8563,
      "fleming": 8564,
      "sacrif": 8565,
      "##hamm": 8566,
      "##aux": 8567,
      "photography": 8568,
      "subm": 8569,
      "##anton": 8570,
      "prisoner": 8571,
      "provinces": 8572,
      "1893": 8573,
      "celt": 8574,
      "##case": 8575,
      "predators": 8576,
      "optim": 8577,
      "publisher": 8578,
      "##adier": 8579,
      "prices": 8580,
      "reflect": 8581,
      "voyage": 8582,
      "diff": 8583,
      "chemistry": 8584,
      "hampshire": 8585,
      "lac": 8586,
      "##hips": 8587,
      "##thodox": 8588,
      "oliver": 8589,
      "seized": 8590,
      "edinburgh": 8591,
      "afghan": 8592,
      "accompanying": 8593,
      "topped": 8594,
      "talks": 8595,
      "##ieth": 8596,
      "competing": 8597,
      "declaration": 8598,
      "##uration": 8599,
      "##otte": 8600,
      "failing": 8601,
      "reinforcements": 8602,
      "indigenous": 8603,
      "pond": 8604,
      "##no": 8605,
      "turner": 8606,
      "investigate": 8607,
      "##iy": 8608,
      "350": 8609,
      "veloc": 8610,
      "ds": 8611,
      "fed": 8612,
      "##haw": 8613,
      "##ographical": 8614,
      "uranium": 8615,
      "mosc": 8616,
      "stuff": 8617,
      "reverse": 8618,
      "universities": 8619,
      "portrait": 8620,
      "1896": 8621,
      "sending": 8622,
      "portrayal": 8623,
      "offense": 8624,
      "terrain": 8625,
      "penet": 8626,
      "victorian": 8627,
      "terminal": 8628,
      "chord": 8629,
      "tenure": 8630,
      "broadcasting": 8631,
      "output": 8632,
      "revenge": 8633,
      "##ache": 8634,
      "regime": 8635,
      "experiments": 8636,
      "volunteers": 8637,
      "127": 8638,
      "111": 8639,
      "beneath": 8640,
      "maya": 8641,
      "flooded": 8642,
      "certainly": 8643,
      "rangers": 8644,
      "##iar": 8645,
      "##iti": 8646,
      "##apy": 8647,
      "hitting": 8648,
      "1898": 8649,
      "recurring": 8650,
      "hug": 8651,
      "alpha": 8652,
      "hatch": 8653,
      "guid": 8654,
      "sharks": 8655,
      "chronic": 8656,
      "troub": 8657,
      "dual": 8658,
      "apoll": 8659,
      "##igible": 8660,
      "tours": 8661,
      "choir": 8662,
      "proclaim": 8663,
      "juven": 8664,
      "voting": 8665,
      "gaz": 8666,
      "tap": 8667,
      "obsc": 8668,
      "contribution": 8669,
      "lords": 8670,
      "ceased": 8671,
      "yorkshire": 8672,
      "monte": 8673,
      "assembled": 8674,
      "imagery": 8675,
      "branches": 8676,
      "hast": 8677,
      "yam": 8678,
      "questioned": 8679,
      "songwriter": 8680,
      "decay": 8681,
      "tribe": 8682,
      "##pes": 8683,
      "strange": 8684,
      "historically": 8685,
      "gender": 8686,
      "bosn": 8687,
      "lav": 8688,
      "revised": 8689,
      "commenting": 8690,
      "craig": 8691,
      "jama": 8692,
      "neil": 8693,
      "masters": 8694,
      "underwent": 8695,
      "texts": 8696,
      "impression": 8697,
      "jerry": 8698,
      "bann": 8699,
      "dors": 8700,
      "kan": 8701,
      "lip": 8702,
      "##oa": 8703,
      "conce": 8704,
      "hyper": 8705,
      "drummer": 8706,
      "rio": 8707,
      "##gam": 8708,
      "stops": 8709,
      "spaces": 8710,
      "christianity": 8711,
      "spy": 8712,
      "##owski": 8713,
      "components": 8714,
      "##mania": 8715,
      "virus": 8716,
      "destroying": 8717,
      "ralph": 8718,
      "##aa": 8719,
      "millennium": 8720,
      "reward": 8721,
      "reducing": 8722,
      "component": 8723,
      "argentina": 8724,
      "telegraph": 8725,
      "cable": 8726,
      "reduction": 8727,
      "dak": 8728,
      "stamp": 8729,
      "##ellation": 8730,
      "replied": 8731,
      "devices": 8732,
      "unclear": 8733,
      "##ception": 8734,
      "ibn": 8735,
      "serge": 8736,
      "duration": 8737,
      "fulf": 8738,
      "consolid": 8739,
      "reorgan": 8740,
      "##arr": 8741,
      "queensland": 8742,
      "1899": 8743,
      "approaches": 8744,
      "##gom": 8745,
      "##idal": 8746,
      "ruler": 8747,
      "##ayan": 8748,
      "induct": 8749,
      "collins": 8750,
      "identical": 8751,
      "reveal": 8752,
      "consistent": 8753,
      "bend": 8754,
      "##angel": 8755,
      "glen": 8756,
      "nice": 8757,
      "buffalo": 8758,
      "vern": 8759,
      "##rik": 8760,
      "##atra": 8761,
      "##rawn": 8762,
      "multiplayer": 8763,
      "ambassador": 8764,
      "tough": 8765,
      "marge": 8766,
      "marines": 8767,
      "samples": 8768,
      "howe": 8769,
      "surve": 8770,
      "1940s": 8771,
      "corrid": 8772,
      "humor": 8773,
      "frequency": 8774,
      "gaming": 8775,
      "lloyd": 8776,
      "proposals": 8777,
      "patients": 8778,
      "requirements": 8779,
      "ted": 8780,
      "##pler": 8781,
      "##soft": 8782,
      "108": 8783,
      "redes": 8784,
      "traded": 8785,
      "finland": 8786,
      "surrendered": 8787,
      "sings": 8788,
      "##aks": 8789,
      "arrives": 8790,
      "##ista": 8791,
      "lifetime": 8792,
      "spoken": 8793,
      "##active": 8794,
      "ub": 8795,
      "reed": 8796,
      "##ensed": 8797,
      "bub": 8798,
      "##run": 8799,
      "partis": 8800,
      "supern": 8801,
      "norfolk": 8802,
      "climb": 8803,
      "platforms": 8804,
      "##atever": 8805,
      "unw": 8806,
      "##ologies": 8807,
      "pas": 8808,
      "##itary": 8809,
      "conceived": 8810,
      "turkey": 8811,
      "researchers": 8812,
      "##andy": 8813,
      "winners": 8814,
      "springs": 8815,
      "reconstruction": 8816,
      "whatever": 8817,
      "rejo": 8818,
      "plaza": 8819,
      "distant": 8820,
      "intervention": 8821,
      "banned": 8822,
      "cros": 8823,
      "representation": 8824,
      "exclusively": 8825,
      "nicholas": 8826,
      "##place": 8827,
      "169": 8828,
      "donald": 8829,
      "practical": 8830,
      "suddenly": 8831,
      "wii": 8832,
      "##ricts": 8833,
      "romance": 8834,
      "##ycl": 8835,
      "chore": 8836,
      "burton": 8837,
      "robin": 8838,
      "connections": 8839,
      "warriors": 8840,
      "mond": 8841,
      "faces": 8842,
      "celebration": 8843,
      "burned": 8844,
      "bin": 8845,
      "cav": 8846,
      "chess": 8847,
      "belgian": 8848,
      "crimes": 8849,
      "rebels": 8850,
      "continuous": 8851,
      "commanders": 8852,
      "vit": 8853,
      "##ibilities": 8854,
      "varied": 8855,
      "catherine": 8856,
      "tape": 8857,
      "lighting": 8858,
      "praising": 8859,
      "scientology": 8860,
      "bennett": 8861,
      "##phal": 8862,
      "competitive": 8863,
      "##itarian": 8864,
      "resur": 8865,
      "flames": 8866,
      "districts": 8867,
      "prest": 8868,
      "mansion": 8869,
      "cort": 8870,
      "##dles": 8871,
      "shoulder": 8872,
      "darwin": 8873,
      "thorough": 8874,
      "##ecution": 8875,
      "guild": 8876,
      "confidence": 8877,
      "speaker": 8878,
      "reviewed": 8879,
      "progressive": 8880,
      "##hammad": 8881,
      "sample": 8882,
      "fern": 8883,
      "abuse": 8884,
      "advised": 8885,
      "##iciency": 8886,
      "considers": 8887,
      "taxes": 8888,
      "finance": 8889,
      "camps": 8890,
      "reactions": 8891,
      "indu": 8892,
      "invent": 8893,
      "seal": 8894,
      "peters": 8895,
      "boilers": 8896,
      "vincent": 8897,
      "bast": 8898,
      "intersects": 8899,
      "translated": 8900,
      "sailing": 8901,
      "hughes": 8902,
      "kitch": 8903,
      "worn": 8904,
      "vulnerable": 8905,
      "significance": 8906,
      "pon": 8907,
      "proceeded": 8908,
      "shares": 8909,
      "lux": 8910,
      "girlfriend": 8911,
      "##ellor": 8912,
      "manif": 8913,
      "dischar": 8914,
      "presidency": 8915,
      "eleph": 8916,
      "davies": 8917,
      "conquest": 8918,
      "##uras": 8919,
      "pod": 8920,
      "filmm": 8921,
      "understood": 8922,
      "##ffield": 8923,
      "opportunities": 8924,
      "harvard": 8925,
      "ministers": 8926,
      "medals": 8927,
      "handled": 8928,
      "presentation": 8929,
      "pairs": 8930,
      "companion": 8931,
      "bind": 8932,
      "##acles": 8933,
      "gif": 8934,
      "numbered": 8935,
      "bombardment": 8936,
      "crops": 8937,
      "fi": 8938,
      "pall": 8939,
      "alg": 8940,
      "marshal": 8941,
      "##point": 8942,
      "manufacturing": 8943,
      "rivalry": 8944,
      "enthusi": 8945,
      "fairly": 8946,
      "phrase": 8947,
      "rena": 8948,
      "nautical": 8949,
      "flows": 8950,
      "smoke": 8951,
      "##oly": 8952,
      "rocky": 8953,
      "##enburg": 8954,
      "##roc": 8955,
      "petition": 8956,
      "oslo": 8957,
      "racial": 8958,
      "indonesia": 8959,
      "foster": 8960,
      "##itely": 8961,
      "stress": 8962,
      "judges": 8963,
      "respective": 8964,
      "106": 8965,
      "ip": 8966,
      "##uating": 8967,
      "exceed": 8968,
      "grossing": 8969,
      "antonio": 8970,
      "##cha": 8971,
      "geoff": 8972,
      "cleared": 8973,
      "saxon": 8974,
      "unexp": 8975,
      "vital": 8976,
      "##irm": 8977,
      "proof": 8978,
      "##illes": 8979,
      "transported": 8980,
      "moscow": 8981,
      "jtw": 8982,
      "kate": 8983,
      "mim": 8984,
      "uncon": 8985,
      "intermedi": 8986,
      "1897": 8987,
      "commissioner": 8988,
      "cyclones": 8989,
      "jtwc": 8990,
      "##igs": 8991,
      "assum": 8992,
      "descent": 8993,
      "explicit": 8994,
      "knights": 8995,
      "extending": 8996,
      "rehears": 8997,
      "spong": 8998,
      "peng": 8999,
      "unlik": 9000,
      "cards": 9001,
      "protests": 9002,
      "##strong": 9003,
      "pittsburgh": 9004,
      "dil": 9005,
      "154": 9006,
      "reinforced": 9007,
      "hide": 9008,
      "infrast": 9009,
      "##fc": 9010,
      "mystery": 9011,
      "##olds": 9012,
      "exile": 9013,
      "167": 9014,
      "cameron": 9015,
      "drain": 9016,
      "structural": 9017,
      "toured": 9018,
      "elite": 9019,
      "nonetheless": 9020,
      "toler": 9021,
      "commenced": 9022,
      "drink": 9023,
      "characteristic": 9024,
      "random": 9025,
      "gift": 9026,
      "cuts": 9027,
      "eis": 9028,
      "reich": 9029,
      "scores": 9030,
      "##ended": 9031,
      "decorated": 9032,
      "dri": 9033,
      "##yt": 9034,
      "exists": 9035,
      "troop": 9036,
      "rivals": 9037,
      "terry": 9038,
      "tonnes": 9039,
      "boom": 9040,
      "swiss": 9041,
      "extinct": 9042,
      "applications": 9043,
      "maintaining": 9044,
      "gest": 9045,
      "cosm": 9046,
      "tested": 9047,
      "alaska": 9048,
      "restore": 9049,
      "nur": 9050,
      "tiger": 9051,
      "##berry": 9052,
      "relatives": 9053,
      "153": 9054,
      "113": 9055,
      "collections": 9056,
      "##pike": 9057,
      "##vant": 9058,
      "prix": 9059,
      "withdrawn": 9060,
      "tai": 9061,
      "canyon": 9062,
      "answer": 9063,
      "cel": 9064,
      "theories": 9065,
      "relocated": 9066,
      "observation": 9067,
      "victim": 9068,
      "wallace": 9069,
      "absent": 9070,
      "daw": 9071,
      "skill": 9072,
      "kane": 9073,
      "fee": 9074,
      "##yll": 9075,
      "turnpike": 9076,
      "reforms": 9077,
      "preparing": 9078,
      "coh": 9079,
      "warnings": 9080,
      "senators": 9081,
      "eating": 9082,
      "##enon": 9083,
      "airline": 9084,
      "clan": 9085,
      "blo": 9086,
      "participation": 9087,
      "inquir": 9088,
      "hollow": 9089,
      "microsoft": 9090,
      "##uki": 9091,
      "dum": 9092,
      "syria": 9093,
      "monthly": 9094,
      "##erce": 9095,
      "##minster": 9096,
      "##face": 9097,
      "##ashi": 9098,
      "##icing": 9099,
      "writings": 9100,
      "richmond": 9101,
      "navigation": 9102,
      "displaced": 9103,
      "##inge": 9104,
      "##itious": 9105,
      "##ours": 9106,
      "upset": 9107,
      "mp": 9108,
      "pse": 9109,
      "beck": 9110,
      "republicans": 9111,
      "sculpture": 9112,
      "empty": 9113,
      "unexpected": 9114,
      "stef": 9115,
      "archaeological": 9116,
      "guerr": 9117,
      "heath": 9118,
      "intr": 9119,
      "carries": 9120,
      "coaches": 9121,
      "traditions": 9122,
      "interviews": 9123,
      "clothes": 9124,
      "pock": 9125,
      "##ario": 9126,
      "magnitude": 9127,
      "amazing": 9128,
      "fitz": 9129,
      "tract": 9130,
      "manip": 9131,
      "heavyweight": 9132,
      "mixing": 9133,
      "##world": 9134,
      "interaction": 9135,
      "concerning": 9136,
      "nev": 9137,
      "answ": 9138,
      "sheffield": 9139,
      "israeli": 9140,
      "dying": 9141,
      "wed": 9142,
      "##illo": 9143,
      "##rooms": 9144,
[...]
