{
  "version": "1.0",
  "truncation": null,
  "padding": null,
  "added_tokens": [
    {
      "id": 0,
      "content": "[UNK]",
      "single_word": false,
      "lstrip": false,
      "rstrip": false,
      "normalized": false,
      "special": true
    },
    {
      "id": 1,
      "content": "[CLS]",
      "single_word": false,
      "lstrip": false,
      "rstrip": false,
      "normalized": false,
      "special": true
    },
    {
      "id": 2,
      "content": "[SEP]",
      "single_word": false,
      "lstrip": false,
      "rstrip": false,
      "normalized": false,
      "special": true
    },
    {
      "id": 3,
      "content": "[PAD]",
      "single_word": false,
      "lstrip": false,
      "rstrip": false,
      "normalized": false,
      "special": true
    },
    {
      "id": 4,
      "content": "[MASK]",
      "single_word": false,
      "lstrip": false,
      "rstrip": false,
      "normalized": false,
      "special": true
    }
  ],
  "normalizer": null,
  "pre_tokenizer": {
    "type": "Whitespace"
  },
  "post_processor": {
    "type": "TemplateProcessing",
    "single": [
      {
        "SpecialToken": {
          "id": "[CLS]",
          "type_id": 0
        }
      },
      {
        "Sequence": {
          "id": "A",
          "type_id": 0
        }
      },
      {
        "SpecialToken": {
          "id": "[SEP]",
          "type_id": 0
        }
      }
    ],
    "pair": [
      {
        "SpecialToken": {
          "id": "[CLS]",
          "type_id": 0
        }
      },
      {
        "Sequence": {
          "id": "A",
          "type_id": 0
        }
      },
      {
        "SpecialToken": {
          "id": "[SEP]",
          "type_id": 0
        }
      },
      {
        "Sequence": {
          "id": "B",
          "type_id": 1
        }
      },
      {
        "SpecialToken": {
          "id": "[SEP]",
          "type_id": 1
        }
      }
    ],
    "special_tokens": {
      "[CLS]": {
        "id": "[CLS]",
        "ids": [
          1
        ],
        "tokens": [
          "[CLS]"
        ]
      },
      "[SEP]": {
        "id": "[SEP]",
        "ids": [
          2
        ],
        "tokens": [
          "[SEP]"
        ]
      }
    }
  },
  "decoder": null,
  "model": {
    "type": "WordPiece",
    "unk_token": "[UNK]",
    "continuing_subword_prefix": "##",
    "max_input_chars_per_word": 100,
    "vocab": {
      "[UNK]": 0,
      "[CLS]": 1,
      "[SEP]": 2,
      "[PAD]": 3,
      "[MASK]": 4,
      "!": 5,
      "\"": 6,
      "&": 7,
      "'": 8,
      "1": 9,
      "2": 10,
      "3": 11,
      "4": 12,
      "5": 13,
      "6": 14,
      "7": 15,
      "8": 16,
      "9": 17,
      ":": 18,
      "<": 19,
      "=": 20,
      ">": 21,
      "?": 22,
      "@": 23,
      "A": 24,
      "B": 25,
      "D": 26,
      "E": 27,
      "F": 28,
      "G": 29,
      "H": 30,
      "I": 31,
      "J": 32,
      "K": 33,
      "L": 34,
      "M": 35,
      "N": 36,
      "O": 37,
      "P": 38,
      "Q": 39,
      "R": 40,
      "S": 41,
      "T": 42,
      "U": 43,
      "V": 44,
      "W": 45,
      "X": 46,
      "Y": 47,
      "Z": 48,
      "\\": 49,
      "_": 50,
      "`": 51,
      "a": 52,
      "b": 53,
      "c": 54,
      "d": 55,
      "e": 56,
      "f": 57,
      "g": 58,
      "h": 59,
      "i": 60,
      "j": 61,
      "k": 62,
      "l": 63,
      "m": 64,
      "n": 65,
      "o": 66,
      "p": 67,
      "r": 68,
      "s": 69,
      "t": 70,
      "u": 71,
      "v": 72,
      "w": 73,
      "y": 74,
      "z": 75,
      "{": 76,
      "|": 77,
      "}": 78,
      "~": 79,
      "##I": 80,
      "##n": 81,
      "##l": 82,
      "##s": 83,
      "##t": 84,
      "##m": 85,
      "##j": 86,
      "##O": 87,
      "##g": 88,
      "##v": 89,
      "##k": 90,
      "##d": 91,
      "##A": 92,
      "##r": 93,
      "##S": 94,
      "##i": 95,
      "##Z": 96,
      "##E": 97,
      "##z": 98,
      "##o": 99,
      "##b": 100,
      "##V": 101,
      "##a": 102,
      "##w": 103,
      "##u": 104,
      "##h": 105,
      "##p": 106,
      "##U": 107,
      "##e": 108,
      "##T": 109,
      "##f": 110,
      "##N": 111,
      "##D": 112,
      "##2": 113,
      "##c": 114,
      "##_": 115,
      "##X": 116,
      "##\\": 117,
      "##R": 118,
      "##1": 119,
      "##6": 120,
      "##9": 121,
      "##y": 122,
      "##G": 123,
      "##4": 124,
      "##J": 125,
      "##K": 126,
      "##Q": 127,
      "##B": 128,
      "##@": 129,
      "##3": 130,
      "##{": 131,
      "##M": 132,
      "##H": 133,
      "##=": 134,
      "##:": 135,
      "##P": 136,
      "##5": 137,
      "##7": 138,
      "##'": 139,
      "##8": 140,
      "##|": 141,
      "##?": 142,
      "##L": 143,
      "##Y": 144,
      "##`": 145,
      "\\=": 146,
      "##ej": 147,
      "##aj": 148,
      "nd": 149,
      "##ow": 150,
      "In": 151,
      "##Or": 152,
      "Vv": 153,
      "##IN": 154,
      "##st": 155,
      "st": 156,
      "\\@": 157,
      "##En": 158,
      "##tr": 159,
      "dZ": 160,
      "##Er": 161,
      "pr": 162,
      "##tS": 163,
      "##Ik": 164,
      "wI": 165,
      "##Ar": 166,
      "nt": 167,
      "wA": 168,
      "fOr": 169,
      "##nd": 170,
      "ow": 171,
      "ej": 172,
      "dI": 173,
      "wAz": 174,
      "##li": 175,
      "##aw": 176,
      "fr": 177,
      "Es": 178,
      "It": 179,
      "An": 180,
      "aj": 181,
      "tr": 182,
      "##dZ": 183,
      "##Il": 184,
      "##In": 185,
      "##Iz": 186,
      "tS": 187,
      "##Ek": 188,
      "##Ir": 189,
      "baj": 190,
      "li": 191,
      "##vr": 192,
      "##ju": 193,
      "wID": 194,
      "##El": 195,
      "\\{": 196,
      "##ejt": 197,
      "ns": 198,
      "Iz": 199,
      "kr": 200,
      "ti": 201,
      "wr": 202,
      "nz": 203,
      "kA": 204,
      "##IS": 205,
      "br": 206,
      "##It": 207,
      "##ejS": 208,
      "##Vn": 209,
      "##br": 210,
      "##Id": 211,
      "si": 212,
      "Ik": 213,
      "Ar": 214,
      "hi": 215,
      "gr": 216,
      "##ejm": 217,
      "ju": 218,
      "##pr": 219,
      "hIz": 220,
      "Vm": 221,
      "##Em": 222,
      "##Is": 223,
      "Ol": 224,
      "##str": 225,
      "bi": 226,
      "##Vm": 227,
      "##ajt": 228,
      "pl": 229,
      "##ld": 230,
      "##Iv": 231,
      "##At": 232,
      "mej": 233,
      "sk": 234,
      "IN": 235,
      "##nt": 236,
      "\\=@": 237,
      "##ajn": 238,
      "aw": 239,
      "##Al": 240,
      "##Ent": 241,
      "##Dr": 242,
      "dr": 243,
      "##ajd": 244,
      "##An": 245,
      "sE": 246,
      "sp": 247,
      "##Ur": 248,
      "##di": 249,
      "str": 250,
      "Or": 251,
      "##Im": 252,
      "dIs": 253,
      "##Vt": 254,
      "##ks": 255,
      "DEr": 256,
      "Tr": 257,
      "##in": 258,
      "kl": 259,
      "##oj": 260,
      "##kr": 261,
      "now": 262,
      "##Ud": 263,
      "##Est": 264,
      "##iz": 265,
      "##Ol": 266,
      "wItS": 267,
      "##Ist": 268,
      "sr": 269,
      "##zd": 270,
      "##ts": 271,
      "##tSr": 272,
      "bI": 273,
      "tu": 274,
      "En": 275,
      "lE": 276,
      "Im": 277,
      "sow": 278,
      "nu": 279,
      "##ejn": 280,
      "lz": 281,
      "mp": 282,
      "hr": 283,
      "wVn": 284,
      "ks": 285,
      "##Ip": 286,
      "##ON": 287,
      "Er": 288,
      "##ajm": 289,
      "##fr": 290,
      "laj": 291,
      "kt": 292,
      "pAr": 293,
      "##ajl": 294,
      "##ajr": 295,
      "##lu": 296,
      "##Vb": 297,
      "##pt": 298,
      "plej": 299,
      "nAt": 300,
      "DIs": 301,
      "bVt": 302,
      "##sp": 303,
      "##dr": 304,
      "Int": 305,
      "mow": 306,
      "ts": 307,
      "ftr": 308,
      "kOr": 309,
      "##Ekt": 310,
      "##sow": 311,
      "iz": 312,
      "Its": 313,
      "wOr": 314,
      "##gr": 315,
      "##own": 316,
      "pi": 317,
      "ejt": 318,
      "du": 319,
      "mi": 320,
      "Em": 321,
      "##dIN": 322,
      "hu": 323,
      "##kt": 324,
      "##Vl": 325,
      "Olsow": 326,
      "##Am": 327,
      "##Et": 328,
      "##vd": 329,
      "vr": 330,
      "mOr": 331,
      "lej": 332,
      "##awn": 333,
      "##Es": 334,
      "fi": 335,
      "kw": 336,
      "##Embr": 337,
      "di": 338,
      "Dej": 339,
      "tajm": 340,
      "dej": 341,
      "nts": 342,
      "##owz": 343,
      "VDr": 344,
      "ld": 345,
      "ni": 346,
      "End": 347,
      "##awt": 348,
      "kAm": 349,
      "Ink": 350,
      "kAn": 351,
      "Si": 352,
      "bIl": 353,
      "##Ed": 354,
      "stejt": 355,
      "bIk": 356,
      "Intr": 357,
      "jun": 358,
      "own": 359,
      "haw": 360,
      "owvr": 361,
      "fl": 362,
      "low": 363,
      "mr": 364,
      "bIn": 365,
      "mAr": 366,
      "lr": 367,
      "jIr": 368,
      "##Ap": 369,
      "##ejl": 370,
      "nOr": 371,
      "kow": 372,
      "IdZ": 373,
      "sEn": 374,
      "##Iks": 375,
      "Il": 376,
      "##ndr": 377,
      "fIl": 378,
      "##ejs": 379,
      "wUd": 380,
      "##vi": 381,
      "sEk": 382,
      "how": 383,
      "##juz": 384,
      "sV": 385,
      "gejm": 386,
      "mEn": 387,
      "bl": 388,
      "##pl": 389,
      "wEn": 390,
      "mEr": 391,
      "sVm": 392,
      "dz": 393,
      "dUr": 394,
      "mV": 395,
      "Inklu": 396,
      "wEr": 397,
      "##ajnd": 398,
      "dZu": 399,
      "awt": 400,
      "mz": 401,
      "dIv": 402,
      "pOr": 403,
      "##Ak": 404,
      "hIm": 405,
      "##ndZ": 406,
      "##Vvr": 407,
      "Intu": 408,
      "Of": 409,
      "##fOr": 410,
      "bow": 411,
      "##awnd": 412,
      "Ed": 413,
      "ejS": 414,
      "awnd": 415,
      "haj": 416,
      "lON": 417,
      "wi": 418,
      "fIlm": 419,
      "Vp": 420,
      "##End": 421,
      "lu": 422,
      "it": 423,
      "##Iti": 424,
      "dZr": 425,
      "Is": 426,
      "##ejtS": 427,
      "##kS": 428,
      "##If": 429,
      "gow": 430,
      "##gz": 431,
      "##Evr": 432,
      "wajl": 433,
      "mIl": 434,
      "mowst": 435,
      "Iv": 436,
      "pow": 437,
      "pIr": 438,
      "##tIN": 439,
      "lO": 440,
      "owl": 441,
      "El": 442,
      "sIN": 443,
      "##Uk": 444,
      "siz": 445,
      "bIg": 446,
      "##ejk": 447,
      "Iksp": 448,
      "##dz": 449,
      "lejtr": 450,
      "su": 451,
      "##awnt": 452,
      "bIt": 453,
      "saj": 454,
      "sON": 455,
      "Ez": 456,
      "gEn": 457,
      "##IdZ": 458,
      "ownli": 459,
      "Vndr": 460,
      "##Enr": 461,
      "Vn": 462,
      "mu": 463,
      "iv": 464,
      "tIv": 465,
      "stOr": 466,
      "bawt": 467,
      "stAr": 468,
      "##IZ": 469,
      "dIf": 470,
      "dE": 471,
      "If": 472,
      "wej": 473,
      "kIN": 474,
      "##win": 475,
      "mjuz": 476,
      "wIl": 477,
      "ejn": 478,
      "##Ens": 479,
      "bItwin": 480,
      "mA": 481,
      "tiejtS": 482,
      "##Vbl": 483,
      "fAl": 484,
      "kVm": 485,
      "Ist": 486,
      "Ek": 487,
      "kAr": 488,
      "##sr": 489,
      "lb": 490,
      "Ind": 491,
      "hEl": 492,
      "##pOr": 493,
      "##si": 494,
      "itS": 495,
      "ili": 496,
      "##wej": 497,
      "sm": 498,
      "nIN": 499,
      "wEl": 500,
      "sIr": 501,
      "Ep": 502,
      "SIp": 503,
      "ik": 504,
      "##ps": 505,
      "##awT": 506,
      "fAlow": 507,
      "maj": 508,
      "nr": 509,
      "bA": 510,
      "dV": 511,
      "faj": 512,
      "##dZr": 513,
      "tSr": 514,
      "nej": 515,
      "mejd": 516,
      "tim": 517,
      "##ul": 518,
      "bIfOr": 519,
      "nejm": 520,
      "Inv": 521,
      "##ojnt": 522,
      "##jr": 523,
      "mIn": 524,
      "sawT": 525,
      "sIm": 526,
      "kEr": 527,
      "##Vmbr": 528,
      "lAr": 529,
      "lajn": 530,
      "##awr": 531,
      "dZi": 532,
      "sl": 533,
      "ejl": 534,
      "DEm": 535,
      "Apr": 536,
      "##Ig": 537,
      "##Istr": 538,
      "sVtS": 539,
      "Dr": 540,
      "sIn": 541,
      "Est": 542,
      "##bi": 543,
      "##owt": 544,
      "##VN": 545,
      "##owk": 546,
      "im": 547,
      "nVmbr": 548,
      "ntr": 549,
      "tEr": 550,
      "pVbl": 551,
      "dIz": 552,
      "##zIN": 553,
      "mjuzIk": 554,
      "oj": 555,
      "dIS": 556,
      "bej": 557,
      "ndr": 558,
      "vEr": 559,
      "Ins": 560,
      "dZEnr": 561,
      "id": 562,
      "Eks": 563,
      "wE": 564,
      "in": 565,
      "##Vst": 566,
      "lowk": 567,
      "Nk": 568,
      "md": 569,
      "pojnt": 570,
      "fju": 571,
      "sIst": 572,
      "nIr": 573,
      "##ISt": 574,
      "pA": 575,
      "ft": 576,
      "dIN": 577,
      "##ejtId": 578,
      "bowT": 579,
      "DEn": 580,
      "hawEvr": 581,
      "biIN": 582,
      "pt": 583,
      "hAr": 584,
      "tSAr": 585,
      "juzd": 586,
      "##Old": 587,
      "Diz": 588,
      "fajn": 589,
      "spi": 590,
      "bOr": 591,
      "##ejnd": 592,
      "sin": 593,
      "Ir": 594,
      "Igz": 595,
      "gEnst": 596,
      "pEr": 597,
      "##ES": 598,
      "sej": 599,
      "##gl": 600,
      "##wr": 601,
      "Ti": 602,
      "sIti": 603,
      "lajk": 604,
      "mEni": 605,
      "tEk": 606,
      "ist": 607,
      "lV": 608,
      "tIk": 609,
      "sEvr": 610,
      "Ap": 611,
      "owt": 612,
      "dId": 613,
      "##laj": 614,
      "Ip": 615,
      "owd": 616,
      "tEm": 617,
      "pej": 618,
      "junajt": 619,
      "##ni": 620,
      "tejk": 621,
      "Iks": 622,
      "dIvEl": 623,
      "##Otr": 624,
      "bIkejm": 625,
      "##Vlt": 626,
      "lA": 627,
      "InkludIN": 628,
      "howm": 629,
      "##vz": 630,
      "##Elf": 631,
      "Sow": 632,
      "##SIp": 633,
      "dZAn": 634,
      "fU": 635,
      "##ows": 636,
      "##zr": 637,
      "fawnd": 638,
      "sEntr": 639,
      "ki": 640,
      "kej": 641,
      "Ab": 642,
      "##ft": 643,
      "pAp": 644,
      "ndz": 645,
      "kejS": 646,
      "wIn": 647,
      "vaj": 648,
      "owp": 649,
      "##lit": 650,
      "tEn": 651,
      "##Oz": 652,
      "##INz": 653,
      "tiz": 654,
      "gVvr": 655,
      "Ak": 656,
      "sEt": 657,
      "ksEs": 658,
      "dIstr": 659,
      "sEd": 660,
      "is": 661,
      "##EkS": 662,
      "Itr": 663,
      "fej": 664,
      "tli": 665,
      "Inf": 666,
      "##kIN": 667,
      "vi": 668,
      "##vIN": 669,
      "lejt": 670,
      "sowd": 671,
      "jus": 672,
      "lEd": 673,
      "ajb": 674,
      "stejts": 675,
      "Inklud": 676,
      "mE": 677,
      "dIskr": 678,
      "ntli": 679,
      "fIS": 680,
      "Iktr": 681,
      "sVb": 682,
      "fAlowIN": 683,
      "il": 684,
      "Vs": 685,
      "lIt": 686,
      "ajt": 687,
      "##Ikt": 688,
      "##lz": 689,
      "kUd": 690,
      "Eni": 691,
      "gn": 692,
      "lt": 693,
      "nju": 694,
      "##jud": 695,
      "nown": 696,
      "ntIn": 697,
      "##Dow": 698,
      "OlDow": 699,
      "Ag": 700,
      "zIS": 701,
      "wEst": 702,
      "hEd": 703,
      "##lr": 704,
      "lI": 705,
      "ejd": 706,
      "mVn": 707,
      "nV": 708,
      "##ejndZ": 709,
      "kS": 710,
      "haws": 711,
      "daj": 712,
      "INgl": 713,
      "waj": 714,
      "Evr": 715,
      "ntIl": 716,
      "Ekr": 717,
      "kVmp": 718,
      "gIv": 719,
      "stej": 720,
      "Inst": 721,
      "gAr": 722,
      "sajd": 723,
      "IS": 724,
      "##ud": 725,
      "tEl": 726,
      "owld": 727,
      "pip": 728,
      "kOld": 729,
      "mEmbr": 730,
      "sw": 731,
      "bIkOz": 732,
      "sINg": 733,
      "skul": 734,
      "fA": 735,
      "##Nk": 736,
      "EdZ": 737,
      "ilist": 738,
      "Entr": 739,
      "Ostr": 740,
      "mejn": 741,
      "mIlj": 742,
      "fitSr": 743,
      "jOr": 744,
      "mIS": 745,
      "fE": 746,
      "lajf": 747,
      "mId": 748,
      "ut": 749,
      "dZun": 750,
      "gej": 751,
      "Am": 752,
      "sEnt": 753,
      "dZVst": 754,
      "SOr": 755,
      "plejr": 756,
      "taj": 757,
      "lejS": 758,
      "Isp": 759,
      "##IfIk": 760,
      "sIns": 761,
      "sEpt": 762,
      "nejS": 763,
      "Os": 764,
      "##iow": 765,
      "dv": 766,
      "ktr": 767,
      "kawnt": 768,
      "up": 769,
      "dawn": 770,
      "##mr": 771,
      "sIk": 772,
      "bV": 773,
      "ejndZ": 774,
      "mju": 775,
      "kIl": 776,
      "##ItS": 777,
      "skr": 778,
      "ItIS": 779,
      "pawr": 780,
      "sEntSr": 781,
      "gl": 782,
      "ejdZ": 783,
      "ES": 784,
      "nejt": 785,
      "lIN": 786,
      "##Ad": 787,
      "kVl": 788,
      "pApj": 789,
      "plejs": 790,
      "bEst": 791,
      "naj": 792,
      "##it": 793,
      "tOr": 794,
      "dIsk": 795,
      "kAl": 796,
      "sti": 797,
      "sejm": 798,
      "##bj": 799,
      "Ekt": 800,
      "sEptEmbr": 801,
      "wik": 802,
      "wOtr": 803,
      "ajd": 804,
      "lIst": 805,
      "##ki": 806,
      "tUk": 807,
      "bAr": 808,
      "Akt": 809,
      "Ivr": 810,
      "##Ept": 811,
      "ndZ": 812,
      "tUr": 813,
      "tSejndZ": 814,
      "Ev": 815,
      "nVDr": 816,
      "bejs": 817,
      "fajv": 818,
      "hE": 819,
      "sivd": 820,
      "owm": 821,
      "tIN": 822,
      "nstr": 823,
      "Ikst": 824,
      "dust": 825,
      "bIkVm": 826,
      "hju": 827,
      "##EntS": 828,
      "##Idr": 829,
      "sIks": 830,
      "nowv": 831,
      "dVkS": 832,
      "pAl": 833,
      "nowt": 834,
      "IvEnt": 835,
      "kV": 836,
      "law": 837,
      "lig": 838,
      "hEr": 839,
      "smOl": 840,
      "ejlj": 841,
      "nsIdr": 842,
      "wVt": 843,
      "iejt": 844,
      "ajr": 845,
      "dIp": 846,
      "ejs": 847,
      "ajl": 848,
      "##owbr": 849,
      "dZOr": 850,
      "##ejnz": 851,
      "fajr": 852,
      "ajz": 853,
      "Aktowbr": 854,
      "##Ot": 855,
      "tSi": 856,
      "nEk": 857,
      "mawnt": 858,
      "mEnt": 859,
      "sEl": 860,
      "tajt": 861,
      "nSIp": 862,
      "fEl": 863,
      "dIsp": 864,
      "##Vntr": 865,
      "##mz": 866,
      "ikw": 867,
      "sli": 868,
      "tw": 869,
      "sajt": 870,
      "##jUr": 871,
      "vIZ": 872,
      "tAp": 873,
      "Ng": 874,
      "Inkr": 875,
      "ajv": 876,
      "nA": 877,
      "skOr": 878,
      "tow": 879,
      "sIz": 880,
      "Indi": 881,
      "##EktIv": 882,
      "vIN": 883,
      "dIfr": 884,
      "kju": 885,
      "##Ektr": 886,
      "As": 887,
      "##plej": 888,
      "ejpr": 889,
      "dejt": 890,
      "sOr": 891,
      "dZulaj": 892,
      "ajs": 893,
      "sVn": 894,
      "##Eks": 895,
      "nowvEmbr": 896,
      "idZ": 897,
      "gejmz": 898,
      "vId": 899,
      "kAntr": 900,
      "dET": 901,
      "vajd": 902,
      "##Its": 903,
      "tawn": 904,
      "fIn": 905,
      "lEs": 906,
      "skw": 907,
      "mejdZr": 908,
      "dIk": 909,
      "awr": 910,
      "mVtS": 911,
      "dZd": 912,
      "mAn": 913,
      "##ejlz": 914,
      "lEft": 915,
      "hA": 916,
      "mplit": 917,
      "##diow": 918,
      "Vk": 919,
      "fajd": 920,
      "hOr": 921,
      "mVnT": 922,
      "nsi": 923,
      "nsr": 924,
      "nj": 925,
      "kVvr": 926,
      "##pi": 927,
      "bejst": 928,
      "lajt": 929,
      "naw": 930,
      "gVn": 931,
      "nst": 932,
      "hIstr": 933,
      "kVntr": 934,
      "min": 935,
      "owz": 936,
      "nIk": 937,
      "ajbd": 938,
      "niz": 939,
      "najt": 940,
      "##lIN": 941,
      "nk": 942,
      "dIsEmbr": 943,
      "klVb": 944,
      "ntS": 945,
      "plejd": 946,
      "mejk": 947,
      "ajm": 948,
      "sts": 949,
      "bIldIN": 950,
      "fIk": 951,
      "bIli": 952,
      "mpi": 953,
      "##nr": 954,
      "njuEr": 955,
      "EntS": 956,
      "##Ep": 957,
      "fAr": 958,
      "dIvIZ": 959,
      "ivi": 960,
      "vd": 961,
      "mb": 962,
      "ejtS": 963,
      "owk": 964,
      "wIT": 965,
      "##Ans": 966,
      "Aks": 967,
      "##Siz": 968,
      "ilis": 969,
      "bli": 970,
      "wajt": 971,
      "##bOl": 972,
      "kejm": 973,
      "mVN": 974,
      "nEr": 975,
      "stIl": 976,
      "Ot": 977,
      "Imp": 978,
      "pVblIk": 979,
      "##EnS": 980,
      "vIdiow": 981,
      "Epr": 982,
      "wIDIn": 983,
      "Eg": 984,
      "nEkst": 985,
      "jUr": 986,
      "Efr": 987,
      "tajmz": 988,
      "nAm": 989,
      "InIS": 990,
      "nejmd": 991,
      "##Ekts": 992,
      "Dowz": 993,
      "nv": 994,
      "sIl": 995,
      "EndZ": 996,
      "wInd": 997,
      "pU": 998,
      "Impr": 999,
      "ipOr": 1000,
      "ir": 1001,
      "spr": 1002,
      "mjun": 1003,
      "vju": 1004,
      "voj": 1005,
      "tAm": 1006,
      "sEkS": 1007,
      "mEt": 1008,
      "fUt": 1009,
      "##owl": 1010,
      "##fi": 1011,
      "ktIv": 1012,
      "dejz": 1013,
      "wOl": 1014,
      "##ajz": 1015,
      "stu": 1016,
      "##ajlz": 1017,
      "muv": 1018,
      "klejm": 1019,
      "spiSiz": 1020,
      "stV": 1021,
      "sowl": 1022,
      "bUk": 1023,
      "fild": 1024,
      "nEt": 1025,
      "##ti": 1026,
      "dm": 1027,
      "dIst": 1028,
      "bEr": 1029,
      "sawnd": 1030,
      "mejS": 1031,
      "lEv": 1032,
      "fEr": 1033,
      "stejS": 1034,
      "lj": 1035,
      "ON": 1036,
      "kejt": 1037,
      "fEbj": 1038,
      "VS": 1039,
      "dIzajn": 1040,
      "sEv": 1041,
      "##kw": 1042,
      "##Tr": 1043,
      "pm": 1044,
      "bIlt": 1045,
      "dEnt": 1046,
      "kAnt": 1047,
      "powst": 1048,
      "Dow": 1049,
      "kAmp": 1050,
      "Ikw": 1051,
      "##kej": 1052,
      "tEst": 1053,
      "dEm": 1054,
      "mEd": 1055,
      "sowsi": 1056,
      "tm": 1057,
      "vIl": 1058,
      "gUd": 1059,
      "dZoj": 1060,
      "hEld": 1061,
      "sO": 1062,
      "##gow": 1063,
      "jVN": 1064,
      "bU": 1065,
      "##ut": 1066,
      "tej": 1067,
      "ApIk": 1068,
      "##owni": 1069,
      "IzVlt": 1070,
      "Et": 1071,
      "VkS": 1072,
      "kawn": 1073,
      "Ib": 1074,
      "Ikspl": 1075,
      "bIh": 1076,
      "Od": 1077,
      "ntInjud": 1078,
      "dAn": 1079,
      "##Zr": 1080,
      "nEvr": 1081,
      "wIlj": 1082,
      "bIgIn": 1083,
      "##IT": 1084,
      "##ejnIN": 1085,
      "towt": 1086,
      "ups": 1087,
      "dejv": 1088,
      "wAnt": 1089,
      "hIr": 1090,
      "kejs": 1091,
      "dAk": 1092,
      "hIst": 1093,
      "dIl": 1094,
      "##Estr": 1095,
      "lOr": 1096,
      "bju": 1097,
      "fOl": 1098,
      "vIz": 1099,
      "##Etr": 1100,
      "lIm": 1101,
      "ps": 1102,
      "nf": 1103,
      "##TIN": 1104,
      "lajv": 1105,
      "wITawt": 1106,
      "supr": 1107,
      "majn": 1108,
      "lIs": 1109,
      "dA": 1110,
      "nawn": 1111,
      "vIk": 1112,
      "dIspajt": 1113,
      "Vnt": 1114,
      "hjum": 1115,
      "bEl": 1116,
      "hIstOr": 1117,
      "wajd": 1118,
      "##dZEst": 1119,
      "kejn": 1120,
      "istr": 1121,
      "dVb": 1122,
      "##kow": 1123,
      "Ef": 1124,
      "##ejd": 1125,
      "##dZIk": 1126,
      "mIs": 1127,
      "ndIN": 1128,
      "gEt": 1129,
      "tSIl": 1130,
      "mAd": 1131,
      "kawnti": 1132,
      "wEnt": 1133,
      "owgr": 1134,
      "##owzd": 1135,
      "Ad": 1136,
      "awn": 1137,
      "sONz": 1138,
      "zi": 1139,
      "pAs": 1140,
      "lVnd": 1141,
      "stVdi": 1142,
      "dIt": 1143,
      "IlEktr": 1144,
      "bIz": 1145,
      "Ili": 1146,
      "nAn": 1147,
      "muvd": 1148,
      "SIps": 1149,
      "mAdr": 1150,
      "hajwej": 1151,
      "INglIS": 1152,
      "luS": 1153,
      "Ii": 1154,
      "##EnsIv": 1155,
      "hV": 1156,
      "kVp": 1157,
      "Influ": 1158,
      "bAdi": 1159,
      "dAr": 1160,
      "kAns": 1161,
      "gE": 1162,
      "lOst": 1163,
      "##ajs": 1164,
      "nid": 1165,
      "tEmpt": 1166,
      "ajtIN": 1167,
      "ajdi": 1168,
      "sEr": 1169,
      "fajnd": 1170,
      "gejv": 1171,
      "nti": 1172,
      "stejdZ": 1173,
      "pAn": 1174,
      "gdZEst": 1175,
      "##And": 1176,
      "##tSt": 1177,
      "ajtr": 1178,
      "Id": 1179,
      "sIt": 1180,
      "##ploj": 1181,
      "pis": 1182,
      "majk": 1183,
      "InvAl": 1184,
      "##ejmz": 1185,
      "tIkj": 1186,
      "boj": 1187,
      "lVv": 1188,
      "ImpOr": 1189,
      "nuz": 1190,
      "dIm": 1191,
      "##Vs": 1192,
      "wEstr": 1193,
      "##lajn": 1194,
      "dEk": 1195,
      "##mow": 1196,
      "skAt": 1197,
      "AdZ": 1198,
      "Ofr": 1199,
      "ksEsf": 1200,
      "klows": 1201,
      "gowld": 1202,
      "\\={": 1203,
      "kowst": 1204,
      "##ejts": 1205,
      "##sElf": 1206,
      "fADr": 1207,
      "hIl": 1208,
      "midi": 1209,
      "##md": 1210,
      "spES": 1211,
      "wIm": 1212,
      "nsIz": 1213,
      "##Si": 1214,
      "##Ign": 1215,
      "tId": 1216,
      "sA": 1217,
      "##un": 1218,
      "juzIN": 1219,
      "##uz": 1220,
      "pVblISt": 1221,
      "lidr": 1222,
      "##On": 1223,
      "##ejtIN": 1224,
      "sEm": 1225,
      "bEn": 1226,
      "ivju": 1227,
      "tSIldr": 1228,
      "VktSr": 1229,
      "ejzd": 1230,
      "mIN": 1231,
      "ilejS": 1232,
      "stajl": 1233,
      "sn": 1234,
      "##Ib": 1235,
      "um": 1236,
      "fUl": 1237,
      "hOl": 1238,
      "mIk": 1239,
      "wU": 1240,
      "mejkIN": 1241,
      "zEnt": 1242,
      "lIv": 1243,
      "ejtr": 1244,
      "sVmr": 1245,
      "##ownz": 1246,
      "Ig": 1247,
      "dIsajd": 1248,
      "dOr": 1249,
      "hIt": 1250,
      "sajnd": 1251,
      "blu": 1252,
      "uawt": 1253,
      "ip": 1254,
      "##ajzd": 1255,
      "Abr": 1256,
      "flOr": 1257,
      "wVns": 1258,
      "Egj": 1259,
      "hImsElf": 1260,
      "ejtIN": 1261,
      "bAm": 1262,
      "ItIk": 1263,
      "vejS": 1264,
      "sIv": 1265,
      "##bOr": 1266,
      "sVDr": 1267,
      "lis": 1268,
      "kli": 1269,
      "Ektr": 1270,
      "##Ekj": 1271,
      "dIpAr": 1272,
      "kVltSr": 1273,
      "kAnst": 1274,
      "hEvi": 1275,
      "nS": 1276,
      "tEnd": 1277,
      "kOl": 1278,
      "sIfIk": 1279,
      "##EpS": 1280,
      "dajd": 1281,
      "##INt": 1282,
      "fajt": 1283,
      "nsIst": 1284,
      "tIs": 1285,
      "tIr": 1286,
      "powzd": 1287,
      "##Adr": 1288,
      "InstEd": 1289,
      "nawnst": 1290,
      "dZejmz": 1291,
      "fejvr": 1292,
      "ejk": 1293,
      "kAlIdZ": 1294,
      "vAl": 1295,
      "mejt": 1296,
      "lju": 1297,
      "vIktr": 1298,
      "##lt": 1299,
      "Imejnd": 1300,
      "mVnTs": 1301,
      "lEdZ": 1302,
      "##As": 1303,
      "nE": 1304,
      "##Inz": 1305,
      "jAr": 1306,
      "##ejni": 1307,
      "tl": 1308,
      "##ajld": 1309,
      "kAst": 1310,
      "##Ins": 1311,
      "zejS": 1312,
      "Edi": 1313,
      "Sr": 1314,
      "dEl": 1315,
      "itSt": 1316,
      "mEtr": 1317,
      "kj": 1318,
      "##Ili": 1319,
      "gEDr": 1320,
      "howld": 1321,
      "fowk": 1322,
      "fElt": 1323,
      "plejst": 1324,
      "gOr": 1325,
      "bOl": 1326,
      "mowt": 1327,
      "ejb": 1328,
      "tSajn": 1329,
      "SEr": 1330,
      "dIfit": 1331,
      "##Ab": 1332,
      "fV": 1333,
      "tEnS": 1334,
      "ptSr": 1335,
      "##id": 1336,
      "majlz": 1337,
      "##NkT": 1338,
      "ejz": 1339,
      "sVbs": 1340,
      "##nz": 1341,
      "IvEntS": 1342,
      "##Vf": 1343,
      "dIskVvr": 1344,
      "##Agr": 1345,
      "IkspIr": 1346,
      "lEkt": 1347,
      "##Int": 1348,
      "nm": 1349,
      "pIk": 1350,
      "SUd": 1351,
      "ikwajr": 1352,
      "##Of": 1353,
      "hajr": 1354,
      "nIS": 1355,
      "dEd": 1356,
      "najn": 1357,
      "pAz": 1358,
      "ows": 1359,
      "mpejn": 1360,
      "##us": 1361,
      "##Ift": 1362,
      "spOr": 1363,
      "stud": 1364,
      "Ikt": 1365,
      "lOs": 1366,
      "fAlowd": 1367,
      "dZej": 1368,
      "if": 1369,
      "ajts": 1370,
      "tVn": 1371,
      "nAv": 1372,
      "slow": 1373,
      "kIld": 1374,
      "##jut": 1375,
      "lowkejt": 1376,
      "##Inj": 1377,
      "fit": 1378,
      "##Ikli": 1379,
      "Oltr": 1380,
      "hElp": 1381,
      "tIS": 1382,
      "TIN": 1383,
      "fUtbOl": 1384,
      "kawns": 1385,
      "zin": 1386,
      "tEmp": 1387,
      "SAt": 1388,
      "lIn": 1389,
      "vejl": 1390,
      "wEDr": 1391,
      "pojnts": 1392,
      "nli": 1393,
      "##mowst": 1394,
      "ajdEnt": 1395,
      "kVlr": 1396,
      "km": 1397,
      "gejS": 1398,
      "ku": 1399,
      "kVt": 1400,
      "lk": 1401,
      "vowk": 1402,
      "blISt": 1403,
      "fejs": 1404,
      "bs": 1405,
      "Abl": 1406,
      "dli": 1407,
      "spejs": 1408,
      "wAS": 1409,
      "sElf": 1410,
      "##kl": 1411,
      "At": 1412,
      "Ikstr": 1413,
      "dus": 1414,
      "TOt": 1415,
      "TOr": 1416,
      "isr": 1417,
      "mt": 1418,
      "lawd": 1419,
      "nT": 1420,
      "sajz": 1421,
      "Ant": 1422,
      "mpEr": 1423,
      "Intajr": 1424,
      "dejvId": 1425,
      "kAmpl": 1426,
      "Nks": 1427,
      "lm": 1428,
      "dejb": 1429,
      "mIt": 1430,
      "dZin": 1431,
      "iow": 1432,
      "AdZEkt": 1433,
      "##Vd": 1434,
      "dow": 1435,
      "gIl": 1436,
      "ItIks": 1437,
      "AsEs": 1438,
      "Ikspr": 1439,
      "plejIN": 1440,
      "bIzn": 1441,
      "mVDr": 1442,
      "hEnr": 1443,
      "kINd": 1444,
      "kAzd": 1445,
      "##Aks": 1446,
      "kwAl": 1447,
      "uv": 1448,
      "ntInju": 1449,
      "Sej": 1450,
      "vIdZ": 1451,
      "flit": 1452,
      "uvd": 1453,
      "##Alr": 1454,
      "kts": 1455,
      "kAz": 1456,
      "fim": 1457,
      "sowld": 1458,
      "dIsajdId": 1459,
      "stiv": 1460,
      "tAr": 1461,
      "IndIp": 1462,
      "bIhajnd": 1463,
      "sowS": 1464,
      "##Ev": 1465,
      "IndIpEnd": 1466,
      "##Ind": 1467,
      "sun": 1468,
      "ejnIN": 1469,
      "Endz": 1470,
      "skwAdr": 1471,
      "Ivi": 1472,
      "kowl": 1473,
      "##Ez": 1474,
      "##fild": 1475,
      "ajmEr": 1476,
      "tEmpr": 1477,
      "##ejdZ": 1478,
      "Anr": 1479,
      "lAdZIk": 1480,
      "##Endr": 1481,
      "awts": 1482,
      "InvEst": 1483,
      "ItS": 1484,
      "Olmowst": 1485,
      "mEl": 1486,
      "mVlt": 1487,
      "junj": 1488,
      "lEkS": 1489,
      "kwOr": 1490,
      "dusr": 1491,
      "##Igjr": 1492,
      "dowz": 1493,
      "tSEr": 1494,
      "##EdZ": 1495,
      "gVnz": 1496,
      "mejnt": 1497,
      "dZow": 1498,
      "hej": 1499,
      "tajp": 1500,
      "list": 1501,
      "lOn": 1502,
      "Vg": 1503,
      "##VNkS": 1504,
      "##plejst": 1505,
      "ndIS": 1506,
      "##ajdr": 1507,
      "dIfEns": 1508,
      "lidIN": 1509,
      "##wEr": 1510,
      "ejdiow": 1511,
      "Egz": 1512,
      "pOl": 1513,
      "Vnz": 1514,
      "wiks": 1515,
      "sajn": 1516,
      "Instr": 1517,
      "sEpr": 1518,
      "gIt": 1519,
      "dIkl": 1520,
      "sVfr": 1521,
      "lIz": 1522,
      "ajvd": 1523,
      "##owld": 1524,
      "gA": 1525,
      "nfr": 1526,
      "Enr": 1527,
      "sIkjUr": 1528,
      "OTr": 1529,
      "gowl": 1530,
      "lIr": 1531,
      "Ipt": 1532,
      "##Ant": 1533,
      "lUk": 1534,
      "sf": 1535,
      "gnIfIk": 1536,
      "##Ok": 1537,
      "ntIk": 1538,
      "Vkt": 1539,
      "##um": 1540,
      "##idi": 1541,
      "kAmb": 1542,
      "Al": 1543,
      "##Ii": 1544,
      "gAd": 1545,
      "IntS": 1546,
      "Esk": 1547,
      "kAN": 1548,
      "IlEkS": 1549,
      "IvEnts": 1550,
      "nejvi": 1551,
      "tIp": 1552,
      "##ejtr": 1553,
      "tSajld": 1554,
      "fVnd": 1555,
      "iDr": 1556,
      "stown": 1557,
      "kwin": 1558,
      "klIr": 1559,
      "pUt": 1560,
      "fEdr": 1561,
      "Infr": 1562,
      "##wEst": 1563,
      "wajf": 1564,
      "##Sr": 1565,
      "##owd": 1566,
      "pEn": 1567,
      "howl": 1568,
      "pitr": 1569,
      "ksEpt": 1570,
      "wASINt": 1571,
      "studiow": 1572,
      "lowr": 1573,
      "vIkt": 1574,
      "##Vkt": 1575,
      "nh": 1576,
      "lajzd": 1577,
      "muvm": 1578,
      "tejS": 1579,
      "lajnz": 1580,
      "mEm": 1581,
      "IndZr": 1582,
      "tEkn": 1583,
      "powz": 1584,
      "kAmEnt": 1585,
      "tSif": 1586,
      "kAnsr": 1587,
      "On": 1588,
      "Ent": 1589,
      "ajzd": 1590,
      "dZE": 1591,
      "dIn": 1592,
      "SAr": 1593,
      "sowsiejS": 1594,
      "Izr": 1595,
      "##plejs": 1596,
      "lowkejS": 1597,
      "##ajmz": 1598,
      "##Av": 1599,
      "kwEst": 1600,
      "dZojnd": 1601,
      "mIst": 1602,
      "nklu": 1603,
      "mVst": 1604,
      "dIzajnd": 1605,
      "mowS": 1606,
      "flajt": 1607,
      "IzVl": 1608,
      "sAl": 1609,
      "lItr": 1610,
      "tun": 1611,
      "Emploj": 1612,
      "bzr": 1613,
      "lir": 1614,
      "dVn": 1615,
      "##Olt": 1616,
      "tV": 1617,
      "sImp": 1618,
      "lEtr": 1619,
      "Empi": 1620,
      "fIgjr": 1621,
      "Ngw": 1622,
      "bIlivd": 1623,
      "gItAr": 1624,
      "spIr": 1625,
      "##sk": 1626,
      "##wejz": 1627,
      "fIf": 1628,
      "lajz": 1629,
      "tejkIN": 1630,
      "nEl": 1631,
      "lEr": 1632,
      "ojd": 1633,
      "juZ": 1634,
      "dIstIN": 1635,
      "Af": 1636,
      "fIt": 1637,
      "sIgn": 1638,
      "tEkt": 1639,
      "iplejst": 1640,
      "skt": 1641,
      "IlIdZ": 1642,
      "tejl": 1643,
      "EmpiejtS": 1644,
      "imu": 1645,
      "kEn": 1646,
      "sEns": 1647,
      "##tSIN": 1648,
      "dip": 1649,
      "ejm": 1650,
      "kAnf": 1651,
      "ItSr": 1652,
      "fIz": 1653,
      "lti": 1654,
      "tin": 1655,
      "InvAlvd": 1656,
      "fIr": 1657,
      "lejk": 1658,
      "Av": 1659,
      "fjutSr": 1660,
      "##ItSu": 1661,
      "fInISt": 1662,
      "##EktIvli": 1663,
      "Imidi": 1664,
      "##pIN": 1665,
      "mejl": 1666,
      "dajn": 1667,
      "sejIN": 1668,
      "gowIN": 1669,
      "lv": 1670,
      "dIpr": 1671,
      "bAt": 1672,
      "nsfr": 1673,
      "bit": 1674,
      "iejS": 1675,
      "hAl": 1676,
      "IgzIst": 1677,
      "##EndIN": 1678,
      "dmIn": 1679,
      "gAt": 1680,
      "vojs": 1681,
      "##wUd": 1682,
      "nIz": 1683,
      "fIlmz": 1684,
      "smIT": 1685,
      "ajk": 1686,
      "bIgInIN": 1687,
      "Insp": 1688,
      "lown": 1689,
      "bEtr": 1690,
      "lut": 1691,
      "sikw": 1692,
      "nb": 1693,
      "plAt": 1694,
      "pIN": 1695,
      "ejts": 1696,
      "##dow": 1697,
      "dIsIZ": 1698,
      "IkstEnd": 1699,
      "tIl": 1700,
      "flaj": 1701,
      "lows": 1702,
      "ivjuz": 1703,
      "paj": 1704,
      "awtsajd": 1705,
      "mEZr": 1706,
      "ndi": 1707,
      "##aws": 1708,
      "fEst": 1709,
      "powl": 1710,
      "pUr": 1711,
      "ESr": 1712,
      "klejmd": 1713,
      "IntEns": 1714,
      "gejt": 1715,
      "gz": 1716,
      "owb": 1717,
      "bVv": 1718,
      "Apt": 1719,
      "##fOl": 1720,
      "stIN": 1721,
      "majt": 1722,
      "Odk": 1723,
      "bu": 1724,
      "dZEn": 1725,
      "kAp": 1726,
      "##pajr": 1727,
      "DVs": 1728,
      "bz": 1729,
      "sowldZr": 1730,
      "vEn": 1731,
      "mIr": 1732,
      "InVf": 1733,
      "Imr": 1734,
      "##wEl": 1735,
      "mIti": 1736,
      "fES": 1737,
      "dOtr": 1738,
      "sinjr": 1739,
      "wIndz": 1740,
      "##ojd": 1741,
      "dIlI": 1742,
      "kgr": 1743,
      "Vst": 1744,
      "pejnt": 1745,
      "IspAns": 1746,
      "hAt": 1747,
      "##Enti": 1748,
      "IpOr": 1749,
      "isp": 1750,
      "##Itr": 1751,
      "##EktId": 1752,
      "##EtIk": 1753,
      "mEnd": 1754,
      "nEtwr": 1755,
      "Olr": 1756,
      "ISu": 1757,
      "towld": 1758,
      "IsEpS": 1759,
      "fimejl": 1760,
      "lENkT": 1761,
      "mVni": 1762,
      "Edwr": 1763,
      "spid": 1764,
      "stAp": 1765,
      "spEnt": 1766,
      "skwEr": 1767,
      "tSt": 1768,
      "bIS": 1769,
      "kAnfr": 1770,
      "##im": 1771,
      "##gejdZ": 1772,
      "Tl": 1773,
      "ktS": 1774,
      "fejm": 1775,
      "ispAns": 1776,
      "fejld": 1777,
      "lIbr": 1778,
      "##nIN": 1779,
      "dAm": 1780,
      "sIstr": 1781,
      "##Ng": 1782,
      "##owb": 1783,
      "sajk": 1784,
      "pajl": 1785,
      "mIkst": 1786,
      "ig": 1787,
      "najzd": 1788,
      "##vIl": 1789,
      "hElT": 1790,
      "ItsElf": 1791,
      "nejv": 1792,
      "mtajmz": 1793,
      "EkS": 1794,
      "mEks": 1795,
      "Eksp": 1796,
      "kANgr": 1797,
      "tSu": 1798,
      "Akj": 1799,
      "kAt": 1800,
      "hum": 1801,
      "huz": 1802,
      "EngejdZ": 1803,
      "tejn": 1804,
      "dZV": 1805,
      "tut": 1806,
      "Adi": 1807,
      "lEg": 1808,
      "SEl": 1809,
      "mitIN": 1810,
      "bE": 1811,
      "lIvIN": 1812,
      "dAktr": 1813,
      "##kli": 1814,
      "majnr": 1815,
      "jukej": 1816,
      "dItr": 1817,
      "dAkj": 1818,
      "Nkt": 1819,
      "lejb": 1820,
      "tIvli": 1821,
      "howst": 1822,
      "EmIr": 1823,
      "wUm": 1824,
      "kwEstS": 1825,
      "bAks": 1826,
      "tSowz": 1827,
      "mAnt": 1828,
      "Vpr": 1829,
      "sowvi": 1830,
      "luIs": 1831,
      "IstS": 1832,
      "fud": 1833,
      "klow": 1834,
      "lEn": 1835,
      "kwIkli": 1836,
      "nl": 1837,
      "wIN": 1838,
      "sejl": 1839,
      "IfEkts": 1840,
      "hVn": 1841,
      "sItSu": 1842,
      "mjuzi": 1843,
      "us": 1844,
      "##ISIN": 1845,
      "##Aki": 1846,
      "isIN": 1847,
      "lAt": 1848,
      "dejbju": 1849,
      "fIfT": 1850,
      "Estr": 1851,
      "pejt": 1852,
      "IpS": 1853,
      "##sajd": 1854,
      "##ESli": 1855,
      "hAsp": 1856,
      "pejS": 1857,
      "IspESli": 1858,
      "slej": 1859,
      "IntEnd": 1860,
      "mIstr": 1861,
      "##ejmd": 1862,
      "Sin": 1863,
      "mEs": 1864,
      "mj": 1865,
      "Sowz": 1866,
      "timz": 1867,
      "Empajr": 1868,
      "dEz": 1869,
      "dZInj": 1870,
      "mEmr": 1871,
      "##mAr": 1872,
      "mpl": 1873,
      "##wVn": 1874,
      "owtS": 1875,
      "sajzd": 1876,
      "##ldr": 1877,
      "sowdz": 1878,
      "bIkVmIN": 1879,
      "vej": 1880,
      "kejp": 1881,
      "ImejnIN": 1882,
      "Inh": 1883,
      "##Elow": 1884,
      "dIdZ": 1885,
      "tEks": 1886,
      "owIN": 1887,
      "liv": 1888,
      "VnIN": 1889,
      "IlejtId": 1890,
      "wIntr": 1891,
      "mET": 1892,
      "##Imp": 1893,
      "wIt": 1894,
      "Vlt": 1895,
      "sINr": 1896,
      "wEb": 1897,
      "tVnz": 1898,
      "dIklEr": 1899,
      "klajm": 1900,
      "sinz": 1901,
      "livIN": 1902,
      "Su": 1903,
      "uz": 1904,
      "owlz": 1905,
      "gEr": 1906,
      "##awndr": 1907,
      "IkspEkt": 1908,
      "owv": 1909,
      "##ojz": 1910,
      "tawr": 1911,
      "bIlIti": 1912,
      "IkwIp": 1913,
      "wInIN": 1914,
      "tIvz": 1915,
      "dZIm": 1916,
      "kejZ": 1917,
      "wejt": 1918,
      "Iskej": 1919,
      "nspOr": 1920,
      "Ibj": 1921,
      "vIr": 1922,
      "##dZi": 1923,
      "gejd": 1924,
      "##Ists": 1925,
      "ItIs": 1926,
      "##awz": 1927,
      "fil": 1928,
      "##sEl": 1929,
      "Iti": 1930,
      "tEkst": 1931,
      "##Og": 1932,
      "stIk": 1933,
      "hAspIt": 1934,
      "##owm": 1935,
      "nejtSr": 1936,
      "wO": 1937,
      "TIr": 1938,
      "twEnti": 1939,
      "wIk": 1940,
      "sId": 1941,
      "vow": 1942,
      "##pej": 1943,
      "plaj": 1944,
      "Inspajr": 1945,
      "dZVdZ": 1946,
      "##bAr": 1947,
      "pik": 1948,
      "ejlwej": 1949,
      "ktIN": 1950,
      "Invajr": 1951,
      "kowtS": 1952,
      "ejv": 1953,
      "##ski": 1954,
      "ejnz": 1955,
      "lVm": 1956,
      "mit": 1957,
      "##Eld": 1958,
      "mEnS": 1959,
      "sut": 1960,
      "fIkS": 1961,
      "zr": 1962,
      "bjuS": 1963,
      "##dawn": 1964,
      "dIsplej": 1965,
      "IfEkt": 1966,
      "kAgow": 1967,
      "wEp": 1968,
      "hElpt": 1969,
      "bUks": 1970,
      "dIlIvr": 1971,
      "Ibjut": 1972,
      "tSajniz": 1973,
      "##Vstr": 1974,
      "numr": 1975,
      "kawntr": 1976,
      "fejl": 1977,
      "wajld": 1978,
      "lONgr": 1979,
      "nAmIk": 1980,
      "bIlbOr": 1981,
      "Endr": 1982,
      "dZAns": 1983,
      "nejdi": 1984,
      "gw": 1985,
      "vowt": 1986,
      "##ik": 1987,
      "ul": 1988,
      "sowsiejt": 1989,
      "jEt": 1990,
      "dejli": 1991,
      "koj": 1992,
      "bIldINz": 1993,
      "tSejndZd": 1994,
      "dEn": 1995,
      "##gw": 1996,
      "sejlz": 1997,
      "ownr": 1998,
      "##Az": 1999,
      "##Vndr": 2000,
      "sES": 2001,
      "lajkli": 2002,
      "ajzIN": 2003,
      "sVmTIN": 2004,
      "dil": 2005,
      "dZAb": 2006,
      "sEmb": 2007,
      "Imejnz": 2008,
      "ejtId": 2009,
      "##owS": 2010,
      "mowstli": 2011,
      "owdz": 2012,
      "DEmsEl": 2013,
      "DEmsElvz": 2014,
      "tIm": 2015,
      "vIktOr": 2016,
      "kn": 2017,
      "Ektli": 2018,
      "mbr": 2019,
      "bk": 2020,
      "##Eli": 2021,
      "vz": 2022,
      "pItS": 2023,
      "INz": 2024,
      "wejlz": 2025,
      "##tSi": 2026,
      "nn": 2027,
      "fowt": 2028,
      "bd": 2029,
      "mEntr": 2030,
      "fEkt": 2031,
      "muvIN": 2032,
      "sOlt": 2033,
      "owlImp": 2034,
      "IlEkt": 2035,
      "nsIN": 2036,
      "ltiz": 2037,
      "lINk": 2038,
      "kApiz": 2039,
      "ItOr": 2040,
      "fVNkS": 2041,
      "Olwejz": 2042,
      "ejZ": 2043,
      "dZunjr": 2044,
      "nvr": 2045,
      "IkwEst": 2046,
      "##Ag": 2047,
      "ipEr": 2048,
      "majnd": 2049,
      "Impl": 2050,
      "ntEm": 2051,
      "blVd": 2052,
      "sAr": 2053,
      "ISud": 2054,
      "ib": 2055,
      "Inkludz": 2056,
      "owS": 2057,
      "sejnt": 2058,
      "tv": 2059,
      "nbr": 2060,
      "##haws": 2061,
      "tejnm": 2062,
      "##zl": 2063,
      "jut": 2064,
      "IgzEkj": 2065,
      "nEkt": 2066,
      "muvi": 2067,
      "bAnd": 2068,
      "lAs": 2069,
      "Vf": 2070,
      "wu": 2071,
      "pIktSr": 2072,
      "dIgr": 2073,
      "tnr": 2074,
      "kaj": 2075,
      "nEs": 2076,
      "kO": 2077,
      "kwajr": 2078,
      "mpowzd": 2079,
      "lajd": 2080,
      "pul": 2081,
      "pIt": 2082,
      "ndZr": 2083,
      "lIS": 2084,
      "##Vmp": 2085,
      "tejks": 2086,
      "liz": 2087,
      "spAt": 2088,
      "sikr": 2089,
      "imuvd": 2090,
      "##hIk": 2091,
      "##lown": 2092,
      "itr": 2093,
      "kip": 2094,
      "vjur": 2095,
      "spl": 2096,
      "##wOr": 2097,
      "dZaj": 2098,
      "nejtIv": 2099,
      "iIn": 2100,
      "Sown": 2101,
      "mowm": 2102,
      "tO": 2103,
      "mInut": 2104,
      "vihIk": 2105,
      "gowlz": 2106,
      "Tim": 2107,
      "Ost": 2108,
      "lIk": 2109,
      "lf": 2110,
      "##bz": 2111,
      "fAks": 2112,
      "kAmplEks": 2113,
      "dEp": 2114,
      "fajtIN": 2115,
      "##Ini": 2116,
      "pejpr": 2117,
      "kEm": 2118,
      "dmr": 2119,
      "##itId": 2120,
      "##jutr": 2121,
      "blIS": 2122,
      "lejd": 2123,
      "Ivild": 2124,
      "sIklown": 2125,
      "##pejpr": 2126,
      "##inz": 2127,
      "Empr": 2128,
      "ISuz": 2129,
      "tud": 2130,
      "Insajd": 2131,
      "nejb": 2132,
      "fjuzd": 2133,
      "ndVkt": 2134,
      "ejdi": 2135,
      "tA": 2136,
      "lOntSt": 2137,
      "mejks": 2138,
      "tuS": 2139,
      "IspEktIvli": 2140,
      "ejli": 2141,
      "mitr": 2142,
      "slajt": 2143,
      "bIlow": 2144,
      "uts": 2145,
      "##AnIk": 2146,
      "mpr": 2147,
      "fajtr": 2148,
      "smOlr": 2149,
      "sIlvr": 2150,
      "lIvd": 2151,
      "ntejnz": 2152,
      "##EdZU": 2153,
      "skEdZU": 2154,
      "hEv": 2155,
      "dIvajd": 2156,
      "ajIi": 2157,
      "bowl": 2158,
      "fIzIk": 2159,
      "blAk": 2160,
      "nuzpejpr": 2161,
      "fVn": 2162,
      "ntEmpr": 2163,
      "vojd": 2164,
      "gEst": 2165,
      "nvEnS": 2166,
      "Invej": 2167,
      "sVbdZ": 2168,
      "owh": 2169,
      "##Ti": 2170,
      "##IstIk": 2171,
      "stEr": 2172,
      "AnIk": 2173,
      "dZEr": 2174,
      "flV": 2175,
      "##ejb": 2176,
      "TINk": 2177,
      "##zb": 2178,
      "gAm": 2179,
      "sItSuejS": 2180,
      "mowni": 2181,
      "uf": 2182,
      "##zi": 2183,
      "ejni": 2184,
      "dZli": 2185,
      "nAr": 2186,
      "skulz": 2187,
      "TIk": 2188,
      "##ojs": 2189,
      "tVtS": 2190,
      "stejtIN": 2191,
      "IzVltId": 2192,
      "dEv": 2193,
      "gajd": 2194,
      "stejdi": 2195,
      "##o_": 2196,
      "##stown": 2197,
      "gIvIN": 2198,
      "bitS": 2199,
      "##Elr": 2200,
      "mAl": 2201,
      "lOg": 2202,
      "klowzd": 2203,
      "ojl": 2204,
      "dvd": 2205,
      "ajn": 2206,
      "skAlr": 2207,
      "sawTi": 2208,
      "dmInIstr": 2209,
      "nlaj": 2210,
      "ET": 2211,
      "tajd": 2212,
      "lbr": 2213,
      "awndz": 2214,
      "kVst": 2215,
      "nowts": 2216,
      "##lIn": 2217,
      "majl": 2218,
      "EsIv": 2219,
      "bdZ": 2220,
      "##howld": 2221,
      "ajbz": 2222,
      "zil": 2223,
      "IpVbl": 2224,
      "mISIg": 2225,
      "bIld": 2226,
      "iIN": 2227,
      "sEkr": 2228,
      "miz": 2229,
      "minz": 2230,
      "##ejdz": 2231,
      "izEnt": 2232,
      "nil": 2233,
      "sVbdZIkt": 2234,
      "spEs": 2235,
      "viEt": 2236,
      "TINz": 2237,
      "hVndr": 2238,
      "##Ef": 2239,
      "dZm": 2240,
      "mIks": 2241,
      "nejmz": 2242,
      "wUl": 2243,
      "kAnfl": 2244,
      "##wajd": 2245,
      "nVn": 2246,
      "bejt": 2247,
      "kajnd": 2248,
      "owdus": 2249,
      "##ir": 2250,
      "##hr": 2251,
      "sajdz": 2252,
      "nowb": 2253,
      "##ini": 2254,
      "IkspEr": 2255,
      "##Adi": 2256,
      "hIp": 2257,
      "ejlr": 2258,
      "##nA": 2259,
      "##bEr": 2260,
      "nukli": 2261,
      "Vpt": 2262,
      "IzIst": 2263,
      "hajli": 2264,
      "owT": 2265,
      "dZows": 2266,
      "sImb": 2267,
      "plejn": 2268,
      "bIs": 2269,
      "Iksk": 2270,
      "dZIk": 2271,
      "bIhej": 2272,
      "dIfEnd": 2273,
      "##bow": 2274,
      "EndIN": 2275,
      "majkr": 2276,
      "bown": 2277,
      "glowb": 2278,
      "IpEr": 2279,
      "IpVblIk": 2280,
      "##pIr": 2281,
      "vAlju": 2282,
      "##SUr": 2283,
      "lEt": 2284,
      "howt": 2285,
      "lAk": 2286,
      "spEkt": 2287,
      "##sm": 2288,
      "Sowd": 2289,
      "bowt": 2290,
      "##IkS": 2291,
      "sEkSu": 2292,
      "lutEn": 2293,
      "hajdr": 2294,
      "dvr": 2295,
      "Ekstr": 2296,
      "kVmIN": 2297,
      "ntin": 2298,
      "pown": 2299,
      "##ndZr": 2300,
      "kowd": 2301,
      "##sIv": 2302,
      "Itajr": 2303,
      "bt": 2304,
      "dApt": 2305,
      "mowtr": 2306,
      "stVdiz": 2307,
      "nklud": 2308,
      "ksEptId": 2309,
      "lajbr": 2310,
      "kId": 2311,
      "spitS": 2312,
      "bUl": 2313,
      "##Ani": 2314,
      "IlIm": 2315,
      "dusIN": 2316,
      "##awndz": 2317,
      "sim": 2318,
      "##VNk": 2319,
      "mpowz": 2320,
      "##gm": 2321,
      "ajvIN": 2322,
      "flu": 2323,
      "INk": 2324,
      "InkOr": 2325,
      "pE": 2326,
      "tSojs": 2327,
      "sEks": 2328,
      "bIgInz": 2329,
      "stil": 2330,
      "mpjutr": 2331,
      "##Elv": 2332,
      "dZownz": 2333,
      "skAtl": 2334,
      "nSIps": 2335,
      "##vm": 2336,
      "mUr": 2337,
      "tIks": 2338,
      "tajr": 2339,
      "ejkr": 2340,
      "flajIN": 2341,
      "dIsm": 2342,
      "skejl": 2343,
      "jr": 2344,
      "minIN": 2345,
      "sit": 2346,
      "kEpt": 2347,
      "bajAgr": 2348,
      "##sIz": 2349,
      "IzVltIN": 2350,
      "vEs": 2351,
      "sawndtr": 2352,
      "klEr": 2353,
      "ntejS": 2354,
      "lejn": 2355,
      "sajts": 2356,
      "ipr": 2357,
      "kAntEnt": 2358,
      "hajl": 2359,
      "Els": 2360,
      "sImps": 2361,
      "skVl": 2362,
      "tIlr": 2363,
      "ktSr": 2364,
      "dEntS": 2365,
      "##Anr": 2366,
      "##Itu": 2367,
      "wund": 2368,
      "##awntr": 2369,
      "howtEl": 2370,
      "dVtS": 2371,
      "idr": 2372,
      "sEtIN": 2373,
      "fown": 2374,
      "mbajnd": 2375,
      "InvejZ": 2376,
      "sajm": 2377,
      "InfOr": 2378,
      "ntInjuz": 2379,
      "owlIN": 2380,
      "kIn": 2381,
      "studi": 2382,
      "din": 2383,
      "ilaj": 2384,
      "ownd": 2385,
      "##nAm": 2386,
      "tEmpts": 2387,
      "klAr": 2388,
      "bibi": 2389,
      "awd": 2390,
      "gnajzd": 2391,
      "noj": 2392,
      "tSejm": 2393,
      "##bl": 2394,
      "flow": 2395,
      "lawIN": 2396,
      "kul": 2397,
      "studiowz": 2398,
      "AbdZ": 2399,
      "##Vk": 2400,
      "ipVbl": 2401,
      "Tist": 2402,
      "Tawz": 2403,
      "itSIN": 2404,
      "sIksT": 2405,
      "lejdi": 2406,
      "##ItejS": 2407,
      "pejdZ": 2408,
      "Enkr": 2409,
      "bAst": 2410,
      "ajIN": 2411,
      "fInIS": 2412,
      "tEknAl": 2413,
      "dEr": 2414,
      "tSejmbr": 2415,
      "Iksklu": 2416,
      "ptr": 2417,
      "fIlmIN": 2418,
      "##mi": 2419,
      "IkstEnsIv": 2420,
      "##EntSr": 2421,
      "kjr": 2422,
      "wAtS": 2423,
      "awtr": 2424,
      "lSIp": 2425,
      "kowld": 2426,
      "EdIN": 2427,
      "itm": 2428,
      "pejn": 2429,
      "pikt": 2430,
      "IspAnd": 2431,
      "lIvr": 2432,
      "ivjur": 2433,
      "hajt": 2434,
      "Imejn": 2435,
      "pejd": 2436,
      "dIziz": 2437,
      "dEf": 2438,
      "jElow": 2439,
      "VNk": 2440,
      "bIkVmz": 2441,
      "##u_": 2442,
      "ENkT": 2443,
      "Aksfr": 2444,
      "ktIk": 2445,
      "nkr": 2446,
      "Isk": 2447,
      "ntSEstr": 2448,
      "dEzIgn": 2449,
      "nejbr": 2450,
      "Vnd": 2451,
      "owf": 2452,
      "kg": 2453,
      "sElIN": 2454,
      "skow": 2455,
      "uzr": 2456,
      "pEns": 2457,
      "kAnsEpt": 2458,
      "lONsajd": 2459,
      "IzVlts": 2460,
      "ntIr": 2461,
      "pUS": 2462,
      "dIstINkt": 2463,
      "ls": 2464,
      "Vnr": 2465,
      "wejz": 2466,
      "plejz": 2467,
      "Vb": 2468,
      "lEk": 2469,
      "ejntS": 2470,
      "kOlIN": 2471,
      "gaj": 2472,
      "sItiz": 2473,
      "viEtnAm": 2474,
      "nEg": 2475,
      "ImpIr": 2476,
      "slajtli": 2477,
      "tfOr": 2478,
      "##Vp": 2479,
      "sOt": 2480,
      "IntEl": 2481,
      "sajl": 2482,
      "##ejz": 2483,
      "Inkawntr": 2484,
      "nVTIN": 2485,
      "Antu": 2486,
      "dejts": 2487,
      "fEnsIv": 2488,
      "duk": 2489,
      "ajvr": 2490,
      "ml": 2491,
      "InINz": 2492,
      "wejv": 2493,
      "##Ips": 2494,
      "mplitli": 2495,
      "##kwOr": 2496,
      "Eb": 2497,
      "pVn": 2498,
      "plajd": 2499,
      "##a_": 2500,
      "##tSu": 2501,
      "sEts": 2502,
      "dZiz": 2503,
      "bibisi": 2504,
      "dEzIgnejtId": 2505,
      "##wajl": 2506,
      "mejnli": 2507,
      "mpli": 2508,
      "swid": 2509,
      "kjut": 2510,
      "bEk": 2511,
      "ejnd": 2512,
      "##Os": 2513,
      "hVzb": 2514,
      "lg": 2515,
      "dvEntSr": 2516,
      "lin": 2517,
      "fawndejS": 2518,
      "lajs": 2519,
      "Nkr": 2520,
      "EN": 2521,
      "lUkIN": 2522,
      "wajdli": 2523,
      "fElow": 2524,
      "sfIr": 2525,
      "nw": 2526,
      "howmz": 2527,
      "TwEst": 2528,
      "tEkni": 2529,
      "##ANk": 2530,
      "IkAn": 2531,
      "kVmz": 2532,
      "luk": 2533,
      "bejsbOl": 2534,
      "dIr": 2535,
      "tajps": 2536,
      "ndEr": 2537,
      "##SejndZ": 2538,
      "dZUr": 2539,
      "##Alvd": 2540,
      "gejnd": 2541,
      "sIs": 2542,
      "hUd": 2543,
      "pIn": 2544,
      "IkstSejndZ": 2545,
      "Iplejs": 2546,
      "bIAnd": 2547,
      "owldr": 2548,
      "lU": 2549,
      "tejb": 2550,
      "pli": 2551,
      "ud": 2552,
      "stAk": 2553,
      "sEz": 2554,
      "dZojn": 2555,
      "zu": 2556,
      "wEbs": 2557,
      "Iksplejnd": 2558,
      "Ism": 2559,
      "hEdkwOr": 2560,
      "sid": 2561,
      "nsIs": 2562,
      "IfEktIv": 2563,
      "vjuz": 2564,
      "Agr": 2565,
      "pIl": 2566,
      "owejS": 2567,
      "gowz": 2568,
      "kAzIN": 2569,
      "bAb": 2570,
      "tSIN": 2571,
      "##ajdz": 2572,
      "ih": 2573,
      "kowt": 2574,
      "dajvr": 2575,
      "nIs": 2576,
      "ejnfOl": 2577,
      "kjub": 2578,
      "mf": 2579,
      "hAp": 2580,
      "IkwIpm": 2581,
      "##nIk": 2582,
      "##Vlf": 2583,
      "SIr": 2584,
      "fajIN": 2585,
      "tEktSr": 2586,
      "ImowS": 2587,
      "tejlr": 2588,
      "gi": 2589,
      "stim": 2590,
      "dejndZr": 2591,
      "spAr": 2592,
      "nlajk": 2593,
      "gm": 2594,
      "tElz": 2595,
      "Iskejp": 2596,
      "##ojl": 2597,
      "##ItuS": 2598,
      "fejljr": 2599,
      "IksEpt": 2600,
      "skIl": 2601,
      "ejdz": 2602,
      "ski": 2603,
      "vOn": 2604,
      "##Ats": 2605,
      "splIt": 2606,
      "dZojnt": 2607,
      "vAr": 2608,
      "wInr": 2609,
      "ldwajd": 2610,
      "sEmbli": 2611,
      "IstOr": 2612,
      "##Edr": 2613,
      "sawTist": 2614,
      "bIliv": 2615,
      "hAli": 2616,
      "##Esr": 2617,
      "awndIN": 2618,
      "##ajk": 2619,
      "minwajl": 2620,
      "kAmIk": 2621,
      "lInd": 2622,
      "howmr": 2623,
      "bm": 2624,
      "livz": 2625,
      "fejz": 2626,
      "IndVstr": 2627,
      "nds": 2628,
      "fs": 2629,
      "ntIdZ": 2630,
      "tEkS": 2631,
      "kAnflIkt": 2632,
      "Ngr": 2633,
      "mun": 2634,
      "duIN": 2635,
      "##Amtr": 2636,
      "IksplOr": 2637,
      "ejndZd": 2638,
      "lajvz": 2639,
      "nAk": 2640,
      "AdZr": 2641,
      "pInj": 2642,
      "Sut": 2643,
      "dejbjud": 2644,
      "kIlAmtr": 2645,
      "nnown": 2646,
      "wOlz": 2647,
      "nzl": 2648,
      "gjud": 2649,
      "wIS": 2650,
      "uT": 2651,
      "Anz": 2652,
      "stejtm": 2653,
      "bEd": 2654,
      "nutr": 2655,
      "pAlIS": 2656,
      "klaw": 2657,
      "bIlj": 2658,
      "Emf": 2659,
      "sejv": 2660,
      "dIzajr": 2661,
      "twajs": 2662,
      "klejmz": 2663,
      "vjud": 2664,
      "dZejs": 2665,
      "bUS": 2666,
      "sEmi": 2667,
      "nEkS": 2668,
      "vajs": 2669,
      "vIn": 2670,
      "ImAr": 2671,
      "mowb": 2672,
      "wikli": 2673,
      "lVmbi": 2674,
      "##awts": 2675,
      "fejst": 2676,
      "pEl": 2677,
      "lIti": 2678,
      "mejntejnd": 2679,
      "sejS": 2680,
      "vejt": 2681,
      "kAnv": 2682,
      "spowk": 2683,
      "nAl": 2684,
      "##ejld": 2685,
      "Ampt": 2686,
      "mjuzIS": 2687,
      "stA": 2688,
      "dVlt": 2689,
      "kd": 2690,
      "fUli": 2691,
      "IdZEktId": 2692,
      "bVdZ": 2693,
      "down": 2694,
      "sowlow": 2695,
      "skAtIS": 2696,
      "##owlt": 2697,
      "twElv": 2698,
      "ItIsIz": 2699,
      "zown": 2700,
      "##low": 2701,
      "##spr": 2702,
      "owkl": 2703,
      "wIls": 2704,
      "iejtIN": 2705,
      "pil": 2706,
      "spEnd": 2707,
      "##is": 2708,
      "fAs": 2709,
      "##hUd": 2710,
      "inz": 2711,
      "nuli": 2712,
      "nEst": 2713,
      "lIsts": 2714,
      "nuklir": 2715,
      "Ikr": 2716,
      "ZAnr": 2717,
      "lAn": 2718,
      "iInfOr": 2719,
      "##ajow": 2720,
      "sImpli": 2721,
      "##jun": 2722,
      "fAlowz": 2723,
      "kIlIN": 2724,
      "loj": 2725,
      "ntejnd": 2726,
      "ksid": 2727,
      "juT": 2728,
      "##iv": 2729,
      "fIks": 2730,
      "flVd": 2731,
      "np": 2732,
      "luzIN": 2733,
      "gu": 2734,
      "##ajzr": 2735,
      "bjut": 2736,
      "siv": 2737,
      "TlIk": 2738,
      "##Vmb": 2739,
      "SUr": 2740,
      "gejn": 2741,
      "##er": 2742,
      "dElf": 2743,
      "flEkt": 2744,
      "OsIN": 2745,
      "Infl": 2746,
      "vAljum": 2747,
      "nsEkj": 2748,
      "iti": 2749,
      "tSEk": 2750,
      "wEbsajt": 2751,
      "umz": 2752,
      "stUd": 2753,
      "sVbst": 2754,
      "Ifr": 2755,
      "ww": 2756,
      "tSUr": 2757,
      "IlIz": 2758,
      "pjUr": 2759,
      "##kVm": 2760,
      "##Alf": 2761,
      "mEst": 2762,
      "##VNg": 2763,
      "gju": 2764,
      "pajd": 2765,
      "##ejnj": 2766,
      "Timz": 2767,
      "dIploj": 2768,
      "vIlj": 2769,
      "stur": 2770,
      "snow": 2771,
      "nejtIN": 2772,
      "fIlmd": 2773,
      "mowd": 2774,
      "ejndZm": 2775,
      "mpowzr": 2776,
      "kAmj": 2777,
      "lvejnj": 2778,
      "dw": 2779,
      "tn": 2780,
      "##kOr": 2781,
      "nIdZ": 2782,
      "##fti": 2783,
      "lowni": 2784,
      "##hEd": 2785,
      "sEgm": 2786,
      "ksi": 2787,
      "mIlr": 2788,
      "dIfEnsIv": 2789,
      "gAmplej": 2790,
      "Vt": 2791,
      "bAdiz": 2792,
      "dOg": 2793,
      "Vns": 2794,
      "dIstINgw": 2795,
      "dZIN": 2796,
      "spejn": 2797,
      "dIklajn": 2798,
      "vajv": 2799,
      "pejtr": 2800,
      "mVlti": 2801,
      "InstItuS": 2802,
      "zm": 2803,
      "dVl": 2804,
      "SAp": 2805,
      "howp": 2806,
      "Ur": 2807,
      "hAki": 2808,
      "kaw": 2809,
      "dAlr": 2810,
      "zIl": 2811,
      "SutIN": 2812,
      "jVNgr": 2813,
      "jow": 2814,
      "mejr": 2815,
      "wITdr": 2816,
      "##EntIN": 2817,
      "##Endow": 2818,
      "ntIfIk": 2819,
      "mown": 2820,
      "IksEpS": 2821,
      "IndZ": 2822,
      "kINz": 2823,
      "hit": 2824,
      "hVN": 2825,
      "hVl": 2826,
      "sVnd": 2827,
      "tawnz": 2828,
      "sInT": 2829,
      "skIn": 2830,
      "gowSi": 2831,
      "tSivd": 2832,
      "flawr": 2833,
      "IpitId": 2834,
      "ntEr": 2835,
      "fIli": 2836,
      "Inr": 2837,
      "sI": 2838,
      "wajz": 2839,
      "ajdr": 2840,
      "ojr": 2841,
      "skaj": 2842,
      "IlEv": 2843,
      "sud": 2844,
      "kAmpr": 2845,
      "ifli": 2846,
      "##mIn": 2847,
      "dIvajs": 2848,
      "##Atr": 2849,
      "mEg": 2850,
      "spIn": 2851,
      "hEdz": 2852,
      "hawshowld": 2853,
      "ntSajz": 2854,
      "its": 2855,
      "##ItId": 2856,
      "ajf": 2857,
      "fISr": 2858,
      "##Ali": 2859,
      "EnSUr": 2860,
      "tEknIk": 2861,
      "ApS": 2862,
      "dajm": 2863,
      "wOltr": 2864,
      "sks": 2865,
      "Invajt": 2866,
      "lEl": 2867,
      "mps": 2868,
      "flVdIN": 2869,
      "bojz": 2870,
      "kIk": 2871,
      "dIdn": 2872,
      "junik": 2873,
      "kVlt": 2874,
      "Onlajn": 2875,
      "stEp": 2876,
      "##pS": 2877,
      "dElfi": 2878,
      "##wi": 2879,
      "##Ets": 2880,
      "nAts": 2881,
      "Eksr": 2882,
      "hajd": 2883,
      "nsm": 2884,
      "stejnd": 2885,
      "dIsr": 2886,
      "kON": 2887,
      "##wAr": 2888,
      "sejfti": 2889,
      "bId": 2890,
      "fOt": 2891,
      "mAnj": 2892,
      "pgr": 2893,
      "dIkt": 2894,
      "##Emb": 2895,
      "sININ": 2896,
      "hejl": 2897,
      "swit": 2898,
      "dEns": 2899,
      "Ngl": 2900,
      "iwej": 2901,
      "ID": 2902,
      "owhajow": 2903,
      "gIvz": 2904,
      "gdZEsts": 2905,
      "SE": 2906,
      "##Apr": 2907,
      "dZud": 2908,
      "tejt": 2909,
      "fEsr": 2910,
      "ntejn": 2911,
      "dmIt": 2912,
      "kjuS": 2913,
      "St": 2914,
      "luz": 2915,
      "kejmbr": 2916,
      "skEdZUld": 2917,
      "##stin": 2918,
      "##Anow": 2919,
      "##VS": 2920,
      "bst": 2921,
      "ejzIN": 2922,
      "fajndz": 2923,
      "Istejt": 2924,
      "lfr": 2925,
      "##pow": 2926,
      "ejdr": 2927,
      "sElz": 2928,
      "bAmr": 2929,
      "wItn": 2930,
      "kApi": 2931,
      "##ANke": 2932,
      "Enl": 2933,
      "IbjutId": 2934,
      "EslIN": 2935,
      "pidow": 2936,
      "ntejnIN": 2937,
      "lOntS": 2938,
      "ulz": 2939,
      "sVbmr": 2940,
      "bIlON": 2941,
      "EskOr": 2942,
      "mejlz": 2943,
      "njuZ": 2944,
      "kwajt": 2945,
      "bowts": 2946,
      "##fs": 2947,
      "dEkr": 2948,
      "dZIn": 2949,
      "nInt": 2950,
      "wAn": 2951,
      "tVtSdawn": 2952,
      "nIntEndow": 2953,
      "bIr": 2954,
      "Vnk": 2955,
      "ivnIN": 2956,
      "sawTwEst": 2957,
      "kOlz": 2958,
      "hIts": 2959,
      "nIks": 2960,
      "IgzIstIN": 2961,
      "dIpEnd": 2962,
      "IkstEnS": 2963,
      "##hAr": 2964,
      "bEldZ": 2965,
      "paw": 2966,
      "vajdz": 2967,
      "ENT": 2968,
      "stE": 2969,
      "kAnvr": 2970,
      "pVblIS": 2971,
      "fIN": 2972,
      "spAnd": 2973,
      "ejkIN": 2974,
      "vEl": 2975,
      "NkIN": 2976,
      "lOz": 2977,
      "howldIN": 2978,
      "sivIN": 2979,
      "dZuIS": 2980,
      "wIndowz": 2981,
      "mjut": 2982,
      "fli": 2983,
      "nsIskow": 2984,
      "tbOl": 2985,
      "fildz": 2986,
      "gVlf": 2987,
      "gnejS": 2988,
      "ejtT": 2989,
      "owpr": 2990,
      "EdIts": 2991,
      "##gi": 2992,
      "tAgr": 2993,
      "Az": 2994,
      "kf": 2995,
      "lejbr": 2996,
      "lejtId": 2997,
      "isOr": 2998,
      "dZEfr": 2999,
      "gOn": 3000,
      "kUk": 3001,
      "lowd": 3002,
      "plejstejS": 3003,
      "pAm": 3004,
      "klowsli": 3005,
      "##AS": 3006,
      "sidi": 3007,
      "sIdni": 3008,
      "dIzni": 3009,
      "stejb": 3010,
      "hmz": 3011,
      "VpS": 3012,
      "wejk": 3013,
      "ejsIN": 3014,
      "##ajnz": 3015,
      "iTIN": 3016,
      "nsIsts": 3017,
      "##Ipr": 3018,
      "bAl": 3019,
      "fOlz": 3020,
      "ntV": 3021,
      "Vfli": 3022,
      "gj": 3023,
      "dIfajnd": 3024,
      "##Idi": 3025,
      "gEtIN": 3026,
      "mIni": 3027,
      "owlImpIk": 3028,
      "kAlr": 3029,
      "Ets": 3030,
      "EniTIN": 3031,
      "bVs": 3032,
      "wejtIN": 3033,
      "bItr": 3034,
      "lAm": 3035,
      "vVl": 3036,
      "plajz": 3037,
      "##Anz": 3038,
      "vajdIN": 3039,
      "mpt": 3040,
      "ptejS": 3041,
      "fejT": 3042,
      "Edr": 3043,
      "town": 3044,
      "pojntm": 3045,
      "wVndr": 3046,
      "EngejdZd": 3047,
      "##vjr": 3048,
      "hInd": 3049,
      "ntIs": 3050,
      "lidz": 3051,
      "Ezr": 3052,
      "##sEt": 3053,
      "howli": 3054,
      "Epj": 3055,
      "ejg": 3056,
      "idIN": 3057,
      "##AtIk": 3058,
      "hajlajt": 3059,
      "hAliwUd": 3060,
      "dEt": 3061,
      "bOlt": 3062,
      "##ejkr": 3063,
      "Ivaj": 3064,
      "ntajn": 3065,
      "Sejp": 3066,
      "iplejs": 3067,
      "zIr": 3068,
      "EgzIst": 3069,
      "mawT": 3070,
      "sVl": 3071,
      "wAtSt": 3072,
      "mIsIN": 3073,
      "lawz": 3074,
      "bEt": 3075,
      "pejntIN": 3076,
      "mAnstr": 3077,
      "sIgnIfIk": 3078,
      "sVnz": 3079,
      "nIns": 3080,
      "kAli": 3081,
      "AdZEkts": 3082,
      "lus": 3083,
      "mEstIk": 3084,
      "pAk": 3085,
      "spAn": 3086,
      "Aps": 3087,
      "mVzl": 3088,
      "nfEdr": 3089,
      "IntIr": 3090,
      "plejOf": 3091,
      "sejf": 3092,
      "kIt": 3093,
      "mEk": 3094,
      "ilajn": 3095,
      "dvajzr": 3096,
      "duti": 3097,
      "gejts": 3098,
      "vAlk": 3099,
      "hAst": 3100,
      "##Ost": 3101,
      "tajf": 3102,
      "majgr": 3103,
      "InkVm": 3104,
      "Sejpt": 3105,
      "dEs": 3106,
      "##Akr": 3107,
      "##owv": 3108,
      "bejANke": 3109,
      "kjUr": 3110,
      "iEnt": 3111,
      "tOl": 3112,
      "Vl": 3113,
      "EsIN": 3114,
      "ImEmbr": 3115,
      "inejmd": 3116,
      "swIm": 3117,
      "klr": 3118,
      "Eskju": 3119,
      "bejbi": 3120,
      "##bawnd": 3121,
      "fimejlz": 3122,
      "spEktIv": 3123,
      "Emplojd": 3124,
      "uvm": 3125,
      "ININ": 3126,
      "owtSt": 3127,
      "dEmIk": 3128,
      "isINli": 3129,
      "vin": 3130,
      "baw": 3131,
      "lejr": 3132,
      "##Ipi": 3133,
      "hEm": 3134,
      "Ilif": 3135,
      "ntVki": 3136,
      "wIDdr": 3137,
      "niDr": 3138,
      "fajndIN": 3139,
      "EdZIstr": 3140,
      "dIklajnd": 3141,
      "pu": 3142,
      "kawnts": 3143,
      "dItejlz": 3144,
      "dEpT": 3145,
      "tEsts": 3146,
      "EndZojd": 3147,
      "##Ivz": 3148,
      "kEnt": 3149,
      "nun": 3150,
      "dIskVs": 3151,
      "blISm": 3152,
      "tSus": 3153,
      "owlImpIks": 3154,
      "hAm": 3155,
      "simz": 3156,
      "klowD": 3157,
      "##jAr": 3158,
      "un": 3159,
      "titSr": 3160,
      "SVt": 3161,
      "gd": 3162,
      "hO": 3163,
      "gIr": 3164,
      "num": 3165,
      "fejt": 3166,
      "ajvz": 3167,
      "dIkr": 3168,
      "dEkejd": 3169,
      "Abzr": 3170,
      "Entajt": 3171,
      "owsi": 3172,
      "##tawn": 3173,
      "dIzajnz": 3174,
      "spEktr": 3175,
      "pd": 3176,
      "IspAndId": 3177,
      "towni": 3178,
      "ksEsr": 3179,
      "pk": 3180,
      "mIz": 3181,
      "owtEst": 3182,
      "hIlz": 3183,
      "awtl": 3184,
      "IgzIb": 3185,
      "##ElIN": 3186,
      "dIpl": 3187,
      "##Akt": 3188,
      "kAntEst": 3189,
      "dZuli": 3190,
      "sIfIkli": 3191,
      "nIt": 3192,
      "nowz": 3193,
      "mjunIs": 3194,
      "vajr": 3195,
      "Igr": 3196,
      "mVdr": 3197,
      "wUlf": 3198,
      "SowIN": 3199,
      "bawndr": 3200,
      "spEkj": 3201,
      "sEnd": 3202,
      "ejndZr": 3203,
      "dawnt": 3204,
      "Ign": 3205,
      "nmEnt": 3206,
      "pVNk": 3207,
      "wINz": 3208,
      "tIst": 3209,
      "bIhejvjr": 3210,
      "fu": 3211,
      "hVNgr": 3212,
      "ibIl": 3213,
      "bVl": 3214,
      "ajbIN": 3215,
      "tSejs": 3216,
      "Ens": 3217,
      "dowm": 3218,
      "ng": 3219,
      "nsiz": 3220,
      "fjuz": 3221,
      "skAr": 3222,
      "jur": 3223,
      "dEst": 3224,
      "IzEntIN": 3225,
      "Enejb": 3226,
      "IsEnS": 3227,
      "uld": 3228,
      "sawndz": 3229,
      "tSuz": 3230,
      "towk": 3231,
      "##IndZ": 3232,
      "sidZ": 3233,
      "wajn": 3234,
      "SAk": 3235,
      "##dId": 3236,
      "##Vli": 3237,
      "Itejnd": 3238,
      "pajr": 3239,
      "mtv": 3240,
      "fIld": 3241,
      "supIr": 3242,
      "ejvi": 3243,
      "##wEstr": 3244,
      "ndId": 3245,
      "kwIk": 3246,
      "dIspjut": 3247,
      "##tiz": 3248,
      "kIm": 3249,
      "ejdIN": 3250,
      "IspEkt": 3251,
      "ndfOl": 3252,
      "fawndr": 3253,
      "jug": 3254,
      "bejsIk": 3255,
      "##hi": 3256,
      "tsm": 3257,
      "spikIN": 3258,
      "mAt": 3259,
      "Emb": 3260,
      "mejntejn": 3261,
      "kliv": 3262,
      "dIpIkt": 3263,
      "IkOr": 3264,
      "Inspr": 3265,
      "IkwIv": 3266,
      "imli": 3267,
      "tajfun": 3268,
      "IksklusIv": 3269,
      "tOk": 3270,
      "mAs": 3271,
      "ejsi": 3272,
      "dawntawn": 3273,
      "nIti": 3274,
      "stApt": 3275,
      "Eli": 3276,
      "##bn": 3277,
      "##INli": 3278,
      "InsEs": 3279,
      "bluz": 3280,
      "pEt": 3281,
      "dejtId": 3282,
      "##fajr": 3283,
      "##umd": 3284,
      "Uk": 3285,
      "swej": 3286,
      "dETs": 3287,
      "bVnd": 3288,
      "dIzajnr": 3289,
      "ejtINz": 3290,
      "pju": 3291,
      "fajl": 3292,
      "##Isk": 3293,
      "gli": 3294,
      "siIN": 3295,
      "SIft": 3296,
      "##owzIN": 3297,
      "ejtIv": 3298,
      "##bAks": 3299,
      "mpown": 3300,
      "mpEt": 3301,
      "owdi": 3302,
      "EmIks": 3303,
      "gnIS": 3304,
      "##Ikts": 3305,
      "mowz": 3306,
      "vajvd": 3307,
      "dZVNkS": 3308,
      "luiz": 3309,
      "mawnts": 3310,
      "##nts": 3311,
      "sONr": 3312,
      "swItS": 3313,
      "wOk": 3314,
      "nkl": 3315,
      "##lin": 3316,
      "mits": 3317,
      "sVmwVn": 3318,
      "stVdid": 3319,
      "sEs": 3320,
      "##plr": 3321,
      "stajlz": 3322,
      "vajvr": 3323,
      "lup": 3324,
      "IdIkt": 3325,
      "dn": 3326,
      "dZejk": 3327,
      "TVndr": 3328,
      "kIs": 3329,
      "stajn": 3330,
      "Eldr": 3331,
      "IkOld": 3332,
      "IzEmb": 3333,
      "mItS": 3334,
      "vEtr": 3335,
      "hawr": 3336,
      "filIN": 3337,
      "SU": 3338,
      "nUr": 3339,
      "hVntIN": 3340,
      "bdZEktIv": 3341,
      "AbdZEkts": 3342,
      "dZEf": 3343,
      "##Vg": 3344,
      "kwAnt": 3345,
      "Ast": 3346,
      "fIft": 3347,
      "IdZd": 3348,
      "fVndz": 3349,
      "wVnz": 3350,
      "slejt": 3351,
      "dIsEnd": 3352,
      "tIstIk": 3353,
      "nowtIN": 3354,
      "IkwIpt": 3355,
      "izi": 3356,
      "mIdiv": 3357,
      "##EvIn": 3358,
      "##Elj": 3359,
      "NgEr": 3360,
      "dEkejdz": 3361,
      "spAnsr": 3362,
      "Imej": 3363,
      "nsIstIN": 3364,
      "Imejndr": 3365,
      "vEntS": 3366,
      "bAs": 3367,
      "InstOld": 3368,
      "najts": 3369,
      "diz": 3370,
      "##spi": 3371,
      "##wAn": 3372,
      "bAk": 3373,
      "nspr": 3374,
      "nEtIk": 3375,
      "pin": 3376,
      "wajr": 3377,
      "imz": 3378,
      "Vtk": 3379,
      "lEgz": 3380,
      "dIfi": 3381,
      "lejbawr": 3382,
      "lidZ": 3383,
      "dutiz": 3384,
      "majr": 3385,
      "bElt": 3386,
      "ntInjuIN": 3387,
      "sVd": 3388,
      "kOst": 3389,
      "nfju": 3390,
      "##aEn": 3391,
      "Sild": 3392,
      "kEli": 3393,
      "##Ut": 3394,
      "wajdspr": 3395,
      "##mOr": 3396,
      "Embr": 3397,
      "##tow": 3398,
      "skVlp": 3399,
      "lAdZ": 3400,
      "kAsts": 3401,
      "nbA": 3402,
      "spEkts": 3403,
      "stEm": 3404,
      "hVntr": 3405,
      "lUkt": 3406,
      "powp": 3407,
      "nsfOr": 3408,
      "dZejn": 3409,
      "slowli": 3410,
      "fow": 3411,
      "##stS": 3412,
      "nzIS": 3413,
      "Indowni": 3414,
      "nkluZ": 3415,
      "tajgr": 3416,
      "Ilaj": 3417,
      "ONli": 3418,
      "smowk": 3419,
      "iejtIv": 3420,
      "nEDr": 3421,
      "sVndej": 3422,
      "sd": 3423,
      "##tajm": 3424,
      "##Af": 3425,
      "nIm": 3426,
      "IntEntS": 3427,
      "skawt": 3428,
      "widZ": 3429,
      "IkstIN": 3430,
      "powstId": 3431,
      "Iksplow": 3432,
      "skVli": 3433,
      "EZr": 3434,
      "nTr": 3435,
      "awtbr": 3436,
      "sajkl": 3437,
      "dik": 3438,
      "kjum": 3439,
      "mpliS": 3440,
      "Ipl": 3441,
      "Adow": 3442,
      "##Elm": 3443,
      "fIkst": 3444,
      "knAl": 3445,
      "##Ivi": 3446,
      "ldz": 3447,
      "iejtr": 3448,
      "dajr": 3449,
      "juzr": 3450,
      "klawd": 3451,
      "Emi": 3452,
      "##dej": 3453,
      "##Inst": 3454,
      "tajl": 3455,
      "stejd": 3456,
      "nsEstr": 3457,
      "SAts": 3458,
      "tAk": 3459,
      "vIdi": 3460,
      "wEltS": 3461,
      "tSEs": 3462,
      "InvAlvIN": 3463,
      "hItlr": 3464,
      "klivl": 3465,
      "tSm": 3466,
      "mjul": 3467,
      "knAlIdZ": 3468,
      "tSejn": 3469,
      "lkj": 3470,
      "kejtIN": 3471,
      "Edm": 3472,
      "zES": 3473,
      "dejtIN": 3474,
      "btejnd": 3475,
      "dZIst": 3476,
      "mAnAr": 3477,
      "najnT": 3478,
      "kjuzd": 3479,
      "Etr": 3480,
      "fInISIN": 3481,
      "pV": 3482,
      "bmIt": 3483,
      "pUl": 3484,
      "lajnm": 3485,
      "lIT": 3486,
      "InISi": 3487,
      "##pA": 3488,
      "dAks": 3489,
      "fIftin": 3490,
      "nEnt": 3491,
      "Inl": 3492,
      "Iplejsm": 3493,
      "skim": 3494,
      "awtst": 3495,
      "dVgl": 3496,
      "howstId": 3497,
      "sajr": 3498,
      "sumd": 3499,
      "nAd": 3500,
      "muvz": 3501,
      "bAn": 3502,
      "hAn": 3503,
      "dEpj": 3504,
      "IndowniZ": 3505,
      "fEns": 3506,
      "wejst": 3507,
      "Ekspr": 3508,
      "dInajd": 3509,
      "lejtIN": 3510,
      "vIns": 3511,
      "sejld": 3512,
      "dk": 3513,
      "##stIk": 3514,
      "IstIks": 3515,
      "Egn": 3516,
      "Efju": 3517,
      "skowp": 3518,
      "ajst": 3519,
      "gEts": 3520,
      "wikEnd": 3521,
      "ndow": 3522,
      "klVbz": 3523,
      "iOr": 3524,
      "ji": 3525,
      "InsIst": 3526,
      "kEvIn": 3527,
      "bud": 3528,
      "plejt": 3529,
      "kIS": 3530,
      "fIts": 3531,
      "mini": 3532,
      "OIN": 3533,
      "hVnt": 3534,
      "##lowd": 3535,
      "itIN": 3536,
      "bIgVn": 3537,
      "Tidr": 3538,
      "##Ibr": 3539,
      "bajp": 3540,
      "vajt": 3541,
      "dEzr": 3542,
      "nINz": 3543,
      "bAmbAr": 3544,
      "IbElj": 3545,
      "bawnd": 3546,
      "Isbn": 3547,
      "bjUr": 3548,
      "vajvIN": 3549,
      "##lajt": 3550,
      "##Ami": 3551,
      "pIts": 3552,
      "iwVn": 3553,
      "pejs": 3554,
      "dZEnt": 3555,
      "pIkt": 3556,
      "mInt": 3557,
      "lONg": 3558,
      "itSr": 3559,
      "skwAd": 3560,
      "##EtS": 3561,
      "itajr": 3562,
      "nwEl": 3563,
      "tSivm": 3564,
      "TIn": 3565,
      "sowlr": 3566,
      "Adiow": 3567,
      "wEt": 3568,
      "sEsr": 3569,
      "AZ": 3570,
      "fVndIN": 3571,
      "TEr": 3572,
      "mst": 3573,
      "##ItIv": 3574,
      "lp": 3575,
      "pINk": 3576,
      "nEls": 3577,
      "pEtr": 3578,
      "fid": 3579,
      "ktId": 3580,
      "##gAr": 3581,
      "##Aptr": 3582,
      "kb": 3583,
      "spEr": 3584,
      "IfEktIvli": 3585,
      "tSIk": 3586,
      "kejtId": 3587,
      "kowOr": 3588,
      "kVnd": 3589,
      "twIn": 3590,
      "mEndm": 3591,
      "##Ekst": 3592,
      "ms": 3593,
      "lajIN": 3594,
      "dVlts": 3595,
      "EgzIt": 3596,
      "dImEnS": 3597,
      "##gn": 3598,
      "dIsOr": 3599,
      "dAl": 3600,
      "tawnSIp": 3601,
      "ejp": 3602,
      "##VltSr": 3603,
      "OsIz": 3604,
      "Idi": 3605,
      "Asp": 3606,
      "fOlIN": 3607,
      "mEntejS": 3608,
      "nvInst": 3609,
      "nidz": 3610,
      "klIn": 3611,
      "tEstIN": 3612,
      "kAnsow": 3613,
      "dIskVS": 3614,
      "Oz": 3615,
      "kin": 3616,
      "dejS": 3617,
      "vowts": 3618,
      "pajn": 3619,
      "sEktr": 3620,
      "EtS": 3621,
      "##ajzIN": 3622,
      "ktli": 3623,
      "##ISm": 3624,
      "##sIN": 3625,
      "##Od": 3626,
      "##Iksp": 3627,
      "dZojnIN": 3628,
      "Antow": 3629,
      "mejs": 3630,
      "nIzejS": 3631,
      "Ips": 3632,
      "lSIps": 3633,
      "tIkli": 3634,
      "pVblISr": 3635,
      "ngr": 3636,
      "sImf": 3637,
      "sOft": 3638,
      "##owsl": 3639,
      "kAnS": 3640,
      "dIlejd": 3641,
      "dIstINgwISt": 3642,
      "##kAr": 3643,
      "lEks": 3644,
      "sik": 3645,
      "dejn": 3646,
      "dINz": 3647,
      "##ItSr": 3648,
      "simd": 3649,
      "Emn": 3650,
      "sIlIti": 3651,
      "dawnlowd": 3652,
      "lIft": 3653,
      "klejmIN": 3654,
      "##wOtr": 3655,
      "dZVm": 3656,
      "tajz": 3657,
      "towl": 3658,
      "howpt": 3659,
      "tSajldhUd": 3660,
      "IkwEstId": 3661,
      "klInt": 3662,
      "gAg": 3663,
      "kojn": 3664,
      "kIst": 3665,
      "dZEt": 3666,
      "##vow": 3667,
      "blow": 3668,
      "ElswEr": 3669,
      "##uzi": 3670,
      "Twr": 3671,
      "ejtli": 3672,
      "ojt": 3673,
      "spajdr": 3674,
      "pVblISIN": 3675,
      "dZuz": 3676,
      "Ikwajr": 3677,
      "powli": 3678,
      "lIstIk": 3679,
      "mIT": 3680,
      "kupr": 3681,
      "nvEkS": 3682,
      "InvAlvm": 3683,
      "ikow": 3684,
      "nvIns": 3685,
      "kwej": 3686,
      "tEmptIN": 3687,
      "SEd": 3688,
      "Insr": 3689,
      "tSEl": 3690,
      "tIn": 3691,
      "EndZoj": 3692,
      "tum": 3693,
      "owfi": 3694,
      "ulr": 3695,
      "EniwVn": 3696,
      "tEkniks": 3697,
      "dawt": 3698,
      "fEm": 3699,
      "vEdZ": 3700,
      "sVmw": 3701,
      "bzOr": 3702,
      "ejdAr": 3703,
      "sVmwVt": 3704,
      "slejS": 3705,
      "pwEr": 3706,
      "gejl": 3707,
      "nIkn": 3708,
      "tAmps": 3709,
      "dIsmIst": 3710,
      "tir": 3711,
      "##wejt": 3712,
      "fajlz": 3713,
      "vejtId": 3714,
      "##lj": 3715,
      "fejsIN": 3716,
      "lif": 3717,
      "sajnz": 3718,
      "miti": 3719,
      "kAnvoj": 3720,
      "tImbr": 3721,
      "gnajz": 3722,
      "fjunr": 3723,
      "owlr": 3724,
      "Adr": 3725,
      "fin": 3726,
      "ejks": 3727,
      "mejtr": 3728,
      "IkS": 3729,
      "tSiv": 3730,
      "EnfOr": 3731,
      "howldz": 3732,
      "EngejdZm": 3733,
      "Egr": 3734,
      "##Ifr": 3735,
      "##IpS": 3736,
      "klowsr": 3737,
      "IdZIz": 3738,
      "mVNk": 3739,
      "suz": 3740,
      "kowp": 3741,
      "Eksk": 3742,
      "hId": 3743,
      "kAmIks": 3744,
      "wEdIN": 3745,
      "##Igr": 3746,
      "kAnr": 3747,
      "hjudZ": 3748,
      "kst": 3749,
      "dimd": 3750,
      "smu": 3751,
      "mInIs": 3752,
      "glEn": 3753,
      "nwElT": 3754,
      "sajtIN": 3755,
      "ndskej": 3756,
      "wInz": 3757,
      "Vmz": 3758,
      "##Amb": 3759,
      "spikr": 3760,
      "wElz": 3761,
      "##Aw": 3762,
      "kejb": 3763,
      "lajts": 3764,
      "ilowk": 3765,
      "dIplojd": 3766,
      "Enh": 3767,
      "majz": 3768,
      "fISIN": 3769,
      "ilajzd": 3770,
      "wejl": 3771,
      "IksplowZ": 3772,
      "pVl": 3773,
      "mejnstr": 3774,
      "dnA": 3775,
      "##EN": 3776,
      "ejmd": 3777,
      "##pUt": 3778,
      "iSi": 3779,
      "spik": 3780,
      "##Ibi": 3781,
      "owli": 3782,
      "IlisIz": 3783,
      "pAtr": 3784,
      "InfluEntS": 3785,
      "kojnz": 3786,
      "##uv": 3787,
      "idz": 3788,
      "ItejS": 3789,
      "##Ipt": 3790,
      "tAks": 3791,
      "hawzIN": 3792,
      "bIlivz": 3793,
      "nils": 3794,
      "##inow": 3795,
      "kejd": 3796,
      "##lAm": 3797,
      "##INk": 3798,
      "dElt": 3799,
      "pojz": 3800,
      "Ibju": 3801,
      "klIf": 3802,
      "##uk": 3803,
      "dim": 3804,
      "##ajnIN": 3805,
      "plejnz": 3806,
      "vIdiowz": 3807,
      "lOjr": 3808,
      "glOr": 3809,
      "wAtSIN": 3810,
      "hjust": 3811,
      "lIzejS": 3812,
      "sown": 3813,
      "faw": 3814,
      "iun": 3815,
      "InT": 3816,
      "Iksi": 3817,
      "swidIS": 3818,
      "ksES": 3819,
      "hEndr": 3820,
      "ub": 3821,
      "##vic": 3822,
      "mstr": 3823,
      "zow": 3824,
      "Endli": 3825,
      "skIlz": 3826,
      "ikAn": 3827,
      "AbdZEkt": 3828,
      "##sti": 3829,
      "SOn": 3830,
      "sum": 3831,
      "ltejni": 3832,
      "##sn": 3833,
      "##Vnd": 3834,
      "dZEs": 3835,
      "ntIsts": 3836,
      "ejmi": 3837,
      "hejz": 3838,
      "tOt": 3839,
      "nbk": 3840,
      "klin": 3841,
      "gVst": 3842,
      "##wA": 3843,
      "jugowsl": 3844,
      "AtS": 3845,
      "bVtr": 3846,
      "dItejl": 3847,
      "IdZIN": 3848,
      "fUtIdZ": 3849,
      "Emplojiz": 3850,
      "tiT": 3851,
      "ntAl": 3852,
      "Olm": 3853,
      "dZInz": 3854,
      "kwowt": 3855,
      "gejtr": 3856,
      "tAd": 3857,
      "gowSiejS": 3858,
      "Iksajt": 3859,
      "Ilu": 3860,
      "ndf": 3861,
      "sIkstin": 3862,
      "Ekw": 3863,
      "##ojn": 3864,
      "klAk": 3865,
      "dIskVst": 3866,
      "wIndow": 3867,
      "lajm": 3868,
      "najnt": 3869,
      "ajmz": 3870,
      "sImpt": 3871,
      "Ikspowzd": 3872,
      "IdZIpS": 3873,
      "lId": 3874,
      "mVs": 3875,
      "fOls": 3876,
      "mElbr": 3877,
      "sOl": 3878,
      "hElIk": 3879,
      "tEnT": 3880,
      "##owZr": 3881,
      "owg": 3882,
      "spEndIN": 3883,
      "bVk": 3884,
      "tVf": 3885,
      "nskr": 3886,
      "vejk": 3887,
      "tidZIk": 3888,
      "lgEr": 3889,
      "dItejld": 3890,
      "Izajnd": 3891,
      "wOkr": 3892,
      "hjumr": 3893,
      "EnlIst": 3894,
      "zbAks": 3895,
      "klej": 3896,
      "ImpAs": 3897,
      "gUdz": 3898,
      "ejdZId": 3899,
      "fiz": 3900,
      "nOt": 3901,
      "##juzIk": 3902,
      "##mejts": 3903,
      "sIsts": 3904,
      "kipIN": 3905,
      "Ivilz": 3906,
      "##ds": 3907,
      "bOld": 3908,
      "dIzr": 3909,
      "lINkt": 3910,
      "kdAn": 3911,
      "lkr": 3912,
      "bAz": 3913,
      "tEknik": 3914,
      "IvEntId": 3915,
      "lgr": 3916,
      "pUSt": 3917,
      "smuD": 3918,
      "nowm": 3919,
      "spaj": 3920,
      "mbi": 3921,
      "piEm": 3922,
      "ptIv": 3923,
      "InhEr": 3924,
      "Ivajv": 3925,
      "SEltr": 3926,
      "tejlz": 3927,
      "InvEstm": 3928,
      "kowApr": 3929,
      "wil": 3930,
      "##dowz": 3931,
      "Sajr": 3932,
      "##IdZIN": 3933,
      "IfIS": 3934,
      "hEns": 3935,
      "tSejndZIN": 3936,
      "kAnd": 3937,
      "sidZr": 3938,
      "Tju": 3939,
      "mn": 3940,
      "wejn": 3941,
      "swejd": 3942,
      "stEf": 3943,
      "bIlif": 3944,
      "IkstEnt": 3945,
      "##Aps": 3946,
      "glejS": 3947,
      "sEnsr": 3948,
      "mOl": 3949,
      "kVz": 3950,
      "Inskr": 3951,
      "gAn": 3952,
      "zUr": 3953,
      "sikIN": 3954,
      "ajp": 3955,
      "umr": 3956,
      "skVlptSr": 3957,
      "Env": 3958,
      "skIN": 3959,
      "bVf": 3960,
      "fIfti": 3961,
      "gIlbr": 3962,
      "sIb": 3963,
      "lejZ": 3964,
      "wejvz": 3965,
      "##Igm": 3966,
      "kwaj": 3967,
      "Ibi": 3968,
      "dZAni": 3969,
      "Ans": 3970,
      "sits": 3971,
      "dVsn": 3972,
      "najs": 3973,
      "##ub": 3974,
      "bojlr": 3975,
      "skEr": 3976,
      "dIfEndr": 3977,
      "powzIN": 3978,
      "nzlejS": 3979,
      "IT": 3980,
      "pawndz": 3981,
      "sAnIk": 3982,
      "kVmfr": 3983,
      "##sts": 3984,
      "awtf": 3985,
      "##ejks": 3986,
      "Sowldr": 3987,
      "gIb": 3988,
      "##Avi": 3989,
      "pEnd": 3990,
      "##dZd": 3991,
      "plVs": 3992,
      "swIft": 3993,
      "Ilig": 3994,
      "##EktIN": 3995,
      "hejt": 3996,
      "twr": 3997,
      "Enz": 3998,
      "dIvOr": 3999,
      "pVt": 4000,
      "dIspr": 4001,
      "kowk": 4002,
      "bowlIN": 4003,
      "owmejni": 4004,
      "##ejgow": 4005,
      "skEdZUl": 4006,
      "slejtSr": 4007,
      "bowld": 4008,
      "##IktIN": 4009,
      "kAmr": 4010,
      "Nglow": 4011,
      "dvajs": 4012,
      "##wOl": 4013,
      "IstIk": 4014,
      "nIst": 4015,
      "tejnd": 4016,
      "Ingr": 4017,
      "ejdId": 4018,
      "juEs": 4019,
      "SUgr": 4020,
      "mAk": 4021,
      "sajnIN": 4022,
      "kAmEnts": 4023,
      "ljuz": 4024,
      "tAmIk": 4025,
      "InfEkS": 4026,
      "##Vmr": 4027,
      "##wIk": 4028,
      "sojl": 4029,
      "mpit": 4030,
      "wejtId": 4031,
      "sEpS": 4032,
      "nAtsi": 4033,
      "ejndZIN": 4034,
      "ItIsajzd": 4035,
      "hElIkAptr": 4036,
      "Sejks": 4037,
      "kown": 4038,
      "dl": 4039,
      "IsIp": 4040,
      "flowt": 4041,
      "kIlr": 4042,
      "stejn": 4043,
      "juEsej": 4044,
      "kp": 4045,
      "imuv": 4046,
      "##Vnt": 4047,
      "mIsIs": 4048,
      "najm": 4049,
      "pItSt": 4050,
      "kjumj": 4051,
      "dusIz": 4052,
      "Ikli": 4053,
      "tni": 4054,
      "##Andr": 4055,
      "Emr": 4056,
      "dZImi": 4057,
      "lEbr": 4058,
      "IfOr": 4059,
      "##AdZIk": 4060,
      "titSIN": 4061,
      "wIlst": 4062,
      "Eksploj": 4063,
      "Indid": 4064,
      "hejlow": 4065,
      "hON": 4066,
      "stowl": 4067,
      "lajnd": 4068,
      "tAl": 4069,
      "majnOr": 4070,
      "IgnOr": 4071,
      "pejntINz": 4072,
      "klEm": 4073,
      "TlEtIk": 4074,
      "EfjudZ": 4075,
      "lEktSr": 4076,
      "lEm": 4077,
      "flEm": 4078,
      "dZown": 4079,
      "sAf": 4080,
      "mbIS": 4081,
      "kjuz": 4082,
      "nIl": 4083,
      "bim": 4084,
      "dIpEndIN": 4085,
      "##bIS": 4086,
      "lEni": 4087,
      "Ilj": 4088,
      "##now": 4089,
      "##vir": 4090,
      "sItSuejtId": 4091,
      "isi": 4092,
      "bEndZ": 4093,
      "fk": 4094,
      "fts": 4095,
      "ntEst": 4096,
      "dIsplejd": 4097,
      "lIstIN": 4098,
      "mAnIk": 4099,
      "##kVmIN": 4100,
      "dwOr": 4101,
      "lVvr": 4102,
      "limr": 4103,
      "Enk": 4104,
      "##pir": 4105,
      "##Entr": 4106,
      "tElIN": 4107,
      "sOftwEr": 4108,
      "plejOfs": 4109,
      "zAr": 4110,
      "klowzIN": 4111,
      "lEktr": 4112,
      "kANk": 4113,
      "hajbr": 4114,
      "slejtIv": 4115,
      "##wIn": 4116,
      "diejgow": 4117,
      "##ADr": 4118,
      "pst": 4119,
      "Astr": 4120,
      "mVNst": 4121,
      "kiz": 4122,
      "pejtIN": 4123,
      "hElpIN": 4124,
      "vElt": 4125,
      "gejtId": 4126,
      "kejts": 4127,
      "##owks": 4128,
      "Vgbi": 4129,
      "SIz": 4130,
      "itejl": 4131,
      "TAl": 4132,
      "dVkt": 4133,
      "bejkr": 4134,
      "mAm": 4135,
      "wElk": 4136,
      "kAk": 4137,
      "majnIN": 4138,
      "sInd": 4139,
      "tE": 4140,
      "wEstwr": 4141,
      "wajdr": 4142,
      "NklIn": 4143,
      "pit": 4144,
      "viEtnAmis": 4145,
      "##il": 4146,
      "lIf": 4147,
      "Iln": 4148,
      "nIg": 4149,
      "sig": 4150,
      "blajnd": 4151,
      "mInIsowt": 4152,
      "OT": 4153,
      "vojst": 4154,
      "kAntEkst": 4155,
      "wAts": 4156,
      "pVblIkli": 4157,
      "lIkw": 4158,
      "##hIr": 4159,
      "##Eni": 4160,
      "##liz": 4161,
      "kAnsowl": 4162,
      "##Ont": 4163,
      "##unz": 4164,
      "dIfitIN": 4165,
      "flajts": 4166,
      "hEdIN": 4167,
      "Tli": 4168,
      "ajks": 4169,
      "mIljr": 4170,
      "titS": 4171,
      "dVz": 4172,
      "bjus": 4173,
      "hajwejz": 4174,
      "EmbAr": 4175,
      "vIS": 4176,
      "wUdz": 4177,
      "##wItS": 4178,
      "TINkIN": 4179,
      "Ani": 4180,
      "lItIk": 4181,
      "Izumd": 4182,
      "Ift": 4183,
      "mpitId": 4184,
      "bIlivIN": 4185,
      "ndm": 4186,
      "bowlt": 4187,
      "vIs": 4188,
      "##Indr": 4189,
      "##Alv": 4190,
      "kawntiz": 4191,
      "daw": 4192,
      "sVNk": 4193,
      "sAft": 4194,
      "##iT": 4195,
      "sVbdZIk": 4196,
      "sVbdZIkts": 4197,
      "stEps": 4198,
      "kVts": 4199,
      "dIstINktIv": 4200,
      "ETnIk": 4201,
      "kejnz": 4202,
      "wIlIN": 4203,
      "fVni": 4204,
      "wOkIN": 4205,
      "tk": 4206,
      "sil": 4207,
      "EndSIp": 4208,
      "VptId": 4209,
      "mIsIsIpi": 4210,
      "dZuv": 4211,
      "vInS": 4212,
      "tSIli": 4213,
      "dIlIbr": 4214,
      "Nkow": 4215,
      "dImAl": 4216,
      "nbEr": 4217,
      "ejst": 4218,
      "tSbIS": 4219,
      "filINz": 4220,
      "kh": 4221,
      "##Um": 4222,
      "ejtin": 4223,
      "ftId": 4224,
      "vEntSr": 4225,
      "Vzd": 4226,
      "dZudIS": 4227,
      "utId": 4228,
      "##gowIN": 4229,
      "dItEkt": 4230,
      "bVn": 4231,
      "tSIz": 4232,
      "pikIN": 4233,
      "lEstr": 4234,
      "wElTi": 4235,
      "mtr": 4236,
      "mplitIN": 4237,
      "IkVltSr": 4238,
      "##diz": 4239,
      "tub": 4240,
      "##Ipj": 4241,
      "slowv": 4242,
      "dZIt": 4243,
      "##hElm": 4244,
      "dIsEnt": 4245,
      "Inkw": 4246,
      "Vgz": 4247,
      "klOz": 4248,
      "##Elz": 4249,
      "vejg": 4250,
      "Ali": 4251,
      "##bUk": 4252,
      "Esp": 4253,
      "IvAlvd": 4254,
      "sAvr": 4255,
      "Tir": 4256,
      "majnz": 4257,
      "mIstejk": 4258,
      "nojz": 4259,
      "klVstr": 4260,
      "lAv": 4261,
      "##hA": 4262,
      "giz": 4263,
      "##if": 4264,
      "##Epts": 4265,
      "Inz": 4266,
      "wIs": 4267,
      "##Amp": 4268,
      "iOl": 4269,
      "Abvi": 4270,
      "nuvr": 4271,
      "IlVkt": 4272,
      "lajkt": 4273,
      "muviz": 4274,
      "kibOr": 4275,
      "dIlej": 4276,
      "bajs": 4277,
      "bj": 4278,
      "slip": 4279,
      "gIlti": 4280,
      "gAT": 4281,
      "mEntId": 4282,
      "IplejsIN": 4283,
      "powlr": 4284,
      "wejd": 4285,
      "mVntr": 4286,
      "najz": 4287,
      "Invr": 4288,
      "ajdIN": 4289,
      "Ivowlt": 4290,
      "kApr": 4291,
      "ksElr": 4292,
      "IkspEnsIv": 4293,
      "luizi": 4294,
      "fajld": 4295,
      "zEnts": 4296,
      "##Igz": 4297,
      "nawnsm": 4298,
      "SElz": 4299,
      "sAn": 4300,
      "VSt": 4301,
      "ejviejS": 4302,
      "pinz": 4303,
      "fEDr": 4304,
      "dOn": 4305,
      "SIpIN": 4306,
      "bIhejvir": 4307,
      "ajli": 4308,
      "tSIr": 4309,
      "dES": 4310,
      "sowni": 4311,
      "##Ai": 4312,
      "lEsr": 4313,
      "vVlnr": 4314,
      "sVbr": 4315,
      "Tdej": 4316,
      "sejvd": 4317,
      "wAnts": 4318,
      "IwOr": 4319,
      "fIzIks": 4320,
      "##ajp": 4321,
      "kANkr": 4322,
      "##kIn": 4323,
      "##SAr": 4324,
      "Ngj": 4325,
      "##gejt": 4326,
      "lajzIN": 4327,
      "vl": 4328,
      "skEl": 4329,
      "fINgr": 4330,
      "pdejt": 4331,
      "blAks": 4332,
      "Empt": 4333,
      "sVt": 4334,
      "wAzn": 4335,
      "sEndIN": 4336,
      "gdZEstIN": 4337,
      "SA": 4338,
      "powlz": 4339,
      "vajzd": 4340,
      "Aki": 4341,
      "mVSr": 4342,
      "##AdIk": 4343,
      "dAgz": 4344,
      "flEd": 4345,
      "gnEtIk": 4346,
      "dejm": 4347,
      "##oEn": 4348,
      "sVbspi": 4349,
      "ndEm": 4350,
      "dIkS": 4351,
      "bjuti": 4352,
      "pUld": 4353,
      "Di": 4354,
      "Izajd": 4355,
      "downejt": 4356,
      "##US": 4357,
      "EndOr": 4358,
      "ibIlt": 4359,
      "InTuzi": 4360,
      "sVbspiSiz": 4361,
      "##Ogr": 4362,
      "lEsli": 4363,
      "IdAm": 4364,
      "gjuz": 4365,
      "mli": 4366,
      "##Ati": 4367,
      "kSr": 4368,
      "lUks": 4369,
      "ajkIN": 4370,
      "Iskejpt": 4371,
      "gSIp": 4372,
      "dZIsts": 4373,
      "swi": 4374,
      "dIsajdz": 4375,
      "dZAbz": 4376,
      "slejvz": 4377,
      "And": 4378,
      "pejtId": 4379,
      "tajzIN": 4380,
      "bAmIN": 4381,
      "owfajl": 4382,
      "kE": 4383,
      "##lajnz": 4384,
      "##owdi": 4385,
      "OlmjuzIk": 4386,
      "##Oft": 4387,
      "##SOr": 4388,
      "nut": 4389,
      "ndl": 4390,
      "ntIN": 4391,
      "lajnr": 4392,
      "mISEl": 4393,
      "Ipts": 4394,
      "sVpl": 4395,
      "nspIr": 4396,
      "lEdZd": 4397,
      "##Isp": 4398,
      "nsp": 4399,
      "SO": 4400,
      "stownz": 4401,
      "Vmr": 4402,
      "owtin": 4403,
      "Indiz": 4404,
      "Izown": 4405,
      "ktIr": 4406,
      "duow": 4407,
      "hOk": 4408,
      "##Itsr": 4409,
      "bAbi": 4410,
      "##Ilr": 4411,
      "klaj": 4412,
      "mejnl": 4413,
      "uvIN": 4414,
      "owr": 4415,
      "dZAS": 4416,
      "kwIt": 4417,
      "fowld": 4418,
      "InstOl": 4419,
      "kVv": 4420,
      "mk": 4421,
      "gIft": 4422,
      "sItIN": 4423,
      "slejv": 4424,
      "pejm": 4425,
      "sfEr": 4426,
      "sis": 4427,
      "plut": 4428,
      "Imuv": 4429,
      "tf": 4430,
      "ldZ": 4431,
      "Iksplejn": 4432,
      "klO": 4433,
      "Iksplejnz": 4434,
      "dZVmp": 4435,
      "mVl": 4436,
      "mitINz": 4437,
      "##hAm": 4438,
      "tIstIks": 4439,
      "Tlits": 4440,
      "AN": 4441,
      "vAd": 4442,
      "IkspowZr": 4443,
      "dVg": 4444,
      "gdZEstS": 4445,
      "nfOr": 4446,
      "##Vts": 4447,
      "fidIN": 4448,
      "bEntS": 4449,
      "owtSIN": 4450,
      "ejmz": 4451,
      "lejks": 4452,
      "fawndIN": 4453,
      "Odwej": 4454,
      "hU": 4455,
      "swItsr": 4456,
      "mIsIz": 4457,
      "jild": 4458,
      "##Atow": 4459,
      "jusf": 4460,
      "vIi": 4461,
      "IdIktId": 4462,
      "dAp": 4463,
      "@@": 4464,
      "gIn": 4465,
      "dajz": 4466,
      "tOkIN": 4467,
      "##umr": 4468,
      "niow": 4469,
      "wIlhElm": 4470,
      "bVlk": 4471,
      "ds": 4472,
      "mInr": 4473,
      "kAs": 4474,
      "ajsl": 4475,
      "##fIl": 4476,
      "mANg": 4477,
      "btejn": 4478,
      "lEN": 4479,
      "hawshowldz": 4480,
      "tEndIN": 4481,
      "fAstr": 4482,
      "bAmz": 4483,
      "Nz": 4484,
      "bIN": 4485,
      "filz": 4486,
      "kIdz": 4487,
      "zks": 4488,
      "ulIN": 4489,
      "swImIN": 4490,
      "lejnz": 4491,
      "fjud": 4492,
      "IpitIdli": 4493,
      "wejni": 4494,
      "ejdiejS": 4495,
      "nzlejt": 4496,
      "hVds": 4497,
      "Indr": 4498,
      "fIst": 4499,
      "##INh": 4500,
      "dVm": 4501,
      "pawnd": 4502,
      "owtSIz": 4503,
      "Sejkspir": 4504,
      "wzr": 4505,
      "fjur": 4506,
      "ktIks": 4507,
      "##IdZIz": 4508,
      "dVbd": 4509,
      "dEnIs": 4510,
      "INkIN": 4511,
      "tul": 4512,
      "IstSi": 4513,
      "bw": 4514,
      "##stAk": 4515,
      "smAr": 4516,
      "pItSr": 4517,
      "towkiow": 4518,
      "sAks": 4519,
      "ndskejp": 4520,
      "bownz": 4521,
      "Itejn": 4522,
      "##EtIks": 4523,
      "bits": 4524,
      "##ajts": 4525,
      "ndejS": 4526,
      "dEnmAr": 4527,
      "VnIksp": 4528,
      "##owli": 4529,
      "nsVlt": 4530,
      "Invejd": 4531,
      "hIndu": 4532,
      "kVtIN": 4533,
      "fajz": 4534,
      "Ts": 4535,
      "gAdz": 4536,
      "sVlt": 4537,
      "owdiZ": 4538,
      "liow": 4539,
      "ItSu": 4540,
      "sv": 4541,
      "Nr": 4542,
      "vowlt": 4543,
      "owst": 4544,
      "spajr": 4545,
      "dIsb": 4546,
      "ONg": 4547,
      "##kInz": 4548,
      "zEs": 4549,
      "EnlIstId": 4550,
      "sImpl": 4551,
      "dVst": 4552,
      "wIg": 4553,
      "dIpIkS": 4554,
      "ln": 4555,
      "##EndZ": 4556,
      "mpejnz": 4557,
      "flUr": 4558,
      "dEklr": 4559,
      "lojd": 4560,
      "##Imr": 4561,
      "##Enz": 4562,
      "##Ofski": 4563,
      "kiT": 4564,
      "dVk": 4565,
      "owhIb": 4566,
      "##a_X": 4567,
      "vItS": 4568,
      "kAmpawndz": 4569,
      "##ei": 4570,
      "mplej": 4571,
      "toj": 4572,
      "##Itiz": 4573,
      "klowDIN": 4574,
      "moj": 4575,
      "sEtlr": 4576,
      "ajOr": 4577,
      "lun": 4578,
      "fg": 4579,
      "VSIN": 4580,
      "##kEr": 4581,
      "flr": 4582,
      "mIlz": 4583,
      "zinz": 4584,
      "nEktIN": 4585,
      "ONr": 4586,
      "dikr": 4587,
      "kejtr": 4588,
      "ejzi": 4589,
      "Inkwajr": 4590,
      "##pojnt": 4591,
      "ndINz": 4592,
      "##stajn": 4593,
      "Nkiz": 4594,
      "lItiz": 4595,
      "vIZw": 4596,
      "kil": 4597,
      "tEnt": 4598,
      "##ejvi": 4599,
      "InsEkts": 4600,
      "mINh": 4601,
      "owbAm": 4602,
      "Ekow": 4603,
      "dImAlISt": 4604,
      "kVn": 4605,
      "##baj": 4606,
      "finIks": 4607,
      "##ajIN": 4608,
      "nzr": 4609,
      "hOlt": 4610,
      "Imjun": 4611,
      "pojntIN": 4612,
      "IkspEns": 4613,
      "sejlIN": 4614,
      "sAm": 4615,
      "slejvr": 4616,
      "##Asi": 4617,
      "gowst": 4618,
      "##Oks": 4619,
      "dZVdZm": 4620,
      "owlIvi": 4621,
      "blISIN": 4622,
      "gIni": 4623,
      "wId": 4624,
      "##uvr": 4625,
      "##hajm": 4626,
      "juk": 4627,
      "nIn": 4628,
      "pO": 4629,
      "jAm": 4630,
      "lum": 4631,
      "dZEndr": 4632,
      "ejbi": 4633,
      "kustIk": 4634,
      "gAsp": 4635,
      "vEnju": 4636,
      "ksown": 4637,
      "dItIr": 4638,
      "SIN": 4639,
      "inow": 4640,
      "Emplojm": 4641,
      "plAz": 4642,
      "wOlt": 4643,
      "lVvd": 4644,
      "InOgr": 4645,
      "dIfEndIN": 4646,
      "gowSiejt": 4647,
      "najntin": 4648,
      "btr": 4649,
      "mitiOr": 4650,
      "bejl": 4651,
      "kowm": 4652,
      "sVN": 4653,
      "dZup": 4654,
      "hajpA": 4655,
      "AntEr": 4656,
      "vowl": 4657,
      "tEnjr": 4658,
      "tejst": 4659,
      "Ikl": 4660,
      "Uks": 4661,
      "Ekspl": 4662,
      "bAzni": 4663,
      "mowtIv": 4664,
      "##Inr": 4665,
      "hjuz": 4666,
      "ajdil": 4667,
      "kwAdr": 4668,
      "nlEs": 4669,
      "lEktSu": 4670,
      "vAlkejn": 4671,
      "hajpAT": 4672,
      "##boj": 4673,
      "mAsk": 4674,
      "IsIpItejS": 4675,
      "AngowIN": 4676,
      "awtd": 4677,
      "vAljumz": 4678,
      "##jow": 4679,
      "InISiejt": 4680,
      "jVNg": 4681,
      "##tw": 4682,
      "knAlIdZd": 4683,
      "##kAt": 4684,
      "IzOr": 4685,
      "swIs": 4686,
      "##plejr": 4687,
      "dZuejtId": 4688,
      "Vmp": 4689,
      "pVtIN": 4690,
      "lAbi": 4691,
      "SEpr": 4692,
      "skEtS": 4693,
      "mIstIr": 4694,
      "Istin": 4695,
      "Uif": 4696,
      "tuT": 4697,
      "kejv": 4698,
      "howsts": 4699,
      "TE": 4700,
      "stIr": 4701,
      "plejsIN": 4702,
      "dIsmIs": 4703,
      "pIks": 4704,
      "flEmIN": 4705,
      "##Su": 4706,
      "Iksplows": 4707,
      "pEd": 4708,
      "nkuvr": 4709,
      "InSUr": 4710,
      "dIg": 4711,
      "plE": 4712,
      "kAks": 4713,
      "ntejtr": 4714,
      "IndIdZ": 4715,
      "nejtId": 4716,
      "Ing": 4717,
      "ivjud": 4718,
      "dZEl": 4719,
      "mO": 4720,
      "pAnd": 4721,
      "##Ensr": 4722,
      "hElm": 4723,
      "tubz": 4724,
      "pVz": 4725,
      "niIN": 4726,
      "nejtr": 4727,
      "tnA": 4728,
      "##ug": 4729,
      "kAligz": 4730,
      "dZAr": 4731,
      "skAp": 4732,
      "kjul": 4733,
      "##EntId": 4734,
      "##Esk": 4735,
      "##zlow": 4736,
      "tAn": 4737,
      "##ejr": 4738,
      "sElt": 4739,
      "Olt": 4740,
      "##kwejk": 4741,
      "Sm": 4742,
      "ndmAr": 4743,
      "Tkwejk": 4744,
      "die": 4745,
      "kwr": 4746,
      "sAk": 4747,
      "##fEr": 4748,
      "howml": 4749,
      "tajn": 4750,
      "sawTistr": 4751,
      "lvr": 4752,
      "##Ul": 4753,
      "ejzr": 4754,
      "##Ifts": 4755,
      "sINz": 4756,
      "tApt": 4757,
      "stS": 4758,
      "dwajt": 4759,
      "dZowk": 4760,
      "vajn": 4761,
      "##owst": 4762,
      "hajpr": 4763,
      "mowtIvz": 4764,
      "dIvowt": 4765,
      "vowtIN": 4766,
      "IgzOst": 4767,
      "kiAl": 4768,
      "kIlz": 4769,
      "nsAl": 4770,
      "gejdZ": 4771,
      "mAdZ": 4772,
      "inplej": 4773,
      "ejvz": 4774,
      "vowtr": 4775,
      "kAd": 4776,
      "kVlm": 4777,
      "lowp": 4778,
      "ntId": 4779,
      "mpSr": 4780,
      "##hu": 4781,
      "Ikts": 4782,
      "dis": 4783,
      "dItEktIv": 4784,
      "IkVvr": 4785,
      "sEsm": 4786,
      "##VmpS": 4787,
      "kEl": 4788,
      "##ejvr": 4789,
      "pAt": 4790,
      "kItS": 4791,
      "sejlr": 4792,
      "zIlj": 4793,
      "##mIk": 4794,
      "fIltr": 4795,
      "sizd": 4796,
      "ntown": 4797,
      "sEkts": 4798,
      "mpitIN": 4799,
      "fejlIN": 4800,
      "tejnIN": 4801,
      "##hOr": 4802,
      "wEs": 4803,
      "##wajz": 4804,
      "##Vmfr": 4805,
      "nsivd": 4806,
      "dInr": 4807,
      "lajft": 4808,
      "mItm": 4809,
      "##Ots": 4810,
      "Atr": 4811,
      "TwEstr": 4812,
      "Zim": 4813,
      "stEl": 4814,
      "lINks": 4815,
      "owsIN": 4816,
      "tOks": 4817,
      "bIniT": 4818,
      "Epl": 4819,
      "##ejst": 4820,
      "##lajf": 4821,
      "nur": 4822,
      "mowld": 4823,
      "hItIN": 4824,
      "pejl": 4825,
      "fajs": 4826,
      "sist": 4827,
      "bejr": 4828,
      "kAb": 4829,
      "ivEndZ": 4830,
      "ItSm": 4831,
      "fInl": 4832,
      "wejS": 4833,
      "kIdn": 4834,
      "nklIr": 4835,
      "waji": 4836,
      "tEksts": 4837,
      "awnz": 4838,
      "stAps": 4839,
      "EsejtS": 4840,
      "stEd": 4841,
      "fif": 4842,
      "##ajsIv": 4843,
      "Ivajzd": 4844,
      "lw": 4845,
      "##owtow": 4846,
      "kAmEntIN": 4847,
      "##dIk": 4848,
      "##bAdi": 4849,
      "##bAb": 4850,
      "Eksplojt": 4851,
      "dZEkt": 4852,
      "Elm": 4853,
      "ojIN": 4854,
      "##kipr": 4855,
      "nejdow": 4856,
      "Vltr": 4857,
      "Iplajd": 4858,
      "piz": 4859,
      "mVltiplejr": 4860,
      "Sum": 4861,
      "maw": 4862,
      "lajzIz": 4863,
      "##how": 4864,
      "gVnr": 4865,
      "ajdEntIk": 4866,
      "VSr": 4867,
      "bENg": 4868,
      "stow": 4869,
      "Ifl": 4870,
      "flowz": 4871,
      "fAlowr": 4872,
      "howldr": 4873,
      "ejbr": 4874,
      "sEp": 4875,
      "wAndr": 4876,
      "pEnt": 4877,
      "Ivil": 4878,
      "najtr": 4879,
      "fEkS": 4880,
      "##howl": 4881,
      "##awm": 4882,
      "jutIl": 4883,
      "lajftajm": 4884,
      "swOr": 4885,
      "pItsbr": 4886,
      "uli": 4887,
      "kAlInz": 4888,
      "ntowniow": 4889,
      "gejmIN": 4890,
      "lajtIN": 4891,
      "tSEstr": 4892,
      "wVtEvr": 4893,
      "bum": 4894,
      "glu": 4895,
      "bAd": 4896,
      "zEntejS": 4897,
      "mejzIN": 4898,
      "Ilr": 4899,
      "idIz": 4900,
      "mAskow": 4901,
      "mEnst": 4902,
      "istwr": 4903,
      "kANkwEst": 4904,
      "IksklusIvli": 4905,
      "blIs": 4906,
      "wEbr": 4907,
      "##OS": 4908,
      "##umz": 4909,
      "dZowz": 4910,
      "lajtr": 4911,
      "iks": 4912,
      "EktIN": 4913,
      "tejp": 4914,
      "lIli": 4915,
      "kwinzl": 4916,
      "dmajr": 4917,
      "dajIN": 4918,
      "flejmz": 4919,
      "mOlt": 4920,
      "kbr": 4921,
      "tVN": 4922,
      "Empti": 4923,
      "bajb": 4924,
      "dejl": 4925,
      "dvajzd": 4926,
      "dejviz": 4927,
      "##ajtId": 4928,
      "##uIN": 4929,
      "nowp": 4930,
      "iIs": 4931,
      "dIstSAr": 4932,
      "Tistr": 4933,
      "##Vbz": 4934,
      "lImp": 4935,
      "dZIz": 4936,
      "tSEst": 4937,
      "towm": 4938,
      "dIsg": 4939,
      "owni": 4940,
      "##najt": 4941,
      "tSIp": 4942,
      "ndVk": 4943,
      "nuk": 4944,
      "awtpUt": 4945,
      "##ar": 4946,
      "mejkr": 4947,
      "##gd": 4948,
      "wIi": 4949,
      "pAnt": 4950,
      "lEktIN": 4951,
      "dIslaj": 4952,
      "kVmb": 4953,
      "##Sajr": 4954,
      "Azlow": 4955,
      "##hAn": 4956,
      "IkstEndIN": 4957,
      "nAg": 4958,
      "Egzajl": 4959,
      "dZEst": 4960,
      "IspEktIv": 4961,
      "IksplIs": 4962,
      "owtEsts": 4963,
      "lIp": 4964,
      "##AdZ": 4965,
      "owbi": 4966,
      "pjup": 4967,
      "pIst": 4968,
      "glejSr": 4969,
      "IndVkt": 4970,
      "pg": 4971,
      "InkluZ": 4972,
      "kwIn": 4973,
      "mIlk": 4974,
      "ejlz": 4975,
      "pejntr": 4976,
      "lEktIv": 4977,
      "mU": 4978,
      "bejsm": 4979,
      "##EktejS": 4980,
      "kAstum": 4981,
      "Ilit": 4982,
      "dIks": 4983,
      "vaw": 4984,
      "klOr": 4985,
      "gIld": 4986,
      "EkspEktejS": 4987,
      "nVnD": 4988,
      "tAlr": 4989,
      "IgzIsts": 4990,
      "bitIN": 4991,
      "pejli": 4992,
      "##ejv": 4993,
      "sVsp": 4994,
      "sajklownz": 4995,
      "tIz": 4996,
      "##waj": 4997,
      "ejnr": 4998,
      "mejntejnIN": 4999,
      "npajk": 5000,
      "bajnd": 5001,
      "mVnd": 5002,
      "owsOft": 5003,
      "ilowkejtId": 5004,
      "tEndr": 5005,
      "owSi": 5006,
      "dAt": 5007,
      "igr": 5008,
      "tinT": 5009,
      "ur": 5010,
      "utin": 5011,
      "dZVdZIz": 5012,
      "SIn": 5013,
      "saw": 5014,
      "Isti": 5015,
      "mVnTli": 5016,
      "klowZr": 5017,
      "dZtw": 5018,
      "dZtwk": 5019,
      "kUr": 5020,
      "Imowt": 5021,
      "wOld": 5022,
      "dIvajn": 5023,
      "zbr": 5024,
      "ntEnd": 5025,
      "snejk": 5026,
      "##VDr": 5027,
      "nsumr": 5028,
      "Edz": 5029,
      "ajtINz": 5030,
      "nfjuZ": 5031,
      "EpIk": 5032,
      "tfr": 5033,
      "kAmpawnd": 5034,
      "VnIkspEktId": 5035,
      "fbi": 5036,
      "dIsplejst": 5037,
      "swIN": 5038,
      "nejts": 5039,
      "mIksIN": 5040,
      "tunz": 5041,
      "bowIN": 5042,
      "dajs": 5043,
      "SEfild": 5044,
      "Oskr": 5045,
      "kowtSIz": 5046,
      "fVNg": 5047,
      "mv": 5048,
      "dZAnst": 5049,
      "lajtnIN": 5050,
      "ndfADr": 5051,
      "fEd": 5052,
      "wAl": 5053,
      "##inj": 5054,
      "sdIkS": 5055,
      "hajn": 5056,
      "##bit": 5057,
      "blAkt": 5058,
      "dIsplejz": 5059,
      "dEspr": 5060,
      "##mEn": 5061,
      "gjuIN": 5062,
      "owtr": 5063,
      "wElT": 5064,
      "Abs": 5065,
      "IgzIbIt": 5066,
      "but": 5067,
      "##EsIv": 5068,
      "wejdZ": 5069,
      "InOr": 5070,
      "wAt": 5071,
      "nstItSu": 5072,
      "nstajn": 5073,
      "nlajkli": 5074,
      "Sl": 5075,
      "bET": 5076,
      "IdIS": 5077,
      "dZEm": 5078,
      "stip": 5079,
      "nAp": 5080,
      "dIsejb": 5081,
      "lfild": 5082,
      "##AlIk": 5083,
      "iAdIk": 5084,
      "mUhAm": 5085,
      "bowlr": 5086,
      "pejdr": 5087,
      "lejts": 5088,
      "tSElsi": 5089,
      "hUk": 5090,
      "spIS": 5091,
      "lIni": 5092,
      "sElr": 5093,
      "dows": 5094,
      "awtkVm": 5095,
      "sImj": 5096,
      "ntAr": 5097,
      "hajm": 5098,
      "owdZ": 5099,
      "IgzEm": 5100,
      "hd": 5101,
      "wISt": 5102,
      "Sowk": 5103,
      "##mEr": 5104,
      "bejli": 5105,
      "pAstS": 5106,
      "##ejmi": 5107,
      "nAkt": 5108,
      "sAg": 5109,
      "upr": 5110,
      "hejv": 5111,
      "##Ald": 5112,
      "pAd": 5113,
      "doj": 5114,
      "kajl": 5115,
      "pAlow": 5116,
      "dejnIS": 5117,
      "mpajr": 5118,
      "stIm": 5119,
      "dIvr": 5120,
      "ejSiow": 5121,
      "dipli": 5122,
      "bstr": 5123,
      "##pAp": 5124,
      "mIkstSr": 5125,
      "##dZIz": 5126,
      "wIsk": 5127,
      "dEmow": 5128,
      "tajlr": 5129,
      "gAlf": 5130,
      "gEsts": 5131,
      "sIndr": 5132,
      "stin": 5133,
      "spEnS": 5134,
      "ndZIz": 5135,
      "nejmIN": 5136,
      "InvEnt": 5137,
      "sInEr": 5138,
      "jukr": 5139,
      "ndlIN": 5140,
      "EkspOr": 5141,
      "lVk": 5142,
      "##eEn": 5143,
      "kVS": 5144,
      "bIzi": 5145,
      "IbjutIN": 5146,
      "fjUr": 5147,
      "sinow": 5148,
      "hEviwejt": 5149,
      "howpIN": 5150,
      "nEf": 5151,
      "##hIl": 5152,
      "downi": 5153,
      "pVnISm": 5154,
      "##Alow": 5155,
      "majs": 5156,
      "##em": 5157,
      "Iksid": 5158,
      "##fl": 5159,
      "Ints": 5160,
      "flEks": 5161,
      "dIskow": 5162,
      "lEnr": 5163,
      "pojntId": 5164,
      "tInt": 5165,
      "Uki": 5166,
      "kni": 5167,
      "fUlfIl": 5168,
      "vjuIN": 5169,
      "Ikwej": 5170,
      "sivz": 5171,
      "mAntg": 5172,
      "gejtIN": 5173,
      "IntEnt": 5174,
      "mVd": 5175,
      "Agz": 5176,
      "kbz": 5177,
      "mud": 5178,
      "dajv": 5179,
      "##VkS": 5180,
      "Ekst": 5181,
      "gV": 5182,
      "vwAr": 5183,
      "wIr": 5184,
      "OfSOr": 5185,
      "sawTwEstr": 5186,
      "dVktIv": 5187,
      "NkS": 5188,
      "bajAl": 5189,
      "dIsajsIv": 5190,
      "bajr": 5191,
      "wUdl": 5192,
      "IkstINkt": 5193,
      "Sip": 5194,
      "sIlv": 5195,
      "Isn": 5196,
      "Vks": 5197,
      "owtejS": 5198,
      "IksplejnIN": 5199,
      "jutub": 5200,
      "gATIk": 5201,
      "mIm": 5202,
      "Isajs": 5203,
      "uS": 5204,
      "##ajdZ": 5205,
      "tSIn": 5206,
      "gnr": 5207,
      "spEktejtr": 5208,
      "kEstr": 5209,
      "##IdZu": 5210,
      "owtinz": 5211,
      "hAlow": 5212,
      "nir": 5213,
      "jutO": 5214,
      "fajbr": 5215,
      "ImpEr": 5216,
      "gejnIN": 5217,
      "hIn": 5218,
      "flES": 5219,
      "##Ngow": 5220,
      "lIl": 5221,
      "vOr": 5222,
      "lui": 5223,
      "wajldlajf": 5224,
      "klowDz": 5225,
      "##DIN": 5226,
      "nowl": 5227,
      "IgAr": 5228,
      "ImOr": 5229,
      "powstr": 5230,
      "dEts": 5231,
      "mIg": 5232,
      "##Ivr": 5233,
      "mEmwAr": 5234,
      "nIpj": 5235,
      "awtIN": 5236,
      "mplejnd": 5237,
      "mIts": 5238,
      "stVdiIN": 5239,
      "lEz": 5240,
      "vejn": 5241,
      "howmows": 5242,
      "hVt": 5243,
      "IzlAm": 5244,
      "sowp": 5245,
      "##Olz": 5246,
      "piEr": 5247,
      "ElIs": 5248,
      "stVm": 5249,
      "Enkl": 5250,
      "mejni": 5251,
      "spIt": 5252,
      "##Iliz": 5253,
      "tulz": 5254,
      "dum": 5255,
      "mIdnajt": 5256,
      "tEmpow": 5257,
      "dilIN": 5258,
      "bojfr": 5259,
      "kdawn": 5260,
      "stli": 5261,
      "Eksplr": 5262,
      "wIskAns": 5263,
      "##ejkIN": 5264,
      "Vmb": 5265,
      "tIsf": 5266,
      "dZulj": 5267,
      "fowtow": 5268,
      "howmowsEkS": 5269,
      "IzlAmIk": 5270,
      "InIN": 5271,
      "VpsEt": 5272,
      "mVsk": 5273,
      "IkstEnsIvli": 5274,
      "kwIz": 5275,
      "Ibjun": 5276,
      "hajlajtId": 5277,
      "twIst": 5278,
      "majsElf": 5279,
      "bejts": 5280,
      "dIstINkS": 5281,
      "fIliejt": 5282,
      "iAgr": 5283,
      "##el": 5284,
      "timejt": 5285,
      "Amni": 5286,
      "kAnflIkts": 5287,
      "##kAm": 5288,
      "mAntgVmr": 5289,
      "tsr": 5290,
      "mjutS": 5291,
      "bOlz": 5292,
      "nEm": 5293,
      "##e_": 5294,
      "lusi": 5295,
      "nAks": 5296,
      "izAlvd": 5297,
      "kejdZ": 5298,
      "ajkr": 5299,
      "pIlr": 5300,
      "dZO": 5301,
      "##IvEl": 5302,
      "##mInstr": 5303,
      "vEnt": 5304,
      "##eEs": 5305,
      "Inud": 5306,
      "##dZin": 5307,
      "Eskjud": 5308,
      "##Eg": 5309,
      "howlz": 5310,
      "iT": 5311,
      "EndjUr": 5312,
      "hVni": 5313,
      "gwAd": 5314,
      "nsajd": 5315,
      "bIlifs": 5316,
      "##ejdZr": 5317,
      "ndlr": 5318,
      "Atow": 5319,
      "bIlz": 5320,
      "hawzd": 5321,
      "hElps": 5322,
      "##InISt": 5323,
      "iS": 5324,
      "INt": 5325,
      "tEntS": 5326,
      "##Egr": 5327,
      "wElm": 5328,
      "##lINz": 5329,
      "silIN": 5330,
      "pAmr": 5331,
      "dwEl": 5332,
      "Akl": 5333,
      "tAmi": 5334,
      "bEdr": 5335,
      "bmr": 5336,
      "IntIN": 5337,
      "sINkIN": 5338,
      "ikl": 5339,
      "ejlwejz": 5340,
      "bsk": 5341,
      "sAd": 5342,
      "mowtIN": 5343,
      "InvAlvz": 5344,
      "plEZr": 5345,
      "hm": 5346,
      "howps": 5347,
      "ndZIN": 5348,
      "hili": 5349,
      "dIpIkts": 5350,
      "awtdOr": 5351,
      "ajlz": 5352,
      "nejtow": 5353,
      "Vstr": 5354,
      "skAts": 5355,
      "klu": 5356,
      "gk": 5357,
      "bOltIk": 5358,
      "##IlIN": 5359,
      "stVf": 5360,
      "##dejl": 5361,
      "##tsi": 5362,
      "pEpr": 5363,
      "lh": 5364,
      "dZIl": 5365,
      "##lajnd": 5366,
      "ejvr": 5367,
      "##dINz": 5368,
      "##ajzIz": 5369,
      "tEmz": 5370,
      "Ihr": 5371,
      "##SIps": 5372,
      "tIsju": 5373,
      "vEntSu": 5374,
      "AnsAmb": 5375,
      "idi": 5376,
      "SIpm": 5377,
      "AsIk": 5378,
      "kjubIk": 5379,
      "zaj": 5380,
      "##itow": 5381,
      "nsVmpS": 5382,
      "TVmbr": 5383,
      "mOs": 5384,
      "vOl": 5385,
      "Sinz": 5386,
      "kIts": 5387,
      "ApIN": 5388,
      "dVNk": 5389,
      "lVN": 5390,
      "bEnt": 5391,
      "kows": 5392,
      "pIg": 5393,
      "ejIN": 5394,
      "EsT": 5395,
      "nuf": 5396,
      "ndVktr": 5397,
      "kOf": 5398,
      "pEst": 5399,
      "pEz": 5400,
      "Vktr": 5401,
      "spEl": 5402,
      "nvIl": 5403,
      "dZEnj": 5404,
      "lIZ": 5405,
      "kowv": 5406,
      "VpkVmIN": 5407,
      "Oldr": 5408,
      "slAt": 5409,
      "sfajd": 5410,
      "##Ikj": 5411,
      "lbejni": 5412,
      "hVb": 5413,
      "##spAt": 5414,
      "##lIt": 5415,
      "##fIr": 5416,
      "towd": 5417,
      "mjUr": 5418,
      "##tSEstr": 5419,
      "npr": 5420,
      "Isi": 5421,
      "nwOl": 5422,
      "kowstr": 5423,
      "Vps": 5424,
      "Vpl": 5425,
      "hajts": 5426,
      "Sli": 5427,
      "plejts": 5428,
      "blAkejd": 5429,
      "mfIbi": 5430,
      "tSiow": 5431,
      "kAv": 5432,
      "blV": 5433,
      "tEkts": 5434,
      "pVp": 5435,
      "nIknejm": 5436,
      "dZowze": 5437,
      "wIdow": 5438,
      "owZ": 5439,
      "lEkj": 5440,
      "lOsut": 5441,
      "bIsajdz": 5442,
      "zEst": 5443,
      "##fIS": 5444,
      "izir": 5445,
      "mbAr": 5446,
      "iowz": 5447,
      "##IktId": 5448,
      "jA": 5449,
      "sIf": 5450,
      "Edn": 5451,
      "sajnm": 5452,
      "##ejndZr": 5453,
      "EndejndZr": 5454,
      "nfIgjr": 5455,
      "Otow": 5456,
      "fIlmejkr": 5457,
      "hejst": 5458,
      "jowk": 5459,
      "nejbOr": 5460,
      "powsts": 5461,
      "##bIl": 5462,
      "##EmIk": 5463,
      "##ejsi": 5464,
      "mejlej": 5465,
      "hIsp": 5466,
      "Aksajd": 5467,
      "dIstINgwIS": 5468,
      "dnr": 5469,
      "bejd": 5470,
      "sejkr": 5471,
      "kOz": 5472,
      "mejp": 5473,
      "sajdIN": 5474,
      "OtAn": 5475,
      "kEnIT": 5476,
      "mowh": 5477,
      "kawntIN": 5478,
      "EtIk": 5479,
      "spowks": 5480,
      "##VblIn": 5481,
      "luTr": 5482,
      "pawndr": 5483,
      "Impowzd": 5484,
      "fm": 5485,
      "lINt": 5486,
      "fVNk": 5487,
      "pS": 5488,
      "bEnd": 5489,
      "##lEr": 5490,
      "mowniz": 5491,
      "jugowslAvi": 5492,
      "##haj": 5493,
      "##INg": 5494,
      "ownow": 5495,
      "dIpIktIN": 5496,
      "Vsti": 5497,
      "lInir": 5498,
      "slIp": 5499,
      "midiIt": 5500,
      "lst": 5501,
      "##ejp": 5502,
      "klawdz": 5503,
      "bn": 5504,
      "najdZ": 5505,
      "mIstIk": 5506,
      "##owmi": 5507,
      "sejnts": 5508,
      "Vd": 5509,
      "tSEn": 5510,
      "nvIkt": 5511,
      "pVm": 5512,
      "bun": 5513,
      "blejk": 5514,
      "Ests": 5515,
      "stImj": 5516,
      "INfild": 5517,
      "AdIS": 5518,
      "Ipr": 5519,
      "##jus": 5520,
      "##IsIz": 5521,
      "ndZi": 5522,
      "bsIdi": 5523,
      "lEb": 5524,
      "ntow": 5525,
      "sb": 5526,
      "zum": 5527,
      "Siv": 5528,
      "imuvIN": 5529,
      "buT": 5530,
      "lUr": 5531,
      "pilz": 5532,
      "Ah": 5533,
      "Ukl": 5534,
      "##Inh": 5535,
      "lowg": 5536,
      "ilisIN": 5537,
      "spAts": 5538,
      "lsi": 5539,
      "lVft": 5540,
      "##owvr": 5541,
      "stwr": 5542,
      "bVtlr": 5543,
      "Sit": 5544,
      "miow": 5545,
      "twItr": 5546,
      "EsId": 5547,
      "tVtSdawnz": 5548,
      "ktIvli": 5549,
      "sINk": 5550,
      "##VNkr": 5551,
      "ivd": 5552,
      "##EstS": 5553,
      "maws": 5554,
      "dZinz": 5555,
      "##ist": 5556,
      "pAli": 5557,
      "##wAl": 5558,
      "##ejdr": 5559,
      "kowtSIN": 5560,
      "kVlEkt": 5561,
      "vIkr": 5562,
      "VnkAn": 5563,
      "sEst": 5564,
      "klIp": 5565,
      "Odr": 5566,
      "Ivl": 5567,
      "lowz": 5568,
      "ImIS": 5569,
      "pejIN": 5570,
      "owkr": 5571,
      "spidz": 5572,
      "kUdn": 5573,
      "nEpt": 5574,
      "dZIbr": 5575,
      "mpajld": 5576,
      "plizd": 5577,
      "Ikj": 5578,
      "##Eti": 5579,
      "Ilivd": 5580,
      "tudz": 5581,
      "Istejts": 5582,
      "hAns": 5583,
      "ISt": 5584,
      "tinejdZr": 5585,
      "ntIst": 5586,
      "sInIm": 5587,
      "sejvIN": 5588,
      "Istr": 5589,
      "ksiz": 5590,
      "IkstIr": 5591,
      "pawdr": 5592,
      "dVblIn": 5593,
      "tEd": 5594,
      "IksEsIv": 5595,
      "tajwAn": 5596,
      "bAndz": 5597,
      "tSiz": 5598,
      "##ET": 5599,
      "owdwej": 5600,
      "gejnz": 5601,
      "bVb": 5602,
      "dEli": 5603,
      "pejp": 5604,
      "tejtId": 5605,
      "SIpt": 5606,
      "Eld": 5607,
      "lIbi": 5608,
      "sAlv": 5609,
      "dIskVsIN": 5610,
      "skawtIN": 5611,
      "##stSr": 5612,
      "nfjuzd": 5613,
      "kv": 5614,
      "bskjUr": 5615,
      "mowti": 5616,
      "ndVktIN": 5617,
      "bO": 5618,
      "ajdz": 5619,
      "tejkr": 5620,
      "wOkt": 5621,
      "flown": 5622,
      "bIgr": 5623,
      "dZiow": 5624,
      "sAkr": 5625,
      "mejtIN": 5626,
      "##ejmIN": 5627,
      "kInli": 5628,
      "InstOlm": 5629,
      "nIdZIN": 5630,
      "bik": 5631,
      "kAnsEpts": 5632,
      "ESm": 5633,
      "kEni": 5634,
      "isidIN": 5635,
      "spajt": 5636,
      "##fEld": 5637,
      "##jub": 5638,
      "swEpt": 5639,
      "Vnts": 5640,
      "nsmIS": 5641,
      "spajn": 5642,
      "dVd": 5643,
      "ligz": 5644,
      "stEdi": 5645,
      "smowkIN": 5646,
      "sOlts": 5647,
      "nowS": 5648,
      "fjuZ": 5649,
      "viIi": 5650,
      "TlEtIks": 5651,
      "SumAkr": 5652,
      "o_": 5653,
      "##naj": 5654,
      "Igejdz": 5655,
      "spejskr": 5656,
      "wOks": 5657,
      "IlIN": 5658,
      "pAvr": 5659,
      "wIli": 5660,
      "lud": 5661,
      "Vnpr": 5662,
      "dIplojm": 5663,
      "dZnA": 5664,
      "ajnz": 5665,
      "soj": 5666,
      "AspEkt": 5667,
      "##gAn": 5668,
      "nvIkS": 5669,
      "fIliz": 5670,
      "hVbr": 5671,
      "sowfi": 5672,
      "ndEmd": 5673,
      "spAndIN": 5674,
      "##juts": 5675,
      "najzIN": 5676,
      "sAv": 5677,
      "downejS": 5678,
      "majld": 5679,
      "gnows": 5680,
      "fajts": 5681,
      "blejmd": 5682,
      "mlb": 5683,
      "bajnz": 5684,
      "iAr": 5685,
      "sidz": 5686,
      "mil": 5687,
      "gejmr": 5688,
      "imajnd": 5689,
      "SEli": 5690,
      "TEtIk": 5691,
      "lVn": 5692,
      "Olb": 5693,
      "pidowz": 5694,
      "sIg": 5695,
      "nsEns": 5696,
      "mbUS": 5697,
      "nEkts": 5698,
      "dipow": 5699,
      "uvz": 5700,
      "vEt": 5701,
      "tSVk": 5702,
      "tajzd": 5703,
      "Om": 5704,
      "bf": 5705,
      "##Ikr": 5706,
      "gVsts": 5707,
      "sAns": 5708,
      "dZiAgr": 5709,
      "dInaj": 5710,
      "bust": 5711,
      "jugowslAv": 5712,
      "nowIN": 5713,
      "dAlf": 5714,
      "zOr": 5715,
      "EksEs": 5716,
      "pIlgr": 5717,
      "zownz": 5718,
      "bin": 5719,
      "aws": 5720,
      "VnIm": 5721,
      "imIN": 5722,
      "vEnuz": 5723,
      "kAfi": 5724,
      "blEr": 5725,
      "ibawndz": 5726,
      "hEn": 5727,
      "##hEld": 5728,
      "kAkr": 5729,
      "dZEts": 5730,
      "tEkstSr": 5731,
      "lVks": 5732,
      "##Adz": 5733,
      "dZVNg": 5734,
      "sowlli": 5735,
      "nit": 5736,
      "iejts": 5737,
      "dZiAl": 5738,
      "ksEsIv": 5739,
      "lEzbi": 5740,
      "InvItejS": 5741,
      "flajz": 5742,
      "lowgow": 5743,
      "ibAdi": 5744,
      "##AZ": 5745,
      "##AtS": 5746,
      "IkstINkS": 5747,
      "gajz": 5748,
      "wEstmInstr": 5749,
      "nejk": 5750,
      "tSEt": 5751,
      "imejk": 5752,
      "Timd": 5753,
      "sivr": 5754,
      "dImAkr": 5755,
      "##zdi": 5756,
      "sEltIk": 5757,
      "dOs": 5758,
      "lajfst": 5759,
      "lINgw": 5760,
      "bdZEkS": 5761,
      "nfES": 5762,
      "dEnvr": 5763,
      "gAl": 5764,
      "##wOf": 5765,
      "vAlkejnow": 5766,
      "tIntIn": 5767,
      "jul": 5768,
      "sejdiz": 5769,
      "Abst": 5770,
      "fOlt": 5771,
      "wEd": 5772,
      "kwi": 5773,
      "hajp": 5774,
      "blejd": 5775,
      "dZinj": 5776,
      "sVndr": 5777,
      "Oft": 5778,
      "sIndIk": 5779,
      "Esej": 5780,
      "inIN": 5781,
      "IkAl": 5782,
      "blEnd": 5783,
      "nAmIks": 5784,
      "kAmplISt": 5785,
      "AmptIN": 5786,
      "kwow": 5787,
      "kajzr": 5788,
      "pliz": 5789,
      "a_": 5790,
      "fEn": 5791,
      "fIlIps": 5792,
      "hEvir": 5793,
      "nsejS": 5794,
      "zAn": 5795,
      "dIsplejs": 5796,
      "##EnsIs": 5797,
      "dZEsi": 5798,
      "##Vks": 5799,
      "pAstSUm": 5800,
      "mowbi": 5801,
      "Ipi": 5802,
      "tinejdZ": 5803,
      "InhIb": 5804,
      "SApIN": 5805,
      "hEkt": 5806,
      "lit": 5807,
      "niv": 5808,
      "kwEns": 5809,
      "swAn": 5810,
      "owklejmd": 5811,
      "Nl": 5812,
      "dZejl": 5813,
      "##fIn": 5814,
      "ajIn": 5815,
      "EnIks": 5816,
      "zAnt": 5817,
      "##dZOr": 5818,
      "##jul": 5819,
      "owpajnd": 5820,
      "EfjudZiz": 5821,
      "EnkVmp": 5822,
      "##emown": 5823,
      "AT": 5824,
      "wit": 5825,
      "lajkwajz": 5826,
      "wikn": 5827,
      "lejdiz": 5828,
      "wIdT": 5829,
      "##bejn": 5830,
      "sIlown": 5831,
      "pAkemown": 5832,
      "nsEpS": 5833,
      "tik": 5834,
      "bejZ": 5835,
      "TEl": 5836,
      "kIr": 5837,
      "SIpjAr": 5838,
      "kejo_": 5839,
      "pAzIts": 5840,
      "kowlIn": 5841,
      "Anow": 5842,
      "sowm": 5843,
      "tSifs": 5844,
      "sIksti": 5845,
      "hEs": 5846,
      "pAdz": 5847,
      "hOf": 5848,
      "nhajm": 5849,
      "##ku": 5850,
      "Iki": 5851,
      "mAns": 5852,
      "kwinz": 5853,
      "mjud": 5854,
      "Nki": 5855,
      "lIg": 5856,
      "IkstEndz": 5857,
      "nEfju": 5858,
      "AsEsIN": 5859,
      "vEst": 5860,
      "sur": 5861,
      "Anwr": 5862,
      "fivr": 5863,
      "nc": 5864,
      "Esli": 5865,
      "mpAr": 5866,
      "dmIS": 5867,
      "pEk": 5868,
      "InfEkt": 5869,
      "mAnwEl": 5870,
      "mplejnts": 5871,
      "ilIz": 5872,
      "Abi": 5873,
      "Eswej": 5874,
      "stejdZd": 5875,
      "vajbr": 5876,
      "lImItejS": 5877,
      "IvilIN": 5878,
      "dowl": 5879,
      "##ejg": 5880,
      "NkINz": 5881,
      "blum": 5882,
      "pElr": 5883,
      "stejIN": 5884,
      "bIlONIN": 5885,
      "viEn": 5886,
      "pIdZ": 5887,
      "flEr": 5888,
      "sIlk": 5889,
      "tVkr": 5890,
      "bEvr": 5891,
      "ivjuIN": 5892,
      "vEdZt": 5893,
      "wUlvr": 5894,
      "NIN": 5895,
      "mIdZIN": 5896,
      "IvEntIN": 5897,
      "dIlajt": 5898,
      "IksplowsIv": 5899,
      "Tbawnd": 5900,
      "ivIZ": 5901,
      "dZVmpIN": 5902,
      "flowtIl": 5903,
      "Sejk": 5904,
      "owks": 5905,
      "hoj": 5906,
      "flojd": 5907,
      "##vAr": 5908,
      "mIdwej": 5909,
      "wAntIN": 5910,
      "fItIN": 5911,
      "plIm": 5912,
      "swItSt": 5913,
      "nis": 5914,
      "niT": 5915,
      "kAlIdZIz": 5916,
      "utIN": 5917,
      "kAstumz": 5918,
      "wElINt": 5919,
      "lAkt": 5920,
      "bdZEktIvz": 5921,
      "sajkAl": 5922,
      "nIdZIz": 5923,
      "Ants": 5924,
      "mejz": 5925,
      "ejdmAr": 5926,
      "lENkTs": 5927,
      "glO": 5928,
      "ajbr": 5929,
      "dAnt": 5930,
      "spEnsr": 5931,
      "bIlONd": 5932,
      "fjus": 5933,
      "mjunIk": 5934,
      "Vtr": 5935,
      "kowIns": 5936,
      "iowp": 5937,
      "Iksklud": 5938,
      "lpajn": 5939,
      "lIntS": 5940,
      "hAstIl": 5941,
      "bajt": 5942,
      "lENTi": 5943,
      "hEmIs": 5944,
      "nIknejmd": 5945,
      "mejtId": 5946,
      "ge": 5947,
      "ikr": 5948,
      "pild": 5949,
      "kApir": 5950,
      "kEplr": 5951,
      "TOts": 5952,
      "Vbr": 5953,
      "AksIm": 5954,
      "pENg": 5955,
      "##IdZd": 5956,
      "Sinr": 5957,
      "owsidINz": 5958,
      "nsA": 5959,
      "InkAr": 5960,
      "bowh": 5961,
      "Impi": 5962,
      "nTAl": 5963,
      "mfr": 5964,
      "dZAv": 5965,
      "EtsEtr": 5966,
      "ownz": 5967,
      "najntinT": 5968,
      "dhIr": 5969,
      "biti": 5970,
      "Tlit": 5971,
      "biz": 5972,
      "spawr": 5973,
      "stAl": 5974,
      "Ept": 5975,
      "dajvIN": 5976,
      "Tw": 5977,
      "##Okl": 5978,
      "ilinz": 5979,
      "Adz": 5980,
      "nEsts": 5981,
      "hAk": 5982,
      "ind": 5983,
      "##owSi": 5984,
      "blVdi": 5985,
      "bejZIN": 5986,
      "Itunz": 5987,
      "##Intr": 5988,
      "dZojnz": 5989,
      "tz": 5990,
      "kAf": 5991,
      "gowb": 5992,
      "nvejld": 5993,
      "lVftwOf": 5994,
      "win": 5995,
      "ejsIz": 5996,
      "##imi": 5997,
      "fawnt": 5998,
      "plajIN": 5999,
      "pVntS": 6000,
      "Saj": 6001,
      "##ust": 6002,
      "##owkt": 6003,
      "idZoj": 6004,
      "pisf": 6005,
      "wASt": 6006,
      "tSejnz": 6007,
      "minow": 6008,
      "IlejtIN": 6009,
      "howk": 6010,
      "dIzAlvd": 6011,
      "kowstlajn": 6012,
      "dilz": 6013,
      "sIgr": 6014,
      "gIbs": 6015,
      "nud": 6016,
      "dVndZ": 6017,
      "nkAk": 6018,
      "##jutId": 6019,
      "nupOr": 6020,
      "gAs": 6021,
      "sawTwr": 6022,
      "nmowst": 6023,
      "tApIk": 6024,
      "zEt": 6025,
      "##bAk": 6026,
      "##Isajzd": 6027,
      "EnsuIN": 6028,
      "blEs": 6029,
      "Agwi": 6030,
      "kejAs": 6031,
      "dVdli": 6032,
      "plum": 6033,
      "lejzr": 6034,
      "ajtIr": 6035,
      "wISIz": 6036,
      "lEDr": 6037,
      "Isid": 6038,
      "##Eb": 6039,
      "Ilajd": 6040,
      "mVndi": 6041,
      "kEs": 6042,
      "hEp": 6043,
      "kk": 6044,
      "flejvr": 6045,
      "kjulz": 6046,
      "Ivajvd": 6047,
      "bist": 6048,
      "vajzr": 6049,
      "owsidz": 6050,
      "AgwilEr": 6051,
      "Ebr": 6052,
      "stejk": 6053,
      "##vIs": 6054,
      "##VndZ": 6055,
      "bajn": 6056,
      "nowbAdi": 6057,
      "gAnz": 6058,
      "skejt": 6059,
      "IndIv": 6060,
      "tAt": 6061,
      "##ur": 6062,
      "AgVst": 6063,
      "bEli": 6064,
      "wIzr": 6065,
      "##bej": 6066,
      "sowviEts": 6067,
      "sizr": 6068,
      "hEmIsfIr": 6069,
      "Akr": 6070,
      "wAk": 6071,
      "bajd": 6072,
      "dipr": 6073,
      "zEn": 6074,
      "mIdst": 6075,
      "flowtIN": 6076,
      "pENgw": 6077,
      "Sn": 6078,
      "sEf": 6079,
      "EngejdZIN": 6080,
      "tAksIk": 6081,
      "gejmspAt": 6082,
      "dIspjuts": 6083,
      "nIkowl": 6084,
      "kswEl": 6085,
      "slowr": 6086,
      "Sb": 6087,
      "EzId": 6088,
      "Ald": 6089,
      "wwf": 6090,
      "mint": 6091,
      "blaj": 6092,
      "majzd": 6093,
      "sVbd": 6094,
      "TIkn": 6095,
      "##an": 6096,
      "plutowni": 6097,
      "##EtSr": 6098,
      "kajr": 6099,
      "ntIndZ": 6100,
      "tejld": 6101,
      "skInr": 6102,
      "mejbi": 6103,
      "nEks": 6104,
      "lajl": 6105,
      "bskr": 6106,
      "bOldw": 6107,
      "nsum": 6108,
      "kAnkOr": 6109,
      "tEns": 6110,
      "ejr": 6111,
      "dIslajkt": 6112,
      "howz": 6113,
      "nvinj": 6114,
      "dIlejz": 6115,
      "InvAlv": 6116,
      "hUdz": 6117,
      "plEdZ": 6118,
      "Embl": 6119,
      "sEkj": 6120,
      "InvEnS": 6121,
      "ifIt": 6122,
      "hajnd": 6123,
      "fInz": 6124,
      "##dZu": 6125,
      "EdItr": 6126,
      "SvIl": 6127,
      "plEz": 6128,
      "kun": 6129,
      "ndsVn": 6130,
      "nojd": 6131,
      "powni": 6132,
      "ISn": 6133,
      "fAnd": 6134,
      "mvp": 6135,
      "tEndz": 6136,
      "EsIks": 6137,
      "mEz": 6138,
      "mVNks": 6139,
      "tEktIN": 6140,
      "bEti": 6141,
      "lImItId": 6142,
      "tVl": 6143,
      "##Ts": 6144,
      "bowi": 6145,
      "IndEks": 6146,
      "glajdr": 6147,
      "flVdz": 6148,
      "lajmstown": 6149,
      "sowsiIts": 6150,
      "dEdli": 6151,
      "kwejnt": 6152,
      "tuts": 6153,
      "jowhAn": 6154,
      "lunr": 6155,
      "mAb": 6156,
      "Emplojr": 6157,
      "IvAl": 6158,
      "kips": 6159,
      "sItIz": 6160,
      "bsIdiEr": 6161,
      "lowl": 6162,
      "Sutr": 6163,
      "dowmejn": 6164,
      "slajd": 6165,
      "simINli": 6166,
      "nowvr": 6167,
      "bElgr": 6168,
      "skj": 6169,
      "IslAm": 6170,
      "klV": 6171,
      "tIld": 6172,
      "##Igju": 6173,
      "mAdZul": 6174,
      "bawn": 6175,
      "nsES": 6176,
      "nowbEl": 6177,
      "flEktIN": 6178,
      "SAps": 6179,
      "vejtr": 6180,
      "##bowt": 6181,
      "vejz": 6182,
      "mVz": 6183,
      "vIst": 6184,
      "stElr": 6185,
      "spVNg": 6186,
      "pVmp": 6187,
      "##vIn": 6188,
      "tSIm": 6189,
      "twElf": 6190,
      "klajmIN": 6191,
      "Itiz": 6192,
      "siEr": 6193,
      "twElfT": 6194,
      "Sejm": 6195,
      "dIstOr": 6196,
      "wilr": 6197,
      "lajfstajl": 6198,
      "gVl": 6199,
      "nsEnt": 6200,
      "InvEstr": 6201,
      "Sowkejs": 6202,
      "dilr": 6203,
      "pejvd": 6204,
      "mEntIN": 6205,
      "minOg": 6206,
      "sIli": 6207,
      "zl": 6208,
      "##ownj": 6209,
      "lowdIN": 6210,
      "nejd": 6211,
      "lIb": 6212,
      "##Atsu": 6213,
      "bIsi": 6214,
      "ndIs": 6215,
      "ejf": 6216,
      "stVnt": 6217,
      "ljuejS": 6218,
      "igejnd": 6219,
      "owsid": 6220,
      "dZg": 6221,
      "kipr": 6222,
      "lEnt": 6223,
      "VN": 6224,
      "IkwejZ": 6225,
      "IfIn": 6226,
      "wawnd": 6227,
      "kAS": 6228,
      "Edgr": 6229,
      "owbAt": 6230,
      "bejtId": 6231,
      "##Uks": 6232,
      "Vmpajr": 6233,
      "pejg": 6234,
      "wInzr": 6235,
      "ndZVNkS": 6236,
      "dZowks": 6237,
      "skawts": 6238,
      "EmIli": 6239,
      "Edw": 6240,
      "AptId": 6241,
      "nItS": 6242,
      "mowmEnt": 6243,
      "wON": 6244,
      "ihEnsIv": 6245,
      "iSiejtId": 6246,
      "Azr": 6247,
      "mowdz": 6248,
      "fawl": 6249,
      "Izum": 6250,
      "blown": 6251,
      "ufs": 6252,
      "fajndINz": 6253,
      "hElTi": 6254,
      "Akow": 6255,
      "tAps": 6256,
      "tajni": 6257,
      "tVs": 6258,
      "gp": 6259,
      "gown": 6260,
      "mg": 6261,
      "kAntEnts": 6262,
      "Andr": 6263,
      "awnIN": 6264,
      "timmejts": 6265,
      "ndIn": 6266,
      "sVf": 6267,
      "##IftIN": 6268,
      "Ikspajr": 6269,
      "##owsIst": 6270,
      "kdr": 6271,
      "VktIN": 6272,
      "bUr": 6273,
      "##sis": 6274,
      "stVk": 6275,
      "lutli": 6276,
      "Eme": 6277,
      "lejawt": 6278,
      "Vnwej": 6279,
      "towps": 6280,
      "OdIS": 6281,
      "sImbAlIk": 6282,
      "lVg": 6283,
      "lVvz": 6284,
      "Ibr": 6285,
      "plejsm": 6286,
      "bejn": 6287,
      "spil": 6288,
      "bejsIst": 6289,
      "sAfIk": 6290,
      "IntEnS": 6291,
      "bejk": 6292,
      "Ekl": 6293,
      "igEz": 6294,
      "mEts": 6295,
      "##Avski": 6296,
      "##ajkl": 6297,
      "bajow": 6298,
      "lejIN": 6299,
      "##siejS": 6300,
      "zmejni": 6301,
      "Ema": 6302,
      "hajdIN": 6303,
      "EplIk": 6304,
      "dwEr": 6305,
      "sItr": 6306,
      "##nIs": 6307,
      "lejdz": 6308,
      "dIspowz": 6309,
      "stEpt": 6310,
      "##IbAdi": 6311,
      "##mIT": 6312,
      "mid": 6313,
      "gAnd": 6314,
      "Inu": 6315,
      "mplaj": 6316,
      "wElfEr": 6317,
      "nhawr": 6318,
      "fEktIN": 6319,
      "hOnt": 6320,
      "ubi": 6321,
      "##Ih": 6322,
      "bVNkr": 6323,
      "slu": 6324,
      "sku": 6325,
      "dajdZEst": 6326,
      "wIlk": 6327,
      "mAli": 6328,
      "gwAt": 6329,
      "pUSIN": 6330,
      "pEti": 6331,
      "##Ond": 6332,
      "##EktSr": 6333,
      "mowl": 6334,
      "AkS": 6335,
      "nVt": 6336,
      "tSut": 6337,
      "tp": 6338,
      "sVs": 6339,
      "Ilum": 6340,
      "nISt": 6341,
      "tSuzIN": 6342,
      "tEtr": 6343,
      "powt": 6344,
      "skejlz": 6345,
      "bEnz": 6346,
      "usow": 6347,
      "##wO": 6348,
      "##Eskow": 6349,
      "idIkS": 6350,
      "hEtr": 6351,
      "ZAk": 6352,
      "bVsIz": 6353,
      "stup": 6354,
      "ejkTr": 6355,
      "ItSi": 6356,
      "dIdZEnr": 6357,
      "##stAr": 6358,
      "stowk": 6359,
      "gowlkipr": 6360,
      "kEnj": 6361,
      "Sejl": 6362,
      "lVd": 6363,
      "lIndwOl": 6364,
      "Sajn": 6365,
      "kVbz": 6366,
      "jum": 6367,
      "VktIv": 6368,
      "##wIg": 6369,
      "Insajt": 6370,
      "EniwEr": 6371,
      "##dZow": 6372,
      "gnowst": 6373,
      "##fildr": 6374,
      "bENgOl": 6375,
      "##jAm": 6376,
      "AnIks": 6377,
      "lImz": 6378,
      "##kowv": 6379,
      "SwOr": 6380,
      "ajvi": 6381,
      "Imb": 6382,
      "wundz": 6383,
      "fIkstSr": 6384,
      "Espr": 6385,
      "skwr": 6386,
      "spajk": 6387,
      "pUts": 6388,
      "gOl": 6389,
      "stVn": 6390,
      "tajdz": 6391,
      "ImbEr": 6392,
      "Iksplowd": 6393,
      "Elpi": 6394,
      "bAli": 6395,
      "nfajnd": 6396,
      "kz": 6397,
      "hEdlajn": 6398,
      "##Agow": 6399,
      "##ASi": 6400,
      "sajzr": 6401,
      "InpUt": 6402,
      "ejkdawn": 6403,
      "wUdn": 6404,
      "sajb": 6405,
      "kowlbr": 6406,
      "##klIf": 6407,
      "##ApsIs": 6408,
      "##nti": 6409,
      "##lajk": 6410,
      "gejbr": 6411,
      "skiIN": 6412,
      "iIS": 6413,
      "zIm": 6414,
      "dZEnINz": 6415,
      "lVntS": 6416,
      "##Om": 6417,
      "judZin": 6418,
      "Emploji": 6419,
      "hEktAr": 6420,
      "kwInt": 6421,
      "tSip": 6422,
      "wAnd": 6423,
      "nId": 6424,
      "InIksp": 6425,
      "lowm": 6426,
      "bAksIN": 6427,
      "spVNgbAb": 6428,
      "poj": 6429,
      "##nu": 6430,
      "usejdr": 6431,
      "lIps": 6432,
      "tEktIv": 6433,
      "Vpwr": 6434,
      "mejntejnz": 6435,
      "mVNki": 6436,
      "IksajtIN": 6437,
      "vAtr": 6438,
      "##Imtr": 6439,
      "lEktIvli": 6440,
      "ntEndr": 6441,
      "sEksi": 6442,
      "tApIks": 6443,
      "lVmb": 6444,
      "ful": 6445,
      "ndIk": 6446,
      "slipIN": 6447,
      "SAkt": 6448,
      "Iskejps": 6449,
      "fejk": 6450,
      "le": 6451,
      "vEktr": 6452,
      "niS": 6453,
      "blAnd": 6454,
      "bowm": 6455,
      "slowd": 6456,
      "dItS": 6457,
      "##ownr": 6458,
      "ajnd": 6459,
      "slAv": 6460,
      "Ipit": 6461,
      "hAg": 6462,
      "sIvIk": 6463,
      "##AsAki": 6464,
      "dIfits": 6465,
      "Eti": 6466,
      "siZr": 6467,
      "mIdl": 6468,
      "sEntImtr": 6469,
      "bwejn": 6470,
      "sVbdIv": 6471,
      "bawr": 6472,
      "InsEkt": 6473,
      "hApkInz": 6474,
      "mVmb": 6475,
      "tEt": 6476,
      "mInj": 6477,
      "ljud": 6478,
      "##lOr": 6479,
      "flEtSr": 6480,
      "dfr": 6481,
      "##pIt": 6482,
      "blejn": 6483,
      "dinz": 6484,
      "dIgn": 6485,
      "bEs": 6486,
      "ibOr": 6487,
      "gwej": 6488,
      "no": 6489,
      "hiT": 6490,
      "lowb": 6491,
      "wIlIs": 6492,
      "IndOr": 6493,
      "gAz": 6494,
      "ilajz": 6495,
      "Itni": 6496,
      "lEpr": 6497,
      "spilbr": 6498,
      "tIb": 6499,
      "zIz": 6500,
      "dZuejS": 6501,
      "nnejmd": 6502,
      "lOgz": 6503,
      "kVmbr": 6504,
      "sawTh": 6505,
      "dInawn": 6506,
      "IkwEsts": 6507,
      "vejtIv": 6508,
      "kEt": 6509,
      "kejl": 6510,
      "##gIt": 6511,
      "blejm": 6512,
      "IspEktId": 6513,
      "bajk": 6514,
      "InspEkS": 6515,
      "##mejt": 6516,
      "dAdZr": 6517,
      "InspEktr": 6518,
      "nowbIl": 6519,
      "dAd": 6520,
      "##lAk": 6521,
      "hitIN": 6522,
      "spOnd": 6523,
      "ini": 6524,
      "##bIt": 6525,
      "##Ekr": 6526,
      "duEt": 6527,
      "Sawt": 6528,
      "bojd": 6529,
      "TEft": 6530,
      "lajnVp": 6531,
      "Taj": 6532,
      "nsumd": 6533,
      "IflEkts": 6534,
      "IsidId": 6535,
      "nEd": 6536,
      "nkludz": 6537,
      "AptIk": 6538,
      "lVmnaj": 6539,
      "dApS": 6540,
      "vn": 6541,
      "awdz": 6542,
      "mawntId": 6543,
      "kAmbajn": 6544,
      "ANk": 6545,
      "TEt": 6546,
      "Suts": 6547,
      "EnlAr": 6548,
      "kIkt": 6549,
      "##fajn": 6550,
      "bdZEkt": 6551,
      "EdnOt": 6552,
      "fowli": 6553,
      "##howlm": 6554,
      "lEkts": 6555,
      "piejtS": 6556,
      "##owg": 6557,
      "hibr": 6558,
      "sidr": 6559,
      "kwIr": 6560,
      "lAks": 6561,
      "sVspEkt": 6562,
      "ikowsIst": 6563,
      "dZAnz": 6564,
      "tSivIN": 6565,
      "nkVvr": 6566,
      "##lAv": 6567,
      "lzbr": 6568,
      "slowvAki": 6569,
      "Tini": 6570,
      "vIv": 6571,
      "ejsr": 6572,
      "pItSIN": 6573,
      "sEgr": 6574,
      "did": 6575,
      "##ejlIN": 6576,
      "nEktr": 6577,
      "pajp": 6578,
      "hejg": 6579,
      "OINz": 6580,
      "EtSt": 6581,
      "VTr": 6582,
      "INg": 6583,
      "sVsIks": 6584,
      "dZEnd": 6585,
      "inr": 6586,
      "dvEnt": 6587,
      "sEtINz": 6588,
      "hOks": 6589,
      "##tSuEr": 6590,
      "fIsk": 6591,
      "##IfOr": 6592,
      "owbr": 6593,
      "##Embl": 6594,
      "sVmtajm": 6595,
      "nejdowz": 6596,
      "ifr": 6597,
      "gowlt": 6598,
      "suIN": 6599,
      "nejmli": 6600,
      "mIki": 6601,
      "Itli": 6602,
      "InsIp": 6603,
      "isajd": 6604,
      "glEkt": 6605,
      "##ONg": 6606,
      "##stEd": 6607,
      "sEndz": 6608,
      "gIfts": 6609,
      "skowS": 6610,
      "nowtr": 6611,
      "nkludIN": 6612,
      "vAn": 6613,
      "##mAnt": 6614,
      "hil": 6615,
      "hajlajts": 6616,
      "##iEr": 6617,
      "lik": 6618,
      "Enei": 6619,
      "IzajdId": 6620,
      "ItejnIN": 6621,
      "Olbi": 6622,
      "gIlz": 6623,
      "sawTbawnd": 6624,
      "NktSuEr": 6625,
      "sAb": 6626,
      "iunj": 6627,
      "mw": 6628,
      "VstId": 6629,
      "iIntr": 6630,
      "bajndIN": 6631,
      "##liIs": 6632,
      "pajk": 6633,
      "fowtowz": 6634,
      "bAlISt": 6635,
      "fejlz": 6636,
      "jEs": 6637,
      "lmejni": 6638,
      "##tSEr": 6639,
      "mjuzIkli": 6640,
      "gwAr": 6641,
      "pVnt": 6642,
      "ndsl": 6643,
      "sEmifajn": 6644,
      "smVg": 6645,
      "EstIN": 6646,
      "SEn": 6647,
      "vAs": 6648,
      "gowv": 6649,
      "ksEnt": 6650,
      "##Aku": 6651,
      "uZ": 6652,
      "izAlv": 6653,
      "EndIS": 6654,
      "vEndZ": 6655,
      "kut": 6656,
      "##Inski": 6657,
      "mEndId": 6658,
      "##iAl": 6659,
      "owdr": 6660,
      "powld": 6661,
      "slOtr": 6662,
      "Estlr": 6663,
      "ilej": 6664,
      "bid": 6665,
      "dIsist": 6666,
      "istajl": 6667,
      "Vstiz": 6668,
      "TlIks": 6669,
      "dZVdZd": 6670,
      "Sejn": 6671,
      "IptId": 6672,
      "NkAr": 6673,
      "dEkstr": 6674,
      "InflIktId": 6675,
      "fejTf": 6676,
      "sejfli": 6677,
      "zINk": 6678,
      "##IlIti": 6679,
      "siks": 6680,
      "lbi": 6681,
      "spAnt": 6682,
      "##IdZr": 6683,
      "kir": 6684,
      "bajsIk": 6685,
      "OlbiIt": 6686,
      "##INr": 6687,
      "ImIt": 6688,
      "ejlIN": 6689,
      "ndstown": 6690,
      "fjuzIN": 6691,
      "wIlm": 6692,
      "mplEks": 6693,
      "skApIk": 6694,
      "Sawr": 6695,
      "Emu_": 6696,
      "stIks": 6697,
      "ntIbAdi": 6698,
      "lejz": 6699,
      "ajzIz": 6700,
      "ust": 6701,
      "twInz": 6702,
      "stApIN": 6703,
      "kajvz": 6704,
      "##ajvi": 6705,
      "gIN": 6706,
      "##IptIk": 6707,
      "pv": 6708,
      "lejkr": 6709,
      "lIstIni": 6710,
      "dZojs": 6711,
      "IfEktIvn": 6712,
      "IndIvIdZu": 6713,
      "##biz": 6714,
      "VktId": 6715,
      "##dZIn": 6716,
      "bajl": 6717,
      "##mUr": 6718,
      "liAn": 6719,
      "wIntSEstr": 6720,
      "hVtS": 6721,
      "wItni": 6722,
      "EsIvli": 6723,
      "bmIS": 6724,
      "gt": 6725,
      "sajki": 6726,
      "lajthaws": 6727,
      "##VltIN": 6728,
      "imi": 6729,
      "fAg": 6730,
      "vojdIN": 6731,
      "ojdz": 6732,
      "TINks": 6733,
      "mjutejS": 6734,
      "hEbr": 6735,
      "pVlS": 6736,
      "skEpt": 6737,
      "nkAm": 6738,
      "hOlz": 6739,
      "lEnz": 6740,
      "wElmIN": 6741,
      "lIkt": 6742,
      "##Iljr": 6743,
      "mElt": 6744,
      "InIf": 6745,
      "mEdli": 6746,
      "Tk": 6747,
      "##gu": 6748,
      "owvz": 6749,
      "lEp": 6750,
      "kOk": 6751,
      "plVg": 6752,
      "sejbr": 6753,
      "fUlr": 6754,
      "ejtSajvi": 6755,
      "##ejsIv": 6756,
      "bojkAt": 6757,
      "ajkAn": 6758,
      "lip": 6759,
      "ivz": 6760,
      "lEvi": 6761,
      "suts": 6762,
      "nIsts": 6763,
      "EdZi": 6764,
      "mbowdi": 6765,
      "bwejnows": 6766,
      "SEf": 6767,
      "bh": 6768,
      "##Ikst": 6769,
      "nejT": 6770,
      "##lej": 6771,
      "Amb": 6772,
      "stOl": 6773,
      "##pAr": 6774,
      "klEvr": 6775,
      "luis": 6776,
      "dawnd": 6777,
      "hVmfr": 6778,
      "VnpAp": 6779,
      "Ngow": 6780,
      "sEnsejS": 6781,
      "hOfm": 6782,
      "VnpApj": 6783,
      "nIstIk": 6784,
      "mIlt": 6785,
      "##awntId": 6786,
      "nvej": 6787,
      "sVmpS": 6788,
      "ists": 6789,
      "##Aksajd": 6790,
      "dIpEndz": 6791,
      "bul": 6792,
      "sejvz": 6793,
      "hjugow": 6794,
      "dIktejtr": 6795,
      "AsIkjutr": 6796,
      "nwajd": 6797,
      "mus": 6798,
      "lIzr": 6799,
      "mitir": 6800,
      "Vbz": 6801,
      "dZEkS": 6802,
      "mzi": 6803,
      "##Adow": 6804,
      "nvInsIN": 6805,
      "gaw": 6806,
      "ntiz": 6807,
      "ksEptIN": 6808,
      "ItIsajzIN": 6809,
      "TAn": 6810,
      "InEv": 6811,
      "Izajn": 6812,
      "klajn": 6813,
      "nigr": 6814,
      "mItiz": 6815,
      "dZowh": 6816,
      "mVmbaj": 6817,
      "gEs": 6818,
      "nowtOr": 6819,
      "dIspEr": 6820,
      "bjuts": 6821,
      "kAlig": 6822,
      "nIgowSi": 6823,
      "ndInejvi": 6824,
      "##wOld": 6825,
      "Eps": 6826,
      "kmej": 6827,
      "sVbt": 6828,
      "IspAnsIz": 6829,
      "tOkt": 6830,
      "wEnEvr": 6831,
      "dIvowS": 6832,
      "iEntejS": 6833,
      "EmIksIz": 6834,
      "##ANg": 6835,
      "##IlIn": 6836,
      "##AN": 6837,
      "##Elt": 6838,
      "mbIgju": 6839,
      "nfl": 6840,
      "nhAr": 6841,
      "bVst": 6842,
      "sajkow": 6843,
      "Ngli": 6844,
      "AgzIljr": 6845,
      "fOn": 6846,
      "nAgr": 6847,
      "slowps": 6848,
      "lAts": 6849,
      "bEdz": 6850,
      "iplej": 6851,
      "sejt": 6852,
      "tbr": 6853,
      "u_": 6854,
      "##Apt": 6855,
      "likt": 6856,
      "INks": 6857,
      "bIbl": 6858,
      "towp": 6859,
      "vejd": 6860,
      "dZEni": 6861,
      "bEts": 6862,
      "sIblINz": 6863,
      "df": 6864,
      "gun": 6865,
      "ntEnS": 6866,
      "kAgn": 6867,
      "kAmpt": 6868,
      "bowd": 6869,
      "pejst": 6870,
      "owmIt": 6871,
      "gIlt": 6872,
      "Ele": 6873,
      "iInst": 6874,
      "iunajtId": 6875,
      "dIsplejsm": 6876,
      "Tjuz": 6877,
      "Vnf": 6878,
      "iows": 6879,
      "uk": 6880,
      "ntOr": 6881,
      "Espn": 6882,
      "Tistwr": 6883,
      "IkspEld": 6884,
      "dVks": 6885,
      "awtlEts": 6886,
      "hItS": 6887,
      "##Alvz": 6888,
      "idZEnr": 6889,
      "ajmtajm": 6890,
      "lowpEz": 6891,
      "hIndr": 6892,
      "slejtr": 6893,
      "##bu": 6894,
      "ibIldIN": 6895,
      "Sw": 6896,
      "ii": 6897,
      "flejm": 6898,
      "lINkIN": 6899,
      "mbj": 6900,
      "pEld": 6901,
      "IdZEkS": 6902,
      "dIfIS": 6903,
      "lVki": 6904,
      "najtmEr": 6905,
      "ipVl": 6906,
      "lOntSIN": 6907,
      "flowIN": 6908,
      "nwIlIN": 6909,
      "tSej": 6910,
      "##sowni": 6911,
      "owtEstr": 6912,
      "ejmIN": 6913,
      "bIsajd": 6914,
      "kAnvojz": 6915,
      "ajdiAl": 6916,
      "igow": 6917,
      "sVmbAdi": 6918,
      "lIndzi": 6919,
      "dZASu": 6920,
      "##dZAn": 6921,
      "dajnIN": 6922,
      "hEmIN": 6923,
      "Alt": 6924,
      "dIfIn": 6925,
      "dZio_": 6926,
      "lajvstAk": 6927,
      "tOnt": 6928,
      "na": 6929,
      "bVz": 6930,
      "wajts": 6931,
      "ajkAnIk": 6932,
      "idZojnd": 6933,
      "##ndZaj": 6934,
      "istAr": 6935,
      "sElj": 6936,
      "bOlk": 6937,
      "fowl": 6938,
      "pInd": 6939,
      "stejp": 6940,
      "fIzIs": 6941,
      "iu": 6942,
      "dZOz": 6943,
      "AspEr": 6944,
      "dieEm": 6945,
      "##Dz": 6946,
      "ndajz": 6947,
      "##sowvr": 6948,
      "wilz": 6949,
      "AtIk": 6950,
      "Igejn": 6951,
      "ndmVDr": 6952,
      "nhajmr": 6953,
      "dIfInItIv": 6954,
      "ltr": 6955,
      "tejtIN": 6956,
      "##stOr": 6957,
      "spItfajr": 6958,
      "kstr": 6959,
      "##wIt": 6960,
      "InfIr": 6961,
      "##InT": 6962,
      "hp": 6963,
      "sIpi": 6964,
      "vAli": 6965,
      "tSAk": 6966,
      "bIfr": 6967,
      "kINst": 6968,
      "ejnbow": 6969,
      "ejtinT": 6970,
      "bvr": 6971,
      "mowlt": 6972,
      "nAtr": 6973,
      "dZudi": 6974,
      "lajb": 6975,
      "IntEr": 6976,
      "pidi": 6977,
      "bAg": 6978,
      "nejp": 6979,
      "kfAr": 6980,
      "SV": 6981,
      "tsu": 6982,
      "pEnS": 6983,
      "sEkt": 6984,
      "##mejkr": 6985,
      "Inawnd": 6986,
      "dIlit": 6987,
      "##Impi": 6988,
      "nowlz": 6989,
      "sOdi": 6990,
      "howtElz": 6991,
      "sajbr": 6992,
      "mpowzIN": 6993,
      "kUkIN": 6994,
      "dZEstSr": 6995,
      "##EdId": 6996,
      "ziIi": 6997,
      "EsTEtIk": 6998,
      "vIgr": 6999,
      "stIn": 7000,
      "InfIl": 7001,
      "dIklajnIN": 7002,
      "Izm": 7003,
      "nO": 7004,
      "bajz": 7005,
      "nawnsIN": 7006,
      "##lON": 7007,
      "fIlIp": 7008,
      "dINli": 7009,
      "hEz": 7010,
      "IkspOr": 7011,
      "mejkVp": 7012,
      "fildIN": 7013,
      "sus": 7014,
      "bVd": 7015,
      "hIlr": 7016,
      "wajvz": 7017,
      "najf": 7018,
      "dowvr": 7019,
      "vu": 7020,
      "lAtr": 7021,
      "gU": 7022,
      "towz": 7023,
      "nsk": 7024,
      "fejd": 7025,
      "owkej": 7026,
      "sItkAm": 7027,
      "kOS": 7028,
      "sVni": 7029,
      "flAZ": 7030,
      "stui": 7031,
      "powstpow": 7032,
      "nEstIN": 7033,
      "powstpownd": 7034,
      "Elu": 7035,
      "ndwItS": 7036,
      "##jum": 7037,
      "powEtIk": 7038,
      "dZowkr": 7039,
      "oEn": 7040,
      "bajIN": 7041,
      "howmtawn": 7042,
      "IksidIN": 7043,
      "bdZEktId": 7044,
      "nEptun": 7045,
      "njub": 7046,
      "tSit": 7047,
      "Emj": 7048,
      "ejdZd": 7049,
      "dajl": 7050,
      "skajl": 7051,
      "lAgr": 7052,
      "bElz": 7053,
      "ntInjuejS": 7054,
      "Og": 7055,
      "gIg": 7056,
      "##sIk": 7057,
      "##al": 7058,
      "ljuejt": 7059,
      "liT": 7060,
      "##AlAdZIk": 7061,
      "jowg": 7062,
      "iSiejS": 7063,
      "gowltEndr": 7064,
      "bAni": 7065,
      "blAg": 7066,
      "biINz": 7067,
      "stilz": 7068,
      "nEvIl": 7069,
      "pajpl": 7070,
      "Enzajm": 7071,
      "mintajm": 7072,
      "AS": 7073,
      "Idr": 7074,
      "lAfi": 7075,
      "wajg": 7076,
      "dIskAr": 7077,
      "Iktli": 7078,
      "dZejmi": 7079,
      "tajmIN": 7080,
      "kU": 7081,
      "flajr": 7082,
      "lOdId": 7083,
      "gug": 7084,
      "iDIN": 7085,
      "tjUr": 7086,
      "lsEks": 7087,
      "stIf": 7088,
      "Ofspr": 7089,
      "smajl": 7090,
      "sVlfr": 7091,
      "fudz": 7092,
      "sIts": 7093,
      "Esr": 7094,
      "mawntIN": 7095,
      "##owmiz": 7096,
      "fidb": 7097,
      "blr": 7098,
      "wild": 7099,
      "pir": 7100,
      "dmIts": 7101,
      "nwA": 7102,
      "sumIN": 7103,
      "spAntejni": 7104,
      "fVndr": 7105,
      "dZEsIk": 7106,
      "ntid": 7107,
      "Nd": 7108,
      "{@": 7109,
      "lAfiEt": 7110,
      "hInt": 7111,
      "hItr": 7112,
      "EmIs": 7113,
      "kajndz": 7114,
      "hVm": 7115,
      "##wejl": 7116,
      "lid": 7117,
      "klOd": 7118,
      "lEvr": 7119,
      "fUtbOlr": 7120,
      "TIs": 7121,
      "pid": 7122,
      "Ilajz": 7123,
      "sul": 7124,
      "kejvz": 7125,
      "##ejIk": 7126,
      "dZEtIk": 7127,
      "##IliejS": 7128,
      "slowp": 7129,
      "kulr": 7130,
      "vItejS": 7131,
      "zAm": 7132,
      "##vejni": 7133,
      "##utSi": 7134,
      "nsejt": 7135,
      "smEl": 7136,
      "piks": 7137,
      "kAmplISm": 7138,
      "fItn": 7139,
      "awtlajn": 7140,
      "IkspEnd": 7141,
      "AtSEstr": 7142,
      "fwej": 7143,
      "wAsp": 7144,
      "nzfild": 7145,
      "##ksi": 7146,
      "flEkS": 7147,
      "upt": 7148,
      "kowlt": 7149,
      "hajejt": 7150,
      "skIld": 7151,
      "nOl": 7152,
      "##Ij": 7153,
      "mAhr": 7154,
      "Sildz": 7155,
      "nin": 7156,
      "EdItId": 7157,
      "owlm": 7158,
      "lIndr": 7159,
      "kVltIv": 7160,
      "##Imi": 7161,
      "dZajn": 7162,
      "Indust": 7163,
      "Insajkl": 7164,
      "##Vkn": 7165,
      "kInz": 7166,
      "lONd": 7167,
      "ejmwr": 7168,
      "lElz": 7169,
      "SAkIr": 7170,
      "glOstr": 7171,
      "##dZEn": 7172,
      "##ElIk": 7173,
      "bivr": 7174,
      "bIldr": 7175,
      "dZub": 7176,
      "nnEs": 7177,
      "sni": 7178,
      "##stAf": 7179,
      "mAnsun": 7180,
      "##juvr": 7181,
      "Nkw": 7182,
      "buts": 7183,
      "Suz": 7184,
      "##up": 7185,
      "IntEnsIv": 7186,
      "Indajt": 7187,
      "dVkowv": 7188,
      "idej": 7189,
      "dVkowvni": 7190,
      "Ild": 7191,
      "jAk": 7192,
      "zv": 7193,
      "zumd": 7194,
      "Enklowzd": 7195,
      "dIfajnIN": 7196,
      "dIskwAl": 7197,
      "Odli": 7198,
      "hVmb": 7199,
      "sAt": 7200,
      "zEl": 7201,
      "sowlz": 7202,
      "spiks": 7203,
      "lVvIN": 7204,
      "Aspr": 7205,
      "mAkt": 7206,
      "fVndZaj": 7207,
      "lidZIt": 7208,
      "VnkAnS": 7209,
      "townz": 7210,
      "##2r": 7211,
      "kAg": 7212,
      "##ajdId": 7213,
      "hjumOr": 7214,
      "hIg": 7215,
      "##Ild": 7216,
      "Imz": 7217,
      "hIndi": 7218,
      "##VNkt": 7219,
      "lAb": 7220,
      "Impawr": 7221,
      "owsOr": 7222,
      "kojnIdZ": 7223,
      "iejtId": 7224,
      "ejti": 7225,
      "guld": 7226,
      "vejkejS": 7227,
      "kawr": 7228,
      "dElIk": 7229,
      "##klEr": 7230,
      "owti": 7231,
      "twAr": 7232,
      "Odsajd": 7233,
      "dEdlajn": 7234,
      "luivIl": 7235,
      "lVmbr": 7236,
      "ndejtId": 7237,
      "bajnr": 7238,
      "EstSu": 7239,
      "IkskludIN": 7240,
      "taw": 7241,
      "fElr": 7242,
      "kajv": 7243,
      "lAmbAr": 7244,
      "vOlt": 7245,
      "lowt": 7246,
      "EdIS": 7247,
      "tEktr": 7248,
      "mbajnIN": 7249,
      "lEksINt": 7250,
      "awtfIt": 7251,
      "Ih": 7252,
      "Sk": 7253,
      "mowlr": 7254,
      "vit": 7255,
      "bVkIN": 7256,
      "kAzm": 7257,
      "lVgZr": 7258,
      "##Eh": 7259,
      "Inawn": 7260,
      "divi": 7261,
      "kowtSt": 7262,
      "mAf": 7263,
      "dawnlow": 7264,
      "glow": 7265,
      "dZImn": 7266,
      "##mEnt": 7267,
      "kAnIN": 7268,
      "gowt": 7269,
      "Afaj": 7270,
      "tajzm": 7271,
      "mIgEl": 7272,
      "stIkli": 7273,
      "dIfajn": 7274,
      "nEtIks": 7275,
      "usejd": 7276,
      "zEld": 7277,
      "idIvEl": 7278,
      "nsidId": 7279,
      "hejstINz": 7280,
      "InfIltr": 7281,
      "pVb": 7282,
      "owIk": 7283,
      "VnzwIk": 7284,
      "mpVl": 7285,
      "lajr": 7286,
      "skimz": 7287,
      "wejts": 7288,
      "spu": 7289,
      "fIlIN": 7290,
      "awtwr": 7291,
      "dImInISt": 7292,
      "lAnsow": 7293,
      "IluZ": 7294,
      "ojlr": 7295,
      "IklIps": 7296,
      "AfajEl": 7297,
      "dajAksajd": 7298,
      "tAS": 7299,
      "##IndZr": 7300,
      "dIvajzd": 7301,
      "nfEr": 7302,
      "dAdZ": 7303,
      "##dVb": 7304,
      "staj": 7305,
      "dAgIt": 7306,
      "gON": 7307,
      "gVt": 7308,
      "tjAr": 7309,
      "lajks": 7310,
      "sInApsIs": 7311,
      "Iliv": 7312,
      "kmIl": 7313,
      "nejtIvz": 7314,
      "klOT": 7315,
      "jejl": 7316,
      "##bt": 7317,
      "dIsAr": 7318,
      "##izi": 7319,
      "twajl": 7320,
      "lIsejS": 7321,
      "ndawt": 7322,
      "skVlptr": 7323,
      "ejps": 7324,
      "ejdZIN": 7325,
      "nEli": 7326,
      "TAr": 7327,
      "##juzd": 7328,
      "stAkhowlm": 7329,
      "mownt": 7330,
      "pUlIN": 7331,
      "sowsiAl": 7332,
      "dItEkS": 7333,
      "ntSEr": 7334,
      "##bEk": 7335,
      "vajkIN": 7336,
      "tVtSt": 7337,
      "twajlajt": 7338,
      "tojz": 7339,
      "flEdZ": 7340,
      "Esti": 7341,
      "mIsk": 7342,
      "dowd": 7343,
      "dZuliEt": 7344,
      "ajow": 7345,
      "Izbejn": 7346,
      "##Isi": 7347,
      "##Nkow": 7348,
      "stimr": 7349,
      "IdIT": 7350,
      "wUstr": 7351,
      "gwEn": 7352,
      "fownz": 7353,
      "gb": 7354,
      "nvi": 7355,
      "##ajtr": 7356,
      "Tis": 7357,
      "ejnts": 7358,
      "sejb": 7359,
      "vil": 7360,
      "owfawnd": 7361,
      "hEks": 7362,
      "zt": 7363,
      "sild": 7364,
      "nIki": 7365,
      "mowbil": 7366,
      "kIp": 7367,
      "lownz": 7368,
      "Anst": 7369,
      "tumz": 7370,
      "ntIkw": 7371,
      "numEr": 7372,
      "Obr": 7373,
      "Avi": 7374,
      "kejk": 7375,
      "##Zu": 7376,
      "IpIsk": 7377,
      "wInst": 7378,
      "AnsEt": 7379,
      "sitIN": 7380,
      "sVmwEr": 7381,
      "sinIk": 7382,
      "##ESr": 7383,
      "##jAn": 7384,
      "wivr": 7385,
      "##lud": 7386,
      "mows": 7387,
      "sEptr": 7388,
      "nItSr": 7389,
      "dZEZu": 7390,
      "vs": 7391,
      "##dZEr": 7392,
      "IzEmbl": 7393,
      "Vsk": 7394,
      "EntSIz": 7395,
      "simOr": 7396,
      "iIt": 7397,
      "##Ast": 7398,
      "vIt": 7399,
      "ikOl": 7400,
      "bsr": 7401,
      "dIsks": 7402,
      "bIzAnt": 7403,
      "dEstr": 7404,
      "pur": 7405,
      "Etow": 7406,
      "nfjuz": 7407,
      "nojr": 7408,
      "##ugV": 7409,
      "tSow": 7410,
      "ajnstajn": 7411,
      "Dz": 7412,
      "idm": 7413,
      "istbawnd": 7414,
      "##Anti": 7415,
      "iAtIk": 7416,
      "tEnr": 7417,
      "##jutIN": 7418,
      "##Idz": 7419,
      "InkVmb": 7420,
      "kowbr": 7421,
      "wEstbawnd": 7422,
      "dawnz": 7423,
      "dIplowm": 7424,
      "howzej": 7425,
      "pIgm": 7426,
      "tItS": 7427,
      "fejS": 7428,
      "ggr": 7429,
      "najl": 7430,
      "klIps": 7431,
      "ktIS": 7432,
      "sVbwej": 7433,
      "InflejS": 7434,
      "dSIp": 7435,
      "awl": 7436,
      "klajd": 7437,
      "itElIN": 7438,
      "TiAl": 7439,
      "stejks": 7440,
      "dEmIks": 7441,
      "hajnr": 7442,
      "mEntOr": 7443,
      "powzIz": 7444,
      "la": 7445,
      "npl": 7446,
      "thaws": 7447,
      "dir": 7448,
      "bjuk": 7449,
      "gVm": 7450,
      "##stownz": 7451,
      "kSAp": 7452,
      "klajmd": 7453,
      "mowbIl": 7454,
      "psi": 7455,
      "hejld": 7456,
      "Iw": 7457,
      "fEnd": 7458,
      "aju": 7459,
      "Ofs": 7460,
      "wIsd": 7461,
      "EsIdEntId": 7462,
      "gOg": 7463,
      "pEmbr": 7464,
      "tEs": 7465,
      "silz": 7466,
      "lejsi": 7467,
      "hAnd": 7468,
      "vEnIz": 7469,
      "Iplaj": 7470,
      "howkiz": 7471,
      "hEmINwej": 7472,
      "EstSuEr": 7473,
      "dIsIn": 7474,
      "powk": 7475,
      "pIkAr": 7476,
      "swip": 7477,
      "Osowvr": 7478,
      "pejz": 7479,
      "sOs": 7480,
      "howstIN": 7481,
      "bejS": 7482,
      "##haw": 7483,
      "Agw": 7484,
      "sEld": 7485,
      "##plojm": 7486,
      "fItId": 7487,
      "ETIks": 7488,
      "mojstSr": 7489,
      "bnOr": 7490,
      "gAb": 7491,
      "nejl": 7492,
      "kit": 7493,
      "VndIf": 7494,
      "ug": 7495,
      "ntAt": 7496,
      "mplejnt": 7497,
      "wowl": 7498,
      "zAgr": 7499,
      "owlImpi": 7500,
      "mAnti": 7501,
      "dZojntli": 7502,
      "vEnIzwejl": 7503,
      "kANgow": 7504,
      "tIg": 7505,
      "zdi": 7506,
      "Esejz": 7507,
      "kowb": 7508,
      "dZowi": 7509,
      "bawts": 7510,
      "mgm": 7511,
      "sVbstr": 7512,
      "dIzajnIN": 7513,
      "IkstSejndZd": 7514,
      "Iklizi": 7515,
      "##or": 7516,
      "ksEpts": 7517,
      "sVbk": 7518,
      "Asbr": 7519,
      "IkwAl": 7520,
      "Sejps": 7521,
      "plAts": 7522,
      "##Eki": 7523,
      "gejb": 7524,
      "nfEs": 7525,
      "lownli": 7526,
      "VnImplojm": 7527,
      "sajzIN": 7528,
      "pajIN": 7529,
      "mfl": 7530,
      "hejti": 7531,
      "slejr": 7532,
      "##ojdz": 7533,
      "ImEns": 7534,
      "vowg": 7535,
      "gwAm": 7536,
      "dkOr": 7537,
      "fOk": 7538,
      "mpAz": 7539,
      "gowd": 7540,
      "stilIN": 7541,
      "sawndIN": 7542,
      "##hawsIz": 7543,
      "nojuvr": 7544,
      "Elu_": 7545,
      "bEns": 7546,
      "dejlajt": 7547,
      "smaj": 7548,
      "wEtl": 7549,
      "@{": 7550,
      "##Sajn": 7551,
      "blAkIN": 7552,
      "bIzAntinz": 7553,
      "nIndZ": 7554,
      "bIdZ": 7555,
      "pilIN": 7556,
      "nejz": 7557,
      "owldz": 7558,
      "nstejb": 7559,
      "powstIN": 7560,
      "wImb": 7561,
      "mEltIN": 7562,
      "db": 7563,
      "IntIm": 7564,
      "fist": 7565,
      "Indus": 7566,
      "bVm": 7567,
      "lpr": 7568,
      "##INkt": 7569,
      "sET": 7570,
      "lONtajm": 7571,
      "mAz": 7572,
      "slEndr": 7573,
      "ptIz": 7574,
      "kEmp": 7575,
      "Ozbi": 7576,
      "Ai": 7577,
      "tju": 7578,
      "ndownr": 7579,
      "dIskOr": 7580,
      "sejk": 7581,
      "InId": 7582,
      "ejmr": 7583,
      "kwEr": 7584,
      "sajpr": 7585,
      "bejz": 7586,
      "btejnIN": 7587,
      "ntIliz": 7588,
      "##ajtIN": 7589,
      "nEts": 7590,
      "mItIN": 7591,
      "mejts": 7592,
      "EndEmIk": 7593,
      "wIldr": 7594,
      "lajps": 7595,
      "sEnts": 7596,
      "kwAtIk": 7597,
      "EstIdZ": 7598,
      "sg": 7599,
      "##sl": 7600,
      "tElugV": 7601,
      "wEbstr": 7602,
      "mowtif": 7603,
      "vk": 7604,
      "Ilejt": 7605,
      "tSik": 7606,
      "lEksi": 7607,
      "Ilow": 7608,
      "filIks": 7609,
      "ndfUl": 7610,
      "IntImId": 7611,
      "Ekf": 7612,
      "gIbz": 7613,
      "Sejd": 7614,
      "bowz": 7615,
      "##uow": 7616,
      "ajtS": 7617,
      "lAdIk": 7618,
      "##ajc": 7619,
      "Nkfr": 7620,
      "te": 7621,
      "##powl": 7622,
      "dIsEm": 7623,
      "##owmIN": 7624,
      "gowvin": 7625,
      "ISuIN": 7626,
      "EnvIZ": 7627,
      "##ejZ": 7628,
      "wIp": 7629,
      "##awdr": 7630,
      "vajvz": 7631,
      "hk": 7632,
      "Ikow": 7633,
      "mpejnd": 7634,
      "dawnwr": 7635,
      "ntejnr": 7636,
      "ugr": 7637,
      "ejdAlf": 7638,
      "lajtli": 7639,
      "mEsi": 7640,
      "IVkn": 7641,
      "klawn": 7642,
      "ikOlz": 7643,
      "kIdni": 7644,
      "sAfmOr": 7645,
      "nEn": 7646,
      "##nVt": 7647,
      "##Imbr": 7648,
      "IfIk": 7649,
      "ntIdZIz": 7650,
      "tajIN": 7651,
      "stVd": 7652,
      "pEni": 7653,
      "ilajzIN": 7654,
      "##Ah": 7655,
      "##wI": 7656,
      "sVbpl": 7657,
      "swImr": 7658,
      "klown": 7659,
      "IntEgr": 7660,
      "mIli": 7661,
      "blVnt": 7662,
      "mIdSIps": 7663,
      "towkin": 7664,
      "mEnju": 7665,
      "dawnstr": 7666,
      "bUkr": 7667,
      "kumAr": 7668,
      "kAnsowlz": 7669,
      "Enzajmz": 7670,
      "hVtSIns": 7671,
      "TVm": 7672,
      "##Nr": 7673,
      "dO": 7674,
      "##wIl": 7675,
      "dZajzd": 7676,
      "Isks": 7677,
      "glV": 7678,
      "nsmItId": 7679,
      "lusli": 7680,
      "wIts": 7681,
      "Amptli": 7682,
      "sVbdIvIZ": 7683,
      "kwAtr": 7684,
      "tejps": 7685,
      "vVltSr": 7686,
      "bp": 7687,
      "klIN": 7688,
      "flIn": 7689,
      "##ndZi": 7690,
      "najzr": 7691,
      "wEmb": 7692,
      "dZAk": 7693,
      "mjutr": 7694,
      "gUdm": 7695,
      "udi": 7696,
      "##hOf": 7697,
      "dZIr": 7698,
      "##Isr": 7699,
      "plVm": 7700,
      "##howldr": 7701,
      "ImowSn": 7702,
      "gejlIk": 7703,
      "vIks": 7704,
      "hajfi": 7705,
      "dIfl": 7706,
      "Ekowd": 7707,
      "nIkr": 7708,
      "wUdi": 7709,
      "dInOm": 7710,
      "Ibjuts": 7711,
      "swr": 7712,
      "##juZ": 7713,
      "sidIN": 7714,
      "mpElIN": 7715,
      "hAdZ": 7716,
      "pItSfOr": 7717,
      "dojtS": 7718,
      "wEmbli": 7719,
      "zIi": 7720,
      "##stAp": 7721,
      "hus": 7722,
      "vowkt": 7723,
      "SIfts": 7724,
      "dON": 7725,
      "gni": 7726,
      "hIpr": 7727,
      "ustS": 7728,
      "Itv": 7729,
      "hilIN": 7730,
      "##din": 7731,
      "IvEr": 7732,
      "sInklEr": 7733,
      "ustSEv": 7734,
      "##fowld": 7735,
      "klEl": 7736,
      "wejIN": 7737,
      "hEdZ": 7738,
      "sVnsEt": 7739,
      "##eti": 7740,
      "dVtSi": 7741,
      "bIsidZd": 7742,
      "ibr": 7743,
      "dIskl": 7744,
      "ndAr": 7745,
      "luZ": 7746,
      "Elo": 7747,
      "wajowmIN": 7748,
      "kejsi": 7749,
      "wUlvz": 7750,
      "awtflow": 7751,
      "dlr": 7752,
      "awtpow": 7753,
      "imr": 7754,
      "dEnts": 7755,
      "##Avr": 7756,
      "ndAlf": 7757,
      "hVf": 7758,
      "vElv": 7759,
      "##odVb": 7760,
      "IzEnt": 7761,
      "lEZr": 7762,
      "fowklOr": 7763,
      "lajpsIg": 7764,
      "zIn": 7765,
      "##TOr": 7766,
      "stO": 7767,
      "stIpj": 7768,
      "dIsl": 7769,
      "IntId": 7770,
      "kowli": 7771,
      "mejtowz": 7772,
      "pAzItId": 7773,
      "##ejow": 7774,
      "plOz": 7775,
      "dIfaj": 7776,
      "hejm": 7777,
      "blidIN": 7778,
      "IzajdIN": 7779,
      "nvind": 7780,
      "##wejdr": 7781,
      "bVlkhEd": 7782,
      "sVspEkts": 7783,
      "zImbAb": 7784,
      "##bUks": 7785,
      "gVnfajr": 7786,
      "mik": 7787,
      "Insejn": 7788,
      "majndz": 7789,
      "dZmA": 7790,
      "mItsu": 7791,
      "pajplajn": 7792,
      "Nhaj": 7793,
      "gO": 7794,
      "Vpstr": 7795,
      "owpi": 7796,
      "nejlz": 7797,
      "EsIz": 7798,
      "tSOkl": 7799,
      "##awndId": 7800,
      "fejnt": 7801,
      "wOlS": 7802,
      "bIlONz": 7803,
      "nbit": 7804,
      "tutr": 7805,
      "Tif": 7806,
      "gnIf": 7807,
      "hv": 7808,
      "bif": 7809,
      "klIft": 7810,
      "gowldm": 7811,
      "kOfIn": 7812,
      "dawnlowdz": 7813,
      "Ati": 7814,
      "bks": 7815,
      "utr": 7816,
      "plUr": 7817,
      "EnSi": 7818,
      "titSINz": 7819,
      "ksejS": 7820,
      "flInt": 7821,
      "dejvIds": 7822,
      "klInIk": 7823,
      "kowni": 7824,
      "EksItr": 7825,
      "IgzAtIk": 7826,
      "hAs": 7827,
      "SmIt": 7828,
      "SIm": 7829,
      "glejdz": 7830,
      "pojn": 7831,
      "##hOl": 7832,
      "##IdEnt": 7833,
      "Ilz": 7834,
      "mEntow": 7835,
      "awtskr": 7836,
      "fEndr": 7837,
      "livr": 7838,
      "powstsis": 7839,
      "lajdId": 7840,
      "ajfown": 7841,
      "vISnu": 7842,
      "tSin": 7843,
      "##owkAndr": 7844,
      "lgbt": 7845,
      "kAkpIt": 7846,
      "Nzaj": 7847,
      "splIts": 7848,
      "OS": 7849,
      "bIlItejS": 7850,
      "InsEpS": 7851,
      "bejsIkli": 7852,
      "gVnp": 7853,
      "ntSejndZ": 7854,
      "mIzr": 7855,
      "tVls": 7856,
      "gajl": 7857,
      "sawr": 7858,
      "wOt": 7859,
      "##spejs": 7860,
      "dEbr": 7861,
      "tIps": 7862,
      "sAlfr": 7863,
      "IkspEktIN": 7864,
      "##stownkr": 7865,
      "wAlstownkr": 7866,
      "gVnpawdr": 7867,
      "TOl": 7868,
      "mownz": 7869,
      "blejdz": 7870,
      "iskr": 7871,
      "nvEks": 7872,
      "nAtsiz": 7873,
      "vVlk": 7874,
      "EstiZ": 7875,
      "##Ikow": 7876,
      "nzb": 7877,
      "##ESwejdr": 7878,
      "nEbj": 7879,
      "sIndi": 7880,
      "kES": 7881,
      "lini": 7882,
      "zp": 7883,
      "dif": 7884,
      "kOli": 7885,
      "pVls": 7886,
      "vE": 7887,
      "ajps": 7888,
      "skejtIN": 7889,
      "##Akj": 7890,
      "Insud": 7891,
      "nmi": 7892,
      "mIstejks": 7893,
      "hejnz": 7894,
      "##AT": 7895,
      "##wAtr": 7896,
      "nfInISt": 7897,
      "bAmbej": 7898,
      "InhIr": 7899,
      "sIkstinT": 7900,
      "lInz": 7901,
      "pVk": 7902,
      "##bIk": 7903,
      "dIfOr": 7904,
      "tudr": 7905,
      "ktow": 7906,
      "lmIn": 7907,
      "powlow": 7908,
      "##bul": 7909,
      "vitow": 7910,
      "ltow": 7911,
      "ONhowld": 7912,
      "kawnsIlr": 7913,
      "nklusIv": 7914,
      "fVmb": 7915,
      "tejm": 7916,
      "Esa": 7917,
      "EtejS": 7918,
      "nhejg": 7919,
      "itejlr": 7920,
      "sVlf": 7921,
      "Iku": 7922,
      "wEnzdi": 7923,
      "gUdbaj": 7924,
      "najdZIr": 7925,
      "bownow": 7926,
      "IDmIk": 7927,
      "isis": 7928,
      "sU": 7929,
      "awtn": 7930,
      "kejdi": 7931,
      "bUld": 7932,
      "bowlS": 7933,
      "EsejtSo": 7934,
      "kVltIvejS": 7935,
      "kIns": 7936,
      "nIp": 7937,
      "nejgr": 7938,
      "tOlIst": 7939,
      "hejd": 7940,
      "dZtawn": 7941,
      "spajs": 7942,
      "mIdfildr": 7943,
      "ntinT": 7944,
      "VnIkspEktIdli": 7945,
      "hIk": 7946,
      "uzIN": 7947,
      "ajAk": 7948,
      "nowEl": 7949,
      "##ONgejt": 7950,
      "wikr": 7951,
      "klIfs": 7952,
      "INr": 7953,
      "kowdz": 7954,
      "spowksm": 7955,
      "##su": 7956,
      "inl": 7957,
      "IpIN": 7958,
      "Amz": 7959,
      "EtSIN": 7960,
      "owsr": 7961,
      "tSApr": 7962,
      "itiz": 7963,
      "Indow": 7964,
      "##liS": 7965,
      "##Izr": 7966,
      "sowdi": 7967,
      "lawndZ": 7968,
      "dANk": 7969,
      "kojnd": 7970,
      "VNklajn": 7971,
      "awtnVmbr": 7972,
      "lEnd": 7973,
      "sEktIN": 7974,
      "EmIkst": 7975,
      "##owzIz": 7976,
      "sup": 7977,
      "hEDr": 7978,
      "mItowkAndr": 7979,
      "ktSu": 7980,
      "dAkjAr": 7981,
      "Enlajt": 7982,
      "nsVltIN": 7983,
      "hajz": 7984,
      "owlIfIk": 7985,
      "fw": 7986,
      "##IDr": 7987,
      "InvIns": 7988,
      "fEld": 7989,
      "mAntr": 7990,
      "bjun": 7991,
      "mAtow": 7992,
      "##Aldi": 7993,
      "iwr": 7994,
      "pOz": 7995,
      "##gIv": 7996,
      "##Eps": 7997,
      "##uZ": 7998,
      "##AmIk": 7999,
      "sINkr": 8000,
      "ifju": 8001,
      "lifs": 8002,
      "##EtItIv": 8003,
      "mVstr": 8004,
      "bAhA": 8005,
      "hEdr": 8006,
      "lAdZIkli": 8007,
      "tIt": 8008,
      "Ednts": 8009,
      "##Igni": 8010,
      "IpEtItIv": 8011,
      "bIzmAr": 8012,
      "bAlIk": 8013,
      "InIkspIr": 8014,
      "iEl": 8015,
      "dZIli": 8016,
      "dIsEpS": 8017,
      "IksplowsIvz": 8018,
      "pIv": 8019,
      "litS": 8020,
      "gnejtId": 8021,
      "hejtr": 8022,
      "##bowts": 8023,
      "kulIN": 8024,
      "hIlt": 8025,
      "fliIN": 8026,
      "dZVmpt": 8027,
      "sawV": 8028,
      "##wOki": 8029,
      "SIftIN": 8030,
      "dawts": 8031,
      "ivIz": 8032,
      "Igzr": 8033,
      "kIlINz": 8034,
      "wITst": 8035,
      "slowg": 8036,
      "pejnf": 8037,
      "fIs": 8038,
      "vAnt": 8039,
      "tiEn": 8040,
      "tajmlajn": 8041,
      "wiltSEr": 8042,
      "##ajpr": 8043,
      "mEmf": 8044,
      "timd": 8045,
      "gnajzIN": 8046,
      "dItEnS": 8047,
      "tVsk": 8048,
      "Oli": 8049,
      "fEkts": 8050,
      "jEl": 8051,
      "##Astr": 8052,
      "sImz": 8053,
      "Egzajld": 8054,
      "ENg": 8055,
      "ftIN": 8056,
      "hIndZ": 8057,
      "dEgr": 8058,
      "AgmEnt": 8059,
      "wajs": 8060,
      "foj": 8061,
      "lEst": 8062,
      "wIlow": 8063,
      "wInIp": 8064,
      "kVtr": 8065,
      "ibIld": 8066,
      "fItsdZEr": 8067,
      "dSajr": 8068,
      "fn": 8069,
      "fIkt": 8070,
      "kIz": 8071,
      "nVl": 8072,
      "plEnti": 8073,
      "mpIN": 8074,
      "IlONgejt": 8075,
      "dEtr": 8076,
      "owbVst": 8077,
      "IzIstId": 8078,
      "fUr": 8079,
      "##EntIk": 8080,
      "hajdZ": 8081,
      "swEr": 8082,
      "pajpr": 8083,
      "ajzINli": 8084,
      "plid": 8085,
      "ncwI": 8086,
      "nsEp": 8087,
      "lejm": 8088,
      "##Endi": 8089,
      "wAf": 8090,
      "mejg": 8091,
      "Inkl": 8092,
      "wIlfr": 8093,
      "fAsf": 8094,
      "tIf": 8095,
      "##ejaj": 8096,
      "EnT": 8097,
      "klowvr": 8098,
      "fId": 8099,
      "awndId": 8100,
      "nAdZ": 8101,
      "howldINz": 8102,
      "lvejS": 8103,
      "stEmz": 8104,
      "fIftinT": 8105,
      "InIfEktIv": 8106,
      "dOl": 8107,
      "dZENk": 8108,
      "##inr": 8109,
      "dun": 8110,
      "mAnd": 8111,
      "Amn": 8112,
      "unow": 8113,
      "sojlz": 8114,
      "Antr": 8115,
      "IdZm": 8116,
      "howlt": 8117,
      "InvIz": 8118,
      "dIkIns": 8119,
      "ejvAn": 8120,
      "flVk": 8121,
      "SIpr": 8122,
      "nbi": 8123,
      "##gVn": 8124,
      "tsi": 8125,
      "InsEnt": 8126,
      "tVtSIN": 8127,
      "pApm": 8128,
      "EmbEdId": 8129,
      "goj": 8130,
      "stOld": 8131,
      "awz": 8132,
      "ElvIs": 8133,
      "lAkr": 8134,
      "dIsplejIN": 8135,
      "tIsfajIN": 8136,
      "IvAlvr": 8137,
      "npOr": 8138,
      "pw": 8139,
      "ntEn": 8140,
      "tSejst": 8141,
      "pier": 8142,
      "sIstIN": 8143,
      "##umi": 8144,
      "gajdz": 8145,
      "sitr": 8146,
      "ilIdZ": 8147,
      "fAnt": 8148,
      "tAms": 8149,
      "kwIzin": 8150,
      "hajnz": 8151,
      "tojl": 8152,
      "stejdZIN": 8153,
      "dImajz": 8154,
      "downr": 8155,
      "hEpbr": 8156,
      "pApmAtr": 8157,
      "mVm": 8158,
      "sIgm": 8159,
      "nsl": 8160,
      "skVt": 8161,
      "tumr": 8162,
      "tSejsIN": 8163,
      "##dIn": 8164,
      "ndejt": 8165,
      "mIlwOki": 8166,
      "tSejndZIz": 8167,
      "fejsbUk": 8168,
      "VndZ": 8169,
      "kEndr": 8170,
      "##ajvr": 8171,
      "nski": 8172,
      "SElf": 8173,
      "ZIl": 8174,
      "iwEr": 8175,
      "IndEvr": 8176,
      "kejz": 8177,
      "##Agi": 8178,
      "spInIN": 8179,
      "fOks": 8180,
      "##mIl": 8181,
      "##Amr": 8182,
      "awndINz": 8183,
      "dInawnst": 8184,
      "dEks": 8185,
      "lps": 8186,
      "vUr": 8187,
      "sINgj": 8188,
      "bUtSr": 8189,
      "kowlm": 8190,
      "klajmz": 8191,
      "vajz": 8192,
      "snejks": 8193,
      "ldZIr": 8194,
      "tSIks": 8195,
      "kAstli": 8196,
      "##blow": 8197,
      "##bk": 8198,
      "spElIN": 8199,
      "suk": 8200,
      "##Ilj": 8201,
      "vIlIdZr": 8202,
      "pAzIt": 8203,
      "owtejtIN": 8204,
      "ndZElIk": 8205,
      "kIkOf": 8206,
      "Ezd": 8207,
      "kUS": 8208,
      "mpejnIN": 8209,
      "powkr": 8210,
      "##awnts": 8211,
      "bUli": 8212,
      "##fildz": 8213,
      "kVnINh": 8214,
      "gajdlajnz": 8215,
      "pEgi": 8216,
      "Efjus": 8217,
      "SIl": 8218,
      "usi": 8219,
      "dVnst": 8220,
      "##Dd": 8221,
      "hImlr": 8222,
      "ivEnS": 8223,
      "##niZ": 8224,
      "nSUr": 8225,
      "hAndUr": 8226,
      "fd": 8227,
      "tajlz": 8228,
      "##kAk": 8229,
      "##Aj": 8230,
      "##wInd": 8231,
      "##stId": 8232,
      "wAd": 8233,
      "sif": 8234,
      "owkjUr": 8235,
      "powstm": 8236,
      "kum": 8237,
      "vAlkejnowz": 8238,
      "difEkt": 8239,
      "stejsi": 8240,
      "bVfi": 8241,
      "owkIn": 8242,
      "bowhimi": 8243,
      "lEstS": 8244,
      "mawnd": 8245,
      "##kIl": 8246,
      "wIzd": 8247,
      "nus": 8248,
      "midIk": 8249,
      "mAnz": 8250,
      "Implajd": 8251,
      "pajz": 8252,
      "phEld": 8253,
      "vEnr": 8254,
      "litow": 8255,
      "spEns": 8256,
      "fidz": 8257,
      "##IgAn": 8258,
      "towbi": 8259,
      "pIkIN": 8260,
      "##IskVvr": 8261,
      "nspEr": 8262,
      "nwr": 8263,
      "wiz": 8264,
      "sImi": 8265,
      "tAZ": 8266,
      "Tej": 8267,
      "zEp": 8268,
      "EsbIt": 8269,
      "awlz": 8270,
      "klejd": 8271,
      "tund": 8272,
      "dVv": 8273,
      "owmiow": 8274,
      "nAb": 8275,
      "gejtwej": 8276,
      "hVlk": 8277,
      "EsbItIr": 8278,
      "fp": 8279,
      "mAts": 8280,
      "vajb": 8281,
      "kSi": 8282,
      "sajtejS": 8283,
      "najtkl": 8284,
      "dd": 8285,
      "##skr": 8286,
      "wEldIN": 8287,
      "tEnz": 8288,
      "dawngr": 8289,
      "ndZEstS": 8290,
      "idIzajnd": 8291,
      "tSEks": 8292,
      "kowlts": 8293,
      "EmplojIN": 8294,
      "hw": 8295,
      "ziz": 8296,
      "##tSow": 8297,
      "spElz": 8298,
      "mIlki": 8299,
      "fawlr": 8300,
      "bb": 8301,
      "ksIm": 8302,
      "owlIviej": 8303,
      "kOzm": 8304,
      "##owpi": 8305,
      "sVnSajn": 8306,
      "dEsk": 8307,
      "##Evic": 8308,
      "umIn": 8309,
      "pEg": 8310,
      "nsEptSu": 8311,
      "pIti": 8312,
      "ejlud": 8313,
      "wejvl": 8314,
      "lImpIks": 8315,
      "bIst": 8316,
      "##Esi": 8317,
      "bowldr": 8318,
      "VnIn": 8319,
      "dajzd": 8320,
      "ESwOtr": 8321,
      "ntiAgow": 8322,
      "bojl": 8323,
      "ntSejndZd": 8324,
      "##bojz": 8325,
      "ndejl": 8326,
      "nsIliejS": 8327,
      "Eniwej": 8328,
      "fIkIN": 8329,
      "IskejpIN": 8330,
      "Invejdr": 8331,
      "pOlin": 8332,
      "ldr": 8333,
      "##owvic": 8334,
      "tSd": 8335,
      "juz": 8336,
      "Ilejts": 8337,
      "wENr": 8338,
      "IptSr": 8339,
      "isajk": 8340,
      "nIb": 8341,
      "klIfr": 8342,
      "hOld": 8343,
      "stAn": 8344,
      "ejpt": 8345,
      "klejt": 8346,
      "dEbj": 8347,
      "ojz": 8348,
      "vajk": 8349,
      "nawns": 8350,
      "ajkawts": 8351,
      "tOs": 8352,
      "kEmIk": 8353,
      "gIs": 8354,
      "##nIks": 8355,
      "Vgli": 8356,
      "dZEpr": 8357,
      "##TAr": 8358,
      "mjuzm": 8359,
      "wElmd": 8360,
      "vajzIN": 8361,
      "towj": 8362,
      "kajli": 8363,
      "kAgnItIv": 8364,
      "TEntIk": 8365,
      "dZejd": 8366,
      "bajdZAn": 8367,
      "lil": 8368,
      "mInajdZ": 8369,
      "slVg": 8370,
      "##ajv": 8371,
      "Amw": 8372,
      "kEnzi": 8373,
      "hejn": 8374,
      "pOn": 8375,
      "liown": 8376,
      "##Anj": 8377,
      "Estowni": 8378,
      "bAksr": 8379,
      "nEktId": 8380,
      "##zm": 8381,
      "##VNki": 8382,
      "kits": 8383,
      "dAni": 8384,
      "kejsmejts": 8385,
      "Ignr": 8386,
      "##gV": 8387,
      "EgzIts": 8388,
      "AspEkts": 8389,
      "jej": 8390,
      "pIgz": 8391,
      "kowlr": 8392,
      "pAst": 8393,
      "Efu_": 8394,
      "kks": 8395,
      "kAndr": 8396,
      "dIsf": 8397,
      "##Vlr": 8398,
      "lowv": 8399,
      "##owti": 8400,
      "nkVmfr": 8401,
      "SEld": 8402,
      "klOdi": 8403,
      "Impid": 8404,
      "blajdZd": 8405,
      "tEli": 8406,
      "bIf": 8407,
      "tejvi": 8408,
      "dZudISiEr": 8409,
      "duli": 8410,
      "##AmEtr": 8411,
      "sEtb": 8412,
      "##IbIlIti": 8413,
      "pajps": 8414,
      "taEn": 8415,
      "vejtIN": 8416,
      "sowt": 8417,
      "majA": 8418,
      "dZiAm": 8419,
      "##kejp": 8420,
      "hIs": 8421,
      "nsajl": 8422,
      "##Idli": 8423,
      "lEtIN": 8424,
      "husejn": 8425,
      "bItS": 8426,
      "Elk": 8427,
      "Ists": 8428,
      "bowlstr": 8429,
      "nAdu": 8430,
      "iSiejt": 8431,
      "mbik": 8432,
      "##ii": 8433,
      "tAf": 8434,
      "##awd": 8435,
      "hul": 8436,
      "IndEf": 8437,
      "##litId": 8438,
      "mfEt": 8439,
      "dEnS": 8440,
      "nzm": 8441,
      "hEdkOr": 8442,
      "Itejnz": 8443,
      "Ilist": 8444,
      "bIsk": 8445,
      "VndIs": 8446,
      "wIlmINt": 8447,
      "kIdZIN": 8448,
      "kAnaj": 8449,
      "isEt": 8450,
      "ejZIn": 8451,
      "nAktr": 8452,
      "iowl": 8453,
      "vInd": 8454,
      "##Sh": 8455,
      "dZOs": 8456,
      "tSowl": 8457,
      "##Ivli": 8458,
      "fVk": 8459,
      "najnti": 8460,
      "##InIk": 8461,
      "sklr": 8462,
      "owzIz": 8463,
      "mVNkiz": 8464,
      "sUpr": 8465,
      "lwr": 8466,
      "nAns": 8467,
      "zej": 8468,
      "##Abi": 8469,
      "Sits": 8470,
      "bIkini": 8471,
      "isIZ": 8472,
      "kVr": 8473,
      "##ez": 8474,
      "tuzdi": 8475,
      "bAmd": 8476,
      "dAlz": 8477,
      "bElf": 8478,
      "ndEl": 8479,
      "InOg": 8480,
      "bdul": 8481,
      "bVntS": 8482,
      "plutow": 8483,
      "##gli": 8484,
      "dZVt": 8485,
      "lwajn": 8486,
      "zImbAbwej": 8487,
      "vInj": 8488,
      "plejg": 8489,
      "howgAn": 8490,
      "lITi": 8491,
      "blik": 8492,
      "nItowb": 8493,
      "InOgjr": 8494,
      "nOst": 8495,
      "itow": 8496,
      "IgzEmpl": 8497,
      "Isajsli": 8498,
      "##lir": 8499,
      "juf": 8500,
      "plIk": 8501,
      "nEtIkli": 8502,
      "awzr": 8503,
      "dIsgr": 8504,
      "nAmIkli": 8505,
      "VndIfitId": 8506,
      "wejvlEN": 8507,
      "Akwr": 8508,
      "hUnt": 8509,
      "ndik": 8510,
      "bAliwUd": 8511,
      "vEd": 8512,
      "stajld": 8513,
      "nukVm": 8514,
      "sliv": 8515,
      "Iksajtm": 8516,
      "gIm": 8517,
      "ustr": 8518,
      "##Ikju": 8519,
      "awli": 8520,
      "vEntr": 8521,
      "lImpIk": 8522,
      "hbow": 8523,
      "##mEz": 8524,
      "##kIs": 8525,
      "##itSi": 8526,
      "##aEl": 8527,
      "##uli": 8528,
      "##Izm": 8529,
      "kowmz": 8530,
      "nfild": 8531,
      "nOts": 8532,
      "##lIk": 8533,
      "fidZi": 8534,
      "owlg": 8535,
      "mAni": 8536,
      "mbOr": 8537,
      "klik": 8538,
      "stInt": 8539,
      "dIb": 8540,
      "sir": 8541,
      "sejd": 8542,
      "lAndZ": 8543,
      "nVnsiejS": 8544,
      "splItIN": 8545,
      "owkInAw": 8546,
      "Ok": 8547,
      "tSejk": 8548,
      "plajr": 8549,
      "klinIN": 8550,
      "vejpr": 8551,
      "ksidIN": 8552,
      "SUl": 8553,
      "hIgInz": 8554,
      "tj": 8555,
      "blIts": 8556,
      "AvEn": 8557,
      "kVmbajnz": 8558,
      "vAt": 8559,
      "vAm": 8560,
      "stajp": 8561,
      "sVmhaw": 8562,
      "ptajzd": 8563,
      "kowdi": 8564,
      "wajldr": 8565,
      "fElps": 8566,
      "bEni": 8567,
      "nukVmr": 8568,
      "mojl": 8569,
      "##AstIk": 8570,
      "##owkr": 8571,
      "##Isiz": 8572,
      "##AnT": 8573,
      "Epstin": 8574,
      "lajflON": 8575,
      "towlz": 8576,
      "kAnsOr": 8577,
      "lIzIN": 8578,
      "EksplojtejS": 8579,
      "lkow": 8580,
      "dIsInt": 8581,
      "bIb": 8582,
      "mir": 8583,
      "gAdwIn": 8584,
      "##owdId": 8585,
      "pajT": 8586,
      "owbz": 8587,
      "dZVmps": 8588,
      "mInd": 8589,
      "##wIts": 8590,
      "kjubr": 8591,
      "ajdilz": 8592,
      "nlAk": 8593,
      "nvInsIz": 8594,
      "spIl": 8595,
      "lukr": 8596,
      "tSipr": 8597,
      "bsEst": 8598,
      "nspIkju": 8599,
      "pAts": 8600,
      "sElvz": 8601,
      "##idow": 8602,
      "fInISIz": 8603,
      "SIpbIl": 8604,
      "majtS": 8605,
      "tElr": 8606,
      "ikww": 8607,
      "IspAndIN": 8608,
      "jEr": 8609,
      "owps": 8610,
      "##AlvIN": 8611,
      "##ajdEnt": 8612,
      "##Api": 8613,
      "swAm": 8614,
      "kVps": 8615,
      "dIpowzd": 8616,
      "tIsjuz": 8617,
      "bEdfr": 8618,
      "hAstIdZ": 8619,
      "fb": 8620,
      "jAn": 8621,
      "INgr": 8622,
      "##IstOr": 8623,
      "kwejkr": 8624,
      "Enib": 8625,
      "wOlr": 8626,
      "hIlEr": 8627,
      "ndOr": 8628,
      "tSa": 8629,
      "blVf": 8630,
      "nsild": 8631,
      "nkajnd": 8632,
      "pUlm": 8633,
      "##nowts": 8634,
      "SEt": 8635,
      "kElr": 8636,
      "milz": 8637,
      "##kipIN": 8638,
      "dItejnd": 8639,
      "ntSr": 8640,
      "vInt": 8641,
      "vItr": 8642,
      "ajmr": 8643,
      "##ptId": 8644,
      "div": 8645,
      "kAzmIk": 8646,
      "sInTEtIk": 8647,
      "pVlp": 8648,
      "zAmbi": 8649,
      "Nstr": 8650,
      "vt": 8651,
      "dZVn": 8652,
      "ejIs": 8653,
      "skIp": 8654,
      "bVstr": 8655,
      "wEsli": 8656,
      "mowtifs": 8657,
      "wAr": 8658,
      "##gaw": 8659,
      "dajk": 8660,
      "tinEz": 8661,
      "dEpTs": 8662,
      "pIksAr": 8663,
      "SIk": 8664,
      "##vju": 8665,
      "dIsEndIN": 8666,
      "IstAn": 8667,
      "swAmp": 8668,
      "flits": 8669,
      "Osr": 8670,
      "bawnt": 8671,
      "majd": 8672,
      "##hAg": 8673,
      "nsIr": 8674,
      "zowAl": 8675,
      "IkAr": 8676,
      "##ajnr": 8677,
      "ftajm": 8678,
      "Sowr": 8679,
      "idZEkt": 8680,
      "pVnIS": 8681,
      "budIz": 8682,
      "tAtInh": 8683,
      "##pAks": 8684,
      "##ejlj": 8685,
      "IdZin": 8686,
      "blej": 8687,
      "hAlIk": 8688,
      "Implajz": 8689,
      "##ejdi": 8690,
      "lEts": 8691,
      "Endl": 8692,
      "timOr": 8693,
      "IdEm": 8694,
      "kajsr": 8695,
      "##powli": 8696,
      "dZIs": 8697,
      "mIln": 8698,
      "Vnkr": 8699,
      "IksEntr": 8700,
      "InfIn": 8701,
      "dZVstm": 8702,
      "ETn": 8703,
      "##Eskju": 8704,
      "ejh": 8705,
      "ksEst": 8706,
      "EkInr": 8707,
      "pVblIsajzd": 8708,
      "stilr": 8709,
      "AsEsr": 8710,
      "spEndz": 8711,
      "bIdIN": 8712,
      "tSEv": 8713,
      "dupl": 8714,
      "fIlhAr": 8715,
      "stejz": 8716,
      "utm": 8717,
      "hjur": 8718,
      "InfluEnz": 8719,
      "IkwEstIN": 8720,
      "lIstINz": 8721,
      "ejsIst": 8722,
      "sEnsItIv": 8723,
      "him": 8724,
      "lVmp": 8725,
      "##tSioEn": 8726,
      "dAptIN": 8727,
      "dZIS": 8728,
      "ejnt": 8729,
      "bowlz": 8730,
      "pEndIN": 8731,
      "Emplojz": 8732,
      "dIskowgr": 8733,
      "##uts": 8734,
      "##dZIN": 8735,
      "majts": 8736,
      "Zr": 8737,
      "##gIn": 8738,
      "##gowz": 8739,
      "##hEr": 8740,
      "liejS": 8741,
      "##VlS": 8742,
      "imd": 8743,
      "mVskj": 8744,
      "##kjub": 8745,
      "##ui": 8746,
      "##hOks": 8747,
      "jutr": 8748,
      "plVndr": 8749,
      "Sim": 8750,
      "##ajndIN": 8751,
      "Ivowk": 8752,
      "nejdz": 8753,
      "klVtS": 8754,
      "Vdr": 8755,
      "##uki": 8756,
      "##ejzi": 8757,
      "bajts": 8758,
      "itEnS": 8759,
      "idejS": 8760,
      "dEmowz": 8761,
      "##owvAni": 8762,
      "sImplIs": 8763,
      "fUlfIld": 8764,
      "izIN": 8765,
      "Elmz": 8766,
      "sajgAn": 8767,
      "lajnIN": 8768,
      "vajdr": 8769,
      "sIvEr": 8770,
      "swItSIN": 8771,
      "dVt": 8772,
      "tig": 8773,
      "Inklajnd": 8774,
      "##Eptr": 8775,
      "##unj": 8776,
      "##dowm": 8777,
      "sVbplAt": 8778,
      "Asi": 8779,
      "Emp": 8780,
      "dii": 8781,
      "flOz": 8782,
      "bVg": 8783,
      "tApIN": 8784,
      "##lajts": 8785,
      "gAndi": 8786,
      "##ajps": 8787,
      "fajsIz": 8788,
      "powliAnIk": 8789,
      "##hid": 8790,
      "ntEnt": 8791,
      "nsajnd": 8792,
      "plOd": 8793,
      "klk": 8794,
      "ImpEndIN": 8795,
      "kowtow": 8796,
      "bVkINh": 8797,
      "pVf": 8798,
      "dubaj": 8799,
      "gowsts": 8800,
      "lajnb": 8801,
      "InsIsts": 8802,
      "towli": 8803,
      "jAt": 8804,
      "##ajg": 8805,
      "##IlEktr": 8806,
      "mEns": 8807,
      "smr": 8808,
      "dZim": 8809,
      "zuki": 8810,
      "ilowkejS": 8811,
      "##pojnts": 8812,
      "fIzIsIst": 8813,
      "tSejni": 8814,
      "bibr": 8815,
      "lejl": 8816,
      "nim": 8817,
      "juni": 8818,
      "lOft": 8819,
      "psbr": 8820,
      "ilajIN": 8821,
      "pElowt": 8822,
      "lVdwIg": 8823,
      "dANki": 8824,
      "##kejs": 8825,
      "##ejj": 8826,
      "skajs": 8827,
      "dIsajp": 8828,
      "##spOr": 8829,
      "pAstSr": 8830,
      "sejdZ": 8831,
      "dZEdi": 8832,
      "dIsgVst": 8833,
      "kajt": 8834,
      "IdZi": 8835,
      "wUdId": 8836,
      "ifEktSr": 8837,
      "##wIT": 8838,
      "##owkAr": 8839,
      "Ipk": 8840,
      "twi": 8841,
      "OzwOld": 8842,
      "##bIn": 8843,
      "wInt": 8844,
      "ajsow": 8845,
      "swAlow": 8846,
      "OzbOr": 8847,
      "mpVlsr": 8848,
      "AvEndZr": 8849,
      "sbr": 8850,
      "plejgd": 8851,
      "wIlbr": 8852,
      "mInIN": 8853,
      "slaj": 8854,
      "lIkr": 8855,
      "awtIdZIz": 8856,
      "ptejnd": 8857,
      "##Andow": 8858,
      "hejli": 8859,
      "Andhajm": 8860,
      "ndslajdz": 8861,
      "wOn": 8862,
      "pits": 8863,
      "##owki": 8864,
      "##Itudz": 8865,
      "sajbIr": 8866,
      "ntIbAdiz": 8867,
      "dZVtl": 8868,
      "ndp": 8869,
      "ElIdZ": 8870,
      "##wejks": 8871,
      "mInstr": 8872,
      "dZowhr": 8873,
      "dwIk": 8874,
      "mwej": 8875,
      "najd": 8876,
      "Tkwejks": 8877,
      "bdowm": 8878,
      "nzil": 8879,
      "fliz": 8880,
      "dojl": 8881,
      "##Inowz": 8882,
      "wUdr": 8883,
      "##Ifs": 8884,
      "IvejlIN": 8885,
      "dejtajm": 8886,
      "pItSIz": 8887,
      "gAmkjub": 8888,
      "SEvr": 8889,
      "##Asr": 8890,
      "lipowli": 8891,
      "##Ildr": 8892,
      "nsut": 8893,
      "wItSkr": 8894,
      "Enow": 8895,
      "Ela": 8896,
      "sumz": 8897,
      "wIlz": 8898,
      "nhOr": 8899,
      "tEknIS": 8900,
      "Ims": 8901,
      "IdZwOtr": 8902,
      "sOltId": 8903,
      "dwElIN": 8904,
      "nowvic": 8905,
      "dVndr": 8906,
      "isk": 8907,
      "ejtSo": 8908,
      "bEg": 8909,
      "tImb": 8910,
      "EnsIk": 8911,
      "pEp": 8912,
      "fjudZ": 8913,
      "fildr": 8914,
      "IlINkw": 8915,
      "gUstAf": 8916,
      "dIli": 8917,
      "livi": 8918,
      "IvAlv": 8919,
      "ajmejts": 8920,
      "tAksIs": 8921,
      "tAb": 8922,
      "jusr": 8923,
      "ksin": 8924,
      "Ivejd": 8925,
      "mEstr": 8926,
      "kIkIN": 8927,
      "##sim": 8928,
      "kmEr": 8929,
      "NksgIv": 8930,
      "TIl": 8931,
      "udr": 8932,
      "##lIs": 8933,
      "##bEd": 8934,
      "##wowld": 8935,
      "awlIN": 8936,
      "spoj": 8937,
      "spVndZ": 8938,
      "nowwEr": 8939,
      "itOr": 8940,
      "dEbi": 8941,
      "bIgInINz": 8942,
      "kAnflu": 8943,
      "spowkspr": 8944,
      "EtSr": 8945,
      "jowS": 8946,
      "uInz": 8947,
      "wIgz": 8948,
      "wIDr": 8949,
      "Ene": 8950,
      "mpEld": 8951,
      "IndIfr": 8952,
      "dIplitId": 8953,
      "##tSIs": 8954,
      "ejunj": 8955,
      "IlIs": 8956,
      "mEnz": 8957,
      "dZus": 8958,
      "Ikskr": 8959,
      "kAzwej": 8960,
      "mIdZ": 8961,
      "dIkli": 8962,
      "Vptli": 8963,
      "kstejdZ": 8964,
      "ubIn": 8965,
      "lIks": 8966,
      "##lini": 8967,
      "ksIl": 8968,
      "##awndIN": 8969,
      "lOf": 8970,
      "munz": 8971,
      "IndVl": 8972,
      "nfowld": 8973,
      "dZowli": 8974,
      "tSejkAvski": 8975,
      "ItSt": 8976,
      "lojz": 8977,
      "dZiowvAni": 8978,
      "Atowz": 8979,
      "kAmplIS": 8980,
      "IkskluZ": 8981,
      "lIftIN": 8982,
      "plEdZd": 8983,
      "##fADr": 8984,
      "IndZEst": 8985,
      "tejpr": 8986,
      "Ekspow": 8987,
      "slowvini": 8988,
      "SUlts": 8989,
      "uft": 8990,
      "##St": 8991,
      "stSr": 8992,
      "pOlow": 8993,
      "kApid": 8994,
      "sImfAnIk": 8995,
      "ftsm": 8996,
      "IstAnbul": 8997,
      "IdEmpS": 8998,
      "blAs": 8999,
      "ElIks": 9000,
      "istli": 9001,
      "vajsr": 9002,
      "fAsfr": 9003,
      "skajskr": 9004,
      "dju": 9005,
      "Elf": 9006,
      "hVnts": 9007,
      "kOs": 9008,
      "gur": 9009,
      "numownj": 9010,
      "ngAr": 9011,
      "dItejlIN": 9012,
      "##eni": 9013,
      "owki": 9014,
      "tSEkt": 9015,
      "izt": 9016,
      "wejvr": 9017,
      "mANgow": 9018,
      "mIdSIp": 9019,
      "smOlpAks": 9020,
      "Impowz": 9021,
      "pmEnt": 9022,
      "bUlz": 9023,
      "IdIkj": 9024,
      "snajpr": 9025,
      "blowIN": 9026,
      "EndZojIN": 9027,
      "mojst": 9028,
      "mks": 9029,
      "lEdZr": 9030,
      "sEnS": 9031,
      "tejkowvr": 9032,
      "nfEst": 9033,
      "sfaj": 9034,
      "mImIk": 9035,
      "Ivowkt": 9036,
      "dZEnIk": 9037,
      "stAkr": 9038,
      "bIldz": 9039,
      "lIfOr": 9040,
      "nAz": 9041,
      "sVnlajt": 9042,
      "dinow": 9043,
      "kbET": 9044,
      "Snajdr": 9045,
      "zEpIlIn": 9046,
      "bowni": 9047,
      "mIf": 9048,
      "##bown": 9049,
      "##dik": 9050,
      "##IpIk": 9051,
      "sInt": 9052,
      "nsumIN": 9053,
      "NksgIvIN": 9054,
      "Vsr": 9055,
      "nejs": 9056,
      "##AdZi": 9057,
      "spVn": 9058,
      "niAn": 9059,
      "uzbEr": 9060,
      "lITIk": 9061,
      "lINgwIstIk": 9062,
      "hupr": 9063,
      "EkEl": 9064,
      "awnli": 9065,
      "iISu": 9066,
      "ipVlst": 9067,
      "gs": 9068,
      "ltS": 9069,
      "##awsr": 9070,
      "IndIs": 9071,
      "lAf": 9072,
      "kVsp": 9073,
      "##Sim": 9074,
      "spidwej": 9075,
      "tejnr": 9076,
      "fIliejS": 9077,
      "majsOr": 9078,
      "towjowt": 9079,
      "nOs": 9080,
      "##ISi": 9081,
      "mAfi": 9082,
      "sVbf": 9083,
      "lItS": 9084,
      "nAtS": 9085,
      "kowsts": 9086,
      "sIlvEstr": 9087,
      "kVb": 9088,
      "bIT": 9089,
      "ejtSa_": 9090,
      "nlIm": 9091,
      "awtlajnd": 9092,
      "nUk": 9093,
      "##Enst": 9094,
      "psIz": 9095,
      "kstOr": 9096,
      "sVbtajt": 9097,
      "hEzIt": 9098,
      "VT": 9099,
      "kowz": 9100,
      "##IvOr": 9101,
      "plejnt": 9102,
      "ifs": 9103,
      "spInr": 9104,
      "dIktejt": 9105,
      "lVst": 9106,
      "##es": 9107,
      "##Empow": 9108,
      "IntEndIN": 9109,
      "dud": 9110,
      "upIN": 9111,
      "gEti": 9112,
      "iztEndr": 9113,
      "ipl": 9114,
      "lIdZ": 9115,
      "##lIts": 9116,
      "inu": 9117,
      "nowtIs": 9118,
      "pUs": 9119,
      "##AsIti": 9120,
      "nhawsr": 9121,
      "majti": 9122,
      "pEN": 9123,
      "##ajnm": 9124,
      "lEpt": 9125,
      "ktajs": 9126,
      "kowmow": 9127,
      "kAstEl": 9128,
      "IkstINgw": 9129,
      "EzdIn": 9130,
      "hjubr": 9131,
      "bAdigAr": 9132,
      "lVvli": 9133,
      "ntSajzIz": 9134,
      "InkVmIN": 9135,
      "awtfIts": 9136,
      "nzilvejni": 9137,
      "AndZ": 9138,
      "##tejS": 9139,
      "##SO": 9140,
      "stejnIN": 9141,
      "dZEns": 9142,
      "ejtfOr": 9143,
      "kAnwej": 9144,
      "wEld": 9145,
      "##iowpi": 9146,
      "ihIstOr": 9147,
      "howpf": 9148,
      "hajlajtIN": 9149,
      "kwowts": 9150,
      "et": 9151,
      "mlIn": 9152,
      "pus": 9153,
      "##uni": 9154,
      "bia": 9155,
      "ImbAdi": 9156,
      "mili": 9157,
      "awtkr": 9158,
      "ltejS": 9159,
      "eEs": 9160,
      "glr": 9161,
      "dZAp": 9162,
      "pitS": 9163,
      "itEnd": 9164,
      "hElmz": 9165,
      "SAkr": 9166,
      "mAlr": 9167,
      "ntawn": 9168,
      "mEndIN": 9169,
      "pAgr": 9170,
      "ajsIN": 9171,
      "sAlvd": 9172,
      "iTiowpi": 9173,
      "mOd": 9174,
      "zvi": 9175,
      "pAndr": 9176,
      "sEntEni": 9177,
      "Aksi": 9178,
      "bAlz": 9179,
      "ksownAmIk": 9180,
      "mejh": 9181,
      "skajr": 9182,
      "howv": 9183,
      "fEstIv": 9184,
      "wItm": 9185,
      "ImIdZIN": 9186,
      "lajfsp": 9187,
      "lajvli": 9188,
      "##AntIn": 9189,
      "mplejn": 9190,
      "tEkstajl": 9191,
      "lVNz": 9192,
      "vajkINz": 9193,
      "gus": 9194,
      "zIv": 9195,
      "##nIts": 9196,
      "##powk": 9197,
      "##owp": 9198,
      "junIk": 9199,
      "Ekowz": 9200,
      "ISIz": 9201,
      "kOldr": 9202,
      "sIlvi": 9203,
      "stajlajzd": 9204,
      "sIdi": 9205,
      "dIsgajzd": 9206,
      "##Sow": 9207,
      "kowhi": 9208,
      "OfsEt": 9209,
      "sutr": 9210,
      "ndskejps": 9211,
      "vejkejt": 9212,
      "hItSkAk": 9213,
      "dOlt": 9214,
      "uvi": 9215,
      "##owts": 9216,
      "dZIstr": 9217,
      "dZIstIk": 9218,
      "spejS": 9219,
      "niAl": 9220,
      "VnInt": 9221,
      "ivAlvz": 9222,
      "ktIvIz": 9223,
      "##OntS": 9224,
      "tb": 9225,
      "##owtr": 9226,
      "tSESr": 9227,
      "##Olf": 9228,
      "Imd": 9229,
      "lumIn": 9230,
      "ElEs": 9231,
      "sejfr": 9232,
      "utow": 9233,
      "mbu": 9234,
      "##ItSuEr": 9235,
      "owbItSuEr": 9236,
      "wIlINn": 9237,
      "dAntej": 9238,
      "nEksejS": 9239,
      "mANgowli": 9240,
      "kowhIr": 9241,
      "bowst": 9242,
      "dVf": 9243,
      "fAc": 9244,
      "wINd": 9245,
      "mOT": 9246,
      "Ikwejtr": 9247,
      "sEnsItIvIti": 9248,
      "TkVmIN": 9249,
      "fows": 9250,
      "iD": 9251,
      "##zhEd": 9252,
      "Sik": 9253,
      "AsEst": 9254,
      "nvEktIv": 9255,
      "dImIn": 9256,
      "zA": 9257,
      "ajVm": 9258,
      "nzi": 9259,
      "owkAr": 9260,
      "wajthEd": 9261,
      "OtIz": 9262,
      "dInowt": 9263,
      "bdVkt": 9264,
      "##Vvd": 9265,
      "##hawz": 9266,
      "kluz": 9267,
      "bElAr": 9268,
      "nElz": 9269,
      "IlIdZIt": 9270,
      "IndZEkS": 9271,
      "sEltIks": 9272,
      "##kj": 9273,
      "stejl": 9274,
      "ejgr": 9275,
      "nzvr": 9276,
      "nowd": 9277,
      "IsIpi": 9278,
      "kAlId": 9279,
      "pAlISt": 9280,
      "##pis": 9281,
      "vejr": 9282,
      "uTl": 9283,
      "bVngi": 9284,
      "slAvIk": 9285,
      "pId": 9286,
      "ajw": 9287,
      "nikow": 9288,
      "EdZd": 9289,
      "bUkt": 9290,
      "fElowSIp": 9291,
      "jejts": 9292,
      "kIstr": 9293,
      "stAks": 9294,
      "EktId": 9295,
      "##bVstr": 9296,
      "libr": 9297,
      "majzIN": 9298,
      "slejtId": 9299,
      "imEr": 9300,
      "Amin": 9301,
      "gVnmEn": 9302,
      "mjAn": 9303,
      "nukliaj": 9304,
      "EdINz": 9305,
      "wIlhElmS": 9306,
      "InsIpli": 9307,
      "bawnti": 9308,
      "##Tbr": 9309,
      "Espi": 9310,
      "Iko_": 9311,
      "slIm": 9312,
      "##owkEm": 9313,
      "stajlIstIk": 9314,
      "julIsiz": 9315,
      "hEk": 9316,
      "hOt": 9317,
      "ndowz": 9318,
      "plejboj": 9319,
      "mIlwOl": 9320,
      "slIpt": 9321,
      "fIni": 9322,
      "kfr": 9323,
      "lAl": 9324,
      "##uf": 9325,
      "ltItudz": 9326,
      "vajdId": 9327,
      "mjunIS": 9328,
      "nEv": 9329,
      "gAthaws": 9330,
      "lowsIs": 9331,
      "vAti": 9332,
      "ndli": 9333,
      "tSwUd": 9334,
      "spAk": 9335,
      "Ensr": 9336,
      "mpjutIN": 9337,
      "nidIN": 9338,
      "Elb": 9339,
      "kVlvr": 9340,
      "SElbi": 9341,
      "stEfAn": 9342,
      "hOkInz": 9343,
      "hAlowwej": 9344,
      "iInstejtId": 9345,
      "tIbr": 9346,
      "stimd": 9347,
      "towg": 9348,
      "EntSi": 9349,
      "sAlvIN": 9350,
      "SIt": 9351,
      "UEm": 9352,
      "dks": 9353,
      "kIks": 9354,
      "kInt": 9355,
      "##jOr": 9356,
      "Inmejts": 9357,
      "lownd": 9358,
      "ntiAk": 9359,
      "bsES": 9360,
      "##Avow": 9361,
      "Invajts": 9362,
      "nIgowSiejtIN": 9363,
      "Zi": 9364,
      "ndb": 9365,
      "nzbr": 9366,
      "kwoj": 9367,
      "gowmEz": 9368,
      "stejtsm": 9369,
      "gejOr": 9370,
      "dZinowm": 9371,
      "bEliz": 9372,
      "stIki": 9373,
      "gdp": 9374,
      "awtlUk": 9375,
      "EnklowZr": 9376,
      "hojst": 9377,
      "UEmAtsu": 9378,
      "fni": 9379,
      "##kn": 9380,
      "##ild": 9381,
      "skejd": 9382,
      "flIk": 9383,
      "kSAps": 9384,
      "ejdiowhEd": 9385,
      "ntEmpt": 9386,
      "iInv": 9387,
      "InflVks": 9388,
      "mInIsEr": 9389,
      "dejmi": 9390,
      "nflIktIN": 9391,
      "fojl": 9392,
      "Elt": 9393,
      "sEntOr": 9394,
      "majlstown": 9395,
      "awtlO": 9396,
      "pidowd": 9397,
      "vIntIdZ": 9398,
      "lim": 9399,
      "##Ansow": 9400,
      "lajzr": 9401,
      "tsun": 9402,
      "Nkli": 9403,
      "sejvINz": 9404,
      "dIgIN": 9405,
      "nfjuzIN": 9406,
      "najtklVb": 9407,
      "gawt": 9408,
      "lvz": 9409,
      "wowv": 9410,
      "dZEktr": 9411,
      "sItIk": 9412,
      "hIld": 9413,
      "ipej": 9414,
      "jElowstown": 9415,
      "ntIsIti": 9416,
      "kAndZ": 9417,
      "InvEntr": 9418,
      "mIkejl": 9419,
      "##ztawn": 9420,
      "ndEz": 9421,
      "##IkejtId": 9422,
      "##InIz": 9423,
      "just": 9424,
      "bimz": 9425,
      "nAtINh": 9426,
      "ejtf": 9427,
      "junEskow": 9428,
      "Ivejld": 9429,
      "wIlt": 9430,
      "itSi": 9431,
      "slown": 9432,
      "sIstIdi": 9433,
      "howls": 9434,
      "stElT": 9435,
      "iISud": 9436,
      "nVts": 9437,
      "pjut": 9438,
      "##gejm": 9439,
      "##kst": 9440,
      "dZajr": 9441,
      "fIlIs": 9442,
      "mudi": 9443,
      "AmAd": 9444,
      "gejtzhEd": 9445,
      "InvejdIN": 9446,
      "wejlIN": 9447,
      "kjuzIN": 9448,
      "hUks": 9449,
      "lIdi": 9450,
      "stAt": 9451,
      "##ItIN": 9452,
      "Ezn": 9453,
      "dIfjuZ": 9454,
      "kawntdawn": 9455,
      "EndZojz": 9456,
      "sOjr": 9457,
      "kulTAr": 9458,
      "dEnsli": 9459,
      "Vlstr": 9460,
      "bVlb": 9461,
      "dIsgajz": 9462,
      "nAnsEns": 9463,
      "liejz": 9464,
      "klEn": 9465,
      "lAg": 9466,
      "VNkejtId": 9467,
      "IsIpIt": 9468,
      "Itz": 9469,
      "mplIN": 9470,
      "Ifs": 9471,
      "wejks": 9472,
      "Ekwi": 9473,
      "lmejS": 9474,
      "##VktIv": 9475,
      "splIntr": 9476,
      "hilz": 9477,
      "##izbr": 9478,
      "kwEl": 9479,
      "dejvi": 9480,
      "owmAr": 9481,
      "tIpt": 9482,
      "dIvajdIN": 9483,
      "##uT": 9484,
      "##ejf": 9485,
      "lowdz": 9486,
      "hajin": 9487,
      "IvIr": 9488,
      "butl": 9489,
      "pVmpIN": 9490,
      "lidow": 9491,
      "bIlVvd": 9492,
      "kowsow": 9493,
      "owlf": 9494,
      "Sejfr": 9495,
      "nIzIN": 9496,
      "wINk": 9497,
      "bejtIN": 9498,
      "gIli": 9499,
      "##kAn": 9500,
      "luzr": 9501,
      "EnimOr": 9502,
      "owmEg": 9503,
      "snawt": 9504,
      "mowzli": 9505,
      "dZIstIks": 9506,
      "owbis": 9507,
      "nspajr": 9508,
      "ejkVp": 9509,
      "jElowIS": 9510,
      "wl": 9511,
      "IsES": 9512,
      "tajtli": 9513,
      "nAstr": 9514,
      "EntItiz": 9515,
      "bIdz": 9516,
      "tSEsnVt": 9517,
      "owSim": 9518,
      "Eptajlz": 9519,
      "fIg": 9520,
      "fOkl": 9521,
      "ht": 9522,
      "blejz": 9523,
      "lOndr": 9524,
      "IspEkts": 9525,
      "idZEkts": 9526,
      "##kwajr": 9527,
      "kawbojz": 9528,
      "SVtawt": 9529,
      "stVnIN": 9530,
      "SIpbIldIN": 9531,
      "dIpOr": 9532,
      "kowts": 9533,
      "##Ifowli": 9534,
      "kAljr": 9535,
      "AntwAn": 9536,
      "owvIZ": 9537,
      "fINk": 9538,
      "gojn": 9539,
      "ntOn": 9540,
      "flIp": 9541,
      "hAv": 9542,
      "hVs": 9543,
      "nSIr": 9544,
      "mITs": 9545,
      "gEl": 9546,
      "dZajlz": 9547,
      "biel": 9548,
      "owls": 9549,
      "istwUd": 9550,
      "kejAtIk": 9551,
      "gnAstIk": 9552,
      "fElowz": 9553,
      "vIzejS": 9554,
      "pdejts": 9555,
      "bwA": 9556,
      "##Abr": 9557,
      "powdi": 9558,
      "InstINkt": 9559,
      "lIzb": 9560,
      "igIs": 9561,
      "pulz": 9562,
      "VptIN": 9563,
      "dEstInd": 9564,
      "lEns": 9565,
      "##gf": 9566,
      "##ejdIN": 9567,
      "ejvIN": 9568,
      "bIts": 9569,
      "tEdi": 9570,
      "##hajmr": 9571,
      "tSaw": 9572,
      "nsOr": 9573,
      "ksIz": 9574,
      "bEstsEl": 9575,
      "EktIv": 9576,
      "awnIS": 9577,
      "kEns": 9578,
      "kIndr": 9579,
      "tAnIk": 9580,
      "ejvd": 9581,
      "IkawntId": 9582,
      "flAks": 9583,
      "blIvi": 9584,
      "##plejn": 9585,
      "dAnIl": 9586,
      "sIsES": 9587,
      "flowd": 9588,
      "wis": 9589,
      "dIfOlt": 9590,
      "Ikskl": 9591,
      "hAbz": 9592,
      "##ITIk": 9593,
      "fOlts": 9594,
      "sajklAnIk": 9595,
      "##Aldow": 9596,
      "Osp": 9597,
      "kuz": 9598,
      "sT": 9599,
      "zIg": 9600,
      "##jU": 9601,
      "##ejtSr": 9602,
      "##Ilow": 9603,
      "wEndi": 9604,
      "wajtIS": 9605,
      "zibr": 9606,
      "sInTIsajzd": 9607,
      "ajown": 9608,
      "tizr": 9609,
      "dubi": 9610,
      "niEl": 9611,
      "ejSi": 9612,
      "InsIk": 9613,
      "sejg": 9614,
      "owdajn": 9615,
      "mjusIk": 9616,
      "npawr": 9617,
      "gubr": 9618,
      "kOstIN": 9619,
      "spajnz": 9620,
      "slVm": 9621,
      "tajk": 9622,
      "nIkow": 9623,
      "Adni": 9624,
      "wIgInz": 9625,
      "IpitIN": 9626,
      "kowInsajd": 9627,
      "Afi": 9628,
      "##nAr": 9629,
      "owejs": 9630,
      "tunIN": 9631,
      "hElTkEr": 9632,
      "nowmUr": 9633,
      "Twej": 9634,
      "gawn": 9635,
      "kti": 9636,
      "sinr": 9637,
      "kid": 9638,
      "Osi": 9639,
      "kmr": 9640,
      "vA": 9641,
      "##Iw": 9642,
      "##iejS": 9643,
      "ndhEld": 9644,
      "wAdi": 9645,
      "liks": 9646,
[...]
