{
  "version": "1.0",
  "truncation": null,
  "padding": null,
  "added_tokens": [
    {
      "id": 0,
      "content": "[UNK]",
      "single_word": false,
      "lstrip": false,
      "rstrip": false,
      "normalized": false,
      "special": true
    },
    {
      "id": 1,
      "content": "[CLS]",
      "single_word": false,
      "lstrip": false,
      "rstrip": false,
      "normalized": false,
      "special": true
    },
    {
      "id": 2,
      "content": "[SEP]",
      "single_word": false,
      "lstrip": false,
      "rstrip": false,
      "normalized": false,
      "special": true
    },
    {
      "id": 3,
      "content": "[PAD]",
      "single_word": false,
      "lstrip": false,
      "rstrip": false,
      "normalized": false,
      "special": true
    },
    {
      "id": 4,
      "content": "[MASK]",
      "single_word": false,
      "lstrip": false,
      "rstrip": false,
      "normalized": false,
      "special": true
    }
  ],
  "normalizer": {
    "type": "Sequence",
    "normalizers": [
      {
        "type": "NFD"
      },
      {
        "type": "Lowercase"
      },
      {
        "type": "StripAccents"
      }
    ]
  },
  "pre_tokenizer": {
    "type": "Whitespace"
  },
  "post_processor": {
    "type": "TemplateProcessing",
    "single": [
      {
        "SpecialToken": {
          "id": "[CLS]",
          "type_id": 0
        }
      },
      {
        "Sequence": {
          "id": "A",
          "type_id": 0
        }
      },
      {
        "SpecialToken": {
          "id": "[SEP]",
          "type_id": 0
        }
      }
    ],
    "pair": [
      {
        "SpecialToken": {
          "id": "[CLS]",
          "type_id": 0
        }
      },
      {
        "Sequence": {
          "id": "A",
          "type_id": 0
        }
      },
      {
        "SpecialToken": {
          "id": "[SEP]",
          "type_id": 0
        }
      },
      {
        "Sequence": {
          "id": "B",
          "type_id": 1
        }
      },
      {
        "SpecialToken": {
          "id": "[SEP]",
          "type_id": 1
        }
      }
    ],
    "special_tokens": {
      "[CLS]": {
        "id": "[CLS]",
        "ids": [
          1
        ],
        "tokens": [
          "[CLS]"
        ]
      },
      "[SEP]": {
        "id": "[SEP]",
        "ids": [
          2
        ],
        "tokens": [
          "[SEP]"
        ]
      }
    }
  },
  "decoder": null,
  "model": {
    "type": "WordPiece",
    "unk_token": "[UNK]",
    "continuing_subword_prefix": "##",
    "max_input_chars_per_word": 100,
    "vocab": {
      "[UNK]": 0,
      "[CLS]": 1,
      "[SEP]": 2,
      "[PAD]": 3,
      "[MASK]": 4,
      "=": 5,
      "@": 6,
      "\\": 7,
      "a": 8,
      "b": 9,
      "d": 10,
      "e": 11,
      "f": 12,
      "g": 13,
      "h": 14,
      "i": 15,
      "j": 16,
      "k": 17,
      "l": 18,
      "m": 19,
      "n": 20,
      "o": 21,
      "p": 22,
      "r": 23,
      "s": 24,
      "t": 25,
      "u": 26,
      "v": 27,
      "w": 28,
      "z": 29,
      "{": 30,
      "##s": 31,
      "##d": 32,
      "##a": 33,
      "##j": 34,
      "##w": 35,
      "##t": 36,
      "##i": 37,
      "##l": 38,
      "##v": 39,
      "##h": 40,
      "##e": 41,
      "##n": 42,
      "##k": 43,
      "##o": 44,
      "##z": 45,
      "##r": 46,
      "##g": 47,
      "##b": 48,
      "##p": 49,
      "##u": 50,
      "##f": 51,
      "##m": 52,
      "##=": 53,
      "##@": 54,
      "##{": 55,
      "\\=": 56,
      "##ej": 57,
      "##aj": 58,
      "in": 59,
      "##in": 60,
      "nd": 61,
      "##ow": 62,
      "##or": 63,
      "vv": 64,
      "##st": 65,
      "##ts": 66,
      "##tr": 67,
      "\\@": 68,
      "##id": 69,
      "##en": 70,
      "dz": 71,
      "di": 72,
      "st": 73,
      "##ik": 74,
      "##er": 75,
      "##li": 76,
      "pr": 77,
      "##iz": 78,
      "##ar": 79,
      "wa": 80,
      "for": 81,
      "tr": 82,
      "ow": 83,
      "ej": 84,
      "waz": 85,
      "##aw": 86,
      "nt": 87,
      "##nd": 88,
      "##il": 89,
      "fr": 90,
      "es": 91,
      "ts": 92,
      "si": 93,
      "li": 94,
      "an": 95,
      "aj": 96,
      "iz": 97,
      "##dz": 98,
      "it": 99,
      "bi": 100,
      "ti": 101,
      "##ju": 102,
      "hi": 103,
      "ns": 104,
      "##ks": 105,
      "##ejs": 106,
      "##vr": 107,
      "wid": 108,
      "baj": 109,
      "##el": 110,
      "\\{": 111,
      "##vn": 112,
      "##is": 113,
      "kr": 114,
      "wr": 115,
      "##an": 116,
      "dis": 117,
      "nz": 118,
      "##ejt": 119,
      "##dr": 120,
      "##ek": 121,
      "br": 122,
      "##ir": 123,
      "##ud": 124,
      "##br": 125,
      "ju": 126,
      "gr": 127,
      "##ejm": 128,
      "ar": 129,
      "##pr": 130,
      "hiz": 131,
      "vm": 132,
      "##em": 133,
      "ol": 134,
      "##vm": 135,
      "##str": 136,
      "dr": 137,
      "##its": 138,
      "pl": 139,
      "ik": 140,
      "##al": 141,
      "se": 142,
      "##it": 143,
      "mej": 144,
      "##ajt": 145,
      "sk": 146,
      "##at": 147,
      "\\=@": 148,
      "##ajn": 149,
      "dej": 150,
      "aw": 151,
      "##ol": 152,
      "tu": 153,
      "##am": 154,
      "sow": 155,
      "im": 156,
      "sp": 157,
      "##ent": 158,
      "du": 159,
      "str": 160,
      "or": 161,
      "##vt": 162,
      "its": 163,
      "is": 164,
      "der": 165,
      "##ajd": 166,
      "ks": 167,
      "##ti": 168,
      "##zd": 169,
      "sr": 170,
      "##oj": 171,
      "##on": 172,
      "now": 173,
      "en": 174,
      "##es": 175,
      "##est": 176,
      "##ejn": 177,
      "wits": 178,
      "##awn": 179,
      "##kr": 180,
      "kl": 181,
      "sin": 182,
      "##ajl": 183,
      "nu": 184,
      "##vd": 185,
      "lz": 186,
      "mp": 187,
      "iv": 188,
      "wvn": 189,
      "hr": 190,
      "##awt": 191,
      "er": 192,
      "##ajm": 193,
      "##fr": 194,
      "##owl": 195,
      "laj": 196,
      "##et": 197,
      "par": 198,
      "##di": 199,
      "##ajr": 200,
      "##pt": 201,
      "##vb": 202,
      "int": 203,
      "##ed": 204,
      "bvt": 205,
      "##kl": 206,
      "##ejts": 207,
      "kan": 208,
      "nat": 209,
      "ftr": 210,
      "kor": 211,
      "nts": 212,
      "mow": 213,
      "il": 214,
      "kt": 215,
      "wor": 216,
      "##ps": 217,
      "##sow": 218,
      "hu": 219,
      "fil": 220,
      "##gr": 221,
      "idz": 222,
      "##kt": 223,
      "##iks": 224,
      "ejt": 225,
      "##own": 226,
      "##ndz": 227,
      "##ul": 228,
      "##vl": 229,
      "olsow": 230,
      "em": 231,
      "##tsr": 232,
      "vr": 233,
      "mor": 234,
      "##ejl": 235,
      "kw": 236,
      "##owt": 237,
      "##iv": 238,
      "##ens": 239,
      "lej": 240,
      "##embr": 241,
      "tajm": 242,
      "iks": 243,
      "vdr": 244,
      "plej": 245,
      "##owz": 246,
      "ejs": 247,
      "fl": 248,
      "##pl": 249,
      "ld": 250,
      "bik": 251,
      "kam": 252,
      "bin": 253,
      "jun": 254,
      "##ekt": 255,
      "mi": 256,
      "own": 257,
      "##ap": 258,
      "intr": 259,
      "haw": 260,
      "owvr": 261,
      "mr": 262,
      "le": 263,
      "ist": 264,
      "low": 265,
      "mar": 266,
      "##ndr": 267,
      "##inz": 268,
      "lr": 269,
      "jir": 270,
      "nor": 271,
      "##juz": 272,
      "bil": 273,
      "siz": 274,
      "##ip": 275,
      "wud": 276,
      "diz": 277,
      "##idz": 278,
      "##end": 279,
      "gejm": 280,
      "owl": 281,
      "##vts": 282,
      "wen": 283,
      "mer": 284,
      "svm": 285,
      "saj": 286,
      "dur": 287,
      "lu": 288,
      "vn": 289,
      "inkl": 290,
      "lon": 291,
      "wer": 292,
      "min": 293,
      "bl": 294,
      "ni": 295,
      "ili": 296,
      "sen": 297,
      "dv": 298,
      "haj": 299,
      "awt": 300,
      "div": 301,
      "##ak": 302,
      "mz": 303,
      "intu": 304,
      "por": 305,
      "him": 306,
      "##vvr": 307,
      "##ist": 308,
      "of": 309,
      "su": 310,
      "ed": 311,
      "##for": 312,
      "##tin": 313,
      "ip": 314,
      "inklud": 315,
      "men": 316,
      "wajl": 317,
      "kow": 318,
      "film": 319,
      "if": 320,
      "bit": 321,
      "dzr": 322,
      "##im": 323,
      "ka": 324,
      "##gz": 325,
      "mil": 326,
      "dem": 327,
      "awnd": 328,
      "##awnd": 329,
      "tim": 330,
      "end": 331,
      "##evr": 332,
      "id": 333,
      "sek": 334,
      "pir": 335,
      "vp": 336,
      "mowst": 337,
      "faj": 338,
      "ndz": 339,
      "##win": 340,
      "stejt": 341,
      "big": 342,
      "mu": 343,
      "el": 344,
      "win": 345,
      "##ojn": 346,
      "ez": 347,
      "son": 348,
      "##as": 349,
      "##ejk": 350,
      "kin": 351,
      "how": 352,
      "lejtr": 353,
      "ir": 354,
      "nin": 355,
      "wil": 356,
      "##vz": 357,
      "gen": 358,
      "ownli": 359,
      "vndr": 360,
      "##enr": 361,
      "sim": 362,
      "dif": 363,
      "ejn": 364,
      "stor": 365,
      "bawt": 366,
      "##eks": 367,
      "star": 368,
      "sir": 369,
      "inv": 370,
      "wej": 371,
      "din": 372,
      "mjuz": 373,
      "ins": 374,
      "bitwin": 375,
      "fal": 376,
      "##vi": 377,
      "tiejts": 378,
      "maj": 379,
      "##idi": 380,
      "sm": 381,
      "mvn": 382,
      "dzu": 383,
      "kvm": 384,
      "##vdr": 385,
      "kar": 386,
      "ek": 387,
      "lb": 388,
      "den": 389,
      "##tiv": 390,
      "##vst": 391,
      "hel": 392,
      "tin": 393,
      "sor": 394,
      "##wej": 395,
      "##vin": 396,
      "wel": 397,
      "##ows": 398,
      "nk": 399,
      "kejs": 400,
      "##ad": 401,
      "sik": 402,
      "vs": 403,
      "ep": 404,
      "nr": 405,
      "lo": 406,
      "tiv": 407,
      "falow": 408,
      "pow": 409,
      "eks": 410,
      "tsr": 411,
      "##if": 412,
      "lin": 413,
      "mejd": 414,
      "bifor": 415,
      "nejm": 416,
      "ejl": 417,
      "##ejnd": 418,
      "##dzr": 419,
      "ker": 420,
      "##vmbr": 421,
      "##lis": 422,
      "lar": 423,
      "ntr": 424,
      "##awr": 425,
      "lajn": 426,
      "oj": 427,
      "##idr": 428,
      "bowt": 429,
      "sl": 430,
      "apr": 431,
      "dzi": 432,
      "ter": 433,
      "est": 434,
      "##ut": 435,
      "kawn": 436,
      "##zin": 437,
      "lv": 438,
      "svts": 439,
      "mis": 440,
      "##zr": 441,
      "ind": 442,
      "tik": 443,
      "nvmbr": 444,
      "##owld": 445,
      "pvb": 446,
      "iksp": 447,
      "##adr": 448,
      "owt": 449,
      "pi": 450,
      "bej": 451,
      "sist": 452,
      "nir": 453,
      "mjuzik": 454,
      "##lit": 455,
      "ndr": 456,
      "ver": 457,
      "kol": 458,
      "sawt": 459,
      "##owk": 460,
      "dzenr": 461,
      "pojn": 462,
      "sej": 463,
      "##ajnd": 464,
      "md": 465,
      "fju": 466,
      "lowk": 467,
      "sel": 468,
      "ft": 469,
      "##edr": 470,
      "##jr": 471,
      "ikw": 472,
      "##ejtid": 473,
      "nej": 474,
      "hawevr": 475,
      "juzd": 476,
      "har": 477,
      "ba": 478,
      "mejn": 479,
      "tsar": 480,
      "biin": 481,
      "##dow": 482,
      "bu": 483,
      "fajn": 484,
      "itr": 485,
      "bor": 486,
      "viz": 487,
      "genst": 488,
      "igz": 489,
      "per": 490,
      "vaj": 491,
      "owd": 492,
      "##sr": 493,
      "ntin": 494,
      "siti": 495,
      "##wr": 496,
      "lajk": 497,
      "did": 498,
      "meni": 499,
      "sowd": 500,
      "pt": 501,
      "sevr": 502,
      "##ft": 503,
      "tem": 504,
      "##kin": 505,
      "tor": 506,
      "##otr": 507,
      "##bi": 508,
      "tejk": 509,
      "junajt": 510,
      "sip": 511,
      "bikejm": 512,
      "tiz": 513,
      "divel": 514,
      "inkludin": 515,
      "howm": 516,
      "kses": 517,
      "lit": 518,
      "dzan": 519,
      "##ejdz": 520,
      "sed": 521,
      "fawnd": 522,
      "isp": 523,
      "##ild": 524,
      "set": 525,
      "sentr": 526,
      "##si": 527,
      "##ents": 528,
      "tli": 529,
      "ab": 530,
      "owp": 531,
      "list": 532,
      "pap": 533,
      "##oz": 534,
      "gvvr": 535,
      "inf": 536,
      "##lik": 537,
      "fis": 538,
      "ap": 539,
      "mit": 540,
      "imp": 541,
      "distr": 542,
      "itis": 543,
      "##ur": 544,
      "ak": 545,
      "ajt": 546,
      "ejd": 547,
      "##jur": 548,
      "led": 549,
      "ajb": 550,
      "lis": 551,
      "jus": 552,
      "stejts": 553,
      "ntli": 554,
      "dip": 555,
      "de": 556,
      "##itsr": 557,
      "ing": 558,
      "svb": 559,
      "iktr": 560,
      "falowin": 561,
      "sowl": 562,
      "vin": 563,
      "gn": 564,
      "wik": 565,
      "##ejd": 566,
      "##vlt": 567,
      "kud": 568,
      "lejt": 569,
      "diskr": 570,
      "##list": 571,
      "nown": 572,
      "##jud": 573,
      "ag": 574,
      "vi": 575,
      "oldow": 576,
      "west": 577,
      "indi": 578,
      "fi": 579,
      "tel": 580,
      "ejdz": 581,
      "taj": 582,
      "zis": 583,
      "daj": 584,
      "haws": 585,
      "edz": 586,
      "ut": 587,
      "dawn": 588,
      "inst": 589,
      "##estr": 590,
      "ntil": 591,
      "kvmp": 592,
      "man": 593,
      "evr": 594,
      "ekr": 595,
      "ilist": 596,
      "gar": 597,
      "gow": 598,
      "giv": 599,
      "pip": 600,
      "mid": 601,
      "kej": 602,
      "hed": 603,
      "sing": 604,
      "skul": 605,
      "la": 606,
      "membr": 607,
      "ostr": 608,
      "sw": 609,
      "bikoz": 610,
      "##ikt": 611,
      "fitsr": 612,
      "kold": 613,
      "entr": 614,
      "pa": 615,
      "milj": 616,
      "kal": 617,
      "lejs": 618,
      "os": 619,
      "jor": 620,
      "dzun": 621,
      "pojnt": 622,
      "ajd": 623,
      "ng": 624,
      "am": 625,
      "ib": 626,
      "nejs": 627,
      "nju": 628,
      "dzvst": 629,
      "eni": 630,
      "plejr": 631,
      "sins": 632,
      "endz": 633,
      "niz": 634,
      "##etr": 635,
      "dowz": 636,
      "sent": 637,
      "sept": 638,
      "tek": 639,
      "lajf": 640,
      "ktr": 641,
      "gl": 642,
      "up": 643,
      "##mr": 644,
      "skr": 645,
      "naj": 646,
      "dow": 647,
      "mju": 648,
      "tw": 649,
      "kvl": 650,
      "wit": 651,
      "stud": 652,
      "sejm": 653,
      "pawr": 654,
      "wi": 655,
      "sentsr": 656,
      "##eb": 657,
      "plejs": 658,
      "papj": 659,
      "best": 660,
      "nejt": 661,
      "bili": 662,
      "sli": 663,
      "na": 664,
      "on": 665,
      "fin": 666,
      "ipor": 667,
      "septembr": 668,
      "wotr": 669,
      "disk": 670,
      "waj": 671,
      "bejs": 672,
      "tuk": 673,
      "ivr": 674,
      "bv": 675,
      "ekt": 676,
      "ejts": 677,
      "ser": 678,
      "bar": 679,
      "lig": 680,
      "nvdr": 681,
      "tur": 682,
      "owld": 683,
      "fajv": 684,
      "akt": 685,
      "sivd": 686,
      "sajd": 687,
      "##ni": 688,
      "ajl": 689,
      "stil": 690,
      "svn": 691,
      "owm": 692,
      "nstr": 693,
      "dust": 694,
      "##ept": 695,
      "ikst": 696,
      "ev": 697,
      "bikvm": 698,
      "met": 699,
      "bild": 700,
      "he": 701,
      "nowv": 702,
      "##ki": 703,
      "law": 704,
      "nowt": 705,
      "hju": 706,
      "ejlj": 707,
      "as": 708,
      "ajr": 709,
      "##elf": 710,
      "##ot": 711,
      "smol": 712,
      "her": 713,
      "nsidr": 714,
      "nsi": 715,
      "wvt": 716,
      "ajz": 717,
      "tis": 718,
      "ejndz": 719,
      "##ejndz": 720,
      "##owbr": 721,
      "fajr": 722,
      "dzor": 723,
      "lt": 724,
      "sv": 725,
      "aktowbr": 726,
      "mawn": 727,
      "##ejnz": 728,
      "seks": 729,
      "##sin": 730,
      "dzul": 731,
      "tajt": 732,
      "ment": 733,
      "les": 734,
      "##vntr": 735,
      "iejt": 736,
      "fel": 737,
      "disp": 738,
      "inkr": 739,
      "dvks": 740,
      "nek": 741,
      "ajv": 742,
      "##ejv": 743,
      "skor": 744,
      "ki": 745,
      "kli": 746,
      "##um": 747,
      "kv": 748,
      "difr": 749,
      "dzin": 750,
      "kju": 751,
      "ejpr": 752,
      "##ektr": 753,
      "fej": 754,
      "##isiz": 755,
      "tap": 756,
      "dzulaj": 757,
      "vk": 758,
      "nowvembr": 759,
      "et": 760,
      "det": 761,
      "ink": 762,
      "gejmz": 763,
      "ajm": 764,
      "kantr": 765,
      "ajs": 766,
      "tawn": 767,
      "sts": 768,
      "mvts": 769,
      "tir": 770,
      "skw": 771,
      "dzd": 772,
      "awr": 773,
      "siks": 774,
      "##gn": 775,
      "sil": 776,
      "jur": 777,
      "mejdzr": 778,
      "owz": 779,
      "nik": 780,
      "vidi": 781,
      "##us": 782,
      "mplit": 783,
      "##ejlz": 784,
      "fajd": 785,
      "left": 786,
      "hor": 787,
      "naw": 788,
      "nj": 789,
      "nst": 790,
      "nsr": 791,
      "kvvr": 792,
      "gvn": 793,
      "bejst": 794,
      "pej": 795,
      "vd": 796,
      "ot": 797,
      "mawnt": 798,
      "##ans": 799,
      "kvntr": 800,
      "ivi": 801,
      "##plej": 802,
      "ilis": 803,
      "ajbd": 804,
      "##ekts": 805,
      "ivents": 806,
      "disembr": 807,
      "plejd": 808,
      "aks": 809,
      "mejk": 810,
      "ten": 811,
      "klvb": 812,
      "mb": 813,
      "njuer": 814,
      "diviz": 815,
      "##ests": 816,
      "bli": 817,
      "##ektiv": 818,
      "ents": 819,
      "far": 820,
      "##bol": 821,
      "mejs": 822,
      "tsejndz": 823,
      "##aks": 824,
      "kejm": 825,
      "pal": 826,
      "ner": 827,
      "inis": 828,
      "##lr": 829,
      "pvblik": 830,
      "widin": 831,
      "epr": 832,
      "nekst": 833,
      "wan": 834,
      "wol": 835,
      "fit": 836,
      "vidiow": 837,
      "lajt": 838,
      "tajmz": 839,
      "nejmd": 840,
      "nsip": 841,
      "nam": 842,
      "efr": 843,
      "sajt": 844,
      "tam": 845,
      "pik": 846,
      "impr": 847,
      "wajt": 848,
      "sit": 849,
      "mjun": 850,
      "spr": 851,
      "##uz": 852,
      "##ojd": 853,
      "dim": 854,
      "pin": 855,
      "##ajz": 856,
      "fut": 857,
      "vajd": 858,
      "kamp": 859,
      "mpi": 860,
      "kans": 861,
      "spes": 862,
      "##ejtin": 863,
      "dejz": 864,
      "histr": 865,
      "kil": 866,
      "##ebj": 867,
      "ktiv": 868,
      "buk": 869,
      "##ajlz": 870,
      "stejs": 871,
      "ows": 872,
      "klejm": 873,
      "dm": 874,
      "so": 875,
      "najt": 876,
      "spisiz": 877,
      "dist": 878,
      "sev": 879,
      "ber": 880,
      "net": 881,
      "dan": 882,
      "fer": 883,
      "vil": 884,
      "lj": 885,
      "febj": 886,
      "##iow": 887,
      "bilt": 888,
      "dizajn": 889,
      "lir": 890,
      "powst": 891,
      "vks": 892,
      "med": 893,
      "lev": 894,
      "tm": 895,
      "kant": 896,
      "jvn": 897,
      "pm": 898,
      "sa": 899,
      "##nr": 900,
      "fild": 901,
      "lus": 902,
      "held": 903,
      "kts": 904,
      "ig": 905,
      "##kej": 906,
      "sowsi": 907,
      "dent": 908,
      "eg": 909,
      "apik": 910,
      "izvlt": 911,
      "bih": 912,
      "siv": 913,
      "tej": 914,
      "emp": 915,
      "infl": 916,
      "ntinjud": 917,
      "##lin": 918,
      "nevr": 919,
      "od": 920,
      "um": 921,
      "wilj": 922,
      "##ejnin": 923,
      "ps": 924,
      "ups": 925,
      "##stor": 926,
      "towt": 927,
      "hir": 928,
      "nis": 929,
      "ejz": 930,
      "nv": 931,
      "istr": 932,
      "dejt": 933,
      "dejv": 934,
      "nf": 935,
      "nsiz": 936,
      "lim": 937,
      "ivent": 938,
      "supr": 939,
      "dak": 940,
      "liz": 941,
      "##gow": 942,
      "fol": 943,
      "ndin": 944,
      "lor": 945,
      "vik": 946,
      "klows": 947,
      "ii": 948,
      "witawt": 949,
      "ikspl": 950,
      "ingl": 951,
      "majn": 952,
      "##ifik": 953,
      "tl": 954,
      "gowl": 955,
      "nawn": 956,
      "biz": 957,
      "dispajt": 958,
      "gud": 959,
      "hjum": 960,
      "pan": 961,
      "dvb": 962,
      "hit": 963,
      "histor": 964,
      "owk": 965,
      "stvd": 966,
      "sawnd": 967,
      "nid": 968,
      "kejn": 969,
      "bel": 970,
      "bju": 971,
      "sn": 972,
      "##and": 973,
      "dit": 974,
      "pas": 975,
      "##idin": 976,
      "hil": 977,
      "lajv": 978,
      "sif": 979,
      "kawnti": 980,
      "tsil": 981,
      "awn": 982,
      "went": 983,
      "mad": 984,
      "##owzd": 985,
      "owgr": 986,
      "sips": 987,
      "inglis": 988,
      "lvnd": 989,
      "sonz": 990,
      "##ikli": 991,
      "dil": 992,
      "test": 993,
      "muvd": 994,
      "hajwej": 995,
      "ilektr": 996,
      "get": 997,
      "len": 998,
      "sud": 999,
      "nan": 1000,
      "##ensiv": 1001,
      "adz": 1002,
      "##owni": 1003,
      "##ajzd": 1004,
      "madr": 1005,
      "dar": 1006,
      "pis": 1007,
      "##ejld": 1008,
      "gdz": 1009,
      "ben": 1010,
      "lost": 1011,
      "kvp": 1012,
      "tempt": 1013,
      "ful": 1014,
      "ispans": 1015,
      "influ": 1016,
      "bildin": 1017,
      "vnt": 1018,
      "ejdi": 1019,
      "##ajs": 1020,
      "ajtr": 1021,
      "nti": 1022,
      "fik": 1023,
      "stejdz": 1024,
      "inval": 1025,
      "majk": 1026,
      "##ajld": 1027,
      "sar": 1028,
      "ejtin": 1029,
      "tikj": 1030,
      "##ep": 1031,
      "##ejmz": 1032,
      "gejv": 1033,
      "nuz": 1034,
      "kejt": 1035,
      "ku": 1036,
      "westr": 1037,
      "impor": 1038,
      "ef": 1039,
      "wajd": 1040,
      "ha": 1041,
      "midi": 1042,
      "tid": 1043,
      "##owd": 1044,
      "dek": 1045,
      "##vs": 1046,
      "ksesf": 1047,
      "ofr": 1048,
      "want": 1049,
      "me": 1050,
      "idr": 1051,
      "##owst": 1052,
      "\\={": 1053,
      "fadr": 1054,
      "wim": 1055,
      "kowst": 1056,
      "mik": 1057,
      "##self": 1058,
      "lvv": 1059,
      "##ojs": 1060,
      "stej": 1061,
      "juzin": 1062,
      "sem": 1063,
      "lidr": 1064,
      "pvblist": 1065,
      "ajtin": 1066,
      "gowld": 1067,
      "vju": 1068,
      "bol": 1069,
      "livin": 1070,
      "howl": 1071,
      "ilejs": 1072,
      "ejzd": 1073,
      "tsildr": 1074,
      "##kow": 1075,
      "hol": 1076,
      "boj": 1077,
      "tend": 1078,
      "ikwajr": 1079,
      "difit": 1080,
      "vktsr": 1081,
      "fvn": 1082,
      "svbs": 1083,
      "mejkin": 1084,
      "ejtr": 1085,
      "##ownz": 1086,
      "najn": 1087,
      "svmr": 1088,
      "sajnd": 1089,
      "dor": 1090,
      "tsi": 1091,
      "uawt": 1092,
      "skat": 1093,
      "ad": 1094,
      "vejs": 1095,
      "flor": 1096,
      "abr": 1097,
      "wvns": 1098,
      "mvdr": 1099,
      "ajdi": 1100,
      "##ab": 1101,
      "egj": 1102,
      "dikl": 1103,
      "edi": 1104,
      "himself": 1105,
      "##dzik": 1106,
      "svdr": 1107,
      "bam": 1108,
      "tekn": 1109,
      "dipar": 1110,
      "ektr": 1111,
      "##ekj": 1112,
      "##ejz": 1113,
      "stajl": 1114,
      "tens": 1115,
      "tot": 1116,
      "tv": 1117,
      "##udz": 1118,
      "kanst": 1119,
      "tvn": 1120,
      "nm": 1121,
      "itik": 1122,
      "da": 1123,
      "##ig": 1124,
      "val": 1125,
      "nsist": 1126,
      "mvnts": 1127,
      "dajd": 1128,
      "ejk": 1129,
      "tow": 1130,
      "nl": 1131,
      "powzd": 1132,
      "insted": 1133,
      "nawnst": 1134,
      "##eps": 1135,
      "fejvr": 1136,
      "dzejmz": 1137,
      "leks": 1138,
      "itst": 1139,
      "bigin": 1140,
      "kalidz": 1141,
      "viktr": 1142,
      "kvltsr": 1143,
      "mejt": 1144,
      "ledz": 1145,
      "imejnd": 1146,
      "jar": 1147,
      "fif": 1148,
      "ent": 1149,
      "metr": 1150,
      "kast": 1151,
      "##ajdid": 1152,
      "##bor": 1153,
      "##ini": 1154,
      "zejs": 1155,
      "bis": 1156,
      "kj": 1157,
      "gedr": 1158,
      "pejn": 1159,
      "##un": 1160,
      "del": 1161,
      "felt": 1162,
      "gor": 1163,
      "tsajn": 1164,
      "plejst": 1165,
      "kowl": 1166,
      "olm": 1167,
      "ejm": 1168,
      "hevi": 1169,
      "##ejni": 1170,
      "nks": 1171,
      "ptsr": 1172,
      "ejb": 1173,
      "zent": 1174,
      "ajts": 1175,
      "at": 1176,
      "majlz": 1177,
      "nkl": 1178,
      "##edz": 1179,
      "fajt": 1180,
      "fajnd": 1181,
      "diskvvr": 1182,
      "##agr": 1183,
      "fv": 1184,
      "ikspir": 1185,
      "ded": 1186,
      "lekt": 1187,
      "hajr": 1188,
      "ul": 1189,
      "mejl": 1190,
      "##ejtr": 1191,
      "fejs": 1192,
      "ikt": 1193,
      "paz": 1194,
      "mpejn": 1195,
      "zin": 1196,
      "powl": 1197,
      "los": 1198,
      "##of": 1199,
      "nli": 1200,
      "badi": 1201,
      "falowd": 1202,
      "fowk": 1203,
      "bow": 1204,
      "kild": 1205,
      "mt": 1206,
      "spor": 1207,
      "self": 1208,
      "lowkejt": 1209,
      "spejs": 1210,
      "##ez": 1211,
      "temp": 1212,
      "oltr": 1213,
      "nav": 1214,
      "help": 1215,
      "vl": 1216,
      "km": 1217,
      "kawns": 1218,
      "futbol": 1219,
      "fes": 1220,
      "##jut": 1221,
      "gejs": 1222,
      "vejl": 1223,
      "wedr": 1224,
      "lju": 1225,
      "##ets": 1226,
      "bs": 1227,
      "##int": 1228,
      "pojnts": 1229,
      "inz": 1230,
      "isr": 1231,
      "ajdent": 1232,
      "dli": 1233,
      "kvlr": 1234,
      "blist": 1235,
      "abl": 1236,
      "sepr": 1237,
      "ikstr": 1238,
      "##kw": 1239,
      "tar": 1240,
      "vowk": 1241,
      "##endin": 1242,
      "##por": 1243,
      "kap": 1244,
      "lm": 1245,
      "sens": 1246,
      "lk": 1247,
      "lawd": 1248,
      "kind": 1249,
      "sajn": 1250,
      "sajz": 1251,
      "fedr": 1252,
      "dzojn": 1253,
      "intajr": 1254,
      "itiks": 1255,
      "mper": 1256,
      "stiv": 1257,
      "iin": 1258,
      "dejb": 1259,
      "bowl": 1260,
      "itsr": 1261,
      "dejvid": 1262,
      "fim": 1263,
      "sows": 1264,
      "adzekt": 1265,
      "iper": 1266,
      "ant": 1267,
      "ases": 1268,
      "ints": 1269,
      "ndis": 1270,
      "bizn": 1271,
      "ikspr": 1272,
      "plejin": 1273,
      "kazd": 1274,
      "henr": 1275,
      "slow": 1276,
      "ntinju": 1277,
      "sun": 1278,
      "teks": 1279,
      "flit": 1280,
      "pul": 1281,
      "awts": 1282,
      "uvd": 1283,
      "ma": 1284,
      "##alr": 1285,
      "owli": 1286,
      "kwal": 1287,
      "vidz": 1288,
      "sowld": 1289,
      "disajdid": 1290,
      "indip": 1291,
      "bihajnd": 1292,
      "##ajk": 1293,
      "kaz": 1294,
      "hvn": 1295,
      "sid": 1296,
      "iow": 1297,
      "ejnin": 1298,
      "skwadr": 1299,
      "indipend": 1300,
      "fiz": 1301,
      "pol": 1302,
      "dzoj": 1303,
      "##tsu": 1304,
      "wind": 1305,
      "tun": 1306,
      "gdzest": 1307,
      "ajmer": 1308,
      "tempr": 1309,
      "timz": 1310,
      "sut": 1311,
      "anr": 1312,
      "dvn": 1313,
      "junj": 1314,
      "ntik": 1315,
      "mel": 1316,
      "sifik": 1317,
      "##lajn": 1318,
      "##zi": 1319,
      "kawnt": 1320,
      "pen": 1321,
      "invest": 1322,
      "dvs": 1323,
      "olmowst": 1324,
      "imu": 1325,
      "vg": 1326,
      "tser": 1327,
      "al": 1328,
      "gvnz": 1329,
      "wiks": 1330,
      "kwor": 1331,
      "dusr": 1332,
      "mejnt": 1333,
      "tajp": 1334,
      "##ploj": 1335,
      "difens": 1336,
      "##plejst": 1337,
      "zi": 1338,
      "dzen": 1339,
      "nfr": 1340,
      "lidin": 1341,
      "muv": 1342,
      "sf": 1343,
      "dzej": 1344,
      "git": 1345,
      "sat": 1346,
      "ivju": 1347,
      "egz": 1348,
      "vnz": 1349,
      "ses": 1350,
      "pit": 1351,
      "tist": 1352,
      "##wer": 1353,
      "stin": 1354,
      "svfr": 1355,
      "nh": 1356,
      "ajvd": 1357,
      "iti": 1358,
      "kvt": 1359,
      "instr": 1360,
      "otr": 1361,
      "gat": 1362,
      "flaj": 1363,
      "sikjur": 1364,
      "fiks": 1365,
      "ladzik": 1366,
      "enr": 1367,
      "##wejz": 1368,
      "dzow": 1369,
      "ejdiow": 1370,
      "mvnt": 1371,
      "ipl": 1372,
      "gnifik": 1373,
      "##ant": 1374,
      "luk": 1375,
      "gil": 1376,
      "gad": 1377,
      "ipvb": 1378,
      "kamb": 1379,
      "##ok": 1380,
      "esk": 1381,
      "blu": 1382,
      "saw": 1383,
      "put": 1384,
      "nejvi": 1385,
      "mowt": 1386,
      "wasin": 1387,
      "ipt": 1388,
      "ileks": 1389,
      "##fi": 1390,
      "adi": 1391,
      "simp": 1392,
      "##sip": 1393,
      "tsif": 1394,
      "stown": 1395,
      "vst": 1396,
      "klir": 1397,
      "dipr": 1398,
      "sinz": 1399,
      "tsajld": 1400,
      "##gjr": 1401,
      "wajf": 1402,
      "mows": 1403,
      "jut": 1404,
      "pitr": 1405,
      "pejs": 1406,
      "vikt": 1407,
      "infr": 1408,
      "studiow": 1409,
      "ksept": 1410,
      "litr": 1411,
      "lowr": 1412,
      "wasint": 1413,
      "muvm": 1414,
      "miti": 1415,
      "lajzd": 1416,
      "lajnz": 1417,
      "ken": 1418,
      "izr": 1419,
      "mem": 1420,
      "juz": 1421,
      "indzr": 1422,
      "tejs": 1423,
      "pil": 1424,
      "ajzd": 1425,
      "powz": 1426,
      "dili": 1427,
      "sal": 1428,
      "ilidz": 1429,
      "sowsiejs": 1430,
      "kampl": 1431,
      "##ajmz": 1432,
      "dzojnd": 1433,
      "mist": 1434,
      "lowkejs": 1435,
      "howld": 1436,
      "zil": 1437,
      "mvst": 1438,
      "dizajnd": 1439,
      "kansr": 1440,
      "##iejts": 1441,
      "nb": 1442,
      "izvl": 1443,
      "intens": 1444,
      "##olt": 1445,
      "bzr": 1446,
      "letr": 1447,
      "ngw": 1448,
      "##tst": 1449,
      "##itid": 1450,
      "figjr": 1451,
      "bilivd": 1452,
      "vkt": 1453,
      "gitar": 1454,
      "spir": 1455,
      "tejkin": 1456,
      "##tsin": 1457,
      "##mz": 1458,
      "lajz": 1459,
      "ler": 1460,
      "ojd": 1461,
      "af": 1462,
      "sign": 1463,
      "##vndr": 1464,
      "distin": 1465,
      "esr": 1466,
      "fir": 1467,
      "##asp": 1468,
      "tekt": 1469,
      "skt": 1470,
      "iplejst": 1471,
      "tejl": 1472,
      "tip": 1473,
      "empiejts": 1474,
      "lti": 1475,
      "pur": 1476,
      "tut": 1477,
      "##vkt": 1478,
      "##ejtsr": 1479,
      "owb": 1480,
      "kanf": 1481,
      "invalvd": 1482,
      "lejk": 1483,
      "finist": 1484,
      "imidi": 1485,
      "fjutsr": 1486,
      "##ektivli": 1487,
      "smit": 1488,
      "dajn": 1489,
      "sejin": 1490,
      "##ag": 1491,
      "##enti": 1492,
      "gowin": 1493,
      "nsfr": 1494,
      "lown": 1495,
      "bat": 1496,
      "kwin": 1497,
      "nkr": 1498,
      "av": 1499,
      "igzist": 1500,
      "lut": 1501,
      "disiz": 1502,
      "insp": 1503,
      "iejs": 1504,
      "imr": 1505,
      "biginin": 1506,
      "##aws": 1507,
      "##ib": 1508,
      "filmz": 1509,
      "ajk": 1510,
      "##ev": 1511,
      "hal": 1512,
      "betr": 1513,
      "stvdi": 1514,
      "sikw": 1515,
      "tst": 1516,
      "lows": 1517,
      "ven": 1518,
      "vojs": 1519,
      "awtsajd": 1520,
      "gz": 1521,
      "izent": 1522,
      "ivjuz": 1523,
      "sinr": 1524,
      "mezr": 1525,
      "##ef": 1526,
      "ists": 1527,
      "##wud": 1528,
      "til": 1529,
      "blis": 1530,
      "mir": 1531,
      "klejmd": 1532,
      "gejt": 1533,
      "ips": 1534,
      "bvv": 1535,
      "fest": 1536,
      "tsu": 1537,
      "##fol": 1538,
      "##os": 1539,
      "odk": 1540,
      "##av": 1541,
      "sowldzr": 1542,
      "us": 1543,
      "bz": 1544,
      "kip": 1545,
      "##eg": 1546,
      "windz": 1547,
      "apt": 1548,
      "invf": 1549,
      "sinjr": 1550,
      "ejnd": 1551,
      "uv": 1552,
      "dotr": 1553,
      "##ii": 1554,
      "miz": 1555,
      "libr": 1556,
      "eng": 1557,
      "##vdz": 1558,
      "##fild": 1559,
      "##sts": 1560,
      "isu": 1561,
      "##etik": 1562,
      "luis": 1563,
      "sejl": 1564,
      "##az": 1565,
      "##ektid": 1566,
      "##endr": 1567,
      "##owb": 1568,
      "olr": 1569,
      "netwr": 1570,
      "dzinj": 1571,
      "##ajdz": 1572,
      "towld": 1573,
      "spid": 1574,
      "##wel": 1575,
      "fimejl": 1576,
      "edwr": 1577,
      "spent": 1578,
      "sown": 1579,
      "skwer": 1580,
      "majt": 1581,
      "ndi": 1582,
      "vnin": 1583,
      "kanfr": 1584,
      "kat": 1585,
      "sajk": 1586,
      "nejv": 1587,
      "tejn": 1588,
      "fejm": 1589,
      "bjus": 1590,
      "mvni": 1591,
      "fejld": 1592,
      "sistr": 1593,
      "mend": 1594,
      "dam": 1595,
      "ditr": 1596,
      "bits": 1597,
      "najzd": 1598,
      "mikst": 1599,
      "mpl": 1600,
      "pajl": 1601,
      "hat": 1602,
      "kwests": 1603,
      "vowt": 1604,
      "itself": 1605,
      "ikstend": 1606,
      "meks": 1607,
      "kangr": 1608,
      "eksp": 1609,
      "mtajmz": 1610,
      "owdz": 1611,
      "kament": 1612,
      "isin": 1613,
      "sikst": 1614,
      "##esli": 1615,
      "akj": 1616,
      "huz": 1617,
      "hum": 1618,
      "engejdz": 1619,
      "wum": 1620,
      "inh": 1621,
      "nel": 1622,
      "didz": 1623,
      "flajt": 1624,
      "daktr": 1625,
      "liv": 1626,
      "pits": 1627,
      "mens": 1628,
      "majnr": 1629,
      "dakj": 1630,
      "jukej": 1631,
      "uz": 1632,
      "tivli": 1633,
      "##eli": 1634,
      "nit": 1635,
      "lejb": 1636,
      "nkt": 1637,
      "vpr": 1638,
      "vnk": 1639,
      "tsowz": 1640,
      "owts": 1641,
      "nil": 1642,
      "baks": 1643,
      "mes": 1644,
      "fud": 1645,
      "sowvi": 1646,
      "emir": 1647,
      "##pin": 1648,
      "dzim": 1649,
      "##ejndzd": 1650,
      "kwikli": 1651,
      "wu": 1652,
      "kn": 1653,
      "ifekts": 1654,
      "##itin": 1655,
      "##aki": 1656,
      "pejt": 1657,
      "kejz": 1658,
      "##mp": 1659,
      "fift": 1660,
      "wintr": 1661,
      "paj": 1662,
      "dik": 1663,
      "sitsu": 1664,
      "##owzr": 1665,
      "mistr": 1666,
      "mjuzi": 1667,
      "pvn": 1668,
      "##isi": 1669,
      "##ejnt": 1670,
      "sowz": 1671,
      "##owm": 1672,
      "dejbju": 1673,
      "itajr": 1674,
      "fvnd": 1675,
      "estr": 1676,
      "hasp": 1677,
      "ispesli": 1678,
      "zr": 1679,
      "iplejs": 1680,
      "owin": 1681,
      "tivz": 1682,
      "sowdz": 1683,
      "tvnz": 1684,
      "empajr": 1685,
      "memr": 1686,
      "leg": 1687,
      "nuk": 1688,
      "sajzd": 1689,
      "kejp": 1690,
      "lenkt": 1691,
      "flvd": 1692,
      "bikvmin": 1693,
      "imejnin": 1694,
      "##wvn": 1695,
      "ilejtid": 1696,
      "##ejmd": 1697,
      "##pir": 1698,
      "blvd": 1699,
      "web": 1700,
      "kowts": 1701,
      "dikler": 1702,
      "klajm": 1703,
      "ktin": 1704,
      "vir": 1705,
      "##gw": 1706,
      "##vstr": 1707,
      "plat": 1708,
      "winin": 1709,
      "##ats": 1710,
      "##old": 1711,
      "ikspekt": 1712,
      "helt": 1713,
      "intend": 1714,
      "##liz": 1715,
      "ger": 1716,
      "tawr": 1717,
      "owlz": 1718,
      "vlt": 1719,
      "##sel": 1720,
      "pikt": 1721,
      "stik": 1722,
      "mvlt": 1723,
      "iskej": 1724,
      "biliti": 1725,
      "wo": 1726,
      "wejt": 1727,
      "ibj": 1728,
      "spik": 1729,
      "gejd": 1730,
      "##vk": 1731,
      "lik": 1732,
      "vz": 1733,
      "mits": 1734,
      "lejd": 1735,
      "haspit": 1736,
      "##awz": 1737,
      "owlimp": 1738,
      "owv": 1739,
      "twenti": 1740,
      "##awndr": 1741,
      "nejtsr": 1742,
      "ifekt": 1743,
      "dzvdz": 1744,
      "##sajd": 1745,
      "lat": 1746,
      "inspajr": 1747,
      "plaj": 1748,
      "nspor": 1749,
      "invajr": 1750,
      "##bar": 1751,
      "##ojz": 1752,
      "ejlwej": 1753,
      "##eld": 1754,
      "stap": 1755,
      "##pej": 1756,
      "lvm": 1757,
      "ih": 1758,
      "finis": 1759,
      "ejnz": 1760,
      "mant": 1761,
      "buks": 1762,
      "nsin": 1763,
      "mitin": 1764,
      "az": 1765,
      "itor": 1766,
      "##elow": 1767,
      "wep": 1768,
      "hev": 1769,
      "tn": 1770,
      "dilivr": 1771,
      "kagow": 1772,
      "tsajniz": 1773,
      "helpt": 1774,
      "kawntr": 1775,
      "numr": 1776,
      "dus": 1777,
      "ibjut": 1778,
      "longr": 1779,
      "sowsiejt": 1780,
      "bk": 1781,
      "namik": 1782,
      "fejl": 1783,
      "bul": 1784,
      "endr": 1785,
      "bilbor": 1786,
      "lidz": 1787,
      "vf": 1788,
      "kaj": 1789,
      "bildinz": 1790,
      "dzans": 1791,
      "tsejndzd": 1792,
      "emploj": 1793,
      "aps": 1794,
      "jet": 1795,
      "sejlz": 1796,
      "##dawn": 1797,
      "uts": 1798,
      "lajkli": 1799,
      "nejdi": 1800,
      "ajn": 1801,
      "dejli": 1802,
      "##og": 1803,
      "svmtin": 1804,
      "ownr": 1805,
      "viktor": 1806,
      "dzab": 1807,
      "semb": 1808,
      "ejtid": 1809,
      "imejnz": 1810,
      "##mar": 1811,
      "mowstli": 1812,
      "ejv": 1813,
      "##gm": 1814,
      "kgr": 1815,
      "demsel": 1816,
      "demselvz": 1817,
      "ens": 1818,
      "mbr": 1819,
      "muvin": 1820,
      "sikr": 1821,
      "ektli": 1822,
      "vojd": 1823,
      "sejf": 1824,
      "bd": 1825,
      "wejlz": 1826,
      "ltiz": 1827,
      "nn": 1828,
      "##lir": 1829,
      "las": 1830,
      "stim": 1831,
      "wats": 1832,
      "fekt": 1833,
      "mentr": 1834,
      "solt": 1835,
      "wajld": 1836,
      "ntem": 1837,
      "ajzin": 1838,
      "gw": 1839,
      "fowt": 1840,
      "ikan": 1841,
      "ilekt": 1842,
      "nvr": 1843,
      "tsin": 1844,
      "kapiz": 1845,
      "olwejz": 1846,
      "##ejb": 1847,
      "nes": 1848,
      "nbr": 1849,
      "ngr": 1850,
      "fvnks": 1851,
      "##low": 1852,
      "dzunjr": 1853,
      "##hik": 1854,
      "howst": 1855,
      "isud": 1856,
      "inkludz": 1857,
      "dvd": 1858,
      "vej": 1859,
      "ndzr": 1860,
      "nekt": 1861,
      "igzekj": 1862,
      "lf": 1863,
      "link": 1864,
      "pvblis": 1865,
      "piktsr": 1866,
      "tejnm": 1867,
      "tnr": 1868,
      "digr": 1869,
      "##lown": 1870,
      "mpowzd": 1871,
      "##vtin": 1872,
      "kwajr": 1873,
      "mitr": 1874,
      "muvi": 1875,
      "to": 1876,
      "tvts": 1877,
      "imuvd": 1878,
      "impl": 1879,
      "##uk": 1880,
      "tejks": 1881,
      "vjur": 1882,
      "nejtiv": 1883,
      "##tsi": 1884,
      "##min": 1885,
      "mowm": 1886,
      "hej": 1887,
      "mj": 1888,
      "##anik": 1889,
      "tinz": 1890,
      "tus": 1891,
      "mejks": 1892,
      "##ists": 1893,
      "insajd": 1894,
      "nvin": 1895,
      "minut": 1896,
      "vihik": 1897,
      "##sp": 1898,
      "ost": 1899,
      "nidz": 1900,
      "fajtin": 1901,
      "hin": 1902,
      "ojl": 1903,
      "kampleks": 1904,
      "winz": 1905,
      "gowlz": 1906,
      "faks": 1907,
      "sidz": 1908,
      "##edzul": 1909,
      "##fs": 1910,
      "kem": 1911,
      "dzaj": 1912,
      "sis": 1913,
      "empr": 1914,
      "dmr": 1915,
      "pejpr": 1916,
      "##jutr": 1917,
      "ivild": 1918,
      "livd": 1919,
      "siklown": 1920,
      "isuz": 1921,
      "##pejpr": 1922,
      "tud": 1923,
      "nejb": 1924,
      "fjuzd": 1925,
      "##bz": 1926,
      "slajt": 1927,
      "fejt": 1928,
      "anik": 1929,
      "lontst": 1930,
      "bilow": 1931,
      "let": 1932,
      "ispektivli": 1933,
      "##ilz": 1934,
      "ipr": 1935,
      "wis": 1936,
      "tink": 1937,
      "mpr": 1938,
      "smolr": 1939,
      "ndvkt": 1940,
      "vps": 1941,
      "nklud": 1942,
      "fajtr": 1943,
      "silvr": 1944,
      "ntejnz": 1945,
      "loj": 1946,
      "skedzul": 1947,
      "skin": 1948,
      "majnd": 1949,
      "ejli": 1950,
      "pu": 1951,
      "stejtin": 1952,
      "fizik": 1953,
      "nuzpejpr": 1954,
      "ster": 1955,
      "dzli": 1956,
      "ajii": 1957,
      "bib": 1958,
      "ntempr": 1959,
      "owh": 1960,
      "blak": 1961,
      "svbdz": 1962,
      "mv": 1963,
      "dziz": 1964,
      "voj": 1965,
      "##owsi": 1966,
      "nvens": 1967,
      "ajin": 1968,
      "iseps": 1969,
      "dzer": 1970,
      "mini": 1971,
      "sitsuejs": 1972,
      "ezr": 1973,
      "skulz": 1974,
      "itin": 1975,
      "ejni": 1976,
      "izvltid": 1977,
      "klin": 1978,
      "mowni": 1979,
      "mal": 1980,
      "##tawn": 1981,
      "lajd": 1982,
      "givin": 1983,
      "nar": 1984,
      "fu": 1985,
      "stejdi": 1986,
      "ikwest": 1987,
      "majl": 1988,
      "klowzd": 1989,
      "##ojl": 1990,
      "dzm": 1991,
      "divajd": 1992,
      "##haws": 1993,
      "bdz": 1994,
      "gam": 1995,
      "skalr": 1996,
      "awndz": 1997,
      "log": 1998,
      "##iowz": 1999,
      "##plojd": 2000,
      "minz": 2001,
      "sekr": 2002,
      "##ber": 2003,
      "kvst": 2004,
      "lbr": 2005,
      "misig": 2006,
      "wul": 2007,
      "##pi": 2008,
      "##etn": 2009,
      "dmini": 2010,
      "teknik": 2011,
      "ajbz": 2012,
      "dministr": 2013,
      "bad": 2014,
      "plejn": 2015,
      "pid": 2016,
      "dev": 2017,
      "vow": 2018,
      "sajdz": 2019,
      "kit": 2020,
      "svbdzikt": 2021,
      "nlajk": 2022,
      "dents": 2023,
      "dvts": 2024,
      "tekst": 2025,
      "sitiz": 2026,
      "gej": 2027,
      "hvndr": 2028,
      "minin": 2029,
      "##ajdr": 2030,
      "miks": 2031,
      "dzik": 2032,
      "sawti": 2033,
      "esiv": 2034,
      "nejmz": 2035,
      "##elr": 2036,
      "dzows": 2037,
      "##wajd": 2038,
      "sta": 2039,
      "bejt": 2040,
      "owdus": 2041,
      "sum": 2042,
      "nowts": 2043,
      "nowb": 2044,
      "bown": 2045,
      "mvl": 2046,
      "dw": 2047,
      "ejlr": 2048,
      "iksper": 2049,
      "izist": 2050,
      "ets": 2051,
      "pens": 2052,
      "hajli": 2053,
      "##nz": 2054,
      "spits": 2055,
      "band": 2056,
      "##likt": 2057,
      "kis": 2058,
      "tajr": 2059,
      "simb": 2060,
      "kvmin": 2061,
      "##endz": 2062,
      "ml": 2063,
      "##ost": 2064,
      "ves": 2065,
      "endin": 2066,
      "kowd": 2067,
      "tsm": 2068,
      "ipvblik": 2069,
      "kul": 2070,
      "glowb": 2071,
      "livr": 2072,
      "pejnt": 2073,
      "howt": 2074,
      "majkr": 2075,
      "spekt": 2076,
      "bt": 2077,
      "sejnt": 2078,
      "##bow": 2079,
      "ejnts": 2080,
      "gajd": 2081,
      "paw": 2082,
      "##adz": 2083,
      "seksu": 2084,
      "dvr": 2085,
      "hajdr": 2086,
      "valju": 2087,
      "dn": 2088,
      "des": 2089,
      "spat": 2090,
      "ekstr": 2091,
      "lak": 2092,
      "lajbr": 2093,
      "pown": 2094,
      "mowtr": 2095,
      "owlin": 2096,
      "stvdiz": 2097,
      "ikskl": 2098,
      "kseptid": 2099,
      "inin": 2100,
      "ajvin": 2101,
      "mur": 2102,
      "dusin": 2103,
      "nsips": 2104,
      "inkor": 2105,
      "luten": 2106,
      "ilim": 2107,
      "hip": 2108,
      "difend": 2109,
      "tsojs": 2110,
      "##vil": 2111,
      "enkr": 2112,
      "isk": 2113,
      "kowt": 2114,
      "biginz": 2115,
      "sajts": 2116,
      "noj": 2117,
      "mpjutr": 2118,
      "##elv": 2119,
      "tiks": 2120,
      "dzownz": 2121,
      "awd": 2122,
      "skatl": 2123,
      "selz": 2124,
      "skvl": 2125,
      "ejkr": 2126,
      "pvbl": 2127,
      "flajin": 2128,
      "dism": 2129,
      "sajm": 2130,
      "sur": 2131,
      "fown": 2132,
      "gdzests": 2133,
      "skejl": 2134,
      "lejn": 2135,
      "ta": 2136,
      "gi": 2137,
      "jr": 2138,
      "##ani": 2139,
      "##stown": 2140,
      "izvltin": 2141,
      "kept": 2142,
      "tilr": 2143,
      "els": 2144,
      "sawndtr": 2145,
      "displej": 2146,
      "itm": 2147,
      "ls": 2148,
      "sti": 2149,
      "kler": 2150,
      "dapt": 2151,
      "ntejs": 2152,
      "dir": 2153,
      "hajl": 2154,
      "vpt": 2155,
      "simps": 2156,
      "ktsr": 2157,
      "dzvn": 2158,
      "##awntr": 2159,
      "howtel": 2160,
      "##anr": 2161,
      "neks": 2162,
      "neg": 2163,
      "bajagr": 2164,
      "selin": 2165,
      "mbajnd": 2166,
      "uf": 2167,
      "abdz": 2168,
      "##vmp": 2169,
      "ntinjuz": 2170,
      "invejz": 2171,
      "infor": 2172,
      "itsin": 2173,
      "tsejm": 2174,
      "tempts": 2175,
      "ownd": 2176,
      "ipvbl": 2177,
      "gnajzd": 2178,
      "klar": 2179,
      "lawin": 2180,
      "tajd": 2181,
      "tawz": 2182,
      "sawtw": 2183,
      "pejdz": 2184,
      "studiowz": 2185,
      "ur": 2186,
      "bast": 2187,
      "ininz": 2188,
      "inr": 2189,
      "mowb": 2190,
      "bihejv": 2191,
      "tsejmbr": 2192,
      "teknal": 2193,
      "ptr": 2194,
      "ikstensiv": 2195,
      "##ski": 2196,
      "kjr": 2197,
      "ikr": 2198,
      "ntir": 2199,
      "##entsr": 2200,
      "awtr": 2201,
      "ivjur": 2202,
      "imejn": 2203,
      "kajnd": 2204,
      "filmin": 2205,
      "pejd": 2206,
      "sajl": 2207,
      "kowld": 2208,
      "diziz": 2209,
      "bikvmz": 2210,
      "vnr": 2211,
      "vb": 2212,
      "##zign": 2213,
      "ktik": 2214,
      "aksfr": 2215,
      "dezign": 2216,
      "ism": 2217,
      "fa": 2218,
      "def": 2219,
      "vnd": 2220,
      "nejbr": 2221,
      "ntsestr": 2222,
      "kg": 2223,
      "edin": 2224,
      "ud": 2225,
      "uzr": 2226,
      "lonsajd": 2227,
      "sot": 2228,
      "impir": 2229,
      "eb": 2230,
      "wejz": 2231,
      "##owlt": 2232,
      "owejs": 2233,
      "nsis": 2234,
      "plejz": 2235,
      "kolin": 2236,
      "idi": 2237,
      "slajtli": 2238,
      "vietn": 2239,
      "vietnam": 2240,
      "izvlts": 2241,
      "tfor": 2242,
      "kansept": 2243,
      "nw": 2244,
      "nvtin": 2245,
      "gest": 2246,
      "skow": 2247,
      "dze": 2248,
      "inkawntr": 2249,
      "gaj": 2250,
      "antu": 2251,
      "duk": 2252,
      "owf": 2253,
      "intel": 2254,
      "##dzi": 2255,
      "ilaj": 2256,
      "fensiv": 2257,
      "##kwor": 2258,
      "flu": 2259,
      "ajvr": 2260,
      "kojn": 2261,
      "dejts": 2262,
      "mplitli": 2263,
      "winr": 2264,
      "ikwip": 2265,
      "plajd": 2266,
      "sets": 2267,
      "dezignejtid": 2268,
      "ifr": 2269,
      "bibisi": 2270,
      "lukin": 2271,
      "mas": 2272,
      "liti": 2273,
      "mejnli": 2274,
      "lg": 2275,
      "lajs": 2276,
      "##vp": 2277,
      "##vzb": 2278,
      "swid": 2279,
      "##ndzr": 2280,
      "hvzb": 2281,
      "kjut": 2282,
      "iliz": 2283,
      "##vnin": 2284,
      "bm": 2285,
      "twest": 2286,
      "bek": 2287,
      "sajr": 2288,
      "svt": 2289,
      "fawndejs": 2290,
      "enkt": 2291,
      "bus": 2292,
      "dikr": 2293,
      "dventsr": 2294,
      "ispand": 2295,
      "fili": 2296,
      "dzur": 2297,
      "howmz": 2298,
      "wajdli": 2299,
      "##awts": 2300,
      "kvmz": 2301,
      "vt": 2302,
      "bejsbol": 2303,
      "sfir": 2304,
      "nder": 2305,
      "sejv": 2306,
      "##alvd": 2307,
      "##bl": 2308,
      "swit": 2309,
      "gejnd": 2310,
      "iksts": 2311,
      "biand": 2312,
      "kinz": 2313,
      "##wajl": 2314,
      "sez": 2315,
      "jelow": 2316,
      "gowz": 2317,
      "owldr": 2318,
      "tajps": 2319,
      "nds": 2320,
      "stak": 2321,
      "hedkwor": 2322,
      "webs": 2323,
      "iksplejnd": 2324,
      "vjuz": 2325,
      "gm": 2326,
      "imows": 2327,
      "kazin": 2328,
      "mown": 2329,
      "hedz": 2330,
      "ejnfol": 2331,
      "agr": 2332,
      "bab": 2333,
      "##adi": 2334,
      "hits": 2335,
      "kon": 2336,
      "##itejs": 2337,
      "tejlr": 2338,
      "dajvr": 2339,
      "kjub": 2340,
      "ikwipm": 2341,
      "kamik": 2342,
      "ldz": 2343,
      "diskvs": 2344,
      "bilj": 2345,
      "##vlf": 2346,
      "spar": 2347,
      "fajin": 2348,
      "telz": 2349,
      "dejndzr": 2350,
      "iskejp": 2351,
      "dzud": 2352,
      "von": 2353,
      "tejb": 2354,
      "fs": 2355,
      "palis": 2356,
      "fejljr": 2357,
      "iksept": 2358,
      "var": 2359,
      "nvn": 2360,
      "setin": 2361,
      "##itus": 2362,
      "sint": 2363,
      "ldwajd": 2364,
      "istor": 2365,
      "hali": 2366,
      "wund": 2367,
      "sak": 2368,
      "##ank": 2369,
      "twr": 2370,
      "kid": 2371,
      "lowd": 2372,
      "awndin": 2373,
      "minwajl": 2374,
      "biliv": 2375,
      "howmr": 2376,
      "livz": 2377,
      "fejz": 2378,
      "spin": 2379,
      "duin": 2380,
      "indvstr": 2381,
      "gjud": 2382,
      "klaw": 2383,
      "gon": 2384,
      "##amtr": 2385,
      "kanflikt": 2386,
      "kd": 2387,
      "igr": 2388,
      "iksplor": 2389,
      "kilamtr": 2390,
      "ejndzd": 2391,
      "lajvz": 2392,
      "vajs": 2393,
      "bvdz": 2394,
      "nnown": 2395,
      "vis": 2396,
      "wolz": 2397,
      "adzr": 2398,
      "nal": 2399,
      "pinj": 2400,
      "dejbjud": 2401,
      "sejs": 2402,
      "wikli": 2403,
      "nzl": 2404,
      "stejtm": 2405,
      "kantent": 2406,
      "zes": 2407,
      "indz": 2408,
      "wejv": 2409,
      "dvg": 2410,
      "dzejs": 2411,
      "emf": 2412,
      "fas": 2413,
      "dizajr": 2414,
      "klejmz": 2415,
      "vjud": 2416,
      "##iti": 2417,
      "twajs": 2418,
      "nak": 2419,
      "imar": 2420,
      "slej": 2421,
      "anz": 2422,
      "fejst": 2423,
      "ntidz": 2424,
      "nutr": 2425,
      "kaw": 2426,
      "lan": 2427,
      "##istr": 2428,
      "sawtist": 2429,
      "dens": 2430,
      "##lz": 2431,
      "bvs": 2432,
      "nur": 2433,
      "mejntejnd": 2434,
      "flow": 2435,
      "vejt": 2436,
      "##jun": 2437,
      "down": 2438,
      "lvmbi": 2439,
      "tektsr": 2440,
      "kanv": 2441,
      "spowk": 2442,
      "ampt": 2443,
      "##ift": 2444,
      "felow": 2445,
      "hap": 2446,
      "mjuzis": 2447,
      "fuli": 2448,
      "dzojnt": 2449,
      "owkl": 2450,
      "dets": 2451,
      "dvlt": 2452,
      "idzektid": 2453,
      "##usiv": 2454,
      "ski": 2455,
      "wils": 2456,
      "vins": 2457,
      "luz": 2458,
      "skatis": 2459,
      "twelv": 2460,
      "zown": 2461,
      "##hr": 2462,
      "iejtin": 2463,
      "mun": 2464,
      "itisiz": 2465,
      "sowlow": 2466,
      "ejzin": 2467,
      "sembli": 2468,
      "lif": 2469,
      "mvz": 2470,
      "kilin": 2471,
      "lists": 2472,
      "nuli": 2473,
      "##howl": 2474,
      "nats": 2475,
      "junik": 2476,
      "iinfor": 2477,
      "nuklir": 2478,
      "np": 2479,
      "##hud": 2480,
      "ke": 2481,
      "simpli": 2482,
      "ksid": 2483,
      "stur": 2484,
      "luzin": 2485,
      "falowz": 2486,
      "lejdi": 2487,
      "zanr": 2488,
      "ntejnd": 2489,
      "osin": 2490,
      "fjuz": 2491,
      "tsur": 2492,
      "tlik": 2493,
      "pjur": 2494,
      "tsek": 2495,
      "mvlti": 2496,
      "ww": 2497,
      "idin": 2498,
      "pel": 2499,
      "##vmb": 2500,
      "flekt": 2501,
      "nsekj": 2502,
      "kik": 2503,
      "gejn": 2504,
      "umz": 2505,
      "ikstsejndz": 2506,
      "websajt": 2507,
      "svbst": 2508,
      "mest": 2509,
      "bjut": 2510,
      "split": 2511,
      "##alf": 2512,
      "pajd": 2513,
      "tal": 2514,
      "vilj": 2515,
      "delf": 2516,
      "mpowzr": 2517,
      "hud": 2518,
      "##ejnj": 2519,
      "hvl": 2520,
      "nejtin": 2521,
      "zm": 2522,
      "vns": 2523,
      "##kor": 2524,
      "##nik": 2525,
      "valjum": 2526,
      "filmd": 2527,
      "mowd": 2528,
      "lvejnj": 2529,
      "kamj": 2530,
      "ejndzm": 2531,
      "##endow": 2532,
      "segm": 2533,
      "milr": 2534,
      "difensiv": 2535,
      "##ajow": 2536,
      "bed": 2537,
      "##sips": 2538,
      "lowni": 2539,
      "badiz": 2540,
      "svnd": 2541,
      "skaj": 2542,
      "snow": 2543,
      "dog": 2544,
      "distingw": 2545,
      "hajt": 2546,
      "spejn": 2547,
      "diklajn": 2548,
      "dvl": 2549,
      "nter": 2550,
      "pejtr": 2551,
      "##atr": 2552,
      "witdr": 2553,
      "howp": 2554,
      "institus": 2555,
      "gju": 2556,
      "haki": 2557,
      "dalr": 2558,
      "mejr": 2559,
      "jvngr": 2560,
      "woltr": 2561,
      "gli": 2562,
      "sks": 2563,
      "ikseps": 2564,
      "gowsi": 2565,
      "flawr": 2566,
      "tawnz": 2567,
      "sidi": 2568,
      "ojr": 2569,
      "sinin": 2570,
      "ntifik": 2571,
      "tsivd": 2572,
      "ipitid": 2573,
      "##ajzr": 2574,
      "##laj": 2575,
      "##ali": 2576,
      "ifektiv": 2577,
      "misin": 2578,
      "tejt": 2579,
      "ifli": 2580,
      "kampr": 2581,
      "tent": 2582,
      "ajdr": 2583,
      "ilev": 2584,
      "fisr": 2585,
      "ajf": 2586,
      "vajv": 2587,
      "gamplej": 2588,
      "mps": 2589,
      "##emb": 2590,
      "meg": 2591,
      "divajs": 2592,
      "nkin": 2593,
      "ensur": 2594,
      "##tivz": 2595,
      "ntsajz": 2596,
      "bojz": 2597,
      "dmin": 2598,
      "dep": 2599,
      "dajm": 2600,
      "flvdin": 2601,
      "lfr": 2602,
      "disr": 2603,
      "manj": 2604,
      "step": 2605,
      "didn": 2606,
      "hajd": 2607,
      "ign": 2608,
      "onlajn": 2609,
      "##elin": 2610,
      "stejnd": 2611,
      "delfi": 2612,
      "eksr": 2613,
      "wajz": 2614,
      "isi": 2615,
      "bowts": 2616,
      "spend": 2617,
      "fot": 2618,
      "iwej": 2619,
      "pgr": 2620,
      "ejkin": 2621,
      "imuv": 2622,
      "bid": 2623,
      "bet": 2624,
      "njuz": 2625,
      "nist": 2626,
      "nint": 2627,
      "hv": 2628,
      "sejfti": 2629,
      "kjus": 2630,
      "pli": 2631,
      "nsm": 2632,
      "sutin": 2633,
      "sejp": 2634,
      "owhajow": 2635,
      "hejl": 2636,
      "ksi": 2637,
      "givz": 2638,
      "simz": 2639,
      "##itr": 2640,
      "un": 2641,
      "ntejn": 2642,
      "fesr": 2643,
      "##owv": 2644,
      "kejmbr": 2645,
      "owpr": 2646,
      "skedzuld": 2647,
      "lind": 2648,
      "dikt": 2649,
      "bir": 2650,
      "esin": 2651,
      "istejt": 2652,
      "eslin": 2653,
      "bitr": 2654,
      "edr": 2655,
      "bst": 2656,
      "niks": 2657,
      "##owzin": 2658,
      "##anow": 2659,
      "##eti": 2660,
      "##umd": 2661,
      "witn": 2662,
      "fajndz": 2663,
      "kim": 2664,
      "ejdr": 2665,
      "bamr": 2666,
      "svbmr": 2667,
      "pidow": 2668,
      "ibjutid": 2669,
      "mint": 2670,
      "ms": 2671,
      "lonts": 2672,
      "ntejnin": 2673,
      "filin": 2674,
      "##war": 2675,
      "tagr": 2676,
      "eskor": 2677,
      "mvs": 2678,
      "tvtsdawn": 2679,
      "dzuis": 2680,
      "ntis": 2681,
      "##apr": 2682,
      "kwajt": 2683,
      "mejlz": 2684,
      "ivnin": 2685,
      "ikstens": 2686,
      "dekr": 2687,
      "uk": 2688,
      "ulz": 2689,
      "fli": 2690,
      "tk": 2691,
      "nintendow": 2692,
      "sawtwest": 2693,
      "vajdz": 2694,
      "tit": 2695,
      "igzistin": 2696,
      "kolz": 2697,
      "tbol": 2698,
      "beldz": 2699,
      "ivaj": 2700,
      "##spr": 2701,
      "sivin": 2702,
      "howldin": 2703,
      "fvndz": 2704,
      "ejsin": 2705,
      "kanvr": 2706,
      "svl": 2707,
      "loz": 2708,
      "windowz": 2709,
      "kf": 2710,
      "sits": 2711,
      "fildz": 2712,
      "imembr": 2713,
      "gvlf": 2714,
      "nsiskow": 2715,
      "gnejs": 2716,
      "##elt": 2717,
      "vajdin": 2718,
      "isor": 2719,
      "sili": 2720,
      "lejtid": 2721,
      "mawt": 2722,
      "ejtt": 2723,
      "hilz": 2724,
      "getin": 2725,
      "lejbr": 2726,
      "pam": 2727,
      "mjunis": 2728,
      "##sm": 2729,
      "klowsli": 2730,
      "sidni": 2731,
      "dzefr": 2732,
      "imz": 2733,
      "lel": 2734,
      "skim": 2735,
      "plejstejs": 2736,
      "##hed": 2737,
      "semi": 2738,
      "zu": 2739,
      "##vki": 2740,
      "##ilin": 2741,
      "stejb": 2742,
      "hmz": 2743,
      "wejk": 2744,
      "folz": 2745,
      "nsists": 2746,
      "owlimpik": 2747,
      "vfli": 2748,
      "tsik": 2749,
      "kalr": 2750,
      "town": 2751,
      "##atik": 2752,
      "wejtin": 2753,
      "vvl": 2754,
      "plajz": 2755,
      "##awndz": 2756,
      "enitin": 2757,
      "lam": 2758,
      "ejg": 2759,
      "difajnd": 2760,
      "gj": 2761,
      "mpt": 2762,
      "engejdzd": 2763,
      "zir": 2764,
      "##ajnz": 2765,
      "pojntm": 2766,
      "invajt": 2767,
      "wvndr": 2768,
      "inl": 2769,
      "tsiv": 2770,
      "epj": 2771,
      "##har": 2772,
      "haliwud": 2773,
      "ntal": 2774,
      "sap": 2775,
      "##ejkr": 2776,
      "pejntin": 2777,
      "ladz": 2778,
      "bolt": 2779,
      "##anz": 2780,
      "tajf": 2781,
      "dmit": 2782,
      "swim": 2783,
      "egzist": 2784,
      "watst": 2785,
      "num": 2786,
      "kali": 2787,
      "lawz": 2788,
      "ntajn": 2789,
      "svnz": 2790,
      "manstr": 2791,
      "kjur": 2792,
      "##ktiv": 2793,
      "mjut": 2794,
      "nins": 2795,
      "intir": 2796,
      "signifik": 2797,
      "wed": 2798,
      "gnis": 2799,
      "dzinz": 2800,
      "majgr": 2801,
      "tses": 2802,
      "adzekts": 2803,
      "nidr": 2804,
      "mestik": 2805,
      "dinz": 2806,
      "eli": 2807,
      "span": 2808,
      "ejdin": 2809,
      "nfedr": 2810,
      "mek": 2811,
      "dvajzr": 2812,
      "ilajn": 2813,
      "dizni": 2814,
      "gu": 2815,
      "howli": 2816,
      "plejof": 2817,
      "ndid": 2818,
      "mvzl": 2819,
      "pak": 2820,
      "inkvm": 2821,
      "nun": 2822,
      "nest": 2823,
      "gejts": 2824,
      "ient": 2825,
      "sejpt": 2826,
      "hast": 2827,
      "mf": 2828,
      "valk": 2829,
      "klr": 2830,
      "kits": 2831,
      "displ": 2832,
      "sowin": 2833,
      "inejmd": 2834,
      "sig": 2835,
      "fow": 2836,
      "tol": 2837,
      "spand": 2838,
      "emplojd": 2839,
      "gir": 2840,
      "##bawnd": 2841,
      "bejank": 2842,
      "demik": 2843,
      "##wor": 2844,
      "owtst": 2845,
      "bas": 2846,
      "pd": 2847,
      "uvm": 2848,
      "fimejlz": 2849,
      "isinli": 2850,
      "ilif": 2851,
      "ntvki": 2852,
      "widdr": 2853,
      "lejr": 2854,
      "ptejs": 2855,
      "diks": 2856,
      "towl": 2857,
      "izi": 2858,
      "diklajnd": 2859,
      "fajndin": 2860,
      "##howld": 2861,
      "edzistr": 2862,
      "kawnts": 2863,
      "hem": 2864,
      "jow": 2865,
      "ditejlz": 2866,
      "ispekt": 2867,
      "endzojd": 2868,
      "tsus": 2869,
      "blism": 2870,
      "tests": 2871,
      "lid": 2872,
      "owlimpiks": 2873,
      "ast": 2874,
      "duti": 2875,
      "gd": 2876,
      "baw": 2877,
      "ikor": 2878,
      "titsr": 2879,
      "##plr": 2880,
      "kent": 2881,
      "bvn": 2882,
      "ajvz": 2883,
      "ham": 2884,
      "##vg": 2885,
      "nowz": 2886,
      "entajt": 2887,
      "dekejd": 2888,
      "pk": 2889,
      "dzist": 2890,
      "dizajnz": 2891,
      "ispandid": 2892,
      "##idzd": 2893,
      "distinkt": 2894,
      "skar": 2895,
      "##vls": 2896,
      "ksesr": 2897,
      "igzib": 2898,
      "##bn": 2899,
      "bejbi": 2900,
      "eskju": 2901,
      "fid": 2902,
      "spektr": 2903,
      "sifikli": 2904,
      "##vli": 2905,
      "emi": 2906,
      "send": 2907,
      "dipl": 2908,
      "sift": 2909,
      "bvl": 2910,
      "spekj": 2911,
      "pvnk": 2912,
      "abzr": 2913,
      "towni": 2914,
      "bawndr": 2915,
      "ajbin": 2916,
      "wajn": 2917,
      "nment": 2918,
      "dept": 2919,
      "fits": 2920,
      "dzuli": 2921,
      "ejndzr": 2922,
      "vajr": 2923,
      "nim": 2924,
      "hvngr": 2925,
      "wulf": 2926,
      "bihejvjr": 2927,
      "##jar": 2928,
      "tsiz": 2929,
      "tajfun": 2930,
      "tsuz": 2931,
      "tsejs": 2932,
      "uld": 2933,
      "isens": 2934,
      "svd": 2935,
      "izentin": 2936,
      "enejb": 2937,
      "##ipt": 2938,
      "itejnd": 2939,
      "kwik": 2940,
      "supir": 2941,
      "idikt": 2942,
      "sawndz": 2943,
      "bluz": 2944,
      "imli": 2945,
      "pajr": 2946,
      "dk": 2947,
      "towk": 2948,
      "mtv": 2949,
      "ikow": 2950,
      "dest": 2951,
      "zim": 2952,
      "stvdid": 2953,
      "ndfol": 2954,
      "bejsik": 2955,
      "nveks": 2956,
      "ejvi": 2957,
      "ejsi": 2958,
      "dawntawn": 2959,
      "vents": 2960,
      "fawndr": 2961,
      "##ajts": 2962,
      "dispjut": 2963,
      "awtl": 2964,
      "imej": 2965,
      "sd": 2966,
      "iplejsm": 2967,
      "spikin": 2968,
      "suz": 2969,
      "dipikt": 2970,
      "stajn": 2971,
      "mejntejn": 2972,
      "efju": 2973,
      "stapt": 2974,
      "tvndr": 2975,
      "tok": 2976,
      "iksklusiv": 2977,
      "ikwiv": 2978,
      "widz": 2979,
      "mn": 2980,
      "niti": 2981,
      "##tiz": 2982,
      "dejtid": 2983,
      "fjur": 2984,
      "##vmps": 2985,
      "flowt": 2986,
      "dez": 2987,
      "ikli": 2988,
      "inspr": 2989,
      "dizajnr": 2990,
      "siin": 2991,
      "##gar": 2992,
      "lp": 2993,
      "dowm": 2994,
      "dzvnks": 2995,
      "inses": 2996,
      "##od": 2997,
      "emb": 2998,
      "ans": 2999,
      "bvnd": 3000,
      "mat": 3001,
      "luiz": 3002,
      "hon": 3003,
      "edits": 3004,
      "##owdz": 3005,
      "mpet": 3006,
      "mpown": 3007,
      "vajvd": 3008,
      "spektiv": 3009,
      "ejtiv": 3010,
      "dejs": 3011,
      "ejtinz": 3012,
      "dima": 3013,
      "##baks": 3014,
      "mawnts": 3015,
      "fajl": 3016,
      "##kvm": 3017,
      "##fajr": 3018,
      "sonr": 3019,
      "vajvr": 3020,
      "lup": 3021,
      "stajlz": 3022,
      "svmwvn": 3023,
      "mowz": 3024,
      "emiks": 3025,
      "##ipi": 3026,
      "pus": 3027,
      "nedr": 3028,
      "twin": 3029,
      "dzejk": 3030,
      "najts": 3031,
      "eldr": 3032,
      "sats": 3033,
      "ikold": 3034,
      "dzef": 3035,
      "izemb": 3036,
      "hawr": 3037,
      "vetr": 3038,
      "netik": 3039,
      "##elj": 3040,
      "mplis": 3041,
      "hvntin": 3042,
      "wok": 3043,
      "abdzekts": 3044,
      "jug": 3045,
      "ikwipt": 3046,
      "etr": 3047,
      "nger": 3048,
      "bak": 3049,
      "##awnt": 3050,
      "idzd": 3051,
      "idzin": 3052,
      "nowtin": 3053,
      "wvnz": 3054,
      "sild": 3055,
      "tistik": 3056,
      "##ektsr": 3057,
      "dekejdz": 3058,
      "nsistin": 3059,
      "lejz": 3060,
      "##tajm": 3061,
      "midiv": 3062,
      "imejndr": 3063,
      "##vf": 3064,
      "instold": 3065,
      "spansr": 3066,
      "dipend": 3067,
      "vtk": 3068,
      "slejt": 3069,
      "keli": 3070,
      "sajkl": 3071,
      "belt": 3072,
      "wajr": 3073,
      "##af": 3074,
      "ntinjuin": 3075,
      "dutiz": 3076,
      "nzis": 3077,
      "legz": 3078,
      "ali": 3079,
      "ban": 3080,
      "majr": 3081,
      "kost": 3082,
      "kvlt": 3083,
      "wajdspr": 3084,
      "lukt": 3085,
      "slip": 3086,
      "kasts": 3087,
      "lejbawr": 3088,
      "skvlp": 3089,
      "tan": 3090,
      "hajp": 3091,
      "spens": 3092,
      "hid": 3093,
      "powp": 3094,
      "stem": 3095,
      "spekts": 3096,
      "intents": 3097,
      "indown": 3098,
      "klawd": 3099,
      "dzejn": 3100,
      "embr": 3101,
      "slowli": 3102,
      "hvntr": 3103,
      "ofs": 3104,
      "kejtin": 3105,
      "onli": 3106,
      "nsfor": 3107,
      "nba": 3108,
      "iejtiv": 3109,
      "tajgr": 3110,
      "swej": 3111,
      "adow": 3112,
      "svndej": 3113,
      "##stik": 3114,
      "powstid": 3115,
      "tajl": 3116,
      "pju": 3117,
      "smowk": 3118,
      "skawt": 3119,
      "kwant": 3120,
      "nkluz": 3121,
      "awtbr": 3122,
      "klint": 3123,
      "fikst": 3124,
      "knal": 3125,
      "skvli": 3126,
      "hind": 3127,
      "kantest": 3128,
      "bjur": 3129,
      "tak": 3130,
      "kas": 3131,
      "hitlr": 3132,
      "bajp": 3133,
      "kjum": 3134,
      "gin": 3135,
      "welts": 3136,
      "lsip": 3137,
      "nsestr": 3138,
      "najnt": 3139,
      "dajr": 3140,
      "iejtr": 3141,
      "ikstin": 3142,
      "kuk": 3143,
      "stejd": 3144,
      "enk": 3145,
      "long": 3146,
      "ds": 3147,
      "invalvin": 3148,
      "tju": 3149,
      "nspr": 3150,
      "dejtin": 3151,
      "bud": 3152,
      "klivl": 3153,
      "juzr": 3154,
      "edm": 3155,
      "sejld": 3156,
      "##ajtid": 3157,
      "awtst": 3158,
      "daks": 3159,
      "gets": 3160,
      "fens": 3161,
      "tsejn": 3162,
      "btejnd": 3163,
      "idzi": 3164,
      "kjuzd": 3165,
      "ninz": 3166,
      "nad": 3167,
      "finisin": 3168,
      "lkj": 3169,
      "lejtin": 3170,
      "tajz": 3171,
      "lajnm": 3172,
      "inisi": 3173,
      "howstid": 3174,
      "kb": 3175,
      "ajst": 3176,
      "manar": 3177,
      "fiftin": 3178,
      "##lowd": 3179,
      "##idzin": 3180,
      "dvgl": 3181,
      "mjul": 3182,
      "kist": 3183,
      "sumd": 3184,
      "indowniz": 3185,
      "don": 3186,
      "dinajd": 3187,
      "ekspr": 3188,
      "ior": 3189,
      "depj": 3190,
      "skowp": 3191,
      "tidr": 3192,
      "nent": 3193,
      "muvz": 3194,
      "egn": 3195,
      "insist": 3196,
      "kevin": 3197,
      "##elm": 3198,
      "bilon": 3199,
      "klvbz": 3200,
      "oin": 3201,
      "vajt": 3202,
      "vajvin": 3203,
      "bigvn": 3204,
      "##wan": 3205,
      "dezr": 3206,
      "bawnd": 3207,
      "hvnt": 3208,
      "##vks": 3209,
      "bambar": 3210,
      "istiks": 3211,
      "##wotr": 3212,
      "ekw": 3213,
      "kp": 3214,
      "nwel": 3215,
      "ndow": 3216,
      "iwvn": 3217,
      "isbn": 3218,
      "ibelj": 3219,
      "pink": 3220,
      "petr": 3221,
      "mst": 3222,
      "tits": 3223,
      "disend": 3224,
      "skwad": 3225,
      "sowlr": 3226,
      "##kar": 3227,
      "sojl": 3228,
      "##aptr": 3229,
      "##vnd": 3230,
      "sesr": 3231,
      "tsivm": 3232,
      "##itiv": 3233,
      "##adik": 3234,
      "dzent": 3235,
      "fvndin": 3236,
      "ktid": 3237,
      "wet": 3238,
      "disor": 3239,
      "sektr": 3240,
      "plejt": 3241,
      "lajin": 3242,
      "nels": 3243,
      "##dej": 3244,
      "ifektivli": 3245,
      "kejtid": 3246,
      "kowor": 3247,
      "kvnd": 3248,
      "ingr": 3249,
      "sper": 3250,
      "mendm": 3251,
      "dvlts": 3252,
      "osiz": 3253,
      "wejst": 3254,
      "ats": 3255,
      "ojt": 3256,
      "tikli": 3257,
      "dawnlowd": 3258,
      "bmit": 3259,
      "kwinz": 3260,
      "dimens": 3261,
      "folin": 3262,
      "owg": 3263,
      "pikin": 3264,
      "testin": 3265,
      "nvinst": 3266,
      "##wa": 3267,
      "##lam": 3268,
      "dal": 3269,
      "##vmr": 3270,
      "lsips": 3271,
      "tum": 3272,
      "blow": 3273,
      "pajn": 3274,
      "##din": 3275,
      "kansowl": 3276,
      "oz": 3277,
      "vowts": 3278,
      "lvn": 3279,
      "pali": 3280,
      "dzojnin": 3281,
      "ktli": 3282,
      "lift": 3283,
      "##owsl": 3284,
      "sajnz": 3285,
      "tidz": 3286,
      "adiow": 3287,
      "##ajzin": 3288,
      "##vltsr": 3289,
      "antow": 3290,
      "kiz": 3291,
      "but": 3292,
      "pvblisr": 3293,
      "emn": 3294,
      "simd": 3295,
      "dilejd": 3296,
      "simf": 3297,
      "powli": 3298,
      "han": 3299,
      "distingwist": 3300,
      "mentejs": 3301,
      "klejmin": 3302,
      "ikwestid": 3303,
      "siliti": 3304,
      "ejp": 3305,
      "soft": 3306,
      "bal": 3307,
      "##kinz": 3308,
      "##bis": 3309,
      "utin": 3310,
      "elswer": 3311,
      "vmp": 3312,
      "howpt": 3313,
      "##lajt": 3314,
      "gag": 3315,
      "asp": 3316,
      "##asi": 3317,
      "##litin": 3318,
      "nils": 3319,
      "sitin": 3320,
      "##ond": 3321,
      "ejtli": 3322,
      "invalvm": 3323,
      "dzuz": 3324,
      "listik": 3325,
      "temptin": 3326,
      "tsajldhud": 3327,
      "pvblisin": 3328,
      "spajdr": 3329,
      "ulr": 3330,
      "owfi": 3331,
      "lajts": 3332,
      "kupr": 3333,
      "nizejs": 3334,
      "insr": 3335,
      "mbi": 3336,
      "##owdin": 3337,
      "dejn": 3338,
      "adr": 3339,
      "fist": 3340,
      "##fil": 3341,
      "eniwvn": 3342,
      "ibju": 3343,
      "lojr": 3344,
      "dawt": 3345,
      "vedz": 3346,
      "mejtr": 3347,
      "svmw": 3348,
      "##oks": 3349,
      "endzoj": 3350,
      "svmwvt": 3351,
      "nikn": 3352,
      "dipik": 3353,
      "tamps": 3354,
      "tekniks": 3355,
      "ejdar": 3356,
      "kwowt": 3357,
      "bzor": 3358,
      "vejtid": 3359,
      "slejs": 3360,
      "fem": 3361,
      "dismist": 3362,
      "pwer": 3363,
      "fejsin": 3364,
      "gejl": 3365,
      "dimd": 3366,
      "minis": 3367,
      "fols": 3368,
      "kejd": 3369,
      "kanvoj": 3370,
      "timbr": 3371,
      "gnajz": 3372,
      "kastum": 3373,
      "fajlz": 3374,
      "##gi": 3375,
      "fjunr": 3376,
      "##inr": 3377,
      "owlr": 3378,
      "lekts": 3379,
      "##ami": 3380,
      "enfor": 3381,
      "howldz": 3382,
      "nwelt": 3383,
      "klowsr": 3384,
      "sol": 3385,
      "ejks": 3386,
      "tawnsip": 3387,
      "vmz": 3388,
      "sajnin": 3389,
      "##wejt": 3390,
      "engejdzm": 3391,
      "pinz": 3392,
      "##pow": 3393,
      "egr": 3394,
      "litik": 3395,
      "ilowk": 3396,
      "idziz": 3397,
      "glen": 3398,
      "diplojd": 3399,
      "hjudz": 3400,
      "##ub": 3401,
      "##amb": 3402,
      "kamiks": 3403,
      "sajtin": 3404,
      "kanr": 3405,
      "ndskej": 3406,
      "kowp": 3407,
      "welz": 3408,
      "fisin": 3409,
      "spikr": 3410,
      "wiz": 3411,
      "hejz": 3412,
      "ejmd": 3413,
      "ilajzd": 3414,
      "enh": 3415,
      "tsel": 3416,
      "majz": 3417,
      "##akt": 3418,
      "wejl": 3419,
      "##put": 3420,
      "patr": 3421,
      "kejb": 3422,
      "mejnstr": 3423,
      "tad": 3424,
      "wikend": 3425,
      "bvk": 3426,
      "##ekst": 3427,
      "ilisiz": 3428,
      "influents": 3429,
      "nsp": 3430,
      "pojz": 3431,
      "taks": 3432,
      "dna": 3433,
      "bilivz": 3434,
      "##mor": 3435,
      "##ins": 3436,
      "itejs": 3437,
      "iksplowz": 3438,
      "delt": 3439,
      "hitin": 3440,
      "##aps": 3441,
      "watsin": 3442,
      "ivajv": 3443,
      "ibi": 3444,
      "kojnz": 3445,
      "lizejs": 3446,
      "##stin": 3447,
      "hawzin": 3448,
      "enlist": 3449,
      "swor": 3450,
      "hendr": 3451,
      "plejnz": 3452,
      "sensr": 3453,
      "vidiowz": 3454,
      "iun": 3455,
      "hjust": 3456,
      "glor": 3457,
      "kown": 3458,
      "dzet": 3459,
      "eksk": 3460,
      "faw": 3461,
      "iis": 3462,
      "mstr": 3463,
      "##mik": 3464,
      "swidis": 3465,
      "swits": 3466,
      "skilz": 3467,
      "dzes": 3468,
      "astr": 3469,
      "##wik": 3470,
      "gan": 3471,
      "vit": 3472,
      "gvst": 3473,
      "seps": 3474,
      "bim": 3475,
      "tsip": 3476,
      "egzit": 3477,
      "sib": 3478,
      "##mi": 3479,
      "ltejni": 3480,
      "sejn": 3481,
      "abdzekt": 3482,
      "gejtr": 3483,
      "hens": 3484,
      "zur": 3485,
      "ditejl": 3486,
      "isn": 3487,
      "lgr": 3488,
      "bvtr": 3489,
      "nbk": 3490,
      "zow": 3491,
      "ntists": 3492,
      "##inli": 3493,
      "ikl": 3494,
      "emplojiz": 3495,
      "futidz": 3496,
      "jugowsl": 3497,
      "piks": 3498,
      "ajp": 3499,
      "window": 3500,
      "gowsiejs": 3501,
      "gudz": 3502,
      "helik": 3503,
      "sb": 3504,
      "ikspowzd": 3505,
      "diskvst": 3506,
      "wokr": 3507,
      "ival": 3508,
      "lajm": 3509,
      "iksajt": 3510,
      "tejlz": 3511,
      "idzips": 3512,
      "kilr": 3513,
      "ajmz": 3514,
      "tvf": 3515,
      "melbr": 3516,
      "simpt": 3517,
      "spendin": 3518,
      "bowlin": 3519,
      "pust": 3520,
      "sists": 3521,
      "izajnd": 3522,
      "lger": 3523,
      "hjumr": 3524,
      "ditejld": 3525,
      "vejk": 3526,
      "kapi": 3527,
      "kipin": 3528,
      "##juzik": 3529,
      "iventid": 3530,
      "plvs": 3531,
      "spaj": 3532,
      "impas": 3533,
      "ejdzid": 3534,
      "##mejts": 3535,
      "ivilz": 3536,
      "ub": 3537,
      "zbaks": 3538,
      "##wits": 3539,
      "linkt": 3540,
      "##hi": 3541,
      "bendz": 3542,
      "endli": 3543,
      "ptiv": 3544,
      "kvz": 3545,
      "kwaj": 3546,
      "dizr": 3547,
      "smud": 3548,
      "kdan": 3549,
      "baz": 3550,
      "glejs": 3551,
      "seltr": 3552,
      "ntid": 3553,
      "daw": 3554,
      "dl": 3555,
      "inher": 3556,
      "nskr": 3557,
      "ifis": 3558,
      "nowm": 3559,
      "piem": 3560,
      "klej": 3561,
      "kowapr": 3562,
      "sanik": 3563,
      "lkr": 3564,
      "bilif": 3565,
      "sikin": 3566,
      "investm": 3567,
      "skvlptsr": 3568,
      "swejd": 3569,
      "gib": 3570,
      "tsejndzin": 3571,
      "kand": 3572,
      "dzit": 3573,
      "sidzr": 3574,
      "wedin": 3575,
      "##ilt": 3576,
      "ikstent": 3577,
      "vits": 3578,
      "wejn": 3579,
      "mol": 3580,
      "bvf": 3581,
      "umr": 3582,
      "stef": 3583,
      "sejd": 3584,
      "##andr": 3585,
      "env": 3586,
      "##ism": 3587,
      "inskr": 3588,
      "##dzin": 3589,
      "kowk": 3590,
      "fifti": 3591,
      "ifor": 3592,
      "niow": 3593,
      "dzani": 3594,
      "inkw": 3595,
      "sker": 3596,
      "wejvz": 3597,
      "pitst": 3598,
      "gilbr": 3599,
      "powzin": 3600,
      "dvsn": 3601,
      "difendr": 3602,
      "bojlr": 3603,
      "pend": 3604,
      "enz": 3605,
      "stowl": 3606,
      "klak": 3607,
      "istik": 3608,
      "nig": 3609,
      "ilig": 3610,
      "##ajnin": 3611,
      "kvmfr": 3612,
      "pawndz": 3613,
      "sowldr": 3614,
      "##fik": 3615,
      "isip": 3616,
      "kak": 3617,
      "milz": 3618,
      "misis": 3619,
      "limr": 3620,
      "dispr": 3621,
      "swift": 3622,
      "san": 3623,
      "awtf": 3624,
      "mpit": 3625,
      "hvd": 3626,
      "ino": 3627,
      "slejtsr": 3628,
      "##ejgow": 3629,
      "swin": 3630,
      "divor": 3631,
      "sugr": 3632,
      "ndf": 3633,
      "nzlejs": 3634,
      "tejnd": 3635,
      "jues": 3636,
      "dvajs": 3637,
      "owmejni": 3638,
      "hejt": 3639,
      "ditekt": 3640,
      "helikaptr": 3641,
      "##wol": 3642,
      "kamr": 3643,
      "wilin": 3644,
      "ejdid": 3645,
      "invejd": 3646,
      "nglow": 3647,
      "ift": 3648,
      "ivalvd": 3649,
      "tamik": 3650,
      "ljuz": 3651,
      "ilj": 3652,
      "stip": 3653,
      "te": 3654,
      "sejks": 3655,
      "wejtid": 3656,
      "ejmi": 3657,
      "kvts": 3658,
      "tni": 3659,
      "natsi": 3660,
      "ejndzin": 3661,
      "##sk": 3662,
      "kaments": 3663,
      "infeks": 3664,
      "dzown": 3665,
      "itisajzd": 3666,
      "telin": 3667,
      "juesej": 3668,
      "mbis": 3669,
      "hawshowld": 3670,
      "bowld": 3671,
      "dzvm": 3672,
      "tub": 3673,
      "dzimi": 3674,
      "##dor": 3675,
      "##imi": 3676,
      "nkow": 3677,
      "stejn": 3678,
      "dusiz": 3679,
      "disent": 3680,
      "titsin": 3681,
      "fk": 3682,
      "##dziz": 3683,
      "##vnks": 3684,
      "emr": 3685,
      "indid": 3686,
      "filz": 3687,
      "lebr": 3688,
      "wilst": 3689,
      "kjumj": 3690,
      "fleks": 3691,
      "lem": 3692,
      "tletik": 3693,
      "pejntinz": 3694,
      "ln": 3695,
      "najm": 3696,
      "idis": 3697,
      "lajnd": 3698,
      "##itsu": 3699,
      "ignor": 3700,
      "majnor": 3701,
      "klem": 3702,
      "eksploj": 3703,
      "fts": 3704,
      "leni": 3705,
      "kjuz": 3706,
      "flem": 3707,
      "kowm": 3708,
      "mak": 3709,
      "lektsr": 3710,
      "dipendin": 3711,
      "hejlow": 3712,
      "nfjuz": 3713,
      "##owks": 3714,
      "sitsuejtid": 3715,
      "displejd": 3716,
      "ntest": 3717,
      "vgbi": 3718,
      "ajks": 3719,
      "dwor": 3720,
      "slejtiv": 3721,
      "lvvr": 3722,
      "pejtin": 3723,
      "iln": 3724,
      "pst": 3725,
      "##entr": 3726,
      "manik": 3727,
      "lektr": 3728,
      "##avi": 3729,
      "nklin": 3730,
      "klowzin": 3731,
      "##idziz": 3732,
      "##vnt": 3733,
      "hajbr": 3734,
      "mvnst": 3735,
      "diejgow": 3736,
      "softwer": 3737,
      "helpin": 3738,
      "kst": 3739,
      "zar": 3740,
      "##pisiz": 3741,
      "velt": 3742,
      "plejofs": 3743,
      "gejtid": 3744,
      "kejts": 3745,
      "misiz": 3746,
      "mvd": 3747,
      "staj": 3748,
      "##elz": 3749,
      "itejl": 3750,
      "westwr": 3751,
      "##howldz": 3752,
      "tinkin": 3753,
      "wudz": 3754,
      "fajs": 3755,
      "##ejks": 3756,
      "welk": 3757,
      "giz": 3758,
      "miljr": 3759,
      "bejkr": 3760,
      "majnin": 3761,
      "mam": 3762,
      "ests": 3763,
      "lestr": 3764,
      "tsili": 3765,
      "sejkspir": 3766,
      "bilivin": 3767,
      "nip": 3768,
      "minisowt": 3769,
      "##owdi": 3770,
      "pat": 3771,
      "misisipi": 3772,
      "sejvd": 3773,
      "vietnamis": 3774,
      "pvblikli": 3775,
      "ani": 3776,
      "kh": 3777,
      "ko": 3778,
      "dzas": 3779,
      "mtr": 3780,
      "dvz": 3781,
      "mowl": 3782,
      "likw": 3783,
      "vojst": 3784,
      "tsir": 3785,
      "hajwejz": 3786,
      "difitin": 3787,
      "flajts": 3788,
      "wokin": 3789,
      "##inh": 3790,
      "svnk": 3791,
      "##hir": 3792,
      "sizr": 3793,
      "izumd": 3794,
      "tidzik": 3795,
      "embar": 3796,
      "lini": 3797,
      "hedin": 3798,
      "mpitid": 3799,
      "luks": 3800,
      "ksr": 3801,
      "ngj": 3802,
      "ejzi": 3803,
      "bold": 3804,
      "filinz": 3805,
      "vsr": 3806,
      "koj": 3807,
      "kawntiz": 3808,
      "kankr": 3809,
      "steps": 3810,
      "kwit": 3811,
      "etnik": 3812,
      "dilibr": 3813,
      "svbdzik": 3814,
      "ajdin": 3815,
      "svbdzikts": 3816,
      "ndm": 3817,
      "saft": 3818,
      "bdzektiv": 3819,
      "bowlt": 3820,
      "vptid": 3821,
      "blajnd": 3822,
      "fvni": 3823,
      "vzd": 3824,
      "ejst": 3825,
      "minr": 3826,
      "utid": 3827,
      "tsbis": 3828,
      "saks": 3829,
      "nber": 3830,
      "dzuv": 3831,
      "kejnz": 3832,
      "tf": 3833,
      "stu": 3834,
      "ftid": 3835,
      "bjuti": 3836,
      "mli": 3837,
      "not": 3838,
      "##gowin": 3839,
      "##nin": 3840,
      "ventsr": 3841,
      "owsid": 3842,
      "iwor": 3843,
      "mplitin": 3844,
      "sejk": 3845,
      "lejks": 3846,
      "lip": 3847,
      "vgz": 3848,
      "tul": 3849,
      "wejd": 3850,
      "kloz": 3851,
      "sipin": 3852,
      "savr": 3853,
      "ikvltsr": 3854,
      "majnz": 3855,
      "blaks": 3856,
      "vejg": 3857,
      "klvstr": 3858,
      "iol": 3859,
      "mistejk": 3860,
      "distinktiv": 3861,
      "abvi": 3862,
      "##epts": 3863,
      "##bit": 3864,
      "dinr": 3865,
      "aki": 3866,
      "nuvr": 3867,
      "kejdz": 3868,
      "ajkin": 3869,
      "najs": 3870,
      "lajkt": 3871,
      "dilej": 3872,
      "bist": 3873,
      "ilvkt": 3874,
      "muviz": 3875,
      "no": 3876,
      "kibor": 3877,
      "luizi": 3878,
      "bj": 3879,
      "gilti": 3880,
      "iplejsin": 3881,
      "nejd": 3882,
      "ivowlt": 3883,
      "mentid": 3884,
      "mvsr": 3885,
      "kidz": 3886,
      "kselr": 3887,
      "fjud": 3888,
      "bajs": 3889,
      "powlr": 3890,
      "nut": 3891,
      "kapr": 3892,
      "kwest": 3893,
      "fajld": 3894,
      "zents": 3895,
      "invr": 3896,
      "edn": 3897,
      "ikspensiv": 3898,
      "##helm": 3899,
      "svbr": 3900,
      "dzists": 3901,
      "nfes": 3902,
      "pet": 3903,
      "##amp": 3904,
      "##ont": 3905,
      "inow": 3906,
      "najz": 3907,
      "nawnsm": 3908,
      "vvlnr": 3909,
      "##kju": 3910,
      "mvntr": 3911,
      "ajli": 3912,
      "wants": 3913,
      "puld": 3914,
      "tdej": 3915,
      "sowni": 3916,
      "ejviejs": 3917,
      "vtr": 3918,
      "##gejt": 3919,
      "tajzin": 3920,
      "fiziks": 3921,
      "nspir": 3922,
      "idiz": 3923,
      "bihejvir": 3924,
      "##ektin": 3925,
      "##eni": 3926,
      "lesr": 3927,
      "esp": 3928,
      "##ejvi": 3929,
      "pe": 3930,
      "lajzin": 3931,
      "##ai": 3932,
      "kir": 3933,
      "##owts": 3934,
      "fingr": 3935,
      "gdzestin": 3936,
      "##ebr": 3937,
      "welti": 3938,
      "wazn": 3939,
      "lav": 3940,
      "fled": 3941,
      "vajzd": 3942,
      "ibilt": 3943,
      "sendin": 3944,
      "idam": 3945,
      "powlz": 3946,
      "pdejt": 3947,
      "ndem": 3948,
      "gjuz": 3949,
      "downejt": 3950,
      "istin": 3951,
      "bamin": 3952,
      "dagz": 3953,
      "intuzi": 3954,
      "pejtid": 3955,
      "vowl": 3956,
      "endor": 3957,
      "gnetik": 3958,
      "iskejpt": 3959,
      "kankw": 3960,
      "owdiz": 3961,
      "wajdr": 3962,
      "lesli": 3963,
      "##wi": 3964,
      "ndl": 3965,
      "dejm": 3966,
      "svbspisiz": 3967,
      "dzabz": 3968,
      "disajdz": 3969,
      "olmjuzik": 3970,
      "##plojm": 3971,
      "slejvz": 3972,
      "owfajl": 3973,
      "ledzd": 3974,
      "izown": 3975,
      "ipts": 3976,
      "selt": 3977,
      "gsip": 3978,
      "##oft": 3979,
      "svpl": 3980,
      "vmr": 3981,
      "vii": 3982,
      "stownz": 3983,
      "owtin": 3984,
      "klaj": 3985,
      "indiz": 3986,
      "uvin": 3987,
      "##akr": 3988,
      "pist": 3989,
      "mejnl": 3990,
      "mang": 3991,
      "babi": 3992,
      "klif": 3993,
      "lun": 3994,
      "ktir": 3995,
      "lajnr": 3996,
      "sfer": 3997,
      "##buk": 3998,
      "owtest": 3999,
      "gift": 4000,
      "hok": 4001,
      "##idid": 4002,
      "owr": 4003,
      "atr": 4004,
      "instol": 4005,
      "misel": 4006,
      "bvlk": 4007,
      "pitsr": 4008,
      "pejm": 4009,
      "##adzik": 4010,
      "flur": 4011,
      "slejv": 4012,
      "mitinz": 4013,
      "owsin": 4014,
      "itsu": 4015,
      "tlits": 4016,
      "wig": 4017,
      "iksplejn": 4018,
      "iksplejnz": 4019,
      "owtsin": 4020,
      "nfor": 4021,
      "tendin": 4022,
      "tint": 4023,
      "ikspowzr": 4024,
      "ejmz": 4025,
      "mk": 4026,
      "switsr": 4027,
      "odwej": 4028,
      "vad": 4029,
      "fawndin": 4030,
      "dajz": 4031,
      "wolt": 4032,
      "##ham": 4033,
      "plut": 4034,
      "duow": 4035,
      "jusf": 4036,
      "and": 4037,
      "##baj": 4038,
      "kvv": 4039,
      "vniks": 4040,
      "pawnd": 4041,
      "tokin": 4042,
      "idiktid": 4043,
      "##ikr": 4044,
      "fidin": 4045,
      "##kn": 4046,
      "##umr": 4047,
      "powsts": 4048,
      "btejn": 4049,
      "btr": 4050,
      "ulin": 4051,
      "sind": 4052,
      "bamz": 4053,
      "hawshowldz": 4054,
      "lejnz": 4055,
      "svlt": 4056,
      "listin": 4057,
      "kvs": 4058,
      "indr": 4059,
      "disajd": 4060,
      "swimin": 4061,
      "sam": 4062,
      "ejzr": 4063,
      "##pojn": 4064,
      "fastr": 4065,
      "hvds": 4066,
      "mud": 4067,
      "lejts": 4068,
      "ipitidli": 4069,
      "##lajnz": 4070,
      "ifl": 4071,
      "dzvmp": 4072,
      "itejn": 4073,
      "ktiks": 4074,
      "bownz": 4075,
      "nzlejt": 4076,
      "wejni": 4077,
      "owtsiz": 4078,
      "istsi": 4079,
      "##sar": 4080,
      "wzr": 4081,
      "inkin": 4082,
      "liow": 4083,
      "ejdiejs": 4084,
      "@@": 4085,
      "denis": 4086,
      "teksts": 4087,
      "dvbd": 4088,
      "tistiks": 4089,
      "##juzd": 4090,
      "endsip": 4091,
      "kantekst": 4092,
      "dvst": 4093,
      "smar": 4094,
      "##lif": 4095,
      "towm": 4096,
      "gadz": 4097,
      "ndskejp": 4098,
      "ong": 4099,
      "onr": 4100,
      "##etiks": 4101,
      "gasp": 4102,
      "zks": 4103,
      "ajsl": 4104,
      "lil": 4105,
      "towkiow": 4106,
      "ndejs": 4107,
      "wal": 4108,
      "kvtin": 4109,
      "setlr": 4110,
      "denmar": 4111,
      "bw": 4112,
      "gini": 4113,
      "tents": 4114,
      "bents": 4115,
      "nsvlt": 4116,
      "skets": 4117,
      "##egr": 4118,
      "hindu": 4119,
      "##ektivz": 4120,
      "fajz": 4121,
      "sikstin": 4122,
      "enlistid": 4123,
      "uks": 4124,
      "tkw": 4125,
      "vowlt": 4126,
      "dilin": 4127,
      "mpejnz": 4128,
      "tet": 4129,
      "spajr": 4130,
      "vsin": 4131,
      "wilhelm": 4132,
      "dipiks": 4133,
      "zinz": 4134,
      "iksklud": 4135,
      "##ajin": 4136,
      "lojd": 4137,
      "deklr": 4138,
      "fg": 4139,
      "dvk": 4140,
      "pojntin": 4141,
      "litiz": 4142,
      "ndinz": 4143,
      "klowdin": 4144,
      "nzr": 4145,
      "##wil": 4146,
      "owhib": 4147,
      "vizw": 4148,
      "piz": 4149,
      "wir": 4150,
      "ajor": 4151,
      "kampawndz": 4152,
      "stir": 4153,
      "##ejdr": 4154,
      "nektin": 4155,
      "##stajn": 4156,
      "flr": 4157,
      "minh": 4158,
      "inkwajr": 4159,
      "nkiz": 4160,
      "pv": 4161,
      "dig": 4162,
      "dimalist": 4163,
      "helm": 4164,
      "elm": 4165,
      "holt": 4166,
      "plaz": 4167,
      "owlivi": 4168,
      "kejtr": 4169,
      "ikspens": 4170,
      "owbam": 4171,
      "##kat": 4172,
      "imjun": 4173,
      "insekts": 4174,
      "finiks": 4175,
      "##owvr": 4176,
      "dzt": 4177,
      "##owsiv": 4178,
      "blisin": 4179,
      "slejvr": 4180,
      "gowst": 4181,
      "ditir": 4182,
      "dzvdzm": 4183,
      "gild": 4184,
      "ndik": 4185,
      "toj": 4186,
      "emplojm": 4187,
      "difendin": 4188,
      "##isin": 4189,
      "timd": 4190,
      "dzendr": 4191,
      "skil": 4192,
      "najntin": 4193,
      "swis": 4194,
      "jam": 4195,
      "nku": 4196,
      "lvvd": 4197,
      "sowp": 4198,
      "gowsiejt": 4199,
      "jvng": 4200,
      "##unz": 4201,
      "kustik": 4202,
      "gejdz": 4203,
      "suts": 4204,
      "inogr": 4205,
      "dzup": 4206,
      "venju": 4207,
      "divowt": 4208,
      "ejbi": 4209,
      "lum": 4210,
      "ekow": 4211,
      "ikol": 4212,
      "nojz": 4213,
      "tenjr": 4214,
      "kilz": 4215,
      "mistir": 4216,
      "was": 4217,
      "owst": 4218,
      "anter": 4219,
      "tistr": 4220,
      "mowtiv": 4221,
      "ekspl": 4222,
      "pvtin": 4223,
      "angowin": 4224,
      "kad": 4225,
      "kes": 4226,
      "##plejr": 4227,
      "mig": 4228,
      "bazni": 4229,
      "lili": 4230,
      "nles": 4231,
      "wejs": 4232,
      "izor": 4233,
      "inisiejt": 4234,
      "hjuz": 4235,
      "##ofski": 4236,
      "valkejn": 4237,
      "hajpat": 4238,
      "tna": 4239,
      "knalidzd": 4240,
      "lektsu": 4241,
      "isipitejs": 4242,
      "dat": 4243,
      "skel": 4244,
      "pvz": 4245,
      "nsal": 4246,
      "##vmfr": 4247,
      "##owtow": 4248,
      "plejsin": 4249,
      "silin": 4250,
      "niin": 4251,
      "madz": 4252,
      "ejvz": 4253,
      "dzuejtid": 4254,
      "indidz": 4255,
      "itsm": 4256,
      "howsts": 4257,
      "waji": 4258,
      "valjumz": 4259,
      "iksplowsiv": 4260,
      "##owli": 4261,
      "lowp": 4262,
      "##hajm": 4263,
      "skats": 4264,
      "filtr": 4265,
      "flemin": 4266,
      "##uin": 4267,
      "imin": 4268,
      "maw": 4269,
      "iviz": 4270,
      "kaks": 4271,
      "kejv": 4272,
      "insur": 4273,
      "viv": 4274,
      "##wk": 4275,
      "##kiz": 4276,
      "spis": 4277,
      "##kvmin": 4278,
      "nejtid": 4279,
      "kwadr": 4280,
      "sted": 4281,
      "bitin": 4282,
      "##vski": 4283,
      "ntejtr": 4284,
      "ivil": 4285,
      "sep": 4286,
      "ped": 4287,
      "tapt": 4288,
      "sef": 4289,
      "nkuvr": 4290,
      "tajn": 4291,
      "ivjud": 4292,
      "kwr": 4293,
      "nvins": 4294,
      "tubz": 4295,
      "ajdil": 4296,
      "imor": 4297,
      "nejtr": 4298,
      "dzn": 4299,
      "uki": 4300,
      "sejlr": 4301,
      "welt": 4302,
      "kaligz": 4303,
      "ksown": 4304,
      "howml": 4305,
      "sawtistr": 4306,
      "tkwejk": 4307,
      "##fin": 4308,
      "skap": 4309,
      "ndmar": 4310,
      "olt": 4311,
      "vajn": 4312,
      "##ezr": 4313,
      "ejin": 4314,
      "dimin": 4315,
      "dzar": 4316,
      "dzel": 4317,
      "##ejvr": 4318,
      "imowt": 4319,
      "ajdz": 4320,
      "mitm": 4321,
      "uif": 4322,
      "dwajt": 4323,
      "##lits": 4324,
      "tejst": 4325,
      "feks": 4326,
      "nukli": 4327,
      "lvr": 4328,
      "ihr": 4329,
      "inplej": 4330,
      "ikts": 4331,
      "kial": 4332,
      "vowtin": 4333,
      "vowtr": 4334,
      "kvlm": 4335,
      "##enz": 4336,
      "dzowk": 4337,
      "sakr": 4338,
      "sekts": 4339,
      "##idzi": 4340,
      "##edi": 4341,
      "hajpr": 4342,
      "ilajz": 4343,
      "binit": 4344,
      "ikvvr": 4345,
      "likt": 4346,
      "dum": 4347,
      "ntown": 4348,
      "sesm": 4349,
      "bn": 4350,
      "mpsr": 4351,
      "##hu": 4352,
      "sizd": 4353,
      "mowtivz": 4354,
      "zilj": 4355,
      "itiz": 4356,
      "toks": 4357,
      "##ilr": 4358,
      "mpitin": 4359,
      "tejnin": 4360,
      "nsivd": 4361,
      "fejlin": 4362,
      "##wajz": 4363,
      "disb": 4364,
      "nows": 4365,
      "hajn": 4366,
      "epl": 4367,
      "lajft": 4368,
      "##bab": 4369,
      "ksiz": 4370,
      "links": 4371,
      "pilz": 4372,
      "owtr": 4373,
      "twestr": 4374,
      "##hor": 4375,
      "##ojst": 4376,
      "pent": 4377,
      "wist": 4378,
      "ojin": 4379,
      "mitior": 4380,
      "juk": 4381,
      "fowld": 4382,
      "ivendz": 4383,
      "##fer": 4384,
      "pejl": 4385,
      "##badi": 4386,
      "ndvk": 4387,
      "nklir": 4388,
      "finl": 4389,
      "staps": 4390,
      "ivajzd": 4391,
      "kamentin": 4392,
      "sul": 4393,
      "kidn": 4394,
      "kalinz": 4395,
      "awnz": 4396,
      "##lajf": 4397,
      "dzekt": 4398,
      "##kipr": 4399,
      "bent": 4400,
      "jild": 4401,
      "lw": 4402,
      "falowr": 4403,
      "hes": 4404,
      "kwej": 4405,
      "iplajd": 4406,
      "mejzin": 4407,
      "lajziz": 4408,
      "dvm": 4409,
      "lint": 4410,
      "infild": 4411,
      "ajdentik": 4412,
      "kbr": 4413,
      "bejr": 4414,
      "##boj": 4415,
      "kab": 4416,
      "nejdow": 4417,
      "gvnr": 4418,
      "##ajsiv": 4419,
      "vltr": 4420,
      "eksplojt": 4421,
      "ibr": 4422,
      "flowz": 4423,
      "mvltiplejr": 4424,
      "wandr": 4425,
      "najtr": 4426,
      "ejbr": 4427,
      "lajtin": 4428,
      "uli": 4429,
      "##ug": 4430,
      "izalvd": 4431,
      "ilin": 4432,
      "istwr": 4433,
      "ilr": 4434,
      "ntowniow": 4435,
      "lajftajm": 4436,
      "pitsbr": 4437,
      "hili": 4438,
      "gejmin": 4439,
      "menst": 4440,
      "beng": 4441,
      "howldr": 4442,
      "wii": 4443,
      "dejl": 4444,
      "sejlin": 4445,
      "kwinzl": 4446,
      "wvtevr": 4447,
      "tsestr": 4448,
      "elis": 4449,
      "##itiz": 4450,
      "zentejs": 4451,
      "iksklusivli": 4452,
      "##atow": 4453,
      "lajtr": 4454,
      "maskow": 4455,
      "##awm": 4456,
      "ektin": 4457,
      "webr": 4458,
      "sag": 4459,
      "wejdz": 4460,
      "dajin": 4461,
      "dmajr": 4462,
      "tejp": 4463,
      "kankwest": 4464,
      "wat": 4465,
      "sitr": 4466,
      "flejmz": 4467,
      "jutil": 4468,
      "kjul": 4469,
      "mplejn": 4470,
      "##entid": 4471,
      "##gan": 4472,
      "##igjr": 4473,
      "molt": 4474,
      "bajb": 4475,
      "empti": 4476,
      "dvajzd": 4477,
      "##ha": 4478,
      "##najt": 4479,
      "kur": 4480,
      "ilit": 4481,
      "##ili": 4482,
      "nowp": 4483,
      "amni": 4484,
      "distsar": 4485,
      "najdz": 4486,
      "dejviz": 4487,
      "limp": 4488,
      "##han": 4489,
      "etik": 4490,
      "disg": 4491,
      "awtput": 4492,
      "lektin": 4493,
      "pg": 4494,
      "mejkr": 4495,
      "spvn": 4496,
      "ejlz": 4497,
      "dzudis": 4498,
      "ngl": 4499,
      "ispektiv": 4500,
      "displejz": 4501,
      "ikstendin": 4502,
      "vniksp": 4503,
      "sad": 4504,
      "kvmb": 4505,
      "epik": 4506,
      "nag": 4507,
      "sajklownz": 4508,
      "dztwk": 4509,
      "iksplis": 4510,
      "owtests": 4511,
      "nvnd": 4512,
      "dzowz": 4513,
      "bejl": 4514,
      "##ajp": 4515,
      "azlow": 4516,
      "egzajl": 4517,
      "talr": 4518,
      "owdi": 4519,
      "sinow": 4520,
      "inkluz": 4521,
      "milk": 4522,
      "##wit": 4523,
      "bejsm": 4524,
      "pjup": 4525,
      "##ektejs": 4526,
      "igzists": 4527,
      "pejntr": 4528,
      "mejntejnin": 4529,
      "ekspektejs": 4530,
      "hejv": 4531,
      "klor": 4532,
      "slowv": 4533,
      "ntar": 4534,
      "dajs": 4535,
      "svsp": 4536,
      "nejts": 4537,
      "ejnr": 4538,
      "dzest": 4539,
      "ilowkejtid": 4540,
      "##esiv": 4541,
      "kampawnd": 4542,
      "lektiv": 4543,
      "npajk": 4544,
      "glejsr": 4545,
      "dows": 4546,
      "owsoft": 4547,
      "fed": 4548,
      "ga": 4549,
      "tendr": 4550,
      "bawn": 4551,
      "klowzr": 4552,
      "ajtinz": 4553,
      "bvb": 4554,
      "##ati": 4555,
      "pejli": 4556,
      "tfr": 4557,
      "mvntli": 4558,
      "##plejs": 4559,
      "lajtnin": 4560,
      "displejst": 4561,
      "silv": 4562,
      "tunz": 4563,
      "vnikspektid": 4564,
      "nsumr": 4565,
      "nowl": 4566,
      "kowtsiz": 4567,
      "zbr": 4568,
      "bowin": 4569,
      "fvng": 4570,
      "dzvdziz": 4571,
      "zaj": 4572,
      "##itow": 4573,
      "divajn": 4574,
      "miksin": 4575,
      "mvnd": 4576,
      "sefild": 4577,
      "hejst": 4578,
      "nstajn": 4579,
      "sawr": 4580,
      "ziz": 4581,
      "dzanst": 4582,
      "blakt": 4583,
      "pvls": 4584,
      "vel": 4585,
      "iksid": 4586,
      "snejk": 4587,
      "despr": 4588,
      "oskr": 4589,
      "ndfadr": 4590,
      "fbi": 4591,
      "##kejs": 4592,
      "gjuin": 4593,
      "sdiks": 4594,
      "hajlajt": 4595,
      "vaw": 4596,
      "stow": 4597,
      "##ajdin": 4598,
      "##jow": 4599,
      "nlajkli": 4600,
      "pad": 4601,
      "inor": 4602,
      "blakejd": 4603,
      "bowlr": 4604,
      "disejb": 4605,
      "invent": 4606,
      "divr": 4607,
      "nstitsu": 4608,
      "heviwejt": 4609,
      "ejsiow": 4610,
      "isti": 4611,
      "wisk": 4612,
      "lud": 4613,
      "nap": 4614,
      "ndziz": 4615,
      "##alik": 4616,
      "awtkvm": 4617,
      "iadik": 4618,
      "selr": 4619,
      "nikowl": 4620,
      "ants": 4621,
      "muham": 4622,
      "hd": 4623,
      "pejdr": 4624,
      "bejli": 4625,
      "##ust": 4626,
      "igzem": 4627,
      "kajl": 4628,
      "sivz": 4629,
      "igar": 4630,
      "won": 4631,
      "sink": 4632,
      "simj": 4633,
      "upr": 4634,
      "ndlin": 4635,
      "dzem": 4636,
      "nakt": 4637,
      "mikstsr": 4638,
      "bum": 4639,
      "tselsi": 4640,
      "vnts": 4641,
      "##jus": 4642,
      "sindr": 4643,
      "kel": 4644,
      "##fl": 4645,
      "dipli": 4646,
      "towd": 4647,
      "##vow": 4648,
      "dejnis": 4649,
      "galf": 4650,
      "lips": 4651,
      "tsen": 4652,
      "tajlr": 4653,
      "gests": 4654,
      "mpajr": 4655,
      "demow": 4656,
      "##vsk": 4657,
      "bstr": 4658,
      "nef": 4659,
      "##bin": 4660,
      "ndzin": 4661,
      "howpin": 4662,
      "gejtin": 4663,
      "siner": 4664,
      "pasts": 4665,
      "bizi": 4666,
      "pilr": 4667,
      "nejmin": 4668,
      "sutr": 4669,
      "##zdi": 4670,
      "##mer": 4671,
      "tsest": 4672,
      "agz": 4673,
      "ibjutin": 4674,
      "akl": 4675,
      "naks": 4676,
      "pvnism": 4677,
      "downi": 4678,
      "lenr": 4679,
      "mfi": 4680,
      "ekspor": 4681,
      "hajm": 4682,
      "pojntid": 4683,
      "mowld": 4684,
      "##ejmi": 4685,
      "owsi": 4686,
      "blum": 4687,
      "gejmsp": 4688,
      "jukr": 4689,
      "vjuin": 4690,
      "gejnin": 4691,
      "bajr": 4692,
      "palow": 4693,
      "sinim": 4694,
      "mantg": 4695,
      "ekst": 4696,
      "kbz": 4697,
      "awtin": 4698,
      "ofsor": 4699,
      "##ejr": 4700,
      "##idzu": 4701,
      "iksplejnin": 4702,
      "nits": 4703,
      "dvktiv": 4704,
      "sawtwestr": 4705,
      "mos": 4706,
      "vwar": 4707,
      "ikstinkt": 4708,
      "##pap": 4709,
      "gatik": 4710,
      "inu": 4711,
      "isajs": 4712,
      "wudl": 4713,
      "kos": 4714,
      "huk": 4715,
      "majs": 4716,
      "ifin": 4717,
      "sejkr": 4718,
      "tsim": 4719,
      "##ipin": 4720,
      "lsi": 4721,
      "jutub": 4722,
      "bajal": 4723,
      "disajsiv": 4724,
      "dajv": 4725,
      "spektejtr": 4726,
      "hvb": 4727,
      "owtinz": 4728,
      "klowdz": 4729,
      "powstr": 4730,
      "##did": 4731,
      "tisf": 4732,
      "halow": 4733,
      "juto": 4734,
      "kvb": 4735,
      "##vsin": 4736,
      "fajbr": 4737,
      "imper": 4738,
      "ibild": 4739,
      "izlam": 4740,
      "indvkt": 4741,
      "mowbil": 4742,
      "seli": 4743,
      "wajldlajf": 4744,
      "##likts": 4745,
      "##dejl": 4746,
      "kestr": 4747,
      "mjuts": 4748,
      "kwiz": 4749,
      "mplejnd": 4750,
      "nipj": 4751,
      "vmb": 4752,
      "vor": 4753,
      "##alv": 4754,
      "howmows": 4755,
      "memwar": 4756,
      "kdawn": 4757,
      "##tim": 4758,
      "midnajt": 4759,
      "diskow": 4760,
      "stvdiin": 4761,
      "lent": 4762,
      "bejd": 4763,
      "hvt": 4764,
      "sivr": 4765,
      "intent": 4766,
      "owtejs": 4767,
      "wiskans": 4768,
      "enkl": 4769,
      "beli": 4770,
      "vejn": 4771,
      "ikstensivli": 4772,
      "stli": 4773,
      "tulz": 4774,
      "lez": 4775,
      "dzulj": 4776,
      "sipm": 4777,
      "bojfr": 4778,
      "tempow": 4779,
      "howmowseks": 4780,
      "bejts": 4781,
      "intin": 4782,
      "mejni": 4783,
      "vpset": 4784,
      "gwad": 4785,
      "##fis": 4786,
      "linir": 4787,
      "lvk": 4788,
      "kanflikts": 4789,
      "inud": 4790,
      "hajlajtid": 4791,
      "filiejt": 4792,
      "izlamik": 4793,
      "majself": 4794,
      "mvp": 4795,
      "ibjun": 4796,
      "##kts": 4797,
      "padz": 4798,
      "bilz": 4799,
      "twist": 4800,
      "iki": 4801,
      "mistik": 4802,
      "timejt": 4803,
      "mjur": 4804,
      "##ejst": 4805,
      "distinks": 4806,
      "iagr": 4807,
      "lutr": 4808,
      "bolz": 4809,
      "##ejmin": 4810,
      "##ajziz": 4811,
      "mantgvmr": 4812,
      "fen": 4813,
      "nev": 4814,
      "endjur": 4815,
      "##kam": 4816,
      "eskjud": 4817,
      "vstr": 4818,
      "pier": 4819,
      "tini": 4820,
      "fowtow": 4821,
      "##minstr": 4822,
      "fudz": 4823,
      "ajkr": 4824,
      "hawzd": 4825,
      "howlz": 4826,
      "doj": 4827,
      "igzost": 4828,
      "##ejdzr": 4829,
      "ndlr": 4830,
      "bilifs": 4831,
      "sowm": 4832,
      "pand": 4833,
      "nem": 4834,
      "helps": 4835,
      "hen": 4836,
      "fles": 4837,
      "mask": 4838,
      "imis": 4839,
      "sinkin": 4840,
      "bmr": 4841,
      "atow": 4842,
      "mowtin": 4843,
      "invalvz": 4844,
      "bsk": 4845,
      "zum": 4846,
      "spil": 4847,
      "ejlwejz": 4848,
      "vktr": 4849,
      "svns": 4850,
      "dipikts": 4851,
      "dwel": 4852,
      "eksplr": 4853,
      "mfibi": 4854,
      "gk": 4855,
      "gnr": 4856,
      "pamr": 4857,
      "spl": 4858,
      "idik": 4859,
      "bedr": 4860,
      "##how": 4861,
      "ajlz": 4862,
      "lib": 4863,
      "plezr": 4864,
      "tami": 4865,
      "awtdor": 4866,
      "boltik": 4867,
      "tif": 4868,
      "howps": 4869,
      "asik": 4870,
      "lh": 4871,
      "wes": 4872,
      "waw": 4873,
      "bajnd": 4874,
      "mvsk": 4875,
      "stvf": 4876,
      "adis": 4877,
      "dismis": 4878,
      "aws": 4879,
      "owni": 4880,
      "nejtow": 4881,
      "temz": 4882,
      "labi": 4883,
      "lfild": 4884,
      "pepr": 4885,
      "ejvr": 4886,
      "apin": 4887,
      "esm": 4888,
      "##owlz": 4889,
      "ventsu": 4890,
      "bidz": 4891,
      "slat": 4892,
      "tisju": 4893,
      "kjubik": 4894,
      "##alow": 4895,
      "nsvmps": 4896,
      "lits": 4897,
      "tvmbr": 4898,
      "##gd": 4899,
      "esid": 4900,
      "sigr": 4901,
      "bvtlr": 4902,
      "##fir": 4903,
      "pez": 4904,
      "svf": 4905,
      "kof": 4906,
      "tekts": 4907,
      "dzenj": 4908,
      "hm": 4909,
      "kows": 4910,
      "tlit": 4911,
      "vpkvmin": 4912,
      "ndvktr": 4913,
      "dzil": 4914,
      "itsi": 4915,
      "sfajd": 4916,
      "oldr": 4917,
      "ansamb": 4918,
      "fvnk": 4919,
      "nuf": 4920,
      "nwol": 4921,
      "lbejni": 4922,
      "ditektiv": 4923,
      "bvd": 4924,
      "mowniz": 4925,
      "npr": 4926,
      "sejvin": 4927,
      "plejts": 4928,
      "fm": 4929,
      "mbar": 4930,
      "spit": 4931,
      "##ejkin": 4932,
      "nvil": 4933,
      "dvnk": 4934,
      "hajts": 4935,
      "##tsestr": 4936,
      "losut": 4937,
      "wili": 4938,
      "pvp": 4939,
      "zest": 4940,
      "kinli": 4941,
      "sajnm": 4942,
      "isidin": 4943,
      "kowstr": 4944,
      "niknejm": 4945,
      "##bu": 4946,
      "ntend": 4947,
      "nsens": 4948,
      "bisajdz": 4949,
      "kamplis": 4950,
      "izir": 4951,
      "lekj": 4952,
      "widow": 4953,
      "miow": 4954,
      "##ejp": 4955,
      "##ind": 4956,
      "otow": 4957,
      "hans": 4958,
      "pawndr": 4959,
      "##inow": 4960,
      "kowtsin": 4961,
      "kum": 4962,
      "wilz": 4963,
      "iowz": 4964,
      "lst": 4965,
      "tajzd": 4966,
      "tsiow": 4967,
      "filmejkr": 4968,
      "mowdz": 4969,
      "kenit": 4970,
      "dzibr": 4971,
      "sajdin": 4972,
      "##ejndzr": 4973,
      "endejndzr": 4974,
      "koz": 4975,
      "ntow": 4976,
      "mejlej": 4977,
      "bes": 4978,
      "vol": 4979,
      "dnr": 4980,
      "nejbor": 4981,
      "ejti": 4982,
      "hisp": 4983,
      "##isk": 4984,
      "otan": 4985,
      "aksajd": 4986,
      "mejtin": 4987,
      "ukl": 4988,
      "mejp": 4989,
      "spowks": 4990,
      "jowk": 4991,
      "kawntin": 4992,
      "abs": 4993,
      "ho": 4994,
      "dzo": 4995,
      "ted": 4996,
      "bun": 4997,
      "impowzd": 4998,
      "midiit": 4999,
      "nki": 5000,
      "nvikt": 5001,
      "##mit": 5002,
      "twitr": 5003,
      "nfigjr": 5004,
      "dipiktin": 5005,
      "lur": 5006,
      "igzibit": 5007,
      "ivd": 5008,
      "mowh": 5009,
      "mili": 5010,
      "klawdz": 5011,
      "gas": 5012,
      "tvtsdawnz": 5013,
      "ajbr": 5014,
      "ivl": 5015,
      "jugowslavi": 5016,
      "##ing": 5017,
      "niv": 5018,
      "spats": 5019,
      "lowg": 5020,
      "stimj": 5021,
      "sejnts": 5022,
      "bsidi": 5023,
      "imuvin": 5024,
      "maws": 5025,
      "ilisin": 5026,
      "sipt": 5027,
      "lusi": 5028,
      "stwr": 5029,
      "##istik": 5030,
      "libi": 5031,
      "ownow": 5032,
      "vsti": 5033,
      "esli": 5034,
      "tudz": 5035,
      "kvn": 5036,
      "wilr": 5037,
      "vikr": 5038,
      "##vel": 5039,
      "nidzin": 5040,
      "hedr": 5041,
      "ntist": 5042,
      "ilivd": 5043,
      "ktivli": 5044,
      "ndzi": 5045,
      "kvlekt": 5046,
      "mowti": 5047,
      "pejin": 5048,
      "kowlin": 5049,
      "ikj": 5050,
      "##pojnt": 5051,
      "sest": 5052,
      "istejts": 5053,
      "lvft": 5054,
      "plizd": 5055,
      "##tendr": 5056,
      "mpajld": 5057,
      "kowv": 5058,
      "kudn": 5059,
      "ini": 5060,
      "tajwan": 5061,
      "odr": 5062,
      "smowkin": 5063,
      "ah": 5064,
      "spidz": 5065,
      "tejkr": 5066,
      "leb": 5067,
      "sav": 5068,
      "pawdr": 5069,
      "peg": 5070,
      "tinejdzr": 5071,
      "owdwej": 5072,
      "stel": 5073,
      "##owmi": 5074,
      "owkr": 5075,
      "lowz": 5076,
      "nept": 5077,
      "dziow": 5078,
      "ikstir": 5079,
      "bandz": 5080,
      "zan": 5081,
      "dvblin": 5082,
      "tejtid": 5083,
      "##ker": 5084,
      "spel": 5085,
      "iksesiv": 5086,
      "ndvktin": 5087,
      "gejnz": 5088,
      "hez": 5089,
      "bskjur": 5090,
      "saf": 5091,
      "nfjuzd": 5092,
      "diskvsin": 5093,
      "isiz": 5094,
      "viii": 5095,
      "izum": 5096,
      "nkak": 5097,
      "skawtin": 5098,
      "pejp": 5099,
      "diplojm": 5100,
      "bigr": 5101,
      "salv": 5102,
      "vnim": 5103,
      "ligz": 5104,
      "plum": 5105,
      "wokt": 5106,
      "swept": 5107,
      "instolm": 5108,
      "pvnts": 5109,
      "tetik": 5110,
      "##dzu": 5111,
      "spajn": 5112,
      "flown": 5113,
      "solts": 5114,
      "gal": 5115,
      "spajt": 5116,
      "woks": 5117,
      "kansepts": 5118,
      "mlb": 5119,
      "vent": 5120,
      "zen": 5121,
      "tsvk": 5122,
      "dzvng": 5123,
      "spejskr": 5124,
      "dzna": 5125,
      "filiz": 5126,
      "vnpr": 5127,
      "tletiks": 5128,
      "aspekt": 5129,
      "tintin": 5130,
      "pavr": 5131,
      "hvbr": 5132,
      "##bak": 5133,
      "owks": 5134,
      "igejdz": 5135,
      "sumakr": 5136,
      "downejs": 5137,
      "spandin": 5138,
      "ndemd": 5139,
      "dos": 5140,
      "deli": 5141,
      "ajnz": 5142,
      "sejdiz": 5143,
      "##waj": 5144,
      "iventin": 5145,
      "bif": 5146,
      "najzin": 5147,
      "dowl": 5148,
      "pidowz": 5149,
      "##psi": 5150,
      "nigr": 5151,
      "eld": 5152,
      "keni": 5153,
      "majld": 5154,
      "bajnz": 5155,
      "nviks": 5156,
      "blejk": 5157,
      "nsmis": 5158,
      "gvsts": 5159,
      "dinaj": 5160,
      "dipow": 5161,
      "gnows": 5162,
      "blejmd": 5163,
      "bf": 5164,
      "##ptik": 5165,
      "nekts": 5166,
      "imb": 5167,
      "fajts": 5168,
      "om": 5169,
      "tsit": 5170,
      "uvz": 5171,
      "##uts": 5172,
      "##juts": 5173,
      "gejmr": 5174,
      "nvt": 5175,
      "olb": 5176,
      "efjudziz": 5177,
      "zor": 5178,
      "zownz": 5179,
      "##emik": 5180,
      "nkw": 5181,
      "nowin": 5182,
      "iar": 5183,
      "sowfi": 5184,
      "ekses": 5185,
      "aksim": 5186,
      "dalf": 5187,
      "kakr": 5188,
      "pilgr": 5189,
      "iejts": 5190,
      "##held": 5191,
      "vet": 5192,
      "jugowslav": 5193,
      "bler": 5194,
      "ibawndz": 5195,
      "sowlli": 5196,
      "tekstsr": 5197,
      "inflikt": 5198,
      "klip": 5199,
      "ksesiv": 5200,
      "##asr": 5201,
      "dmis": 5202,
      "lpajn": 5203,
      "wizr": 5204,
      "##wal": 5205,
      "##feld": 5206,
      "dzets": 5207,
      "kafi": 5208,
      "invitejs": 5209,
      "ibadi": 5210,
      "##gl": 5211,
      "flajz": 5212,
      "lezbi": 5213,
      "nsum": 5214,
      "westminstr": 5215,
      "lab": 5216,
      "oft": 5217,
      "gajz": 5218,
      "mojst": 5219,
      "denvr": 5220,
      "welmin": 5221,
      "folt": 5222,
      "sapin": 5223,
      "dimakr": 5224,
      "esej": 5225,
      "blejd": 5226,
      "tes": 5227,
      "mus": 5228,
      "lajfst": 5229,
      "lvmn": 5230,
      "imejk": 5231,
      "dzial": 5232,
      "abst": 5233,
      "swan": 5234,
      "sans": 5235,
      "seltik": 5236,
      "amptin": 5237,
      "valkejnow": 5238,
      "pliz": 5239,
      "pidz": 5240,
      "klo": 5241,
      "ank": 5242,
      "lingw": 5243,
      "##ivin": 5244,
      "dzejl": 5245,
      "displejs": 5246,
      "bend": 5247,
      "kamplist": 5248,
      "hevir": 5249,
      "lvks": 5250,
      "filips": 5251,
      "wikn": 5252,
      "venuz": 5253,
      "kajzr": 5254,
      "owklejmd": 5255,
      "lajkwajz": 5256,
      "ja": 5257,
      "svndr": 5258,
      "lowgow": 5259,
      "namiks": 5260,
      "bdzeks": 5261,
      "dzvmpin": 5262,
      "tinejdz": 5263,
      "kwens": 5264,
      "tat": 5265,
      "##wof": 5266,
      "dzesi": 5267,
      "hekt": 5268,
      "zant": 5269,
      "stedi": 5270,
      "inhib": 5271,
      "sindik": 5272,
      "pastsum": 5273,
      "linz": 5274,
      "nejk": 5275,
      "difin": 5276,
      "dislaj": 5277,
      "##tist": 5278,
      "fivr": 5279,
      "nsejs": 5280,
      "eniks": 5281,
      "siksti": 5282,
      "enkvmp": 5283,
      "owpajnd": 5284,
      "twel": 5285,
      "abi": 5286,
      "##tivn": 5287,
      "sipjar": 5288,
      "##bejn": 5289,
      "pazits": 5290,
      "pakm": 5291,
      "##ikow": 5292,
      "mvnk": 5293,
      "lejdiz": 5294,
      "biti": 5295,
      "nhajm": 5296,
      "tsifs": 5297,
      "gp": 5298,
      "hof": 5299,
      "ikal": 5300,
      "mjunik": 5301,
      "asesin": 5302,
      "tb": 5303,
      "ges": 5304,
      "ipit": 5305,
      "kipr": 5306,
      "##up": 5307,
      "nefju": 5308,
      "hvts": 5309,
      "ikstendz": 5310,
      "anow": 5311,
      "nkinz": 5312,
      "mans": 5313,
      "ihensiv": 5314,
      "flowtil": 5315,
      "dilr": 5316,
      "eswej": 5317,
      "anwr": 5318,
      "svil": 5319,
      "seld": 5320,
      "midzin": 5321,
      "dziagr": 5322,
      "stejin": 5323,
      "ikstinks": 5324,
      "gaw": 5325,
      "nud": 5326,
      "mpar": 5327,
      "silown": 5328,
      "mplejnts": 5329,
      "ivilin": 5330,
      "stejdzd": 5331,
      "infekt": 5332,
      "pelr": 5333,
      "fowl": 5334,
      "nsajd": 5335,
      "bejzin": 5336,
      "mfr": 5337,
      "zet": 5338,
      "vajbr": 5339,
      "##siejs": 5340,
      "dilajt": 5341,
      "lenti": 5342,
      "mjud": 5343,
      "tbawnd": 5344,
      "##ensis": 5345,
      "wold": 5346,
      "wulvr": 5347,
      "peti": 5348,
      "buts": 5349,
      "bilonin": 5350,
      "ivjuin": 5351,
      "##owkt": 5352,
      "fler": 5353,
      "vien": 5354,
      "fitin": 5355,
      "vedzt": 5356,
      "bevr": 5357,
      "pek": 5358,
      "midwej": 5359,
      "inkar": 5360,
      "minow": 5361,
      "tvkr": 5362,
      "kwint": 5363,
      "bh": 5364,
      "bets": 5365,
      "pest": 5366,
      "stal": 5367,
      "silk": 5368,
      "bowi": 5369,
      "pon": 5370,
      "##sl": 5371,
      "manwel": 5372,
      "wantin": 5373,
      "mab": 5374,
      "kalidziz": 5375,
      "welint": 5376,
      "svs": 5377,
      "switst": 5378,
      "nowvr": 5379,
      "flojd": 5380,
      "tendz": 5381,
      "limitejs": 5382,
      "kk": 5383,
      "taw": 5384,
      "plim": 5385,
      "kastumz": 5386,
      "ledr": 5387,
      "lenkts": 5388,
      "fawl": 5389,
      "lints": 5390,
      "hastil": 5391,
      "widt": 5392,
      "lakt": 5393,
      "sajkal": 5394,
      "nidziz": 5395,
      "ejdmar": 5396,
      "dilz": 5397,
      "idit": 5398,
      "mejtid": 5399,
      "bilond": 5400,
      "gif": 5401,
      "puts": 5402,
      "ipin": 5403,
      "eti": 5404,
      "##men": 5405,
      "slipin": 5406,
      "bdzektivz": 5407,
      "distingwis": 5408,
      "hemis": 5409,
      "spensr": 5410,
      "pild": 5411,
      "dzis": 5412,
      "stvm": 5413,
      "##jul": 5414,
      "past": 5415,
      "iowp": 5416,
      "vbr": 5417,
      "kapir": 5418,
      "tots": 5419,
      "dowmejn": 5420,
      "niknejmd": 5421,
      "ownz": 5422,
      "mets": 5423,
      "nsa": 5424,
      "bajt": 5425,
      "dzav": 5426,
      "ejsiz": 5427,
      "##jutid": 5428,
      "owsidinz": 5429,
      "bowh": 5430,
      "itunz": 5431,
      "ilinz": 5432,
      "keplr": 5433,
      "najntint": 5434,
      "mejz": 5435,
      "dhir": 5436,
      "nsl": 5437,
      "spawr": 5438,
      "etn": 5439,
      "kni": 5440,
      "dajvin": 5441,
      "##vtr": 5442,
      "sents": 5443,
      "pisf": 5444,
      "nests": 5445,
      "##ejg": 5446,
      "sawtwr": 5447,
      "etsetr": 5448,
      "bajn": 5449,
      "glo": 5450,
      "wast": 5451,
      "nvejld": 5452,
      "dzojnz": 5453,
      "##gin": 5454,
      "plajin": 5455,
      "fawnt": 5456,
      "vest": 5457,
      "##hil": 5458,
      "##okl": 5459,
      "ilejtin": 5460,
      "majts": 5461,
      "owsidz": 5462,
      "db": 5463,
      "nupor": 5464,
      "simpl": 5465,
      "dizalvd": 5466,
      "dant": 5467,
      "bles": 5468,
      "fjus": 5469,
      "kowstlajn": 5470,
      "gibs": 5471,
      "dvndz": 5472,
      "##itsi": 5473,
      "sab": 5474,
      "ensuin": 5475,
      "nmowst": 5476,
      "stol": 5477,
      "disl": 5478,
      "##ojr": 5479,
      "kejas": 5480,
      "wisiz": 5481,
      "lvftwof": 5482,
      "tsejnz": 5483,
      "ajtir": 5484,
      "tapik": 5485,
      "hak": 5486,
      "mats": 5487,
      "taps": 5488,
      "ilajd": 5489,
      "dvdli": 5490,
      "ilum": 5491,
      "##vndz": 5492,
      "agvst": 5493,
      "kajr": 5494,
      "klu": 5495,
      "##div": 5496,
      "lejzr": 5497,
      "flejvr": 5498,
      "agwil": 5499,
      "gowb": 5500,
      "tp": 5501,
      "hudz": 5502,
      "ivajvd": 5503,
      "kjulz": 5504,
      "akr": 5505,
      "mo": 5506,
      "##etsr": 5507,
      "stejk": 5508,
      "bust": 5509,
      "sier": 5510,
      "vajzr": 5511,
      "tsut": 5512,
      "lowl": 5513,
      "nseps": 5514,
      "skejt": 5515,
      "indiv": 5516,
      "wad": 5517,
      "flowtin": 5518,
      "sajzr": 5519,
      "hep": 5520,
      "agwiler": 5521,
      "ebr": 5522,
      "efjudz": 5523,
      "lvd": 5524,
      "mvndi": 5525,
      "ganz": 5526,
      "lajl": 5527,
      "##pit": 5528,
      "kav": 5529,
      "sowviets": 5530,
      "hemisfir": 5531,
      "ksin": 5532,
      "edis": 5533,
      "engejdzin": 5534,
      "slowr": 5535,
      "be": 5536,
      "tuts": 5537,
      "tikn": 5538,
      "ntindz": 5539,
      "viet": 5540,
      "midst": 5541,
      "mez": 5542,
      "taksik": 5543,
      "tild": 5544,
      "ezid": 5545,
      "gejmspat": 5546,
      "tetr": 5547,
      "zak": 5548,
      "ntiz": 5549,
      "sinik": 5550,
      "##gju": 5551,
      "##om": 5552,
      "majzd": 5553,
      "finz": 5554,
      "pets": 5555,
      "kswel": 5556,
      "bajd": 5557,
      "edw": 5558,
      "pengw": 5559,
      "gt": 5560,
      "andr": 5561,
      "bvz": 5562,
      "mejbi": 5563,
      "dedli": 5564,
      "nowbadi": 5565,
      "wwf": 5566,
      "plutowni": 5567,
      "fejd": 5568,
      "tejld": 5569,
      "glajdr": 5570,
      "hitr": 5571,
      "dilejz": 5572,
      "invalv": 5573,
      "skinr": 5574,
      "dislajkt": 5575,
      "nvinj": 5576,
      "howz": 5577,
      "saps": 5578,
      "bskr": 5579,
      "boldw": 5580,
      "ikows": 5581,
      "disist": 5582,
      "pledz": 5583,
      "dispjuts": 5584,
      "kips": 5585,
      "ndsvn": 5586,
      "gul": 5587,
      "plez": 5588,
      "sekj": 5589,
      "pejg": 5590,
      "editr": 5591,
      "powni": 5592,
      "tektin": 5593,
      "ejr": 5594,
      "lunr": 5595,
      "invens": 5596,
      "lajmstown": 5597,
      "nojd": 5598,
      "mvnks": 5599,
      "vejz": 5600,
      "blvdi": 5601,
      "esiks": 5602,
      "beti": 5603,
      "kankor": 5604,
      "indeks": 5605,
      "pig": 5606,
      "##md": 5607,
      "flvdz": 5608,
      "limitid": 5609,
      "emplojr": 5610,
      "skj": 5611,
      "lowdin": 5612,
      "siminli": 5613,
      "sowsiits": 5614,
      "bsidier": 5615,
      "jel": 5616,
      "hk": 5617,
      "kwejnt": 5618,
      "pant": 5619,
      "nvinsin": 5620,
      "kdr": 5621,
      "stvk": 5622,
      "##bowt": 5623,
      "##wind": 5624,
      "fand": 5625,
      "klajmin": 5626,
      "ejf": 5627,
      "hajdz": 5628,
      "slowd": 5629,
      "tajdz": 5630,
      "flektin": 5631,
      "powt": 5632,
      "blend": 5633,
      "belgr": 5634,
      "jowhan": 5635,
      "dits": 5636,
      "nses": 5637,
      "nowbel": 5638,
      "lajfstajl": 5639,
      "twelft": 5640,
      "vejtr": 5641,
      "stelr": 5642,
      "mentin": 5643,
      "hibr": 5644,
      "madzul": 5645,
      "tig": 5646,
      "##esk": 5647,
      "sowkejs": 5648,
      "embl": 5649,
      "##andz": 5650,
      "kwi": 5651,
      "distor": 5652,
      "##utsi": 5653,
      "islam": 5654,
      "azr": 5655,
      "gis": 5656,
      "owbat": 5657,
      "bejtid": 5658,
      "investr": 5659,
      "pejvd": 5660,
      "itli": 5661,
      "##ownj": 5662,
      "dzg": 5663,
      "bur": 5664,
      "kz": 5665,
      "stvnt": 5666,
      "nsent": 5667,
      "linkin": 5668,
      "odis": 5669,
      "mali": 5670,
      "ltr": 5671,
      "igejnd": 5672,
      "##ajkl": 5673,
      "bvr": 5674,
      "mg": 5675,
      "pvmp": 5676,
      "tvt": 5677,
      "bejk": 5678,
      "fidz": 5679,
      "skawts": 5680,
      "minog": 5681,
      "ilz": 5682,
      "ndzvnks": 5683,
      "kun": 5684,
      "isiejtid": 5685,
      "dzowks": 5686,
      "wawnd": 5687,
      "blown": 5688,
      "edgr": 5689,
      "spvng": 5690,
      "ljuejs": 5691,
      "##liti": 5692,
      "wajts": 5693,
      "aptid": 5694,
      "mowment": 5695,
      "winzr": 5696,
      "ufs": 5697,
      "pigm": 5698,
      "pusin": 5699,
      "emili": 5700,
      "vmpajr": 5701,
      "tas": 5702,
      "ikwejz": 5703,
      "akow": 5704,
      "dajdz": 5705,
      "ket": 5706,
      "fajndinz": 5707,
      "##iki": 5708,
      "helti": 5709,
      "gol": 5710,
      "awnin": 5711,
      "kwir": 5712,
      "kaf": 5713,
      "tajni": 5714,
      "wak": 5715,
      "timmejts": 5716,
      "vnwej": 5717,
      "gwat": 5718,
      "##nt": 5719,
      "##asaki": 5720,
      "ikspajr": 5721,
      "midz": 5722,
      "safik": 5723,
      "lutli": 5724,
      "fag": 5725,
      "nsir": 5726,
      "vktin": 5727,
      "eplik": 5728,
      "espr": 5729,
      "gown": 5730,
      "lejin": 5731,
      "lejawt": 5732,
      "bejsist": 5733,
      "simbalik": 5734,
      "iw": 5735,
      "iniks": 5736,
      "lvvz": 5737,
      "##owg": 5738,
      "zmejni": 5739,
      "hajdin": 5740,
      "towps": 5741,
      "wilk": 5742,
      "sajb": 5743,
      "imd": 5744,
      "sendz": 5745,
      "dispowz": 5746,
      "nhawr": 5747,
      "dwer": 5748,
      "stept": 5749,
      "mpleks": 5750,
      "fektin": 5751,
      "usow": 5752,
      "ibor": 5753,
      "welfer": 5754,
      "sowlz": 5755,
      "bmis": 5756,
      "vist": 5757,
      "bvnkr": 5758,
      "gand": 5759,
      "ivz": 5760,
      "plejsm": 5761,
      "stilz": 5762,
      "dadzr": 5763,
      "sidr": 5764,
      "##lar": 5765,
      "skwr": 5766,
      "hetr": 5767,
      "ajvi": 5768,
      "spvngbab": 5769,
      "hajnd": 5770,
      "tsuzin": 5771,
      "ept": 5772,
      "aniks": 5773,
      "idiks": 5774,
      "ejktr": 5775,
      "bvsiz": 5776,
      "niki": 5777,
      "gowlkipr": 5778,
      "kenj": 5779,
      "eniwer": 5780,
      "limz": 5781,
      "skejlz": 5782,
      "vind": 5783,
      "didzenr": 5784,
      "##dzor": 5785,
      "lats": 5786,
      "sivik": 5787,
      "nawns": 5788,
      "judzin": 5789,
      "vas": 5790,
      "##owkr": 5791,
      "stowk": 5792,
      "##ojnd": 5793,
      "natr": 5794,
      "fikstsr": 5795,
      "stup": 5796,
      "wundz": 5797,
      "lvmb": 5798,
      "lindwol": 5799,
      "gvl": 5800,
      "##ink": 5801,
      "kowlbr": 5802,
      "##fildr": 5803,
      "##wig": 5804,
      "gnowst": 5805,
      "iksplowd": 5806,
      "bengol": 5807,
      "spajk": 5808,
      "insajt": 5809,
      "imber": 5810,
      "##ownr": 5811,
      "hedlajn": 5812,
      "nfajnd": 5813,
      "##lt": 5814,
      "ejkdawn": 5815,
      "skiin": 5816,
      "lek": 5817,
      "input": 5818,
      "bivr": 5819,
      "bowm": 5820,
      "kvbz": 5821,
      "lowm": 5822,
      "dzeninz": 5823,
      "wudn": 5824,
      "minj": 5825,
      "vpwr": 5826,
      "##ejlin": 5827,
      "fon": 5828,
      "mejntejnz": 5829,
      "##pejs": 5830,
      "lvnts": 5831,
      "hektar": 5832,
      "##ivil": 5833,
      "bali": 5834,
      "liks": 5835,
      "enviz": 5836,
      "##var": 5837,
      "emploji": 5838,
      "pvl": 5839,
      "##git": 5840,
      "miki": 5841,
      "ntendr": 5842,
      "##imtr": 5843,
      "benz": 5844,
      "van": 5845,
      "##bej": 5846,
      "ejis": 5847,
      "usejdr": 5848,
      "esejts": 5849,
      "elpi": 5850,
      "lizr": 5851,
      "baksin": 5852,
      "iksajtin": 5853,
      "##avski": 5854,
      "bajk": 5855,
      "difits": 5856,
      "slav": 5857,
      "sakt": 5858,
      "lektivli": 5859,
      "sentimtr": 5860,
      "ned": 5861,
      "tapiks": 5862,
      "##lu": 5863,
      "svbdiv": 5864,
      "iskejps": 5865,
      "bowd": 5866,
      "gaz": 5867,
      "jows": 5868,
      "vektr": 5869,
      "vatr": 5870,
      "bojd": 5871,
      "fejk": 5872,
      "midl": 5873,
      "hilr": 5874,
      "gejbr": 5875,
      "hapkinz": 5876,
      "dign": 5877,
      "vktiv": 5878,
      "thaws": 5879,
      "##vni": 5880,
      "##ektivn": 5881,
      "fletsr": 5882,
      "ljud": 5883,
      "mvmb": 5884,
      "tz": 5885,
      "tektiv": 5886,
      "hats": 5887,
      "filip": 5888,
      "bawr": 5889,
      "mvnki": 5890,
      "indor": 5891,
      "vejtiv": 5892,
      "spilbr": 5893,
      "spond": 5894,
      "hvni": 5895,
      "##mejt": 5896,
      "lepr": 5897,
      "kejl": 5898,
      "blejm": 5899,
      "nkar": 5900,
      "ikwests": 5901,
      "ispektid": 5902,
      "wilis": 5903,
      "nnejmd": 5904,
      "bwejn": 5905,
      "dfr": 5906,
      "blejn": 5907,
      "dzuejs": 5908,
      "##adiz": 5909,
      "dad": 5910,
      "##ial": 5911,
      "dinawn": 5912,
      "fisk": 5913,
      "livi": 5914,
      "kvmbr": 5915,
      "sawth": 5916,
      "laks": 5917,
      "itni": 5918,
      "fejtf": 5919,
      "hag": 5920,
      "nowbil": 5921,
      "bejn": 5922,
      "gwej": 5923,
      "istar": 5924,
      "instin": 5925,
      "nsk": 5926,
      "logz": 5927,
      "nkludz": 5928,
      "pitsin": 5929,
      "awdz": 5930,
      "klajn": 5931,
      "ifs": 5932,
      "mawntid": 5933,
      "inspektr": 5934,
      "aptik": 5935,
      "teft": 5936,
      "iflekts": 5937,
      "inspeks": 5938,
      "ednot": 5939,
      "nsumd": 5940,
      "lzbr": 5941,
      "suin": 5942,
      "bdzekt": 5943,
      "isidid": 5944,
      "vigr": 5945,
      "enlar": 5946,
      "lajnvp": 5947,
      "hoks": 5948,
      "kikt": 5949,
      "duet": 5950,
      "##ajvi": 5951,
      "ifit": 5952,
      "kambajn": 5953,
      "jes": 5954,
      "imajnd": 5955,
      "##agow": 5956,
      "nkvvr": 5957,
      "lindzi": 5958,
      "gilz": 5959,
      "##howlm": 5960,
      "lvmnaj": 5961,
      "dzanz": 5962,
      "etiks": 5963,
      "suk": 5964,
      "idm": 5965,
      "twinz": 5966,
      "tsivin": 5967,
      "sejdz": 5968,
      "twajl": 5969,
      "daps": 5970,
      "ikowsist": 5971,
      "segr": 5972,
      "mawntin": 5973,
      "vpl": 5974,
      "melt": 5975,
      "##ment": 5976,
      "imi": 5977,
      "svspekt": 5978,
      "##now": 5979,
      "jum": 5980,
      "etst": 5981,
      "lmejni": 5982,
      "fowli": 5983,
      "slowvaki": 5984,
      "kut": 5985,
      "diskl": 5986,
      "isajd": 5987,
      "##idow": 5988,
      "sejfr": 5989,
      "pejst": 5990,
      "pajp": 5991,
      "pvnt": 5992,
      "skows": 5993,
      "ejsr": 5994,
      "nejmli": 5995,
      "oinz": 5996,
      "##vis": 5997,
      "owbr": 5998,
      "##ginz": 5999,
      "##ilj": 6000,
      "estin": 6001,
      "gvt": 6002,
      "lowt": 6003,
      "itejnin": 6004,
      "setinz": 6005,
      "glekt": 6006,
      "seksi": 6007,
      "svsiks": 6008,
      "pvm": 6009,
      "pajk": 6010,
      "ajnd": 6011,
      "mpowz": 6012,
      "ilej": 6013,
      "dvent": 6014,
      "nektr": 6015,
      "##tsuer": 6016,
      "hejg": 6017,
      "svmtajm": 6018,
      "##ast": 6019,
      "dzeks": 6020,
      "nejdowz": 6021,
      "gifts": 6022,
      "sawtbawnd": 6023,
      "hajlajts": 6024,
      "iu": 6025,
      "tjur": 6026,
      "##mow": 6027,
      "##ifajn": 6028,
      "nkludin": 6029,
      "gowt": 6030,
      "dzend": 6031,
      "insip": 6032,
      "vstid": 6033,
      "owdr": 6034,
      "izajdid": 6035,
      "vendz": 6036,
      "gwar": 6037,
      "towp": 6038,
      "kantents": 6039,
      "zink": 6040,
      "olbi": 6041,
      "bland": 6042,
      "balist": 6043,
      "##wo": 6044,
      "nktsuer": 6045,
      "ejlin": 6046,
      "estlr": 6047,
      "infil": 6048,
      "kvltiv": 6049,
      "dap": 6050,
      "ilon": 6051,
      "iunj": 6052,
      "bajndin": 6053,
      "mjuzikli": 6054,
      "iintr": 6055,
      "mon": 6056,
      "##adow": 6057,
      "polin": 6058,
      "mplaj": 6059,
      "izalv": 6060,
      "nowtr": 6061,
      "fejlz": 6062,
      "semifajn": 6063,
      "##ojt": 6064,
      "endis": 6065,
      "iptid": 6066,
      "nistik": 6067,
      "df": 6068,
      "gun": 6069,
      "stiks": 6070,
      "wilts": 6071,
      "mendid": 6072,
      "fowtowz": 6073,
      "infliktid": 6074,
      "wilm": 6075,
      "dzvdzd": 6076,
      "##ah": 6077,
      "tsd": 6078,
      "smvg": 6079,
      "slotr": 6080,
      "powld": 6081,
      "istajl": 6082,
      "stapin": 6083,
      "ndsl": 6084,
      "tliks": 6085,
      "vstiz": 6086,
      "sejfli": 6087,
      "ndstown": 6088,
      "tbr": 6089,
      "##owvi": 6090,
      "##ikst": 6091,
      "dekstr": 6092,
      "svmps": 6093,
      "bajsik": 6094,
      "olbiit": 6095,
      "dzojs": 6096,
      "esivli": 6097,
      "fjuzin": 6098,
      "skapik": 6099,
      "kstr": 6100,
      "mw": 6101,
      "##gu": 6102,
      "lian": 6103,
      "insekt": 6104,
      "do": 6105,
      "##iljr": 6106,
      "tinks": 6107,
      "ojdz": 6108,
      "individzu": 6109,
      "ifektivn": 6110,
      "listini": 6111,
      "latr": 6112,
      "ajziz": 6113,
      "vktid": 6114,
      "spant": 6115,
      "lejkr": 6116,
      "snajdr": 6117,
      "wand": 6118,
      "vojdin": 6119,
      "wintsestr": 6120,
      "witni": 6121,
      "lajthaws": 6122,
      "holz": 6123,
      "##vstak": 6124,
      "##vltin": 6125,
      "vsk": 6126,
      "hebr": 6127,
      "izm": 6128,
      "inif": 6129,
      "owvz": 6130,
      "bilit": 6131,
      "##eskow": 6132,
      "sipr": 6133,
      "##vmin": 6134,
      "skept": 6135,
      "nists": 6136,
      "nkam": 6137,
      "deb": 6138,
      "lenz": 6139,
      "sejvz": 6140,
      "##gli": 6141,
      "fulr": 6142,
      "##sted": 6143,
      "plvg": 6144,
      "sejbr": 6145,
      "mbowdi": 6146,
      "mjutejs": 6147,
      "kok": 6148,
      "milt": 6149,
      "bejb": 6150,
      "kajvz": 6151,
      "espn": 6152,
      "sajki": 6153,
      "medli": 6154,
      "kmej": 6155,
      "bos": 6156,
      "ejtsajvi": 6157,
      "bojkat": 6158,
      "ajkan": 6159,
      "sejt": 6160,
      "##lajnd": 6161,
      "mitir": 6162,
      "asikjutr": 6163,
      "iows": 6164,
      "jak": 6165,
      "klevr": 6166,
      "sejps": 6167,
      "sensejs": 6168,
      "##awntid": 6169,
      "bedz": 6170,
      "hvmfr": 6171,
      "##lip": 6172,
      "hofm": 6173,
      "vnpap": 6174,
      "nvej": 6175,
      "nwilin": 6176,
      "vnpapj": 6177,
      "dawnd": 6178,
      "##aksajd": 6179,
      "ekl": 6180,
      "nwajd": 6181,
      "ton": 6182,
      "tos": 6183,
      "vid": 6184,
      "ejmin": 6185,
      "bwejnows": 6186,
      "gig": 6187,
      "##powst": 6188,
      "##star": 6189,
      "dipendz": 6190,
      "ngow": 6191,
      "ngli": 6192,
      "kseptin": 6193,
      "diktejtr": 6194,
      "lbi": 6195,
      "##blinz": 6196,
      "zl": 6197,
      "inev": 6198,
      "izajn": 6199,
      "itisajzin": 6200,
      "kalig": 6201,
      "mitiz": 6202,
      "hjugow": 6203,
      "agziljr": 6204,
      "mzi": 6205,
      "svbt": 6206,
      "nowtor": 6207,
      "igow": 6208,
      "mvmbaj": 6209,
      "##ang": 6210,
      "wenevr": 6211,
      "slowps": 6212,
      "dzowh": 6213,
      "stv": 6214,
      "ntens": 6215,
      "disper": 6216,
      "bjuts": 6217,
      "mbigju": 6218,
      "dzasu": 6219,
      "divows": 6220,
      "amb": 6221,
      "ubi": 6222,
      "kagn": 6223,
      "lvvin": 6224,
      "ndinejvi": 6225,
      "tokt": 6226,
      "tjuz": 6227,
      "inks": 6228,
      "nhar": 6229,
      "bvst": 6230,
      "telr": 6231,
      "iinst": 6232,
      "vnf": 6233,
      "slejtr": 6234,
      "po": 6235,
      "gilt": 6236,
      "emiksiz": 6237,
      "kins": 6238,
      "indis": 6239,
      "nejz": 6240,
      "nagr": 6241,
      "tistwr": 6242,
      "displejsm": 6243,
      "siblinz": 6244,
      "##jutin": 6245,
      "kinst": 6246,
      "ktiviz": 6247,
      "ientejs": 6248,
      "swr": 6249,
      "difis": 6250,
      "peld": 6251,
      "sowt": 6252,
      "idzenr": 6253,
      "dzir": 6254,
      "ikspeld": 6255,
      "atik": 6256,
      "iunajtid": 6257,
      "etsin": 6258,
      "flin": 6259,
      "sipi": 6260,
      "awtlets": 6261,
      "ntor": 6262,
      "hemin": 6263,
      "bifr": 6264,
      "ajmtajm": 6265,
      "ibildin": 6266,
      "hp": 6267,
      "bisajd": 6268,
      "hindr": 6269,
      "idzeks": 6270,
      "ispansiz": 6271,
      "bojl": 6272,
      "vbz": 6273,
      "ksim": 6274,
      "lowpez": 6275,
      "##sowvr": 6276,
      "mbj": 6277,
      "ajdial": 6278,
      "sekt": 6279,
      "tlin": 6280,
      "bajl": 6281,
      "lontsin": 6282,
      "najtmer": 6283,
      "stejp": 6284,
      "fizis": 6285,
      "dajnin": 6286,
      "tsow": 6287,
      "svmbadi": 6288,
      "owtestr": 6289,
      "kukin": 6290,
      "flowin": 6291,
      "kanvojz": 6292,
      "tsak": 6293,
      "lajvstak": 6294,
      "ajkanik": 6295,
      "idzojnd": 6296,
      "flejm": 6297,
      "bibl": 6298,
      "has": 6299,
      "towz": 6300,
      "fowkl": 6301,
      "dzoz": 6302,
      "kampt": 6303,
      "lvki": 6304,
      "##wold": 6305,
      "pind": 6306,
      "nigowsi": 6307,
      "igejn": 6308,
      "pulin": 6309,
      "asper": 6310,
      "tejtin": 6311,
      "infir": 6312,
      "njub": 6313,
      "howtelz": 6314,
      "bani": 6315,
      "mowlt": 6316,
      "zv": 6317,
      "bajdz": 6318,
      "ejtint": 6319,
      "bolk": 6320,
      "ndmvdr": 6321,
      "belz": 6322,
      "difinitiv": 6323,
      "nhajmr": 6324,
      "##lak": 6325,
      "stif": 6326,
      "lajb": 6327,
      "powetik": 6328,
      "spitfajr": 6329,
      "eps": 6330,
      "wip": 6331,
      "##ekr": 6332,
      "##ajtin": 6333,
      "selj": 6334,
      "fildin": 6335,
      "##edid": 6336,
      "##ulu": 6337,
      "ejnbow": 6338,
      "pidi": 6339,
      "dilit": 6340,
      "sajbr": 6341,
      "lidzit": 6342,
      "inter": 6343,
      "kfar": 6344,
      "##apsis": 6345,
      "dzestsr": 6346,
      "imit": 6347,
      "dinli": 6348,
      "mpowzin": 6349,
      "estetik": 6350,
      "kvnin": 6351,
      "lts": 6352,
      "inawnd": 6353,
      "diklajnin": 6354,
      "nowlz": 6355,
      "blr": 6356,
      "nawnsin": 6357,
      "dzeni": 6358,
      "##vnk": 6359,
      "nejp": 6360,
      "fn": 6361,
      "sodi": 6362,
      "ziii": 6363,
      "dzimn": 6364,
      "kowdz": 6365,
      "##anti": 6366,
      "ikspor": 6367,
      "dowvr": 6368,
      "mejkvp": 6369,
      "sitkam": 6370,
      "powstpow": 6371,
      "powstpownd": 6372,
      "##stak": 6373,
      "tib": 6374,
      "sku": 6375,
      "##idzr": 6376,
      "wajvz": 6377,
      "alt": 6378,
      "maz": 6379,
      "ndez": 6380,
      "##ajlin": 6381,
      "najf": 6382,
      "vu": 6383,
      "wustr": 6384,
      "bdzektid": 6385,
      "ejps": 6386,
      "howmtawn": 6387,
      "nestin": 6388,
      "bajin": 6389,
      "iksidin": 6390,
      "dzowkr": 6391,
      "ejdzd": 6392,
      "ntinjuejs": 6393,
      "stui": 6394,
      "swimr": 6395,
      "##inist": 6396,
      "tajmin": 6397,
      "idej": 6398,
      "umin": 6399,
      "ljuejt": 6400,
      "lindr": 6401,
      "pajt": 6402,
      "sbr": 6403,
      "##bik": 6404,
      "ald": 6405,
      "dzudi": 6406,
      "isiejs": 6407,
      "{@": 6408,
      "blag": 6409,
      "diskar": 6410,
      "pajpl": 6411,
      "nejtivz": 6412,
      "lownz": 6413,
      "##jam": 6414,
      "owlm": 6415,
      "smel": 6416,
      "lodid": 6417,
      "gowvin": 6418,
      "lagr": 6419,
      "dowd": 6420,
      "gowltendr": 6421,
      "iktli": 6422,
      "mintajm": 6423,
      "neptun": 6424,
      "dajl": 6425,
      "biinz": 6426,
      "edzi": 6427,
      "dajdzest": 6428,
      "lseks": 6429,
      "gust": 6430,
      "enzajm": 6431,
      "bowst": 6432,
      "tvm": 6433,
      "klik": 6434,
      "wols": 6435,
      "dadz": 6436,
      "spiks": 6437,
      "##owmiz": 6438,
      "owbi": 6439,
      "bajz": 6440,
      "sumin": 6441,
      "lafi": 6442,
      "flajr": 6443,
      "silz": 6444,
      "owkej": 6445,
      "ofspr": 6446,
      "lond": 6447,
      "vejd": 6448,
      "##bt": 6449,
      "##embl": 6450,
      "bag": 6451,
      "dmits": 6452,
      "usejd": 6453,
      "og": 6454,
      "##ejik": 6455,
      "fvndr": 6456,
      "pulz": 6457,
      "fidb": 6458,
      "dzejmi": 6459,
      "klod": 6460,
      "lowb": 6461,
      "svlfr": 6462,
      "kawr": 6463,
      "nol": 6464,
      "##jum": 6465,
      "ild": 6466,
      "hajejt": 6467,
      "spantejni": 6468,
      "bows": 6469,
      "heks": 6470,
      "dzetik": 6471,
      "##ilv": 6472,
      "hint": 6473,
      "##iejs": 6474,
      "inid": 6475,
      "lvgz": 6476,
      "kajndz": 6477,
      "dzesik": 6478,
      "bks": 6479,
      "slowp": 6480,
      "kulr": 6481,
      "mansun": 6482,
      "hvs": 6483,
      "tsiks": 6484,
      "nsejt": 6485,
      "iliv": 6486,
      "ikspend": 6487,
      "lajr": 6488,
      "vnkans": 6489,
      "upt": 6490,
      "##wejl": 6491,
      "##zow": 6492,
      "##iniz": 6493,
      "levr": 6494,
      "lafiet": 6495,
      "fwej": 6496,
      "klow": 6497,
      "indust": 6498,
      "##listik": 6499,
      "fitn": 6500,
      "nwa": 6501,
      "kamplism": 6502,
      "##mant": 6503,
      "awtlajn": 6504,
      "futbolr": 6505,
      "nzfild": 6506,
      "skild": 6507,
      "dzub": 6508,
      "manti": 6509,
      "kejvz": 6510,
      "sildz": 6511,
      "delik": 6512,
      "jowg": 6513,
      "atsestr": 6514,
      "vitejs": 6515,
      "##linz": 6516,
      "ktis": 6517,
      "##eh": 6518,
      "setl": 6519,
      "mahr": 6520,
      "lelz": 6521,
      "nnes": 6522,
      "iit": 6523,
      "editid": 6524,
      "bawts": 6525,
      "intensiv": 6526,
      "sajkow": 6527,
      "sus": 6528,
      "kowlt": 6529,
      "##ajtr": 6530,
      "insajkl": 6531,
      "##biliti": 6532,
      "nikr": 6533,
      "ejmwr": 6534,
      "zumd": 6535,
      "mimik": 6536,
      "nevil": 6537,
      "glostr": 6538,
      "nets": 6539,
      "bildr": 6540,
      "odli": 6541,
      "zam": 6542,
      "svni": 6543,
      "hvmb": 6544,
      "diskwal": 6545,
      "enklowzd": 6546,
      "volt": 6547,
      "zt": 6548,
      "dzajn": 6549,
      "lpr": 6550,
      "izembl": 6551,
      "sup": 6552,
      "sakir": 6553,
      "##apt": 6554,
      "difor": 6555,
      "luivil": 6556,
      "dvkow": 6557,
      "difajnin": 6558,
      "dvkowvni": 6559,
      "##elik": 6560,
      "aspr": 6561,
      "bo": 6562,
      "kowh": 6563,
      "indajt": 6564,
      "pats": 6565,
      "emis": 6566,
      "townz": 6567,
      "makt": 6568,
      "iplej": 6569,
      "fvndzaj": 6570,
      "ises": 6571,
      "impawr": 6572,
      "iejtid": 6573,
      "lvmbr": 6574,
      "dzez": 6575,
      "hjumor": 6576,
      "##igm": 6577,
      "infiltr": 6578,
      "ust": 6579,
      "tektr": 6580,
      "kojnidz": 6581,
      "##mejkr": 6582,
      "inawn": 6583,
      "stikli": 6584,
      "misk": 6585,
      "vejkejs": 6586,
      "##ilvejni": 6587,
      "ndejtid": 6588,
      "mbajnin": 6589,
      "owsor": 6590,
      "dedlajn": 6591,
      "ikskludin": 6592,
      "iluz": 6593,
      "vajkin": 6594,
      "##par": 6595,
      "psi": 6596,
      "wikr": 6597,
      "lajfl": 6598,
      "bvkin": 6599,
      "felr": 6600,
      "skimz": 6601,
      "estsu": 6602,
      "owti": 6603,
      "hist": 6604,
      "nsidid": 6605,
      "bajnr": 6606,
      "kanin": 6607,
      "piejts": 6608,
      "stejz": 6609,
      "leksint": 6610,
      "kowtst": 6611,
      "vndis": 6612,
      "lvgzr": 6613,
      "neli": 6614,
      "##entin": 6615,
      "difajn": 6616,
      "##liktin": 6617,
      "mbus": 6618,
      "hindi": 6619,
      "idivel": 6620,
      "##umi": 6621,
      "tajzm": 6622,
      "mowlr": 6623,
      "##ojdz": 6624,
      "kazm": 6625,
      "afaj": 6626,
      "lambar": 6627,
      "dipor": 6628,
      "netiks": 6629,
      "wejts": 6630,
      "diploj": 6631,
      "visn": 6632,
      "diminist": 6633,
      "utl": 6634,
      "hejstinz": 6635,
      "disar": 6636,
      "skajl": 6637,
      "##kler": 6638,
      "ejdzin": 6639,
      "tojz": 6640,
      "zeld": 6641,
      "awtwr": 6642,
      "divajzd": 6643,
      "vnzwik": 6644,
      "kajv": 6645,
      "zn": 6646,
      "##juvr": 6647,
      "spu": 6648,
      "emj": 6649,
      "dajaksajd": 6650,
      "beg": 6651,
      "stis": 6652,
      "lansow": 6653,
      "fekts": 6654,
      "owik": 6655,
      "slajd": 6656,
      "iklips": 6657,
      "wowl": 6658,
      "lajks": 6659,
      "sowsial": 6660,
      "migel": 6661,
      "tjar": 6662,
      "tsetn": 6663,
      "nfer": 6664,
      "hejd": 6665,
      "klot": 6666,
      "ojlr": 6667,
      "dagit": 6668,
      "skvlptr": 6669,
      "ndawt": 6670,
      "ndwits": 6671,
      "iplaj": 6672,
      "mesi": 6673,
      "afajel": 6674,
      "##mur": 6675,
      "##owdid": 6676,
      "jejl": 6677,
      "plats": 6678,
      "twar": 6679,
      "maf": 6680,
      "gb": 6681,
      "tont": 6682,
      "##aladzik": 6683,
      "wivr": 6684,
      "diteks": 6685,
      "anst": 6686,
      "izbejn": 6687,
      "winst": 6688,
      "stimr": 6689,
      "zel": 6690,
      "fledz": 6691,
      "owmit": 6692,
      "dvkt": 6693,
      "wildr": 6694,
      "owfawnd": 6695,
      "ntser": 6696,
      "dzuliet": 6697,
      "twajlajt": 6698,
      "jul": 6699,
      "bowls": 6700,
      "gwen": 6701,
      "stakhowlm": 6702,
      "tumz": 6703,
      "ilow": 6704,
      "##uzi": 6705,
      "ntikw": 6706,
      "bsr": 6707,
      "ksap": 6708,
      "numer": 6709,
      "najl": 6710,
      "gvm": 6711,
      "abin": 6712,
      "svmwer": 6713,
      "eds": 6714,
      "##elis": 6715,
      "owldz": 6716,
      "entsiz": 6717,
      "dkor": 6718,
      "nitsr": 6719,
      "obr": 6720,
      "ipisk": 6721,
      "lisejs": 6722,
      "glow": 6723,
      "septr": 6724,
      "fownz": 6725,
      "##aku": 6726,
      "vsts": 6727,
      "klips": 6728,
      "usts": 6729,
      "simor": 6730,
      "##kins": 6731,
      "destr": 6732,
      "nsili": 6733,
      "mownt": 6734,
      "kti": 6735,
      "npl": 6736,
      "disks": 6737,
      "asbr": 6738,
      "bejz": 6739,
      "kmil": 6740,
      "powk": 6741,
      "powziz": 6742,
      "iatik": 6743,
      "klajmd": 6744,
      "awtfit": 6745,
      "kejk": 6746,
      "gowd": 6747,
      "howzej": 6748,
      "dzezu": 6749,
      "swip": 6750,
      "het": 6751,
      "selvz": 6752,
      "sos": 6753,
      "ajnstajn": 6754,
      "gwam": 6755,
      "tenr": 6756,
      "idzekt": 6757,
      "istbawnd": 6758,
      "kowbr": 6759,
      "inkvmb": 6760,
      "stejks": 6761,
      "gog": 6762,
      "itelin": 6763,
      "skejd": 6764,
      "westbawnd": 6765,
      "dawnz": 6766,
      "mentor": 6767,
      "diplowm": 6768,
      "demiks": 6769,
      "svbwej": 6770,
      "dsip": 6771,
      "viks": 6772,
      "##efr": 6773,
      "amin": 6774,
      "bjuk": 6775,
      "anset": 6776,
      "nojr": 6777,
      "slejr": 6778,
      "tvtst": 6779,
      "tial": 6780,
      "awl": 6781,
      "inflejs": 6782,
      "hajnr": 6783,
      "esidentid": 6784,
      "mut": 6785,
      "hejld": 6786,
      "guld": 6787,
      "ug": 6788,
      "blits": 6789,
      "veniz": 6790,
      "vndif": 6791,
      "mfl": 6792,
      "ggr": 6793,
      "sidin": 6794,
      "bla": 6795,
      "ikwal": 6796,
      "agw": 6797,
      "fitid": 6798,
      "hjumili": 6799,
      "sifts": 6800,
      "heminwej": 6801,
      "gab": 6802,
      "esejz": 6803,
      "pikar": 6804,
      "mplejnt": 6805,
      "bens": 6806,
      "pembr": 6807,
      "##ptid": 6808,
      "howkiz": 6809,
      "stilin": 6810,
      "mojstsr": 6811,
      "osowvr": 6812,
      "iskr": 6813,
      "svbstr": 6814,
      "wajs": 6815,
      "estsuer": 6816,
      "odi": 6817,
      "zig": 6818,
      "##amik": 6819,
      "mpin": 6820,
      "pajin": 6821,
      "##owmin": 6822,
      "howstin": 6823,
      "wisd": 6824,
      "hand": 6825,
      "mgm": 6826,
      "ntat": 6827,
      "nindz": 6828,
      "bnor": 6829,
      "gejb": 6830,
      "tplejs": 6831,
      "zagr": 6832,
      "vowg": 6833,
      "ikstsejndzd": 6834,
      "venizwejl": 6835,
      "isep": 6836,
      "estiz": 6837,
      "dizajnin": 6838,
      "dzma": 6839,
      "dzojntli": 6840,
      "iklizi": 6841,
      "sajzin": 6842,
      "pejz": 6843,
      "powstin": 6844,
      "##antinz": 6845,
      "nejl": 6846,
      "imens": 6847,
      "isis": 6848,
      "ndajz": 6849,
      "tsej": 6850,
      "etow": 6851,
      "dzowi": 6852,
      "kwatik": 6853,
      "ksepts": 6854,
      "nowvi": 6855,
      "glv": 6856,
      "sawndin": 6857,
      "vnimplojm": 6858,
      "hot": 6859,
      "##izi": 6860,
      "##eki": 6861,
      "mpaz": 6862,
      "svbk": 6863,
      "pilin": 6864,
      "kwer": 6865,
      "blakin": 6866,
      "##ugv": 6867,
      "fok": 6868,
      "ji": 6869,
      "##gv": 6870,
      "intim": 6871,
      "nstejb": 6872,
      "mists": 6873,
      "wetl": 6874,
      "hejti": 6875,
      "lontajm": 6876,
      "meltin": 6877,
      "udi": 6878,
      "kangow": 6879,
      "bizantinz": 6880,
      "lownli": 6881,
      "iver": 6882,
      "slendr": 6883,
      "mowtif": 6884,
      "kus": 6885,
      "##sik": 6886,
      "ndownr": 6887,
      "ptiz": 6888,
      "##howldr": 6889,
      "ejmr": 6890,
      "nib": 6891,
      "kowins": 6892,
      "webstr": 6893,
      "ozbi": 6894,
      "nojuvr": 6895,
      "hild": 6896,
      "mejts": 6897,
      "sajpr": 6898,
      "endemik": 6899,
      "sistin": 6900,
      "btejnin": 6901,
      "klodi": 6902,
      "bukr": 6903,
      "wimb": 6904,
      "ndful": 6905,
      "piv": 6906,
      "##haw": 6907,
      "sinkr": 6908,
      "nadz": 6909,
      "stilr": 6910,
      "pvk": 6911,
      "filiks": 6912,
      "estidz": 6913,
      "itv": 6914,
      "gug": 6915,
      "fitsdz": 6916,
      "intimid": 6917,
      "ladik": 6918,
      "ilejt": 6919,
      "lowdz": 6920,
      "simi": 6921,
      "ejdalf": 6922,
      "telugv": 6923,
      "lajtli": 6924,
      "kemp": 6925,
      "ntidziz": 6926,
      "disem": 6927,
      "inseps": 6928,
      "nkfr": 6929,
      "pim": 6930,
      "##klajn": 6931,
      "ekf": 6932,
      "vajvz": 6933,
      "##ku": 6934,
      "##awdr": 6935,
      "diskor": 6936,
      "isuin": 6937,
      "gibz": 6938,
      "zdi": 6939,
      "tajin": 6940,
      "dawnwr": 6941,
      "levi": 6942,
      "fjudz": 6943,
      "ntejnr": 6944,
      "smits": 6945,
      "knalidz": 6946,
      "ikolz": 6947,
      "kens": 6948,
      "tutr": 6949,
      "mpejnd": 6950,
      "ifik": 6951,
      "midsips": 6952,
      "swer": 6953,
      "klown": 6954,
      "ilajzin": 6955,
      "ivalv": 6956,
      "hejm": 6957,
      "ugr": 6958,
      "##antin": 6959,
      "klawn": 6960,
      "ivkn": 6961,
      "zii": 6962,
      "##lowdz": 6963,
      "lifs": 6964,
      "kidni": 6965,
      "safmor": 6966,
      "##west": 6967,
      "nzaj": 6968,
      "blvnt": 6969,
      "towkin": 6970,
      "twej": 6971,
      "##watr": 6972,
      "##nvt": 6973,
      "svbpl": 6974,
      "integr": 6975,
      "##akj": 6976,
      "dawnstr": 6977,
      "dzajzd": 6978,
      "tsipr": 6979,
      "nhaj": 6980,
      "##hof": 6981,
      "##ildr": 6982,
      "##ong": 6983,
      "kejsi": 6984,
      "amptli": 6985,
      "kansowlz": 6986,
      "hvtsins": 6987,
      "##ejsiv": 6988,
      "lusli": 6989,
      "ntiliz": 6990,
      "svbdiviz": 6991,
      "wudi": 6992,
      "hadz": 6993,
      "vowkt": 6994,
      "nsmitid": 6995,
      "kumar": 6996,
      "bp": 6997,
      "owkin": 6998,
      "tejps": 6999,
      "mizr": 7000,
      "vts": 7001,
      "isks": 7002,
      "gudm": 7003,
      "pvt": 7004,
      "##fowld": 7005,
      "lajps": 7006,
      "difl": 7007,
      "najzr": 7008,
      "vvltsr": 7009,
      "enzajmz": 7010,
      "gim": 7011,
      "wemb": 7012,
      "flint": 7013,
      "lezr": 7014,
      "wejin": 7015,
      "dinom": 7016,
      "mjutr": 7017,
      "mpelin": 7018,
      "hus": 7019,
      "ejnwa": 7020,
      "dojts": 7021,
      "##avr": 7022,
      "##ejow": 7023,
      "kwatr": 7024,
      "hilin": 7025,
      "peni": 7026,
      "imowsn": 7027,
      "ibjuts": 7028,
      "gejlik": 7029,
      "awtflow": 7030,
      "svnset": 7031,
      "witst": 7032,
      "pitsfor": 7033,
      "wembli": 7034,
      "##nits": 7035,
      "##ikju": 7036,
      "esiz": 7037,
      "hajfi": 7038,
      "bisidzd": 7039,
      "zimbab": 7040,
      "@{": 7041,
      "ndar": 7042,
      "imer": 7043,
      "klajd": 7044,
      "awtpowst": 7045,
      "sh": 7046,
      "hipr": 7047,
      "menju": 7048,
      "gvnfajr": 7049,
      "lmin": 7050,
      "ustsev": 7051,
      "##entiv": 7052,
      "vali": 7053,
      "##gvn": 7054,
      "nejdz": 7055,
      "nbit": 7056,
      "wulvz": 7057,
      "dvtsi": 7058,
      "nzb": 7059,
      "blidin": 7060,
      "ekowd": 7061,
      "pazitid": 7062,
      "fend": 7063,
      "nans": 7064,
      "wajowmin": 7065,
      "dzini": 7066,
      "efjus": 7067,
      "velv": 7068,
      "imaj": 7069,
      "sinkler": 7070,
      "intid": 7071,
      "majndz": 7072,
      "smr": 7073,
      "stipj": 7074,
      "##bul": 7075,
      "##pik": 7076,
      "ajow": 7077,
      "izajdin": 7078,
      "mejtowz": 7079,
      "visk": 7080,
      "##bek": 7081,
      "his": 7082,
      "flaz": 7083,
      "svspekts": 7084,
      "ploz": 7085,
      "difaj": 7086,
      "hvf": 7087,
      "ndalf": 7088,
      "blajdz": 7089,
      "nvind": 7090,
      "nejlz": 7091,
      "utr": 7092,
      "bajow": 7093,
      "iku": 7094,
      "klel": 7095,
      "sindi": 7096,
      "vpstr": 7097,
      "pajplajn": 7098,
      "dlr": 7099,
      "tows": 7100,
      "insejn": 7101,
      "odsajd": 7102,
      "piti": 7103,
      "owlimpi": 7104,
      "titsinz": 7105,
      "dvt": 7106,
      "plid": 7107,
      "##awndid": 7108,
      "fulfil": 7109,
      "bownow": 7110,
      "tsokl": 7111,
      "iset": 7112,
      "tips": 7113,
      "plur": 7114,
      "dawnlowdz": 7115,
      "bilonz": 7116,
      "gnif": 7117,
      "bb": 7118,
      "##lav": 7119,
      "kowli": 7120,
      "klift": 7121,
      "gvnp": 7122,
      "klinik": 7123,
      "wot": 7124,
      "##anst": 7125,
      "klowd": 7126,
      "sinapsis": 7127,
      "##wejdr": 7128,
      "gowldm": 7129,
      "dejvids": 7130,
      "powstsis": 7131,
      "kofin": 7132,
      "natsiz": 7133,
      "visnu": 7134,
      "lajdid": 7135,
      "##hol": 7136,
      "##ident": 7137,
      "splits": 7138,
      "igzatik": 7139,
      "wajg": 7140,
      "awtskr": 7141,
      "bilitejs": 7142,
      "nsiv": 7143,
      "idzojn": 7144,
      "blejdz": 7145,
      "eksitr": 7146,
      "glejdz": 7147,
      "ikspektin": 7148,
      "klinin": 7149,
      "gvnpawdr": 7150,
      "fendr": 7151,
      "npor": 7152,
      "ati": 7153,
      "dejlajt": 7154,
      "lgbt": 7155,
      "ksent": 7156,
      "lof": 7157,
      "detr": 7158,
      "mentow": 7159,
      "ajfown": 7160,
      "kakpit": 7161,
      "tvls": 7162,
      "ksejs": 7163,
      "##owkandr": 7164,
      "nfinist": 7165,
      "hejnz": 7166,
      "insud": 7167,
      "debr": 7168,
      "bejsikli": 7169,
      "svlf": 7170,
      "izin": 7171,
      "salfr": 7172,
      "sikstint": 7173,
      "##stownkr": 7174,
      "walstownkr": 7175,
      "gajl": 7176,
      "gur": 7177,
      "glu": 7178,
      "kowlts": 7179,
      "vvlk": 7180,
      "nebj": 7181,
      "stvn": 7182,
      "mownz": 7183,
      "ktow": 7184,
      "etejs": 7185,
      "koli": 7186,
      "pun": 7187,
      "dzak": 7188,
      "dztawn": 7189,
      "spi": 7190,
      "mistejks": 7191,
      "inhir": 7192,
      "lajpsig": 7193,
      "skejtin": 7194,
      "siftin": 7195,
      "ajps": 7196,
      "powlow": 7197,
      "kawnsilr": 7198,
      "tolist": 7199,
      "##uow": 7200,
      "##ildz": 7201,
      "tudr": 7202,
      "fowklor": 7203,
      "##owziz": 7204,
      "klifs": 7205,
      "hont": 7206,
      "najdzir": 7207,
      "iwr": 7208,
      "vnklajn": 7209,
      "awtn": 7210,
      "idmik": 7211,
      "ntint": 7212,
      "ktsu": 7213,
      "vitow": 7214,
      "fvmb": 7215,
      "mbik": 7216,
      "gudbaj": 7217,
      "nklusiv": 7218,
      "nhejg": 7219,
      "itejlr": 7220,
      "ims": 7221,
      "wenzdi": 7222,
      "bambej": 7223,
      "dawts": 7224,
      "kvr": 7225,
      "dsajr": 7226,
      "sektin": 7227,
      "##kis": 7228,
      "##ziz": 7229,
      "kejdi": 7230,
      "##bowts": 7231,
      "kvltivejs": 7232,
      "uzin": 7233,
      "vndz": 7234,
      "##ajpr": 7235,
      "nzilvejni": 7236,
      "elvis": 7237,
      "nejgr": 7238,
      "owpi": 7239,
      "midfildr": 7240,
      "lawndz": 7241,
      "vnikspektidli": 7242,
      "tejm": 7243,
      "ajak": 7244,
      "spowksm": 7245,
      "##mil": 7246,
      "nowel": 7247,
      "wenr": 7248,
      "##owtr": 7249,
      "emikst": 7250,
      "##plin": 7251,
      "kvtr": 7252,
      "nmi": 7253,
      "dakjar": 7254,
      "hints": 7255,
      "tj": 7256,
      "##powl": 7257,
      "kulin": 7258,
      "kojnd": 7259,
      "dzili": 7260,
      "awtnvmbr": 7261,
      "hejtr": 7262,
      "tsapr": 7263,
      "sowdi": 7264,
      "inikspir": 7265,
      "wiltser": 7266,
      "poz": 7267,
      "owsr": 7268,
      "spajs": 7269,
      "enlajt": 7270,
      "wilow": 7271,
      "tojl": 7272,
      "nsvltin": 7273,
      "mitowkandr": 7274,
      "feld": 7275,
      "buld": 7276,
      "gajdz": 7277,
      "gnejtid": 7278,
      "ladzikli": 7279,
      "matow": 7280,
      "ftin": 7281,
      "mvstr": 7282,
      "zik": 7283,
      "##uv": 7284,
      "diseps": 7285,
      "##esi": 7286,
      "##etitiv": 7287,
      "ipetitiv": 7288,
      "bizmar": 7289,
      "ednts": 7290,
      "itens": 7291,
      "igzr": 7292,
      "pejnf": 7293,
      "balik": 7294,
      "dzvmpt": 7295,
      "klowvr": 7296,
      "blik": 7297,
      "sejb": 7298,
      "amz": 7299,
      "igin": 7300,
      "iksplowsivz": 7301,
      "##woki": 7302,
      "taz": 7303,
      "hajz": 7304,
      "kilinz": 7305,
      "memf": 7306,
      "fliin": 7307,
      "ivalvin": 7308,
      "mantr": 7309,
      "ai": 7310,
      "hejs": 7311,
      "##astr": 7312,
      "##ign": 7313,
      "##liis": 7314,
      "sigm": 7315,
      "gnajzin": 7316,
      "fw": 7317,
      "isajk": 7318,
      "ensr": 7319,
      "tams": 7320,
      "##buks": 7321,
      "##enik": 7322,
      "##vini": 7323,
      "baha": 7324,
      "agment": 7325,
      "fejnt": 7326,
      "oli": 7327,
      "##stownz": 7328,
      "bjun": 7329,
      "ntib": 7330,
      "slowg": 7331,
      "egzajld": 7332,
      "tajmlajn": 7333,
      "izistid": 7334,
      "fur": 7335,
      "tvsk": 7336,
      "awndid": 7337,
      "winip": 7338,
      "ditens": 7339,
      "owbvst": 7340,
      "gili": 7341,
      "##andow": 7342,
      "tvtsin": 7343,
      "mlin": 7344,
      "plenti": 7345,
      "wilfr": 7346,
      "dint": 7347,
      "hilt": 7348,
      "hvnts": 7349,
      "ajzinli": 7350,
      "ilongejt": 7351,
      "fitsdzer": 7352,
      "iel": 7353,
      "lvejs": 7354,
      "pajpr": 7355,
      "fiftint": 7356,
      "lest": 7357,
      "nvl": 7358,
      "itend": 7359,
      "stemz": 7360,
      "nwr": 7361,
      "lingr": 7362,
      "nsur": 7363,
      "inifektiv": 7364,
      "bvm": 7365,
      "dikins": 7366,
      "degr": 7367,
      "sojlz": 7368,
      "ifleks": 7369,
      "hik": 7370,
      "pes": 7371,
      "##lig": 7372,
      "antr": 7373,
      "##klvb": 7374,
      "kowlm": 7375,
      "howldinz": 7376,
      "embedid": 7377,
      "lvz": 7378,
      "##bild": 7379,
      "stold": 7380,
      "nten": 7381,
      "flvk": 7382,
      "stejdzin": 7383,
      "displejin": 7384,
      "tisfajin": 7385,
      "dd": 7386,
      "##vlr": 7387,
      "howlt": 7388,
      "ivalvr": 7389,
      "hejn": 7390,
      "inviz": 7391,
      "papm": 7392,
      "tsejst": 7393,
      "mejg": 7394,
      "idzm": 7395,
      "awndinz": 7396,
      "ldzir": 7397,
      "iwer": 7398,
      "ejvan": 7399,
      "nus": 7400,
      "lakr": 7401,
      "tsejndziz": 7402,
      "papmatr": 7403,
      "sfr": 7404,
      "##aldi": 7405,
      "skvt": 7406,
      "ivejd": 7407,
      "milwoki": 7408,
      "vitr": 7409,
      "fejsbuk": 7410,
      "tsejsin": 7411,
      "hepbr": 7412,
      "deks": 7413,
      "fojl": 7414,
      "##nis": 7415,
      "tumr": 7416,
      "hab": 7417,
      "downr": 7418,
      "hajnz": 7419,
      "sg": 7420,
      "ndejt": 7421,
      "spinin": 7422,
      "indevr": 7423,
      "##anj": 7424,
      "##awnts": 7425,
      "##klin": 7426,
      "dinawnst": 7427,
      "vur": 7428,
      "##ajvr": 7429,
      "plik": 7430,
      "kendr": 7431,
      "unow": 7432,
      "foks": 7433,
      "dib": 7434,
      "##ilow": 7435,
      "milki": 7436,
      "fikt": 7437,
      "##evi": 7438,
      "ejng": 7439,
      "owtejtin": 7440,
      "singj": 7441,
      "vilidzr": 7442,
      "kastli": 7443,
      "lps": 7444,
      "dzos": 7445,
      "klajmz": 7446,
      "butsr": 7447,
      "ajkawts": 7448,
      "vint": 7449,
      "nab": 7450,
      "snejks": 7451,
      "fasf": 7452,
      "spelin": 7453,
      "ndzelik": 7454,
      "midik": 7455,
      "bowldr": 7456,
      "sojr": 7457,
      "mpejnin": 7458,
      "ivens": 7459,
      "powkr": 7460,
      "dimajz": 7461,
      "dol": 7462,
      "ndejl": 7463,
      "sibr": 7464,
      "sowr": 7465,
      "klejd": 7466,
      "owbis": 7467,
      "kikof": 7468,
      "kvninh": 7469,
      "fd": 7470,
      "pajz": 7471,
      "pheld": 7472,
      "insentiv": 7473,
      "igd": 7474,
      "kozm": 7475,
      "pegi": 7476,
      "##atsu": 7477,
      "dawngr": 7478,
      "dvnst": 7479,
      "gajdlajnz": 7480,
      "dzedi": 7481,
      "disin": 7482,
      "plod": 7483,
      "stejsi": 7484,
      "wizd": 7485,
      "fp": 7486,
      "mawnd": 7487,
      "tajlz": 7488,
      "##stid": 7489,
      "himlr": 7490,
      "difekt": 7491,
      "gejtwej": 7492,
      "handur": 7493,
      "nsep": 7494,
      "dvv": 7495,
      "valkejnowz": 7496,
      "bowhimi": 7497,
      "hvm": 7498,
      "lests": 7499,
      "klvts": 7500,
      "towbi": 7501,
      "gadwin": 7502,
      "nsper": 7503,
      "fb": 7504,
      "lejm": 7505,
      "zep": 7506,
      "ivowk": 7507,
      "bvfi": 7508,
      "implajd": 7509,
      "venr": 7510,
      "##gaw": 7511,
      "tseks": 7512,
      "lets": 7513,
      "blej": 7514,
      "emplojin": 7515,
      "idizajnd": 7516,
      "esbit": 7517,
      "awlz": 7518,
      "tund": 7519,
      "##vldz": 7520,
      "ndzests": 7521,
      "difjuz": 7522,
      "litow": 7523,
      "esbitir": 7524,
      "pw": 7525,
      "vajb": 7526,
      "impid": 7527,
      "owkjur": 7528,
      "towli": 7529,
      "weldin": 7530,
      "owmiow": 7531,
      "##alit": 7532,
      "liejs": 7533,
      "splin": 7534,
      "misr": 7535,
      "fini": 7536,
      "powstm": 7537,
      "desk": 7538,
      "mvm": 7539,
      "svnsajn": 7540,
      "spelz": 7541,
      "ntiagow": 7542,
      "hvlk": 7543,
      "fawlr": 7544,
      "limpiks": 7545,
      "klejt": 7546,
      "manz": 7547,
      "ht": 7548,
      "vant": 7549,
      "eswotr": 7550,
      "owlifik": 7551,
      "nseptsu": 7552,
      "kks": 7553,
      "udz": 7554,
      "dun": 7555,
      "ilejts": 7556,
      "wejvl": 7557,
      "dajzd": 7558,
      "iskejpin": 7559,
      "##nar": 7560,
      "##kak": 7561,
      "ntsejndzd": 7562,
      "vnkr": 7563,
      "ifju": 7564,
      "invejdr": 7565,
      "vinj": 7566,
      "glab": 7567,
      "ltow": 7568,
      "najtklvb": 7569,
      "flits": 7570,
      "ivalvz": 7571,
      "ejpt": 7572,
      "debj": 7573,
      "kdz": 7574,
      "##per": 7575,
      "tibr": 7576,
      "slvg": 7577,
      "##litid": 7578,
      "eniwej": 7579,
      "fikin": 7580,
      "teli": 7581,
      "esi": 7582,
      "tsun": 7583,
      "iptsr": 7584,
      "nfild": 7585,
      "##isier": 7586,
      "kemik": 7587,
      "letin": 7588,
      "dzepr": 7589,
      "##hedz": 7590,
      "##owpi": 7591,
      "klifr": 7592,
      "owliviej": 7593,
      "nsiliejs": 7594,
      "##bojz": 7595,
      "welmd": 7596,
      "setb": 7597,
      "##astik": 7598,
      "tsk": 7599,
      "lumin": 7600,
      "vajzin": 7601,
      "egzits": 7602,
      "kenzi": 7603,
      "tentik": 7604,
      "dzejd": 7605,
      "waf": 7606,
      "smajl": 7607,
      "tinkr": 7608,
      "hedkor": 7609,
      "amw": 7610,
      "kagnitiv": 7611,
      "bajdzan": 7612,
      "##iejtid": 7613,
      "##isr": 7614,
      "minajdz": 7615,
      "kejsmejts": 7616,
      "estowni": 7617,
      "##ejj": 7618,
      "kowlr": 7619,
      "widr": 7620,
      "juf": 7621,
      "mim": 7622,
      "aspekts": 7623,
      "blajdzd": 7624,
      "nektid": 7625,
      "tsowl": 7626,
      "liown": 7627,
      "pigz": 7628,
      "towj": 7629,
      "vejtin": 7630,
      "nkvmfr": 7631,
      "pajps": 7632,
      "dzudisier": 7633,
      "mjuzm": 7634,
      "bowlstr": 7635,
      "vgli": 7636,
      "bdul": 7637,
      "##fildz": 7638,
      "ilinkw": 7639,
      "##hag": 7640,
      "##ametr": 7641,
      "dziam": 7642,
      "ngar": 7643,
      "ignr": 7644,
      "kwizin": 7645,
      "##ejaj": 7646,
      "sajtejs": 7647,
      "bisk": 7648,
      "isiejt": 7649,
      "belf": 7650,
      "disf": 7651,
      "kanaj": 7652,
      "lowv": 7653,
      "##kejp": 7654,
      "owfiz": 7655,
      "ejvin": 7656,
      "kandr": 7657,
      "tejvi": 7658,
      "fvk": 7659,
      "baksr": 7660,
      "bvnts": 7661,
      "indef": 7662,
      "##dowm": 7663,
      "nadu": 7664,
      "zimbabwej": 7665,
      "##bal": 7666,
      "##owbi": 7667,
      "aju": 7668,
      "itejnz": 7669,
      "plvm": 7670,
      "ejlud": 7671,
      "owziz": 7672,
      "taf": 7673,
      "fant": 7674,
      "elk": 7675,
      "slaj": 7676,
      "tenz": 7677,
      "bamd": 7678,
      "mfet": 7679,
      "gustaf": 7680,
      "sklr": 7681,
      "ikskju": 7682,
      "binz": 7683,
      "wilmint": 7684,
      "vndifitid": 7685,
      "lep": 7686,
      "lisin": 7687,
      "##ejzi": 7688,
      "##abi": 7689,
      "stan": 7690,
      "awz": 7691,
      "mvnkiz": 7692,
      "##lisiz": 7693,
      "tajs": 7694,
      "kajli": 7695,
      "tsesr": 7696,
      "husejn": 7697,
      "kidzin": 7698,
      "lvs": 7699,
      "najnti": 7700,
      "nots": 7701,
      "dud": 7702,
      "itow": 7703,
      "dalz": 7704,
      "isajsli": 7705,
      "fidzi": 7706,
      "iil": 7707,
      "##ui": 7708,
      "nski": 7709,
      "tuzdi": 7710,
      "sini": 7711,
      "wild": 7712,
      "mojl": 7713,
      "awli": 7714,
      "bikini": 7715,
      "mks": 7716,
      "sliv": 7717,
      "nitowb": 7718,
      "lwajn": 7719,
      "bildz": 7720,
      "howgan": 7721,
      "linr": 7722,
      "palist": 7723,
      "namikli": 7724,
      "netikli": 7725,
      "hl": 7726,
      "judz": 7727,
      "bses": 7728,
      "hek": 7729,
      "lwr": 7730,
      "nost": 7731,
      "kowdi": 7732,
      "swam": 7733,
      "plutow": 7734,
      "##hid": 7735,
      "##flin": 7736,
      "disgr": 7737,
      "##agi": 7738,
      "owkinaw": 7739,
      "kowni": 7740,
      "##su": 7741,
      "##sowni": 7742,
      "ajdilz": 7743,
      "owmis": 7744,
      "depts": 7745,
      "igzempl": 7746,
      "ustr": 7747,
      "akwr": 7748,
      "vam": 7749,
      "awzr": 7750,
      "slik": 7751,
      "tilm": 7752,
      "inogjr": 7753,
      "baliwud": 7754,
      "avi": 7755,
      "hbow": 7756,
      "stajld": 7757,
      "nsild": 7758,
      "istan": 7759,
      "lukr": 7760,
      "miln": 7761,
      "ventr": 7762,
      "iksajtm": 7763,
      "limpik": 7764,
      "ksidin": 7765,
      "igez": 7766,
      "naktr": 7767,
      "stint": 7768,
      "hunt": 7769,
      "owlg": 7770,
      "kowmz": 7771,
      "##powli": 7772,
      "wint": 7773,
      "nvnsiejs": 7774,
      "dzvmps": 7775,
      "##awd": 7776,
      "splitin": 7777,
      "levin": 7778,
      "simr": 7779,
      "vejpr": 7780,
      "kisin": 7781,
      "bibr": 7782,
      "higinz": 7783,
      "disint": 7784,
      "plajr": 7785,
      "svmhaw": 7786,
      "timor": 7787,
      "finisiz": 7788,
      "aven": 7789,
      "kvmbajnz": 7790,
      "jutr": 7791,
      "ikar": 7792,
      "landz": 7793,
      "hold": 7794,
      "nukvmr": 7795,
      "nvinsiz": 7796,
      "nos": 7797,
      "ptajzd": 7798,
      "ntsajziz": 7799,
      "stajp": 7800,
      "lajflon": 7801,
      "ved": 7802,
      "ejliz": 7803,
      "enib": 7804,
      "slipr": 7805,
      "felps": 7806,
      "nlak": 7807,
      "hw": 7808,
      "skajs": 7809,
      "wajldr": 7810,
      "lizin": 7811,
      "ndel": 7812,
      "##gzbr": 7813,
      "epstin": 7814,
      "tajzr": 7815,
      "nspikju": 7816,
      "##tl": 7817,
      "kjubr": 7818,
      "ispandin": 7819,
      "lkow": 7820,
      "ipvl": 7821,
      "mbor": 7822,
      "bsest": 7823,
      "hastidz": 7824,
      "bidin": 7825,
      "gawt": 7826,
      "kelr": 7827,
      "ok": 7828,
      "owps": 7829,
      "##emps": 7830,
      "duli": 7831,
      "##ajdent": 7832,
      "nkajnd": 7833,
      "gs": 7834,
      "##hem": 7835,
      "##nowts": 7836,
      "dipowzd": 7837,
      "kvps": 7838,
      "kansor": 7839,
      "bedfr": 7840,
      "jan": 7841,
      "tt": 7842,
      "tg": 7843,
      "tsejk": 7844,
      "##imor": 7845,
      "ikww": 7846,
      "sintetik": 7847,
      "towlz": 7848,
      "ensi": 7849,
      "kwejkr": 7850,
      "ingow": 7851,
      "tisjuz": 7852,
      "##adzi": 7853,
      "osr": 7854,
      "wesli": 7855,
      "dzvt": 7856,
      "sedz": 7857,
      "kajsr": 7858,
      "zvi": 7859,
      "##usin": 7860,
      "##ejdi": 7861,
      "dzajr": 7862,
      "tsvn": 7863,
      "ajsin": 7864,
      "selbi": 7865,
      "ditejnd": 7866,
      "hiler": 7867,
      "owbz": 7868,
      "##owvani": 7869,
      "jer": 7870,
      "ajmr": 7871,
      "##istor": 7872,
      "kowin": 7873,
      "ftajm": 7874,
      "bvstr": 7875,
      "wolr": 7876,
      "kazmik": 7877,
      "eksplojtejs": 7878,
      "##ajps": 7879,
      "disendin": 7880,
      "ntsr": 7881,
      "plejg": 7882,
      "swamp": 7883,
      "pvlp": 7884,
      "mani": 7885,
      "tejnr": 7886,
      "majd": 7887,
      "##tar": 7888,
      "##vlsr": 7889,
      "pulm": 7890,
      "simplis": 7891,
      "implajz": 7892,
      "piksar": 7893,
      "##vju": 7894,
      "ndor": 7895,
      "dinow": 7896,
      "ikwestin": 7897,
      "budiz": 7898,
      "##kjub": 7899,
      "##owki": 7900,
      "dzvstm": 7901,
      "##hawsiz": 7902,
      "##idli": 7903,
      "enow": 7904,
      "lejdz": 7905,
      "subr": 7906,
      "dajk": 7907,
      "utm": 7908,
      "gowm": 7909,
      "halik": 7910,
      "pvblisajzd": 7911,
      "##lej": 7912,
      "##val": 7913,
      "##paks": 7914,
      "spendz": 7915,
      "ziv": 7916,
      "ksest": 7917,
      "iksentr": 7918,
      "ejsist": 7919,
      "nhor": 7920,
      "mowtifs": 7921,
      "tatinh": 7922,
      "war": 7923,
      "bajts": 7924,
      "##aniz": 7925,
      "ekinr": 7926,
      "##atsi": 7927,
      "emplojz": 7928,
      "daptin": 7929,
      "uin": 7930,
      "asesr": 7931,
      "dzenk": 7932,
      "##ejsi": 7933,
      "filhar": 7934,
      "##wejks": 7935,
      "sensitiv": 7936,
      "gez": 7937,
      "wink": 7938,
      "infin": 7939,
      "lesnar": 7940,
      "lejl": 7941,
      "pendin": 7942,
      "##sh": 7943,
      "##skr": 7944,
      "##ajndin": 7945,
      "##bildin": 7946,
      "andz": 7947,
      "##bk": 7948,
      "idejs": 7949,
      "##owkar": 7950,
      "slips": 7951,
      "fulfild": 7952,
      "influenz": 7953,
      "likr": 7954,
      "zowal": 7955,
      "hjur": 7956,
      "##hoks": 7957,
      "lajnin": 7958,
      "##ejvow": 7959,
      "pazit": 7960,
      "dwik": 7961,
      "zambi": 7962,
      "kajt": 7963,
      "inwr": 7964,
      "plvndr": 7965,
      "sajgan": 7966,
      "ipk": 7967,
      "timb": 7968,
      "kint": 7969,
      "ejnt": 7970,
      "lvmp": 7971,
      "mvskj": 7972,
      "elmz": 7973,
      "dzus": 7974,
      "deni": 7975,
      "powlianik": 7976,
      "switsin": 7977,
      "floz": 7978,
      "inklajnd": 7979,
      "demowz": 7980,
      "vajdr": 7981,
      "nbi": 7982,
      "tsejni": 7983,
      "ikos": 7984,
      "impendin": 7985,
      "endl": 7986,
      "kinsip": 7987,
      "maja": 7988,
      "tapin": 7989,
      "siver": 7990,
      "ubin": 7991,
      "gandi": 7992,
      "svbplat": 7993,
      "##izm": 7994,
      "##ilektr": 7995,
      "nsajnd": 7996,
      "awlin": 7997,
      "loft": 7998,
      "gni": 7999,
      "fajsiz": 8000,
      "tvs": 8001,
      "sto": 8002,
      "ludz": 8003,
      "ifektsr": 8004,
      "insists": 8005,
      "lajnb": 8006,
      "bvkinh": 8007,
      "fows": 8008,
      "ejh": 8009,
      "gowsts": 8010,
      "silvestr": 8011,
      "ezd": 8012,
      "##idis": 8013,
      "tiow": 8014,
      "klk": 8015,
      "zuki": 8016,
      "dojl": 8017,
      "tsev": 8018,
      "##etin": 8019,
      "psbr": 8020,
      "ilowkejs": 8021,
      "disgvst": 8022,
      "lvdwig": 8023,
      "fizisist": 8024,
      "jat": 8025,
      "##vnkt": 8026,
      "disajp": 8027,
      "wudid": 8028,
      "awtidziz": 8029,
      "beni": 8030,
      "ilajin": 8031,
      "ndslajdz": 8032,
      "tsis": 8033,
      "danki": 8034,
      "tkwejks": 8035,
      "ozwold": 8036,
      "##klif": 8037,
      "##isajzd": 8038,
      "wilbr": 8039,
      "silinz": 8040,
      "pelowt": 8041,
      "hoj": 8042,
      "lipowli": 8043,
      "nsut": 8044,
      "spvndz": 8045,
      "plejgd": 8046,
      "ptejnd": 8047,
      "fisi": 8048,
      "kikin": 8049,
      "fliz": 8050,
      "nas": 8051,
      "mpvlsr": 8052,
      "swalow": 8053,
      "ozbor": 8054,
      "sajbir": 8055,
      "avendzr": 8056,
      "dzens": 8057,
      "pitsiz": 8058,
      "bulz": 8059,
      "soltid": 8060,
      "dubaj": 8061,
      "kluz": 8062,
      "sensi": 8063,
      "##pojnts": 8064,
      "pastsr": 8065,
      "dzvtl": 8066,
      "usi": 8067,
      "zp": 8068,
      "minstr": 8069,
      "hajkin": 8070,
      "kowtow": 8071,
      "ntibadiz": 8072,
      "najd": 8073,
      "##ikj": 8074,
      "listinz": 8075,
      "kalid": 8076,
      "bvg": 8077,
      "andhajm": 8078,
      "istanbul": 8079,
      "bdowm": 8080,
      "wedz": 8081,
      "ivejlin": 8082,
      "misl": 8083,
      "vajz": 8084,
      "teknis": 8085,
      "dzowhr": 8086,
      "imejs": 8087,
      "##wejtr": 8088,
      "dejtajm": 8089,
      "kmer": 8090,
      "wudr": 8091,
      "##her": 8092,
      "##givin": 8093,
      "istli": 8094,
      "gamkjub": 8095,
      "tab": 8096,
      "sumz": 8097,
      "##imbr": 8098,
      "ojz": 8099,
      "mitik": 8100,
      "dwelin": 8101,
      "##ogz": 8102,
      "witskr": 8103,
      "dvndr": 8104,
      "stsr": 8105,
      "vinz": 8106,
      "jusr": 8107,
      "idzwotr": 8108,
      "indik": 8109,
      "kazwej": 8110,
      "etsr": 8111,
      "udr": 8112,
      "##bvstr": 8113,
      "##fadr": 8114,
      "##endi": 8115,
      "fildr": 8116,
      "ownin": 8117,
      "ajmejts": 8118,
      "##kejst": 8119,
      "mestr": 8120,
      "##haj": 8121,
      "##pis": 8122,
      "mpeld": 8123,
      "blas": 8124,
      "ensik": 8125,
      "unj": 8126,
      "spowkspr": 8127,
      "mwej": 8128,
      "nowwer": 8129,
      "indifr": 8130,
      "liftin": 8131,
      "taksis": 8132,
      "##vfs": 8133,
      "##awsr": 8134,
      "##ajnr": 8135,
      "bigininz": 8136,
      "kstejdz": 8137,
      "va": 8138,
      "ikskr": 8139,
      "diplitid": 8140,
      "kanflu": 8141,
      "dikli": 8142,
      "udin": 8143,
      "uinz": 8144,
      "##ikejtid": 8145,
      "tkvmin": 8146,
      "simfanik": 8147,
      "##jan": 8148,
      "nsajl": 8149,
      "ikwejtr": 8150,
      "##ejlj": 8151,
      "sizin": 8152,
      "idemps": 8153,
      "wigz": 8154,
      "tejpr": 8155,
      "vptli": 8156,
      "uft": 8157,
      "ntent": 8158,
      "debi": 8159,
      "nikow": 8160,
      "hejli": 8161,
      "##vlsiv": 8162,
      "bawnti": 8163,
      "##awndin": 8164,
      "pledzd": 8165,
      "skajskr": 8166,
      "ipvlst": 8167,
      "fet": 8168,
      "munz": 8169,
      "sawvt": 8170,
      "tsejkavski": 8171,
      "ivowkt": 8172,
      "lef": 8173,
      "pment": 8174,
      "fulf": 8175,
      "atowz": 8176,
      "slowvini": 8177,
      "ftsm": 8178,
      "sults": 8179,
      "gus": 8180,
      "iowl": 8181,
      "kag": 8182,
      "vajsr": 8183,
      "kapid": 8184,
      "polow": 8185,
      "lojz": 8186,
      "za": 8187,
      "dziowvani": 8188,
      "svnlajt": 8189,
      "smolpaks": 8190,
      "spidwej": 8191,
      "numownj": 8192,
      "endzojin": 8193,
      "lidi": 8194,
      "eliks": 8195,
      "wejvr": 8196,
      "ikwestr": 8197,
      "impowz": 8198,
      "snajpr": 8199,
      "##vktiv": 8200,
      "ikskluz": 8201,
      "fasfr": 8202,
      "blowin": 8203,
      "ditejlin": 8204,
      "bowni": 8205,
      "tsekt": 8206,
      "tipt": 8207,
      "kowhir": 8208,
      "filis": 8209,
      "nhawsr": 8210,
      "stakr": 8211,
      "idikj": 8212,
      "hul": 8213,
      "tejkowvr": 8214,
      "midsip": 8215,
      "nfest": 8216,
      "sfaj": 8217,
      "dzowli": 8218,
      "festiv": 8219,
      "nsumin": 8220,
      "pvf": 8221,
      "ledzr": 8222,
      "bats": 8223,
      "mangow": 8224,
      "dzenik": 8225,
      "kandz": 8226,
      "smir": 8227,
      "ekspow": 8228,
      "kbet": 8229,
      "zepilin": 8230,
      "lvst": 8231,
      "##tid": 8232,
      "ndb": 8233,
      "tset": 8234,
      "##iter": 8235,
      "sowk": 8236,
      "kank": 8237,
      "nksgivin": 8238,
      "hupr": 8239,
      "nian": 8240,
      "kowsts": 8241,
      "nlim": 8242,
      "diskowgr": 8243,
      "nez": 8244,
      "##eskju": 8245,
      "mplin": 8246,
      "uzber": 8247,
      "awtlajnd": 8248,
      "majsor": 8249,
      "ntiv": 8250,
      "tsam": 8251,
      "lifor": 8252,
      "ajsow": 8253,
      "intendin": 8254,
      "awnli": 8255,
      "##enst": 8256,
      "spojl": 8257,
      "ksimi": 8258,
      "elf": 8259,
      "aksi": 8260,
      "hezit": 8261,
      "lingwistik": 8262,
      "lend": 8263,
      "mot": 8264,
      "##itudz": 8265,
      "ksil": 8266,
      "invins": 8267,
      "iisu": 8268,
      "##udid": 8269,
      "##empow": 8270,
      "svbf": 8271,
      "diktejt": 8272,
      "iztendr": 8273,
      "nowd": 8274,
      "vajkinz": 8275,
      "psiz": 8276,
      "inkvmin": 8277,
      "svbtajt": 8278,
      "kstor": 8279,
      "itiow": 8280,
      "ktajs": 8281,
      "flik": 8282,
      "slr": 8283,
      "upin": 8284,
      "spinr": 8285,
      "geti": 8286,
      "mendin": 8287,
      "##bown": 8288,
      "idzekts": 8289,
      "awtkr": 8290,
      "mbu": 8291,
      "badigar": 8292,
      "majti": 8293,
      "isipit": 8294,
      "itiowpi": 8295,
      "kanwej": 8296,
      "kwowts": 8297,
      "##asiti": 8298,
      "kili": 8299,
      "mafi": 8300,
      "towjowt": 8301,
      "ezdin": 8302,
      "stiz": 8303,
      "itz": 8304,
      "ntsi": 8305,
      "ekel": 8306,
      "lvvli": 8307,
      "sejvinz": 8308,
      "ikstingw": 8309,
      "awtfits": 8310,
      "stejnin": 8311,
      "stvnin": 8312,
      "wasp": 8313,
      "tswud": 8314,
      "buli": 8315,
      "hjubr": 8316,
      "mikejl": 8317,
      "salvd": 8318,
      "ihistor": 8319,
      "howpf": 8320,
      "dbr": 8321,
      "wl": 8322,
      "##ajnm": 8323,
      "ejtfor": 8324,
      "helmz": 8325,
      "ltejs": 8326,
      "kistr": 8327,
      "vejr": 8328,
      "hajlajtin": 8329,
      "ajw": 8330,
      "enits": 8331,
      "eles": 8332,
      "indus": 8333,
      "pagr": 8334,
      "dzistik": 8335,
      "kowmow": 8336,
      "staks": 8337,
      "ntawn": 8338,
      "elt": 8339,
      "bukt": 8340,
      "senteni": 8341,
      "##fski": 8342,
      "ksownamik": 8343,
      "malr": 8344,
      "mod": 8345,
      "zd": 8346,
      "imad": 8347,
      "##plejn": 8348,
      "edinz": 8349,
      "weld": 8350,
      "pandr": 8351,
      "stajlajzd": 8352,
      "matr": 8353,
      "tekstajl": 8354,
      "filiejs": 8355,
      "dantej": 8356,
      "sadik": 8357,
      "vati": 8358,
      "imidzin": 8359,
      "koldr": 8360,
      "witm": 8361,
      "belts": 8362,
      "jejts": 8363,
      "dibi": 8364,
      "izajd": 8365,
      "lajvli": 8366,
      "vejkejt": 8367,
      "gvtr": 8368,
      "lajfsp": 8369,
      "naz": 8370,
      "tvg": 8371,
      "lvnz": 8372,
      "ndskejps": 8373,
      "seltiks": 8374,
      "disgajzd": 8375,
      "##alitik": 8376,
      "sifr": 8377,
      "dvf": 8378,
      "slim": 8379,
      "silvi": 8380,
      "sand": 8381,
      "fad": 8382,
      "##powk": 8383,
      "skajr": 8384,
      "elz": 8385,
      "ekowz": 8386,
      "##owsip": 8387,
      "kalin": 8388,
      "hitskak": 8389,
      "wilinn": 8390,
      "lens": 8391,
      "nvts": 8392,
      "##vvd": 8393,
      "dzistr": 8394,
      "glr": 8395,
      "balz": 8396,
      "dp": 8397,
      "dolt": 8398,
      "gojn": 8399,
      "majzin": 8400,
      "dowmin": 8401,
      "svk": 8402,
      "nvektiv": 8403,
      "owbitsu": 8404,
      "neksejs": 8405,
      "owbitsuer": 8406,
      "sisi": 8407,
      "ajvm": 8408,
      "vnint": 8409,
      "dinowt": 8410,
      "utow": 8411,
      "asest": 8412,
      "sensitiviti": 8413,
      "mangowli": 8414,
      "bowk": 8415,
      "ajan": 8416,
      "izowmiz": 8417,
      "ektid": 8418,
      "sidik": 8419,
      "mvt": 8420,
      "##zhed": 8421,
      "stejl": 8422,
      "bibi": 8423,
      "nzvr": 8424,
      "##olf": 8425,
      "##owkem": 8426,
      "owsim": 8427,
      "nidin": 8428,
      "fejn": 8429,
      "##jor": 8430,
      "slejtid": 8431,
      "wajthed": 8432,
      "sitik": 8433,
      "vajdid": 8434,
      "ilidzit": 8435,
      "pvnis": 8436,
      "mjan": 8437,
      "stajlistik": 8438,
      "gowmez": 8439,
      "dks": 8440,
      "mvk": 8441,
      "td": 8442,
      "isipi": 8443,
      "timr": 8444,
      "fig": 8445,
      "edzd": 8446,
      "felowsip": 8447,
      "indzeks": 8448,
      "slavik": 8449,
      "bejtin": 8450,
      "##inj": 8451,
      "nzbr": 8452,
      "dupl": 8453,
      "otiz": 8454,
      "belar": 8455,
      "osi": 8456,
      "dza": 8457,
      "owls": 8458,
      "howv": 8459,
      "nkli": 8460,
      "gvnmen": 8461,
      "inhaws": 8462,
      "beliz": 8463,
      "insipli": 8464,
      "kfr": 8465,
      "iski": 8466,
      "slipt": 8467,
      "nelz": 8468,
      "wilhelms": 8469,
      "nukliaj": 8470,
      "iinstejtid": 8471,
      "kowz": 8472,
      "##wowld": 8473,
      "inwud": 8474,
      "bimz": 8475,
      "ikkn": 8476,
      "pvmpin": 8477,
      "ikskjus": 8478,
      "klis": 8479,
      "mlr": 8480,
      "##asow": 8481,
      "stelt": 8482,
      "ejgr": 8483,
      "ltitudz": 8484,
      "stiki": 8485,
      "owkar": 8486,
      "gathaws": 8487,
      "salvin": 8488,
      "enklowzr": 8489,
      "nigowsiejtin": 8490,
      "akin": 8491,
      "tvl": 8492,
      "ndowz": 8493,
      "spak": 8494,
      "mpjutin": 8495,
      "ivir": 8496,
      "plejboj": 8497,
      "##imr": 8498,
      "invajts": 8499,
      "stejtsm": 8500,
      "kvlvr": 8501,
      "onhowld": 8502,
      "dzinowm": 8503,
      "stingr": 8504,
      "lowsis": 8505,
      "stimd": 8506,
      "hokinz": 8507,
      "halowwej": 8508,
      "kiks": 8509,
      "lal": 8510,
      "poj": 8511,
      "ksaps": 8512,
      "miflin": 8513,
      "katr": 8514,
      "milwol": 8515,
      "inflvks": 8516,
      "awtluk": 8517,
      "fni": 8518,
      "##hawz": 8519,
      "inmejts": 8520,
      "##onts": 8521,
      "sistidi": 8522,
      "vnkejtid": 8523,
      "pidowd": 8524,
      "bvngi": 8525,
      "stefan": 8526,
      "digin": 8527,
      "uem": 8528,
      "##kvvr": 8529,
      "julisiz": 8530,
      "fajst": 8531,
      "ling": 8532,
      "ntempt": 8533,
      "gdp": 8534,
      "iseptr": 8535,
      "uematsu": 8536,
      "##ansow": 8537,
      "klen": 8538,
      "dani": 8539,
      "nfliktin": 8540,
      "ntiak": 8541,
      "##owstown": 8542,
      "towg": 8543,
      "ejdiowhed": 8544,
      "majlstown": 8545,
      "gejor": 8546,
      "miniser": 8547,
      "iisud": 8548,
      "##tow": 8549,
      "huks": 8550,
      "inventr": 8551,
      "awtlo": 8552,
      "kjuzin": 8553,
      "nfjuzin": 8554,
      "ij": 8555,
      "just": 8556,
      "lajzr": 8557,
      "tind": 8558,
      "indow": 8559,
      "vlstr": 8560,
      "jelowstown": 8561,
      "vintidz": 8562,
      "dajt": 8563,
      "wowv": 8564,
      "##kit": 8565,
      "ndli": 8566,
      "dzektr": 8567,
      "ivejld": 8568,
      "natinh": 8569,
      "ejtf": 8570,
      "slown": 8571,
      "howls": 8572,
      "towdz": 8573,
      "densli": 8574,
      "ntisiti": 8575,
      "bowz": 8576,
      "juneskow": 8577,
      "##api": 8578,
      "bvks": 8579,
      "wejlin": 8580,
      "##ejf": 8581,
      "lownd": 8582,
      "endzojz": 8583,
      "twor": 8584,
      "pinow": 8585,
      "panti": 8586,
      "invejdin": 8587,
      "dejmi": 8588,
      "disgajz": 8589,
      "splintr": 8590,
      "badr": 8591,
      "gv": 8592,
      "pjut": 8593,
      "##jub": 8594,
      "##etow": 8595,
      "tajk": 8596,
      "gejtzhed": 8597,
      "##avow": 8598,
      "svtawt": 8599,
      "ofset": 8600,
      "kawts": 8601,
      "##kipin": 8602,
      "ntim": 8603,
      "liejz": 8604,
      "ezn": 8605,
      "igor": 8606,
      "kawntdawn": 8607,
      "kultar": 8608,
      "nansens": 8609,
      "stat": 8610,
      "hajin": 8611,
      "wejks": 8612,
      "amad": 8613,
      "sentor": 8614,
      "tajtli": 8615,
      "lmejs": 8616,
      "divajdin": 8617,
      "tanik": 8618,
      "nzi": 8619,
      "kwel": 8620,
      "bilvvd": 8621,
      "mind": 8622,
      "wilt": 8623,
      "dzistiks": 8624,
      "##izbr": 8625,
      "luzr": 8626,
      "mendi": 8627,
      "sipbildin": 8628,
      "jelowis": 8629,
      "bvlb": 8630,
      "nspajr": 8631,
      "gajn": 8632,
      "kawt": 8633,
      "soj": 8634,
      "eji": 8635,
      "amn": 8636,
      "nizin": 8637,
      "fink": 8638,
      "##kwajr": 8639,
      "butl": 8640,
      "tvmb": 8641,
      "uw": 8642,
      "wadi": 8643,
      "owvi": 8644,
      "tsaw": 8645,
      "enimor": 8646,
      "ming": 8647,
      "mendz": 8648,
      "kaljr": 8649,
      "owmar": 8650,
      "dh": 8651,
      "ispekts": 8652,
      "snawt": 8653,
      "lidow": 8654,
      "mowzli": 8655,
      "fokl": 8656,
      "nsor": 8657,
      "dup": 8658,
      "kowsow": 8659,
      "hedl": 8660,
      "laf": 8661,
      "owmeg": 8662,
      "ejkvp": 8663,
      "##agutsi": 8664,
      "tsesnvt": 8665,
      "eptajlz": 8666,
      "ivn": 8667,
      "##ajb": 8668,
      "ndu": 8669,
      "ejvd": 8670,
      "entitiz": 8671,
      "##lajts": 8672,
      "gawn": 8673,
      "##dzd": 8674,
      "istwud": 8675,
      "owlf": 8676,
      "londr": 8677,
      "kawbojz": 8678,
      "nton": 8679,
      "ntows": 8680,
      "nkm": 8681,
      "kejatik": 8682,
      "nastr": 8683,
      "bowlz": 8684,
      "wisin": 8685,
      "vptin": 8686,
      "lvi": 8687,
      "dzajlz": 8688,
      "felowz": 8689,
      "##smit": 8690,
      "destind": 8691,
      "mudi": 8692,
      "vivi": 8693,
      "hidr": 8694,
      "ntiks": 8695,
      "blejz": 8696,
      "nkvs": 8697,
      "gnastik": 8698,
      "heltker": 8699,
      "gubr": 8700,
      "pdejts": 8701,
      "tedi": 8702,
      "ipitin": 8703,
      "kindr": 8704,
      "powdi": 8705,
      "awnis": 8706,
      "sintisajzd": 8707,
      "npawr": 8708,
      "ldr": 8709,
      "nsil": 8710,
      "##ivu": 8711,
      "ektiv": 8712,
      "lizb": 8713,
      "kostin": 8714,
      "sdz": 8715,
      "ikawntid": 8716,
      "vizejs": 8717,
      "mjusik": 8718,
      "bestsel": 8719,
      "wajtis": 8720,
      "nvk": 8721,
      "folts": 8722,
      "entst": 8723,
      "tilt": 8724,
      "flaks": 8725,
      "tizr": 8726,
      "##gnr": 8727,
      "blivi": 8728,
      "igis": 8729,
      "owviz": 8730,
      "sises": 8731,
      "efjudzi": 8732,
      "kmr": 8733,
      "spajnz": 8734,
      "flowd": 8735,
      "wendi": 8736,
      "difolt": 8737,
      "londz": 8738,
      "inkamp": 8739,
      "##epi": 8740,
      "sajklanik": 8741,
      "goj": 8742,
      "##lajk": 8743,
      "##pul": 8744,
      "juan": 8745,
      "##vsts": 8746,
      "awns": 8747,
      "habz": 8748,
      "zibr": 8749,
      "bdvkt": 8750,
      "mlz": 8751,
      "tejtiv": 8752,
      "kowinsajd": 8753,
      "##ejli": 8754,
      "tsv": 8755,
      "ajown": 8756,
      "elidz": 8757,
      "##nim": 8758,
      "ipi": 8759,
      "vptiv": 8760,
      "insik": 8761,
      "owdajn": 8762,
      "entsm": 8763,
      "tunin": 8764,
      "tselow": 8765,
      "antwan": 8766,
      "vnkanst": 8767,
      "pvnist": 8768,
      "nowmur": 8769,
      "wiginz": 8770,
      "atsi": 8771,
      "ndheld": 8772,
      "niel": 8773,
      "sug": 8774,
      "evid": 8775,
      "kantests": 8776,
      "afik": 8777,
      "asi": 8778,
      "ond": 8779,
      "##uni": 8780,
      "danil": 8781,
      "kastel": 8782,
      "kml": 8783,
      "login": 8784,
      "lakhid": 8785,
      "nakawt": 8786,
      "ekwi": 8787,
      "bwa": 8788,
      "pelv": 8789,
      "##tejs": 8790,
      "vnajdent": 8791,
      "kats": 8792,
      "svtr": 8793,
      "anstejdz": 8794,
      "pows": 8795,
      "##ztawn": 8796,
      "lag": 8797,
      "dzunow": 8798,
      "twik": 8799,
      "owbats": 8800,
      "hejwr": 8801,
      "##hajmr": 8802,
      "##ilowdi": 8803,
      "skinz": 8804,
      "tuz": 8805,
      "ntsez": 8806,
      "sledz": 8807,
      "selm": 8808,
      "midwest": 8809,
      "nikilowdi": 8810,
      "nsmitr": 8811,
      "kfor": 8812,
      "tili": 8813,
      "ktm": 8814,
      "himz": 8815,
      "gwajr": 8816,
      "msajr": 8817,
      "liejzan": 8818,
      "sipl": 8819,
      "disentr": 8820,
      "idli": 8821,
      "owspejs": 8822,
      "idiskvvr": 8823,
      "pf": 8824,
      "sbor": 8825,
      "uvi": 8826,
      "difajnz": 8827,
      "egej": 8828,
      "kukt": 8829,
      "entuzi": 8830,
      "kitin": 8831,
      "wajndin": 8832,
      "dzaki": 8833,
      "skits": 8834,
      "isejs": 8835,
      "ksents": 8836,
      "suez": 8837,
      "dini": 8838,
      "ask": 8839,
      "adni": 8840,
      "tolr": 8841,
      "nasr": 8842,
      "##owti": 8843,
      "nubor": 8844,
      "kowkow": 8845,
      "ojs": 8846,
      "tejkof": 8847,
      "lsbr": 8848,
      "awtlet": 8849,
      "zus": 8850,
      "olik": 8851,
      "##zint": 8852,
      "ispandz": 8853,
      "snik": 8854,
      "awtsajdr": 8855,
      "dzenow": 8856,
      "sigizm": 8857,
      "kwowtejs": 8858,
      "fowldin": 8859,
      "dislajk": 8860,
      "hedlajnin": 8861,
      "ajuol": 8862,
      "##ejin": 8863,
      "##ensr": 8864,
      "swipin": 8865,
      "fizial": 8866,
      "tuniz": 8867,
      "kawboj": 8868,
      "gejz": 8869,
      "intejk": 8870,
      "kanik": 8871,
      "istof": 8872,
      "##adid": 8873,
      "ejld": 8874,
      "ibz": 8875,
      "folawt": 8876,
      "testid": 8877,
      "tsifli": 8878,
      "festejs": 8879,
      "beki": 8880,
      "zimr": 8881,
      "skwid": 8882,
      "nstin": 8883,
      "ejkawt": 8884,
      "hamasaki": 8885,
      "zul": 8886,
      "ikin": 8887,
      "skiz": 8888,
      "kwoj": 8889,
      "hedm": 8890,
      "mbust": 8891,
      "getizbr": 8892,
      "powlk": 8893,
      "nakin": 8894,
      "ganzal": 8895,
      "biks": 8896,
      "dsr": 8897,
      "gik": 8898,
      "##idejt": 8899,
      "old": 8900,
      "powstwor": 8901,
      "kimbr": 8902,
      "tvb": 8903,
      "flak": 8904,
      "simown": 8905,
      "najsin": 8906,
      "##adzikli": 8907,
      "bejdows": 8908,
      "jem": 8909,
      "inbr": 8910,
      "inti": 8911,
      "lups": 8912,
      "vnj": 8913,
      "nialitik": 8914,
      "inflejt": 8915,
      "matsu": 8916,
      "tsuts": 8917,
      "wuli": 8918,
      "negl": 8919,
      "uzd": 8920,
      "mejdz": 8921,
      "##eswejdr": 8922,
      "##owlin": 8923,
      "dinajin": 8924,
      "indvldz": 8925,
      "alinz": 8926,
      "stakt": 8927,
      "skvlz": 8928,
      "dowmejnz": 8929,
      "gejmspi": 8930,
      "lejni": 8931,
      "majm": 8932,
      "stvmp": 8933,
      "espi": 8934,
      "skit": 8935,
      "dejni": 8936,
      "itsar": 8937,
      "owlaf": 8938,
      "sejg": 8939,
      "njuzd": 8940,
      "gvnd": 8941,
      "slvm": 8942,
      "kejik": 8943,
      "lejsi": 8944,
      "bolr": 8945,
      "selfis": 8946,
      "kenzint": 8947,
      "badid": 8948,
      "astens": 8949,
      "ndlor": 8950,
      "skali": 8951,
      "speld": 8952,
      "nukl": 8953,
      "##owlini": 8954,
      "istim": 8955,
      "manm": 8956,
      "kowsowvow": 8957,
      "zfild": 8958,
      "plaw": 8959,
      "swinin": 8960,
      "glustr": 8961,
      "dju": 8962,
      "kojl": 8963,
      "##uki": 8964,
      "stajm": 8965,
      "ankor": 8966,
      "kowb": 8967,
      "ipswits": 8968,
      "fks": 8969,
      "##pts": 8970,
      "pag": 8971,
      "dzentr": 8972,
      "izentm": 8973,
      "lajklihud": 8974,
      "skowps": 8975,
      "lpez": 8976,
      "ahim": 8977,
      "ejaj": 8978,
      "klaws": 8979,
      "fjut": 8980,
      "gowldbr": 8981,
      "ihaws": 8982,
      "plejtin": 8983,
      "dejvi": 8984,
      "papi": 8985,
      "impar": 8986,
      "akwel": 8987,
      "kofm": 8988,
      "dzajz": 8989,
      "intaks": 8990,
      "glim": 8991,
      "splend": 8992,
      "hojst": 8993,
      "ajsi": 8994,
      "skl": 8995,
      "spa": 8996,
      "spig": 8997,
      "bitiz": 8998,
      "owmow": 8999,
      "owkli": 9000,
      "dzuvent": 9001,
      "jas": 9002,
      "pvmps": 9003,
      "klaz": 9004,
      "kowbejn": 9005,
      "ajbir": 9006,
      "dowmz": 9007,
      "tajtejni": 9008,
      "livinstown": 9009,
      "tsips": 9010,
      "owvak": 9011,
      "flemis": 9012,
      "sambr": 9013,
      "bosiz": 9014,
      "mul": 9015,
      "njr": 9016,
      "vejnz": 9017,
      "##hejl": 9018,
      "##gejm": 9019,
      "blizr": 9020,
      "buklit": 9021,
      "dmitin": 9022,
      "gejvar": 9023,
      "koni": 9024,
      "dzvk": 9025,
      "skip": 9026,
      "ilent": 9027,
      "ilejn": 9028,
      "ktawn": 9029,
      "huvr": 9030,
      "fips": 9031,
      "owsmit": 9032,
      "ntibi": 9033,
      "##igni": 9034,
      "nhr": 9035,
      "labid": 9036,
      "dzk": 9037,
      "##ksi": 9038,
      "vmin": 9039,
      "majli": 9040,
      "hav": 9041,
      "iplen": 9042,
      "klajv": 9043,
      "disil": 9044,
      "owsm": 9045,
      "medowz": 9046,
      "bdvks": 9047,
      "invvl": 9048,
      "skulin": 9049,
      "ajnow": 9050,
      "implajin": 9051,
      "diklajnz": 9052,
      "enzow": 9053,
      "klowi": 9054,
      "jestr": 9055,
      "pts": 9056,
      "##blow": 9057,
      "owats": 9058,
      "vntr": 9059,
      "swap": 9060,
      "dzulz": 9061,
      "blesin": 9062,
      "howbar": 9063,
      "ikspowz": 9064,
      "dezm": 9065,
      "indajtm": 9066,
      "hvvr": 9067,
      "ejdow": 9068,
      "dubi": 9069,
      "istgaw": 9070,
      "kowr": 9071,
      "dzitr": 9072,
      "indvks": 9073,
      "teknow": 9074,
      "##kwud": 9075,
      "kuld": 9076,
      "pjul": 9077,
      "eksplojts": 9078,
      "nikowlaj": 9079,
      "iuzd": 9080,
      "elbow": 9081,
      "mikal": 9082,
      "liviejt": 9083,
      "hvmbr": 9084,
      "##aniks": 9085,
      "sints": 9086,
      "intest": 9087,
      "tang": 9088,
      "tson": 9089,
      "skir": 9090,
      "idzwej": 9091,
      "nifr": 9092,
      "ipli": 9093,
      "penis": 9094,
      "ajnfor": 9095,
      "zesin": 9096,
      "enkawntr": 9097,
      "##vor": 9098,
      "insident": 9099,
      "wikendz": 9100,
      "kib": 9101,
      "silr": 9102,
      "gvns": 9103,
      "aniklr": 9104,
      "desp": 9105,
      "pamp": 9106,
      "klejn": 9107,
      "ipejtr": 9108,
      "invejsiv": 9109,
      "##ifikejs": 9110,
      "iptik": 9111,
      "powniz": 9112,
      "##flawr": 9113,
      "##ekn": 9114,
      "flut": 9115,
      "dvdz": 9116,
      "##tinow": 9117,
      "ektor": 9118,
      "bihej": 9119,
      "nvejd": 9120,
      "ntiker": 9121,
      "bejbiz": 9122,
      "jon": 9123,
      "ntsu": 9124,
      "witl": 9125,
      "bvgz": 9126,
      "hjumid": 9127,
      "nklejtsr": 9128,
      "hipn": 9129,
      "lol": 9130,
      "zejt": 9131,
      "##antr": 9132,
      "##amowtow": 9133,
      "kwar": 9134,
      "kwents": 9135,
      "elik": 9136,
      "howk": 9137,
      "amr": 9138,
      "pints": 9139,
      "iitr": 9140,
      "##osk": 9141,
      "vojv": 9142,
      "kfk": 9143,
      "dklif": 9144,
      "afi": 9145,
      "sas": 9146,
      "ndst": 9147,
      "aji": 9148,
      "isd": 9149,
      "ntsin": 9150,
      "##imow": 9151,
      "nejms": 9152,
      "impowzin": 9153,
      "smolvil": 9154,
      "fejr": 9155,
      "sutawt": 9156,
      "fidr": 9157,
      "pektr": 9158,
      "mjuzin": 9159,
      "sikn": 9160,
      "ikspowzin": 9161,
      "kvmpnim": 9162,
      "koldwel": 9163,
      "svnr": 9164,
      "plajst": 9165,
      "enkts": 9166,
      "utinli": 9167,
      "##ignj": 9168,
      "lvl": 9169,
      "sant": 9170,
      "mij": 9171,
      "lontsr": 9172,
      "fing": 9173,
      "tabr": 9174,
      "nawnsiz": 9175,
      "bg": 9176,
      "dab": 9177,
      "dih": 9178,
      "sepin": 9179,
      "sowbr": 9180,
      "##owlow": 9181,
      "awtd": 9182,
      "endawm": 9183,
      "nfowld": 9184,
      "tendiz": 9185,
      "uni": 9186,
      "vedr": 9187,
      "##kowt": 9188,
      "siwr": 9189,
      "skajz": 9190,
      "tutsi": 9191,
      "elb": 9192,
      "find": 9193,
      "udalf": 9194,
      "wulfg": 9195,
      "kowkejn": 9196,
      "andivu": 9197,
      "disiluz": 9198,
      "gof": 9199,
      "tejmi": 9200,
      "##ajfr": 9201,
      "spun": 9202,
      "sunr": 9203,
      "skwol": 9204,
      "piknik": 9205,
      "kup": 9206,
      "sepinwol": 9207,
      "iakj": 9208,
      "pini": 9209,
      "midiowkr": 9210,
      "##abr": 9211,
      "##ajv": 9212,
      "ndotr": 9213,
      "izal": 9214,
      "lutin": 9215,
      "vptsr": 9216,
      "oswits": 9217,
      "najk": 9218,
      "wajldk": 9219,
      "stepin": 9220,
      "inlet": 9221,
      "pudz": 9222,
      "##gni": 9223,
      "vvn": 9224,
      "tikr": 9225,
      "ikspvls": 9226,
      "sval": 9227,
      "kjulin": 9228,
      "dmi": 9229,
      "tejr": 9230,
      "nfjus": 9231,
      "ajdentitiz": 9232,
      "##kweh": 9233,
      "mininf": 9234,
      "suskweh": 9235,
      "disembar": 9236,
      "hektr": 9237,
      "lulu": 9238,
      "sten": 9239,
      "ojtr": 9240,
      "templr": 9241,
      "dajak": 9242,
      "tets": 9243,
      "tibi": 9244,
      "mowts": 9245,
      "jusl": 9246,
      "devi": 9247,
      "mplejnin": 9248,
      "dvlthud": 9249,
      "snowfol": 9250,
      "zowi": 9251,
      "tsenaj": 9252,
      "dwind": 9253,
      "etin": 9254,
      "fuk": 9255,
      "gadr": 9256,
      "idzr": 9257,
      "##owtid": 9258,
      "plejf": 9259,
      "dvajz": 9260,
      "luzan": 9261,
      "smitsowni": 9262,
      "sgt": 9263,
      "had": 9264,
      "##fk": 9265,
      "lunz": 9266,
      "##owsin": 9267,
      "edivel": 9268,
      "distingwisin": 9269,
      "iet": 9270,
      "##kil": 9271,
      "##ejtor": 9272,
      "nowdz": 9273,
      "##pleks": 9274,
      "dzuelr": 9275,
      "swal": 9276,
      "onwr": 9277,
      "owmi": 9278,
      "inkans": 9279,
      "wowk": 9280,
      "sinf": 9281,
      "awtspowk": 9282,
      "hejdr": 9283,
      "wejnr": 9284,
      "eliz": 9285,
      "jejvow": 9286,
      "nep": 9287,
      "vkl": 9288,
      "nset": 9289,
      "olin": 9290,
      "seti": 9291,
      "dejnd": 9292,
      "idzektin": 9293,
      "milfr": 9294,
      "powstp": 9295,
      "vnimpr": 9296,
      "skunr": 9297,
      "wejm": 9298,
      "##owter": 9299,
      "kakt": 9300,
      "nand": 9301,
      "bowfr": 9302,
      "eskjuz": 9303,
      "etski": 9304,
      "sibu": 9305,
      "dilejin": 9306,
      "kownz": 9307,
      "##pat": 9308,
      "dzb": 9309,
      "kwil": 9310,
      "suv": 9311,
      "ajtli": 9312,
      "lkvt": 9313,
      "zilmur": 9314,
      "mvdi": 9315,
      "blesid": 9316,
      "##hilz": 9317,
      "##ajsin": 9318,
      "divi": 9319,
      "hawswaj": 9320,
      "tejpt": 9321,
      "losuts": 9322,
      "tfild": 9323,
      "##mis": 9324,
      "lot": 9325,
      "hjuit": 9326,
      "##bold": 9327,
      "dwejn": 9328,
      "evi": 9329,
      "odz": 9330,
      "pn": 9331,
      "vaz": 9332,
      "##isiv": 9333,
      "svmz": 9334,
      "dowbi": 9335,
      "owman": 9336,
      "fvkin": 9337,
      "mesr": 9338,
      "mitsu": 9339,
      "tfowli": 9340,
      "tsetnik": 9341,
      "inb": 9342,
      "intendz": 9343,
      "helsin": 9344,
      "##ifowli": 9345,
      "ntibadi": 9346,
      "spandz": 9347,
      "mpjut": 9348,
      "ivajt": 9349,
      "ejnb": 9350,
      "bagd": 9351,
      "tvnst": 9352,
      "skvlptid": 9353,
      "iowlz": 9354,
      "filmfer": 9355,
      "fib": 9356,
      "utsi": 9357,
      "sakin": 9358,
      "pusan": 9359,
      "jaw": 9360,
      "pvlt": 9361,
      "##fiks": 9362,
      "dunz": 9363,
      "lowh": 9364,
      "mejnlajn": 9365,
      "satgvn": 9366,
      "dzowdi": 9367,
      "kling": 9368,
      "kiti": 9369,
      "teg": 9370,
      "##ls": 9371,
      "sowkejst": 9372,
      "wilks": 9373,
      "wejtr": 9374,
      "sles": 9375,
      "festow": 9376,
      "vawd": 9377,
      "hatspr": 9378,
      "dzezuit": 9379,
      "pandz": 9380,
      "ihens": 9381,
      "kidzd": 9382,
      "indzvnks": 9383,
      "feminiz": 9384,
      "bistowd": 9385,
      "nfesiz": 9386,
      "wn": 9387,
      "zk": 9388,
      "imk": 9389,
      "vpbit": 9390,
      "##owsint": 9391,
      "fiti": 9392,
      "limf": 9393,
      "##abej": 9394,
      "dakt": 9395,
      "indzekt": 9396,
      "bwv": 9397,
      "nslejtr": 9398,
      "ndslajd": 9399,
      "##mk": 9400,
      "stvmb": 9401,
      "juin": 9402,
      "mejli": 9403,
      "endid": 9404,
      "sajkik": 9405,
      "makin": 9406,
      "lhun": 9407,
      "bap": 9408,
      "##akl": 9409,
      "##usi": 9410,
      "##isl": 9411,
      "mowham": 9412,
      "vnem": 9413,
      "divaz": 9414,
      "smajd": 9415,
      "sudow": 9416,
      "bowv": 9417,
      "kstown": 9418,
      "neb": 9419,
      "ntejdz": 9420,
      "wudstak": 9421,
      "minim": 9422,
      "ngowl": 9423,
      "inkejp": 9424,
      "pinfol": 9425,
      "kowltr": 9426,
      "ajkanz": 9427,
      "wiski": 9428,
      "##apsi": 9429,
      "tsetniks": 9430,
      "nejmsejk": 9431,
      "mand": 9432,
      "duz": 9433,
      "blvf": 9434,
      "psajzd": 9435,
      "nisan": 9436,
      "sisfajr": 9437,
      "spatlajt": 9438,
      "idizajn": 9439,
      "ias": 9440,
      "tgr": 9441,
      "dzejm": 9442,
      "fajnajt": 9443,
      "umor": 9444,
      "kugr": 9445,
      "hokr": 9446,
      "mots": 9447,
      "gowni": 9448,
      "hond": 9449,
      "vlr": 9450,
      "owlag": 9451,
      "ipil": 9452,
      "ditektivz": 9453,
      "##efski": 9454,
      "nilj": 9455,
      "vfk": 9456,
      "ejpeks": 9457,
      "vnfejvr": 9458,
      "mojn": 9459,
      "##wz": 9460,
      "awtk": 9461,
      "eksts": 9462,
      "leksis": 9463,
      "mvstejn": 9464,
      "##owmow": 9465,
      "bawns": 9466,
      "ekstsekr": 9467,
      "ntwr": 9468,
      "##alj": 9469,
      "klownz": 9470,
      "##imowtow": 9471,
      "endinz": 9472,
      "difvnkt": 9473,
      "balis": 9474,
      "tejtow": 9475,
      "mowzar": 9476,
      "nagasaki": 9477,
      "kafk": 9478,
      "ndiz": 9479,
      "klowziz": 9480,
      "hedzhag": 9481,
      "##pip": 9482,
      "ndant": 9483,
      "lajp": 9484,
      "blowz": 9485,
      "wini": 9486,
      "owtis": 9487,
      "iplajz": 9488,
      "stemd": 9489,
      "spajks": 9490,
      "dzimnejzi": 9491,
      "dzvkst": 9492,
      "kvd": 9493,
      "##osts": 9494,
      "owa": 9495,
      "sibor": 9496,
      "##aldow": 9497,
      "lowkwi": 9498,
      "dzvstini": 9499,
      "mjutin": 9500,
      "maha": 9501,
      "kulidz": 9502,
      "wajnr": 9503,
      "fowlidz": 9504,
      "wivin": 9505,
      "##aji": 9506,
      "iftin": 9507,
      "ndzow": 9508,
      "insigni": 9509,
      "sutik": 9510,
      "poni": 9511,
      "luminasiti": 9512,
      "font": 9513,
      "##uf": 9514,
      "##eji": 9515,
      "skejld": 9516,
      "ivow": 9517,
      "luidzi": 9518,
      "svbg": 9519,
      "lajsd": 9520,
      "vnemplojd": 9521,
      "##ji": 9522,
      "bajowd": 9523,
      "idzhed": 9524,
      "fliks": 9525,
      "svmer": 9526,
      "sikor": 9527,
      "lvstr": 9528,
      "dawni": 9529,
      "bowg": 9530,
      "sownj": 9531,
      "sembliz": 9532,
      "gejns": 9533,
      "knalidzin": 9534,
      "dajaklis": 9535,
      "hown": 9536,
      "ianow": 9537,
      "jud": 9538,
      "lad": 9539,
      "finr": 9540,
      "fints": 9541,
      "sondr": 9542,
      "vntm": 9543,
      "implaj": 9544,
      "gvs": 9545,
      "ldzi": 9546,
      "tep": 9547,
      "zejv": 9548,
      "nspl": 9549,
      "dui": 9550,
      "mowg": 9551,
      "stejtwajd": 9552,
      "snts": 9553,
      "kowldr": 9554,
      "dvltr": 9555,
      "kvtsnz": 9556,
      "vowlk": 9557,
      "mowhamed": 9558,
      "dimr": 9559,
      "anti": 9560,
[...]
