{
  "version": "1.0",
  "truncation": null,
  "padding": null,
  "added_tokens": [
    {
      "id": 0,
      "content": "[UNK]",
      "single_word": false,
      "lstrip": false,
      "rstrip": false,
      "normalized": false,
      "special": true
    },
    {
      "id": 1,
      "content": "[CLS]",
      "single_word": false,
      "lstrip": false,
      "rstrip": false,
      "normalized": false,
      "special": true
    },
    {
      "id": 2,
      "content": "[SEP]",
      "single_word": false,
      "lstrip": false,
      "rstrip": false,
      "normalized": false,
      "special": true
    },
    {
      "id": 3,
      "content": "[PAD]",
      "single_word": false,
      "lstrip": false,
      "rstrip": false,
      "normalized": false,
      "special": true
    },
    {
      "id": 4,
      "content": "[MASK]",
      "single_word": false,
      "lstrip": false,
      "rstrip": false,
      "normalized": false,
      "special": true
    }
  ],
  "normalizer": {
    "type": "Sequence",
    "normalizers": [
      {
        "type": "NFD"
      },
      {
        "type": "Lowercase"
      },
      {
        "type": "StripAccents"
      }
    ]
  },
  "pre_tokenizer": {
    "type": "Whitespace"
  },
  "post_processor": {
    "type": "TemplateProcessing",
    "single": [
      {
        "SpecialToken": {
          "id": "[CLS]",
          "type_id": 0
        }
      },
      {
        "Sequence": {
          "id": "A",
          "type_id": 0
        }
      },
      {
        "SpecialToken": {
          "id": "[SEP]",
          "type_id": 0
        }
      }
    ],
    "pair": [
      {
        "SpecialToken": {
          "id": "[CLS]",
          "type_id": 0
        }
      },
      {
        "Sequence": {
          "id": "A",
          "type_id": 0
        }
      },
      {
        "SpecialToken": {
          "id": "[SEP]",
          "type_id": 0
        }
      },
      {
        "Sequence": {
          "id": "B",
          "type_id": 1
        }
      },
      {
        "SpecialToken": {
          "id": "[SEP]",
          "type_id": 1
        }
      }
    ],
    "special_tokens": {
      "[CLS]": {
        "id": "[CLS]",
        "ids": [
          1
        ],
        "tokens": [
          "[CLS]"
        ]
      },
      "[SEP]": {
        "id": "[SEP]",
        "ids": [
          2
        ],
        "tokens": [
          "[SEP]"
        ]
      }
    }
  },
  "decoder": null,
  "model": {
    "type": "BPE",
    "dropout": null,
    "unk_token": "[UNK]",
    "continuing_subword_prefix": null,
    "end_of_word_suffix": null,
    "fuse_unk": false,
    "byte_fallback": false,
    "ignore_merges": false,
    "vocab": {
      "[UNK]": 0,
      "[CLS]": 1,
      "[SEP]": 2,
      "[PAD]": 3,
      "[MASK]": 4,
      "!": 5,
      "\"": 6,
      ",": 7,
      ".": 8,
      "0": 9,
      "1": 10,
      "2": 11,
      "3": 12,
      "4": 13,
      "5": 14,
      "6": 15,
      "7": 16,
      "8": 17,
      "9": 18,
      ":": 19,
      ";": 20,
      "?": 21,
      "a": 22,
      "b": 23,
      "d": 24,
      "e": 25,
      "f": 26,
      "h": 27,
      "i": 28,
      "j": 29,
      "k": 30,
      "l": 31,
      "m": 32,
      "n": 33,
      "o": 34,
      "p": 35,
      "s": 36,
      "t": 37,
      "u": 38,
      "v": 39,
      "w": 40,
      "z": 41,
      "æ": 42,
      "ð": 43,
      "ŋ": 44,
      "ɑ": 45,
      "ɔ": 46,
      "ə": 47,
      "ɛ": 48,
      "ɡ": 49,
      "ɪ": 50,
      "ɹ": 51,
      "ʃ": 52,
      "ʊ": 53,
      "ʌ": 54,
      "ʒ": 55,
      "θ": 56,
      "ən": 57,
      "ðə": 58,
      "ej": 59,
      "aj": 60,
      "ow": 61,
      "nd": 62,
      "st": 63,
      "ɪn": 64,
      "əl": 65,
      "ɔɹ": 66,
      "tə": 67,
      "ænd": 68,
      "ʌv": 69,
      "ɪŋ": 70,
      "ɹi": 71,
      "tɹ": 72,
      "dʒ": 73,
      "tʃ": 74,
      "ɪk": 75,
      "ɛn": 76,
      "ɑɹ": 77,
      "pɹ": 78,
      "ʃən": 79,
      "æn": 80,
      "ɪz": 81,
      "ɑn": 82,
      "li": 83,
      "aw": 84,
      "æt": 85,
      "ɪt": 86,
      "əm": 87,
      "fɔɹ": 88,
      "ət": 89,
      "wɪ": 90,
      "fɹ": 91,
      "wɑ": 92,
      "ɛs": 93,
      "ɛɹ": 94,
      "əs": 95,
      "ju": 96,
      "wɑz": 97,
      "ənt": 98,
      "dɪ": 99,
      "bɹ": 100,
      "ɛk": 101,
      "ɪl": 102,
      "æz": 103,
      "ʌm": 104,
      "əd": 105,
      "ɔl": 106,
      "ək": 107,
      "ɛl": 108,
      "æk": 109,
      "təd": 110,
      "vɹ": 111,
      "baj": 112,
      "ðæt": 113,
      "wɪð": 114,
      "ɹɪ": 115,
      "wɹ": 116,
      "ejt": 117,
      "ʌn": 118,
      "ɛm": 119,
      "sp": 120,
      "ejʃən": 121,
      "hæ": 122,
      "ɹz": 123,
      "sk": 124,
      "lej": 125,
      "ɡɹ": 126,
      "stɹ": 127,
      "dɹ": 128,
      "19": 129,
      "si": 130,
      "əp": 131,
      "əz": 132,
      "laj": 133,
      "ti": 134,
      "di": 135,
      "sɪ": 136,
      "00": 137,
      "bi": 138,
      "hi": 139,
      "ts": 140,
      "mej": 141,
      "hɪz": 142,
      "ɛɹi": 143,
      "kɹ": 144,
      "ejm": 145,
      "əb": 146,
      "owl": 147,
      "ɪs": 148,
      "kən": 149,
      "fɹʌm": 150,
      "own": 151,
      "ɪɹ": 152,
      "kl": 153,
      "æl": 154,
      "ɪv": 155,
      "sɛ": 156,
      "ɪm": 157,
      "ɑl": 158,
      "ðɹ": 159,
      "mən": 160,
      "ɪʃ": 161,
      "tu": 162,
      "æm": 163,
      "oj": 164,
      "ɛst": 165,
      "ɪd": 166,
      "sɹ": 167,
      "ɑt": 168,
      "ɛd": 169,
      "ajd": 170,
      "iz": 171,
      "ɛnd": 172,
      "kəm": 173,
      "æf": 174,
      "taj": 175,
      "ɑk": 176,
      "ɑm": 177,
      "əli": 178,
      "ɹd": 179,
      "ənd": 180,
      "əɡ": 181,
      "ejn": 182,
      "əns": 183,
      "ʊɹ": 184,
      "awn": 185,
      "ʌt": 186,
      "sow": 187,
      "ajl": 188,
      "ðɛɹ": 189,
      "awt": 190,
      "mənt": 191,
      "hæd": 192,
      "əst": 193,
      "wɪtʃ": 194,
      "ʊd": 195,
      "bɪ": 196,
      "ɔɹd": 197,
      "ɪst": 198,
      "ajn": 199,
      "plej": 200,
      "zd": 201,
      "ɔŋ": 202,
      "in": 203,
      "ɑp": 204,
      "bl": 205,
      "ajt": 206,
      "ɛnt": 207,
      "ɑɹt": 208,
      "wʌn": 209,
      "kæ": 210,
      "awnd": 211,
      "pi": 212,
      "hɹ": 213,
      "ejl": 214,
      "ədʒ": 215,
      "ɪp": 216,
      "nu": 217,
      "fi": 218,
      "ɹu": 219,
      "ɪts": 220,
      "now": 221,
      "əti": 222,
      "əlz": 223,
      "ʌðɹ": 224,
      "əw": 225,
      "low": 226,
      "ud": 227,
      "20": 228,
      "əf": 229,
      "pl": 230,
      "ðɪs": 231,
      "bʌt": 232,
      "vd": 233,
      "200": 234,
      "ɔɹt": 235,
      "æftɹ": 236,
      "tʃɹ": 237,
      "ənz": 238,
      "jun": 239,
      "owz": 240,
      "nɑt": 241,
      "fɹst": 242,
      "ejtəd": 243,
      "pt": 244,
      "ɹɛ": 245,
      "kɑn": 246,
      "owst": 247,
      "vi": 248,
      "ʌl": 249,
      "owd": 250,
      "əv": 251,
      "hæv": 252,
      "ʃi": 253,
      "tajm": 254,
      "ɪks": 255,
      "hu": 256,
      "ʌnd": 257,
      "ɹej": 258,
      "sən": 259,
      "ɪf": 260,
      "haj": 261,
      "ɔlsow": 262,
      "kw": 263,
      "æd": 264,
      "fɔɹm": 265,
      "ɛmbɹ": 266,
      "ks": 267,
      "ɪnd": 268,
      "ɛt": 269,
      "kɪŋ": 270,
      "æŋ": 271,
      "ðej": 272,
      "ɹaj": 273,
      "ɪntɹ": 274,
      "haw": 275,
      "kəl": 276,
      "mɔɹ": 277,
      "tɹz": 278,
      "sʌ": 279,
      "ɛkt": 280,
      "ld": 281,
      "juz": 282,
      "ʒən": 283,
      "dej": 284,
      "18": 285,
      "ɪdʒ": 286,
      "bəl": 287,
      "mæ": 288,
      "ʌk": 289,
      "owvɹ": 290,
      "mi": 291,
      "ɪʃən": 292,
      "bɪk": 293,
      "sɪŋ": 294,
      "wʊd": 295,
      "wej": 296,
      "sɛk": 297,
      "bɪn": 298,
      "ɹiz": 299,
      "fl": 300,
      "jəl": 301,
      "ɑɹk": 302,
      "sɛn": 303,
      "pəl": 304,
      "ækt": 305,
      "hæz": 306,
      "kɑ": 307,
      "fɪl": 308,
      "wɛn": 309,
      "vəl": 310,
      "ajɹ": 311,
      "nɔɹ": 312,
      "ɔf": 313,
      "ʃɪp": 314,
      "lɛ": 315,
      "201": 316,
      "owld": 317,
      "ɔɹi": 318,
      "ɪkəl": 319,
      "jən": 320,
      "ɡejm": 321,
      "owt": 322,
      "ʌp": 323,
      "ɪɡ": 324,
      "klud": 325,
      "sʌm": 326,
      "pɹɑ": 327,
      "wi": 328,
      "stejt": 329,
      "ejtʃ": 330,
      "ʊɹɪŋ": 331,
      "saj": 332,
      "dʒɹ": 333,
      "səl": 334,
      "bɪl": 335,
      "ʃənəl": 336,
      "æs": 337,
      "ɛni": 338,
      "dʒu": 339,
      "dʊɹɪŋ": 340,
      "ɛvɹ": 341,
      "ɪnklud": 342,
      "wɔɹ": 343,
      "mæn": 344,
      "kɑm": 345,
      "dɪv": 346,
      "mz": 347,
      "ni": 348,
      "kæn": 349,
      "tən": 350,
      "wajl": 351,
      "ejʃənz": 352,
      "hɪm": 353,
      "mowst": 354,
      "pən": 355,
      "ɪntu": 356,
      "bej": 357,
      "ɪti": 358,
      "ʌŋ": 359,
      "pɑɹt": 360,
      "wɛɹ": 361,
      "du": 362,
      "səz": 363,
      "ɑɹd": 364,
      "ʌndɹ": 365,
      "əbəl": 366,
      "dʒən": 367,
      "mu": 368,
      "næ": 369,
      "kɹi": 370,
      "ejd": 371,
      "ndʒ": 372,
      "ɛp": 373,
      "vən": 374,
      "ɹli": 375,
      "ʃənz": 376,
      "ɪɹi": 377,
      "sək": 378,
      "æst": 379,
      "pɹɛ": 380,
      "nz": 381,
      "ʌst": 382,
      "faj": 383,
      "wɛl": 384,
      "kəmp": 385,
      "ɪns": 386,
      "ənts": 387,
      "ʊk": 388,
      "siz": 389,
      "tɪŋ": 390,
      "tej": 391,
      "mɪl": 392,
      "bɪɡ": 393,
      "ɪksp": 394,
      "kɹɪ": 395,
      "ɪɹz": 396,
      "mɹ": 397,
      "ajz": 398,
      "dɪsk": 399,
      "bow": 400,
      "bɪt": 401,
      "kənt": 402,
      "dɪs": 403,
      "kow": 404,
      "lɔ": 405,
      "mɑɹ": 406,
      "su": 407,
      "dɪd": 408,
      "ownli": 409,
      "sɔŋ": 410,
      "lejtɹ": 411,
      "əɡɛn": 412,
      "wɹk": 413,
      "fɪlm": 414,
      "ojn": 415,
      "mɪn": 416,
      "kɔɹ": 417,
      "θɹu": 418,
      "wɪl": 419,
      "ɑɡ": 420,
      "sɛl": 421,
      "ɛɹək": 422,
      "θɹi": 423,
      "pʌ": 424,
      "sɹv": 425,
      "əts": 426,
      "əsi": 427,
      "pɑɹ": 428,
      "mjuz": 429,
      "əbawt": 430,
      "kʌm": 431,
      "win": 432,
      "ʃəl": 433,
      "ejdʒ": 434,
      "ɑd": 435,
      "maj": 436,
      "ɡl": 437,
      "hɛl": 438,
      "199": 439,
      "fɑl": 440,
      "bɪtwin": 441,
      "stɹi": 442,
      "how": 443,
      "tiejtʃ": 444,
      "nɔɹθ": 445,
      "ɛnɹ": 446,
      "owɪŋ": 447,
      "ps": 448,
      "ðæn": 449,
      "pʌbl": 450,
      "pɹi": 451,
      "nejm": 452,
      "bɑ": 453,
      "sɛkənd": 454,
      "ətɹ": 455,
      "tɹi": 456,
      "ʌvɹ": 457,
      "10": 458,
      "ɑɹdʒ": 459,
      "æks": 460,
      "mejn": 461,
      "ɡəl": 462,
      "ɪŋz": 463,
      "sɪst": 464,
      "ɹili": 465,
      "juzd": 466,
      "æns": 467,
      "ɹɛk": 468,
      "awθ": 469,
      "ðow": 470,
      "wɹld": 471,
      "ətɪv": 472,
      "ɹɪz": 473,
      "lu": 474,
      "ɛntʃ": 475,
      "mejd": 476,
      "pɹow": 477,
      "pɹəd": 478,
      "əmɛɹək": 479,
      "awɹ": 480,
      "ɪnv": 481,
      "kej": 482,
      "bæt": 483,
      "ʌs": 484,
      "jɪɹ": 485,
      "ælb": 486,
      "bɪfɔɹ": 487,
      "dɛ": 488,
      "sm": 489,
      "bæk": 490,
      "ejtɪd": 491,
      "sawθ": 492,
      "000": 493,
      "tow": 494,
      "lajn": 495,
      "jə": 496,
      "ʌmbɹ": 497,
      "ul": 498,
      "ðɛm": 499,
      "sɪm": 500,
      "sizən": 501,
      "sʌtʃ": 502,
      "dz": 503,
      "wɛst": 504,
      "pɛɹ": 505,
      "lænd": 506,
      "nʌmbɹ": 507,
      "ælbəm": 508,
      "lajk": 509,
      "stɹʌk": 510,
      "əkɔɹd": 511,
      "dɪz": 512,
      "17": 513,
      "sɛpt": 514,
      "ədɪ": 515,
      "səp": 516,
      "pɑ": 517,
      "spi": 518,
      "kɑɹ": 519,
      "pɔɹ": 520,
      "ki": 521,
      "kɔl": 522,
      "næʃənəl": 523,
      "jɪɹz": 524,
      "ɑks": 525,
      "ɪnt": 526,
      "dʒɛnɹ": 527,
      "ɹow": 528,
      "ft": 529,
      "kawn": 530,
      "15": 531,
      "fajn": 532,
      "ɛktəd": 533,
      "tɹn": 534,
      "dɪŋ": 535,
      "diow": 536,
      "sɛs": 537,
      "bowθ": 538,
      "fɹd": 539,
      "ðɛn": 540,
      "hawɛvɹ": 541,
      "wɛ": 542,
      "ɡən": 543,
      "ɪɡz": 544,
      "biɪŋ": 545,
      "vz": 546,
      "tim": 547,
      "..": 548,
      "ajtəd": 549,
      "ɛpəs": 550,
      "ɛv": 551,
      "ðiz": 552,
      "pɔɹt": 553,
      "ejtɪŋ": 554,
      "vɛɹi": 555,
      "θi": 556,
      "stɑɹ": 557,
      "ɛpəsowd": 558,
      "sɪɹiz": 559,
      "ɑpɹ": 560,
      "fawnd": 561,
      "fju": 562,
      "əɡɛnst": 563,
      "ɪʃt": 564,
      "ɡɹu": 565,
      "fəl": 566,
      "sɪti": 567,
      "wɔ": 568,
      "mɛni": 569,
      "ɪkst": 570,
      "ɹawnd": 571,
      "bɹɪt": 572,
      "fej": 573,
      "ænt": 574,
      "ɹɑ": 575,
      "sɛvɹ": 576,
      "lɔŋ": 577,
      "fɔɹs": 578,
      "vju": 579,
      "dɪvɛl": 580,
      "16": 581,
      "ɪʒən": 582,
      "jɹ": 583,
      "owk": 584,
      "12": 585,
      "fʊ": 586,
      "md": 587,
      "pɹɛz": 588,
      "dʒɑn": 589,
      "ɔz": 590,
      "sɛt": 591,
      "ɹɪk": 592,
      "ajzd": 593,
      "bɪkejm": 594,
      "mjuzɪk": 595,
      "æŋk": 596,
      "pɑp": 597,
      "kɛɹ": 598,
      "junajtəd": 599,
      "sɛvɹəl": 600,
      "ɪnkludɪŋ": 601,
      "mɑ": 602,
      "hɛd": 603,
      "dawn": 604,
      "ɹajt": 605,
      "kæm": 606,
      "vɪŋ": 607,
      "ejndʒ": 608,
      "vɹs": 609,
      "ows": 610,
      "stɔɹ": 611,
      "dɪf": 612,
      "dɪvɛləp": 613,
      "nown": 614,
      "lɑɹdʒ": 615,
      "ɛks": 616,
      "lz": 617,
      "θɹ": 618,
      "ɪkt": 619,
      "198": 620,
      "mʌ": 621,
      "jʊɹ": 622,
      "tʃt": 623,
      "hɪst": 624,
      "nɑ": 625,
      "nej": 626,
      "ɡʌvɹ": 627,
      "mɛ": 628,
      "194": 629,
      "sɛd": 630,
      "nɹ": 631,
      "sɛntɹ": 632,
      "wɪn": 633,
      "stɹit": 634,
      "nəs": 635,
      "ɛkʃən": 636,
      "lɛd": 637,
      "fɛ": 638,
      "ist": 639,
      "fɹi": 640,
      "30": 641,
      "dʒi": 642,
      "stejts": 643,
      "ɔt": 644,
      "ejpɹ": 645,
      "æp": 646,
      "fɑlowɪŋ": 647,
      "nɪɹ": 648,
      "sʌb": 649,
      "mɛmbɹ": 650,
      "daj": 651,
      "ɹowd": 652,
      "tʃi": 653,
      "ɹʌn": 654,
      "ɪnst": 655,
      "bɔl": 656,
      "mɛn": 657,
      "lajt": 658,
      "ajs": 659,
      "ɛndəd": 660,
      "kʊd": 661,
      "sin": 662,
      "pæ": 663,
      "sej": 664,
      "əntli": 665,
      "ɛktɹ": 666,
      "sajd": 667,
      "ɹəsi": 668,
      "lɪ": 669,
      "əpɪɹ": 670,
      "əmɛɹəkən": 671,
      "dɪsp": 672,
      "pojn": 673,
      "ɔlðow": 674,
      "ɹɪdʒən": 675,
      "14": 676,
      "mə": 677,
      "haws": 678,
      "jus": 679,
      "lɪŋ": 680,
      "mʌn": 681,
      "mɑɹk": 682,
      "197": 683,
      "ɡɪv": 684,
      "vɪ": 685,
      "196": 686,
      "stɹn": 687,
      "ɔɹdɹ": 688,
      "ɡɹi": 689,
      "kɑl": 690,
      "mɑn": 691,
      "ɪŋɡl": 692,
      "əzɪʃən": 693,
      "kəntɪn": 694,
      "bɪɡæn": 695,
      "iən": 696,
      "lajf": 697,
      "əlɔŋ": 698,
      "ejts": 699,
      "13": 700,
      "əmənt": 701,
      "əntɪl": 702,
      "tɛl": 703,
      "jəlɹ": 704,
      "ænz": 705,
      "skul": 706,
      "tɪd": 707,
      "bɪkɔz": 708,
      "ust": 709,
      "ɹilist": 710,
      "kɔld": 711,
      "jɔɹ": 712,
      "əkɔɹdɪŋ": 713,
      "mənts": 714,
      "mək": 715,
      "mow": 716,
      "lənd": 717,
      "ɪfɪk": 718,
      "ɛkst": 719,
      "ʌb": 720,
      "pipəl": 721,
      "dʒun": 722,
      "ʃow": 723,
      "ɹɪt": 724,
      "əmz": 725,
      "pɹaj": 726,
      "kɹɪt": 727,
      "tɛn": 728,
      "ɹowl": 729,
      "dɪstɹ": 730,
      "klæs": 731,
      "mɪljən": 732,
      "kʌl": 733,
      "50": 734,
      "səksɛs": 735,
      "ɹajb": 736,
      "kɪl": 737,
      "bænd": 738,
      "plejs": 739,
      "dʒʌst": 740,
      "wɹd": 741,
      "ətiz": 742,
      "ɹɛkɹd": 743,
      "sɛntʃ": 744,
      "sɪv": 745,
      "bɹɪtɪʃ": 746,
      "ɛdʒ": 747,
      "ænju": 748,
      "tawn": 749,
      "sɪns": 750,
      "ɔs": 751,
      "təl": 752,
      "æsk": 753,
      "tʃu": 754,
      "ɛɹiə": 755,
      "waj": 756,
      "ɛns": 757,
      "pɹəv": 758,
      "jud": 759,
      "fild": 760,
      "təs": 761,
      "itʃ": 762,
      "əwɔɹd": 763,
      "lɹ": 764,
      "æɡ": 765,
      "təm": 766,
      "bɛst": 767,
      "dʒɹmən": 768,
      "ətɛɹi": 769,
      "owzd": 770,
      "θɪŋ": 771,
      "sejm": 772,
      "ojd": 773,
      "ɹə": 774,
      "ɔstɹ": 775,
      "əkəl": 776,
      "wʌt": 777,
      "tajmz": 778,
      "tʃɹd": 779,
      "howm": 780,
      "sɛptɛmbɹ": 781,
      "dɪskɹajb": 782,
      "bætəl": 783,
      "ɛntɹ": 784,
      "ədɪʃən": 785,
      "kəntɹ": 786,
      "tʃejndʒ": 787,
      "tʊk": 788,
      "junə": 789,
      "fajnəl": 790,
      "tʃɹz": 791,
      "stænd": 792,
      "æft": 793,
      "sɛnt": 794,
      "pəni": 795,
      "əkɹ": 796,
      "ɡow": 797,
      "hju": 798,
      "ɪnɪʃ": 799,
      "ənʌðɹ": 800,
      "ɡɹej": 801,
      "ejk": 802,
      "fajv": 803,
      "11": 804,
      "ɹʌ": 805,
      "ɡɹup": 806,
      "ɹɪzʌl": 807,
      "dʌ": 808,
      "sɪks": 809,
      "ɡej": 810,
      "kəmpli": 811,
      "bɪkʌm": 812,
      "ɔfəs": 813,
      "kæp": 814,
      "sti": 815,
      "pejn": 816,
      "ɹil": 817,
      "əkejʃən": 818,
      "fɑ": 819,
      "ətli": 820,
      "owni": 821,
      "fɔɹmd": 822,
      "fæm": 823,
      "mɪd": 824,
      "kənsɪ": 825,
      "ɑɡəst": 826,
      "fɛl": 827,
      "əθ": 828,
      "nowv": 829,
      "ɔstɹejl": 830,
      "ɔn": 831,
      "smɔl": 832,
      "ajnd": 833,
      "lɛs": 834,
      "lowk": 835,
      "wɔtɹ": 836,
      "zɹ": 837,
      "pɹu": 838,
      "ɪmp": 839,
      "səs": 840,
      "sɛntʃɹi": 841,
      "sɛlf": 842,
      "ʃɹ": 843,
      "ɑlədʒ": 844,
      "ɹəsivd": 845,
      "ɑktow": 846,
      "ut": 847,
      "səb": 848,
      "ɑktowbɹ": 849,
      "pʌblɪk": 850,
      "læst": 851,
      "sɹvəs": 852,
      "lɑ": 853,
      "fɔl": 854,
      "ɑɹm": 855,
      "ɪzəm": 856,
      "mɑɹtʃ": 857,
      "səɡ": 858,
      "ɹɪvɹ": 859,
      "dɪk": 860,
      "sɪstəm": 861,
      "hɑ": 862,
      "æb": 863,
      "mɪ": 864,
      "kənsɪdɹ": 865,
      "tɑp": 866,
      "əwəli": 867,
      "wɔl": 868,
      "ɔɹn": 869,
      "ɛktɪv": 870,
      "ɹɛd": 871,
      "θɹd": 872,
      "sɪk": 873,
      "nejmd": 874,
      "sɪŋɡəl": 875,
      "mætʃ": 876,
      "sʌn": 877,
      "pəzɪʃən": 878,
      "dʒɛnɹəl": 879,
      "nɪŋ": 880,
      "jɔɹk": 881,
      "ɪb": 882,
      "ɡʌvɹmənt": 883,
      "ajlənd": 884,
      "sowl": 885,
      "tɹæk": 886,
      "wɑn": 887,
      "dɹən": 888,
      "kəmænd": 889,
      "ɹejndʒ": 890,
      "vaj": 891,
      "ejbəl": 892,
      "ʃɪps": 893,
      "ɹɪl": 894,
      "liɡ": 895,
      "ɪtəl": 896,
      "ɹowt": 897,
      "mɛɹi": 898,
      "pawɹ": 899,
      "wik": 900,
      "ɡejmz": 901,
      "hɛɹ": 902,
      "bɑɹ": 903,
      "tɹaj": 904,
      "dʒulaj": 905,
      "25": 906,
      "ɛmp": 907,
      "lejt": 908,
      "kʌn": 909,
      "nowvɛmbɹ": 910,
      "dɪfɹ": 911,
      "stɔɹi": 912,
      "ɡɹawnd": 913,
      "tɹnd": 914,
      "ʃɔɹt": 915,
      "kɹu": 916,
      "ɪi": 917,
      "ɪktɹ": 918,
      "dɛθ": 919,
      "məl": 920,
      "jəm": 921,
      "ejpɹəl": 922,
      "mʌtʃ": 923,
      "əlaw": 924,
      "ɡʌn": 925,
      "jəw": 926,
      "ʌkʃən": 927,
      "ŋk": 928,
      "mejk": 929,
      "mɛɹ": 930,
      "əstɹ": 931,
      "lɛft": 932,
      "ɡɹejt": 933,
      "ɹɪsp": 934,
      "əwəl": 935,
      "tʊɹ": 936,
      "ɛɡ": 937,
      "bɹi": 938,
      "junəvɹs": 939,
      "plæn": 940,
      "dæm": 941,
      "fæməli": 942,
      "mʌnθ": 943,
      "viəs": 944,
      "vɪl": 945,
      "mejdʒɹ": 946,
      "pʊ": 947,
      "zɪŋ": 948,
      "bejst": 949,
      "ænə": 950,
      "pɹəvajd": 951,
      "tɹu": 952,
      "0ɛs": 953,
      "pɹsən": 954,
      "ɹæ": 955,
      "hɑɹ": 956,
      "naw": 957,
      "ɡɹæm": 958,
      "kæst": 959,
      "klʌb": 960,
      "ɑb": 961,
      "ɑɹmi": 962,
      "hænd": 963,
      "stɪl": 964,
      "spɹ": 965,
      "kʌmpəni": 966,
      "bən": 967,
      "klej": 968,
      "plejd": 969,
      "ɪnkɹi": 970,
      "ɛmpɹ": 971,
      "spɛ": 972,
      "zi": 973,
      "dɪsɛmbɹ": 974,
      "bɪli": 975,
      "muvd": 976,
      "ɔɹɡən": 977,
      "owpən": 978,
      "ɪnkludəd": 979,
      "wɪθ": 980,
      "fli": 981,
      "stu": 982,
      "wajt": 983,
      "kæl": 984,
      "bɔɹd": 985,
      "təst": 986,
      "kɛɹɪktɹ": 987,
      "təkəl": 988,
      "dʒænju": 989,
      "dʒænjuɛɹi": 990,
      "wɪnd": 991,
      "pɪɹi": 992,
      "fajɹ": 993,
      "dɪst": 994,
      "ɹɪmej": 995,
      "kɔɹt": 996,
      "nəl": 997,
      "plejst": 998,
      "195": 999,
      "ejlz": 1000,
      "muv": 1001,
      "najt": 1002,
      "ɹut": 1003,
      "24": 1004,
      "fəs": 1005,
      "193": 1006,
      "kɑntɹ": 1007,
      "ɛkts": 1008,
      "iə": 1009,
      "dəm": 1010,
      "ʃiz": 1011,
      "bæ": 1012,
      "kənstɹʌk": 1013,
      "bʊk": 1014,
      "lɪst": 1015,
      "pɑl": 1016,
      "spiʃiz": 1017,
      "blæk": 1018,
      "bɹɪdʒ": 1019,
      "diə": 1020,
      "fən": 1021,
      "kejm": 1022,
      "hɛ": 1023,
      "owp": 1024,
      "pɹiviəs": 1025,
      "ɛɹd": 1026,
      "pɹət": 1027,
      "wɪðɪn": 1028,
      "vɪdiow": 1029,
      "bɪlt": 1030,
      "bʊ": 1031,
      "tajtəl": 1032,
      "hɔɹ": 1033,
      "dɪskɹajbd": 1034,
      "sə": 1035,
      "ðowz": 1036,
      "tʃæm": 1037,
      "tiz": 1038,
      "tɹejn": 1039,
      "nɛkst": 1040,
      "tɛst": 1041,
      "flu": 1042,
      "əmi": 1043,
      "stɔɹm": 1044,
      "...": 1045,
      "ɹɑk": 1046,
      "bɛl": 1047,
      "ətəd": 1048,
      "əmʌŋ": 1049,
      "fɔɹmən": 1050,
      "powst": 1051,
      "əlɹ": 1052,
      "fʊt": 1053,
      "ækʃən": 1054,
      "səpɔɹt": 1055,
      "ivən": 1056,
      "pɹɛzəd": 1057,
      "fɹðɹ": 1058,
      "wajd": 1059,
      "tʃɑɹ": 1060,
      "bɹt": 1061,
      "ɹid": 1062,
      "pɹfɔɹmən": 1063,
      "bət": 1064,
      "ejs": 1065,
      "æʃ": 1066,
      "ɛntəd": 1067,
      "ajlz": 1068,
      "pɹɛs": 1069,
      "ɹɪdʒənəl": 1070,
      "ɹoj": 1071,
      "ɹilis": 1072,
      "ʌŋk": 1073,
      "bɑdi": 1074,
      "uʃən": 1075,
      "fɹɛnd": 1076,
      "tʃæmpi": 1077,
      "sajt": 1078,
      "min": 1079,
      "æbl": 1080,
      "təɡ": 1081,
      "hɛld": 1082,
      "sawnd": 1083,
      "hæf": 1084,
      "æktɪv": 1085,
      "dɪzajn": 1086,
      "hɪstɹi": 1087,
      "əfɪʃ": 1088,
      "ɹin": 1089,
      "mæɡ": 1090,
      "dɪvɪʒən": 1091,
      "kɑmən": 1092,
      "ɔd": 1093,
      "fɛb": 1094,
      "jəwɛɹi": 1095,
      "fɛbjəwɛɹi": 1096,
      "fajnd": 1097,
      "dejz": 1098,
      "us": 1099,
      "ʒənz": 1100,
      "ajɹd": 1101,
      "pojnt": 1102,
      "hɪɹ": 1103,
      "dɹaj": 1104,
      "pɹəz": 1105,
      "bɹɡ": 1106,
      "ɪnz": 1107,
      "21": 1108,
      "tɹɑp": 1109,
      "ɑɹɡ": 1110,
      "mawn": 1111,
      "plejɹ": 1112,
      "mɛd": 1113,
      "fɔɹmɹ": 1114,
      "100": 1115,
      "vɪk": 1116,
      "mɛt": 1117,
      "naj": 1118,
      "22": 1119,
      "pɑpjəl": 1120,
      "fɹɛntʃ": 1121,
      "jʌŋ": 1122,
      "jʊɹəp": 1123,
      "ɡʊd": 1124,
      "stʌ": 1125,
      "tejn": 1126,
      "lʌv": 1127,
      "tʃɹtʃ": 1128,
      "tejk": 1129,
      "junəvɹsəti": 1130,
      "kt": 1131,
      "mɛmbɹz": 1132,
      "pət": 1133,
      "ðɹz": 1134,
      "tɛk": 1135,
      "ætɪk": 1136,
      "əsow": 1137,
      "ɹɛst": 1138,
      "ɛntəl": 1139,
      "wɔɹd": 1140,
      "pɑɹk": 1141,
      "læ": 1142,
      "tɑm": 1143,
      "ɪstæbl": 1144,
      "tɪk": 1145,
      "pow": 1146,
      "23": 1147,
      "vɹʒən": 1148,
      "2010": 1149,
      "ænəm": 1150,
      "æŋɡ": 1151,
      "pɹədʌkʃən": 1152,
      "pɪk": 1153,
      "tɹɑpɪkəl": 1154,
      "ɛvɹi": 1155,
      "əld": 1156,
      "nɛvɹ": 1157,
      "dʒɛkt": 1158,
      "ətæk": 1159,
      "hævɪŋ": 1160,
      "fɪn": 1161,
      "lowkəl": 1162,
      "tɹæ": 1163,
      "pəs": 1164,
      "dʒɔɹ": 1165,
      "pɪɹiəd": 1166,
      "pæst": 1167,
      "27": 1168,
      "mət": 1169,
      "dʒɛst": 1170,
      "əɡɹ": 1171,
      "sɔɹ": 1172,
      "əbɪl": 1173,
      "tʃɹəl": 1174,
      "sɛp": 1175,
      "tʃɪŋ": 1176,
      "ɔfən": 1177,
      "towt": 1178,
      "ɛf": 1179,
      "əsowsi": 1180,
      "kɹæft": 1181,
      "kəntɹowl": 1182,
      "ʌnt": 1183,
      "bɛ": 1184,
      "ædv": 1185,
      "28": 1186,
      "mænədʒ": 1187,
      "vɪz": 1188,
      "ɹɪtɹn": 1189,
      "ɛɹə": 1190,
      "2008": 1191,
      "dejv": 1192,
      "kəntɪnjud": 1193,
      "dɑk": 1194,
      "2009": 1195,
      "ɹɛz": 1196,
      "dʒɹz": 1197,
      "ɪvɛnt": 1198,
      "dæmədʒ": 1199,
      "kɹɪɹ": 1200,
      "pej": 1201,
      "fit": 1202,
      "ski": 1203,
      "ɑns": 1204,
      "26": 1205,
      "howld": 1206,
      "kɹɪst": 1207,
      "dəd": 1208,
      "40": 1209,
      "tʃæmpiən": 1210,
      "tɹæns": 1211,
      "wɪθawt": 1212,
      "pəniz": 1213,
      "2011": 1214,
      "ɡowl": 1215,
      "ɛntə": 1216,
      "sɛvən": 1217,
      "dɪspajt": 1218,
      "awɹz": 1219,
      "supɹ": 1220,
      "boj": 1221,
      "wɛstɹn": 1222,
      "pɑɹti": 1223,
      "ɪŋɡlənd": 1224,
      "kənsɪdɹd": 1225,
      "bɪldɪŋ": 1226,
      "stown": 1227,
      "pɹəp": 1228,
      "sɪn": 1229,
      "lɪm": 1230,
      "voj": 1231,
      "ʃu": 1232,
      "juzɪŋ": 1233,
      "lɪv": 1234,
      "majn": 1235,
      "stɹɔŋ": 1236,
      "ɹejn": 1237,
      "ɹɪtən": 1238,
      "ɛnʃən": 1239,
      "ənawn": 1240,
      "stejdʒ": 1241,
      "hɪl": 1242,
      "dɛm": 1243,
      "lʌnd": 1244,
      "ejnd": 1245,
      "2007": 1246,
      "kʌntɹi": 1247,
      "wɛnt": 1248,
      "kawnti": 1249,
      "dʒæk": 1250,
      "mejl": 1251,
      "dɪvɛləpmənt": 1252,
      "ɪlɛktɹ": 1253,
      "dʒɔɹdʒ": 1254,
      "ɡɑɹd": 1255,
      "vow": 1256,
      "sɔŋz": 1257,
      "ejld": 1258,
      "ɹojəl": 1259,
      "hej": 1260,
      "stʌdi": 1261,
      "mɪlətɛɹi": 1262,
      "mɑd": 1263,
      "bɪz": 1264,
      "hajwej": 1265,
      "ɛndɪŋ": 1266,
      "mɑdɹ": 1267,
      "lɪtəl": 1268,
      "dɪt": 1269,
      "kəmjun": 1270,
      "ɪndʒ": 1271,
      "dɪfɹənt": 1272,
      "ɪŋɡlɪʃ": 1273,
      "ɑlədʒi": 1274,
      "fɑðɹ": 1275,
      "pæs": 1276,
      "fɔɹsɪz": 1277,
      "pɹowɡɹæm": 1278,
      "əwej": 1279,
      "dɑn": 1280,
      "tʃɪl": 1281,
      "ɡɪvən": 1282,
      "ɪnf": 1283,
      "bɔɹn": 1284,
      "lɔst": 1285,
      "mɪŋ": 1286,
      "ɛnsɪv": 1287,
      "pɹej": 1288,
      "2012": 1289,
      "pɹɛzədɛnt": 1290,
      "29": 1291,
      "ɪnflu": 1292,
      "sɔ": 1293,
      "stən": 1294,
      "stajl": 1295,
      "bejs": 1296,
      "ʌðɹz": 1297,
      "lʌndən": 1298,
      "bʌ": 1299,
      "lajv": 1300,
      "ɹɪmejnd": 1301,
      "səɡdʒɛst": 1302,
      "fɑɹ": 1303,
      "pɪŋ": 1304,
      "ɡejv": 1305,
      "ɪnvɑl": 1306,
      "skɔɹ": 1307,
      "stɑɹt": 1308,
      "tin": 1309,
      "bju": 1310,
      "ɛðɹ": 1311,
      "wʊ": 1312,
      "190": 1313,
      "ɹivju": 1314,
      "nɛt": 1315,
      "ɪntɹnæʃənəl": 1316,
      "kənv": 1317,
      "hɔl": 1318,
      "ɪθ": 1319,
      "tɛləv": 1320,
      "ɡɛt": 1321,
      "ɑnd": 1322,
      "bɹɔd": 1323,
      "kowst": 1324,
      "təbəl": 1325,
      "vɑl": 1326,
      "ɹəf": 1327,
      "ɹejl": 1328,
      "pʌblɪʃt": 1329,
      "bɑm": 1330,
      "dɛk": 1331,
      "ɪkli": 1332,
      "klows": 1333,
      "stejʃən": 1334,
      "jɑɹd": 1335,
      "sɪməlɹ": 1336,
      "pɹədust": 1337,
      "kə": 1338,
      "ɪmpɔɹt": 1339,
      "fʊl": 1340,
      "ajəti": 1341,
      "ɡowld": 1342,
      "towtəl": 1343,
      "pɹəm": 1344,
      "pɹfɔɹməns": 1345,
      "sɪl": 1346,
      "ejmz": 1347,
      "əmənts": 1348,
      "fɛɹ": 1349,
      "ɹɪtɹnd": 1350,
      "tʃɪldɹən": 1351,
      "pɔɹtəd": 1352,
      "ajld": 1353,
      "əpɑn": 1354,
      "mɪs": 1355,
      "mejkɪŋ": 1356,
      "ʃɪŋ": 1357,
      "ədə": 1358,
      "sæn": 1359,
      "ɹɛpɹəz": 1360,
      "ɹəkɔɹd": 1361,
      "dən": 1362,
      "ɪntɹəst": 1363,
      "ɹajtɪŋ": 1364,
      "əfajd": 1365,
      "nuz": 1366,
      "ɹəkɔɹdəd": 1367,
      "ɛnts": 1368,
      "ɛɹkɹæft": 1369,
      "tɛləvɪʒən": 1370,
      "fɹəns": 1371,
      "ɹɪp": 1372,
      "kju": 1373,
      "stejtəd": 1374,
      "væn": 1375,
      "ʌvɹd": 1376,
      "ɹidʒən": 1377,
      "tɛɹ": 1378,
      "tʃəz": 1379,
      "2006": 1380,
      "kli": 1381,
      "səm": 1382,
      "sɛntɹəl": 1383,
      "əkejn": 1384,
      "spɛʃəl": 1385,
      "pɹɪns": 1386,
      "təwɔɹd": 1387,
      "hɪt": 1388,
      "mɪʃən": 1389,
      "səkw": 1390,
      "wɪmən": 1391,
      "najn": 1392,
      "ənsəz": 1393,
      "skwɑ": 1394,
      "ɪʃu": 1395,
      "wɹks": 1396,
      "hɹəkejn": 1397,
      "ɪsəp": 1398,
      "θɹuawt": 1399,
      "kwɑ": 1400,
      "blu": 1401,
      "ədɪʃənəl": 1402,
      "wʌns": 1403,
      "kɑnst": 1404,
      "əpɹ": 1405,
      "kæmpejn": 1406,
      "howl": 1407,
      "ɑdʒ": 1408,
      "ədi": 1409,
      "flɔɹ": 1410,
      "əɡn": 1411,
      "kʌ": 1412,
      "fɪʃ": 1413,
      "hɪmsɛlf": 1414,
      "skɑt": 1415,
      "ɔstɹejljə": 1416,
      "əkɹɔs": 1417,
      "væl": 1418,
      "nɑn": 1419,
      "pɹɪz": 1420,
      "awts": 1421,
      "sʌðɹ": 1422,
      "fejvɹ": 1423,
      "ɡɹæ": 1424,
      "2013": 1425,
      "hæm": 1426,
      "wɪljəm": 1427,
      "hɛvi": 1428,
      "kæɹɪk": 1429,
      "kwɔɹ": 1430,
      "kæɹɪktɹz": 1431,
      "ɪntɹəd": 1432,
      "æljən": 1433,
      "ku": 1434,
      "ɹɛdʒ": 1435,
      "nɪk": 1436,
      "fɹʌnt": 1437,
      "bɛɹi": 1438,
      "əbli": 1439,
      "ɪsən": 1440,
      "wejz": 1441,
      "dɪvɛləpt": 1442,
      "ævɹ": 1443,
      "plejɹz": 1444,
      "kənsɪst": 1445,
      "ɹɪli": 1446,
      "ɹɛɡ": 1447,
      "ɹejs": 1448,
      "ownz": 1449,
      "dʒoj": 1450,
      "ejdi": 1451,
      "ɪnstɛd": 1452,
      "ənawnst": 1453,
      "ɪli": 1454,
      "dajd": 1455,
      "ælən": 1456,
      "nə": 1457,
      "ɹowz": 1458,
      "60": 1459,
      "sʌðɹn": 1460,
      "dʒejmz": 1461,
      "189": 1462,
      "kənstɹʌkʃən": 1463,
      "dɔ": 1464,
      "ɡɹə": 1465,
      "bɪɡɪn": 1466,
      "kɑlɪdʒ": 1467,
      "ɔɹəti": 1468,
      "ɪɡzæm": 1469,
      "æli": 1470,
      "pɛn": 1471,
      "dʒæ": 1472,
      "ɛksp": 1473,
      "wɹdz": 1474,
      "mʌnθs": 1475,
      "istɹn": 1476,
      "dow": 1477,
      "hjumən": 1478,
      "pəlɪ": 1479,
      "nɪfɪk": 1480,
      "ɹɪzʌlt": 1481,
      "ɹɛl": 1482,
      "æktɹ": 1483,
      "ejtɹ": 1484,
      "sɹtʃ": 1485,
      "pəlɪtəkəl": 1486,
      "ɪɹiəl": 1487,
      "fɔɹθ": 1488,
      "powl": 1489,
      "vɛɹiəs": 1490,
      "tʃajn": 1491,
      "ptən": 1492,
      "fɹm": 1493,
      "fɛlt": 1494,
      "ɹɪŋ": 1495,
      "ətəl": 1496,
      "tejkən": 1497,
      "kɑp": 1498,
      "mɑdɹn": 1499,
      "ɪkspɪɹi": 1500,
      "ejtɪv": 1501,
      "tajɹ": 1502,
      "əpɹow": 1503,
      "vjuz": 1504,
      "ɡɹænd": 1505,
      "təɡɛðɹ": 1506,
      "dʒej": 1507,
      "ʃə": 1508,
      "fɛdɹ": 1509,
      "dʒin": 1510,
      "dɪsaj": 1511,
      "kəmplit": 1512,
      "ʌf": 1513,
      "əpojn": 1514,
      "ɹipɔɹtəd": 1515,
      "bɹn": 1516,
      "tɹejd": 1517,
      "ɛɹiəz": 1518,
      "majlz": 1519,
      "bɪld": 1520,
      "nɔɹðɹ": 1521,
      "ŋkθ": 1522,
      "ɛz": 1523,
      "ləs": 1524,
      "fajt": 1525,
      "sɑ": 1526,
      "dʌbəl": 1527,
      "nowtəd": 1528,
      "lɪn": 1529,
      "pɹɛzənt": 1530,
      "əmɛɹəkə": 1531,
      "əsɪst": 1532,
      "ɪvɛntʃ": 1533,
      "ɪvɛntʃəwəli": 1534,
      "əpɪɹd": 1535,
      "hɛn": 1536,
      "ɹɛs": 1537,
      "ʌd": 1538,
      "kəmɪʃən": 1539,
      "juʒ": 1540,
      "kɹiejtəd": 1541,
      "ɹitʃt": 1542,
      "fɪɹ": 1543,
      "bɛn": 1544,
      "æfɹ": 1545,
      "ɹikw": 1546,
      "kowl": 1547,
      "pɹəf": 1548,
      "ɛndʒən": 1549,
      "dʒæpəniz": 1550,
      "mʌl": 1551,
      "kejs": 1552,
      "fæn": 1553,
      "fɹæns": 1554,
      "ʃʊd": 1555,
      "nɔɹðɹn": 1556,
      "tʃɑɹt": 1557,
      "dɛd": 1558,
      "ɹiəl": 1559,
      "sɹvd": 1560,
      "dɹɛkt": 1561,
      "lɛvəl": 1562,
      "ɑpɹejʃən": 1563,
      "ændɹ": 1564,
      "kəntejn": 1565,
      "ɹəd": 1566,
      "pɹfɔɹmd": 1567,
      "flaj": 1568,
      "2005": 1569,
      "fowk": 1570,
      "ejʒən": 1571,
      "fɑlowd": 1572,
      "ɑz": 1573,
      "bɹawn": 1574,
      "stud": 1575,
      "kɪld": 1576,
      "pojnts": 1577,
      "tʌn": 1578,
      "sʌmɹ": 1579,
      "bɹow": 1580,
      "ɛfɹ": 1581,
      "tɹænz": 1582,
      "kʌvɹ": 1583,
      "æntʃ": 1584,
      "mɪst": 1585,
      "jut": 1586,
      "stæ": 1587,
      "slow": 1588,
      "æləs": 1589,
      "ɛstɹ": 1590,
      "dʒəp": 1591,
      "fʊtbɔl": 1592,
      "ɡɹow": 1593,
      "pʊt": 1594,
      "ɛksək": 1595,
      "wɛðɹ": 1596,
      "bz": 1597,
      "2014": 1598,
      "ədəns": 1599,
      "sɪɡ": 1600,
      "hajnd": 1601,
      "vəlz": 1602,
      "ɡɑd": 1603,
      "sɛkʃən": 1604,
      "tɔɹ": 1605,
      "dɑ": 1606,
      "fɪf": 1607,
      "sl": 1608,
      "hɑɹt": 1609,
      "dʒow": 1610,
      "ɹɪmejn": 1611,
      "bowl": 1612,
      "bɛɹ": 1613,
      "ɔɹdən": 1614,
      "ɪstæblɪʃt": 1615,
      "əsts": 1616,
      "dɛl": 1617,
      "ɹajts": 1618,
      "pejpɹ": 1619,
      "lajnz": 1620,
      "θɔt": 1621,
      "ɹɪdʒənəli": 1622,
      "pɹajz": 1623,
      "kɑŋ": 1624,
      "əstɹi": 1625,
      "ɹilejʃən": 1626,
      "kɹɔs": 1627,
      "ɔstɹejljən": 1628,
      "sʌbsəkw": 1629,
      "ɛndɹ": 1630,
      "dæn": 1631,
      "sun": 1632,
      "ɪnvɛst": 1633,
      "pɑpjəlɹ": 1634,
      "ɡɹin": 1635,
      "mʌðɹ": 1636,
      "sɪt": 1637,
      "jəlɹli": 1638,
      "dejvɪd": 1639,
      "dʒd": 1640,
      "kɑnt": 1641,
      "lowkejtəd": 1642,
      "sɹvaj": 1643,
      "ɪmi": 1644,
      "fitʃɹz": 1645,
      "tɹævəl": 1646,
      "plejɪŋ": 1647,
      "lidɪŋ": 1648,
      "kwɛst": 1649,
      "pɹɛʃən": 1650,
      "pɹɑdʒɛkt": 1651,
      "tɪv": 1652,
      "ənst": 1653,
      "flit": 1654,
      "və": 1655,
      "səbəl": 1656,
      "pɹɑsɛs": 1657,
      "kɹɪtɪks": 1658,
      "ænti": 1659,
      "səpɔɹ": 1660,
      "fʌnd": 1661,
      "stɑɹtəd": 1662,
      "æfɹək": 1663,
      "ɛɡz": 1664,
      "pis": 1665,
      "dʒɪn": 1666,
      "kɑzd": 1667,
      "fitʃɹ": 1668,
      "kənd": 1669,
      "əzin": 1670,
      "80": 1671,
      "kwɑl": 1672,
      "ævɹɪdʒ": 1673,
      "ɹæðɹ": 1674,
      "hɑɹd": 1675,
      "dɹɛktɹ": 1676,
      "ɹum": 1677,
      "tejl": 1678,
      "kɑz": 1679,
      "owpənd": 1680,
      "sowld": 1681,
      "bɹejk": 1682,
      "ædəd": 1683,
      "ɡɪl": 1684,
      "ʒɹ": 1685,
      "ənsɪz": 1686,
      "mənd": 1687,
      "ɛmpt": 1688,
      "dɪsajdɪd": 1689,
      "klɪɹ": 1690,
      "ɪpɛnd": 1691,
      "dowz": 1692,
      "ɪndɪpɛnd": 1693,
      "ɪtʃ": 1694,
      "pɹuvd": 1695,
      "bɪhajnd": 1696,
      "səksɛsfəl": 1697,
      "mæɡəzin": 1698,
      "tɹiz": 1699,
      "kəntɪnju": 1700,
      "wɹkɪŋ": 1701,
      "bɪznəs": 1702,
      "tʃæmpiənʃɪp": 1703,
      "fɪɡ": 1704,
      "ændʒ": 1705,
      "kʌp": 1706,
      "spæn": 1707,
      "stɑp": 1708,
      "ɛmpl": 1709,
      "kawnsəl": 1710,
      "tɛmpɹ": 1711,
      "sajz": 1712,
      "sɑl": 1713,
      "pɑsəbəl": 1714,
      "majkəl": 1715,
      "lidɹ": 1716,
      "lejk": 1717,
      "ɪsk": 1718,
      "pɑpjəlejʃən": 1719,
      "ɡʌnz": 1720,
      "kəmplitəd": 1721,
      "iəm": 1722,
      "ɪmpɔɹtənt": 1723,
      "ejp": 1724,
      "ɔlmowst": 1725,
      "lɔn": 1726,
      "mɛl": 1727,
      "lɛdʒ": 1728,
      "dʒojn": 1729,
      "mɪnəstɹ": 1730,
      "sæm": 1731,
      "ɛndʒ": 1732,
      "tɹæn": 1733,
      "wɹkt": 1734,
      "stɹɛ": 1735,
      "ɹɛdi": 1736,
      "nɑmən": 1737,
      "ɡowɪŋ": 1738,
      "hɛnɹi": 1739,
      "ɪnɪʃəli": 1740,
      "awnt": 1741,
      "kɑst": 1742,
      "ɑɹtəst": 1743,
      "fɔɹst": 1744,
      "dɔɹ": 1745,
      "æŋks": 1746,
      "ɡə": 1747,
      "fækt": 1748,
      "kɪŋdəm": 1749,
      "əni": 1750,
      "pɑz": 1751,
      "ʃt": 1752,
      "sowʃəl": 1753,
      "əwɔɹdz": 1754,
      "fajd": 1755,
      "əfɪʃəl": 1756,
      "31": 1757,
      "ɑɡɹə": 1758,
      "list": 1759,
      "ɑnɪk": 1760,
      "2004": 1761,
      "jənz": 1762,
      "pɹɑbl": 1763,
      "pɹɛst": 1764,
      "mɪdəl": 1765,
      "wiks": 1766,
      "bu": 1767,
      "ajdɛntə": 1768,
      "kʌt": 1769,
      "ətɛmp": 1770,
      "mænd": 1771,
      "ɹejdiow": 1772,
      "bə": 1773,
      "sɛpʃən": 1774,
      "dɹɑp": 1775,
      "70": 1776,
      "ɑdʒɪkəl": 1777,
      "ɹθ": 1778,
      "dɪfəkəl": 1779,
      "hɛlp": 1780,
      "pəli": 1781,
      "təwɔɹdz": 1782,
      "pɹæk": 1783,
      "ɹəkɔɹdɪŋ": 1784,
      "tʃɑɹdʒ": 1785,
      "zən": 1786,
      "əvejl": 1787,
      "pli": 1788,
      "2015": 1789,
      "pɔl": 1790,
      "ətɔɹi": 1791,
      "səɡnɪfɪk": 1792,
      "35": 1793,
      "kɛ": 1794,
      "lən": 1795,
      "pɹɑpɹ": 1796,
      "ətɛmpt": 1797,
      "junjən": 1798,
      "kɹow": 1799,
      "dʒojnd": 1800,
      "ətɹz": 1801,
      "tɹej": 1802,
      "lɑɹ": 1803,
      "skɔɹd": 1804,
      "ɡɑɹ": 1805,
      "ɹɪvi": 1806,
      "ɔɹiən": 1807,
      "stɹim": 1808,
      "əlawd": 1809,
      "ʃɑt": 1810,
      "wɑʃɪŋ": 1811,
      "klaj": 1812,
      "ɛstəm": 1813,
      "ɑs": 1814,
      "nejvi": 1815,
      "tɹejnɪŋ": 1816,
      "ɹɛkɹdz": 1817,
      "ɹɛkəɡn": 1818,
      "kæɹi": 1819,
      "188": 1820,
      "ojl": 1821,
      "kawntɹ": 1822,
      "lɔɹd": 1823,
      "spejs": 1824,
      "ɪvɛnts": 1825,
      "ɪkwɪ": 1826,
      "lajz": 1827,
      "əbɹ": 1828,
      "pɹəvajdəd": 1829,
      "wajf": 1830,
      "wɑntəd": 1831,
      "jətɪv": 1832,
      "fɔɹmz": 1833,
      "æfɪk": 1834,
      "bɹɔt": 1835,
      "kæt": 1836,
      "dɪzajnd": 1837,
      "kwin": 1838,
      "tɹups": 1839,
      "kæsəl": 1840,
      "kəndɪ": 1841,
      "spɔɹ": 1842,
      "ɡæl": 1843,
      "500": 1844,
      "fitʃɹd": 1845,
      "hɪstɔɹ": 1846,
      "tʃajld": 1847,
      "iðɹ": 1848,
      "tɪp": 1849,
      "piejtʃ": 1850,
      "θɹɛ": 1851,
      "ɹʌnz": 1852,
      "vɪktɹi": 1853,
      "bawnd": 1854,
      "ajən": 1855,
      "əkejʃənz": 1856,
      "ɪstɹ": 1857,
      "əpi": 1858,
      "lɔɹ": 1859,
      "studiow": 1860,
      "tajp": 1861,
      "səv": 1862,
      "əfɔɹ": 1863,
      "ʌɡ": 1864,
      "dɪn": 1865,
      "pɹəmow": 1866,
      "ədənt": 1867,
      "əzejʃən": 1868,
      "dʒɛnɹəli": 1869,
      "əsli": 1870,
      "pɹədu": 1871,
      "ætɹ": 1872,
      "dɪfi": 1873,
      "dʌn": 1874,
      "dɪfɛns": 1875,
      "əvɪdʒ": 1876,
      "wɑʃɪŋtən": 1877,
      "dɹɔ": 1878,
      "ədʒəz": 1879,
      "kɹɛd": 1880,
      "ɪɡzæmpəl": 1881,
      "ɹɑbɹt": 1882,
      "stɹaj": 1883,
      "ɪndəvɪdʒ": 1884,
      "ədz": 1885,
      "186": 1886,
      "hɑl": 1887,
      "lejd": 1888,
      "ɹejt": 1889,
      "dʒɛn": 1890,
      "lɛɡ": 1891,
      "bli": 1892,
      "ɛkən": 1893,
      "sɹk": 1894,
      "ɹəɡ": 1895,
      "fɪnɪʃt": 1896,
      "pɑɹts": 1897,
      "swi": 1898,
      "pəlis": 1899,
      "ɹæp": 1900,
      "mæks": 1901,
      "ɡɪt": 1902,
      "owpənɪŋ": 1903,
      "stɹʌktʃɹ": 1904,
      "ʃɔɹ": 1905,
      "dɪsɪ": 1906,
      "smɪθ": 1907,
      "skwɑdɹən": 1908,
      "mʌst": 1909,
      "pɑɹtɪsəp": 1910,
      "əkejtəd": 1911,
      "ɑtə": 1912,
      "bɹɪŋ": 1913,
      "tʃif": 1914,
      "əkt": 1915,
      "spɔɹt": 1916,
      "ətʃi": 1917,
      "2003": 1918,
      "midiə": 1919,
      "pɹɛm": 1920,
      "tejkɪŋ": 1921,
      "ɔst": 1922,
      "læk": 1923,
      "ɡejdʒ": 1924,
      "ɪsts": 1925,
      "kɑmpl": 1926,
      "pɑzətɪv": 1927,
      "ɹiə": 1928,
      "bɔɹ": 1929,
      "əbzɹ": 1930,
      "bɹej": 1931,
      "bɪlivd": 1932,
      "wɪk": 1933,
      "wɪŋ": 1934,
      "ɡɪtɑɹ": 1935,
      "ɹəɡɑɹd": 1936,
      "awd": 1937,
      "æləti": 1938,
      "ɪmɹ": 1939,
      "ʃɛɹ": 1940,
      "ɛndz": 1941,
      "wɪt": 1942,
      "əvejləbəl": 1943,
      "dɪstɪŋ": 1944,
      "dʒəpæn": 1945,
      "læŋɡ": 1946,
      "ɹiplejst": 1947,
      "ɛmpiejtʃ": 1948,
      "ɹajtɹ": 1949,
      "vɹz": 1950,
      "45": 1951,
      "75": 1952,
      "pɹejʃən": 1953,
      "ɑnə": 1954,
      "kæptən": 1955,
      "lɪtɹ": 1956,
      "ɪnvɑlvd": 1957,
      "ɡɹejd": 1958,
      "ɑmɪk": 1959,
      "æstɹ": 1960,
      "ɹliɹ": 1961,
      "jʊɹəpiən": 1962,
      "mɪnəts": 1963,
      "ɛntɹi": 1964,
      "ɛdʒəkejʃən": 1965,
      "ɛktɪvli": 1966,
      "tʃæn": 1967,
      "səsajəti": 1968,
      "əntɹi": 1969,
      "ɔɡ": 1970,
      "stæf": 1971,
      "læŋɡw": 1972,
      "dejt": 1973,
      "vəluʃən": 1974,
      "kənsɹ": 1975,
      "sejɪŋ": 1976,
      "əpɪɹəns": 1977,
      "ɪmidi": 1978,
      "ɹis": 1979,
      "lɪɹ": 1980,
      "tʌ": 1981,
      "fɪz": 1982,
      "ɪnsp": 1983,
      "dɪpɑɹt": 1984,
      "pɑɹtɪk": 1985,
      "ɛtɹ": 1986,
      "kɹaj": 1987,
      "kəmɹ": 1988,
      "səɡnɪfɪkənt": 1989,
      "ɛtɪk": 1990,
      "bæl": 1991,
      "ɛkʃənz": 1992,
      "tv": 1993,
      "əsowsiejʃən": 1994,
      "fɪlmz": 1995,
      "lɑɹdʒəst": 1996,
      "əɡejʃən": 1997,
      "hajəst": 1998,
      "pɑɹtɪkjəlɹli": 1999,
      "bɪɡɪnɪŋ": 2000,
      "sajn": 2001,
      "awtsajd": 2002,
      "klejmd": 2003,
      "2000": 2004,
      "æskt": 2005,
      "sɛm": 2006,
      "ɹisɹtʃ": 2007,
      "tʃɛɹ": 2008,
      "æksɛpt": 2009,
      "ɹɪtʃɹd": 2010,
      "ɹək": 2011,
      "ʒə": 2012,
      "bɛtɹ": 2013,
      "lʊk": 2014,
      "mənənt": 2015,
      "ɔɹdɹd": 2016,
      "vɹdʒɪn": 2017,
      "lown": 2018,
      "tʃɑɹlz": 2019,
      "2001": 2020,
      "lə": 2021,
      "un": 2022,
      "ɡɑ": 2023,
      "flow": 2024,
      "nɑvəl": 2025,
      "pæn": 2026,
      "lɪvɹ": 2027,
      "90": 2028,
      "ɹɪlɪdʒ": 2029,
      "sikw": 2030,
      "stændɹd": 2031,
      "pɹɑm": 2032,
      "lowɹ": 2033,
      "ɹɛlətɪv": 2034,
      "ɪksplej": 2035,
      "ənsi": 2036,
      "ɪntɛns": 2037,
      "tun": 2038,
      "ændəd": 2039,
      "ɪnkɹist": 2040,
      "pitɹ": 2041,
      "ætən": 2042,
      "ɹɪdʒ": 2043,
      "ɹæŋk": 2044,
      "junəts": 2045,
      "ajdi": 2046,
      "pɹejzd": 2047,
      "ɛlf": 2048,
      "pɹɪzən": 2049,
      "kəmjunəti": 2050,
      "ɑdi": 2051,
      "fɪk": 2052,
      "tɹm": 2053,
      "tɑməs": 2054,
      "ɔfɹ": 2055,
      "sɪvəl": 2056,
      "ɪndi": 2057,
      "ɹivjuz": 2058,
      "fejs": 2059,
      "bəlz": 2060,
      "ɑnɹ": 2061,
      "fjutʃɹ": 2062,
      "ækʃənz": 2063,
      "vɪkt": 2064,
      "pʊɹ": 2065,
      "ɪntajɹ": 2066,
      "əbʌv": 2067,
      "ɡəlz": 2068,
      "ɹilejʃənʃɪp": 2069,
      "dɑɹk": 2070,
      "ɑmə": 2071,
      "liən": 2072,
      "ɛʃ": 2073,
      "ðʌs": 2074,
      "æθ": 2075,
      "juʒəwəli": 2076,
      "wɪndz": 2077,
      "2002": 2078,
      "ɡɑt": 2079,
      "pətɪʃən": 2080,
      "sajnd": 2081,
      "ɪnʌf": 2082,
      "jəp": 2083,
      "ɪstɪk": 2084,
      "vajəl": 2085,
      "fɹmejʃən": 2086,
      "ɛts": 2087,
      "stændɪŋ": 2088,
      "hajɹ": 2089,
      "sɔɹs": 2090,
      "nætʃɹəl": 2091,
      "sɹfəs": 2092,
      "pɹiviəsli": 2093,
      "kænədə": 2094,
      "bɹʌðɹ": 2095,
      "ɔɹiə": 2096,
      "fud": 2097,
      "ʃəli": 2098,
      "lajd": 2099,
      "bɑks": 2100,
      "bɹd": 2101,
      "sɹtən": 2102,
      "pɹəfɛ": 2103,
      "njə": 2104,
      "stæn": 2105,
      "kəmɪti": 2106,
      "lɪbɹ": 2107,
      "ɪnfəntɹi": 2108,
      "dajn": 2109,
      "ɪndiən": 2110,
      "ɛləmənts": 2111,
      "əbɪləti": 2112,
      "sinjɹ": 2113,
      "ətɪŋ": 2114,
      "kæləfɔɹ": 2115,
      "kæləfɔɹnjə": 2116,
      "wejt": 2117,
      "pɹajv": 2118,
      "ʃɛl": 2119,
      "ɹisp": 2120,
      "mɪʃ": 2121,
      "towld": 2122,
      "wʊmən": 2123,
      "tɹɪp": 2124,
      "plæt": 2125,
      "hʌn": 2126,
      "hʌ": 2127,
      "lɪk": 2128,
      "bɹɔdkæst": 2129,
      "spid": 2130,
      "ɹim": 2131,
      "mʌni": 2132,
      "æbɹ": 2133,
      "spɛnt": 2134,
      "lɛŋkθ": 2135,
      "hʊd": 2136,
      "ɹipɔɹt": 2137,
      "skwɛɹ": 2138,
      "fimejl": 2139,
      "ɑkjəp": 2140,
      "mɑɹt": 2141,
      "lows": 2142,
      "fow": 2143,
      "tɹnz": 2144,
      "owvɹɔl": 2145,
      "ɡɹups": 2146,
      "ʊɹi": 2147,
      "mæstɹ": 2148,
      "pajl": 2149,
      "fil": 2150,
      "mæk": 2151,
      "dɹɛktəd": 2152,
      "mjuzɪkəl": 2153,
      "pɹfɔɹm": 2154,
      "mæθ": 2155,
      "tɛkn": 2156,
      "fejm": 2157,
      "əlajn": 2158,
      "fejld": 2159,
      "lætɹ": 2160,
      "klow": 2161,
      "bɹɪtən": 2162,
      "dʒɪk": 2163,
      "əfaj": 2164,
      "ɹikwajɹd": 2165,
      "pɹajɹ": 2166,
      "kɛn": 2167,
      "ɪlɛkʃən": 2168,
      "ɹɪspɑns": 2169,
      "kɔɹs": 2170,
      "əɡɹi": 2171,
      "lɪmətəd": 2172,
      "ɛɹow": 2173,
      "sɛnd": 2174,
      "dʒɹməni": 2175,
      "dɪstɹɪkt": 2176,
      "ɡʌvɹnɹ": 2177,
      "fɛst": 2178,
      "mɪkst": 2179,
      "dɑɹ": 2180,
      "əɡow": 2181,
      "əvɹ": 2182,
      "km": 2183,
      "ɛɹəm": 2184,
      "187": 2185,
      "ownə": 2186,
      "ɪtsɛlf": 2187,
      "ɛvədəns": 2188,
      "səmtajmz": 2189,
      "ɪndiə": 2190,
      "ɛntʃəl": 2191,
      "mədʒ": 2192,
      "fɹikw": 2193,
      "ɪɡzɪst": 2194,
      "bətæljən": 2195,
      "ɛnɡejdʒ": 2196,
      "ɪntɹədust": 2197,
      "huz": 2198,
      "məs": 2199,
      "təmz": 2200,
      "sɛns": 2201,
      "lɔs": 2202,
      "stɑɹz": 2203,
      "ɹæn": 2204,
      "pɹsənəl": 2205,
      "fʌŋk": 2206,
      "kɹɪtɪkəl": 2207,
      "mətɪɹiəl": 2208,
      "mitɪŋ": 2209,
      "lajkli": 2210,
      "dæns": 2211,
      "ɔθ": 2212,
      "ɑksəm": 2213,
      "lɪvɪŋ": 2214,
      "ɛktɪŋ": 2215,
      "kɑŋɡɹ": 2216,
      "dɹz": 2217,
      "hum": 2218,
      "jukej": 2219,
      "paj": 2220,
      "məd": 2221,
      "ajləndz": 2222,
      "ejz": 2223,
      "spəs": 2224,
      "θiətɹ": 2225,
      "kɑt": 2226,
      "ɹɪpt": 2227,
      "howst": 2228,
      "bɪʃ": 2229,
      "ɹɛm": 2230,
      "sejl": 2231,
      "æntɪk": 2232,
      "ɔlɹɛdi": 2233,
      "tʃowz": 2234,
      "fəli": 2235,
      "pɹuv": 2236,
      "ɹowmən": 2237,
      "ʃli": 2238,
      "flajt": 2239,
      "tajtəld": 2240,
      "æɡən": 2241,
      "ɑɡow": 2242,
      "tədʒ": 2243,
      "mɪɹ": 2244,
      "lɑk": 2245,
      "pɹɑb": 2246,
      "sowvi": 2247,
      "əpɹɑksəm": 2248,
      "hɑt": 2249,
      "kejp": 2250,
      "dɹu": 2251,
      "kɹənt": 2252,
      "ajdiə": 2253,
      "ɹɪtʃ": 2254,
      "mawnt": 2255,
      "luɪs": 2256,
      "majnd": 2257,
      "ajzɪŋ": 2258,
      "ʃin": 2259,
      "studənts": 2260,
      "mæs": 2261,
      "ændʒəl": 2262,
      "dɪtɹ": 2263,
      "kwɪkli": 2264,
      "ɡɹl": 2265,
      "dʒʌ": 2266,
      "ɪkspɪɹiəns": 2267,
      "ajdz": 2268,
      "ɹajvd": 2269,
      "ejtɹz": 2270,
      "dɛz": 2271,
      "sɪkjʊɹ": 2272,
      "tɹæks": 2273,
      "pɑɹl": 2274,
      "ɔk": 2275,
      "tʃɛstɹ": 2276,
      "tɹit": 2277,
      "ɹv": 2278,
      "ɛntɹtejn": 2279,
      "ɪfɛkts": 2280,
      "æktʃ": 2281,
      "spɹɪŋ": 2282,
      "muvmənt": 2283,
      "ɑnt": 2284,
      "bit": 2285,
      "mɛksək": 2286,
      "æləɡ": 2287,
      "skɹin": 2288,
      "sɪtʃu": 2289,
      "33": 2290,
      "bæŋk": 2291,
      "ətʃɹ": 2292,
      "kəmændɹ": 2293,
      "pɔɹts": 2294,
      "ɡæ": 2295,
      "pɹɛmɪɹ": 2296,
      "ʒəwəl": 2297,
      "juʃən": 2298,
      "dɪstɹoj": 2299,
      "dejbju": 2300,
      "muvɪŋ": 2301,
      "əɡɹid": 2302,
      "bɹθ": 2303,
      "fɪfθ": 2304,
      "majt": 2305,
      "dɪp": 2306,
      "ɪspɛ": 2307,
      "ɪspɛʃli": 2308,
      "ʌpɹ": 2309,
      "pɹɪvɛnt": 2310,
      "dɪsɪʒən": 2311,
      "mɛm": 2312,
      "pɹs": 2313,
      "sɹvəsəz": 2314,
      "dɪpɑɹtmənt": 2315,
      "sinz": 2316,
      "fə": 2317,
      "mɛs": 2318,
      "vɛn": 2319,
      "timz": 2320,
      "ʃowz": 2321,
      "sɹt": 2322,
      "ɑpɹejʃənz": 2323,
      "sæ": 2324,
      "vɪlədʒ": 2325,
      "vojs": 2326,
      "sajəns": 2327,
      "spəsɪfɪk": 2328,
      "plejn": 2329,
      "awz": 2330,
      "biə": 2331,
      "dɪkl": 2332,
      "ɪndəstɹi": 2333,
      "lɪt": 2334,
      "kʌlɹ": 2335,
      "lɑɹdʒɹ": 2336,
      "kəmɹʃəl": 2337,
      "pæk": 2338,
      "bɪkʌmɪŋ": 2339,
      "blɑk": 2340,
      "ɹɪmejnɪŋ": 2341,
      "təɡɹ": 2342,
      "pɹɛʃɹ": 2343,
      "ɛstəmejtəd": 2344,
      "fɔɹt": 2345,
      "ʃək": 2346,
      "ajɹən": 2347,
      "dɪfitəd": 2348,
      "kæɹid": 2349,
      "ədʒən": 2350,
      "36": 2351,
      "kʌmɪŋ": 2352,
      "mɛθ": 2353,
      "ejdz": 2354,
      "pɹtʃ": 2355,
      "æksɛs": 2356,
      "hɑsp": 2357,
      "mɛɹid": 2358,
      "pawnd": 2359,
      "sejn": 2360,
      "tʌnz": 2361,
      "bk": 2362,
      "fɪnɪʃ": 2363,
      "ɹɪlejtɪd": 2364,
      "bʊks": 2365,
      "wɪntɹ": 2366,
      "ɑts": 2367,
      "plɑt": 2368,
      "ɹʌnɪŋ": 2369,
      "ɹajz": 2370,
      "sɹawnd": 2371,
      "tɛkst": 2372,
      "ɑɡɹəfi": 2373,
      "ɑki": 2374,
      "hæn": 2375,
      "livɪŋ": 2376,
      "37": 2377,
      "fɪt": 2378,
      "ɹæm": 2379,
      "ɪnfluəns": 2380,
      "nejvəl": 2381,
      "pɹsɛnt": 2382,
      "ɛpəsowdz": 2383,
      "vənu": 2384,
      "kəndʌk": 2385,
      "ɛli": 2386,
      "wɪnɪŋ": 2387,
      "pətɹ": 2388,
      "tʃejndʒəz": 2389,
      "1999": 2390,
      "sʌl": 2391,
      "vɹdʒɪnjə": 2392,
      "ɹajvəl": 2393,
      "dɪsplej": 2394,
      "sænd": 2395,
      "ɹɪʃ": 2396,
      "səɡdʒɛstəd": 2397,
      "kwɔɹtɹ": 2398,
      "ɛntɹd": 2399,
      "nɪɹli": 2400,
      "dɪpɹɛʃən": 2401,
      "diowz": 2402,
      "ɪʃənz": 2403,
      "ʃənd": 2404,
      "dɑkjəm": 2405,
      "əpojntəd": 2406,
      "æpəl": 2407,
      "hɛlθ": 2408,
      "əpɹɑksəmətli": 2409,
      "hɔɹs": 2410,
      "mɹəs": 2411,
      "ɔɹiəl": 2412,
      "pɹowt": 2413,
      "twɛn": 2414,
      "ɪstæblɪʃ": 2415,
      "fɛdɹəl": 2416,
      "mɛnt": 2417,
      "ʃɑɹ": 2418,
      "ɛɹəktɹ": 2419,
      "tʃejndʒd": 2420,
      "stej": 2421,
      "flæɡ": 2422,
      "kowtʃ": 2423,
      "læŋɡwədʒ": 2424,
      "ɔlt": 2425,
      "ʃɔɹtli": 2426,
      "ɔld": 2427,
      "lɛt": 2428,
      "ɡejn": 2429,
      "tədej": 2430,
      "fajnəli": 2431,
      "ɛmpajɹ": 2432,
      "sɛʃən": 2433,
      "sæl": 2434,
      "ɔfɹd": 2435,
      "dɔtɹ": 2436,
      "nɛtwɹk": 2437,
      "dʒæksən": 2438,
      "38": 2439,
      "wɛb": 2440,
      "fɔɹwɹd": 2441,
      "ɑnz": 2442,
      "wu": 2443,
      "ʃʊɹ": 2444,
      "dɪstɹojd": 2445,
      "ədv": 2446,
      "pɹəpowzd": 2447,
      "mɪt": 2448,
      "kɹɪtɪs": 2449,
      "kæmp": 2450,
      "spɪɹ": 2451,
      "kɑntɹækt": 2452,
      "əɡejd": 2453,
      "pɹədusɹ": 2454,
      "spænɪʃ": 2455,
      "twɛnti": 2456,
      "ækts": 2457,
      "sɛlvz": 2458,
      "32": 2459,
      "49": 2460,
      "liv": 2461,
      "ɪɡən": 2462,
      "jow": 2463,
      "pɹajvət": 2464,
      "pɹəfɛʃənəl": 2465,
      "sʌbsəkwəntli": 2466,
      "kæptʃɹd": 2467,
      "θɹɛt": 2468,
      "flʌ": 2469,
      "kənfɹ": 2470,
      "tək": 2471,
      "ɪntɹvju": 2472,
      "ɹejlwej": 2473,
      "fɹɛndz": 2474,
      "ɹɛfɹəns": 2475,
      "kəmpɛɹd": 2476,
      "kɑnstət": 2477,
      "θɪk": 2478,
      "ɪntɛndəd": 2479,
      "dɑl": 2480,
      "jəlejʃən": 2481,
      "ɪmidiətli": 2482,
      "ɹən": 2483,
      "sajənt": 2484,
      "məʃin": 2485,
      "pul": 2486,
      "biən": 2487,
      "bɹəɡejd": 2488,
      "ɛlow": 2489,
      "nejtʃɹ": 2490,
      "dɑktɹ": 2491,
      "nid": 2492,
      "tɹow": 2493,
      "ŋɡ": 2494,
      "ɔltɹn": 2495,
      "səpɔɹtəd": 2496,
      "plænd": 2497,
      "dʒɹnəl": 2498,
      "lowkejʃən": 2499,
      "fænz": 2500,
      "lejn": 2501,
      "sowviət": 2502,
      "mjuziəm": 2503,
      "ɹɛɡjəlɹ": 2504,
      "tejnd": 2505,
      "ʌltəm": 2506,
      "majnɹ": 2507,
      "ɪnvajɹən": 2508,
      "ɪɡn": 2509,
      "dip": 2510,
      "bæd": 2511,
      "owʃən": 2512,
      "sɪɹi": 2513,
      "ɹɛzəd": 2514,
      "væli": 2515,
      "lajnd": 2516,
      "ɡɹæn": 2517,
      "əlɑdʒɪkəl": 2518,
      "ɪnkɹisɪŋ": 2519,
      "əwɔɹdəd": 2520,
      "tʃajniz": 2521,
      "ɛdwɹd": 2522,
      "mɹi": 2523,
      "dil": 2524,
      "kɹiejt": 2525,
      "plænt": 2526,
      "ʌmp": 2527,
      "hɛlpt": 2528,
      "skow": 2529,
      "spɹɛd": 2530,
      "kɑmpətɪʃən": 2531,
      "ʃəkɑɡow": 2532,
      "mænədʒɹ": 2533,
      "æktɪŋ": 2534,
      "swɪ": 2535,
      "dʒɑb": 2536,
      "sowldʒɹz": 2537,
      "ɔfəsɹ": 2538,
      "ɪʃud": 2539,
      "kɑnfɹəns": 2540,
      "fɑɹm": 2541,
      "ɪkə": 2542,
      "bɪldɪŋz": 2543,
      "lɔŋɡɹ": 2544,
      "tɛks": 2545,
      "fəsɪl": 2546,
      "əməm": 2547,
      "tajt": 2548,
      "bɪlbɔɹd": 2549,
      "spɔɹts": 2550,
      "1998": 2551,
      "dejli": 2552,
      "jɛt": 2553,
      "fejl": 2554,
      "185": 2555,
      "əlaj": 2556,
      "fɛstəv": 2557,
      "300": 2558,
      "plænz": 2559,
      "pɑsəb": 2560,
      "diən": 2561,
      "ɛnʃəl": 2562,
      "mit": 2563,
      "ɛmploj": 2564,
      "ɪmpækt": 2565,
      "ʃəs": 2566,
      "dʒɑnsən": 2567,
      "34": 2568,
      "kɹɪstʃən": 2569,
      "kənklud": 2570,
      "sʌmθɪŋ": 2571,
      "əsowsiejtəd": 2572,
      "ədʌl": 2573,
      "ɹɛdʒəmənt": 2574,
      "mɹin": 2575,
      "ɪnstɹ": 2576,
      "mɑɹkt": 2577,
      "ɔfəsɹz": 2578,
      "sajzd": 2579,
      "dʒaj": 2580,
      "lʊ": 2581,
      "ɛɹiz": 2582,
      "ɹɪmejnz": 2583,
      "tɑɹɡ": 2584,
      "mowstli": 2585,
      "ɪfɛkt": 2586,
      "əsən": 2587,
      "læntɪk": 2588,
      "mɛtəl": 2589,
      "mɑdəl": 2590,
      "tɛm": 2591,
      "tw": 2592,
      "ðɛmsɛlvz": 2593,
      "sɪŋɡəlz": 2594,
      "pəsɪfɪk": 2595,
      "sejlz": 2596,
      "ətlæntɪk": 2597,
      "æktɹz": 2598,
      "1stɹit": 2599,
      "ɑɹkət": 2600,
      "lɛdʒəs": 2601,
      "ɪnfɹmejʃən": 2602,
      "ɪkstɛndəd": 2603,
      "pɹɑbəbli": 2604,
      "ɪnɪʃəl": 2605,
      "kʌntɹiz": 2606,
      "ɑv": 2607,
      "lɪɹɪks": 2608,
      "wejlz": 2609,
      "dək": 2610,
      "wajld": 2611,
      "əsɛm": 2612,
      "ʃej": 2613,
      "jɹz": 2614,
      "48": 2615,
      "numɹəs": 2616,
      "kənejdi": 2617,
      "sɪs": 2618,
      "ɛθ": 2619,
      "əpɪɹz": 2620,
      "fowkəs": 2621,
      "ɹəl": 2622,
      "owlɪmp": 2623,
      "ɪmən": 2624,
      "kɑɹd": 2625,
      "kɑpiz": 2626,
      "mɔɹnɪŋ": 2627,
      "tʃajnə": 2628,
      "ɔlwejz": 2629,
      "ɹɪkwɛst": 2630,
      "mæd": 2631,
      "pəlz": 2632,
      "ʊɹd": 2633,
      "dɪmænd": 2634,
      "ɪntʃ": 2635,
      "æts": 2636,
      "bɑt": 2637,
      "sæk": 2638,
      "kæpətəl": 2639,
      "pɹipɛɹ": 2640,
      "bajnd": 2641,
      "blʌd": 2642,
      "ɹajd": 2643,
      "pɹajm": 2644,
      "mɑnt": 2645,
      "ɹɛɹ": 2646,
      "ɛnɹdʒi": 2647,
      "pik": 2648,
      "tʃənt": 2649,
      "dɪfəkəlt": 2650,
      "sɪŋɹ": 2651,
      "pɹajmɛɹi": 2652,
      "iv": 2653,
      "kɑŋɡɹəs": 2654,
      "ɪnsajd": 2655,
      "stætəs": 2656,
      "bækɡɹawnd": 2657,
      "dɪdʒ": 2658,
      "əbɪlɪti": 2659,
      "ɪnkludz": 2660,
      "vajə": 2661,
      "sʌfɹd": 2662,
      "sɪd": 2663,
      "wɹθ": 2664,
      "1997": 2665,
      "tɹɪk": 2666,
      "ədvæn": 2667,
      "junət": 2668,
      "muvi": 2669,
      "bɑnd": 2670,
      "fənæn": 2671,
      "ɪɡzɛk": 2672,
      "ɹul": 2673,
      "kip": 2674,
      "39": 2675,
      "vowk": 2676,
      "kɹuz": 2677,
      "mejlz": 2678,
      "pɹɑbləmz": 2679,
      "ɪnspajɹd": 2680,
      "jɑɹdz": 2681,
      "bowt": 2682,
      "flɔɹədə": 2683,
      "ɪləti": 2684,
      "ælbəmz": 2685,
      "dʒʌdʒ": 2686,
      "lɛtɹ": 2687,
      "dʒunjɹ": 2688,
      "klowzd": 2689,
      "əfɹ": 2690,
      "ətæks": 2691,
      "mɪtəd": 2692,
      "tɛɹɪt": 2693,
      "ɪstəns": 2694,
      "tejks": 2695,
      "ɪnkɹis": 2696,
      "47": 2697,
      "pəzɪʃənz": 2698,
      "nɛs": 2699,
      "ɹimuvd": 2700,
      "klɪn": 2701,
      "ɪɹiɹ": 2702,
      "dɛn": 2703,
      "pɪɹ": 2704,
      "skɹɪpt": 2705,
      "ænjuəl": 2706,
      "kəntɹɪb": 2707,
      "ɪŋk": 2708,
      "ɪndɪpɛndənt": 2709,
      "hɑspɪtəl": 2710,
      "kəp": 2711,
      "kʌvɹd": 2712,
      "əfəkejʃən": 2713,
      "pɹɪnsəp": 2714,
      "nejtɪv": 2715,
      "kɹik": 2716,
      "tɛksəs": 2717,
      "tɹmz": 2718,
      "ɹejzd": 2719,
      "ɹitʃ": 2720,
      "fət": 2721,
      "fɔɹən": 2722,
      "ɹɛvəluʃən": 2723,
      "nejʃən": 2724,
      "ɪɡzɛkjətɪv": 2725,
      "dɪskʌvɹd": 2726,
      "fajtɪŋ": 2727,
      "ɹɛn": 2728,
      "ætə": 2729,
      "mədʒɔɹəti": 2730,
      "dɹʌm": 2731,
      "wajɹ": 2732,
      "ʃown": 2733,
      "dɪpl": 2734,
      "kɑmbæt": 2735,
      "vih": 2736,
      "tejʃən": 2737,
      "mɪnut": 2738,
      "lɑt": 2739,
      "mænj": 2740,
      "stɑk": 2741,
      "ɔɹɡənajzd": 2742,
      "əpɹowtʃ": 2743,
      "ədɑp": 2744,
      "æktəd": 2745,
      "dʒɛkts": 2746,
      "sɪmp": 2747,
      "kəmpowzd": 2748,
      "kɛɹəktɹ": 2749,
      "ɡowlz": 2750,
      "ɡɹɪ": 2751,
      "ɪksk": 2752,
      "ɹæŋkt": 2753,
      "əsajnd": 2754,
      "fæst": 2755,
      "mɑɹkət": 2756,
      "fɑlow": 2757,
      "ajdəd": 2758,
      "fs": 2759,
      "jum": 2760,
      "ɡɪvɪŋ": 2761,
      "mejks": 2762,
      "kʌltʃɹ": 2763,
      "ajɹn": 2764,
      "təz": 2765,
      "ɪndəvɪdʒəwəl": 2766,
      "θim": 2767,
      "sɪstɹ": 2768,
      "ɛntɹtejnmənt": 2769,
      "dæmədʒd": 2770,
      "fɔɹəst": 2771,
      "dɛp": 2772,
      "kənejdiən": 2773,
      "ɹʌʃən": 2774,
      "izi": 2775,
      "mʌltə": 2776,
      "vejn": 2777,
      "sli": 2778,
      "tɪm": 2779,
      "pɹtɪk": 2780,
      "hə": 2781,
      "pɪt": 2782,
      "fæ": 2783,
      "lɔntʃt": 2784,
      "θɪŋk": 2785,
      "kɔɹəs": 2786,
      "æfɹəkə": 2787,
      "səlɛktəd": 2788,
      "ɹɪvild": 2789,
      "kɹɪk": 2790,
      "sɪklown": 2791,
      "ɛɹz": 2792,
      "ɹowdz": 2793,
      "lɛn": 2794,
      "mɛɹɪdʒ": 2795,
      "owldɹ": 2796,
      "kəndɪʃənz": 2797,
      "mɑɹtən": 2798,
      "sɛtəl": 2799,
      "ətejʃən": 2800,
      "ædmɹ": 2801,
      "lɪvd": 2802,
      "təv": 2803,
      "ətækt": 2804,
      "ɡɹejtɹ": 2805,
      "ənejbəl": 2806,
      "fɪɡjɹ": 2807,
      "ɑni": 2808,
      "ɹəb": 2809,
      "dɛməkɹ": 2810,
      "46": 2811,
      "ɹɪspɛktɪvli": 2812,
      "pɹtɪkjəlɹ": 2813,
      "ɹɪst": 2814,
      "æɡɹ": 2815,
      "səsp": 2816,
      "ɪlɛktəd": 2817,
      "bɪlow": 2818,
      "mɪk": 2819,
      "kajnd": 2820,
      "ændʒəlɪs": 2821,
      "nʌmbɹz": 2822,
      "ɪʃuz": 2823,
      "nidəd": 2824,
      "smɔlɹ": 2825,
      "fʌn": 2826,
      "ɹn": 2827,
      "ɡlow": 2828,
      "pɹɑv": 2829,
      "skɑl": 2830,
      "ədvæns": 2831,
      "kəntejnz": 2832,
      "ajɪi": 2833,
      "ɛɹəti": 2834,
      "ətɛmptəd": 2835,
      "ɛdʒʊ": 2836,
      "kɹɪs": 2837,
      "bown": 2838,
      "skɛdʒʊ": 2839,
      "bɹu": 2840,
      "ɹejtəd": 2841,
      "1995": 2842,
      "əkɹd": 2843,
      "stivən": 2844,
      "tɹədɪʃənəl": 2845,
      "2nd": 2846,
      "nuzpejpɹ": 2847,
      "dɪpɪk": 2848,
      "ɹajtɹz": 2849,
      "ɪmpɹuv": 2850,
      "ɛntɪŋ": 2851,
      "dəl": 2852,
      "ɹɪv": 2853,
      "ɡɑm": 2854,
      "səvɪɹ": 2855,
      "kəntɛmpɹ": 2856,
      "ɹnd": 2857,
      "fɹæŋk": 2858,
      "stɹejt": 2859,
      "nʌ": 2860,
      "ɔɹk": 2861,
      "dɪfit": 2862,
      "paw": 2863,
      "kɔɹpɹ": 2864,
      "ejdiəm": 2865,
      "sejf": 2866,
      "təsi": 2867,
      "ikw": 2868,
      "19tiejtʃ": 2869,
      "ɹəfɹd": 2870,
      "fɛstəvəl": 2871,
      "slajt": 2872,
      "ɪmədʒ": 2873,
      "ɛɹiən": 2874,
      "əmən": 2875,
      "bɑk": 2876,
      "ɹɪlɪdʒəs": 2877,
      "ɡejt": 2878,
      "dʒənsi": 2879,
      "ɡɛst": 2880,
      "nowts": 2881,
      "ænθ": 2882,
      "stɔɹiz": 2883,
      "pɹɪn": 2884,
      "spɛs": 2885,
      "sɪlvɹ": 2886,
      "1950": 2887,
      "hajdɹ": 2888,
      "1996": 2889,
      "ɛɹɪk": 2890,
      "skulz": 2891,
      "mɪstɹ": 2892,
      "əsajd": 2893,
      "ɑdiəns": 2894,
      "slej": 2895,
      "lɑɹdʒli": 2896,
      "ɹɪzʌltɪd": 2897,
      "pɑlət": 2898,
      "klu": 2899,
      "2016": 2900,
      "inə": 2901,
      "skɹ": 2902,
      "ɛkənɑmɪk": 2903,
      "ɔθɹ": 2904,
      "jutɹ": 2905,
      "nil": 2906,
      "dʌbəlju": 2907,
      "stɛp": 2908,
      "pɹowd": 2909,
      "lɪstəd": 2910,
      "əkʌm": 2911,
      "kæptʃɹ": 2912,
      "vɹajəti": 2913,
      "tʃælən": 2914,
      "wɑnt": 2915,
      "bɪʃəp": 2916,
      "əlti": 2917,
      "ɹizən": 2918,
      "əbænd": 2919,
      "kɑmplɛks": 2920,
      "ləm": 2921,
      "kɑntɹəvɹ": 2922,
      "stɑɹtɪŋ": 2923,
      "kəlɛkʃən": 2924,
      "mawntən": 2925,
      "tawɹ": 2926,
      "pəz": 2927,
      "ɡɹædʒu": 2928,
      "əmætɪk": 2929,
      "ɪkəli": 2930,
      "1994": 2931,
      "nejmz": 2932,
      "dvd": 2933,
      "tɹæfɪk": 2934,
      "kɑmɛntəd": 2935,
      "ɪkspɛktəd": 2936,
      "mɑl": 2937,
      "fɑks": 2938,
      "kowd": 2939,
      "pɑɹləmənt": 2940,
      "ɪtæljən": 2941,
      "stiv": 2942,
      "ajm": 2943,
      "dʒɪkt": 2944,
      "ətɛnʃən": 2945,
      "sid": 2946,
      "ɔɹɡənəzejʃən": 2947,
      "ɛndʒənɪɹ": 2948,
      "pʌblɪʃ": 2949,
      "55": 2950,
      "kwɔɹtɹz": 2951,
      "mɛntəl": 2952,
      "pɹpəs": 2953,
      "liɡəl": 2954,
      "ɹəfjuzd": 2955,
      "mɪʃɪɡən": 2956,
      "ɛsɹ": 2957,
      "hɹd": 2958,
      "ɹæpəd": 2959,
      "hæbət": 2960,
      "dʒɪŋ": 2961,
      "ɡɹejtəst": 2962,
      "ətut": 2963,
      "ik": 2964,
      "ædmɪn": 2965,
      "dɹajv": 2966,
      "pɹfɔɹmənsəz": 2967,
      "ɹɪpi": 2968,
      "kɛm": 2969,
      "θɪŋz": 2970,
      "stil": 2971,
      "180": 2972,
      "tɹajd": 2973,
      "kætəɡ": 2974,
      "bæs": 2975,
      "dəb": 2976,
      "məm": 2977,
      "ɔltɹ": 2978,
      "majl": 2979,
      "əmawnt": 2980,
      "bɹdz": 2981,
      "bɹowk": 2982,
      "mætʃəz": 2983,
      "kɹɔ": 2984,
      "ɛlədʒ": 2985,
      "dɪklɛɹd": 2986,
      "sɛpɹət": 2987,
      "sʌbdʒɪkt": 2988,
      "fɪləp": 2989,
      "tæks": 2990,
      "viɛt": 2991,
      "ɹizɛntəd": 2992,
      "kejn": 2993,
      "vowkəlz": 2994,
      "hʌndɹ": 2995,
      "ɪnɹ": 2996,
      "də": 2997,
      "ædmɪnɪstɹ": 2998,
      "əkʌmpəni": 2999,
      "lɛvəlz": 3000,
      "stejdiəm": 3001,
      "44": 3002,
      "ɹejtɪŋ": 3003,
      "vɛs": 3004,
      "əwɛɹ": 3005,
      "pɹədus": 3006,
      "mɹdɹ": 3007,
      "kɑnfl": 3008,
      "nɪɹbaj": 3009,
      "pɹæktəs": 3010,
      "pɹowdus": 3011,
      "ɪʃənt": 3012,
      "sɛkʃu": 3013,
      "tɛnənt": 3014,
      "ʃowd": 3015,
      "pɛɹəl": 3016,
      "kənstɹʌktəd": 3017,
      "ɹɪsɛpʃən": 3018,
      "ɹɑd": 3019,
      "fæntəsi": 3020,
      "kɑnsɹt": 3021,
      "vowt": 3022,
      "kæθ": 3023,
      "sikɹ": 3024,
      "tʌtʃ": 3025,
      "ɪtəd": 3026,
      "nukli": 3027,
      "pæl": 3028,
      "dʒɪm": 3029,
      "zb": 3030,
      "hajli": 3031,
      "əkejʒən": 3032,
      "sɪstəmz": 3033,
      "ɛkstɹ": 3034,
      "kʌst": 3035,
      "əvojd": 3036,
      "minz": 3037,
      "ɪkspɹɛs": 3038,
      "1992": 3039,
      "skejl": 3040,
      "ɹəs": 3041,
      "əks": 3042,
      "ɡəst": 3043,
      "owzɪŋ": 3044,
      "ejʒə": 3045,
      "loj": 3046,
      "vowkəl": 3047,
      "niə": 3048,
      "65": 3049,
      "bæn": 3050,
      "zilənd": 3051,
      "mɛdəkəl": 3052,
      "ɹɪpʌblɪk": 3053,
      "ɡæs": 3054,
      "bɪhej": 3055,
      "sajkəl": 3056,
      "ɪndək": 3057,
      "bɹænd": 3058,
      "dɹɛktli": 3059,
      "ʌltəmətli": 3060,
      "lajbɹ": 3061,
      "pæsɪŋ": 3062,
      "owtɛl": 3063,
      "dɹɛkʃən": 3064,
      "sajdz": 3065,
      "æfɹəkən": 3066,
      "mæl": 3067,
      "ɛfɹt": 3068,
      "pɹizɛntəd": 3069,
      "ɹədust": 3070,
      "sɛkɹ": 3071,
      "kəmpi": 3072,
      "mɛksəkow": 3073,
      "sejnt": 3074,
      "ɡejnd": 3075,
      "tʃoj": 3076,
      "nowt": 3077,
      "stejtɪŋ": 3078,
      "ɹɛkəm": 3079,
      "hawsəz": 3080,
      "ɔft": 3081,
      "kɛɹi": 3082,
      "20tiejtʃ": 3083,
      "jusəz": 3084,
      "hɪp": 3085,
      "ænəməlz": 3086,
      "sæt": 3087,
      "wʊl": 3088,
      "ɛfɹts": 3089,
      "pɑnd": 3090,
      "sɛks": 3091,
      "ownd": 3092,
      "dʒənz": 3093,
      "ətɛndəd": 3094,
      "ɑnsəbəl": 3095,
      "stʌdiz": 3096,
      "əpɑɹt": 3097,
      "æksɛptɪd": 3098,
      "sut": 3099,
      "1930": 3100,
      "fɔɹmejʃən": 3101,
      "fənænʃəl": 3102,
      "bɑb": 3103,
      "tɹajəl": 3104,
      "sɛɹəm": 3105,
      "sɛtɪŋ": 3106,
      "sɛləbɹ": 3107,
      "400": 3108,
      "əkæd": 3109,
      "mədɑnə": 3110,
      "nɑm": 3111,
      "spɛkt": 3112,
      "wə": 3113,
      "dɹæft": 3114,
      "nɑk": 3115,
      "ɑɹki": 3116,
      "pɛ": 3117,
      "bɪɡɪnz": 3118,
      "pejd": 3119,
      "skʌl": 3120,
      "ɛnəmi": 3121,
      "ownɹ": 3122,
      "ætʃ": 3123,
      "ɹɛstɹ": 3124,
      "1991": 3125,
      "sɛkɹətɛɹi": 3126,
      "ɑɹmz": 3127,
      "kejsəz": 3128,
      "ɪlɪmən": 3129,
      "skɑtlənd": 3130,
      "1993": 3131,
      "minɪŋ": 3132,
      "ɡɛɹ": 3133,
      "ɹiɪn": 3134,
      "mʌltəpəl": 3135,
      "ɹt": 3136,
      "flajɪŋ": 3137,
      "pɛɹənts": 3138,
      "ɛɹpɔɹt": 3139,
      "kɪd": 3140,
      "bitʃ": 3141,
      "dʒownz": 3142,
      "95": 3143,
      "ɪkstɹim": 3144,
      "ɹispɑnsəbəl": 3145,
      "pajlət": 3146,
      "mænədʒd": 3147,
      "owv": 3148,
      "ɹuts": 3149,
      "mɛʒ": 3150,
      "ɡɹik": 3151,
      "ɹɪzʌltɪŋ": 3152,
      "hɪɹow": 3153,
      "kɛpt": 3154,
      "ɑɹtɪl": 3155,
      "dɑmən": 3156,
      "dɹɑpt": 3157,
      "tʊɹn": 3158,
      "bəld": 3159,
      "kɪn": 3160,
      "pejntɪŋ": 3161,
      "nɛsəs": 3162,
      "tʊɹnəmənt": 3163,
      "æŋɡəl": 3164,
      "əkædəmi": 3165,
      "ɑɹθɹ": 3166,
      "wund": 3167,
      "ɛmpɹɹ": 3168,
      "pɑləsi": 3169,
      "əθɔɹəti": 3170,
      "ɑɹts": 3171,
      "ɪkstɹ": 3172,
      "wɪlj": 3173,
      "ɑɹi": 3174,
      "kwɑləti": 3175,
      "dʌtʃ": 3176,
      "kɪŋz": 3177,
      "ɑɹmd": 3178,
      "kɛɹəlajn": 3179,
      "pejdʒ": 3180,
      "læn": 3181,
      "fɹæn": 3182,
      "ɹɑb": 3183,
      "howtɛl": 3184,
      "pæsən": 3185,
      "kəlʌm": 3186,
      "kəmbajnd": 3187,
      "ɛntətɪv": 3188,
      "vej": 3189,
      "ɪnkɔɹpɹ": 3190,
      "lutɛnənt": 3191,
      "θɪɹi": 3192,
      "dɪskʌv": 3193,
      "fawndəd": 3194,
      "dʒows": 3195,
      "kəntɪnjuz": 3196,
      "pɹɑpɹti": 3197,
      "mʊɹ": 3198,
      "ɪntʃəz": 3199,
      "bɔɹdɹ": 3200,
      "ɑɹtɪlɹi": 3201,
      "hɛɹi": 3202,
      "tʃejm": 3203,
      "sʌbsəkwənt": 3204,
      "lət": 3205,
      "ɪkəlz": 3206,
      "ɑɹtəsts": 3207,
      "kəntɛmpɹɛɹi": 3208,
      "ʌɡəl": 3209,
      "ətɛmpts": 3210,
      "ɡwɪ": 3211,
      "æləɡz": 3212,
      "bibi": 3213,
      "ɹɛkəɡnajzd": 3214,
      "tɛɹɪtɔɹi": 3215,
      "əndz": 3216,
      "nɔɹθist": 3217,
      "kʌpəl": 3218,
      "ævənu": 3219,
      "umd": 3220,
      "ətɛnd": 3221,
      "dʒowsəf": 3222,
      "tɹænspɔɹt": 3223,
      "pɹɪd": 3224,
      "ɹɪsk": 3225,
      "pɹɛzəns": 3226,
      "ʃɪɹ": 3227,
      "kʌmpəniz": 3228,
      "nʌn": 3229,
      "ɪft": 3230,
      "ædmɪnɪstɹejʃən": 3231,
      "pɹf": 3232,
      "mɛtɹz": 3233,
      "vjuɹz": 3234,
      "ɪzəb": 3235,
      "wɪljəmz": 3236,
      "ɹipʌbl": 3237,
      "ɹɛpɹəzɛntətɪv": 3238,
      "pɹajmɛɹ": 3239,
      "əlajd": 3240,
      "əlawɪŋ": 3241,
      "ɡaj": 3242,
      "θawz": 3243,
      "studiowz": 3244,
      "sɪksθ": 3245,
      "pɹəpowz": 3246,
      "əkɑm": 3247,
      "əfɪʃəlz": 3248,
      "ɹisənt": 3249,
      "pɹɛd": 3250,
      "kəndʌktəd": 3251,
      "fiə": 3252,
      "pɪ": 3253,
      "mejntejn": 3254,
      "kɑnsən": 3255,
      "kənæl": 3256,
      "æktɪvəti": 3257,
      "twɛl": 3258,
      "ɛsɪv": 3259,
      "ɹɪspɑnd": 3260,
      "ʃɑp": 3261,
      "dɪdʒətəl": 3262,
      "əlown": 3263,
      "sɪməl": 3264,
      "lændz": 3265,
      "fɪzɪkəl": 3266,
      "1942": 3267,
      "tɛmpəl": 3268,
      "plejz": 3269,
      "lowd": 3270,
      "sɛlɪŋ": 3271,
      "spaj": 3272,
      "ɹɪpɛɹ": 3273,
      "78": 3274,
      "skɔɹɪŋ": 3275,
      "ɪkstɛnsɪv": 3276,
      "ɪfɛktɪv": 3277,
      "sɛts": 3278,
      "ɑpɹtun": 3279,
      "tɹænsfɹd": 3280,
      "ɪmpl": 3281,
      "tɹədɪʃən": 3282,
      "ɪnvɛstəɡ": 3283,
      "səplaj": 3284,
      "lejdi": 3285,
      "kowld": 3286,
      "64": 3287,
      "majk": 3288,
      "pətɛnʃəl": 3289,
      "tɔɹpi": 3290,
      "dɛmən": 3291,
      "ɛlə": 3292,
      "dʒʌstəs": 3293,
      "pikt": 3294,
      "tʃejmbɹ": 3295,
      "kʌltʃɹəl": 3296,
      "bɛd": 3297,
      "mæksəməm": 3298,
      "dɪstəns": 3299,
      "ɑnəmi": 3300,
      "kændəd": 3301,
      "kɔɹn": 3302,
      "dɪpɑɹ": 3303,
      "ɡɹænt": 3304,
      "mætɹ": 3305,
      "pɪn": 3306,
      "fɪlmɪŋ": 3307,
      "ðɛɹfɔɹ": 3308,
      "pɹajmɛɹəli": 3309,
      "stɹɛŋkθ": 3310,
      "ɹɛlətɪvli": 3311,
      "fitʃɹɪŋ": 3312,
      "əsəs": 3313,
      "dɪʃ": 3314,
      "dejtə": 3315,
      "kʌmz": 3316,
      "dɪziz": 3317,
      "bɪkʌmz": 3318,
      "studənt": 3319,
      "səst": 3320,
      "ændi": 3321,
      "ɑli": 3322,
      "ejnz": 3323,
      "fɹz": 3324,
      "bʊʃ": 3325,
      "ɑɹtʃ": 3326,
      "æktʃəwəli": 3327,
      "ɑksfɹd": 3328,
      "dɛzɪɡn": 3329,
      "ɛmən": 3330,
      "sɪtʃuejʃən": 3331,
      "pɔɹʃən": 3332,
      "ɔɹdɹz": 3333,
      "kənvɹ": 3334,
      "ɛld": 3335,
      "tɹʌst": 3336,
      "tɹejl": 3337,
      "kənkludəd": 3338,
      "kɑntækt": 3339,
      "lɪs": 3340,
      "bɹæd": 3341,
      "ɪkstʃ": 3342,
      "pɹɪ": 3343,
      "ɹipʌblək": 3344,
      "tæk": 3345,
      "hɛɹɪsən": 3346,
      "wɑɹ": 3347,
      "tʃəl": 3348,
      "kɡ": 3349,
      "ɹəfl": 3350,
      "klɑɹk": 3351,
      "41": 3352,
      "mæntʃɛstɹ": 3353,
      "76": 3354,
      "bɑstən": 3355,
      "ɛktɪd": 3356,
      "əbzɹvd": 3357,
      "sɪkjʊɹəti": 3358,
      "mowd": 3359,
      "əlɔŋsajd": 3360,
      "fɛlow": 3361,
      "ɪzejʃən": 3362,
      "ɛls": 3363,
      "dɪstɪŋkt": 3364,
      "dɹɪ": 3365,
      "ɪnvejʒən": 3366,
      "vɪn": 3367,
      "ɑntu": 3368,
      "dɹɔn": 3369,
      "fɹɪŋ": 3370,
      "æpl": 3371,
      "sɪtiz": 3372,
      "dɪvajdəd": 3373,
      "kɔlɪŋ": 3374,
      "lætən": 3375,
      "sɛkəndz": 3376,
      "dʒɛ": 3377,
      "slajtli": 3378,
      "ʌpt": 3379,
      "viɛtnɑm": 3380,
      "əkawnt": 3381,
      "ɹɪzʌlts": 3382,
      "wejv": 3383,
      "ɹɪtɹnɪŋ": 3384,
      "kɑnsɛpt": 3385,
      "42": 3386,
      "əɡɹimənt": 3387,
      "hɪstɔɹɪkəl": 3388,
      "duk": 3389,
      "sajts": 3390,
      "1944": 3391,
      "əsɔɹ": 3392,
      "hɪstɔɹiən": 3393,
      "ɡɹæf": 3394,
      "dɹɪk": 3395,
      "nɛɡ": 3396,
      "ɛnkɹɪ": 3397,
      "awtɹ": 3398,
      "ɡajd": 3399,
      "ɛtə": 3400,
      "kɹæʃ": 3401,
      "əkli": 3402,
      "midi": 3403,
      "mænədʒmənt": 3404,
      "tɹɪb": 3405,
      "150": 3406,
      "85": 3407,
      "sɔɹsəz": 3408,
      "ɹɪpʃən": 3409,
      "spɑt": 3410,
      "fɪkʃən": 3411,
      "ɪnfluənst": 3412,
      "nʌθɪŋ": 3413,
      "ajdɛntəfajd": 3414,
      "43": 3415,
      "ɪnɪŋz": 3416,
      "ɪmpɪɹiəl": 3417,
      "ɹistɹ": 3418,
      "ɡi": 3419,
      "sawndtɹæk": 3420,
      "kəmplitli": 3421,
      "mju": 3422,
      "ɑŋk": 3423,
      "dɪlɪvɹ": 3424,
      "kənfɹmd": 3425,
      "ɹɛzədənts": 3426,
      "ætʃt": 3427,
      "ɹɪɹ": 3428,
      "kɑmədi": 3429,
      "pɹəmowtəd": 3430,
      "dɛzɪɡnejtɪd": 3431,
      "səns": 3432,
      "jətəd": 3433,
      "nɑmənejtəd": 3434,
      "sidəd": 3435,
      "bibisi": 3436,
      "sɔt": 3437,
      "əmɛntəl": 3438,
      "sɪz": 3439,
      "ətʃiv": 3440,
      "ɪksplow": 3441,
      "bɹajən": 3442,
      "ɪʒənz": 3443,
      "tʃæp": 3444,
      "kəntɹɪbju": 3445,
      "pawɹfəl": 3446,
      "mejnli": 3447,
      "skaj": 3448,
      "1990": 3449,
      "ɹitʃɪŋ": 3450,
      "məmɔɹiəl": 3451,
      "hɛv": 3452,
      "mɛdəl": 3453,
      "ɹowlz": 3454,
      "sizənz": 3455,
      "pɹɪnsəpəl": 3456,
      "kul": 3457,
      "ədɛl": 3458,
      "wɛp": 3459,
      "ɹowmæn": 3460,
      "əlɔɡ": 3461,
      "ɹɪn": 3462,
      "dʒət": 3463,
      "tɔ": 3464,
      "stajn": 3465,
      "ɪksplejnd": 3466,
      "hʌzb": 3467,
      "skɪl": 3468,
      "kəs": 3469,
      "stɹajk": 3470,
      "1920": 3471,
      "kɑnsəntɹ": 3472,
      "ɪtəli": 3473,
      "ɡowz": 3474,
      "1945": 3475,
      "vɹʒənz": 3476,
      "vɪzət": 3477,
      "1941": 3478,
      "dʒɹzi": 3479,
      "ejniən": 3480,
      "ɪkwɪp": 3481,
      "əbjuʃən": 3482,
      "dɹʌɡ": 3483,
      "nəm": 3484,
      "lʊkɪŋ": 3485,
      "wɛpənz": 3486,
      "tajd": 3487,
      "howmz": 3488,
      "ɑpəzɪʃən": 3489,
      "ejntʃənt": 3490,
      "nɔɹθwɛst": 3491,
      "bjud": 3492,
      "ɑɡə": 3493,
      "əmɛɹəkənz": 3494,
      "səksɛsfəli": 3495,
      "wajdli": 3496,
      "ɡʌl": 3497,
      "əfɪʃəli": 3498,
      "bæŋ": 3499,
      "ɡɹowθ": 3500,
      "əmɛnt": 3501,
      "pisəz": 3502,
      "kəmpɛɹ": 3503,
      "bejsbɔl": 3504,
      "wɹkɹz": 3505,
      "lɹz": 3506,
      "powət": 3507,
      "əhɛd": 3508,
      "əpɪɹənsəz": 3509,
      "əfɛnsɪv": 3510,
      "ɪstɪks": 3511,
      "sɛz": 3512,
      "læp": 3513,
      "duɪŋ": 3514,
      "kəmpowz": 3515,
      "lajbɹɛɹi": 3516,
      "ɪkstʃejndʒ": 3517,
      "zəl": 3518,
      "hɑp": 3519,
      "jɛlow": 3520,
      "bɪɑnd": 3521,
      "tʃænəl": 3522,
      "ajɹlənd": 3523,
      "tʃojs": 3524,
      "kwɛstʃən": 3525,
      "mjun": 3526,
      "bɹʌðɹz": 3527,
      "spitʃ": 3528,
      "tɛkni": 3529,
      "inow": 3530,
      "99": 3531,
      "ɹɪzɹv": 3532,
      "ɪntɛlədʒ": 3533,
      "wɑtʃ": 3534,
      "ɪps": 3535,
      "tɑɹɡət": 3536,
      "hɛdkwɔɹtɹz": 3537,
      "lb": 3538,
      "ɑɹmɹ": 3539,
      "nɛɡətɪv": 3540,
      "snow": 3541,
      "mɛtɹ": 3542,
      "mɑɹʃəl": 3543,
      "ɛmɪk": 3544,
      "pɑɹtnɹ": 3545,
      "ædmɹəl": 3546,
      "həm": 3547,
      "vɪktɔɹiə": 3548,
      "kɑntən": 3549,
      "kɑzɪŋ": 3550,
      "stɹz": 3551,
      "pɛɹɪs": 3552,
      "bɑdiz": 3553,
      "ɹejnfɔl": 3554,
      "piæn": 3555,
      "ɡn": 3556,
      "ðəlɛs": 3557,
      "kəpæs": 3558,
      "ɪkspɹɛst": 3559,
      "bɑɹt": 3560,
      "ɔɹətiz": 3561,
      "əpɛɹ": 3562,
      "ɹowm": 3563,
      "1989": 3564,
      "1943": 3565,
      "ɪskejp": 3566,
      "lidɹz": 3567,
      "ɑɹtəkəl": 3568,
      "ɪkwɪpmənt": 3569,
      "ɑnow": 3570,
      "kænsəl": 3571,
      "pə": 3572,
      "plejsəz": 3573,
      "wɔtɹz": 3574,
      "dʒɛktɪd": 3575,
      "pɹz": 3576,
      "kəmpjutɹ": 3577,
      "bɹowkən": 3578,
      "təfajd": 3579,
      "ɹɪpɔɹts": 3580,
      "tɛlz": 3581,
      "kəmɪʃənd": 3582,
      "tʃæləndʒ": 3583,
      "jul": 3584,
      "dejndʒ": 3585,
      "ɪlɛktɹɪk": 3586,
      "pɔɹtɹ": 3587,
      "mɪks": 3588,
      "wajn": 3589,
      "pɹɑmənənt": 3590,
      "ədvænst": 3591,
      "bæsk": 3592,
      "təf": 3593,
      "600": 3594,
      "splɪt": 3595,
      "ɪksɛpt": 3596,
      "fajɹd": 3597,
      "vɔn": 3598,
      "tʃɑɹts": 3599,
      "dɹɑmə": 3600,
      "sɛmi": 3601,
      "kənsɹv": 3602,
      "ɪndʌst": 3603,
      "stɹʌɡəl": 3604,
      "kɑɹl": 3605,
      "hʌzbənd": 3606,
      "ɪntɹtʃejndʒ": 3607,
      "wɹldwajd": 3608,
      "əsɛmbli": 3609,
      "kætəɡɔɹi": 3610,
      "əfæk": 3611,
      "nejʃənz": 3612,
      "dɪfɛnd": 3613,
      "ɔɹiz": 3614,
      "tæm": 3615,
      "hɑli": 3616,
      "əpɪn": 3617,
      "ɑlvd": 3618,
      "vælju": 3619,
      "tɹitmənt": 3620,
      "hɛvəli": 3621,
      "juʒəwəl": 3622,
      "mɑɹks": 3623,
      "sɛnət": 3624,
      "livz": 3625,
      "ʃut": 3626,
      "pæθ": 3627,
      "æktɪvətiz": 3628,
      "mænjəfæk": 3629,
      "ɹɛpɹəzɛntəd": 3630,
      "ɔltɹnətɪv": 3631,
      "jəlejtəd": 3632,
      "3ɹd": 3633,
      "dʒʌŋk": 3634,
      "wɔlz": 3635,
      "minwajl": 3636,
      "ɪkspæn": 3637,
      "ɪɹow": 3638,
      "ɹl": 3639,
      "mənejʃən": 3640,
      "səf": 3641,
      "mæt": 3642,
      "əpowzd": 3643,
      "jəmənt": 3644,
      "æstɪk": 3645,
      "ɡlæs": 3646,
      "77": 3647,
      "fɪɡjɹz": 3648,
      "stim": 3649,
      "ətən": 3650,
      "æktɹəs": 3651,
      "ɹejdi": 3652,
      "klejmz": 3653,
      "pɪl": 3654,
      "bɪliv": 3655,
      "tæsk": 3656,
      "ənlajk": 3657,
      "sɹdʒ": 3658,
      "ɹɑn": 3659,
      "mun": 3660,
      "ɑsə": 3661,
      "ɹejz": 3662,
      "ɪndʒɹi": 3663,
      "æntɪdʒ": 3664,
      "hændz": 3665,
      "tejlɹ": 3666,
      "kəlæbɹ": 3667,
      "kaw": 3668,
      "pawɹz": 3669,
      "kɑnflɪkt": 3670,
      "lændɪŋ": 3671,
      "tɹʌ": 3672,
      "klɛɹ": 3673,
      "hɑm": 3674,
      "wajz": 3675,
      "ɛkspədɪʃən": 3676,
      "ɪljən": 3677,
      "ɛktʃɹ": 3678,
      "1940": 3679,
      "kɹəntli": 3680,
      "kɪlɑm": 3681,
      "sɛɹəmowni": 3682,
      "ɛvən": 3683,
      "fɹæntʃ": 3684,
      "pɑlɪʃ": 3685,
      "kæʒəwəl": 3686,
      "lajvz": 3687,
      "ʌki": 3688,
      "wejn": 3689,
      "ənæləs": 3690,
      "ɪŋtən": 3691,
      "nɛsəsɛɹi": 3692,
      "ənnown": 3693,
      "kɹɔsɪŋ": 3694,
      "stejʃənz": 3695,
      "mʌlti": 3696,
      "fejst": 3697,
      "kənsɪstəd": 3698,
      "əwəlz": 3699,
      "dejbjud": 3700,
      "sikɹət": 3701,
      "ŋθ": 3702,
      "1980ɛs": 3703,
      "pæləs": 3704,
      "bɹə": 3705,
      "hɪstɔɹɪk": 3706,
      "sɛpɹ": 3707,
      "pʌn": 3708,
      "əbdʒ": 3709,
      "awnts": 3710,
      "kj": 3711,
      "hɛdz": 3712,
      "ɑpɹə": 3713,
      "ɪtiz": 3714,
      "nɔɹməl": 3715,
      "kɑntɛnt": 3716,
      "vɪʒən": 3717,
      "howmɹ": 3718,
      "fɹikwəntli": 3719,
      "təsajzd": 3720,
      "ɪɡzæ": 3721,
      "ɑɹɡjud": 3722,
      "nət": 3723,
      "ɛləv": 3724,
      "mowtɹ": 3725,
      "kɹɪkət": 3726,
      "ɡz": 3727,
      "tɪpəkli": 3728,
      "fajl": 3729,
      "tʃuəl": 3730,
      "wikli": 3731,
      "ədɔɹ": 3732,
      "twajs": 3733,
      "mawntəd": 3734,
      "66": 3735,
      "ɑnəm": 3736,
      "əfɛktəd": 3737,
      "ɪnstɹʌk": 3738,
      "tɹəs": 3739,
      "ɪnsəl": 3740,
      "sawθist": 3741,
      "ɑɹə": 3742,
      "plænət": 3743,
      "ɹɛpɹəzɛnt": 3744,
      "kɑk": 3745,
      "mowʃən": 3746,
      "ɪndʌstɹiəl": 3747,
      "ɪmow": 3748,
      "zɹv": 3749,
      "mejntejnd": 3750,
      "bʊl": 3751,
      "tʃɛk": 3752,
      "hɔɹsəz": 3753,
      "ænəməl": 3754,
      "mənəl": 3755,
      "tɹajɪŋ": 3756,
      "dɪsəp": 3757,
      "lɪnd": 3758,
      "pɹɑbləm": 3759,
      "tɛknɑlədʒi": 3760,
      "1970ɛs": 3761,
      "pɹətɛkʃən": 3762,
      "əɡən": 3763,
      "kɑntɹæst": 3764,
      "vɪzətəd": 3765,
      "vajs": 3766,
      "ɑpɹejtəd": 3767,
      "bojz": 3768,
      "kɹɪtəsajzd": 3769,
      "sejv": 3770,
      "məθ": 3771,
      "əliz": 3772,
      "ɛdi": 3773,
      "kɛɹəlajnə": 3774,
      "ændɹu": 3775,
      "howldz": 3776,
      "vɹt": 3777,
      "fɹɛʃ": 3778,
      "bɹæntʃ": 3779,
      "ɪntɹpɹ": 3780,
      "klejm": 3781,
      "sɛɡ": 3782,
      "ɡɹowɪŋ": 3783,
      "1960ɛs": 3784,
      "fʊli": 3785,
      "fejz": 3786,
      "ədʌlt": 3787,
      "lajɪŋ": 3788,
      "kaj": 3789,
      "tʃowzən": 3790,
      "ʃʊ": 3791,
      "ɔstɹi": 3792,
      "nowtəbəl": 3793,
      "ɑdə": 3794,
      "ɛndow": 3795,
      "sɪɹiəs": 3796,
      "kɑmɪk": 3797,
      "æləɡzændɹ": 3798,
      "twɛlv": 3799,
      "dʒɑ": 3800,
      "ɪnstətut": 3801,
      "ww": 3802,
      "skɑtɪʃ": 3803,
      "ɹbən": 3804,
      "ajɹəs": 3805,
      "ɡu": 3806,
      "əɡɹæf": 3807,
      "pɹədusɹz": 3808,
      "fjuəl": 3809,
      "din": 3810,
      "səlz": 3811,
      "pɛnsəl": 3812,
      "sikwəns": 3813,
      "ɑf": 3814,
      "1987": 3815,
      "bɛnəf": 3816,
      "fʌŋkʃən": 3817,
      "kənsi": 3818,
      "tajps": 3819,
      "ɡɑɹdən": 3820,
      "ɹæd": 3821,
      "dʒojnt": 3822,
      "bowts": 3823,
      "sajl": 3824,
      "sɛvənθ": 3825,
      "ədɹ": 3826,
      "bɪljən": 3827,
      "wundəd": 3828,
      "blej": 3829,
      "ojz": 3830,
      "1988": 3831,
      "hɑɹbɹ": 3832,
      "stʊd": 3833,
      "ɪdʒɪŋ": 3834,
      "nuli": 3835,
      "dɪɡɹi": 3836,
      "mɛʒɹ": 3837,
      "sɹawndɪŋ": 3838,
      "ajzɹ": 3839,
      "fildz": 3840,
      "sowlow": 3841,
      "ɪndɪpɛndəns": 3842,
      "ɪtejʃən": 3843,
      "96": 3844,
      "plænts": 3845,
      "kɹiejʃən": 3846,
      "ɡowldən": 3847,
      "dɛmənstɹ": 3848,
      "nukliɹ": 3849,
      "ɹɪpʌblɪkən": 3850,
      "kɔlz": 3851,
      "sn": 3852,
      "mænɹ": 3853,
      "tʃən": 3854,
      "əsti": 3855,
      "pæsəz": 3856,
      "juθ": 3857,
      "sɹvɪŋ": 3858,
      "nɛst": 3859,
      "sɛkʃuəl": 3860,
      "dɪskʌ": 3861,
      "ɹejndʒd": 3862,
      "θɹow": 3863,
      "læm": 3864,
      "ɪlə": 3865,
      "sɪmpli": 3866,
      "hejl": 3867,
      "wɪlsən": 3868,
      "hæps": 3869,
      "ɹɛp": 3870,
      "fɑlowz": 3871,
      "kɪlɪŋ": 3872,
      "kəntejnd": 3873,
      "luzɪŋ": 3874,
      "fejməs": 3875,
      "ɪləstɹ": 3876,
      "sæŋk": 3877,
      "sɑləd": 3878,
      "əpown": 3879,
      "hɹsɛlf": 3880,
      "bəs": 3881,
      "pɔɹtɹej": 3882,
      "ɪndəvɪdʒəwəlz": 3883,
      "hʌl": 3884,
      "mɛθəd": 3885,
      "kɹɪsm": 3886,
      "pɹɑɡɹ": 3887,
      "ɪnstɪt": 3888,
      "wajɹd": 3889,
      "kɹɪsməs": 3890,
      "sit": 3891,
      "fɪŋ": 3892,
      "ɡɔɹ": 3893,
      "inz": 3894,
      "θɹown": 3895,
      "kæθlɪk": 3896,
      "ɛʃən": 3897,
      "kævəl": 3898,
      "kɪk": 3899,
      "kənsɛk": 3900,
      "kənsɛkjətɪv": 3901,
      "pɹə": 3902,
      "klæsɪk": 3903,
      "əpojnt": 3904,
      "pajɹ": 3905,
      "zown": 3906,
      "dʒəm": 3907,
      "kænɑt": 3908,
      "pɹfəkt": 3909,
      "bʌs": 3910,
      "is": 3911,
      "wɛbsajt": 3912,
      "səpɔɹtɪŋ": 3913,
      "kəlʌmbiə": 3914,
      "ɡli": 3915,
      "ɑlə": 3916,
      "dɛməkɹætɪk": 3917,
      "hɑn": 3918,
      "ɹɪb": 3919,
      "ɪvæk": 3920,
      "kəpæsəti": 3921,
      "kɹnəl": 3922,
      "sʌnd": 3923,
      "pɑɹtɪsəpejtəd": 3924,
      "hæŋ": 3925,
      "um": 3926,
      "56": 3927,
      "mənz": 3928,
      "kəndɪʃən": 3929,
      "1986": 3930,
      "ɪlɪzəb": 3931,
      "ʃɛ": 3932,
      "kæpt": 3933,
      "kɹɪtɪk": 3934,
      "fɪlmd": 3935,
      "ədɑptəd": 3936,
      "hajt": 3937,
      "lidɹʃɪp": 3938,
      "majkɹ": 3939,
      "ɪkspænʃən": 3940,
      "tɹɛ": 3941,
      "tɹævəld": 3942,
      "əbændənd": 3943,
      "fawndejʃən": 3944,
      "pjʊɹ": 3945,
      "ejvi": 3946,
      "ənəl": 3947,
      "ændɹsən": 3948,
      "pɑsəbli": 3949,
      "ɔtəm": 3950,
      "spɛk": 3951,
      "hɑki": 3952,
      "tud": 3953,
      "ɡɹlz": 3954,
      "θimz": 3955,
      "pɹtʃəs": 3956,
      "pɹəsi": 3957,
      "bejsəs": 3958,
      "hʌŋ": 3959,
      "vejnjə": 3960,
      "sɪmpəl": 3961,
      "pɛnsəlvejnjə": 3962,
      "kɑmjən": 3963,
      "lejʃən": 3964,
      "pɹəmowt": 3965,
      "ʃajɹ": 3966,
      "sʌbst": 3967,
      "dɪfɛnsɪv": 3968,
      "vɑljum": 3969,
      "kʌv": 3970,
      "æmətɹ": 3971,
      "fejljɹ": 3972,
      "kɹiejtɪŋ": 3973,
      "ælɪti": 3974,
      "sɪnθ": 3975,
      "ənti": 3976,
      "fejvɹɪt": 3977,
      "tʃæns": 3978,
      "kɹawn": 3979,
      "ɹəɡɑɹdəd": 3980,
      "dɹim": 3981,
      "lɔz": 3982,
      "tɹiti": 3983,
      "dʒɛnɹejʃən": 3984,
      "ajɹɪʃ": 3985,
      "ɡɹædʒ": 3986,
      "spej": 3987,
      "kɹɑn": 3988,
      "58": 3989,
      "spejn": 3990,
      "dɪstɪŋɡwɪ": 3991,
      "ɛɹəli": 3992,
      "nɪkəl": 3993,
      "zu": 3994,
      "kɔŋ": 3995,
      "ʃutɪŋ": 3996,
      "vɑlənt": 3997,
      "ənæləsəs": 3998,
      "dɔɡ": 3999,
      "bæskət": 4000,
      "ʃɑk": 4001,
      "vəs": 4002,
      "ajdiəz": 4003,
      "98": 4004,
      "ɔɹiənz": 4005,
      "ɹɪtajɹd": 4006,
      "pɹajs": 4007,
      "kɑnstətuʃən": 4008,
      "pɪktʃɹ": 4009,
      "ɪmpɹuvd": 4010,
      "dəmɛst": 4011,
      "tawnz": 4012,
      "baw": 4013,
      "tajtəlz": 4014,
      "wɔɹz": 4015,
      "ɹɛdɪŋ": 4016,
      "ɡɹædʒəw": 4017,
      "jʌŋɡɹ": 4018,
      "howp": 4019,
      "nəɡow": 4020,
      "tɛnd": 4021,
      "æɹəb": 4022,
      "stætʃu": 4023,
      "sɛkʃənz": 4024,
      "liə": 4025,
      "ædvæntɪdʒ": 4026,
      "owhaj": 4027,
      "kɹej": 4028,
      "ɪni": 4029,
      "fɹænsɪ": 4030,
      "ejdʒənt": 4031,
      "ænɪk": 4032,
      "ɛktɹz": 4033,
      "nəɡowʃi": 4034,
      "ətʃivd": 4035,
      "ɹɪpitɪd": 4036,
      "tʃʊɹ": 4037,
      "wɔɹn": 4038,
      "fajtɹ": 4039,
      "fæməliz": 4040,
      "1939": 4041,
      "flej": 4042,
      "1990ɛs": 4043,
      "bɹifli": 4044,
      "dʌb": 4045,
      "spɛkts": 4046,
      "bɪd": 4047,
      "sajəntɪfɪk": 4048,
      "tejbəl": 4049,
      "hæp": 4050,
      "ɑkjəpajd": 4051,
      "ɪlɛvən": 4052,
      "ɡɑmplej": 4053,
      "ɪkspɪɹiənst": 4054,
      "vihɪkəlz": 4055,
      "owtə": 4056,
      "ɪkɑnəmi": 4057,
      "lɛtɹz": 4058,
      "ɡɹæntəd": 4059,
      "howldɪŋ": 4060,
      "tɹɑn": 4061,
      "vəst": 4062,
      "ɪnsədənt": 4063,
      "ɹidʒənəl": 4064,
      "təzənz": 4065,
      "ɹɪdʒɛktɪd": 4066,
      "flæt": 4067,
      "piænow": 4068,
      "ɹɔ": 4069,
      "kæmpəs": 4070,
      "sɛɹə": 4071,
      "fɹæntʃajz": 4072,
      "ɹisəntli": 4073,
      "əsiz": 4074,
      "ɛksɹ": 4075,
      "kəntɹowld": 4076,
      "kɪlɑmtɹz": 4077,
      "mɪlɹ": 4078,
      "owm": 4079,
      "down": 4080,
      "pɹfɔɹmɪŋ": 4081,
      "spɑn": 4082,
      "ɡɔn": 4083,
      "flʌdɪŋ": 4084,
      "ɹiow": 4085,
      "ætməs": 4086,
      "ɪkspændəd": 4087,
      "ɹəsiv": 4088,
      "sɛkəndɛɹi": 4089,
      "ɡɹɛ": 4090,
      "wəl": 4091,
      "fɹejm": 4092,
      "pɹɑvəns": 4093,
      "əθɔɹətiz": 4094,
      "1968": 4095,
      "pɪtʃ": 4096,
      "pɹowtɛst": 4097,
      "ɪlɪzəbəθ": 4098,
      "1985": 4099,
      "hænə": 4100,
      "pɹəɡɹ": 4101,
      "dɪdn": 4102,
      "ɑtow": 4103,
      "hæpi": 4104,
      "ɔnlajn": 4105,
      "owlz": 4106,
      "kævəlɹi": 4107,
      "koj": 4108,
      "junik": 4109,
      "ɪntaj": 4110,
      "52": 4111,
      "fɹidəm": 4112,
      "1970": 4113,
      "səts": 4114,
      "əfajɪŋ": 4115,
      "lɪtɹətʃɹ": 4116,
      "fɔt": 4117,
      "kɑmənli": 4118,
      "nl": 4119,
      "dɪskɹajbz": 4120,
      "əkwajɹd": 4121,
      "bæŋks": 4122,
      "əntin": 4123,
      "dʒinəs": 4124,
      "mowt": 4125,
      "dɪtɹmənd": 4126,
      "əpɑl": 4127,
      "ɡʌlf": 4128,
      "əsɪstənt": 4129,
      "sejfti": 4130,
      "dɹɛs": 4131,
      "sɪŋɪŋ": 4132,
      "wən": 4133,
      "kʌstəm": 4134,
      "əpɡɹejd": 4135,
      "bʌdʒət": 4136,
      "fejt": 4137,
      "pɹədʌk": 4138,
      "fɹiwej": 4139,
      "plænɪŋ": 4140,
      "ɑmən": 4141,
      "fɪlədɛl": 4142,
      "owhajow": 4143,
      "ɪnkawntɹ": 4144,
      "vɪʒəwəl": 4145,
      "sajtəd": 4146,
      "səɡdʒɛsts": 4147,
      "kɹɪtɪsɪzəm": 4148,
      "bɹəz": 4149,
      "ɡɪvz": 4150,
      "mɛnʃənd": 4151,
      "luz": 4152,
      "pɛɹəlɛl": 4153,
      "ʊɹəl": 4154,
      "owlə": 4155,
      "sɛntʃɹiz": 4156,
      "ɡæðɹ": 4157,
      "800": 4158,
      "fɹæŋ": 4159,
      "ənsən": 4160,
      "jələ": 4161,
      "fɔlz": 4162,
      "ɑɡz": 4163,
      "səpɹim": 4164,
      "1984": 4165,
      "ɹətɪv": 4166,
      "dʒɔɹdʒə": 4167,
      "ɹk": 4168,
      "wɛlθ": 4169,
      "pawndz": 4170,
      "kejmbɹɪdʒ": 4171,
      "dʒɛɹ": 4172,
      "skɛdʒʊld": 4173,
      "pɹowɡɹæmz": 4174,
      "ɹajzd": 4175,
      "ɹowlɪŋ": 4176,
      "ɹʌʃə": 4177,
      "kənvɛnʃən": 4178,
      "pajn": 4179,
      "wil": 4180,
      "əkʌmpənid": 4181,
      "fɪlədɛlfiə": 4182,
      "ələnd": 4183,
      "ji": 4184,
      "tæŋk": 4185,
      "kwaj": 4186,
      "bn": 4187,
      "bɑɹd": 4188,
      "ɹiækʃən": 4189,
      "tɹejnz": 4190,
      "pɹɑɡɹɛs": 4191,
      "88": 4192,
      "kɑpi": 4193,
      "pɹhæps": 4194,
      "ɹəɡɑɹdɪŋ": 4195,
      "bd": 4196,
      "sɛlz": 4197,
      "kɔɹiən": 4198,
      "kwajt": 4199,
      "ɪɡzɪstɪŋ": 4200,
      "əpɔɹ": 4201,
      "ɹinə": 4202,
      "fajndz": 4203,
      "tækt": 4204,
      "hajd": 4205,
      "hɛɹə": 4206,
      "spɪn": 4207,
      "nɔɹmən": 4208,
      "ɪstejt": 4209,
      "ədmɪnəstɹ": 4210,
      "kluʒən": 4211,
      "nɛɹ": 4212,
      "120": 4213,
      "kɑɹz": 4214,
      "fəsɪlətiz": 4215,
      "1967": 4216,
      "mejɹ": 4217,
      "mawθ": 4218,
      "bɪs": 4219,
      "tɑ": 4220,
      "lowkejʃənz": 4221,
      "kəntejnɪŋ": 4222,
      "97": 4223,
      "fɔɹmɪŋ": 4224,
      "kɑlən": 4225,
      "dʒiz": 4226,
      "əpɹuvd": 4227,
      "hæl": 4228,
      "fɪld": 4229,
      "bɪlɔŋ": 4230,
      "tɔɹpidow": 4231,
      "tʌtʃdawn": 4232,
      "səlɛkʃən": 4233,
      "klɪf": 4234,
      "ɹɛslɪŋ": 4235,
      "1980": 4236,
      "bɹif": 4237,
      "lɪvɹpul": 4238,
      "dɛs": 4239,
      "kənsɹvətɪv": 4240,
      "ivnɪŋ": 4241,
      "dɪklajn": 4242,
      "fown": 4243,
      "nɪnt": 4244,
      "mowbəl": 4245,
      "dɪfajnd": 4246,
      "ɪntajɹli": 4247,
      "bɛk": 4248,
      "nɪntɛndow": 4249,
      "pɑm": 4250,
      "hɪts": 4251,
      "ini": 4252,
      "sawθwɛst": 4253,
      "ɹistɹɪk": 4254,
      "mæsə": 4255,
      "əmɛntɹi": 4256,
      "ɹulz": 4257,
      "tɹnɪŋ": 4258,
      "fowkəst": 4259,
      "hɪ": 4260,
      "lejbəl": 4261,
      "sɪnd": 4262,
      "stɹʌktʃɹz": 4263,
      "dɛdəkejtəd": 4264,
      "ɪntɛnsəti": 4265,
      "bejbi": 4266,
      "pɹtʃəst": 4267,
      "stɹɛŋθ": 4268,
      "kəntɹɪbjutɪd": 4269,
      "51": 4270,
      "lʌ": 4271,
      "bejsɪk": 4272,
      "fejθ": 4273,
      "dʒuɪʃ": 4274,
      "ækəd": 4275,
      "bætɹi": 4276,
      "lɪŋkən": 4277,
      "bɹaj": 4278,
      "ənɪŋ": 4279,
      "ɹiən": 4280,
      "kæʒəwəltiz": 4281,
      "dɪstɹʌk": 4282,
      "kɔ": 4283,
      "pɹəvajdz": 4284,
      "pʌbləkejʃən": 4285,
      "ɛmplojd": 4286,
      "57": 4287,
      "plejsmənt": 4288,
      "wɪndowz": 4289,
      "ʃæl": 4290,
      "swit": 4291,
      "ɹɪzɪstəns": 4292,
      "dʒʌŋkʃən": 4293,
      "pɹətɛkt": 4294,
      "mɪsɪŋ": 4295,
      "tæl": 4296,
      "ʃejp": 4297,
      "æktəv": 4298,
      "vjud": 4299,
      "bækt": 4300,
      "ejtθ": 4301,
      "kowstəl": 4302,
      "fɹænsɪskow": 4303,
      "fajnəlz": 4304,
      "ɹɪd": 4305,
      "vələnt": 4306,
      "bæskətbɔl": 4307,
      "skɹi": 4308,
      "æps": 4309,
      "ɪʃə": 4310,
      "ɹɪzɛm": 4311,
      "kænən": 4312,
      "kɔɹnɹ": 4313,
      "1983": 4314,
      "1969": 4315,
      "dɛns": 4316,
      "ɛdətɹ": 4317,
      "ədæp": 4318,
      "jutəd": 4319,
      "tɛsts": 4320,
      "pɹətɛktəd": 4321,
      "ɛntʃən": 4322,
      "ɹidʒənz": 4323,
      "1964": 4324,
      "ənoj": 4325,
      "jətejʃən": 4326,
      "ɹænd": 4327,
      "tɹmɪn": 4328,
      "hɪnd": 4329,
      "kɔɹəspɑnd": 4330,
      "sɪdni": 4331,
      "54": 4332,
      "ɹəsivɪŋ": 4333,
      "klowsli": 4334,
      "hɛm": 4335,
      "wɛd": 4336,
      "ɹisɔɹs": 4337,
      "kɑmbən": 4338,
      "bɹajt": 4339,
      "ɹɑs": 4340,
      "ɑpɹtunəti": 4341,
      "1914": 4342,
      "mɔl": 4343,
      "nɛɹow": 4344,
      "tɹɪpəl": 4345,
      "mowmənt": 4346,
      "plejstejʃən": 4347,
      "ɪksplɔɹ": 4348,
      "nɛl": 4349,
      "hmz": 4350,
      "ɪnəs": 4351,
      "ɪntɹədʌkʃən": 4352,
      "1918": 4353,
      "dɪzni": 4354,
      "stɪk": 4355,
      "hɪlz": 4356,
      "ɹæŋ": 4357,
      "ɪnvajɹənmənt": 4358,
      "bændz": 4359,
      "ɹʌfli": 4360,
      "kənsɪsts": 4361,
      "təkəlz": 4362,
      "bɹejkɪŋ": 4363,
      "lɔntʃ": 4364,
      "hajɹd": 4365,
      "mænjəfæktʃɹ": 4366,
      "ɡɛtɪŋ": 4367,
      "ɹikwajɹ": 4368,
      "dɪvɛləpɪŋ": 4369,
      "ɹejlɹowd": 4370,
      "hʌndɹəd": 4371,
      "18tiejtʃ": 4372,
      "1982": 4373,
      "1971": 4374,
      "kɑmənt": 4375,
      "1966": 4376,
      "ɔɹɡ": 4377,
      "ɛniθɪŋ": 4378,
      "ɛnə": 4379,
      "ɹɑm": 4380,
      "1972": 4381,
      "pɹipɛɹd": 4382,
      "æmə": 4383,
      "ɛkstɹə": 4384,
      "pæt": 4385,
      "ɛnɡejdʒd": 4386,
      "owlɪmpɪk": 4387,
      "68": 4388,
      "sɛʃənz": 4389,
      "1979": 4390,
      "howli": 4391,
      "læbɹ": 4392,
      "pɹɑd": 4393,
      "fowtəɡɹ": 4394,
      "lɔsəz": 4395,
      "stuɹt": 4396,
      "ædɪŋ": 4397,
      "ɪkspɛɹ": 4398,
      "vʌl": 4399,
      "plejsɪŋ": 4400,
      "ɪksklu": 4401,
      "spow": 4402,
      "ɪntəɡɹ": 4403,
      "bɹejn": 4404,
      "wɪnz": 4405,
      "ajsəl": 4406,
      "pɹəvajdɪŋ": 4407,
      "vowl": 4408,
      "ɹispɑn": 4409,
      "pɑlətɪks": 4410,
      "ædəm": 4411,
      "lidz": 4412,
      "sʌnz": 4413,
      "ɑɹsən": 4414,
      "sɪkst": 4415,
      "bawɹ": 4416,
      "mɔɹt": 4417,
      "əpil": 4418,
      "ʃɛɹd": 4419,
      "1965": 4420,
      "kɑnd": 4421,
      "ɪnvɛstəɡejʃən": 4422,
      "ɹæpədli": 4423,
      "ɪntɛlədʒəns": 4424,
      "bɪhejv": 4425,
      "bæɹi": 4426,
      "zə": 4427,
      "kɔɹd": 4428,
      "məɡ": 4429,
      "bɑl": 4430,
      "hɑliwʊd": 4431,
      "1975": 4432,
      "ɪksən": 4433,
      "tɛmpɹətʃɹ": 4434,
      "wɔltɹ": 4435,
      "dʒɹmənz": 4436,
      "kɑmpəzɪʃən": 4437,
      "94": 4438,
      "nɛ": 4439,
      "tɑɹ": 4440,
      "ɛvɹiθɪŋ": 4441,
      "nɑlədʒ": 4442,
      "ɪnvɑlv": 4443,
      "ɑkə": 4444,
      "ejkɹz": 4445,
      "wɪŋz": 4446,
      "uʃənz": 4447,
      "sɛtəlmənt": 4448,
      "ɹɛstəd": 4449,
      "pɹəfɛsɹ": 4450,
      "bɹɑ": 4451,
      "mejt": 4452,
      "ɪnkʌm": 4453,
      "əvən": 4454,
      "ɹiplejs": 4455,
      "dɪɡ": 4456,
      "ədʒi": 4457,
      "pɹsənɛl": 4458,
      "ɛɹiow": 4459,
      "ɛmfəs": 4460,
      "ɹilejʃənz": 4461,
      "ɹumz": 4462,
      "wɑtʃt": 4463,
      "nejbɹ": 4464,
      "ɛləmənt": 4465,
      "ɹispɑnsəb": 4466,
      "æv": 4467,
      "1974": 4468,
      "vɹi": 4469,
      "sɪmbəl": 4470,
      "ɔɹkəstɹ": 4471,
      "iəs": 4472,
      "ʃæd": 4473,
      "sɪŋəpɔɹ": 4474,
      "bɑtəm": 4475,
      "ɑpɹejtɪŋ": 4476,
      "ʃejpt": 4477,
      "bɑɹk": 4478,
      "mʌz": 4479,
      "lɪŋk": 4480,
      "sɪɡnɪfɪk": 4481,
      "lejbɹ": 4482,
      "1973": 4483,
      "dɪsɛnd": 4484,
      "dejvəs": 4485,
      "sɪɡnɪfɪkəntli": 4486,
      "bɹidɪŋ": 4487,
      "ɑɹtə": 4488,
      "pɹɑdʒɛkts": 4489,
      "ædvɹ": 4490,
      "əpɪnjən": 4491,
      "67": 4492,
      "ɪntɹsɛkʃən": 4493,
      "dɛfən": 4494,
      "lɪtɹɛɹi": 4495,
      "mawntənz": 4496,
      "ɡlowbəl": 4497,
      "ɹvd": 4498,
      "mɪʃənz": 4499,
      "ɡəs": 4500,
      "pejʃən": 4501,
      "sɹpɹajz": 4502,
      "250": 4503,
      "pənɪnsəl": 4504,
      "əmɛnd": 4505,
      "ɪndʒɹd": 4506,
      "əntajn": 4507,
      "ədʒd": 4508,
      "1976": 4509,
      "ɹizənz": 4510,
      "53": 4511,
      "næʃən": 4512,
      "ikwəl": 4513,
      "kənfɛdɹ": 4514,
      "spik": 4515,
      "dəmɛstɪk": 4516,
      "dejts": 4517,
      "ɛɹɪŋ": 4518,
      "pejt": 4519,
      "fɔɹməl": 4520,
      "stət": 4521,
      "plejɔf": 4522,
      "ɪɡzækt": 4523,
      "plætfɔɹm": 4524,
      "sts": 4525,
      "ɹilaj": 4526,
      "kɹajm": 4527,
      "stɔɹilajn": 4528,
      "ɛskɔɹt": 4529,
      "kɔɹpɹejʃən": 4530,
      "bɪɹ": 4531,
      "tæɡ": 4532,
      "duti": 4533,
      "87": 4534,
      "tɹitəd": 4535,
      "pɹəmowʃən": 4536,
      "fɛɹi": 4537,
      "fɹɛ": 4538,
      "ɹɪvaj": 4539,
      "pɹɑdəkt": 4540,
      "powəm": 4541,
      "ækjɹ": 4542,
      "hjumənz": 4543,
      "kæbən": 4544,
      "ɹinejmd": 4545,
      "skɪn": 4546,
      "stejtmənt": 4547,
      "tʃɛɹmən": 4548,
      "ejliən": 4549,
      "bɹɪɡ": 4550,
      "ɹɛpjətejʃən": 4551,
      "ælajz": 4552,
      "vajələns": 4553,
      "dɪvɪʒənz": 4554,
      "dɪskʌvɹi": 4555,
      "nɛvɹðəlɛs": 4556,
      "jʊɹd": 4557,
      "mæsk": 4558,
      "bejɑŋk": 4559,
      "pɑpjəlɛɹəti": 4560,
      "ʃowɪŋ": 4561,
      "tajf": 4562,
      "160": 4563,
      "fajndɪŋ": 4564,
      "ɛlɹ": 4565,
      "hɛdəd": 4566,
      "ɹɪlɪdʒən": 4567,
      "dɑnəld": 4568,
      "ɪntɹnəl": 4569,
      "mɑdəlz": 4570,
      "əbz": 4571,
      "əzejʃənz": 4572,
      "4tiejtʃ": 4573,
      "kənsu": 4574,
      "fimejlz": 4575,
      "stejdʒəz": 4576,
      "town": 4577,
      "bɹk": 4578,
      "θɹdi": 4579,
      "tɔl": 4580,
      "kəntʌki": 4581,
      "ɪnkɹisɪŋli": 4582,
      "tub": 4583,
      "dʒɹni": 4584,
      "ɹɪlif": 4585,
      "vɑɹ": 4586,
      "ajɹz": 4587,
      "niðɹ": 4588,
      "ændə": 4589,
      "lajts": 4590,
      "pɹd": 4591,
      "kənvɹtɪd": 4592,
      "sɹvej": 4593,
      "dɪklajnd": 4594,
      "kæmɹə": 4595,
      "swɑ": 4596,
      "kəlɛktəd": 4597,
      "stejbəl": 4598,
      "pɹɪnt": 4599,
      "iow": 4600,
      "ɪnəti": 4601,
      "kənɛktəd": 4602,
      "dejtɪd": 4603,
      "fəm": 4604,
      "pʌŋk": 4605,
      "pɹsi": 4606,
      "ɡɹawndz": 4607,
      "əlawz": 4608,
      "dɪtejlz": 4609,
      "ɹajən": 4610,
      "59": 4611,
      "towni": 4612,
      "ɛntʃɹ": 4613,
      "əsɔlt": 4614,
      "ɹɪbɛl": 4615,
      "dɛpθ": 4616,
      "səstejnd": 4617,
      "lɹnd": 4618,
      "ɛɡzɪstəns": 4619,
      "ɛndʒojd": 4620,
      "ɪvækjəw": 4621,
      "kejpəbəl": 4622,
      "hit": 4623,
      "1946": 4624,
      "ɛvəluʃən": 4625,
      "ɡlej": 4626,
      "ɔtə": 4627,
      "nɔɹwej": 4628,
      "pɹədusɪŋ": 4629,
      "mæsətʃu": 4630,
      "əplajd": 4631,
      "sajkl": 4632,
      "1981": 4633,
      "kɑntɹəvɹsi": 4634,
      "sidi": 4635,
      "simz": 4636,
      "wɪðdɹɔ": 4637,
      "owniəl": 4638,
      "owlɪmpɪks": 4639,
      "fəlɑsə": 4640,
      "tɔɹn": 4641,
      "ɪstəl": 4642,
      "1950ɛs": 4643,
      "1917": 4644,
      "kɑɹtɹ": 4645,
      "tʃæmpiənʃɪps": 4646,
      "tʃejn": 4647,
      "mæsətʃusəts": 4648,
      "lin": 4649,
      "dɪzajnz": 4650,
      "izəli": 4651,
      "sɛkts": 4652,
      "bʌl": 4653,
      "ɪsəti": 4654,
      "zow": 4655,
      "tɪl": 4656,
      "spɛktɹ": 4657,
      "nɑts": 4658,
      "ajzɪz": 4659,
      "ɔɹbət": 4660,
      "lɪsən": 4661,
      "wɪʃ": 4662,
      "sidʒ": 4663,
      "əpɹowtʃt": 4664,
      "kʊk": 4665,
      "kɛnt": 4666,
      "əbɪlətiz": 4667,
      "kowt": 4668,
      "dɛkejd": 4669,
      "kæɹiɪŋ": 4670,
      "mædʒ": 4671,
      "nowz": 4672,
      "kɹawd": 4673,
      "təbli": 4674,
      "sɹkəl": 4675,
      "ɹɪspɑndɪd": 4676,
      "ædvɛntʃɹ": 4677,
      "dɪskɹɪpʃən": 4678,
      "fowt": 4679,
      "tɹə": 4680,
      "ɹajzɪŋ": 4681,
      "ædvɹtaj": 4682,
      "dɪstɹəbjuʃən": 4683,
      "bɛɹid": 4684,
      "nɑl": 4685,
      "tɛmp": 4686,
      "ɪkstɛnʃən": 4687,
      "bjutə": 4688,
      "ɑɡɹəfɹ": 4689,
      "kawnt": 4690,
      "ɑnɹə": 4691,
      "sɪmps": 4692,
      "əɡɹæfɪk": 4693,
      "ɪdʒɪz": 4694,
      "wɔɹm": 4695,
      "pɔɹtʃ": 4696,
      "pɹsu": 4697,
      "əɡnejʃən": 4698,
      "ɡɹædʒuəli": 4699,
      "səksidəd": 4700,
      "sɹd": 4701,
      "ɪskej": 4702,
      "spəsɪfɪkli": 4703,
      "stajlz": 4704,
      "hæməl": 4705,
      "ɪktɪd": 4706,
      "klæsɪkəl": 4707,
      "skɑlɹ": 4708,
      "spɪɹət": 4709,
      "dʒɛf": 4710,
      "əkən": 4711,
      "kɑnvoj": 4712,
      "sɪmpsənz": 4713,
      "ɪnfɹ": 4714,
      "dænjəl": 4715,
      "klowð": 4716,
      "ɛnəm": 4717,
      "1948": 4718,
      "sawndz": 4719,
      "kɑnstətu": 4720,
      "wɪnɹ": 4721,
      "ɛntɹəns": 4722,
      "ɑbzɹv": 4723,
      "pu": 4724,
      "1960": 4725,
      "siə": 4726,
      "məz": 4727,
      "ajtəmz": 4728,
      "pɹɪzənɹz": 4729,
      "nutɹ": 4730,
      "fəni": 4731,
      "ɪnsɪst": 4732,
      "ɛsej": 4733,
      "kɹɛdətəd": 4734,
      "ʃʌt": 4735,
      "wɔk": 4736,
      "sɪməlɹli": 4737,
      "pɹejz": 4738,
      "wikənd": 4739,
      "ajsəs": 4740,
      "700": 4741,
      "klajmət": 4742,
      "ədɪʃənəli": 4743,
      "wɛɹɪŋ": 4744,
      "ɹliəst": 4745,
      "ejmi": 4746,
      "məkæn": 4747,
      "kɑɹt": 4748,
      "pɑɹtiz": 4749,
      "wɔɹnɪŋ": 4750,
      "ɪlɛktɹɑnɪk": 4751,
      "dɛst": 4752,
      "wejl": 4753,
      "ɑps": 4754,
      "ɹuld": 4755,
      "mjunɪsəp": 4756,
      "1978": 4757,
      "ɹɛnd": 4758,
      "ʌli": 4759,
      "ajnz": 4760,
      "dɪzajɹ": 4761,
      "θɹɛtənd": 4762,
      "mtv": 4763,
      "pɹɛzədɛntʃəl": 4764,
      "ɹʊɹəl": 4765,
      "ɛɹən": 4766,
      "siɪŋ": 4767,
      "mitɹz": 4768,
      "kændədejt": 4769,
      "ɪtɪd": 4770,
      "ɹɛskju": 4771,
      "ɛlən": 4772,
      "mʌdɹ": 4773,
      "ɹɪtejnd": 4774,
      "tɛknɪkəl": 4775,
      "lɛɡəsi": 4776,
      "supɪɹi": 4777,
      "pɹɪzɛntɪŋ": 4778,
      "kɑmbənejʃən": 4779,
      "89": 4780,
      "ɹiv": 4781,
      "79": 4782,
      "ɑtəmən": 4783,
      "læstəd": 4784,
      "kwɪk": 4785,
      "dəkts": 4786,
      "ivəl": 4787,
      "fæʃən": 4788,
      "pɹɑdəkts": 4789,
      "skɑɹ": 4790,
      "ʒɑnɹə": 4791,
      "1915": 4792,
      "lɛdʒənd": 4793,
      "nəv": 4794,
      "powlənd": 4795,
      "86": 4796,
      "səplajz": 4797,
      "ejdʒənsi": 4798,
      "əfɛɹz": 4799,
      "ɪɹiə": 4800,
      "æftɹwɹdz": 4801,
      "tɔk": 4802,
      "ojt": 4803,
      "əlɛdʒ": 4804,
      "ænəmejtəd": 4805,
      "ɹɛɡjəl": 4806,
      "dʒæn": 4807,
      "ədæptəd": 4808,
      "sud": 4809,
      "stɔɹmz": 4810,
      "aws": 4811,
      "spikɪŋ": 4812,
      "ɪntɪɹiɹ": 4813,
      "1977": 4814,
      "ɪnfl": 4815,
      "əzət": 4816,
      "mɛɹələnd": 4817,
      "fɹut": 4818,
      "ɛndʒənz": 4819,
      "dɪlɪvɹd": 4820,
      "pənɪnsələ": 4821,
      "twɪ": 4822,
      "stɑpt": 4823,
      "hɔ": 4824,
      "swɪtʃ": 4825,
      "dawntawn": 4826,
      "tɹd": 4827,
      "majɹ": 4828,
      "ɔɹən": 4829,
      "ɪkspænd": 4830,
      "kɑɹbən": 4831,
      "mɛsədʒ": 4832,
      "kɑnsəkw": 4833,
      "ɡɹz": 4834,
      "ɛntajtəld": 4835,
      "dʒajənt": 4836,
      "ɡɔɹdən": 4837,
      "ædəmz": 4838,
      "ɛndʒənɪɹɪŋ": 4839,
      "ɪnθ": 4840,
      "1963": 4841,
      "səpɔɹtɹz": 4842,
      "ɪkstɹimli": 4843,
      "ɪndəkejtəd": 4844,
      "sɛtəld": 4845,
      "pɹmənənt": 4846,
      "liow": 4847,
      "sɪtəzənz": 4848,
      "ɪmæ": 4849,
      "kin": 4850,
      "kɔɹts": 4851,
      "dɹajvɪŋ": 4852,
      "bluz": 4853,
      "dɛθs": 4854,
      "idʒəp": 4855,
      "tɹænsfɹ": 4856,
      "tʃɑɹdʒd": 4857,
      "əkw": 4858,
      "kɪs": 4859,
      "1916": 4860,
      "uz": 4861,
      "əsɛs": 4862,
      "ɪksklusɪv": 4863,
      "kliv": 4864,
      "pɹowtə": 4865,
      "tʃæmpiənz": 4866,
      "əbju": 4867,
      "nɛk": 4868,
      "ɪntɹəstəd": 4869,
      "əndɹ": 4870,
      "vɹsəz": 4871,
      "ɑɹdʒənt": 4872,
      "idʒəpt": 4873,
      "pɹəpowzəl": 4874,
      "lændfɔl": 4875,
      "nən": 4876,
      "junəvɹ": 4877,
      "ɹɪtɹnz": 4878,
      "æljənz": 4879,
      "ɑdz": 4880,
      "ʃɪf": 4881,
      "ɛvɪn": 4882,
      "ɹejsɪŋ": 4883,
      "majɡɹ": 4884,
      "ɹejd": 4885,
      "ɹəm": 4886,
      "ɪdʒd": 4887,
      "stɹætə": 4888,
      "tajfun": 4889,
      "61": 4890,
      "72": 4891,
      "ɪkts": 4892,
      "vɹsɹi": 4893,
      "1919": 4894,
      "ɡwɑ": 4895,
      "bɹɪŋɪŋ": 4896,
      "tæŋks": 4897,
      "kɑləm": 4898,
      "sɹvajvd": 4899,
      "ɔɹədʒən": 4900,
      "stɹits": 4901,
      "dɪstɹɪb": 4902,
      "ɹɪmɛmbɹ": 4903,
      "əmɪd": 4904,
      "1962": 4905,
      "ɪmpɔɹtəns": 4906,
      "ɹuf": 4907,
      "kəmpown": 4908,
      "muvz": 4909,
      "dɪskɹajbɪŋ": 4910,
      "kɹɛkt": 4911,
      "kəmpowzɹ": 4912,
      "69": 4913,
      "mɪdi": 4914,
      "wɪtnəs": 4915,
      "əsɹ": 4916,
      "62": 4917,
      "stʌdid": 4918,
      "pk": 4919,
      "kənsɹnz": 4920,
      "kænsəld": 4921,
      "vowtəd": 4922,
      "æbi": 4923,
      "ɛntɹɪŋ": 4924,
      "sʌmwʌn": 4925,
      "tɪpəkəl": 4926,
      "kowp": 4927,
      "ɹejtɪŋz": 4928,
      "ɹajn": 4929,
      "1938": 4930,
      "kɑzəz": 4931,
      "ʃɑts": 4932,
      "kɹt": 4933,
      "ajdɛntəfaj": 4934,
      "ɹədus": 4935,
      "əpɹowpɹi": 4936,
      "kɑmp": 4937,
      "pɔɹtɹejd": 4938,
      "ɪnstɔld": 4939,
      "ɪmədʒəz": 4940,
      "kənɛkʃən": 4941,
      "kənsɹnd": 4942,
      "mejniə": 4943,
      "mɑk": 4944,
      "ətɹɪb": 4945,
      "hʌntɪŋ": 4946,
      "nɑmənejʃən": 4947,
      "tinθ": 4948,
      "kɹɔst": 4949,
      "mətʃʊɹ": 4950,
      "fʌndz": 4951,
      "ɹɪkɔld": 4952,
      "filɪŋ": 4953,
      "tɹk": 4954,
      "fɔɹmjələ": 4955,
      "ɡɹæs": 4956,
      "najts": 4957,
      "ɔfɹz": 4958,
      "mits": 4959,
      "kɹuzɹ": 4960,
      "tʃæpəl": 4961,
      "dʒejk": 4962,
      "stɑɹts": 4963,
      "ɹɪs": 4964,
      "æsəd": 4965,
      "ɹɛmɪks": 4966,
      "viə": 4967,
      "tɹævəlɪŋ": 4968,
      "vɛtɹ": 4969,
      "130": 4970,
      "kejt": 4971,
      "pɹajzd": 4972,
      "wʌndɹ": 4973,
      "ɪkwɪpt": 4974,
      "bajɑɡɹəfi": 4975,
      "ɑbdʒɛkts": 4976,
      "sim": 4977,
      "ətɔɹiz": 4978,
      "kɑnf": 4979,
      "bitəlz": 4980,
      "bjʊɹ": 4981,
      "ɹɛkəɡnɪʃən": 4982,
      "kɑləni": 4983,
      "fɪʃɹ": 4984,
      "pɛl": 4985,
      "əlajəns": 4986,
      "tʃæptɹ": 4987,
      "lɪbɹəl": 4988,
      "səfɪʃənt": 4989,
      "fjuʒən": 4990,
      "hɪstɔɹiənz": 4991,
      "θawzəndz": 4992,
      "ajdɛntəti": 4993,
      "ʌtk": 4994,
      "nɔɹm": 4995,
      "wʌnz": 4996,
      "klæsəfajd": 4997,
      "nowtɪŋ": 4998,
      "fejvɹəbəl": 4999,
      "dʒəl": 5000,
      "dəbejt": 5001,
      "ænəvɹsɹi": 5002,
      "pɹɪnsɛs": 5003,
      "93": 5004,
      "ɹɛfɹənsɪz": 5005,
      "ɪstæblɪʃmənt": 5006,
      "dɛkejdz": 5007,
      "kənsɪstɪŋ": 5008,
      "ɹɛkəmɛndəd": 5009,
      "ʌʃ": 5010,
      "ɑɹɡju": 5011,
      "əpojntmənt": 5012,
      "sɔɹd": 5013,
      "θʌndɹ": 5014,
      "pɹɑməs": 5015,
      "mɪdivəl": 5016,
      "kɪm": 5017,
      "həŋɡ": 5018,
      "kɑntɹæk": 5019,
      "ɪnvajtəd": 5020,
      "hɔɹn": 5021,
      "junəvɹsəl": 5022,
      "dʒejn": 5023,
      "kənsɪdɹəbəl": 5024,
      "mətɪɹi": 5025,
      "mɪθ": 5026,
      "ɑtɪk": 5027,
      "1956": 5028,
      "hɛɹəld": 5029,
      "1930ɛs": 5030,
      "wʊlf": 5031,
      "kənz": 5032,
      "ʃild": 5033,
      "mædʒɪk": 5034,
      "skʌlp": 5035,
      "lədʒ": 5036,
      "mɹz": 5037,
      "lud": 5038,
      "ækədɛmɪk": 5039,
      "əbɪʃən": 5040,
      "ɛksk": 5041,
      "pɹɪv": 5042,
      "ɛnəmiz": 5043,
      "hawɹd": 5044,
      "hɪb": 5045,
      "dutiz": 5046,
      "dʒæz": 5047,
      "ɹɪmejndɹ": 5048,
      "kwɑn": 5049,
      "kɹd": 5050,
      "nun": 5051,
      "1936": 5052,
      "tɹuθ": 5053,
      "pæsədʒ": 5054,
      "ɪlj": 5055,
      "kəlowniəl": 5056,
      "dɹəmætɪk": 5057,
      "dɹəl": 5058,
      "əpɹu": 5059,
      "ɪzəmz": 5060,
      "ownɹz": 5061,
      "ɡləs": 5062,
      "wajdspɹɛd": 5063,
      "lɛnən": 5064,
      "ɑɹsənəl": 5065,
      "əkɹz": 5066,
      "owkl": 5067,
      "ændəl": 5068,
      "lejbawɹ": 5069,
      "wɪlɪŋ": 5070,
      "17tiejtʃ": 5071,
      "klæsəz": 5072,
      "kɑmjənəst": 5073,
      "tʃej": 5074,
      "vɹd": 5075,
      "awtɪŋ": 5076,
      "tʃɛs": 5077,
      "bɑn": 5078,
      "tʌnəl": 5079,
      "hæməltən": 5080,
      "ɹæf": 5081,
      "wɑl": 5082,
      "kɛli": 5083,
      "ədmɪtəd": 5084,
      "ælf": 5085,
      "ɪndowni": 5086,
      "bɹid": 5087,
      "smənt": 5088,
      "kəntɪnjuɪŋ": 5089,
      "næv": 5090,
      "slowli": 5091,
      "mæsɪv": 5092,
      "æktʃəwəl": 5093,
      "pɑk": 5094,
      "æspɛkts": 5095,
      "ʃejk": 5096,
      "lʊkt": 5097,
      "nbɑ": 5098,
      "dɪpɑɹtʃɹ": 5099,
      "əkejʒənəli": 5100,
      "kəmpɛtə": 5101,
      "ətætʃt": 5102,
      "powp": 5103,
      "əklej": 5104,
      "wɹst": 5105,
      "kæstɹ": 5106,
      "ɪnvajɹənmɛntəl": 5107,
      "kɹiejtɪv": 5108,
      "kɛnədi": 5109,
      "lɑv": 5110,
      "kɑsts": 5111,
      "mɛnʃən": 5112,
      "1961": 5113,
      "bjutəfəl": 5114,
      "ənejʃən": 5115,
      "sʌndej": 5116,
      "fɔɹd": 5117,
      "dɪlej": 5118,
      "ɡɑɹdz": 5119,
      "ɹisɔɹsɪz": 5120,
      "nɛðɹ": 5121,
      "110": 5122,
      "lajkt": 5123,
      "5tiejtʃ": 5124,
      "sajmən": 5125,
      "wejd": 5126,
      "ɪmɹdʒənsi": 5127,
      "powstɪd": 5128,
      "fæktɹi": 5129,
      "əkət": 5130,
      "ɪnspɹejʃən": 5131,
      "63": 5132,
      "bɹʊ": 5133,
      "flæʃ": 5134,
      "əsɪstəns": 5135,
      "81": 5136,
      "1953": 5137,
      "ɹɛkɹi": 5138,
      "ɔɹkəstɹə": 5139,
      "kəd": 5140,
      "ɪndiænə": 5141,
      "sɹtəfajd": 5142,
      "vɛsəlz": 5143,
      "ejdəd": 5144,
      "æksədənt": 5145,
      "klʌbz": 5146,
      "stɛm": 5147,
      "juɡ": 5148,
      "klejmɪŋ": 5149,
      "ænəmejʃən": 5150,
      "fæktɹ": 5151,
      "ɑlf": 5152,
      "ɛŋ": 5153,
      "skʌli": 5154,
      "dətɹ": 5155,
      "kɑntɛst": 5156,
      "klæsəfəkejʃən": 5157,
      "ɹɪspɛkt": 5158,
      "kɹɛdɪts": 5159,
      "dɪstɹʌkʃən": 5160,
      "bɪhejvjɹ": 5161,
      "fajtɹz": 5162,
      "mɛmɹi": 5163,
      "bæɡ": 5164,
      "ənəs": 5165,
      "7tiejtʃ": 5166,
      "hɪtlɹ": 5167,
      "ʒi": 5168,
      "sɪɡnəl": 5169,
      "pɑpjəlejʃənz": 5170,
      "nɔɹwi": 5171,
      "sɛnsəs": 5172,
      "fu": 5173,
      "pɹɑpɹtiz": 5174,
      "plejnz": 5175,
      "təsəz": 5176,
      "pæsəndʒɹz": 5177,
      "liz": 5178,
      "wɛltʃ": 5179,
      "sikwəl": 5180,
      "owldəst": 5181,
      "ɪnvɑlvɪŋ": 5182,
      "mowl": 5183,
      "ɹɛzəl": 5184,
      "stejd": 5185,
      "pætɹɪk": 5186,
      "tɹmɪnəs": 5187,
      "ɪɡɹ": 5188,
      "ɪkwɪvələnt": 5189,
      "ɛnʃəli": 5190,
      "dɪɹ": 5191,
      "hɛɹətədʒ": 5192,
      "1947": 5193,
      "dejn": 5194,
      "ɹowmæntɪk": 5195,
      "stɑɹd": 5196,
      "1937": 5197,
      "ɛnejbəl": 5198,
      "æknɑl": 5199,
      "stændz": 5200,
      "ɹɪlaj": 5201,
      "ɑɹkətɛktʃɹ": 5202,
      "ɛmi": 5203,
      "1958": 5204,
      "æθli": 5205,
      "74": 5206,
      "æpt": 5207,
      "ænsɛ": 5208,
      "ɪnɪʃi": 5209,
      "ɹɛdʒɪstɹ": 5210,
      "əbtejnd": 5211,
      "ətʃɹz": 5212,
      "kʌlɹz": 5213,
      "pʌl": 5214,
      "kælk": 5215,
      "ɛldɹ": 5216,
      "klivlənd": 5217,
      "dajnəsti": 5218,
      "jəs": 5219,
      "əkjuzd": 5220,
      "1910": 5221,
      "bɛlt": 5222,
      "1957": 5223,
      "dɹajvd": 5224,
      "fɪnɪʃɪŋ": 5225,
      "lɪz": 5226,
      "91": 5227,
      "sɔlt": 5228,
      "najnθ": 5229,
      "ɹɔŋ": 5230,
      "ælbɹt": 5231,
      "nɑɹ": 5232,
      "tʃɑɹdʒəz": 5233,
      "ɪnkɔɹpɹejtəd": 5234,
      "pɔɹtʃəɡ": 5235,
      "ɑŋ": 5236,
      "ɹivjuɹz": 5237,
      "pejtɹi": 5238,
      "92": 5239,
      "æɡənəst": 5240,
      "ɹisɹ": 5241,
      "flʌd": 5242,
      "sɔɹt": 5243,
      "bɹus": 5244,
      "tɑk": 5245,
      "kɹajsəs": 5246,
      "kənf": 5247,
      "dʌk": 5248,
      "kəmɪtəd": 5249,
      "howstɪd": 5250,
      "ʃɑɹk": 5251,
      "ɹɪplejsmənt": 5252,
      "kɔɹiə": 5253,
      "ɛlz": 5254,
      "ɔɹəndʒ": 5255,
      "dʌɡləs": 5256,
      "tiɹ": 5257,
      "pɪts": 5258,
      "dɪsɹ": 5259,
      "kɹɛdət": 5260,
      "ɹɑdʒɹ": 5261,
      "ɪlənoj": 5262,
      "vihɪkəl": 5263,
      "bud": 5264,
      "tɪs": 5265,
      "əsumd": 5266,
      "vin": 5267,
      "ɹʌsəl": 5268,
      "fɪkʃənəl": 5269,
      "mown": 5270,
      "6tiejtʃ": 5271,
      "dʒɪz": 5272,
      "ɛstəd": 5273,
      "psən": 5274,
      "ləndz": 5275,
      "dɪnajd": 5276,
      "əpɪɹɪŋ": 5277,
      "ʃɛd": 5278,
      "sɛntɹz": 5279,
      "ədɪʃənz": 5280,
      "ænəl": 5281,
      "ʊɹz": 5282,
      "bɹɡɹ": 5283,
      "næɹətɪv": 5284,
      "sɹkət": 5285,
      "lisə": 5286,
      "ɹɛpɹəzɛntətɪvz": 5287,
      "ɑdiow": 5288,
      "wɔɹi": 5289,
      "ənjuʒəwəl": 5290,
      "mɪz": 5291,
      "ɡejl": 5292,
      "ətɹejniən": 5293,
      "kəmpliʃən": 5294,
      "mɛdətɹejniən": 5295,
      "stænli": 5296,
      "fid": 5297,
      "ɹiæləti": 5298,
      "tʃɪk": 5299,
      "plejt": 5300,
      "kəmændəd": 5301,
      "ɛksɹsajz": 5302,
      "kojn": 5303,
      "ədɹɛs": 5304,
      "pɪktʃɹz": 5305,
      "stɹɔŋli": 5306,
      "1959": 5307,
      "sɹkjəlejʃən": 5308,
      "kɛvɪn": 5309,
      "stɛ": 5310,
      "pɹt": 5311,
      "awtstændɪŋ": 5312,
      "mətɪɹiəlz": 5313,
      "sɑɹ": 5314,
      "wɛlz": 5315,
      "sɹvajvɪŋ": 5316,
      "ɡɛts": 5317,
      "bɪɡʌn": 5318,
      "tɹænspɹ": 5319,
      "ʌpʃən": 5320,
      "pɑɹks": 5321,
      "ɪksɛpʃən": 5322,
      "dɹɔɪŋ": 5323,
      "tɹænspɹtejʃən": 5324,
      "bɹɪk": 5325,
      "dɛzɹ": 5326,
      "kəmɪt": 5327,
      "ɑmi": 5328,
      "ʃɑ": 5329,
      "nɔɹwidʒən": 5330,
      "ətɪd": 5331,
      "wɪkəts": 5332,
      "liɡz": 5333,
      "pɑsəbɪləti": 5334,
      "mowz": 5335,
      "bætɪŋ": 5336,
      "mɛθədz": 5337,
      "dɪzæstɹ": 5338,
      "pɹədʒ": 5339,
      "ɑnɹz": 5340,
      "kəθi": 5341,
      "sejld": 5342,
      "ɡæŋ": 5343,
      "əlejʃən": 5344,
      "1954": 5345,
      "dɛpj": 5346,
      "mɪnəm": 5347,
      "ɹispɑnsəbɪləti": 5348,
      "1955": 5349,
      "tɛlɪŋ": 5350,
      "kænsɹ": 5351,
      "fʌndɪŋ": 5352,
      "ɛvɹiwʌn": 5353,
      "16tiejtʃ": 5354,
      "fjun": 5355,
      "tɹən": 5356,
      "bɹæn": 5357,
      "ɪsbn": 5358,
      "ɪmɹdʒd": 5359,
      "ɑpəzət": 5360,
      "pæɹɪʃ": 5361,
      "əɡɹæm": 5362,
      "bɹɪstəl": 5363,
      "kɛɹəktɹɪstɪks": 5364,
      "pæsəndʒɹ": 5365,
      "lɹejʃən": 5366,
      "dɹɪvən": 5367,
      "əfown": 5368,
      "82": 5369,
      "sidz": 5370,
      "kæɹiɹ": 5371,
      "ɑpɹejt": 5372,
      "ɡɹejv": 5373,
      "əθi": 5374,
      "kɑnsɹv": 5375,
      "bəlɪŋ": 5376,
      "dɪfɹənsɪz": 5377,
      "skwɑd": 5378,
      "əbdʒɛktɪv": 5379,
      "ætməsfɪɹ": 5380,
      "dɪkʃən": 5381,
      "mæθəm": 5382,
      "sɛnətɹ": 5383,
      "pejntəd": 5384,
      "skim": 5385,
      "fɹənt": 5386,
      "kowɔɹdən": 5387,
      "ðɛɹæftɹ": 5388,
      "kɑntənɛntəl": 5389,
      "kɑnsɹvejʃən": 5390,
      "dejtɪŋ": 5391,
      "tinz": 5392,
      "ɔɹəɡən": 5393,
      "mɛksəkən": 5394,
      "ɹəkʌvɹd": 5395,
      "ʌðɹwajz": 5396,
      "θɛɹ": 5397,
      "ɹɛdʒəstɹ": 5398,
      "kɛməkəl": 5399,
      "dajəlɔɡ": 5400,
      "sowlɹ": 5401,
      "bætəlʃɪp": 5402,
      "13tiejtʃ": 5403,
      "əbɔɹd": 5404,
      "ɹɑbɹ": 5405,
      "stɹætədʒi": 5406,
      "ɹɛfju": 5407,
      "skɹɪp": 5408,
      "sɹvz": 5409,
      "kənvɛn": 5410,
      "ətɹɪbjətəd": 5411,
      "ædəl": 5412,
      "plætnəm": 5413,
      "ɹiɪnfɔɹs": 5414,
      "blow": 5415,
      "usɪŋ": 5416,
      "ɹɛvənu": 5417,
      "pætɹn": 5418,
      "it": 5419,
      "dɛt": 5420,
      "fɔɹtʃən": 5421,
      "sɛɡmənt": 5422,
      "sik": 5423,
      "vɹtʃu": 5424,
      "mɔɹəl": 5425,
      "fɹt": 5426,
      "lɛdʒəslej": 5427,
      "ɪfɛktɪvli": 5428,
      "kəmjunətiz": 5429,
      "ɹejsəz": 5430,
      "owtəd": 5431,
      "wɛpən": 5432,
      "pətɹowl": 5433,
      "fowld": 5434,
      "mɪnəstɹi": 5435,
      "dɹæɡ": 5436,
      "ɛɡzɪt": 5437,
      "nɛlsən": 5438,
      "tajɹmənt": 5439,
      "əkɑməd": 5440,
      "fowtəɡɹæf": 5441,
      "dɹow": 5442,
      "sɛmətɛɹi": 5443,
      "ədʌlts": 5444,
      "mɹinz": 5445,
      "həw": 5446,
      "jæŋk": 5447,
      "ɹitajɹmənt": 5448,
      "əpow": 5449,
      "1952": 5450,
      "təmɔɹ": 5451,
      "mjuzɪʃənz": 5452,
      "dʒɔɹdən": 5453,
      "ɹɛɡjəlɹli": 5454,
      "kɹɔsɪz": 5455,
      "iɹ": 5456,
      "əhow": 5457,
      "ɹɑbənsən": 5458,
      "ʌstɹ": 5459,
      "ætəl": 5460,
      "əkawnts": 5461,
      "dɑkjəmɛntɹi": 5462,
      "ənbɹɡ": 5463,
      "kæstɪŋ": 5464,
      "71": 5465,
      "pɪkt": 5466,
      "spowk": 5467,
      "ejʃənəl": 5468,
      "ʌndɹɡɹawnd": 5469,
      "pɪŋk": 5470,
      "fɔlɪŋ": 5471,
      "mejts": 5472,
      "ətɹæktəd": 5473,
      "kɹɪmənəl": 5474,
      "ɛntɹpɹajz": 5475,
      "əkʌl": 5476,
      "sʌbmɹin": 5477,
      "kənvɪnst": 5478,
      "fɹɛdɹɪk": 5479,
      "owlən": 5480,
      "muvmənts": 5481,
      "ɹəfɔɹm": 5482,
      "tɹajəlz": 5483,
      "owən": 5484,
      "1933": 5485,
      "ɪlɛkʃənz": 5486,
      "dɪvɛləpɹ": 5487,
      "73": 5488,
      "mɔɹɡən": 5489,
      "tɑl": 5490,
      "nidz": 5491,
      "ædz": 5492,
      "bɹɪdʒəz": 5493,
      "lɹn": 5494,
      "dʒʌm": 5495,
      "wejst": 5496,
      "ɪdən": 5497,
      "kəmɛm": 5498,
      "bætəlʃɪps": 5499,
      "ɪndʒɹiz": 5500,
      "kɑnsowl": 5501,
      "84": 5502,
      "diz": 5503,
      "æftɹmæθ": 5504,
      "sɔft": 5505,
      "kænz": 5506,
      "sidɪŋ": 5507,
      "ɹɛkt": 5508,
      "sʌdən": 5509,
      "vowts": 5510,
      "kwinz": 5511,
      "kʌnd": 5512,
      "dʒʊɹ": 5513,
      "lup": 5514,
      "swidən": 5515,
      "sɛpɹejtəd": 5516,
      "kætʃ": 5517,
      "sɪpi": 5518,
      "kɹaw": 5519,
      "səluʃən": 5520,
      "tɛmpɹɛɹi": 5521,
      "fajlz": 5522,
      "ɪməɡɹ": 5523,
      "1935": 5524,
      "stɛd": 5525,
      "dɪfəkəlti": 5526,
      "mɛʒɹz": 5527,
      "ɹɛmn": 5528,
      "mæm": 5529,
      "simd": 5530,
      "1949": 5531,
      "dɪstɪŋɡwɪʃt": 5532,
      "1951": 5533,
      "lɪmət": 5534,
      "ʃɑɹp": 5535,
      "dɪlejd": 5536,
      "ɹɪkwɛstɪd": 5537,
      "ajts": 5538,
      "fəsɪlɪti": 5539,
      "tɛɹi": 5540,
      "ɹɪstɔɹd": 5541,
      "dimd": 5542,
      "stændɹdz": 5543,
      "sɹawndəd": 5544,
      "wɛt": 5545,
      "tɹɑntow": 5546,
      "sɛv": 5547,
      "ɔθɹz": 5548,
      "ɹɪvɹz": 5549,
      "ɛlswɛɹ": 5550,
      "ɡəm": 5551,
      "howpt": 5552,
      "ʌkt": 5553,
      "dɪplojd": 5554,
      "nɛðɹləndz": 5555,
      "lɛk": 5556,
      "ɪmpɹɛst": 5557,
      "tʃajldhʊd": 5558,
      "poj": 5559,
      "pɛnəlti": 5560,
      "bɛɹz": 5561,
      "tʃæl": 5562,
      "kənvɛkʃən": 5563,
      "ejmd": 5564,
      "ɹivjuɹ": 5565,
      "kənsɹn": 5566,
      "ɹɪtejn": 5567,
      "bɪzəntajn": 5568,
      "fɹænsəs": 5569,
      "pʌblɪʃɪŋ": 5570,
      "owtɪv": 5571,
      "lajən": 5572,
      "ɡɹejtli": 5573,
      "stɹɪŋ": 5574,
      "sɹkəm": 5575,
      "tɛmpɹətʃɹz": 5576,
      "liənz": 5577,
      "dʒuz": 5578,
      "əbtejn": 5579,
      "ɡælɹi": 5580,
      "mɑdɹət": 5581,
      "ɪɡzæmpəlz": 5582,
      "kəθidɹəl": 5583,
      "vɪs": 5584,
      "ɪnvɑlvmənt": 5585,
      "ælkə": 5586,
      "skɑlɹz": 5587,
      "ajp": 5588,
      "wʊdən": 5589,
      "ɹɪkwajɹ": 5590,
      "sajtɪŋ": 5591,
      "ɔɹdɪŋz": 5592,
      "tʃɪn": 5593,
      "kɹk": 5594,
      "ɪntɹnɛt": 5595,
      "ɹɪðə": 5596,
      "pɹədʌkʃənz": 5597,
      "lɔɹəns": 5598,
      "hɛlm": 5599,
      "mɑnjəmənt": 5600,
      "ɪstæn": 5601,
      "ɛksəl": 5602,
      "tɹænzɪʃən": 5603,
      "hʌŋɡɹi": 5604,
      "ɔɹtən": 5605,
      "kɹit": 5606,
      "kɔɹi": 5607,
      "ɪlu": 5608,
      "æsi": 5609,
      "bɹɛd": 5610,
      "bætəlz": 5611,
      "stownz": 5612,
      "tiθ": 5613,
      "bæləns": 5614,
      "hʌndɹədz": 5615,
      "ɪmidiət": 5616,
      "mɑɹdʒən": 5617,
      "9tiejtʃ": 5618,
      "towl": 5619,
      "dəp": 5620,
      "spɪɹz": 5621,
      "fejsɪŋ": 5622,
      "hɪɹɪŋ": 5623,
      "ejdʒəz": 5624,
      "dɪpɛnd": 5625,
      "kɑnʃəs": 5626,
      "ɛniwʌn": 5627,
      "ɹɪkɔɹdɪŋz": 5628,
      "ædəp": 5629,
      "ɹʌɡ": 5630,
      "tɹajz": 5631,
      "kɑnvɹs": 5632,
      "ɹejts": 5633,
      "tɹejnd": 5634,
      "fɔɹməli": 5635,
      "fæk": 5636,
      "bowld": 5637,
      "ɛndʒoj": 5638,
      "ʃɔ": 5639,
      "lɹnɪŋ": 5640,
      "kætəl": 5641,
      "kipɪŋ": 5642,
      "æmi": 5643,
      "əkɑmpl": 5644,
      "ɡæn": 5645,
      "pɹɛɡn": 5646,
      "stɹejndʒ": 5647,
      "ɛnkɹɪdʒd": 5648,
      "dətɹmən": 5649,
      "sʌmwʌt": 5650,
      "spɪ": 5651,
      "fajɹɪŋ": 5652,
      "ɡɹædʒəwət": 5653,
      "ejʒənz": 5654,
      "sʌfɹɪŋ": 5655,
      "ɡɹæfɪks": 5656,
      "lɑm": 5657,
      "θɔɹ": 5658,
      "1900": 5659,
      "fɔɹsɪŋ": 5660,
      "skɛ": 5661,
      "12tiejtʃ": 5662,
      "wɪɡ": 5663,
      "ɹejdɑɹ": 5664,
      "mɑnətɹ": 5665,
      "fɹikwənt": 5666,
      "tɛkniks": 5667,
      "vɛdʒ": 5668,
      "kɹowejʃən": 5669,
      "powətɹi": 5670,
      "tɹowfi": 5671,
      "pwɛɹ": 5672,
      "spɑ": 5673,
      "ɪɹd": 5674,
      "lɛdʒəslejʃən": 5675,
      "dɪsmɪst": 5676,
      "nfəl": 5677,
      "ɛlɪŋ": 5678,
      "kwej": 5679,
      "əbzɔɹ": 5680,
      "faw": 5681,
      "wɑnd": 5682,
      "kɑstu": 5683,
      "ɪntɹəsts": 5684,
      "ɛnʃʊɹ": 5685,
      "hɔɹɹ": 5686,
      "ətɛmptɪŋ": 5687,
      "əpɑlətən": 5688,
      "wɛɹæz": 5689,
      "tɑmpsən": 5690,
      "θɪn": 5691,
      "ətækɪŋ": 5692,
      "ɛlt": 5693,
      "dʒæm": 5694,
      "dʒɹnələst": 5695,
      "pɑɹkɹ": 5696,
      "bæts": 5697,
      "dɹi": 5698,
      "fɹn": 5699,
      "fɪtəd": 5700,
      "bajn": 5701,
      "ɹejndʒmənt": 5702,
      "lɛɡz": 5703,
      "83": 5704,
      "sits": 5705,
      "ɹɛkəɡnajz": 5706,
      "fæl": 5707,
      "pwɛɹtow": 5708,
      "bɹʊk": 5709,
      "dɹajvɹ": 5710,
      "pju": 5711,
      "mɔɹəs": 5712,
      "ɡɑɹdiən": 5713,
      "twɪn": 5714,
      "sɪnəm": 5715,
      "θawzənd": 5716,
      "smu": 5717,
      "ɑʒ": 5718,
      "kɑntɹəvɹʃəl": 5719,
      "ædəptejʃən": 5720,
      "bɹɑnz": 5721,
      "fɔɹmɹli": 5722,
      "kwɛstʃənz": 5723,
      "kɑmənwɛlθ": 5724,
      "vɪzəbəl": 5725,
      "bɹlɪn": 5726,
      "ɹɑf": 5727,
      "klowsɹ": 5728,
      "slaj": 5729,
      "ɹajvɪŋ": 5730,
      "bɪɡəst": 5731,
      "tawnʃɪp": 5732,
      "ʃɹz": 5733,
      "lændsk": 5734,
      "fək": 5735,
      "kɑmɪks": 5736,
      "ɪkspɛɹəm": 5737,
      "owniə": 5738,
      "ejʃə": 5739,
      "æbsəns": 5740,
      "həŋɡɛɹiən": 5741,
      "dk": 5742,
      "ɡɹejs": 5743,
      "mɑdəfajd": 5744,
      "pɹɑmp": 5745,
      "ɹɪvɹs": 5746,
      "kənkluʒən": 5747,
      "kupɹ": 5748,
      "kiz": 5749,
      "mɪnɪs": 5750,
      "æntʃəl": 5751,
      "æksəd": 5752,
      "ɪnfɔɹmd": 5753,
      "flawɹ": 5754,
      "kɑnstənt": 5755,
      "hjudʒ": 5756,
      "pɹɛmɪɹd": 5757,
      "əpɛɹəntli": 5758,
      "awtbɹejk": 5759,
      "nɹz": 5760,
      "əmənz": 5761,
      "pɛz": 5762,
      "nɑvəlz": 5763,
      "læbɹətɔɹi": 5764,
      "kəlæps": 5765,
      "lændəd": 5766,
      "bætmæn": 5767,
      "ɡɹown": 5768,
      "dejl": 5769,
      "1913": 5770,
      "sɹɛndɹ": 5771,
      "fɪʃɪŋ": 5772,
      "sɹi": 5773,
      "ɔɹz": 5774,
      "dɪstɹɪbjətəd": 5775,
      "wɑtʃɪŋ": 5776,
      "lɔŋɡəst": 5777,
      "fɪkst": 5778,
      "tɛɹətɔɹiz": 5779,
      "ɪnstɹəmənts": 5780,
      "əlɪʃən": 5781,
      "ejtow": 5782,
      "ʊɹə": 5783,
      "lowkəm": 5784,
      "nɔɹməli": 5785,
      "ɡʌst": 5786,
      "900": 5787,
      "hɔk": 5788,
      "əlajt": 5789,
      "1926": 5790,
      "ɹilajzd": 5791,
      "ɛntɹz": 5792,
      "ətɹni": 5793,
      "kəmpl": 5794,
      "vɪktəmz": 5795,
      "sil": 5796,
      "dajəɡ": 5797,
      "fk": 5798,
      "kʌndəkt": 5799,
      "dʒɛt": 5800,
      "kɹɪstəl": 5801,
      "ɪnəv": 5802,
      "mɹtʃ": 5803,
      "1927": 5804,
      "sɪkjʊɹd": 5805,
      "bejsən": 5806,
      "mɑkɹ": 5807,
      "piɛm": 5808,
      "tæn": 5809,
      "uzi": 5810,
      "əkejtɪd": 5811,
      "ʌnsəksɛsfəl": 5812,
      "vɪzətɹz": 5813,
      "wikɛnd": 5814,
      "uəl": 5815,
      "dɹɪŋ": 5816,
      "ɹɪlisɪz": 5817,
      "dnɑ": 5818,
      "bɪlivz": 5819,
      "ɹɛstɹejʃən": 5820,
      "pɛɹi": 5821,
      "ɹɛpɹɪzɛntɪŋ": 5822,
      "tɪmbɹ": 5823,
      "mɛkən": 5824,
      "sætɹ": 5825,
      "ɑɹməmənt": 5826,
      "niən": 5827,
      "ɪnfluɛntʃəl": 5828,
      "unz": 5829,
      "niow": 5830,
      "dɪpɪktəd": 5831,
      "kojnz": 5832,
      "tənəns": 5833,
      "kæθɹ": 5834,
      "hɑst": 5835,
      "dɑmənejtəd": 5836,
      "mejnstɹim": 5837,
      "hajm": 5838,
      "1934": 5839,
      "flæŋk": 5840,
      "mɑnstɹ": 5841,
      "ɑzə": 5842,
      "1921": 5843,
      "hawzɪŋ": 5844,
      "tʃɹtʃəz": 5845,
      "səlut": 5846,
      "dʒajənts": 5847,
      "ɹɛzəluʃən": 5848,
      "dʒə": 5849,
      "ɛnlɪst": 5850,
      "ɡlɛn": 5851,
      "ejdʒənts": 5852,
      "næn": 5853,
      "dɪkɹi": 5854,
      "140": 5855,
      "nowtəbli": 5856,
      "stæntʃəl": 5857,
      "vɪdiowz": 5858,
      "pɛtɹ": 5859,
      "nilsən": 5860,
      "dɪvajs": 5861,
      "hjustən": 5862,
      "ɪmædʒən": 5863,
      "nbk": 5864,
      "ɪtɪv": 5865,
      "ɪndiənz": 5866,
      "ɔɹə": 5867,
      "ʃɔn": 5868,
      "ɔfəsəz": 5869,
      "skɪlz": 5870,
      "fæktɹz": 5871,
      "sæntə": 5872,
      "dʒejsən": 5873,
      "jɑ": 5874,
      "fɔɹti": 5875,
      "ɹɑbɹts": 5876,
      "1912": 5877,
      "mɹdʒd": 5878,
      "swidɪʃ": 5879,
      "əpɛɹənt": 5880,
      "nʊɹ": 5881,
      "sist": 5882,
      "klawd": 5883,
      "læŋɡwədʒəz": 5884,
      "bɪlif": 5885,
      "lækt": 5886,
      "ɡɹows": 5887,
      "ɹilejʃənʃɪps": 5888,
      "mɹiə": 5889,
      "ɪnhæbət": 5890,
      "bɹəzɪl": 5891,
      "sənt": 5892,
      "daw": 5893,
      "tɹɛk": 5894,
      "ɡɹis": 5895,
      "kəmpɹajz": 5896,
      "tɛstɪŋ": 5897,
      "tʃɑɹli": 5898,
      "æsən": 5899,
      "ækw": 5900,
      "sɪmpsən": 5901,
      "lɪf": 5902,
      "sajməl": 5903,
      "ɑbdʒɛkt": 5904,
      "sajməltejn": 5905,
      "1932": 5906,
      "ænθəni": 5907,
      "wɔɹnɹ": 5908,
      "dʒojnɪŋ": 5909,
      "ɪnfluənsɪz": 5910,
      "pɹəpɔɹ": 5911,
      "kɪnz": 5912,
      "ɑpɹejʃənəl": 5913,
      "dɪtejl": 5914,
      "ɪmowʃənəl": 5915,
      "kənsʌl": 5916,
      "dʒɛnɹejtəd": 5917,
      "æŋkə": 5918,
      "ɡlowb": 5919,
      "ɡɛɹɪsən": 5920,
      "læŋ": 5921,
      "klɑk": 5922,
      "tɔɹnejd": 5923,
      "ɹɪpɔɹtəd": 5924,
      "ɹɪpɔɹtədli": 5925,
      "dɪskʌvɹ": 5926,
      "əpownənts": 5927,
      "pæm": 5928,
      "ɛɹiəl": 5929,
      "hæpənd": 5930,
      "liəm": 5931,
      "sajəntɪsts": 5932,
      "tejlz": 5933,
      "spl": 5934,
      "lɑdʒ": 5935,
      "klajm": 5936,
      "səksɛsɹ": 5937,
      "tʃejs": 5938,
      "kənvɪk": 5939,
      "suəsajd": 5940,
      "tətud": 5941,
      "ɛmplojiz": 5942,
      "dɹʌmz": 5943,
      "juɡows": 5944,
      "pɹɑp": 5945,
      "fʊtɪdʒ": 5946,
      "ɪkspɪɹiənsɪz": 5947,
      "170": 5948,
      "ɡɑɡə": 5949,
      "ɔɹs": 5950,
      "əkʌltʃɹəl": 5951,
      "dʒɑni": 5952,
      "məkl": 5953,
      "əpɹi": 5954,
      "tɔt": 5955,
      "æɡɹəkʌltʃɹəl": 5956,
      "kæbənət": 5957,
      "əfəkejʃənz": 5958,
      "ɹɛvəluʃənɛɹi": 5959,
      "əpɹuvəl": 5960,
      "dɪfɛndəd": 5961,
      "kɹowejʃə": 5962,
      "sɪkstin": 5963,
      "hæt": 5964,
      "ɡʌ": 5965,
      "ʌsn": 5966,
      "wɪndow": 5967,
      "nəɡowʃiejʃənz": 5968,
      "mejntənəns": 5969,
      "3di": 5970,
      "ejniə": 5971,
      "sɹts": 5972,
      "ɛvənz": 5973,
      "hʌm": 5974,
      "dawnlowd": 5975,
      "iɡəl": 5976,
      "ɛksəkjutəd": 5977,
      "hʌnt": 5978,
      "fɹæɡ": 5979,
      "ɹʌʃ": 5980,
      "ɪkspowzd": 5981,
      "æskə": 5982,
      "ɑkjəpejʃən": 5983,
      "pɹɪsɪ": 5984,
      "dɹæɡən": 5985,
      "1911": 5986,
      "supɪɹiɹ": 5987,
      "fɹej": 5988,
      "dɪskʌst": 5989,
      "fɹid": 5990,
      "əskɹɪ": 5991,
      "pɹsənælɪti": 5992,
      "hejlow": 5993,
      "hʌd": 5994,
      "1929": 5995,
      "dɪtɹojt": 5996,
      "ɹitɹit": 5997,
      "dʒɛs": 5998,
      "dɛzɹt": 5999,
      "mɑɹʃ": 6000,
      "hɑləd": 6001,
      "ɹɑdow": 6002,
      "tɹɪbjut": 6003,
      "tʃɛl": 6004,
      "æftɹnun": 6005,
      "jəbəl": 6006,
      "əlu": 6007,
      "ɪdʒɪp": 6008,
      "pejs": 6009,
      "ɪtɹ": 6010,
      "wɔkɹ": 6011,
      "ɪntɹstejt": 6012,
      "tʊɹɪŋ": 6013,
      "ɪzɹiəl": 6014,
      "stɹəti": 6015,
      "tɛnθ": 6016,
      "ɑsəti": 6017,
      "15tiejtʃ": 6018,
      "jʊɹi": 6019,
      "vɛsəl": 6020,
      "zɪɹow": 6021,
      "ɹɛzədɛntʃəl": 6022,
      "mp": 6023,
      "kʌlɹd": 6024,
      "dəpɑz": 6025,
      "dɪfɹəns": 6026,
      "dʒizəs": 6027,
      "mɛlbɹn": 6028,
      "klɪntən": 6029,
      "ɹɑks": 6030,
      "1931": 6031,
      "fɹɛndli": 6032,
      "hajlajt": 6033,
      "ɹɪzajnd": 6034,
      "vɪʒ": 6035,
      "zbɑks": 6036,
      "kɑmpəl": 6037,
      "pʊl": 6038,
      "tɑd": 6039,
      "vɛl": 6040,
      "wæɡ": 6041,
      "dɪtejld": 6042,
      "ɔɹədʒ": 6043,
      "ɪnhɛɹ": 6044,
      "ɑɹmin": 6045,
      "stin": 6046,
      "ɡʊdz": 6047,
      "1922": 6048,
      "ejdʒɪd": 6049,
      "bæks": 6050,
      "ɹɪvilz": 6051,
      "ɡæm": 6052,
      "pɹɪvɛntɪd": 6053,
      "lɪŋkt": 6054,
      "pʊʃt": 6055,
      "pɹəfɹd": 6056,
      "lif": 6057,
      "fawndɹ": 6058,
      "titʃɹ": 6059,
      "mæɡnət": 6060,
      "pɹl": 6061,
      "məlɪʃə": 6062,
      "pawɹd": 6063,
      "ʌndɹstænd": 6064,
      "spɪɹɪtʃ": 6065,
      "fɔɹmæt": 6066,
      "ɹajs": 6067,
      "dʒɛɹi": 6068,
      "sɪstɹz": 6069,
      "tɹækt": 6070,
      "hɛlɪk": 6071,
      "sɪɡn": 6072,
      "ajsəlejtəd": 6073,
      "mæp": 6074,
      "ɔɹɡənəzejʃənz": 6075,
      "nejbɹhʊd": 6076,
      "dawt": 6077,
      "ədli": 6078,
      "əsæsən": 6079,
      "æləks": 6080,
      "lɪp": 6081,
      "kɹajst": 6082,
      "pɑɹtli": 6083,
      "ɛntʃɹz": 6084,
      "səbstæntʃəl": 6085,
      "vajɹəs": 6086,
      "bɛt": 6087,
      "ɑksajd": 6088,
      "sæmjul": 6089,
      "wɪd": 6090,
      "ɔɹədʒɪnz": 6091,
      "wejvz": 6092,
      "pɛɹə": 6093,
      "mowmənts": 6094,
      "bjʊɹow": 6095,
      "dʊɹ": 6096,
      "mʌzləm": 6097,
      "pajk": 6098,
      "dejndʒɹəs": 6099,
      "kʌvɹz": 6100,
      "tɹkɪʃ": 6101,
      "æntɪsəp": 6102,
      "smuð": 6103,
      "hæmɹ": 6104,
      "dɪpɑɹtəd": 6105,
      "wʊdz": 6106,
      "ɪliz": 6107,
      "ɔstɹiə": 6108,
      "pajən": 6109,
      "bəlɡ": 6110,
      "ɔɹdənɛɹi": 6111,
      "dɪzajnɹ": 6112,
      "midiəm": 6113,
      "vɛɹ": 6114,
      "əkəlz": 6115,
      "ɑɹktɪk": 6116,
      "ɪɡzɪstəd": 6117,
      "kæptɪv": 6118,
      "fɪftin": 6119,
      "kɑlɹɑdow": 6120,
      "lajsəns": 6121,
      "pɪɹiədz": 6122,
      "ɹæŋkɪŋ": 6123,
      "mæθju": 6124,
      "wɛdɪŋ": 6125,
      "ɪkstɛnt": 6126,
      "stɹɪp": 6127,
      "pɑɹtɪsəpejt": 6128,
      "ɪmpɑsəbəl": 6129,
      "ɪnstəns": 6130,
      "pojntəd": 6131,
      "pɹɪm": 6132,
      "æntən": 6133,
      "tʃejndʒɪŋ": 6134,
      "bɛnəfɪt": 6135,
      "sikɪŋ": 6136,
      "mənejtəd": 6137,
      "tum": 6138,
      "mɪsɪ": 6139,
      "ɛti": 6140,
      "kæʃ": 6141,
      "kəmpæn": 6142,
      "əpɹiʃi": 6143,
      "stæm": 6144,
      "əwə": 6145,
      "ɪnstɹəmɛntəl": 6146,
      "kɹuzɹz": 6147,
      "tɛknik": 6148,
      "tʃuz": 6149,
      "bɔltəmɔɹ": 6150,
      "iəsli": 6151,
      "æləb": 6152,
      "dɛpjəti": 6153,
      "spɛsəmənz": 6154,
      "spɛndɪŋ": 6155,
      "tɹʌbəl": 6156,
      "ætəs": 6157,
      "sʌləvən": 6158,
      "bɪtɹ": 6159,
      "fɪfti": 6160,
      "pɹist": 6161,
      "ɹikɑn": 6162,
      "kɑnsɹts": 6163,
      "mɪni": 6164,
      "ədiz": 6165,
      "ɹɛzədənt": 6166,
      "lowkəmowtɪv": 6167,
      "fin": 6168,
      "bɑz": 6169,
      "sojl": 6170,
      "ɹɛɹli": 6171,
      "hɔŋ": 6172,
      "əmɛndmənt": 6173,
      "dɹæf": 6174,
      "kɹiejtɹ": 6175,
      "nuzpejpɹz": 6176,
      "dajæmətɹ": 6177,
      "hɛɹɪs": 6178,
      "klɛm": 6179,
      "fənæli": 6180,
      "dʌsn": 6181,
      "ɔstən": 6182,
      "jəlejt": 6183,
      "ajdɪd": 6184,
      "10tiejtʃ": 6185,
      "əpɡɹejdəd": 6186,
      "snej": 6187,
      "klowzɪŋ": 6188,
      "ɪbən": 6189,
      "pɹejʃənz": 6190,
      "14tiejtʃ": 6191,
      "wɪθdɹu": 6192,
      "nɪs": 6193,
      "ejɡow": 6194,
      "pɹsp": 6195,
      "əbzɹv": 6196,
      "ʌŋkəl": 6197,
      "sɑn": 6198,
      "mɛtɹəpɑlətən": 6199,
      "dɹɛktɹz": 6200,
      "dɑkjəmɛnt": 6201,
      "jələs": 6202,
      "fɔɹtɹəs": 6203,
      "owlt": 6204,
      "vojədʒ": 6205,
      "ɪnkawntɹd": 6206,
      "vɪns": 6207,
      "pɑɹʃəli": 6208,
      "dɪstɹb": 6209,
      "kʌvɹɪŋ": 6210,
      "ælkəhɑl": 6211,
      "pɹmɪʃən": 6212,
      "dajət": 6213,
      "ɡowst": 6214,
      "ɹʌf": 6215,
      "ɹikow": 6216,
      "tɹəts": 6217,
      "fɔɹəsts": 6218,
      "1928": 6219,
      "mɑɹiow": 6220,
      "ɛksəbɪʃən": 6221,
      "dɪfəkəltiz": 6222,
      "swɪft": 6223,
      "pɑləsiz": 6224,
      "sʌmɹsɛt": 6225,
      "owniən": 6226,
      "θɹɪl": 6227,
      "ɪkʌl": 6228,
      "ɡɹɪt": 6229,
      "ɑɹmɹd": 6230,
      "æbət": 6231,
      "æŋɡlow": 6232,
      "ɡɪlbɹt": 6233,
      "lɛdʒəslejtʃɹ": 6234,
      "lɪθ": 6235,
      "lowəst": 6236,
      "mɪnt": 6237,
      "bowlɪŋ": 6238,
      "sajnz": 6239,
      "pɹspɛktɪv": 6240,
      "sæks": 6241,
      "1925": 6242,
      "hawshowld": 6243,
      "æŋɡɹ": 6244,
      "pɑst": 6245,
      "ædvajs": 6246,
      "skɛdʒʊl": 6247,
      "hændəd": 6248,
      "ejsənt": 6249,
      "bɑmɹz": 6250,
      "dejndʒɹ": 6251,
      "mɹtʃənt": 6252,
      "hɛlɪkɑp": 6253,
      "majæmi": 6254,
      "kɑnstətuʃənəl": 6255,
      "mæθəmæt": 6256,
      "kɪt": 6257,
      "pajləts": 6258,
      "æbk": 6259,
      "sɛktɹ": 6260,
      "ədʒejsənt": 6261,
      "fɛdɹejʃən": 6262,
      "pɪtʃt": 6263,
      "ejtin": 6264,
      "plʌs": 6265,
      "ɔɹθ": 6266,
      "ɹɪstɔɹ": 6267,
      "ɹəfɹz": 6268,
      "nɔ": 6269,
      "bæθ": 6270,
      "səlɹ": 6271,
      "niz": 6272,
      "siætəl": 6273,
      "vajələnt": 6274,
      "pʌt": 6275,
      "mejkɹ": 6276,
      "dɛləɡ": 6277,
      "əlɛk": 6278,
      "ɡɑɹdənz": 6279,
      "væljuz": 6280,
      "pɛt": 6281,
      "ɛntʃənz": 6282,
      "1924": 6283,
      "ɹejndʒɪŋ": 6284,
      "sɹvajv": 6285,
      "fəlɑsəfi": 6286,
      "dɪlɪv": 6287,
      "kɑmɛnts": 6288,
      "juɛsej": 6289,
      "əθən": 6290,
      "kɹɪtɪsajzd": 6291,
      "sw": 6292,
      "ajəwə": 6293,
      "təzən": 6294,
      "əfɛɹ": 6295,
      "nɑtsi": 6296,
      "sowldʒɹ": 6297,
      "æθl": 6298,
      "pɹɑk": 6299,
      "kəmpit": 6300,
      "ʃəp": 6301,
      "pɹɪti": 6302,
      "æləbæmə": 6303,
      "1920ɛs": 6304,
      "ɔstɹejljənz": 6305,
      "jəmənts": 6306,
      "dɪstɹojɹz": 6307,
      "ɪnɪŋ": 6308,
      "pɹɑmptəd": 6309,
      "ɹimuv": 6310,
      "mɪnəməm": 6311,
      "mɛdəsən": 6312,
      "dʒɪmi": 6313,
      "bejsəz": 6314,
      "pækɪstæn": 6315,
      "bɑmbɑɹd": 6316,
      "klɹ": 6317,
      "mɛɹət": 6318,
      "8tiejtʃ": 6319,
      "ɪkspɛnsɪv": 6320,
      "næʃənəli": 6321,
      "stɛps": 6322,
      "ʃɪft": 6323,
      "kɹɪbiən": 6324,
      "hæbətæt": 6325,
      "kəm2": 6326,
      "lejtɪv": 6327,
      "ɡæp": 6328,
      "tʃɑɹtɹ": 6329,
      "supɹv": 6330,
      "hɛndɹ": 6331,
      "ɪndid": 6332,
      "ɹɪbɛljən": 6333,
      "ɪdɪ": 6334,
      "ɪndəkejt": 6335,
      "titʃɪŋ": 6336,
      "wɪlst": 6337,
      "nəpow": 6338,
      "dɪlən": 6339,
      "pɹɑfət": 6340,
      "dɪspjut": 6341,
      "dɛzəɡnejʃən": 6342,
      "najs": 6343,
      "bitən": 6344,
      "pejntɪŋz": 6345,
      "sɛst": 6346,
      "mænjəskɹɪ": 6347,
      "ɹaw": 6348,
      "pəzɛʃən": 6349,
      "sætəlajt": 6350,
      "klæn": 6351,
      "əfɪli": 6352,
      "sənz": 6353,
      "1923": 6354,
      "ɹawndz": 6355,
      "mitɹ": 6356,
      "ɛksploj": 6357,
      "ælfɹ": 6358,
      "kæntɹ": 6359,
      "klin": 6360,
      "pɹowtæɡənəst": 6361,
      "dɛɹ": 6362,
      "kɹən": 6363,
      "mɑɹkətɪŋ": 6364,
      "ætɹd": 6365,
      "wejk": 6366,
      "sɹvajvɹz": 6367,
      "fɹejz": 6368,
      "hjumæn": 6369,
      "diəm": 6370,
      "æθlɛtɪk": 6371,
      "hætən": 6372,
      "ɹajdɹz": 6373,
      "ɹɛstɹɑnt": 6374,
      "flɛm": 6375,
      "kɹɪstəfɹ": 6376,
      "əsɔɹəs": 6377,
      "ətow": 6378,
      "ɔɹiəs": 6379,
      "kəlæbɹejʃən": 6380,
      "θən": 6381,
      "kiow": 6382,
      "lɪsts": 6383,
      "dɪpɛndɪŋ": 6384,
      "lojəl": 6385,
      "ɹitɹi": 6386,
      "sʌŋ": 6387,
      "ʌndɹstændɪŋ": 6388,
      "kændədejts": 6389,
      "bɛndʒ": 6390,
      "ɡɪɹ": 6391,
      "wɛlkəm": 6392,
      "powəmz": 6393,
      "kəmjunəkejʃən": 6394,
      "ɹɪzɪst": 6395,
      "ɪtəm": 6396,
      "ɪntɛntʃən": 6397,
      "sælv": 6398,
      "bʌn": 6399,
      "dajmənd": 6400,
      "dɑlɹz": 6401,
      "11tiejtʃ": 6402,
      "vɪktɹiz": 6403,
      "bownəs": 6404,
      "θə": 6405,
      "mk": 6406,
      "dɪsplejd": 6407,
      "ɡɹæv": 6408,
      "sɪtʃuejtɪd": 6409,
      "ətɑmɪk": 6410,
      "ɹajv": 6411,
      "əɡɹɛsɪv": 6412,
      "hɑɹm": 6413,
      "wejtɪŋ": 6414,
      "hæb": 6415,
      "mɪnəməl": 6416,
      "əsəns": 6417,
      "wikən": 6418,
      "mɪsəl": 6419,
      "ɡɪb": 6420,
      "bətæljənz": 6421,
      "dʒul": 6422,
      "pɹsɪst": 6423,
      "vɪlədʒəz": 6424,
      "dɪmɛn": 6425,
      "ɑksədʒən": 6426,
      "ɹʌɡbi": 6427,
      "əlajv": 6428,
      "spɑɹ": 6429,
      "ɪntɹəstɪŋ": 6430,
      "lɛdʒəslejtɪv": 6431,
      "skɹæ": 6432,
      "tɹæm": 6433,
      "æsks": 6434,
      "bɛldʒəm": 6435,
      "dɪɡɹiz": 6436,
      "əsɪstəd": 6437,
      "ɪkʌltʃɹ": 6438,
      "diejɡow": 6439,
      "səpowzd": 6440,
      "sɔftwɛɹ": 6441,
      "nowbəl": 6442,
      "hɛlpɪŋ": 6443,
      "əmʌŋst": 6444,
      "dænsɪŋ": 6445,
      "fɪ": 6446,
      "ði": 6447,
      "ɪmət": 6448,
      "fəmɪl": 6449,
      "fjunɹəl": 6450,
      "blajnd": 6451,
      "dwɔɹ": 6452,
      "plejɔfs": 6453,
      "sɪmptəmz": 6454,
      "pɑɹtnɹʃɪp": 6455,
      "kɑləniz": 6456,
      "klæ": 6457,
      "sækɹəf": 6458,
      "ɪlɪmənejtəd": 6459,
      "kwɪn": 6460,
      "ɪntɹfɪɹ": 6461,
      "mɑɹz": 6462,
      "fɪʃəl": 6463,
      "əsɪsts": 6464,
      "ɪkspɛɹəmənt": 6465,
      "vejl": 6466,
      "dɹajvɹz": 6467,
      "əmɛntejʃən": 6468,
      "ɡʌm": 6469,
      "mɑŋ": 6470,
      "pɹpəsəz": 6471,
      "fʌni": 6472,
      "ajdɛnt": 6473,
      "fɪks": 6474,
      "pɹəs": 6475,
      "ɛnsəz": 6476,
      "kɹejn": 6477,
      "ɛnz": 6478,
      "əlin": 6479,
      "bɹows": 6480,
      "bɪhejvi": 6481,
      "pʃən": 6482,
      "ɹɪpɛɹz": 6483,
      "θɪŋkɪŋ": 6484,
      "majnɪŋ": 6485,
      "dɔn": 6486,
      "bejkɹ": 6487,
      "kɑmpəlejʃən": 6488,
      "əkejʒənz": 6489,
      "æbsəlut": 6490,
      "21stɹit": 6491,
      "bʌst": 6492,
      "ɑlədʒɪst": 6493,
      "kənkɹit": 6494,
      "kəmi": 6495,
      "ɛmə": 6496,
      "klaw": 6497,
      "1908": 6498,
      "vojst": 6499,
      "pʊʃ": 6500,
      "1909": 6501,
      "mɪnɪsowtə": 6502,
      "fɔls": 6503,
      "lajtɪŋ": 6504,
      "ɪnlænd": 6505,
      "mɪsɪsɪpi": 6506,
      "vɑ": 6507,
      "wɑts": 6508,
      "sɪɹiəl": 6509,
      "1905": 6510,
      "ədmɪnəstɹejtɪv": 6511,
      "bɹejks": 6512,
      "viɛtnɑmis": 6513,
      "mʌŋ": 6514,
      "ɹikɑnəsəns": 6515,
      "ɡɹəfi": 6516,
      "hɛdɪŋ": 6517,
      "fɹæŋklɪn": 6518,
      "ədɪk": 6519,
      "pʌblɪkli": 6520,
      "wɔkɪŋ": 6521,
      "fʌŋkʃənz": 6522,
      "pɹəzɹvd": 6523,
      "hæmp": 6524,
      "ɡɹæmi": 6525,
      "wɪz": 6526,
      "ɑɹtəkəlz": 6527,
      "pɹɛpɹejʃən": 6528,
      "bɛndʒəmən": 6529,
      "ɔθɹajzd": 6530,
      "ɪntɛnsəfajd": 6531,
      "ajzɹz": 6532,
      "mɛtə": 6533,
      "owvɹsiz": 6534,
      "mɪtʃəl": 6535,
      "bɪznəsəz": 6536,
      "kʌts": 6537,
      "powlz": 6538,
      "bɪlivɪŋ": 6539,
      "hajwejz": 6540,
      "dɪfitɪŋ": 6541,
      "ɑi": 6542,
      "ʒɹi": 6543,
      "ɪlnəs": 6544,
      "kənst": 6545,
      "sæd": 6546,
      "ʃɪn": 6547,
      "pɹsɛn": 6548,
      "əməs": 6549,
      "skɹajb": 6550,
      "mænhætən": 6551,
      "əbjuʃənz": 6552,
      "ɹdz": 6553,
      "bʌk": 6554,
      "ɪlæbɹ": 6555,
      "ɹɪðəm": 6556,
      "ɹowzəv": 6557,
      "flajts": 6558,
      "dɑlɹ": 6559,
      "dajəɡnow": 6560,
      "ətɛndəns": 6561,
      "sɑnɪk": 6562,
      "fajɹz": 6563,
      "ɹɪzumd": 6564,
      "sɛpts": 6565,
      "dæ": 6566,
      "ɹowzəvɛlt": 6567,
      "kət": 6568,
      "wɔləs": 6569,
      "kəmjunəkejʃənz": 6570,
      "miə": 6571,
      "ɹɛzədəns": 6572,
      "bækɪŋ": 6573,
      "sætəs": 6574,
      "kəmpitɪd": 6575,
      "kænzəs": 6576,
      "kjʊɹ": 6577,
      "ejndʒəl": 6578,
      "sajnɪŋ": 6579,
      "ʃʊɡɹ": 6580,
      "æmjən": 6581,
      "fɔlən": 6582,
      "əlajnmənt": 6583,
      "æmjənɪʃən": 6584,
      "kənsɪstənt": 6585,
      "pɹswej": 6586,
      "sɪɡnə": 6587,
      "ændɹz": 6588,
      "mənu": 6589,
      "ɛkskəv": 6590,
      "pɹɪsɪpɪt": 6591,
      "kawntiz": 6592,
      "fajld": 6593,
      "ɛɹbɔɹn": 6594,
      "blɑks": 6595,
      "hæpən": 6596,
      "sʌbdʒɪk": 6597,
      "stɹətidʒɪk": 6598,
      "sʌbdʒɪkts": 6599,
      "1907": 6600,
      "əpownənt": 6601,
      "sɑft": 6602,
      "ʌzd": 6603,
      "kɑɹɡow": 6604,
      "stɹejn": 6605,
      "ætʃmənt": 6606,
      "ʌptɪd": 6607,
      "stɔɹz": 6608,
      "bɔld": 6609,
      "dɪstɪŋktɪv": 6610,
      "ɑdiənsəz": 6611,
      "dɪmɑl": 6612,
      "ɛθnɪk": 6613,
      "dɑkjəmənts": 6614,
      "sutəbəl": 6615,
      "ɔltɹnət": 6616,
      "pɔɹtlənd": 6617,
      "kæpɪtəl": 6618,
      "ɹp": 6619,
      "ɡɹɛɡ": 6620,
      "fɪləpinz": 6621,
      "pɪɡ": 6622,
      "fæt": 6623,
      "ɛndʒənɪɹz": 6624,
      "owʃi": 6625,
      "ɪɹɪŋ": 6626,
      "pɹəvɪn": 6627,
      "kɑntɛkst": 6628,
      "filɪŋz": 6629,
      "dʒud": 6630,
      "æskɹ": 6631,
      "pʌnɪʃ": 6632,
      "kənvɛnʃənəl": 6633,
      "juɹow": 6634,
      "bʌtɹ": 6635,
      "pikɪŋ": 6636,
      "ænajm": 6637,
      "næʃ": 6638,
      "skɛl": 6639,
      "mɪsɪz": 6640,
      "moj": 6641,
      "wɛlθi": 6642,
      "pɹowsid": 6643,
      "sæŋ": 6644,
      "tʃɪli": 6645,
      "ɡd": 6646,
      "ɹilowk": 6647,
      "ʌbz": 6648,
      "səbmɪtəd": 6649,
      "ɑɹɡjəmənt": 6650,
      "vɪʃ": 6651,
      "ɹs": 6652,
      "kəmplejn": 6653,
      "kəmplitɪŋ": 6654,
      "pɹsɛntədʒ": 6655,
      "dʒəns": 6656,
      "ownɹʃɪp": 6657,
      "ɛɹɪz": 6658,
      "nʌmbɹd": 6659,
      "æskɪŋ": 6660,
      "mjut": 6661,
      "kown": 6662,
      "fɪts": 6663,
      "ɪŋli": 6664,
      "tʃɛɹɪti": 6665,
      "fæstɹ": 6666,
      "bɪhæf": 6667,
      "mætɪk": 6668,
      "ətɹi": 6669,
      "pʌbləkejʃənz": 6670,
      "dʒɛfɹi": 6671,
      "ɪŋhæm": 6672,
      "ɑɹtɪstɪk": 6673,
      "aji": 6674,
      "ɔɹɡənɪzejʃən": 6675,
      "tɹajbz": 6676,
      "hʌntɹ": 6677,
      "ʃɛlz": 6678,
      "bɹɛst": 6679,
      "fɪzɪks": 6680,
      "sɔl": 6681,
      "kɔst": 6682,
      "ɪvɑlvd": 6683,
      "dʒənt": 6684,
      "kɹɑnəkəl": 6685,
      "æmɪk": 6686,
      "ɪksplowʒən": 6687,
      "tɑɹɡəts": 6688,
      "dʒənɛtɪk": 6689,
      "bɔɹdz": 6690,
      "sowni": 6691,
      "dʒudɪ": 6692,
      "sɪnəmə": 6693,
      "jɑɹ": 6694,
      "wɔɹən": 6695,
      "lus": 6696,
      "pɑn": 6697,
      "klɔz": 6698,
      "ɹɛdʒəstɹd": 6699,
      "ɑpʃən": 6700,
      "ɪnθuzi": 6701,
      "tɛnəsi": 6702,
      "ɪŋkt": 6703,
      "səspɛndəd": 6704,
      "bɛɹɪŋ": 6705,
      "360": 6706,
      "ɛnst": 6707,
      "mʌʃ": 6708,
      "bjuti": 6709,
      "ɡejts": 6710,
      "stɛɹ": 6711,
      "ɔfski": 6712,
      "əmej": 6713,
      "pɹʒən": 6714,
      "ɹɪlʌkt": 6715,
      "muviz": 6716,
      "pɹɑmpt": 6717,
      "kʌlt": 6718,
      "səvɪljən": 6719,
      "bɑs": 6720,
      "pʊɹli": 6721,
      "vɪktɹ": 6722,
      "kæmbəl": 6723,
      "pejm": 6724,
      "fɹɪɡ": 6725,
      "nɪkələs": 6726,
      "ɡɪlti": 6727,
      "ɪdʒɪpʃən": 6728,
      "ɪnɔ": 6729,
      "tʃɪz": 6730,
      "pɹəvɪnʃəl": 6731,
      "tæ": 6732,
      "dɪm": 6733,
      "ɹɪplejsɪŋ": 6734,
      "əɡɹæfɪkəl": 6735,
      "mɛʒɹd": 6736,
      "stow": 6737,
      "sɑvɹ": 6738,
      "bejn": 6739,
      "əkejt": 6740,
      "ɑɹmiz": 6741,
      "bim": 6742,
      "smowk": 6743,
      "bawndɹi": 6744,
      "æksɛl": 6745,
      "mejsən": 6746,
      "spowkən": 6747,
      "kɹɛst": 6748,
      "dɹənz": 6749,
      "ɔfɹɪŋ": 6750,
      "majnz": 6751,
      "ɛmbɑɹk": 6752,
      "æŋɡə": 6753,
      "dʌm": 6754,
      "lejɹ": 6755,
      "ɹowdi": 6756,
      "luizi": 6757,
      "klɪɹli": 6758,
      "luiziænə": 6759,
      "ʃɹi": 6760,
      "dɪfajn": 6761,
      "ɑbviəs": 6762,
      "bɪləti": 6763,
      "dɪploj": 6764,
      "kwajɹ": 6765,
      "dɪsɛnt": 6766,
      "fejvɹd": 6767,
      "tɛmpɹɛɹəli": 6768,
      "lʊks": 6769,
      "dajvɹ": 6770,
      "væk": 6771,
      "ʃɪpɪŋ": 6772,
      "ɹɛpɹəzɛnts": 6773,
      "ələs": 6774,
      "sajməltejniəsli": 6775,
      "sʌfɹ": 6776,
      "lɔɹdz": 6777,
      "kɔɹəl": 6778,
      "səlɛ": 6779,
      "stɔɹədʒ": 6780,
      "nɛtɪk": 6781,
      "sikwənsəz": 6782,
      "vʌlnɹ": 6783,
      "ɪsɛnʃəl": 6784,
      "ajdəl": 6785,
      "hɛlən": 6786,
      "lɛsɹ": 6787,
      "bæɹ": 6788,
      "wɹʃəp": 6789,
      "ɡɹən": 6790,
      "məkdɑnəld": 6791,
      "1906": 6792,
      "ɛnɡejdʒmənt": 6793,
      "duəl": 6794,
      "tɹejsi": 6795,
      "æɡɹɪkʌltʃɹ": 6796,
      "ɹɛmnənts": 6797,
      "luk": 6798,
      "mɑɹɡɹɪt": 6799,
      "ɹidɹz": 6800,
      "lt": 6801,
      "ajkɑn": 6802,
      "ɛdʒəkejʃənəl": 6803,
      "fəmɪljɹ": 6804,
      "1904": 6805,
      "əɡejtɪd": 6806,
      "æbu": 6807,
      "wɑnts": 6808,
      "bɑbi": 6809,
      "bɹθdej": 6810,
      "ejviejʃən": 6811,
      "hændəl": 6812,
      "ɑnəməs": 6813,
      "kʊ": 6814,
      "kənspɪɹ": 6815,
      "bownz": 6816,
      "kʌvɹədʒ": 6817,
      "ɪkstɹn": 6818,
      "tɹiɔl": 6819,
      "sejvd": 6820,
      "mʌntɹiɔl": 6821,
      "fiz": 6822,
      "məzʊɹi": 6823,
      "tɪkəl": 6824,
      "ɪntɹədus": 6825,
      "ɪbɹ": 6826,
      "ɪmpɹɛs": 6827,
      "pɹəvɪʒən": 6828,
      "sɹdʒɹi": 6829,
      "sʌbɹ": 6830,
      "pætɹnz": 6831,
      "dɹowv": 6832,
      "sɛpʃənz": 6833,
      "bɔɹɡ": 6834,
      "læŋkə": 6835,
      "dɪsəpojn": 6836,
      "biz": 6837,
      "kəmpɛɹəsən": 6838,
      "fɹiz": 6839,
      "næs": 6840,
      "ælbɹ": 6841,
      "mɑnəst": 6842,
      "səɡdʒɛstɪŋ": 6843,
      "tælənt": 6844,
      "ɛdən": 6845,
      "spajdɹ": 6846,
      "ɪnstɪtuʃənz": 6847,
      "θiætɹ": 6848,
      "θɹtin": 6849,
      "fɛld": 6850,
      "pojzən": 6851,
      "ɹiu": 6852,
      "skə": 6853,
      "flɛd": 6854,
      "pɹæktəsəz": 6855,
      "mætɹz": 6856,
      "kʌmfɹ": 6857,
      "ɹəflɛktəd": 6858,
      "wɑzn": 6859,
      "ɪnstɪtuʃən": 6860,
      "dɹə": 6861,
      "fʌŋ": 6862,
      "ɹibɪlt": 6863,
      "ədɑks": 6864,
      "spɑtəd": 6865,
      "əmɛntəd": 6866,
      "ɪmpi": 6867,
      "məkɑɹt": 6868,
      "dʌst": 6869,
      "kjubə": 6870,
      "ɪɹiən": 6871,
      "pʊld": 6872,
      "fɹðɹmɔɹ": 6873,
      "sæmpəl": 6874,
      "æɑ": 6875,
      "dʒʌmp": 6876,
      "bædli": 6877,
      "dɪstɹojɹ": 6878,
      "dɑɡz": 6879,
      "skɹɪpʃən": 6880,
      "ɡælək": 6881,
      "fæstəst": 6882,
      "ɹæŋks": 6883,
      "bɹnz": 6884,
      "ɹnɪŋ": 6885,
      "bɑmɪŋ": 6886,
      "ɪskejpt": 6887,
      "ɪɡzɪb": 6888,
      "vɪi": 6889,
      "sʌt": 6890,
      "ɡɹejəm": 6891,
      "stɹɪkt": 6892,
      "lɛsli": 6893,
      "dʒɑbz": 6894,
      "æpləkejʃən": 6895,
      "əmawnts": 6896,
      "wajdɹ": 6897,
      "ælfɹəd": 6898,
      "kɑɹtun": 6899,
      "spɪɹɪtʃəwəl": 6900,
      "flawɹz": 6901,
      "sʌbspiʃiz": 6902,
      "dɹʌɡz": 6903,
      "kəlæp": 6904,
      "kɑntɹəbjuʃənz": 6905,
      "slejv": 6906,
      "bɛntʃ": 6907,
      "ɔlmjuzɪk": 6908,
      "dɪsajdz": 6909,
      "pit": 6910,
      "ɪvæl": 6911,
      "slejvz": 6912,
      "kwɪ": 6913,
      "kənfɛdɹət": 6914,
      "kwejk": 6915,
      "ɪksklud": 6916,
      "mɪlz": 6917,
      "ɑɹɡjuz": 6918,
      "stivənz": 6919,
      "ɡɛɹi": 6920,
      "lɛz": 6921,
      "zæk": 6922,
      "ojdz": 6923,
      "pɔɹʃənz": 6924,
      "əlɛdʒd": 6925,
      "æŋkɹ": 6926,
      "stɹajkɪŋ": 6927,
      "ɪkspɹɛʃən": 6928,
      "flæɡʃɪp": 6929,
      "kɑpɹ": 6930,
      "vɹtɪkəl": 6931,
      "sɪtɪŋ": 6932,
      "sɹlənd": 6933,
      "kəntɹowlz": 6934,
      "səvɪɹli": 6935,
      "tuθ": 6936,
      "fidɪŋ": 6937,
      "ɪndiz": 6938,
      "skwɑdɹənz": 6939,
      "sʌpl": 6940,
      "məkɑɹtni": 6941,
      "hʊ": 6942,
      "fawndɪŋ": 6943,
      "ətu": 6944,
      "sʌmət": 6945,
      "pɹowfajl": 6946,
      "stɑɹɪŋ": 6947,
      "hæmptən": 6948,
      "lajm": 6949,
      "blɪn": 6950,
      "mjuzɪʃən": 6951,
      "sinə": 6952,
      "pɹɪntəd": 6953,
      "tɹət": 6954,
      "æmbæs": 6955,
      "ɪnstɔl": 6956,
      "ajsəz": 6957,
      "dæl": 6958,
      "mejnlænd": 6959,
      "pɛɹədi": 6960,
      "ɪnhæbətənts": 6961,
      "kæts": 6962,
      "bʌlk": 6963,
      "dɛfənɪʃən": 6964,
      "ɡɪtɑɹəst": 6965,
      "jild": 6966,
      "əbʌnd": 6967,
      "ɛɹɪzownə": 6968,
      "pɔ": 6969,
      "duow": 6970,
      "sætɹdi": 6971,
      "ɹistɹɪktəd": 6972,
      "dʒʊɹi": 6973,
      "spɛnd": 6974,
      "ɹejnz": 6975,
      "ɪksplejn": 6976,
      "kɛɹəktɹajzd": 6977,
      "ɹejʃən": 6978,
      "ʃajn": 6979,
      "ɛkow": 6980,
      "lejnz": 6981,
      "pænəl": 6982,
      "ɹɑdʒɹz": 6983,
      "tæməl": 6984,
      "ɑdɪk": 6985,
      "əsɛsɹ": 6986,
      "vɪzətɪŋ": 6987,
      "hɑɹts": 6988,
      "kəmændɪŋ": 6989,
      "plænəts": 6990,
      "lɪbɹti": 6991,
      "ɛksələnt": 6992,
      "tɛnʃən": 6993,
      "pəd": 6994,
      "ətejnd": 6995,
      "pɹowtin": 6996,
      "ɹajdɪŋ": 6997,
      "nəst": 6998,
      "hɑɹvi": 6999,
      "ɛkənɑm": 7000,
      "mitɪŋz": 7001,
      "ɹəfjuz": 7002,
      "kæɹiɹz": 7003,
      "ɑbzɹvejʃənz": 7004,
      "lukəs": 7005,
      "ɪlɛktɹɑn": 7006,
      "væst": 7007,
      "bits": 7008,
      "kɑmpɹəm": 7009,
      "mɡ": 7010,
      "wɪkət": 7011,
      "mɪʃɛl": 7012,
      "ɪɹɑk": 7013,
      "ɪksplejnz": 7014,
      "æθlits": 7015,
      "ʌltəmət": 7016,
      "nɹd": 7017,
      "mowtəv": 7018,
      "hɑlədej": 7019,
      "kipɹ": 7020,
      "slɪp": 7021,
      "klæʃ": 7022,
      "hɑɹdi": 7023,
      "hɪdən": 7024,
      "bɹtən": 7025,
      "dɑmənənt": 7026,
      "dɛmənstɹejtəd": 7027,
      "ɪtejʃənz": 7028,
      "pæʃən": 7029,
      "stɹɛŋθənd": 7030,
      "wɪʃt": 7031,
      "hɔf": 7032,
      "ɪliɡəl": 7033,
      "ɹajdɹ": 7034,
      "ɪkspow": 7035,
      "ajətiz": 7036,
      "səstejn": 7037,
      "08": 7038,
      "pɑɹləmɛntɹi": 7039,
      "kwɑntə": 7040,
      "kɹw": 7041,
      "hɹt": 7042,
      "mɹfi": 7043,
      "lejks": 7044,
      "sɪmfəni": 7045,
      "bɹɔdwej": 7046,
      "ɔstɹiən": 7047,
      "əkust": 7048,
      "nejbɹɪŋ": 7049,
      "lɪstɪŋ": 7050,
      "powz": 7051,
      "əstɹz": 7052,
      "ɹɪvajvəl": 7053,
      "kənvɹʒən": 7054,
      "nɔɹθwɹd": 7055,
      "ɹejm": 7056,
      "ɪntɹv": 7057,
      "ɑɹtwɹk": 7058,
      "ædəkw": 7059,
      "swɪt": 7060,
      "əlow": 7061,
      "owvɹz": 7062,
      "ɑɹkətɛkt": 7063,
      "pɹɪdɪktɪd": 7064,
      "tɔkɪŋ": 7065,
      "nowvə": 7066,
      "dejm": 7067,
      "mɔɹɪsən": 7068,
      "ɪkspɛɹəmɛntəl": 7069,
      "bɑmz": 7070,
      "ɹitʃəz": 7071,
      "hɹst": 7072,
      "ətɔɹiəl": 7073,
      "əhowmə": 7074,
      "kənsɪdɹɪŋ": 7075,
      "1901": 7076,
      "dɹɛd": 7077,
      "filz": 7078,
      "wɛstwɹd": 7079,
      "dajvɹs": 7080,
      "dɛləwɛɹ": 7081,
      "kɪdz": 7082,
      "pɹɑf": 7083,
      "bɪhejviɹ": 7084,
      "ɛnʃ": 7085,
      "swɪtsɹlənd": 7086,
      "fækʃən": 7087,
      "hawshowldz": 7088,
      "hɛns": 7089,
      "nɑmənejʃənz": 7090,
      "ɹutɪd": 7091,
      "əpɑɹtmənt": 7092,
      "æŋɡjəlɹ": 7093,
      "əkawn": 7094,
      "owkləhowmə": 7095,
      "dʒɑnəθən": 7096,
      "dæni": 7097,
      "spiɹ": 7098,
      "dʒuli": 7099,
      "mæɡnɛtɪk": 7100,
      "sɪɹiəsli": 7101,
      "sejd": 7102,
      "lɪkw": 7103,
      "təfəkejʃən": 7104,
      "ɹɪpitɪdli": 7105,
      "jusfəl": 7106,
      "pɹɛdəsɛsɹ": 7107,
      "tɛndɹ": 7108,
      "swɪmɪŋ": 7109,
      "ɹitejl": 7110,
      "pɹowl": 7111,
      "ɛntəli": 7112,
      "ɔltɹd": 7113,
      "nɪksən": 7114,
      "tɹajb": 7115,
      "θiətɹz": 7116,
      "ætlæn": 7117,
      "ɛntɪd": 7118,
      "lɛstɹ": 7119,
      "mɑɹdʒ": 7120,
      "09": 7121,
      "pɛɹənt": 7122,
      "tɹup": 7123,
      "sɹkəmstæn": 7124,
      "tɹʌŋk": 7125,
      "owlɪv": 7126,
      "kɑnsəkwəntli": 7127,
      "sɹkəmstænsəz": 7128,
      "θæŋks": 7129,
      "mɛlədi": 7130,
      "vajt": 7131,
      "kejv": 7132,
      "ɑlədʒɪsts": 7133,
      "bajpæs": 7134,
      "ɪnɪʃətɪv": 7135,
      "ʃejkspiɹ": 7136,
      "lɪθəw": 7137,
      "mɑɹvəl": 7138,
      "dʌbd": 7139,
      "stətɪstɪks": 7140,
      "dʒɛntəl": 7141,
      "fɹɛndʃɪp": 7142,
      "ɪlɛktɹɪsəti": 7143,
      "pɹsivd": 7144,
      "hajbɹ": 7145,
      "pejpɹz": 7146,
      "ɑɹnəl": 7147,
      "vɹtə": 7148,
      "ɹejzɪŋ": 7149,
      "1903": 7150,
      "dɪlɪvɹi": 7151,
      "jɑm": 7152,
      "ɛtək": 7153,
      "lejtəd": 7154,
      "owniəm": 7155,
      "kʌtɪŋ": 7156,
      "plət": 7157,
      "1902": 7158,
      "ɹɪvowlt": 7159,
      "nɪɡ": 7160,
      "mɪnstɹ": 7161,
      "ɪzɹej": 7162,
      "əzɑn": 7163,
      "bætʃ": 7164,
      "lændskejp": 7165,
      "ɹɪmɑɹkt": 7166,
      "siow": 7167,
      "məkænɪkəl": 7168,
      "mɑt": 7169,
      "mɑm": 7170,
      "towkiow": 7171,
      "væljəbəl": 7172,
      "kænd": 7173,
      "kɹɪstʃi": 7174,
      "dɹɛst": 7175,
      "fjuɹ": 7176,
      "ɪmpɹuvmənts": 7177,
      "ækjɹət": 7178,
      "kn": 7179,
      "ɹændəm": 7180,
      "ejkɹ": 7181,
      "sɹɛnd": 7182,
      "sʌŋk": 7183,
      "pejdʒəz": 7184,
      "tæktɪks": 7185,
      "dɛnmɑɹk": 7186,
      "ɹəʒi": 7187,
      "ʃædow": 7188,
      "ɪnsɹ": 7189,
      "pɹsənəli": 7190,
      "kiθ": 7191,
      "mejkɹz": 7192,
      "tawɹz": 7193,
      "pɹsənz": 7194,
      "115": 7195,
      "pɹɑməst": 7196,
      "əklejm": 7197,
      "iθ": 7198,
      "ətɛɹiən": 7199,
      "bætəlkɹw": 7200,
      "fɹajdi": 7201,
      "powlɹ": 7202,
      "blæst": 7203,
      "ætlæntə": 7204,
      "ɛɹlajnz": 7205,
      "əstɹiz": 7206,
      "ɛksəkjuʃən": 7207,
      "ɛnlɪstɪd": 7208,
      "ɛtəkət": 7209,
      "əsɛmbəld": 7210,
      "klən": 7211,
      "kəmplej": 7212,
      "ɹulɪŋ": 7213,
      "əfɛns": 7214,
      "ɹɛnəv": 7215,
      "lajnɹ": 7216,
      "dɪmændz": 7217,
      "fɛmən": 7218,
      "ɡɑdz": 7219,
      "ɹihænə": 7220,
      "dʒɛndɹ": 7221,
      "bɛθ": 7222,
      "pɑɹʃəl": 7223,
      "tɹævəlz": 7224,
      "owkɪŋ": 7225,
      "ɹiəm": 7226,
      "kæmpejnz": 7227,
      "fɹɛd": 7228,
      "kwɑləfajd": 7229,
      "ɛktʃɹəl": 7230,
      "mɛɡə": 7231,
      "hejt": 7232,
      "tɹɪɡɹ": 7233,
      "ɛləvejʃən": 7234,
      "wɪlhɛlm": 7235,
      "ɹæt": 7236,
      "owbi": 7237,
      "klowʒɹ": 7238,
      "dɪmændəd": 7239,
      "sɪmpl": 7240,
      "sɛntɹd": 7241,
      "ænsɹ": 7242,
      "sɛntə": 7243,
      "bɑmə": 7244,
      "ɹəfɹ": 7245,
      "stɹɛs": 7246,
      "ɑɹtʃbɪʃəp": 7247,
      "səksɛʃən": 7248,
      "ɪləstɹejtəd": 7249,
      "dɪskənt": 7250,
      "kɛl": 7251,
      "ɹɪŋz": 7252,
      "ɪtɪk": 7253,
      "fɪltɹ": 7254,
      "hən": 7255,
      "sɑm": 7256,
      "mɛmbɹʃɪp": 7257,
      "klowðɪŋ": 7258,
      "ɹajli": 7259,
      "ɪnsɪstəd": 7260,
      "ɹɪmu": 7261,
      "ɪntɹpɹɪtejʃən": 7262,
      "ɡɹɛt": 7263,
      "ɹumɹz": 7264,
      "mənəntli": 7265,
      "sɛtlɹz": 7266,
      "dɔɹz": 7267,
      "klɔɹ": 7268,
      "kɑmpawndz": 7269,
      "dɛvəl": 7270,
      "əkjum": 7271,
      "titʃ": 7272,
      "kɪlɹ": 7273,
      "mɪɹɹ": 7274,
      "mæstɹz": 7275,
      "mɹkj": 7276,
      "ɑɹnəld": 7277,
      "bɹɪlj": 7278,
      "ɡɑn": 7279,
      "ɑlv": 7280,
      "stɹʌɡəld": 7281,
      "kæɹəl": 7282,
      "pɹæktəkəl": 7283,
      "majkɹow": 7284,
      "mɪts": 7285,
      "fɑsəl": 7286,
      "ɛliət": 7287,
      "kɑmpəns": 7288,
      "əpɑlədʒ": 7289,
      "tʌf": 7290,
      "ɛɹətiz": 7291,
      "ɪkstɛnd": 7292,
      "kənɛktɪŋ": 7293,
      "ɑɹmɔɹd": 7294,
      "tɹejdɪŋ": 7295,
      "dɪmɑlɪʃt": 7296,
      "væm": 7297,
      "ɪɹɛktəd": 7298,
      "ɛniəm": 7299,
      "mɪstɹi": 7300,
      "fɔɹtin": 7301,
      "mɪŋhæm": 7302,
      "bjəl": 7303,
      "dɔtɹz": 7304,
      "stɹɔŋɹ": 7305,
      "dɪsɪʒənz": 7306,
      "æpəlɪs": 7307,
      "pɹɪnsəpəlz": 7308,
      "ɪnkɹisəz": 7309,
      "owmə": 7310,
      "ɹɪmɑɹk": 7311,
      "ɛdwɹdz": 7312,
      "bætsmən": 7313,
      "tɹʌk": 7314,
      "ɔɹəs": 7315,
      "ælfə": 7316,
      "ɪnvɛstmənt": 7317,
      "sejlɪŋ": 7318,
      "ɪnsɛkts": 7319,
      "bɹmɪŋhæm": 7320,
      "jæŋkiz": 7321,
      "finɪks": 7322,
      "ɔtəmætɪk": 7323,
      "kæɑ": 7324,
      "wɔtɹʃɛd": 7325,
      "ɪvælju": 7326,
      "ɹɪmuvəl": 7327,
      "tɪn": 7328,
      "ɛtɹɪk": 7329,
      "ædvɹtajzɪŋ": 7330,
      "dɪskʌvɹz": 7331,
      "ajtɪŋ": 7332,
      "ɪstæblɪʃɪŋ": 7333,
      "mɑsk": 7334,
      "dajnəsɔɹ": 7335,
      "wɔɹfɛɹ": 7336,
      "əpɹowpɹiət": 7337,
      "dɹejn": 7338,
      "pɑθ": 7339,
      "dɪfənsɪz": 7340,
      "pawdɹ": 7341,
      "ɪkspowʒɹ": 7342,
      "owniz": 7343,
      "ɹejndʒəz": 7344,
      "bæləd": 7345,
      "ɪɡzæktli": 7346,
      "dɪvɛləpɹz": 7347,
      "ɹejdz": 7348,
      "tʃɪp": 7349,
      "jumz": 7350,
      "owvɹwɛl": 7351,
      "lʌvd": 7352,
      "owbɑmə": 7353,
      "dʒown": 7354,
      "tajz": 7355,
      "ɹɪtajɹ": 7356,
      "mæɡəzinz": 7357,
      "ɪkstɹnəl": 7358,
      "dʒuvən": 7359,
      "dɪfɛndɪŋ": 7360,
      "ɑɡɹ": 7361,
      "kənfɹʌn": 7362,
      "sɑk": 7363,
      "kɑnsəntɹejʃən": 7364,
      "hɪn": 7365,
      "bɑmɹ": 7366,
      "θiætɹɪkəl": 7367,
      "towd": 7368,
      "ɛmplojmənt": 7369,
      "mɹkjɹi": 7370,
      "ɛmpti": 7371,
      "kwɔɹtɹbæk": 7372,
      "jæŋ": 7373,
      "ajvi": 7374,
      "θɹɛtən": 7375,
      "hʌdsən": 7376,
      "əpɹowtʃɪŋ": 7377,
      "fɹu": 7378,
      "miti": 7379,
      "mæɡn": 7380,
      "bejl": 7381,
      "ənawnsmənt": 7382,
      "ɹejndʒmənts": 7383,
      "mædəɡ": 7384,
      "ejniəm": 7385,
      "ɪlɛktɹɪkəl": 7386,
      "ɑtɹ": 7387,
      "tul": 7388,
      "ɡɹowv": 7389,
      "əfɛkt": 7390,
      "pɹowhɪb": 7391,
      "ɹʌnɹ": 7392,
      "lɪməts": 7393,
      "pɛd": 7394,
      "bɹnɪŋ": 7395,
      "skɹu": 7396,
      "fɛɹli": 7397,
      "ɪnɔɡɹ": 7398,
      "pɹʌ": 7399,
      "vɛnju": 7400,
      "dikɹi": 7401,
      "ɹejtʃəl": 7402,
      "ædvɛntʃɹz": 7403,
      "spɛɹ": 7404,
      "kɑməntɛɹi": 7405,
      "stʌm": 7406,
      "ifə": 7407,
      "kənɛtəkət": 7408,
      "sɪŋz": 7409,
      "kɹim": 7410,
      "ɪndəkejtɪŋ": 7411,
      "hajdɹədʒən": 7412,
      "pʌtɪŋ": 7413,
      "mæŋɡə": 7414,
      "majə": 7415,
      "ɑɹkətɛktʃɹəl": 7416,
      "fɪɹz": 7417,
      "pænz": 7418,
      "kæntɹbɛɹi": 7419,
      "hʊk": 7420,
      "ɑɹkaj": 7421,
      "fɑstɹ": 7422,
      "hɑɹmən": 7423,
      "tɹɔf": 7424,
      "ɑntɛɹiow": 7425,
      "æksəs": 7426,
      "ʃɔɹtɹ": 7427,
      "ɑnɡowɪŋ": 7428,
      "ɪlətiz": 7429,
      "owtow": 7430,
      "05": 7431,
      "tɪkət": 7432,
      "ɹɛsk": 7433,
      "æspɛkt": 7434,
      "vɑk": 7435,
      "tejst": 7436,
      "mɑɹkəts": 7437,
      "ɪmpɹuvmənt": 7438,
      "ɑst": 7439,
      "pɹɪs": 7440,
      "tɹænzlejʃən": 7441,
      "wɪðdɹɔəl": 7442,
      "nutɹəl": 7443,
      "tʌŋ": 7444,
      "junəfɔɹm": 7445,
      "ənlɛs": 7446,
      "pəzɛs": 7447,
      "əntɑlədʒi": 7448,
      "sɛləbɹejtəd": 7449,
      "mædəɡæskɹ": 7450,
      "hjuz": 7451,
      "juzɹz": 7452,
      "vɑlkejn": 7453,
      "stejʃənd": 7454,
      "ɑɹz": 7455,
      "ədʒʌst": 7456,
      "ɪvækjəwejtɪd": 7457,
      "kɹɪstʃiæn": 7458,
      "ɛdətəd": 7459,
      "ɪkstɹtɹɑpɪkəl": 7460,
      "ɹejdiejʃən": 7461,
      "dɪsəpejtɪd": 7462,
      "hajpɑθ": 7463,
      "ɹajvəlz": 7464,
      "pɛɹəs": 7465,
      "ɪntəlɛk": 7466,
      "æknɑlɪdʒd": 7467,
      "bəli": 7468,
      "tnɑ": 7469,
      "pɹmɪtəd": 7470,
      "ɪɹɑn": 7471,
      "ʌndʒ": 7472,
      "sɹvajvəl": 7473,
      "sæksən": 7474,
      "dɛnɪs": 7475,
      "slejvɹi": 7476,
      "nævəɡejʃən": 7477,
      "dɛmow": 7478,
      "nəpowliən": 7479,
      "mʊ": 7480,
      "ɹejʃəl": 7481,
      "ɪndɪdʒ": 7482,
      "tɹænspɔɹ": 7483,
      "dɪskʌʃən": 7484,
      "ɹuθ": 7485,
      "tɑks": 7486,
      "ʌvɹi": 7487,
      "ælɪtiz": 7488,
      "jʌŋɡəst": 7489,
      "bajnz": 7490,
      "sajənsəz": 7491,
      "ɪnɪʃiejtəd": 7492,
      "pɹɪsɪpɪtejʃən": 7493,
      "sʌltən": 7494,
      "ɡɹædʒuejtɪd": 7495,
      "əkustɪk": 7496,
      "kwɑləfajɪŋ": 7497,
      "hɪndu": 7498,
      "vɑljumz": 7499,
      "howsts": 7500,
      "kɑɹdz": 7501,
      "tsu": 7502,
      "ɹəkʌvɹi": 7503,
      "həwaji": 7504,
      "ənɪs": 7505,
      "æmbɹ": 7506,
      "fowtəɡɹæfs": 7507,
      "ɪndəstɹiz": 7508,
      "dʌɡ": 7509,
      "tɹɪks": 7510,
      "kɹənsi": 7511,
      "ʃʊɹəns": 7512,
      "sɛɹ": 7513,
      "vojsəz": 7514,
      "flɛmɪŋ": 7515,
      "jutəl": 7516,
      "sajlənt": 7517,
      "dəmɪn": 7518,
      "kuvɹ": 7519,
      "ɹʊk": 7520,
      "wɔld": 7521,
      "bɪlɪti": 7522,
      "ɑdow": 7523,
      "kæləbɹ": 7524,
      "stɹɔŋɡəst": 7525,
      "ɹikwajɹz": 7526,
      "nəɡ": 7527,
      "æŋɡl": 7528,
      "mɑɹkɪŋ": 7529,
      "ɹɪdʒənejtəd": 7530,
      "ætətud": 7531,
      "læps": 7532,
      "dʒiow": 7533,
      "ɛstəməts": 7534,
      "06": 7535,
      "ɪɡzɔst": 7536,
      "mʌd": 7537,
      "bɹnd": 7538,
      "ɪljənz": 7539,
      "bajɑɡɹəfɹ": 7540,
      "ɹɪpɔɹtɹ": 7541,
      "howmow": 7542,
      "fejsəz": 7543,
      "sɪli": 7544,
      "ɹɑt": 7545,
      "sɛkʃ": 7546,
      "dʒupətɹ": 7547,
      "pɑtɹ": 7548,
      "07": 7549,
      "pɑt": 7550,
      "ɹɪfɹɪŋ": 7551,
      "105": 7552,
      "kənvɪns": 7553,
      "ɹvz": 7554,
      "tubz": 7555,
      "dɛvəst": 7556,
      "350": 7557,
      "hæk": 7558,
      "nojz": 7559,
      "downejtəd": 7560,
      "ɔɹst": 7561,
      "kɹɑps": 7562,
      "vænkuvɹ": 7563,
      "ɡɪni": 7564,
      "hʌni": 7565,
      "spɛsəmən": 7566,
      "ɛnfɔɹs": 7567,
      "kɑliɡz": 7568,
      "klowsəst": 7569,
      "əkow": 7570,
      "pɹowɡɹæmɪŋ": 7571,
      "wɹs": 7572,
      "majnɔɹəti": 7573,
      "vɛtɹən": 7574,
      "mɹd": 7575,
      "kənɛkt": 7576,
      "fənɑmən": 7577,
      "bʌfəl": 7578,
      "θɪ": 7579,
      "skawt": 7580,
      "sawθistɹn": 7581,
      "tʊɹz": 7582,
      "tajɡɹ": 7583,
      "skætɹd": 7584,
      "spikɹ": 7585,
      "ajɹəl": 7586,
      "ɹɑbən": 7587,
      "ɹθkwejk": 7588,
      "dɹɪŋkɪŋ": 7589,
      "lawd": 7590,
      "ɡɹowz": 7591,
      "ɪndəkejts": 7592,
      "sɪɡnətʃɹ": 7593,
      "ɑɹkiəlɑdʒɪkəl": 7594,
      "pɔɹtʃəɡiz": 7595,
      "nowtəs": 7596,
      "pɹəmowʃənəl": 7597,
      "dɛnsəti": 7598,
      "zɹz": 7599,
      "dɪsajd": 7600,
      "vɪzəts": 7601,
      "tʃælədʒd": 7602,
      "æti": 7603,
      "ətɛndɪŋ": 7604,
      "səplajd": 7605,
      "bɹædmən": 7606,
      "nejmɪŋ": 7607,
      "mɪstɪɹi": 7608,
      "sɛndɪŋ": 7609,
      "ʊifə": 7610,
      "wɹði": 7611,
      "dɪskʌs": 7612,
      "tɑpt": 7613,
      "mɪɹli": 7614,
      "kɑnsəntɹejtəd": 7615,
      "ɡæðɹd": 7616,
      "ɹædəkəl": 7617,
      "pɛɹz": 7618,
      "ɹejndʒɹz": 7619,
      "ɛmfəsəs": 7620,
      "kəlæpst": 7621,
      "dwajt": 7622,
      "pɹɛpɹejʃənz": 7623,
      "lɔjɹ": 7624,
      "mʌm": 7625,
      "əsəz": 7626,
      "tɹədɪʃənəli": 7627,
      "ɡɑsp": 7628,
      "ətʃivmənt": 7629,
      "kɪlz": 7630,
      "kowəlɪʃən": 7631,
      "fejlɪŋ": 7632,
      "əsajn": 7633,
      "ɡʌvɹmənts": 7634,
      "ænjuəli": 7635,
      "nkæɑ": 7636,
      "fətɑɡɹəfi": 7637,
      "dɛməkɹæts": 7638,
      "kɑnsək": 7639,
      "kʌzən": 7640,
      "kɛməstɹi": 7641,
      "ɹajvz": 7642,
      "tinejdʒ": 7643,
      "ɑɹtəfɪʃəl": 7644,
      "æbd": 7645,
      "hɛvən": 7646,
      "mjunɪsəpəl": 7647,
      "ɑwə": 7648,
      "ɛm2": 7649,
      "ʃɑɹks": 7650,
      "saw": 7651,
      "sækɹəfajs": 7652,
      "tɹnɹ": 7653,
      "əbjus": 7654,
      "plɛ": 7655,
      "ajdil": 7656,
      "fɹʌn": 7657,
      "swɪs": 7658,
      "pʌblɪʃɹ": 7659,
      "ɹejʃi": 7660,
      "owniow": 7661,
      "1893": 7662,
      "pɹɪzənɹ": 7663,
      "istɹ": 7664,
      "pɹuvɪŋ": 7665,
      "pɹɑvənsəz": 7666,
      "toj": 7667,
      "kwɛstʃənd": 7668,
      "pɹɛdətɹz": 7669,
      "ʌŋkən": 7670,
      "plu": 7671,
      "dɪtɛktɪv": 7672,
      "hæmpʃɹ": 7673,
      "æstən": 7674,
      "pɹajsəz": 7675,
      "tʃæ": 7676,
      "sizd": 7677,
      "æfɡæn": 7678,
      "əkʌmpəniɪŋ": 7679,
      "ɹæk": 7680,
      "ɹɛpl": 7681,
      "dɛklɹejʃən": 7682,
      "kəmpitɪŋ": 7683,
      "ɪnvɛstəɡejt": 7684,
      "tɔks": 7685,
      "kejdʒ": 7686,
      "ɑti": 7687,
      "1896": 7688,
      "ɹiɪnfɔɹsmənts": 7689,
      "ɛdənbɹow": 7690,
      "ɪndɪdʒənəs": 7691,
      "ətɑp": 7692,
      "stɑps": 7693,
      "ajə": 7694,
      "jɹejniəm": 7695,
      "ɹvɪŋ": 7696,
      "owkt": 7697,
      "lɪŋks": 7698,
      "junəvɹsətiz": 7699,
      "kɹɑp": 7700,
      "kəndɛm": 7701,
      "ɹɛvəl": 7702,
      "ejdɪŋ": 7703,
      "bɹɔdkæstɪŋ": 7704,
      "ɡɹowsɪŋ": 7705,
      "flowz": 7706,
      "pɔɹtɹejəl": 7707,
      "kɑks": 7708,
      "ɛkw": 7709,
      "ɛksplən": 7710,
      "vɪktɔɹiən": 7711,
      "ʃowldɹ": 7712,
      "tɛnjɹ": 7713,
      "pajp": 7714,
      "kənsivd": 7715,
      "lɪft": 7716,
      "bɹnɑɹd": 7717,
      "ɪnfɹə": 7718,
      "mʌŋk": 7719,
      "ɹulɹ": 7720,
      "tɹænzət": 7721,
      "kɑtən": 7722,
      "ɹəʒim": 7723,
      "ɡɑdəs": 7724,
      "ɪkspɛɹəmənts": 7725,
      "siəm": 7726,
      "tæksown": 7727,
      "vɑləntɪɹz": 7728,
      "bɪniθ": 7729,
      "tɛɹɪtɔɹiəl": 7730,
      "ɹɪkɹɪŋ": 7731,
      "hɪtɪŋ": 7732,
      "sɹtənli": 7733,
      "flʌdəd": 7734,
      "pɛnd": 7735,
      "1898": 7736,
      "mæɡnətud": 7737,
      "tɹmənəl": 7738,
      "vowtɪŋ": 7739,
      "pɹəpɔɹʃən": 7740,
      "lojd": 7741,
      "pɹəfɛʃən": 7742,
      "ækəl": 7743,
      "ɪfɪʃənt": 7744,
      "lɑs": 7745,
      "kejbəl": 7746,
      "hjumɹ": 7747,
      "pɛnətɹ": 7748,
      "fɛd": 7749,
      "ɔts": 7750,
      "fɔɹkæst": 7751,
      "sɛntəns": 7752,
      "ɹivɛndʒ": 7753,
      "wɪi": 7754,
      "dɪsbænd": 7755,
      "kɑntɹəbjuʃən": 7756,
      "ɪmədʒɹi": 7757,
      "ɪɹə": 7758,
      "ɹajfəl": 7759,
      "bɹæntʃəz": 7760,
      "maw": 7761,
      "ɹɑki": 7762,
      "sɑks": 7763,
      "sɔŋɹajtɹ": 7764,
      "tʃænd": 7765,
      "ənklɪɹ": 7766,
      "wɛs": 7767,
      "hɪstɔɹɪkəli": 7768,
      "hæns": 7769,
      "kəmpænjən": 7770,
      "bɑd": 7771,
      "æmɹ": 7772,
      "kɑmɛntɪŋ": 7773,
      "ɹɪvajzd": 7774,
      "ʌndɹwɛnt": 7775,
      "kəmpownənts": 7776,
      "dʒʊɹəs": 7777,
      "skɑn": 7778,
      "ɛsənt": 7779,
      "ɪmpɹɛʃən": 7780,
      "tɛksts": 7781,
      "æmbæsədɹ": 7782,
      "lk": 7783,
      "dɹʌmɹ": 7784,
      "ejni": 7785,
      "mɪstej": 7786,
      "kɹɪstʃiænɪti": 7787,
      "ɡɪŋ": 7788,
      "hɔks": 7789,
      "dɪstɹojɪŋ": 7790,
      "ɛnti": 7791,
      "kəmpownənt": 7792,
      "kɪtʃ": 7793,
      "owks": 7794,
      "ajzən": 7795,
      "ɹədusɪŋ": 7796,
      "ʃælow": 7797,
      "ɑɹdʒəntinə": 7798,
      "məlɛniəm": 7799,
      "ɹədʌkʃən": 7800,
      "dɪvajsəz": 7801,
      "ɹɪplajd": 7802,
      "mitiɔɹ": 7803,
      "bɔlz": 7804,
      "ɑkjəpaj": 7805,
      "slip": 7806,
      "pejʃənts": 7807,
      "læf": 7808,
      "bɹɛt": 7809,
      "dʊɹejʃən": 7810,
      "fɪŋɡɹ": 7811,
      "stɹʌktʃɹəl": 7812,
      "jɔɹkʃɹ": 7813,
      "ɹæli": 7814,
      "1899": 7815,
      "mʌnθli": 7816,
      "əpɹowtʃɪz": 7817,
      "dajz": 7818,
      "fænt": 7819,
      "ɪmjun": 7820,
      "wɪnɹz": 7821,
      "fɹikwənsi": 7822,
      "bʌfəlow": 7823,
      "ænθɹ": 7824,
      "ʌnɪksp": 7825,
      "kəmpɛtətɪv": 7826,
      "sɛvəntin": 7827,
      "ajdɛntɪkəl": 7828,
      "dɪl": 7829,
      "sɪmpəθ": 7830,
      "zɑ": 7831,
      "ɪʃənsi": 7832,
      "howlz": 7833,
      "ɡejnɪŋ": 7834,
      "ɔɹɡənəs": 7835,
      "mʌltiplejɹ": 7836,
      "tʃɛst": 7837,
      "sæmpəlz": 7838,
      "tɔɹnejdow": 7839,
      "ɪtʃu": 7840,
      "1940ɛs": 7841,
      "ɹɪvil": 7842,
      "əkwajɹ": 7843,
      "ɹɪfl": 7844,
      "pɹəpowzəlz": 7845,
      "tɹki": 7846,
      "ɛsk": 7847,
      "ɛndɪd": 7848,
      "təfəkejʃənz": 7849,
      "ɹɪkwajɹmənts": 7850,
      "spɹɪŋz": 7851,
      "125": 7852,
      "dɪstənt": 7853,
      "tɹejdɪd": 7854,
      "sɹɛndɹd": 7855,
      "fɪnlænd": 7856,
      "æstɹən": 7857,
      "ɡajz": 7858,
      "ɛɹiət": 7859,
      "kənɛkʃənz": 7860,
      "lajftajm": 7861,
      "əpəl": 7862,
      "bæŋkɹ": 7863,
      "noj": 7864,
      "ɑləvɹ": 7865,
      "lɪkwəd": 7866,
      "vɪlə": 7867,
      "lajtɹ": 7868,
      "nɔɹfək": 7869,
      "kɑlɪnz": 7870,
      "plætfɔɹmz": 7871,
      "ɛmbɑɹkt": 7872,
      "pejl": 7873,
      "ɡejmɪŋ": 7874,
      "hændəld": 7875,
      "ɹowmæns": 7876,
      "ləv": 7877,
      "ownow": 7878,
      "vɹsəti": 7879,
      "ɪniən": 7880,
      "ɹisɹtʃɹz": 7881,
      "ɹikənstɹʌkʃən": 7882,
      "plɑzə": 7883,
      "dɪnaj": 7884,
      "kwinzlænd": 7885,
      "bɹz": 7886,
      "sisən": 7887,
      "wʌtɛvɹ": 7888,
      "pɹejzɪŋ": 7889,
      "pɹəɡɹɛsɪv": 7890,
      "pɪtsbɹɡ": 7891,
      "ədənts": 7892,
      "sɪdi": 7893,
      "ɑnti": 7894,
      "mɛtɹow": 7895,
      "ɪnstɹəmənt": 7896,
      "əbændən": 7897,
      "ɹɛpɹəzɛntejʃən": 7898,
      "ɪksklusɪvli": 7899,
      "əmejzɪŋ": 7900,
      "bæɹən": 7901,
      "ʃɛɹz": 7902,
      "kɹajmz": 7903,
      "sʌdənli": 7904,
      "wɔɹiɹz": 7905,
      "jʊɹɪŋ": 7906,
      "ɑkɹ": 7907,
      "əvɪk": 7908,
      "flʊɹ": 7909,
      "swɛ": 7910,
      "sɛləbɹejʃən": 7911,
      "tʃiow": 7912,
      "dʒɛfɹ": 7913,
      "ɛɹlajn": 7914,
      "bɛldʒən": 7915,
      "ʃɑɹdʒ": 7916,
      "ɹɛbəlz": 7917,
      "dɪstɹɪkts": 7918,
      "kəntɪnjuəs": 7919,
      "kənsɪdɹz": 7920,
      "kəmændɹz": 7921,
      "pɹɪdɑmən": 7922,
      "kɹejzi": 7923,
      "kɑnfədəns": 7924,
      "sɹb": 7925,
      "kɹejɡ": 7926,
      "kæθɹən": 7927,
      "1850": 7928,
      "vɛɹid": 7929,
      "ɔtow": 7930,
      "dajɪŋ": 7931,
      "fənæns": 7932,
      "ajk": 7933,
      "siəntɑlədʒi": 7934,
      "nætʃɹ": 7935,
      "flejmz": 7936,
      "pʌp": 7937,
      "skɹinplej": 7938,
      "ɛləf": 7939,
      "sajk": 7940,
      "ɹəflɛkt": 7941,
      "əmɛntɪd": 7942,
      "dɪsəplən": 7943,
      "tɛɹə": 7944,
      "ɪbɪt": 7945,
      "ɛmɹ": 7946,
      "ɹivjud": 7947,
      "mænʃən": 7948,
      "dɑɹwɪn": 7949,
      "bɪŋ": 7950,
      "səkjuʃən": 7951,
      "ɹiækʃənz": 7952,
      "bojlɹz": 7953,
      "stɹajks": 7954,
      "tæksəz": 7955,
      "ædvajzd": 7956,
      "skɹajbd": 7957,
      "ɡəz": 7958,
      "skɔɹz": 7959,
      "ɹɛkəmənd": 7960,
      "tʃɪɹ": 7961,
      "pɹejd": 7962,
      "ɪntɹsɛkts": 7963,
      "æntowniow": 7964,
      "tɹænzlejtəd": 7965,
      "wɛbɹ": 7966,
      "snejk": 7967,
      "vʌlnɹəbəl": 7968,
      "səɡnɪfɪkəns": 7969,
      "kf": 7970,
      "θɛl": 7971,
      "mæsək": 7972,
      "bɛnət": 7973,
      "pɹəsidəd": 7974,
      "sajklownz": 7975,
      "æbəl": 7976,
      "pɹɛzədənsi": 7977,
      "æŋɡɹi": 7978,
      "bɑɹnz": 7979,
      "kɑŋkwɛst": 7980,
      "dʒʌdʒmənt": 7981,
      "pɹɑpəɡ": 7982,
      "vɪdʒ": 7983,
      "ʌndɹstʊd": 7984,
      "powsts": 7985,
      "mɛdəlz": 7986,
      "ɑpɹtunətiz": 7987,
      "dɪstʃɑɹdʒ": 7988,
      "dejviz": 7989,
      "hɑɹvɹd": 7990,
      "pɹɛzəntejʃən": 7991,
      "ʌks": 7992,
      "owpəl": 7993,
      "inəs": 7994,
      "tɹɛnd": 7995,
      "pɔɹtɹət": 7996,
      "tɛmpow": 7997,
      "bɹʊks": 7998,
      "bɑmbɑɹdmənt": 7999,
      "wæŋ": 8000,
      "stɹowk": 8001,
      "awtpʊt": 8002,
      "ajdɪŋ": 8003,
      "pɹuf": 8004,
      "mænjəfæktʃɹɪŋ": 8005,
      "ɹajvəlɹi": 8006,
      "kæɹɪdʒ": 8007,
      "hajn": 8008,
      "lajənz": 8009,
      "mɑskow": 8010,
      "ejtən": 8011,
      "əbəlz": 8012,
      "kawntɹz": 8013,
      "vɑlkæn": 8014,
      "kəmɪʃənɹ": 8015,
      "nɔtəkəl": 8016,
      "kætəlɔɡ": 8017,
      "ɪndowniʒə": 8018,
      "1897": 8019,
      "səli": 8020,
      "tejp": 8021,
      "ɹɪspɛktɪv": 8022,
      "θɹz": 8023,
      "mɪlk": 8024,
      "ɪkstɛndɪŋ": 8025,
      "tɛləs": 8026,
      "twk": 8027,
      "lədʒɪtəm": 8028,
      "ɪntɹvɛntʃən": 8029,
      "il": 8030,
      "læstɪŋ": 8031,
      "lɑkt": 8032,
      "vɹn": 8033,
      "klɪɹd": 8034,
      "bæɹək": 8035,
      "tɹænspɔɹtəd": 8036,
      "dʒtwk": 8037,
      "ʌmbəl": 8038,
      "ɪksplɪs": 8039,
      "æbz": 8040,
      "mɪnəstɹz": 8041,
      "vɪnsənt": 8042,
      "ɛpɪk": 8043,
      "məkɪn": 8044,
      "pɹowtɛsts": 8045,
      "ɪntɹmidi": 8046,
      "dʒejkəb": 8047,
      "blʌ": 8048,
      "owsə": 8049,
      "ɹiɪnfɔɹst": 8050,
      "nɪm": 8051,
      "fɛn": 8052,
      "tɛləɡɹæf": 8053,
      "vɑn": 8054,
      "ɹidɹ": 8055,
      "tɹmən": 8056,
      "sɪɹiə": 8057,
      "ɑzlow": 8058,
      "law": 8059,
      "bitɪŋ": 8060,
      "ɪndʌk": 8061,
      "pɹɑtəst": 8062,
      "flowt": 8063,
      "tʊɹd": 8064,
      "səlɛkt": 8065,
      "ɛɡzajl": 8066,
      "pænzɹ": 8067,
      "zks": 8068,
      "tʃə": 8069,
      "lʌvɹ": 8070,
      "kænjən": 8071,
      "kowtʃɪz": 8072,
      "nʌnðəlɛs": 8073,
      "kəmɛnst": 8074,
      "ʌndi": 8075,
      "dɹajvz": 8076,
      "sɹkjəlɹ": 8077,
      "ɪlit": 8078,
      "kɛɹəktɹɪstɪk": 8079,
      "ɡɪft": 8080,
      "dɛkɹejtəd": 8081,
      "hɑɡ": 8082,
      "jəlejtɪŋ": 8083,
      "ɪɡzɪsts": 8084,
      "kæmɹən": 8085,
      "tɛstəd": 8086,
      "dɪtɪɹiɹ": 8087,
      "ɛkspɛkt": 8088,
      "mejntejnɪŋ": 8089,
      "æpləkejʃənz": 8090,
      "hd": 8091,
      "ədən": 8092,
      "əlæskə": 8093,
      "tʃow": 8094,
      "ɡɹəm": 8095,
      "kəlɛkʃənz": 8096,
      "ɹɛlətɪvz": 8097,
      "lɛŋ": 8098,
      "wɪθdɹɔn": 8099,
      "hejvən": 8100,
      "majkɹows": 8101,
      "sd": 8102,
      "juts": 8103,
      "ɹilowkejtɪd": 8104,
      "θɪɹiz": 8105,
      "kɹəd": 8106,
      "kɑmpawnd": 8107,
      "ɛnkɹɪdʒ": 8108,
      "dɹɛdn": 8109,
      "lʌŋ": 8110,
      "ɑɹiə": 8111,
      "ɪʃəs": 8112,
      "owdən": 8113,
      "wɔɹnɪŋz": 8114,
      "swɪŋ": 8115,
      "bowɪŋ": 8116,
      "tɹnpajk": 8117,
      "pɹipɛɹɪŋ": 8118,
      "itɪŋ": 8119,
      "ɪnsən": 8120,
      "ɹəfɔɹmz": 8121,
      "dʒɛnəsəs": 8122,
      "kɔf": 8123,
      "ɔɹiɛnt": 8124,
      "mænəf": 8125,
      "æskow": 8126,
      "pɑɹtɪsəpejʃən": 8127,
      "bæp": 8128,
      "əpowzɪŋ": 8129,
      "majkɹowsɔft": 8130,
      "bɛnt": 8131,
      "æni": 8132,
      "ɹajtɪŋz": 8133,
      "ɔɹəl": 8134,
      "əvɪtʃ": 8135,
      "04": 8136,
      "siɡə": 8137,
      "kæɹiz": 8138,
      "sɛnətɹz": 8139,
      "skʌlptʃɹ": 8140,
      "ɹimajnd": 8141,
      "dɪsplejst": 8142,
      "ɑbzɹvejʃən": 8143,
      "lɹnz": 8144,
      "ɹɪpʌblɪkənz": 8145,
      "ʃɪftəd": 8146,
      "ʌnɪkspɛktɪd": 8147,
      "ɹutin": 8148,
      "kɹæf": 8149,
      "dʒʌdʒɪz": 8150,
      "ælaj": 8151,
      "tɹədɪʃənz": 8152,
      "ɪntɹvjuz": 8153,
      "vɔl": 8154,
      "tɹæp": 8155,
      "skɑts": 8156,
      "dɪvajn": 8157,
      "məlejʒə": 8158,
      "tɑn": 8159,
      "dɪʃən": 8160,
      "hajpɹ": 8161,
      "ɪntɹækʃən": 8162,
      "kɔɹpɹət": 8163,
      "mɪksɪŋ": 8164,
      "ʃɛfild": 8165,
      "ɔɹθədɑks": 8166,
      "kæmps": 8167,
      "1000": 8168,
      "ɛnhæn": 8169,
      "blɑkt": 8170,
      "ɪzɹejli": 8171,
      "mæntəl": 8172,
      "kənsɹnɪŋ": 8173,
      "tɹɛntʃ": 8174,
      "kəlɑm": 8175,
      "lajtnɪŋ": 8176,
      "məθɑlədʒi": 8177,
      "æzəm": 8178,
      "kənstɹʌkt": 8179,
      "hɹəkejnz": 8180,
      "ɹɪtʃmənd": 8181,
      "ɪntɹpɹətəd": 8182,
      "ɔɹɡænɪk": 8183,
      "dʒɛl": 8184,
      "kɔɹsəz": 8185,
      "dɪsplejz": 8186,
      "dæləs": 8187,
      "fbi": 8188,
      "læns": 8189,
      "əŋ": 8190,
      "ʃæŋ": 8191,
      "spɑnsɹd": 8192,
      "wɹldz": 8193,
      "dɪnɹ": 8194,
      "kəmɹʃəli": 8195,
      "ɛsəns": 8196,
      "tʃejmbɹz": 8197,
      "doj": 8198,
      "ɡɪf": 8199,
      "ɪɡzɪbɪt": 8200,
      "1890": 8201,
      "ɑɹɡjuɪŋ": 8202,
      "ðz": 8203,
      "θəm": 8204,
      "ɪsɛnʃəli": 8205,
      "pɑɹkwej": 8206,
      "ənlajkli": 8207,
      "mæʃ": 8208,
      "bawn": 8209,
      "sajɹəs": 8210,
      "tɹɛʒɹ": 8211,
      "swɑn": 8212,
      "dɪpləmætɪk": 8213,
      "hɪɹowz": 8214,
      "sælɹi": 8215,
      "vɑlkænɪk": 8216,
      "kənfjuʒən": 8217,
      "dʒɑnstən": 8218,
      "bɑɹn": 8219,
      "ədɪɹ": 8220,
      "fækəlti": 8221,
      "numən": 8222,
      "sɛɡmənts": 8223,
      "hɑstəl": 8224,
      "dɪlɪbɹ": 8225,
      "1895": 8226,
      "əvɑɹd": 8227,
      "kɑstum": 8228,
      "jutɹz": 8229,
      "ɪsn": 8230,
      "hɛviwejt": 8231,
      "ɹɛdʒəmənts": 8232,
      "kənstɪtʃu": 8233,
      "ɪmpɹɛsɪv": 8234,
      "wəst": 8235,
      "pɑɹsənz": 8236,
      "bɪzi": 8237,
      "dəkej": 8238,
      "ʃɛpɹd": 8239,
      "ənsɹtən": 8240,
      "tɹɪŋ": 8241,
      "bɹɑm": 8242,
      "mɑnɑɹk": 8243,
      "ɹəz": 8244,
      "sɹpɹajzd": 8245,
      "bɪlz": 8246,
      "smɑɹt": 8247,
      "ædəkwət": 8248,
      "vɛɹiejʃən": 8249,
      "kʌmfɹtəbəl": 8250,
      "mejniən": 8251,
      "mʊhɑm": 8252,
      "mv": 8253,
      "əʃ": 8254,
      "jəlejtɪd": 8255,
      "dænsɹz": 8256,
      "nɑkt": 8257,
      "bʊləvɑɹd": 8258,
      "ʃɑps": 8259,
      "əbɑl": 8260,
      "kʌʃən": 8261,
      "ənəlz": 8262,
      "pɹɪt": 8263,
      "dɪskow": 8264,
      "ɡɹændfɑðɹ": 8265,
      "ɪnfɹəstɹʌktʃɹ": 8266,
      "bɹəzɪljən": 8267,
      "vɪʒw": 8268,
      "mud": 8269,
      "ælətiz": 8270,
      "wejdʒ": 8271,
      "ɪɡzæmənejʃən": 8272,
      "mɛnd": 8273,
      "tʃɛlsi": 8274,
      "jɹd": 8275,
      "ɛtɪks": 8276,
      "flɛks": 8277,
      "ɪlow": 8278,
      "dʒowz": 8279,
      "ɑnɹd": 8280,
      "dipli": 8281,
      "spɔɹtɪŋ": 8282,
      "ændz": 8283,
      "bajbəl": 8284,
      "kɹʌst": 8285,
      "ɹun": 8286,
      "ɑlədʒiz": 8287,
      "vɪktəm": 8288,
      "bəz": 8289,
      "ɹɛkɹiejʃən": 8290,
      "dejnɪʃ": 8291,
      "dɹæftɪd": 8292,
      "lɛɹi": 8293,
      "ændɹiə": 8294,
      "stɹik": 8295,
      "ɔɹɡənɪzəmz": 8296,
      "hɑlow": 8297,
      "ɹælf": 8298,
      "pɑvɹ": 8299,
      "ɪzɪŋ": 8300,
      "kɑmɹs": 8301,
      "ədvænsɪŋ": 8302,
      "pɪtʃɹ": 8303,
      "pɛɹəʃut": 8304,
      "bejli": 8305,
      "nɔɹθwɛstɹn": 8306,
      "tɪkəts": 8307,
      "səvɪljənz": 8308,
      "ɡɹlfɹɛnd": 8309,
      "stɪŋ": 8310,
      "dɪstɹbəns": 8311,
      "bejt": 8312,
      "læd": 8313,
      "nɪ": 8314,
      "dʒɛfɹsən": 8315,
      "ɪnkluʒən": 8316,
      "ɑɹdow": 8317,
      "pɪks": 8318,
      "ɛdɪ": 8319,
      "pɹsut": 8320,
      "bajəlɑdʒɪkəl": 8321,
      "ʃip": 8322,
      "vɛɹiejʃənz": 8323,
      "blæks": 8324,
      "pɹəsidʒɹ": 8325,
      "kbz": 8326,
      "ɑsi": 8327,
      "dɪsejbəl": 8328,
      "kajl": 8329,
      "howpɪŋ": 8330,
      "hæmlət": 8331,
      "itən": 8332,
      "stowlən": 8333,
      "ɹibawnd": 8334,
      "məkej": 8335,
      "ɔɹliənz": 8336,
      "ɛɹɹ": 8337,
      "ɹejʃiow": 8338,
      "stɹɑŋ": 8339,
      "ɑɹmstɹɑŋ": 8340,
      "stɹɛtʃ": 8341,
      "fəzɪʃən": 8342,
      "əplaj": 8343,
      "tajlɹ": 8344,
      "ɔɹb": 8345,
      "ɹit": 8346,
      "fɔɹk": 8347,
      "mawnts": 8348,
      "dɹɛkʃənz": 8349,
      "dʌnd": 8350,
      "sɛtəlmənts": 8351,
      "sʌbstətut": 8352,
      "mənɪp": 8353,
      "pɹɑsɛsəz": 8354,
      "mɑlək": 8355,
      "sɑɹdʒənt": 8356,
      "ɪnʃʊɹəns": 8357,
      "əbɛk": 8358,
      "bɛɹiəl": 8359,
      "ɪnɡ": 8360,
      "kɹʌ": 8361,
      "pətɛnʃəli": 8362,
      "dɹimz": 8363,
      "bɔ": 8364,
      "skowp": 8365,
      "lowkəli": 8366,
      "hejz": 8367,
      "bil": 8368,
      "fʌndəd": 8369,
      "tʃæləndʒɪz": 8370,
      "mɑnəstɛɹi": 8371,
      "ðɪŋ": 8372,
      "stəd": 8373,
      "vɛntʃɹ": 8374,
      "sɹbiən": 8375,
      "kætə": 8376,
      "dɑm": 8377,
      "æmbi": 8378,
      "1861": 8379,
      "ikwəli": 8380,
      "ɪkwej": 8381,
      "tʃɑɹtəd": 8382,
      "əpɑlow": 8383,
      "ɪdɪʃənz": 8384,
      "ɑpɹejts": 8385,
      "kɑləmz": 8386,
      "kənspɪɹəsi": 8387,
      "ɡɹɪd": 8388,
      "fɑlowɹz": 8389,
      "bɛnəfɪts": 8390,
      "dɪvɔɹs": 8391,
      "ɹʊki": 8392,
      "wow": 8393,
      "240": 8394,
      "owpənz": 8395,
      "ædvajz": 8396,
      "1889": 8397,
      "ɔfʃɔɹ": 8398,
      "dɪsajsɪv": 8399,
      "ɔɹf": 8400,
      "bɑɹbɹə": 8401,
      "ɪksplejnɪŋ": 8402,
      "ɹɪzɔɹt": 8403,
      "dʒɪt": 8404,
      "æltətud": 8405,
      "tɑmi": 8406,
      "ɹɪwɔɹd": 8407,
      "mɪm": 8408,
      "suzən": 8409,
      "ədɹɛst": 8410,
      "ɡɪld": 8411,
      "ɹikwajɹɪŋ": 8412,
      "əpt": 8413,
      "ɑlən": 8414,
      "məkɑɹθɹ": 8415,
      "ɡɑlf": 8416,
      "ɹɪm": 8417,
      "ɡɹd": 8418,
      "ɹejɡən": 8419,
      "pɹɪsajs": 8420,
      "03": 8421,
      "kəli": 8422,
      "pitɹz": 8423,
      "fɪɹd": 8424,
      "dɛltə": 8425,
      "pɪɹs": 8426,
      "sɪməlɛɹətiz": 8427,
      "ɪkstɪŋkt": 8428,
      "ɹɪkʌvɹ": 8429,
      "pɹswejdəd": 8430,
      "dʒʊɹəsdɪkʃən": 8431,
      "kæptʃɹɪŋ": 8432,
      "kɪdnæ": 8433,
      "ɑpʃənz": 8434,
      "ɡɛɹənti": 8435,
      "juəs": 8436,
      "bum": 8437,
      "klowðz": 8438,
      "stejtmənts": 8439,
      "kætəɡɔɹiz": 8440,
      "unə": 8441,
      "pejʃənt": 8442,
      "pɹɛɡnənt": 8443,
      "jutub": 8444,
      "pɹəzɹv": 8445,
      "klɪp": 8446,
      "ɑptəm": 8447,
      "kwajət": 8448,
      "wɪtnəsəz": 8449,
      "kwəbɛk": 8450,
      "kɑnstəntin": 8451,
      "fɑɹmɹz": 8452,
      "ɪmpləmɛntəd": 8453,
      "stɪm": 8454,
      "kɹæk": 8455,
      "ɛdʒəkejtəd": 8456,
      "1894": 8457,
      "ɔskɹ": 8458,
      "vɛtɹənz": 8459,
      "owə": 8460,
      "dʒæɡ": 8461,
      "pɹowtinz": 8462,
      "dʒudɪʃəl": 8463,
      "skændəl": 8464,
      "ɛkspɹ": 8465,
      "jutɔ": 8466,
      "mæps": 8467,
      "tɛ": 8468,
      "ɹɑstɹ": 8469,
      "vɹtʃuəli": 8470,
      "əkɑmədejt": 8471,
      "biəs": 8472,
      "wajldlajf": 8473,
      "ɔɹiɛntəd": 8474,
      "dɪsɔɹdɹ": 8475,
      "fɑs": 8476,
      "1891": 8477,
      "kɹɑnɪk": 8478,
      "ɪɹʌp": 8479,
      "fɛɹɪk": 8480,
      "ɪndowniʒən": 8481,
      "kɑɹdɪf": 8482,
      "sowʃələst": 8483,
      "bawndɹiz": 8484,
      "pɑɹtɪsəpənts": 8485,
      "wikənɪŋ": 8486,
      "kəmplejnd": 8487,
      "pæd": 8488,
      "skɛɹ": 8489,
      "mɪləmi": 8490,
      "ɑnɹɛɹi": 8491,
      "pɹowtətajp": 8492,
      "fjʊɹi": 8493,
      "ɡaw": 8494,
      "ʒɹz": 8495,
      "ɪzl": 8496,
      "plejts": 8497,
      "wɑɹz": 8498,
      "ʃæ": 8499,
      "kɹv": 8500,
      "ɡɛ": 8501,
      "ʃaj": 8502,
      "tulz": 8503,
      "sələm": 8504,
      "ɡlu": 8505,
      "pɹsownə": 8506,
      "sowp": 8507,
      "dɪvowtəd": 8508,
      "ɛɹiənz": 8509,
      "mɪdnajt": 8510,
      "fɹɛvɹ": 8511,
      "ɹɑkət": 8512,
      "stʌdiɪŋ": 8513,
      "113": 8514,
      "həl": 8515,
      "tæŋ": 8516,
      "tɹæpt": 8517,
      "1800": 8518,
      "hændlɪŋ": 8519,
      "wɪskɑn": 8520,
      "ɪntɛnt": 8521,
      "θɹɛts": 8522,
      "kjʊɹi": 8523,
      "tæktɪkəl": 8524,
      "əsu": 8525,
      "ænts": 8526,
      "ɛlɪs": 8527,
      "dilɪŋ": 8528,
      "kæf": 8529,
      "ɑɹow": 8530,
      "1892": 8531,
      "ɪkstɛnsɪvli": 8532,
      "wɪskɑnsən": 8533,
      "hʌt": 8534,
      "ɪnɡɹej": 8535,
      "ɑnts": 8536,
      "dɪmɪn": 8537,
      "fjud": 8538,
      "tɹejlɹ": 8539,
      "ɡæləksi": 8540,
      "θɛɹəpi": 8541,
      "lək": 8542,
      "ɛnsɹ": 8543,
      "lejbəld": 8544,
      "nutən": 8545,
      "ɪndɹ": 8546,
      "bɔɹdɹz": 8547,
      "mɑntɡʌm": 8548,
      "ɡɑθɪk": 8549,
      "jɛl": 8550,
      "ɪmpɹɪz": 8551,
      "ɹɛbəl": 8552,
      "ʌpsɛt": 8553,
      "snæ": 8554,
      "spɪt": 8555,
      "fifə": 8556,
      "kɑv": 8557,
      "mænjəskɹɪpt": 8558,
      "howmowsɛkʃ": 8559,
      "vajn": 8560,
      "kɑnflɪkts": 8561,
      "vjuɹ": 8562,
      "sɛntənst": 8563,
      "dʒɛɹəld": 8564,
      "hajlajtɪd": 8565,
      "mʊhɑməd": 8566,
      "ɪzlɑmɪk": 8567,
      "ɑbl": 8568,
      "majsɛlf": 8569,
      "fowtow": 8570,
      "bəsi": 8571,
      "tajɡɹz": 8572,
      "tɹɪbjun": 8573,
      "mæsəkɹ": 8574,
      "kɑnsəl": 8575,
      "1870": 8576,
      "ʌsəlz": 8577,
      "tɹiow": 8578,
      "tinə": 8579,
      "tæskt": 8580,
      "plɹ": 8581,
      "hawzd": 8582,
      "wɔɹʃɪps": 8583,
      "timejt": 8584,
      "ɡɑspəl": 8585,
      "ɹʌʃɪŋ": 8586,
      "dɪstɪŋk": 8587,
      "məndz": 8588,
      "dʒɹu": 8589,
      "ɹɪmowt": 8590,
      "mɪləm": 8591,
      "ʃæft": 8592,
      "ɹizɑlvd": 8593,
      "kænt": 8594,
      "dɑkjəmɛntəd": 8595,
      "01": 8596,
      "vəlɑsəti": 8597,
      "juzɹ": 8598,
      "pɑɹtnɹz": 8599,
      "dʒʌstən": 8600,
      "lækɪŋ": 8601,
      "pɑlətɪʃənz": 8602,
      "læks": 8603,
      "pɹɪntɪŋ": 8604,
      "ɪvækjəwejʃən": 8605,
      "ɪnhɛɹətɪd": 8606,
      "mitiɔɹəlɑdʒɪkəl": 8607,
      "mɑntɡʌmɹi": 8608,
      "bust": 8609,
      "əbɹɔd": 8610,
      "linz": 8611,
      "ɡəlu": 8612,
      "tɛləfown": 8613,
      "owdə": 8614,
      "ɹɪnud": 8615,
      "ælɪk": 8616,
      "pejnt": 8617,
      "hjumænɪti": 8618,
      "ɹɪkɹutɪd": 8619,
      "dowm": 8620,
      "ɹəɡɑɹdləs": 8621,
      "dɪskəntɪn": 8622,
      "staj": 8623,
      "ɹuz": 8624,
      "ɹɛzɹv": 8625,
      "skɑlɹʃɪp": 8626,
      "ɹɛskjud": 8627,
      "dɪfɛndɹz": 8628,
      "lɑvə": 8629,
      "1888": 8630,
      "ɡɑl": 8631,
      "tʃəwəl": 8632,
      "dɑɹknəs": 8633,
      "dʒɹusələm": 8634,
      "ɪnkawntɹz": 8635,
      "piɛɹ": 8636,
      "bɪlifs": 8637,
      "ɛskɔɹtɪd": 8638,
      "silɪŋ": 8639,
      "lowdɪŋ": 8640,
      "lowdəd": 8641,
      "wɔks": 8642,
      "dajv": 8643,
      "ɡejnz": 8644,
      "ɡɛsts": 8645,
      "kɹæʃt": 8646,
      "pɹədʌktɪv": 8647,
      "pɹəvɪʒənz": 8648,
      "bæst": 8649,
      "kənsɪdɹəbli": 8650,
      "ɛnejbəld": 8651,
      "lɛks": 8652,
      "awntɪd": 8653,
      "miən": 8654,
      "hɛlps": 8655,
      "ɹəsivz": 8656,
      "ʃɹmən": 8657,
      "ʃɔɹtədʒ": 8658,
      "dʒʌŋ": 8659,
      "kɑmpətɪʃənz": 8660,
      "dɹejk": 8661,
      "sɛpɹejʃən": 8662,
      "hɛlɪkɑptɹ": 8663,
      "pɹɛzənts": 8664,
      "dajəl": 8665,
      "pɹsud": 8666,
      "ɪlæbɹət": 8667,
      "ɹæɡ": 8668,
      "dɪvɛləpmənts": 8669,
      "θɹowɪŋ": 8670,
      "bɑɹz": 8671,
      "bɹidz": 8672,
      "hɔɹnz": 8673,
      "ɪmpɹɪzənd": 8674,
      "əʃɔɹ": 8675,
      "piən": 8676,
      "bɹɪɡədɪɹ": 8677,
      "ɛkə": 8678,
      "ɪsejʃən": 8679,
      "wɔɹnd": 8680,
      "mɪkstʃɹ": 8681,
      "tɪnt": 8682,
      "mʌsk": 8683,
      "ɹifɪt": 8684,
      "mænju": 8685,
      "ɡɑɹnɹd": 8686,
      "spɛkjəlejʃən": 8687,
      "ɹɑmni": 8688,
      "stɹɪ": 8689,
      "sɪŋkɪŋ": 8690,
      "lui": 8691,
      "ɪnvɑlvz": 8692,
      "æmfɪ": 8693,
      "ɛdətɪŋ": 8694,
      "hɑɹvəst": 8695,
      "najtɪd": 8696,
      "əbzɹvɹ": 8697,
      "tʃænsəlɹ": 8698,
      "əsɛsmənt": 8699,
      "pɪɹz": 8700,
      "bætɪd": 8701,
      "pɹəmowtɪŋ": 8702,
      "dɪpɛndənt": 8703,
      "spɑts": 8704,
      "dɪpɪkts": 8705,
      "ʃæm": 8706,
      "lɛts": 8707,
      "əpɹajzɪŋ": 8708,
      "1885": 8709,
      "ʃɑɹlət": 8710,
      "lɡ": 8711,
      "pɹɛɹ": 8712,
      "fɹɪndʒ": 8713,
      "fɑsəlz": 8714,
      "dɹɪŋk": 8715,
      "450": 8716,
      "ɹəbəl": 8717,
      "bætɹiz": 8718,
      "bəni": 8719,
      "æθənz": 8720,
      "səspɛnʃən": 8721,
      "ɹdʒd": 8722,
      "ɡk": 8723,
      "ɛsθ": 8724,
      "θəl": 8725,
      "bɔltɪk": 8726,
      "ɹɛndɹd": 8727,
      "id": 8728,
      "ɪpi": 8729,
      "dɹɛktɪŋ": 8730,
      "bɹɪljənt": 8731,
      "ɛkjəlɹ": 8732,
      "pəlɪt": 8733,
      "howps": 8734,
      "ətɹækt": 8735,
      "əkejʒənəl": 8736,
      "ɹɛɡjəlejʃənz": 8737,
      "ɹɪmɛmbɹd": 8738,
      "fɹaj": 8739,
      "fɹəntɪɹ": 8740,
      "dejtəd": 8741,
      "sɹf": 8742,
      "ɑɹkejd": 8743,
      "ɑbə": 8744,
      "sætɹn": 8745,
      "pajɹəts": 8746,
      "ʃit": 8747,
      "vɪlən": 8748,
      "kənsʌm": 8749,
      "tʃuɛɹi": 8750,
      "tɛmz": 8751,
      "səspɛktəd": 8752,
      "θiədɔɹ": 8753,
      "əɡɹiz": 8754,
      "ɪntɹnæʃənəli": 8755,
      "nejtow": 8756,
      "lɛnɹd": 8757,
      "02": 8758,
      "bɹaw": 8759,
      "blæŋk": 8760,
      "kæsəlz": 8761,
      "tɹuli": 8762,
      "kɹusejd": 8763,
      "kɑŋɡɹəɡejʃən": 8764,
      "nɔɹd": 8765,
      "əvɛntʃ": 8766,
      "dʌzən": 8767,
      "ɛstɹəl": 8768,
      "sɛnsətɪv": 8769,
      "ɹɪhɹ": 8770,
      "plɛz": 8771,
      "bojfɹɛnd": 8772,
      "spɛʃəlajzd": 8773,
      "tɪsju": 8774,
      "ɹejlwejz": 8775,
      "dɪli": 8776,
      "ædvək": 8777,
      "kjubɪk": 8778,
      "ikow": 8779,
      "mɑnɪk": 8780,
      "ændɹə": 8781,
      "əsowsiət": 8782,
      "mɪŋli": 8783,
      "məʃinz": 8784,
      "220": 8785,
      "dʒənsiz": 8786,
      "pɹədusɪz": 8787,
      "kɑɹdənəlz": 8788,
      "ɪfɹ": 8789,
      "wɛstɹ": 8790,
      "mɛkənɪzəm": 8791,
      "bist": 8792,
      "kɹɪsti": 8793,
      "lɪniɹ": 8794,
      "dɪkɹist": 8795,
      "kənsʌmpʃən": 8796,
      "ðɛɹbaj": 8797,
      "æbsənt": 8798,
      "1865": 8799,
      "lɪɹɪkəl": 8800,
      "dɪsəpojntɪd": 8801,
      "jɑn": 8802,
      "vədʒ": 8803,
      "2000ɛs": 8804,
      "jusədʒ": 8805,
      "pɑlətɪʃən": 8806,
      "tʃejmbɹlən": 8807,
      "nʌt": 8808,
      "əsejʃən": 8809,
      "pɑɹtəkəlz": 8810,
      "ɹistɹɪkʃənz": 8811,
      "nænsi": 8812,
      "lejɹz": 8813,
      "pɑzətɪvli": 8814,
      "kʌstəmɹz": 8815,
      "kɑntɹækts": 8816,
      "æntɪsəpejtəd": 8817,
      "pɹɑsɪk": 8818,
      "ɪnfɛkʃən": 8819,
      "bɹst": 8820,
      "ʌpkʌmɪŋ": 8821,
      "nɛp": 8822,
      "kil": 8823,
      "mɛtɹɪk": 8824,
      "sɪnθəs": 8825,
      "æksədɛntəli": 8826,
      "əpdejtəd": 8827,
      "ɑnsɑm": 8828,
      "ʃæn": 8829,
      "lɑbi": 8830,
      "najtɹ": 8831,
      "mæməlz": 8832,
      "əvɛntʃuəl": 8833,
      "kwow": 8834,
      "ɪnvejdəd": 8835,
      "mælkəm": 8836,
      "vɪv": 8837,
      "æləm": 8838,
      "kɑmpəzɪʃənz": 8839,
      "mjutʃəwəl": 8840,
      "spɛl": 8841,
      "sɪtəzən": 8842,
      "sawθwɛstɹn": 8843,
      "ɑksəd": 8844,
      "ʃɛɹɪŋ": 8845,
      "bs": 8846,
      "dɛləɡejts": 8847,
      "plut": 8848,
      "nm": 8849,
      "lɪli": 8850,
      "111": 8851,
      "tæt": 8852,
      "ɛɹfild": 8853,
      "stʌf": 8854,
      "bɑɡ": 8855,
      "ɡwɑdəl": 8856,
      "æntə": 8857,
      "kɑnstæntən": 8858,
      "kɑnstæntənowpəl": 8859,
      "vjuɪŋ": 8860,
      "jəwən": 8861,
      "ajmz": 8862,
      "nukæsəl": 8863,
      "ɛkspɹt": 8864,
      "θɹowt": 8865,
      "dʒɛnjəwən": 8866,
      "dəbɹi": 8867,
      "kɑnvɹsejʃən": 8868,
      "ɪnɔɡɹəl": 8869,
      "lɔsut": 8870,
      "kɔɹədɹ": 8871,
      "vowtɹz": 8872,
      "hajts": 8873,
      "səlɛbɹ": 8874,
      "wɹkɹ": 8875,
      "ɛstɹiəl": 8876,
      "vɑləntɪɹ": 8877,
      "pɛktɪv": 8878,
      "tunz": 8879,
      "fɔ": 8880,
      "nɪknejm": 8881,
      "fʌndəmɛntəl": 8882,
      "ʃɛɹəf": 8883,
      "mətɹ": 8884,
      "ɹiəs": 8885,
      "bʌtlɹ": 8886,
      "sɪnsən": 8887,
      "bɪsajdz": 8888,
      "zənz": 8889,
      "vɹsəs": 8890,
      "æksɛsəbəl": 8891,
      "əlɪŋ": 8892,
      "ɑkow": 8893,
      "pɹɛʃənz": 8894,
      "kɹɪstʃənz": 8895,
      "iziɹ": 8896,
      "əkɑmplɪʃ": 8897,
      "ələ": 8898,
      "tʃɛn": 8899,
      "wɪdow": 8900,
      "məlɛkjəlɹ": 8901,
      "ŋks": 8902,
      "əbsk": 8903,
      "tʊɹɪzəm": 8904,
      "kɑmpləkejtəd": 8905,
      "əkɹɪŋ": 8906,
      "skænd": 8907,
      "dɑktɹən": 8908,
      "ejsi": 8909,
      "spidz": 8910,
      "mɛmɹiz": 8911,
      "pɔɹtʃəɡəl": 8912,
      "lɛktʃɹ": 8913,
      "pɹɪlɪmən": 8914,
      "viən": 8915,
      "1864": 8916,
      "dʒɪbɹ": 8917,
      "fɹʌstɹ": 8918,
      "dows": 8919,
      "stɛfəni": 8920,
      "ɪntəlɛktʃuəl": 8921,
      "ɪmpowzd": 8922,
      "ɛndejndʒ": 8923,
      "səpɔɹts": 8924,
      "ɹɛmənɪs": 8925,
      "mɹdɹd": 8926,
      "fæbɹ": 8927,
      "mejlej": 8928,
      "əvojdəd": 8929,
      "əsɹtəd": 8930,
      "pækt": 8931,
      "ələn": 8932,
      "tʃɑɹm": 8933,
      "ɪzən": 8934,
      "ɪmpɛɹ": 8935,
      "dɪstɪŋɡwɪʃ": 8936,
      "but": 8937,
      "pʌm": 8938,
      "spɑɹk": 8939,
      "pɹɑpɹli": 8940,
      "lowz": 8941,
      "mɔɹi": 8942,
      "fɛðɹz": 8943,
      "kɛnɪθ": 8944,
      "tæp": 8945,
      "kənsɑləd": 8946,
      "kɑli": 8947,
      "istwɹd": 8948,
      "məkɑɹ": 8949,
      "pɹəɡɹɛst": 8950,
      "bɹm": 8951,
      "ɑɹminiən": 8952,
      "978": 8953,
      "hoj": 8954,
      "stɛdi": 8955,
      "bin": 8956,
      "nɔɹθistɹn": 8957,
      "kɑnsəkwəns": 8958,
      "tɹɪl": 8959,
      "fowkəsɪŋ": 8960,
      "ɔtəbajɑɡɹəfi": 8961,
      "stæns": 8962,
      "æmɪks": 8963,
      "ʃivə": 8964,
      "mɪɡ": 8965,
      "nəns": 8966,
      "ʌps": 8967,
      "nejbɔɹ": 8968,
      "ɑlədʒəst": 8969,
      "ɪntɹmidiɪt": 8970,
      "pʌnɪʃmənt": 8971,
      "slæm": 8972,
      "stɔɹd": 8973,
      "dɪspætʃt": 8974,
      "ɪntəɡɹejtəd": 8975,
      "bowz": 8976,
      "ɪnkwaj": 8977,
      "pipəlz": 8978,
      "ɹipɔɹtɪŋ": 8979,
      "kənvɪktəd": 8980,
      "pɹɑtəstənt": 8981,
      "lɔɹi": 8982,
      "tətɪv": 8983,
      "ɪkspɛkt": 8984,
      "dɪpɪktɪŋ": 8985,
      "nowtəst": 8986,
      "owkə": 8987,
      "ɡɹæfɪk": 8988,
      "klənd": 8989,
      "kɪləɡɹæm": 8990,
      "pejɪŋ": 8991,
      "wɔɹiɹ": 8992,
      "klawdz": 8993,
      "dʒɪbɹɔltɹ": 8994,
      "θɛ": 8995,
      "bɹʌn": 8996,
      "θɹɪlɹ": 8997,
      "θɹɛtənɪŋ": 8998,
      "kɔz": 8999,
      "tʊɹəst": 9000,
      "pejdɹow": 9001,
      "tʌtʃdawnz": 9002,
      "əstæn": 9003,
      "ɹiəlɪstɪk": 9004,
      "dʒɔ": 9005,
      "miəm": 9006,
      "juɡowslɑ": 9007,
      "vəsɪnəti": 9008,
      "ɹajk": 9009,
      "æntɑɹktɪk": 9010,
      "spejsəz": 9011,
      "wɪdθ": 9012,
      "mæθəmætɪks": 9013,
      "ɹowbɑt": 9014,
      "spɑnsɹ": 9015,
      "vajtəl": 9016,
      "vn": 9017,
      "spowks": 9018,
      "ɹimuvɪŋ": 9019,
      "titʃɹz": 9020,
      "ətɹækʃən": 9021,
      "sejnts": 9022,
      "bɑlɪk": 9023,
      "hajbɹəd": 9024,
      "ʌndɹtejkən": 9025,
      "ɹilisɪŋ": 9026,
      "sejvɪŋ": 9027,
      "1862": 9028,
      "pəzɪʃənd": 9029,
      "ɛtɹə": 9030,
      "nɔɹməndi": 9031,
      "ɡɹævəti": 9032,
      "kɑnsəkwɛn": 9033,
      "mɹæl": 9034,
      "æŋɡəlz": 9035,
      "pəb": 9036,
      "dɪvɹsəti": 9037,
      "104": 9038,
      "fowkəsɪz": 9039,
      "ɛdmənd": 9040,
      "dʒɹnələsts": 9041,
      "ɪɡnɔɹd": 9042,
      "pɹɪnts": 9043,
      "ɪnɔɹ": 9044,
      "kɑnstəntli": 9045,
      "dikɹis": 9046,
      "dɑt": 9047,
      "ləmz": 9048,
      "vɛt": 9049,
      "lʌft": 9050,
      "ɑdɪʃən": 9051,
      "ɡɑtən": 9052,
      "ænsɛstɹ": 9053,
      "kowtʃɪŋ": 9054,
      "smæk": 9055,
      "tɛnəs": 9056,
      "dɹɑpɪŋ": 9057,
      "pəθ": 9058,
      "luθɹ": 9059,
      "fɔlt": 9060,
      "klɹdʒi": 9061,
      "dʒuliən": 9062,
      "kɑmpɹi": 9063,
      "pɹɪdɑmənəntli": 9064,
      "ɪkspændɪŋ": 9065,
      "dwɔɹf": 9066,
      "əbzɔɹbd": 9067,
      "əkə": 9068,
      "flæɡz": 9069,
      "bɹædli": 9070,
      "fejn": 9071,
      "owdz": 9072,
      "dajɹ": 9073,
      "ɪstə": 9074,
      "æktɪvli": 9075,
      "ʌŋɡ": 9076,
      "kʌlɛkt": 9077,
      "tʃɹtʃɪl": 9078,
      "bɹbən": 9079,
      "sɹbiə": 9080,
      "dli": 9081,
      "sɪɹ": 9082,
      "wɔɹtajm": 9083,
      "kɹitʃɹ": 9084,
      "fajts": 9085,
      "mowti": 9086,
      "pɑɹkɪŋ": 9087,
      "ɡɹɛʃənəl": 9088,
      "kɑntæktɪd": 9089,
      "pænd": 9090,
      "pɹowz": 9091,
      "dɪsəpɪɹd": 9092,
      "hejst": 9093,
      "kənɡɹɛʃənəl": 9094,
      "109": 9095,
      "ɹɪlivd": 9096,
      "dʒinz": 9097,
      "spɹɪŋfild": 9098,
      "twɛntiəθ": 9099,
      "wəstwɹd": 9100,
      "tʃɛ": 9101,
      "əsɔl": 9102,
      "ɪndɪpɛndəntli": 9103,
      "dɑktɹz": 9104,
      "plizd": 9105,
      "powzd": 9106,
      "vejk": 9107,
      "flɛ": 9108,
      "mɛʒɹɪŋ": 9109,
      "bæɹiɹ": 9110,
      "ælbɹtə": 9111,
      "kɑntənənt": 9112,
      "kʊdn": 9113,
      "ɛksplənejʃən": 9114,
      "soj": 9115,
      "bɹajd": 9116,
      "lajsən": 9117,
      "tajwɑn": 9118,
      "bætəlfild": 9119,
      "112": 9120,
      "dʌl": 9121,
      "kɹz": 9122,
      "stəbɪlɪti": 9123,
      "sejlɹz": 9124,
      "mʌzləmz": 9125,
      "ɪstejts": 9126,
      "kɹɪtɪkəli": 9127,
      "mɛɹətajm": 9128,
      "pɹɪlɪmənɛɹi": 9129,
      "vu": 9130,
      "kəmpajld": 9131,
      "fildɹ": 9132,
      "bejtə": 9133,
      "fɹidɹɪk": 9134,
      "ɹɛzən": 9135,
      "fəsɪlət": 9136,
      "kɛni": 9137,
      "ədæpt": 9138,
      "klæd": 9139,
      "æmp": 9140,
      "dɪskɹɪ": 9141,
      "sejkɹəd": 9142,
      "mɔltə": 9143,
      "ɹowdwej": 9144,
      "ɪndʌktəd": 9145,
      "fm": 9146,
      "lʌk": 9147,
      "æmbɪ": 9148,
      "səbtɹɑpɪkəl": 9149,
      "sɛləbɹejt": 9150,
      "kəlæbɹejtəd": 9151,
      "spɛktɹəm": 9152,
      "ɛnhænst": 9153,
      "juɡowslɑviə": 9154,
      "mɛtəlz": 9155,
      "ɹnəst": 9156,
      "pɑli": 9157,
      "twɪtɹ": 9158,
      "ɛskow": 9159,
      "mɑnstɹz": 9160,
      "24tiejtʃ": 9161,
      "sɪtʃuejʃənz": 9162,
      "fəlz": 9163,
      "hajmɹ": 9164,
      "101": 9165,
      "ædvajzɹ": 9166,
      "sajəntɪst": 9167,
      "pejmənt": 9168,
      "bul": 9169,
      "pɪdʒ": 9170,
      "skɹæp": 9171,
      "kɑnʃəsnəs": 9172,
      "ɪksɛsɪv": 9173,
      "vɛɹiɪŋ": 9174,
      "dʌblɪn": 9175,
      "nætʃɹəli": 9176,
      "pɹɑpəɡændə": 9177,
      "udz": 9178,
      "luiz": 9179,
      "lɪsəti": 9180,
      "pɹajd": 9181,
      "ɡɹɑ": 9182,
      "ɪnsədənts": 9183,
      "stɹimz": 9184,
      "ɪkstɪɹiɹ": 9185,
      "pɹɛsɪd": 9186,
      "ɛksplɹejʃən": 9187,
      "ɹəkɹut": 9188,
      "kəndʌktɪŋ": 9189,
      "sʌbmɹinz": 9190,
      "sɪnsənæti": 9191,
      "pəblɪsəti": 9192,
      "ʃɹt": 9193,
      "bɹawnz": 9194,
      "əpilz": 9195,
      "ɡɹɛɡɹi": 9196,
      "tɑɹɡətɪd": 9197,
      "lowkəmowtɪvz": 9198,
      "sdən": 9199,
      "ɪpɹ": 9200,
      "ɪɹɛɡ": 9201,
      "ɪmpɹəv": 9202,
      "nɛtwɹks": 9203,
      "æθlɛt": 9204,
      "dɪskʌsɪŋ": 9205,
      "owlɪviə": 9206,
      "swɛpt": 9207,
      "kɹajt": 9208,
      "ɛɡɹ": 9209,
      "bɹɛk": 9210,
      "skawtɪŋ": 9211,
      "kɹitʃɹz": 9212,
      "fɹæɡmənt": 9213,
      "fʌŋɡəs": 9214,
      "ænɡəlu": 9215,
      "pʊts": 9216,
      "æfɡænəstæn": 9217,
      "flown": 9218,
      "buθ": 9219,
      "tʃɛɹəktɹ": 9220,
      "spajn": 9221,
      "mɑɹtʃt": 9222,
      "pɹisidɪŋ": 9223,
      "ɪlɛktɹəl": 9224,
      "əbi": 9225,
      "ɛntən": 9226,
      "pləs": 9227,
      "wɔkt": 9228,
      "vejɡəs": 9229,
      "stɹæ": 9230,
      "kənfjuzd": 9231,
      "tɛntʃənz": 9232,
      "mænɪdʒɪŋ": 9233,
      "ɹɛzəɡnejʃən": 9234,
      "1887": 9235,
      "sajləns": 9236,
      "tɹɛʒɹi": 9237,
      "tɛstəm": 9238,
      "pɹɪdɪk": 9239,
      "pætən": 9240,
      "ʒɑnɹ": 9241,
      "kənfɛ": 9242,
      "ɛləvejtɪd": 9243,
      "kɪtʃən": 9244,
      "ʒɑnɹəz": 9245,
      "sɪmbəlz": 9246,
      "dʒɛnɹəlz": 9247,
      "tæbl": 9248,
      "kɑnsɛpts": 9249,
      "kɑmpɹəmajz": 9250,
      "smowkɪŋ": 9251,
      "jowhɑn": 9252,
      "skɹæft": 9253,
      "məkɪnli": 9254,
      "plɛzənt": 9255,
      "maws": 9256,
      "ajvən": 9257,
      "fɔɹtəfəkejʃənz": 9258,
      "julz": 9259,
      "spajt": 9260,
      "ɪnstən": 9261,
      "mɛnʃənz": 9262,
      "howldɹz": 9263,
      "zɛl": 9264,
      "pɹɑspɛkt": 9265,
      "kjub": 9266,
      "dʒnɑ": 9267,
      "sɛnsɹ": 9268,
      "sɑkɹ": 9269,
      "ɑnɪkə": 9270,
      "ɹvejʃən": 9271,
      "spejskɹæft": 9272,
      "117": 9273,
      "kɑmɛnt": 9274,
      "bɑndz": 9275,
      "əklejmd": 9276,
      "bʌnd": 9277,
      "viɪi": 9278,
      "1880": 9279,
      "flɛʃ": 9280,
      "114": 9281,
      "pɑvɹti": 9282,
      "pləbəl": 9283,
      "səɡdʒɛstʃən": 9284,
      "slɔ": 9285,
      "ɹif": 9286,
      "kɹʌpʃən": 9287,
      "tʃæləndʒɪŋ": 9288,
      "æθlɛtɪks": 9289,
      "fɪnz": 9290,
      "lʌn": 9291,
      "ejɪk": 9292,
      "mənɹow": 9293,
      "ɑɡi": 9294,
      "kʌmpəs": 9295,
      "1863": 9296,
      "ləɡ": 9297,
      "mlb": 9298,
      "stɹɪk": 9299,
      "tɛd": 9300,
      "tʃæd": 9301,
      "bɹɡən": 9302,
      "nəsɛs": 9303,
      "wɔlt": 9304,
      "ætməsfɛɹɪk": 9305,
      "ʃumɑkɹ": 9306,
      "fɑɹmɹ": 9307,
      "1886": 9308,
      "mædəsən": 9309,
      "kɔɹəspɑndɪŋ": 9310,
      "bɹɪɡejdz": 9311,
      "kəndɛmd": 9312,
      "wɪli": 9313,
      "pɪɹəmɪd": 9314,
      "bʌtɹflaj": 9315,
      "bək": 9316,
      "dɛɹɪk": 9317,
      "fɪliz": 9318,
      "majld": 9319,
      "kənsɪdɹejʃən": 9320,
      "ɡʌsts": 9321,
      "kɑmpɹih": 9322,
      "məkænɪks": 9323,
      "mowld": 9324,
      "nowɪŋ": 9325,
      "ɑɹks": 9326,
      "ʃɪpt": 9327,
      "kənvin": 9328,
      "ɹɪlajəbəl": 9329,
      "ɪnkɹɛd": 9330,
      "kwɪt": 9331,
      "tɔɹpidowz": 9332,
      "bæktɪɹiə": 9333,
      "bɹʊklən": 9334,
      "væ": 9335,
      "wit": 9336,
      "tɹækɪŋ": 9337,
      "fɪzɪkəli": 9338,
      "mænəfɛst": 9339,
      "pɹpəl": 9340,
      "ʃɛltɹ": 9341,
      "ɪɡzæmənd": 9342,
      "mʌʃɹum": 9343,
      "ndə": 9344,
      "bɹɔ": 9345,
      "ɛniəl": 9346,
      "tɹænsmɪʃən": 9347,
[...]
