{
  "version": "1.0",
  "truncation": null,
  "padding": null,
  "added_tokens": [
    {
      "id": 0,
      "content": "[UNK]",
      "single_word": false,
      "lstrip": false,
      "rstrip": false,
      "normalized": false,
      "special": true
    },
    {
      "id": 1,
      "content": "[CLS]",
      "single_word": false,
      "lstrip": false,
      "rstrip": false,
      "normalized": false,
      "special": true
    },
    {
      "id": 2,
      "content": "[SEP]",
      "single_word": false,
      "lstrip": false,
      "rstrip": false,
      "normalized": false,
      "special": true
    },
    {
      "id": 3,
      "content": "[PAD]",
      "single_word": false,
      "lstrip": false,
      "rstrip": false,
      "normalized": false,
      "special": true
    },
    {
      "id": 4,
      "content": "[MASK]",
      "single_word": false,
      "lstrip": false,
      "rstrip": false,
      "normalized": false,
      "special": true
    }
  ],
  "normalizer": {
    "type": "Sequence",
    "normalizers": [
      {
        "type": "NFD"
      },
      {
        "type": "Lowercase"
      },
      {
        "type": "StripAccents"
      }
    ]
  },
  "pre_tokenizer": {
    "type": "Whitespace"
  },
  "post_processor": {
    "type": "TemplateProcessing",
    "single": [
      {
        "SpecialToken": {
          "id": "[CLS]",
          "type_id": 0
        }
      },
      {
        "Sequence": {
          "id": "A",
          "type_id": 0
        }
      },
      {
        "SpecialToken": {
          "id": "[SEP]",
          "type_id": 0
        }
      }
    ],
    "pair": [
      {
        "SpecialToken": {
          "id": "[CLS]",
          "type_id": 0
        }
      },
      {
        "Sequence": {
          "id": "A",
          "type_id": 0
        }
      },
      {
        "SpecialToken": {
          "id": "[SEP]",
          "type_id": 0
        }
      },
      {
        "Sequence": {
          "id": "B",
          "type_id": 1
        }
      },
      {
        "SpecialToken": {
          "id": "[SEP]",
          "type_id": 1
        }
      }
    ],
    "special_tokens": {
      "[CLS]": {
        "id": "[CLS]",
        "ids": [
          1
        ],
        "tokens": [
          "[CLS]"
        ]
      },
      "[SEP]": {
        "id": "[SEP]",
        "ids": [
          2
        ],
        "tokens": [
          "[SEP]"
        ]
      }
    }
  },
  "decoder": null,
  "model": {
    "type": "BPE",
    "dropout": null,
    "unk_token": "[UNK]",
    "continuing_subword_prefix": null,
    "end_of_word_suffix": null,
    "fuse_unk": false,
    "byte_fallback": false,
    "ignore_merges": false,
    "vocab": {
      "[UNK]": 0,
      "[CLS]": 1,
      "[SEP]": 2,
      "[PAD]": 3,
      "[MASK]": 4,
      "=": 5,
      "@": 6,
      "\\": 7,
      "a": 8,
      "b": 9,
      "d": 10,
      "e": 11,
      "f": 12,
      "g": 13,
      "h": 14,
      "i": 15,
      "j": 16,
      "k": 17,
      "l": 18,
      "m": 19,
      "n": 20,
      "o": 21,
      "p": 22,
      "r": 23,
      "s": 24,
      "t": 25,
      "u": 26,
      "v": 27,
      "w": 28,
      "z": 29,
      "{": 30,
      "\\=": 31,
      "in": 32,
      "ej": 33,
      "aj": 34,
      "nd": 35,
      "ow": 36,
      "st": 37,
      "or": 38,
      "ts": 39,
      "vv": 40,
      "tr": 41,
      "dz": 42,
      "li": 43,
      "iz": 44,
      "ik": 45,
      "di": 46,
      "nt": 47,
      "pr": 48,
      "\\@": 49,
      "ar": 50,
      "er": 51,
      "si": 52,
      "ti": 53,
      "aw": 54,
      "an": 55,
      "en": 56,
      "wi": 57,
      "for": 58,
      "fr": 59,
      "es": 60,
      "ju": 61,
      "wa": 62,
      "it": 63,
      "waz": 64,
      "dr": 65,
      "br": 66,
      "il": 67,
      "ek": 68,
      "vm": 69,
      "kr": 70,
      "ejs": 71,
      "nz": 72,
      "ol": 73,
      "bi": 74,
      "el": 75,
      "str": 76,
      "vr": 77,
      "is": 78,
      "hi": 79,
      "baj": 80,
      "wid": 81,
      "wr": 82,
      "\\{": 83,
      "vn": 84,
      "gr": 85,
      "ejt": 86,
      "em": 87,
      "dis": 88,
      "ns": 89,
      "ir": 90,
      "ks": 91,
      "pl": 92,
      "sow": 93,
      "laj": 94,
      "ud": 95,
      "ejm": 96,
      "tu": 97,
      "mej": 98,
      "sp": 99,
      "hiz": 100,
      "ka": 101,
      "kl": 102,
      "its": 103,
      "se": 104,
      "lz": 105,
      "own": 106,
      "ajt": 107,
      "mp": 108,
      "ld": 109,
      "sr": 110,
      "dej": 111,
      "oj": 112,
      "\\=@": 113,
      "awt": 114,
      "kt": 115,
      "est": 116,
      "at": 117,
      "du": 118,
      "iv": 119,
      "end": 120,
      "low": 121,
      "sin": 122,
      "sk": 123,
      "ed": 124,
      "mi": 125,
      "ajd": 126,
      "vt": 127,
      "owt": 128,
      "der": 129,
      "ent": 130,
      "wits": 131,
      "zd": 132,
      "taj": 133,
      "lr": 134,
      "on": 135,
      "tsr": 136,
      "ni": 137,
      "pt": 138,
      "nu": 139,
      "et": 140,
      "vd": 141,
      "iks": 142,
      "vdr": 143,
      "mz": 144,
      "hr": 145,
      "wvn": 146,
      "par": 147,
      "awnd": 148,
      "faj": 149,
      "ejn": 150,
      "mr": 151,
      "win": 152,
      "ejts": 153,
      "nts": 154,
      "idz": 155,
      "waj": 156,
      "wor": 157,
      "ist": 158,
      "im": 159,
      "kor": 160,
      "lej": 161,
      "vb": 162,
      "plej": 163,
      "ndz": 164,
      "id": 165,
      "ip": 166,
      "ap": 167,
      "bvt": 168,
      "mow": 169,
      "fil": 170,
      "wej": 171,
      "tiv": 172,
      "eks": 173,
      "owl": 174,
      "ftr": 175,
      "nat": 176,
      "kin": 177,
      "ndr": 178,
      "al": 179,
      "jun": 180,
      "lu": 181,
      "now": 182,
      "hu": 183,
      "saj": 184,
      "dzr": 185,
      "juz": 186,
      "owz": 187,
      "ekt": 188,
      "am": 189,
      "tid": 190,
      "haj": 191,
      "kan": 192,
      "mor": 193,
      "min": 194,
      "vi": 195,
      "olsow": 196,
      "vl": 197,
      "din": 198,
      "siz": 199,
      "embr": 200,
      "ak": 201,
      "haw": 202,
      "bin": 203,
      "mar": 204,
      "tin": 205,
      "bik": 206,
      "list": 207,
      "if": 208,
      "awn": 209,
      "ps": 210,
      "owvr": 211,
      "intr": 212,
      "wer": 213,
      "bil": 214,
      "nor": 215,
      "diz": 216,
      "mer": 217,
      "evr": 218,
      "maj": 219,
      "wud": 220,
      "ez": 221,
      "jir": 222,
      "lis": 223,
      "nsi": 224,
      "kow": 225,
      "of": 226,
      "ejl": 227,
      "dv": 228,
      "su": 229,
      "sen": 230,
      "dzu": 231,
      "tajm": 232,
      "vin": 233,
      "fa": 234,
      "vp": 235,
      "gejm": 236,
      "por": 237,
      "wen": 238,
      "ig": 239,
      "le": 240,
      "svm": 241,
      "men": 242,
      "nr": 243,
      "lit": 244,
      "nin": 245,
      "dur": 246,
      "lin": 247,
      "div": 248,
      "vts": 249,
      "inkl": 250,
      "tej": 251,
      "ep": 252,
      "ft": 253,
      "stor": 254,
      "intu": 255,
      "kam": 256,
      "how": 257,
      "him": 258,
      "mowst": 259,
      "gow": 260,
      "vvr": 261,
      "old": 262,
      "bit": 263,
      "ajr": 264,
      "inklud": 265,
      "ut": 266,
      "pir": 267,
      "vndr": 268,
      "ul": 269,
      "lon": 270,
      "ejdz": 271,
      "bl": 272,
      "awr": 273,
      "ba": 274,
      "wajl": 275,
      "enr": 276,
      "ajn": 277,
      "sek": 278,
      "mil": 279,
      "fl": 280,
      "did": 281,
      "wel": 282,
      "sej": 283,
      "dem": 284,
      "ens": 285,
      "mu": 286,
      "sel": 287,
      "lo": 288,
      "nej": 289,
      "stejt": 290,
      "big": 291,
      "ma": 292,
      "kejs": 293,
      "vs": 294,
      "pi": 295,
      "kvm": 296,
      "pow": 297,
      "vst": 298,
      "lejtr": 299,
      "tis": 300,
      "ents": 301,
      "pa": 302,
      "md": 303,
      "gen": 304,
      "ownli": 305,
      "jur": 306,
      "kar": 307,
      "sir": 308,
      "ajz": 309,
      "star": 310,
      "dzi": 311,
      "mjuz": 312,
      "bawt": 313,
      "inz": 314,
      "kej": 315,
      "wil": 316,
      "west": 317,
      "inv": 318,
      "sor": 319,
      "vz": 320,
      "bitwin": 321,
      "sik": 322,
      "tiejts": 323,
      "ejd": 324,
      "falow": 325,
      "bor": 326,
      "awnt": 327,
      "lb": 328,
      "hel": 329,
      "dif": 330,
      "tiz": 331,
      "tim": 332,
      "juzd": 333,
      "sist": 334,
      "ajl": 335,
      "nejm": 336,
      "film": 337,
      "ntin": 338,
      "apr": 339,
      "sip": 340,
      "sm": 341,
      "tik": 342,
      "owk": 343,
      "mejd": 344,
      "ker": 345,
      "lajn": 346,
      "fi": 347,
      "den": 348,
      "bu": 349,
      "lar": 350,
      "bifor": 351,
      "siv": 352,
      "bowt": 353,
      "tli": 354,
      "ter": 355,
      "ntr": 356,
      "vmbr": 357,
      "bej": 358,
      "otr": 359,
      "poj": 360,
      "ag": 361,
      "jus": 362,
      "int": 363,
      "jr": 364,
      "iktr": 365,
      "svts": 366,
      "ejndz": 367,
      "wik": 368,
      "iksp": 369,
      "ot": 370,
      "ows": 371,
      "son": 372,
      "mjuzik": 373,
      "nvmbr": 374,
      "lajk": 375,
      "edr": 376,
      "har": 377,
      "tor": 378,
      "viz": 379,
      "pvb": 380,
      "ev": 381,
      "la": 382,
      "mvn": 383,
      "ver": 384,
      "nir": 385,
      "dzenr": 386,
      "mis": 387,
      "nk": 388,
      "sawt": 389,
      "fik": 390,
      "itsr": 391,
      "ki": 392,
      "diow": 393,
      "ejtin": 394,
      "itr": 395,
      "per": 396,
      "hawevr": 397,
      "lik": 398,
      "fajn": 399,
      "igz": 400,
      "tsar": 401,
      "biin": 402,
      "siti": 403,
      "eg": 404,
      "owd": 405,
      "fawnd": 406,
      "genst": 407,
      "owp": 408,
      "ili": 409,
      "vaj": 410,
      "naj": 411,
      "ing": 412,
      "meni": 413,
      "sowd": 414,
      "set": 415,
      "endz": 416,
      "owld": 417,
      "sevr": 418,
      "vnd": 419,
      "tem": 420,
      "na": 421,
      "estr": 422,
      "divel": 423,
      "oz": 424,
      "dzan": 425,
      "junajt": 426,
      "bikejm": 427,
      "pej": 428,
      "pap": 429,
      "sim": 430,
      "inkludin": 431,
      "sept": 432,
      "ektr": 433,
      "edz": 434,
      "sentr": 435,
      "sts": 436,
      "sed": 437,
      "ind": 438,
      "fis": 439,
      "plejs": 440,
      "kses": 441,
      "ejz": 442,
      "nown": 443,
      "haws": 444,
      "ins": 445,
      "ntli": 446,
      "imp": 447,
      "gvvr": 448,
      "dow": 449,
      "daj": 450,
      "lejs": 451,
      "mejn": 452,
      "eni": 453,
      "ekr": 454,
      "distr": 455,
      "fju": 456,
      "ab": 457,
      "led": 458,
      "wit": 459,
      "stejts": 460,
      "gar": 461,
      "bar": 462,
      "vk": 463,
      "kvvr": 464,
      "svb": 465,
      "isp": 466,
      "falowin": 467,
      "dowz": 468,
      "lowk": 469,
      "kw": 470,
      "ikst": 471,
      "indi": 472,
      "hed": 473,
      "kud": 474,
      "vlt": 475,
      "lir": 476,
      "ikt": 477,
      "diskr": 478,
      "lejt": 479,
      "nejs": 480,
      "mit": 481,
      "vnz": 482,
      "zr": 483,
      "ejnd": 484,
      "dawn": 485,
      "jud": 486,
      "entr": 487,
      "oldow": 488,
      "so": 489,
      "inf": 490,
      "bol": 491,
      "etr": 492,
      "tel": 493,
      "skr": 494,
      "kvmp": 495,
      "inst": 496,
      "zis": 497,
      "eb": 498,
      "nik": 499,
      "giv": 500,
      "lajf": 501,
      "ajb": 502,
      "as": 503,
      "ntil": 504,
      "pip": 505,
      "ilist": 506,
      "tir": 507,
      "niz": 508,
      "pojnt": 509,
      "plejr": 510,
      "tsu": 511,
      "ostr": 512,
      "lajt": 513,
      "sing": 514,
      "membr": 515,
      "ad": 516,
      "tek": 517,
      "kil": 518,
      "jor": 519,
      "bikoz": 520,
      "zin": 521,
      "lig": 522,
      "fitsr": 523,
      "kold": 524,
      "ktr": 525,
      "milj": 526,
      "up": 527,
      "sent": 528,
      "dzvst": 529,
      "ajs": 530,
      "fej": 531,
      "dzun": 532,
      "tejk": 533,
      "aks": 534,
      "nju": 535,
      "mid": 536,
      "fin": 537,
      "ib": 538,
      "ment": 539,
      "sins": 540,
      "dzin": 541,
      "wotr": 542,
      "akt": 543,
      "ng": 544,
      "imej": 545,
      "sajd": 546,
      "sli": 547,
      "pawr": 548,
      "os": 549,
      "itis": 550,
      "papj": 551,
      "bili": 552,
      "howm": 553,
      "sejm": 554,
      "bli": 555,
      "vnt": 556,
      "sentsr": 557,
      "dzd": 558,
      "dik": 559,
      "best": 560,
      "nowt": 561,
      "stil": 562,
      "her": 563,
      "fajr": 564,
      "ejv": 565,
      "ivr": 566,
      "pin": 567,
      "ojd": 568,
      "ipor": 569,
      "kawnt": 570,
      "wvt": 571,
      "tur": 572,
      "tajmz": 573,
      "septembr": 574,
      "dust": 575,
      "tuk": 576,
      "ajv": 577,
      "ser": 578,
      "bejs": 579,
      "fild": 580,
      "ur": 581,
      "met": 582,
      "nvdr": 583,
      "sivd": 584,
      "fajv": 585,
      "les": 586,
      "man": 587,
      "nstr": 588,
      "law": 589,
      "ejlj": 590,
      "bikvm": 591,
      "um": 592,
      "hju": 593,
      "fel": 594,
      "nowv": 595,
      "seks": 596,
      "dzor": 597,
      "owbr": 598,
      "naw": 599,
      "smol": 600,
      "nsidr": 601,
      "skul": 602,
      "ber": 603,
      "ejtid": 604,
      "ha": 605,
      "self": 606,
      "dvks": 607,
      "owm": 608,
      "vil": 609,
      "aktowbr": 610,
      "tajt": 611,
      "vntr": 612,
      "inkr": 613,
      "ii": 614,
      "fol": 615,
      "skor": 616,
      "tap": 617,
      "nek": 618,
      "pik": 619,
      "wajr": 620,
      "ten": 621,
      "svn": 622,
      "nj": 623,
      "ndin": 624,
      "nam": 625,
      "ejpr": 626,
      "fajd": 627,
      "efr": 628,
      "hor": 629,
      "disp": 630,
      "difr": 631,
      "ejtr": 632,
      "ajtin": 633,
      "gejmz": 634,
      "dzulaj": 635,
      "ef": 636,
      "jut": 637,
      "stin": 638,
      "midi": 639,
      "plejd": 640,
      "det": 641,
      "nowvembr": 642,
      "kantr": 643,
      "spr": 644,
      "owni": 645,
      "istr": 646,
      "mvts": 647,
      "nis": 648,
      "mawnt": 649,
      "mejdzr": 650,
      "siks": 651,
      "nsr": 652,
      "isiz": 653,
      "liz": 654,
      "ivi": 655,
      "ska": 656,
      "mplit": 657,
      "wol": 658,
      "fer": 659,
      "went": 660,
      "bildin": 661,
      "ktiv": 662,
      "left": 663,
      "dzoj": 664,
      "tawn": 665,
      "plejst": 666,
      "mpi": 667,
      "epr": 668,
      "bejst": 669,
      "nst": 670,
      "pm": 671,
      "far": 672,
      "kvntr": 673,
      "klvb": 674,
      "nejmd": 675,
      "ajbd": 676,
      "diviz": 677,
      "sil": 678,
      "sajt": 679,
      "mejk": 680,
      "ivents": 681,
      "bow": 682,
      "ektiv": 683,
      "disembr": 684,
      "vks": 685,
      "lidz": 686,
      "ner": 687,
      "mejs": 688,
      "dzik": 689,
      "njuer": 690,
      "ejnin": 691,
      "wajt": 692,
      "kamp": 693,
      "net": 694,
      "tsejndz": 695,
      "buk": 696,
      "klejm": 697,
      "najt": 698,
      "spisiz": 699,
      "fit": 700,
      "kejm": 701,
      "ejb": 702,
      "tl": 703,
      "widin": 704,
      "pvblik": 705,
      "uz": 706,
      "ans": 707,
      "bilt": 708,
      "vidiow": 709,
      "nekst": 710,
      "lj": 711,
      "impr": 712,
      "nsip": 713,
      "dan": 714,
      "ets": 715,
      "mjun": 716,
      "ilis": 717,
      "ebj": 718,
      "dejz": 719,
      "wajd": 720,
      "sev": 721,
      "histr": 722,
      "hir": 723,
      "nejt": 724,
      "vajd": 725,
      "ku": 726,
      "kts": 727,
      "tend": 728,
      "sips": 729,
      "lor": 730,
      "kaw": 731,
      "sawnd": 732,
      "dent": 733,
      "held": 734,
      "spes": 735,
      "ejk": 736,
      "stejs": 737,
      "dejt": 738,
      "ekts": 739,
      "iejt": 740,
      "febj": 741,
      "kant": 742,
      "edi": 743,
      "ajnd": 744,
      "pal": 745,
      "sowl": 746,
      "hit": 747,
      "test": 748,
      "lev": 749,
      "sig": 750,
      "od": 751,
      "sowsi": 752,
      "sv": 753,
      "tm": 754,
      "adz": 755,
      "med": 756,
      "inis": 757,
      "iti": 758,
      "apik": 759,
      "jvn": 760,
      "lvv": 761,
      "lus": 762,
      "lt": 763,
      "kvl": 764,
      "vg": 765,
      "kju": 766,
      "kli": 767,
      "kejn": 768,
      "sa": 769,
      "bel": 770,
      "fut": 771,
      "dip": 772,
      "westr": 773,
      "wilj": 774,
      "hil": 775,
      "ntinjud": 776,
      "ezr": 777,
      "voj": 778,
      "nevr": 779,
      "powst": 780,
      "dzest": 781,
      "ejnz": 782,
      "biz": 783,
      "want": 784,
      "ups": 785,
      "nsiz": 786,
      "towt": 787,
      "nti": 788,
      "ivent": 789,
      "supr": 790,
      "dak": 791,
      "histor": 792,
      "tam": 793,
      "howl": 794,
      "witawt": 795,
      "sid": 796,
      "kv": 797,
      "ingl": 798,
      "dvb": 799,
      "dispajt": 800,
      "uvd": 801,
      "boj": 802,
      "he": 803,
      "gud": 804,
      "lajv": 805,
      "stu": 806,
      "tajr": 807,
      "tsil": 808,
      "apt": 809,
      "fadr": 810,
      "jar": 811,
      "nan": 812,
      "dzow": 813,
      "esr": 814,
      "gl": 815,
      "simp": 816,
      "ilektr": 817,
      "nid": 818,
      "stejdz": 819,
      "pis": 820,
      "sit": 821,
      "endr": 822,
      "ler": 823,
      "ant": 824,
      "juzin": 825,
      "zi": 826,
      "del": 827,
      "ajzd": 828,
      "owgr": 829,
      "kawnti": 830,
      "dejv": 831,
      "wejz": 832,
      "tsi": 833,
      "lvnd": 834,
      "ejmz": 835,
      "inglis": 836,
      "sonz": 837,
      "dar": 838,
      "muvd": 839,
      "sar": 840,
      "get": 841,
      "madr": 842,
      "pan": 843,
      "vkt": 844,
      "mejl": 845,
      "agr": 846,
      "sud": 847,
      "ajtr": 848,
      "kvp": 849,
      "lost": 850,
      "pas": 851,
      "ajdi": 852,
      "tempt": 853,
      "ensiv": 854,
      "tow": 855,
      "dor": 856,
      "influ": 857,
      "stud": 858,
      "wim": 859,
      "mad": 860,
      "gdzest": 861,
      "kj": 862,
      "inval": 863,
      "ept": 864,
      "owzd": 865,
      "hjum": 866,
      "nuz": 867,
      "tikj": 868,
      "gejv": 869,
      "anr": 870,
      "majk": 871,
      "lim": 872,
      "ful": 873,
      "stik": 874,
      "badi": 875,
      "impor": 876,
      "kejt": 877,
      "idr": 878,
      "ofr": 879,
      "itst": 880,
      "kwa": 881,
      "ksesf": 882,
      "klows": 883,
      "\\={": 884,
      "vju": 885,
      "pvblist": 886,
      "lidr": 887,
      "ispans": 888,
      "inin": 889,
      "stown": 890,
      "fvn": 891,
      "gz": 892,
      "kwor": 893,
      "endin": 894,
      "tsin": 895,
      "gowld": 896,
      "nv": 897,
      "sem": 898,
      "abr": 899,
      "izvl": 900,
      "mvdr": 901,
      "kowst": 902,
      "hol": 903,
      "tsildr": 904,
      "mejkin": 905,
      "lown": 906,
      "ilejs": 907,
      "livin": 908,
      "ejzd": 909,
      "ink": 910,
      "len": 911,
      "awts": 912,
      "fir": 913,
      "ptsr": 914,
      "vejs": 915,
      "kal": 916,
      "hajwej": 917,
      "ikwajr": 918,
      "disaj": 919,
      "vktsr": 920,
      "difit": 921,
      "ists": 922,
      "fedr": 923,
      "us": 924,
      "svmr": 925,
      "mejt": 926,
      "stajl": 927,
      "flor": 928,
      "sint": 929,
      "awnst": 930,
      "sajnd": 931,
      "powzd": 932,
      "blu": 933,
      "ikw": 934,
      "skwa": 935,
      "uawt": 936,
      "wvns": 937,
      "egj": 938,
      "kol": 939,
      "sifik": 940,
      "himself": 941,
      "svdr": 942,
      "itik": 943,
      "kanst": 944,
      "bis": 945,
      "fejvr": 946,
      "ekj": 947,
      "dipar": 948,
      "fajnd": 949,
      "ajts": 950,
      "klir": 951,
      "spor": 952,
      "az": 953,
      "fu": 954,
      "stv": 955,
      "tens": 956,
      "val": 957,
      "tot": 958,
      "iow": 959,
      "bz": 960,
      "av": 961,
      "dizajn": 962,
      "ben": 963,
      "dajd": 964,
      "mvnts": 965,
      "kvltsr": 966,
      "insted": 967,
      "nawnst": 968,
      "dzejmz": 969,
      "izvlt": 970,
      "kalidz": 971,
      "ajm": 972,
      "viktr": 973,
      "imejnd": 974,
      "gor": 975,
      "owli": 976,
      "metr": 977,
      "nifik": 978,
      "felt": 979,
      "fif": 980,
      "stej": 981,
      "tv": 982,
      "kans": 983,
      "ski": 984,
      "tsajn": 985,
      "zejs": 986,
      "gvn": 987,
      "ikspir": 988,
      "gedr": 989,
      "pend": 990,
      "diskvvr": 991,
      "majlz": 992,
      "hevi": 993,
      "zent": 994,
      "fejs": 995,
      "tist": 996,
      "isr": 997,
      "nkl": 998,
      "najzd": 999,
      "lekt": 1000,
      "nks": 1001,
      "bju": 1002,
      "howld": 1003,
      "hajr": 1004,
      "leks": 1005,
      "dli": 1006,
      "fli": 1007,
      "fowk": 1008,
      "slow": 1009,
      "spejs": 1010,
      "oltr": 1011,
      "ded": 1012,
      "ajld": 1013,
      "nav": 1014,
      "bv": 1015,
      "mpejn": 1016,
      "kwin": 1017,
      "kowl": 1018,
      "eli": 1019,
      "pojnts": 1020,
      "tar": 1021,
      "ajdent": 1022,
      "flaj": 1023,
      "dek": 1024,
      "falowd": 1025,
      "kild": 1026,
      "gejs": 1027,
      "lowkejt": 1028,
      "vnin": 1029,
      "vejl": 1030,
      "ips": 1031,
      "sajz": 1032,
      "udz": 1033,
      "uv": 1034,
      "ints": 1035,
      "put": 1036,
      "ledz": 1037,
      "wedr": 1038,
      "kvlr": 1039,
      "futbol": 1040,
      "svbs": 1041,
      "paz": 1042,
      "nli": 1043,
      "vik": 1044,
      "itin": 1045,
      "livr": 1046,
      "lju": 1047,
      "disk": 1048,
      "plejin": 1049,
      "teks": 1050,
      "fiz": 1051,
      "gil": 1052,
      "hajnd": 1053,
      "sun": 1054,
      "tst": 1055,
      "abl": 1056,
      "sepr": 1057,
      "blist": 1058,
      "empr": 1059,
      "kwal": 1060,
      "ikstr": 1061,
      "pejpr": 1062,
      "ikspl": 1063,
      "vidz": 1064,
      "kind": 1065,
      "sut": 1066,
      "dist": 1067,
      "kejp": 1068,
      "lajnz": 1069,
      "gowl": 1070,
      "tser": 1071,
      "sows": 1072,
      "itiks": 1073,
      "intajr": 1074,
      "mper": 1075,
      "isin": 1076,
      "kawns": 1077,
      "wikli": 1078,
      "lawd": 1079,
      "izr": 1080,
      "dejvid": 1081,
      "awntr": 1082,
      "ndis": 1083,
      "iper": 1084,
      "flit": 1085,
      "adzekt": 1086,
      "ajvd": 1087,
      "ikspr": 1088,
      "mowt": 1089,
      "kaz": 1090,
      "stiv": 1091,
      "kazd": 1092,
      "henr": 1093,
      "mik": 1094,
      "ntinju": 1095,
      "sl": 1096,
      "vowk": 1097,
      "sowld": 1098,
      "disajdid": 1099,
      "ses": 1100,
      "pajr": 1101,
      "anik": 1102,
      "wo": 1103,
      "bihajnd": 1104,
      "fig": 1105,
      "los": 1106,
      "skwadr": 1107,
      "indipend": 1108,
      "bizn": 1109,
      "vnk": 1110,
      "fiks": 1111,
      "mel": 1112,
      "ejndzd": 1113,
      "awndz": 1114,
      "kwest": 1115,
      "ases": 1116,
      "ajmer": 1117,
      "timz": 1118,
      "tempr": 1119,
      "lidin": 1120,
      "invest": 1121,
      "temp": 1122,
      "dzej": 1123,
      "tekt": 1124,
      "junj": 1125,
      "ladzik": 1126,
      "egz": 1127,
      "gvnz": 1128,
      "hej": 1129,
      "olmowst": 1130,
      "dusr": 1131,
      "paj": 1132,
      "ivil": 1133,
      "pol": 1134,
      "kvt": 1135,
      "owts": 1136,
      "ploj": 1137,
      "wiks": 1138,
      "lv": 1139,
      "gowin": 1140,
      "sat": 1141,
      "pu": 1142,
      "mejnt": 1143,
      "dziz": 1144,
      "git": 1145,
      "nfr": 1146,
      "difens": 1147,
      "bam": 1148,
      "tejs": 1149,
      "pen": 1150,
      "ndzr": 1151,
      "figjr": 1152,
      "pil": 1153,
      "ejdiow": 1154,
      "tajp": 1155,
      "and": 1156,
      "ivju": 1157,
      "instr": 1158,
      "sikjur": 1159,
      "kap": 1160,
      "gat": 1161,
      "dus": 1162,
      "ost": 1163,
      "iin": 1164,
      "dvs": 1165,
      "ntik": 1166,
      "lajzd": 1167,
      "svfr": 1168,
      "luk": 1169,
      "lejk": 1170,
      "litr": 1171,
      "help": 1172,
      "mows": 1173,
      "sajzd": 1174,
      "sur": 1175,
      "libr": 1176,
      "zil": 1177,
      "gnifik": 1178,
      "gejt": 1179,
      "bat": 1180,
      "baks": 1181,
      "sinz": 1182,
      "bowl": 1183,
      "ileks": 1184,
      "aps": 1185,
      "gad": 1186,
      "miti": 1187,
      "ipvb": 1188,
      "fes": 1189,
      "pejs": 1190,
      "tivz": 1191,
      "infr": 1192,
      "isi": 1193,
      "nejvi": 1194,
      "af": 1195,
      "wajf": 1196,
      "najn": 1197,
      "ejni": 1198,
      "tsif": 1199,
      "ajzin": 1200,
      "dipr": 1201,
      "lowr": 1202,
      "powz": 1203,
      "tsajld": 1204,
      "dvn": 1205,
      "km": 1206,
      "ikwi": 1207,
      "piejts": 1208,
      "pitr": 1209,
      "indzr": 1210,
      "taw": 1211,
      "studiow": 1212,
      "lm": 1213,
      "eps": 1214,
      "owdz": 1215,
      "wasint": 1216,
      "muvm": 1217,
      "klaj": 1218,
      "slej": 1219,
      "dim": 1220,
      "mem": 1221,
      "ojl": 1222,
      "smit": 1223,
      "klejmd": 1224,
      "tejn": 1225,
      "lowkejs": 1226,
      "letr": 1227,
      "lti": 1228,
      "pur": 1229,
      "intens": 1230,
      "nm": 1231,
      "to": 1232,
      "finist": 1233,
      "mist": 1234,
      "imr": 1235,
      "sowsiejs": 1236,
      "kampl": 1237,
      "tejkin": 1238,
      "ilidz": 1239,
      "olt": 1240,
      "dzojnd": 1241,
      "fs": 1242,
      "mvst": 1243,
      "kansr": 1244,
      "dizajnd": 1245,
      "ipt": 1246,
      "mb": 1247,
      "bzr": 1248,
      "sal": 1249,
      "spir": 1250,
      "lajz": 1251,
      "kast": 1252,
      "swi": 1253,
      "ger": 1254,
      "da": 1255,
      "bilivd": 1256,
      "gitar": 1257,
      "sis": 1258,
      "dil": 1259,
      "lejd": 1260,
      "mens": 1261,
      "skt": 1262,
      "powl": 1263,
      "iplejst": 1264,
      "empiejts": 1265,
      "tun": 1266,
      "fest": 1267,
      "gejdz": 1268,
      "kamb": 1269,
      "invalvd": 1270,
      "wejt": 1271,
      "bk": 1272,
      "ngw": 1273,
      "nkr": 1274,
      "pit": 1275,
      "disiz": 1276,
      "plaj": 1277,
      "sejin": 1278,
      "imidi": 1279,
      "wan": 1280,
      "wu": 1281,
      "fjutsr": 1282,
      "ektivli": 1283,
      "kat": 1284,
      "mir": 1285,
      "mvnt": 1286,
      "nsfr": 1287,
      "ulz": 1288,
      "dmin": 1289,
      "kip": 1290,
      "iejs": 1291,
      "flow": 1292,
      "lk": 1293,
      "nal": 1294,
      "tut": 1295,
      "filmz": 1296,
      "sens": 1297,
      "insp": 1298,
      "biginin": 1299,
      "aki": 1300,
      "gn": 1301,
      "sinr": 1302,
      "betr": 1303,
      "stvdi": 1304,
      "muv": 1305,
      "owv": 1306,
      "esli": 1307,
      "lows": 1308,
      "dzen": 1309,
      "isu": 1310,
      "awtsajd": 1311,
      "olr": 1312,
      "wind": 1313,
      "izent": 1314,
      "ndi": 1315,
      "pul": 1316,
      "ivjuz": 1317,
      "mezr": 1318,
      "sikw": 1319,
      "adi": 1320,
      "tip": 1321,
      "akj": 1322,
      "vojs": 1323,
      "ken": 1324,
      "bvv": 1325,
      "nil": 1326,
      "windz": 1327,
      "odk": 1328,
      "sowldzr": 1329,
      "sinjr": 1330,
      "invf": 1331,
      "dotr": 1332,
      "spid": 1333,
      "ta": 1334,
      "tivli": 1335,
      "dzinj": 1336,
      "wum": 1337,
      "mend": 1338,
      "luis": 1339,
      "elf": 1340,
      "dajn": 1341,
      "ikr": 1342,
      "bits": 1343,
      "bawnd": 1344,
      "netwr": 1345,
      "awd": 1346,
      "spekt": 1347,
      "towld": 1348,
      "ditr": 1349,
      "gm": 1350,
      "nel": 1351,
      "edwr": 1352,
      "spent": 1353,
      "skwer": 1354,
      "fimejl": 1355,
      "mj": 1356,
      "ktin": 1357,
      "vej": 1358,
      "dam": 1359,
      "kanfr": 1360,
      "spit": 1361,
      "ektid": 1362,
      "kwests": 1363,
      "miz": 1364,
      "sistr": 1365,
      "mvni": 1366,
      "ajk": 1367,
      "fejm": 1368,
      "fejld": 1369,
      "etik": 1370,
      "nsist": 1371,
      "inr": 1372,
      "ownr": 1373,
      "mikst": 1374,
      "vowt": 1375,
      "kinz": 1376,
      "ikstend": 1377,
      "itself": 1378,
      "kangr": 1379,
      "meks": 1380,
      "mant": 1381,
      "lajnd": 1382,
      "mtajmz": 1383,
      "kament": 1384,
      "igzist": 1385,
      "nejv": 1386,
      "sown": 1387,
      "engejdz": 1388,
      "huz": 1389,
      "owlz": 1390,
      "fud": 1391,
      "mits": 1392,
      "nf": 1393,
      "pits": 1394,
      "daktr": 1395,
      "hat": 1396,
      "pajl": 1397,
      "kejz": 1398,
      "majt": 1399,
      "vpr": 1400,
      "bjus": 1401,
      "flajt": 1402,
      "lajkli": 1403,
      "majnr": 1404,
      "nsin": 1405,
      "skow": 1406,
      "jukej": 1407,
      "owzr": 1408,
      "slaj": 1409,
      "hum": 1410,
      "biliti": 1411,
      "liv": 1412,
      "tsowz": 1413,
      "owin": 1414,
      "og": 1415,
      "emir": 1416,
      "nkt": 1417,
      "sowvi": 1418,
      "lejb": 1419,
      "kwikli": 1420,
      "sowz": 1421,
      "plat": 1422,
      "mistr": 1423,
      "wintr": 1424,
      "ifekts": 1425,
      "mjuzi": 1426,
      "winin": 1427,
      "pejt": 1428,
      "hud": 1429,
      "sitsu": 1430,
      "vir": 1431,
      "fvnd": 1432,
      "tinz": 1433,
      "dejbju": 1434,
      "itajr": 1435,
      "mitin": 1436,
      "leg": 1437,
      "ispesli": 1438,
      "iplejs": 1439,
      "dzv": 1440,
      "kvmin": 1441,
      "dez": 1442,
      "kowts": 1443,
      "ven": 1444,
      "fift": 1445,
      "tvnz": 1446,
      "buks": 1447,
      "empajr": 1448,
      "memr": 1449,
      "web": 1450,
      "bikvmin": 1451,
      "lenkt": 1452,
      "sowdz": 1453,
      "flvd": 1454,
      "imejnin": 1455,
      "ilejtid": 1456,
      "sajk": 1457,
      "dakj": 1458,
      "hal": 1459,
      "ejnts": 1460,
      "dikler": 1461,
      "ojr": 1462,
      "sejl": 1463,
      "intend": 1464,
      "tejl": 1465,
      "liti": 1466,
      "mju": 1467,
      "mv": 1468,
      "mitr": 1469,
      "ikspekt": 1470,
      "ibj": 1471,
      "tawr": 1472,
      "bs": 1473,
      "flu": 1474,
      "stap": 1475,
      "diowz": 1476,
      "namik": 1477,
      "helt": 1478,
      "ownz": 1479,
      "twent": 1480,
      "selvz": 1481,
      "fajt": 1482,
      "gejd": 1483,
      "blis": 1484,
      "didz": 1485,
      "kawntr": 1486,
      "dzm": 1487,
      "itor": 1488,
      "nes": 1489,
      "haspit": 1490,
      "saw": 1491,
      "ini": 1492,
      "hik": 1493,
      "twenti": 1494,
      "mbr": 1495,
      "anz": 1496,
      "ifekt": 1497,
      "nejtsr": 1498,
      "fvnks": 1499,
      "inspajr": 1500,
      "nspor": 1501,
      "elow": 1502,
      "invajr": 1503,
      "ejlwej": 1504,
      "sajdz": 1505,
      "bih": 1506,
      "sn": 1507,
      "lvm": 1508,
      "edin": 1509,
      "sti": 1510,
      "let": 1511,
      "gej": 1512,
      "pikt": 1513,
      "wep": 1514,
      "hev": 1515,
      "tsajniz": 1516,
      "nbr": 1517,
      "kagow": 1518,
      "dilivr": 1519,
      "helpt": 1520,
      "klowzd": 1521,
      "fejl": 1522,
      "numr": 1523,
      "tsiv": 1524,
      "fejt": 1525,
      "isud": 1526,
      "link": 1527,
      "bildinz": 1528,
      "wats": 1529,
      "longr": 1530,
      "mes": 1531,
      "bilbor": 1532,
      "jet": 1533,
      "ejmd": 1534,
      "ajin": 1535,
      "dzab": 1536,
      "dejli": 1537,
      "sejlz": 1538,
      "dzans": 1539,
      "tsejndzd": 1540,
      "eksp": 1541,
      "sowsiejt": 1542,
      "emploj": 1543,
      "ikan": 1544,
      "nejdi": 1545,
      "svmtin": 1546,
      "kwajr": 1547,
      "tvn": 1548,
      "sikr": 1549,
      "viktor": 1550,
      "ster": 1551,
      "imejnz": 1552,
      "mowstli": 1553,
      "ilekt": 1554,
      "kgr": 1555,
      "plajd": 1556,
      "uts": 1557,
      "demselvz": 1558,
      "lat": 1559,
      "lont": 1560,
      "wajld": 1561,
      "muvin": 1562,
      "ektli": 1563,
      "koj": 1564,
      "wejlz": 1565,
      "ltiz": 1566,
      "dzaj": 1567,
      "mentr": 1568,
      "insajd": 1569,
      "owlimp": 1570,
      "fekt": 1571,
      "fowt": 1572,
      "nvr": 1573,
      "tnr": 1574,
      "ngr": 1575,
      "mur": 1576,
      "esiv": 1577,
      "nejtid": 1578,
      "kapiz": 1579,
      "hv": 1580,
      "ikwest": 1581,
      "jutr": 1582,
      "blvd": 1583,
      "olwejz": 1584,
      "dzunjr": 1585,
      "mejlz": 1586,
      "winz": 1587,
      "las": 1588,
      "dzer": 1589,
      "digr": 1590,
      "dvd": 1591,
      "inkludz": 1592,
      "sign": 1593,
      "tejnm": 1594,
      "igzekj": 1595,
      "piktsr": 1596,
      "ajdr": 1597,
      "seps": 1598,
      "tejks": 1599,
      "nekt": 1600,
      "mpowzd": 1601,
      "vtin": 1602,
      "noj": 1603,
      "tsm": 1604,
      "muvi": 1605,
      "mps": 1606,
      "tvts": 1607,
      "imuvd": 1608,
      "tus": 1609,
      "givin": 1610,
      "vjur": 1611,
      "nar": 1612,
      "dizaj": 1613,
      "mvl": 1614,
      "fajtin": 1615,
      "ests": 1616,
      "edzu": 1617,
      "nvin": 1618,
      "vihik": 1619,
      "minut": 1620,
      "sajr": 1621,
      "fajtr": 1622,
      "ptr": 1623,
      "mvlt": 1624,
      "niks": 1625,
      "kampleks": 1626,
      "hvn": 1627,
      "gowlz": 1628,
      "plejz": 1629,
      "mal": 1630,
      "dmr": 1631,
      "ipr": 1632,
      "dzim": 1633,
      "tud": 1634,
      "livd": 1635,
      "mini": 1636,
      "staj": 1637,
      "plejn": 1638,
      "iksplej": 1639,
      "ndid": 1640,
      "faks": 1641,
      "bul": 1642,
      "spat": 1643,
      "dzli": 1644,
      "ats": 1645,
      "gi": 1646,
      "ivild": 1647,
      "ejli": 1648,
      "isuz": 1649,
      "siklown": 1650,
      "glow": 1651,
      "fjuzd": 1652,
      "kem": 1653,
      "nejb": 1654,
      "lajd": 1655,
      "silvr": 1656,
      "lontst": 1657,
      "ejlr": 1658,
      "mejks": 1659,
      "ispektivli": 1660,
      "tink": 1661,
      "fizik": 1662,
      "bilow": 1663,
      "solt": 1664,
      "isk": 1665,
      "mpr": 1666,
      "ndvkt": 1667,
      "smolr": 1668,
      "ani": 1669,
      "stejtin": 1670,
      "nklud": 1671,
      "sekr": 1672,
      "ntejnz": 1673,
      "ajii": 1674,
      "gu": 1675,
      "nsajd": 1676,
      "skedzu": 1677,
      "lak": 1678,
      "ajzr": 1679,
      "nuzpejpr": 1680,
      "lowd": 1681,
      "pid": 1682,
      "ntempr": 1683,
      "stim": 1684,
      "fown": 1685,
      "hajdr": 1686,
      "sejf": 1687,
      "nowts": 1688,
      "howst": 1689,
      "ho": 1690,
      "distin": 1691,
      "wist": 1692,
      "bild": 1693,
      "iseps": 1694,
      "nvens": 1695,
      "vojd": 1696,
      "majnd": 1697,
      "mowni": 1698,
      "ksep": 1699,
      "bisi": 1700,
      "lbr": 1701,
      "ojs": 1702,
      "bown": 1703,
      "mpt": 1704,
      "dir": 1705,
      "sitsuejs": 1706,
      "mbaj": 1707,
      "skulz": 1708,
      "stvd": 1709,
      "izvltid": 1710,
      "ksi": 1711,
      "sitiz": 1712,
      "stejdi": 1713,
      "plojd": 1714,
      "ejdi": 1715,
      "pel": 1716,
      "ism": 1717,
      "nejmz": 1718,
      "minz": 1719,
      "kler": 1720,
      "jow": 1721,
      "divajd": 1722,
      "klajm": 1723,
      "skalr": 1724,
      "epj": 1725,
      "bdz": 1726,
      "idin": 1727,
      "log": 1728,
      "kaj": 1729,
      "misig": 1730,
      "kvst": 1731,
      "lf": 1732,
      "majl": 1733,
      "nejtiv": 1734,
      "ajbz": 1735,
      "indv": 1736,
      "teknik": 1737,
      "lek": 1738,
      "svbdz": 1739,
      "dministr": 1740,
      "dev": 1741,
      "dents": 1742,
      "ibju": 1743,
      "sikst": 1744,
      "gam": 1745,
      "svbdzikt": 1746,
      "war": 1747,
      "tiks": 1748,
      "viet": 1749,
      "wul": 1750,
      "kit": 1751,
      "hvndr": 1752,
      "ditej": 1753,
      "blak": 1754,
      "bejt": 1755,
      "ali": 1756,
      "kowt": 1757,
      "sajts": 1758,
      "eti": 1759,
      "owlin": 1760,
      "idi": 1761,
      "ownd": 1762,
      "dusin": 1763,
      "gaj": 1764,
      "owdus": 1765,
      "ejtiv": 1766,
      "seksu": 1767,
      "ejkr": 1768,
      "ves": 1769,
      "emb": 1770,
      "vmp": 1771,
      "pvbli": 1772,
      "kis": 1773,
      "iksper": 1774,
      "sajn": 1775,
      "ajvin": 1776,
      "izist": 1777,
      "bab": 1778,
      "spits": 1779,
      "hajli": 1780,
      "pown": 1781,
      "skat": 1782,
      "mowm": 1783,
      "itejs": 1784,
      "ekstr": 1785,
      "maw": 1786,
      "pejnt": 1787,
      "ipvblik": 1788,
      "howt": 1789,
      "nl": 1790,
      "sidz": 1791,
      "lajbr": 1792,
      "vow": 1793,
      "majkr": 1794,
      "glowb": 1795,
      "ininz": 1796,
      "oft": 1797,
      "skejl": 1798,
      "mowtr": 1799,
      "gajd": 1800,
      "dvr": 1801,
      "minin": 1802,
      "enkr": 1803,
      "valju": 1804,
      "uf": 1805,
      "izi": 1806,
      "lejn": 1807,
      "sejnt": 1808,
      "dejts": 1809,
      "stvdiz": 1810,
      "lam": 1811,
      "ilim": 1812,
      "kseptid": 1813,
      "kwej": 1814,
      "inkor": 1815,
      "luten": 1816,
      "difend": 1817,
      "tsojs": 1818,
      "selz": 1819,
      "inh": 1820,
      "biginz": 1821,
      "til": 1822,
      "mpjutr": 1823,
      "nit": 1824,
      "dzownz": 1825,
      "nsips": 1826,
      "iliz": 1827,
      "skatl": 1828,
      "els": 1829,
      "vnr": 1830,
      "selin": 1831,
      "mpl": 1832,
      "flajin": 1833,
      "pvbl": 1834,
      "bd": 1835,
      "band": 1836,
      "gdzests": 1837,
      "itsin": 1838,
      "izvltin": 1839,
      "skin": 1840,
      "kept": 1841,
      "pejd": 1842,
      "tilr": 1843,
      "fili": 1844,
      "stak": 1845,
      "dzows": 1846,
      "spik": 1847,
      "sawndtr": 1848,
      "dzvn": 1849,
      "des": 1850,
      "pens": 1851,
      "zu": 1852,
      "dapt": 1853,
      "ntejs": 1854,
      "sajm": 1855,
      "wajz": 1856,
      "ktsr": 1857,
      "sidi": 1858,
      "simps": 1859,
      "howtel": 1860,
      "neg": 1861,
      "mbajnd": 1862,
      "tsejm": 1863,
      "bajagr": 1864,
      "fajin": 1865,
      "infor": 1866,
      "neks": 1867,
      "ntinjuz": 1868,
      "tekst": 1869,
      "wis": 1870,
      "ajvr": 1871,
      "invejz": 1872,
      "twaj": 1873,
      "klar": 1874,
      "tempts": 1875,
      "gowz": 1876,
      "twel": 1877,
      "de": 1878,
      "gnajzd": 1879,
      "kn": 1880,
      "itm": 1881,
      "ikskl": 1882,
      "lawin": 1883,
      "awtr": 1884,
      "tawz": 1885,
      "kowd": 1886,
      "bir": 1887,
      "pejdz": 1888,
      "tsejmbr": 1889,
      "dvts": 1890,
      "studiowz": 1891,
      "ksept": 1892,
      "abdz": 1893,
      "vps": 1894,
      "var": 1895,
      "majr": 1896,
      "ispa": 1897,
      "nidz": 1898,
      "mejni": 1899,
      "bihejv": 1900,
      "ikstensiv": 1901,
      "kjr": 1902,
      "kvmz": 1903,
      "pejn": 1904,
      "bast": 1905,
      "teknal": 1906,
      "hedz": 1907,
      "ntir": 1908,
      "sets": 1909,
      "netik": 1910,
      "ivjur": 1911,
      "kowld": 1912,
      "kajnd": 1913,
      "filmin": 1914,
      "imejn": 1915,
      "ktik": 1916,
      "bek": 1917,
      "impl": 1918,
      "diziz": 1919,
      "bikvmz": 1920,
      "jelow": 1921,
      "daw": 1922,
      "duk": 1923,
      "aksfr": 1924,
      "linz": 1925,
      "dezig": 1926,
      "tajd": 1927,
      "kg": 1928,
      "awndin": 1929,
      "ank": 1930,
      "ipvbl": 1931,
      "ejp": 1932,
      "nejbr": 1933,
      "ga": 1934,
      "luz": 1935,
      "ntsestr": 1936,
      "skvl": 1937,
      "vndz": 1938,
      "klin": 1939,
      "ifr": 1940,
      "uzr": 1941,
      "winr": 1942,
      "lonsajd": 1943,
      "skaj": 1944,
      "kejtid": 1945,
      "impir": 1946,
      "owejs": 1947,
      "kolin": 1948,
      "klow": 1949,
      "felow": 1950,
      "slajtli": 1951,
      "vietnam": 1952,
      "vzb": 1953,
      "entsr": 1954,
      "izvlts": 1955,
      "tfor": 1956,
      "kansept": 1957,
      "gest": 1958,
      "owb": 1959,
      "nvtin": 1960,
      "tn": 1961,
      "intel": 1962,
      "antu": 1963,
      "inkawntr": 1964,
      "ikow": 1965,
      "itid": 1966,
      "sot": 1967,
      "eld": 1968,
      "uk": 1969,
      "ejsi": 1970,
      "bus": 1971,
      "mplitli": 1972,
      "owldr": 1973,
      "def": 1974,
      "dezignejtid": 1975,
      "hali": 1976,
      "lukin": 1977,
      "gli": 1978,
      "bibisi": 1979,
      "hin": 1980,
      "tejb": 1981,
      "mejnli": 1982,
      "dzur": 1983,
      "elr": 1984,
      "kanf": 1985,
      "hvzb": 1986,
      "iksplejnd": 1987,
      "dm": 1988,
      "baw": 1989,
      "twest": 1990,
      "enkt": 1991,
      "fawndejs": 1992,
      "dikr": 1993,
      "svt": 1994,
      "dventsr": 1995,
      "howmz": 1996,
      "sajl": 1997,
      "wajdli": 1998,
      "simb": 1999,
      "tejnd": 2000,
      "nder": 2001,
      "sfir": 2002,
      "vins": 2003,
      "tajps": 2004,
      "bejsbol": 2005,
      "gejnd": 2006,
      "ifik": 2007,
      "bjud": 2008,
      "spar": 2009,
      "vis": 2010,
      "alvd": 2011,
      "ikstsej": 2012,
      "fensiv": 2013,
      "nh": 2014,
      "setin": 2015,
      "biand": 2016,
      "sez": 2017,
      "gowsi": 2018,
      "vjuz": 2019,
      "mown": 2020,
      "hip": 2021,
      "lajs": 2022,
      "istor": 2023,
      "flikt": 2024,
      "skil": 2025,
      "hedkwor": 2026,
      "dzojn": 2027,
      "igr": 2028,
      "imows": 2029,
      "ldz": 2030,
      "snow": 2031,
      "swit": 2032,
      "kamik": 2033,
      "kazin": 2034,
      "kon": 2035,
      "ejnfol": 2036,
      "badiz": 2037,
      "dajvr": 2038,
      "esin": 2039,
      "hits": 2040,
      "tejlr": 2041,
      "kjut": 2042,
      "bilj": 2043,
      "ikwipm": 2044,
      "ih": 2045,
      "junik": 2046,
      "esi": 2047,
      "diskvs": 2048,
      "duin": 2049,
      "loj": 2050,
      "lejz": 2051,
      "nlajk": 2052,
      "sembli": 2053,
      "dejndzr": 2054,
      "telz": 2055,
      "fejljr": 2056,
      "von": 2057,
      "sowlow": 2058,
      "vf": 2059,
      "wejv": 2060,
      "itus": 2061,
      "fejz": 2062,
      "twr": 2063,
      "ldwajd": 2064,
      "iskejp": 2065,
      "esk": 2066,
      "ntidz": 2067,
      "iksept": 2068,
      "klejmz": 2069,
      "amtr": 2070,
      "dinz": 2071,
      "umz": 2072,
      "stejtm": 2073,
      "iksplor": 2074,
      "ham": 2075,
      "livz": 2076,
      "wolz": 2077,
      "miks": 2078,
      "minwajl": 2079,
      "lejdi": 2080,
      "biliv": 2081,
      "diks": 2082,
      "howmr": 2083,
      "bigin": 2084,
      "bet": 2085,
      "imar": 2086,
      "indvstr": 2087,
      "finis": 2088,
      "sejs": 2089,
      "kanflikt": 2090,
      "nutr": 2091,
      "vajs": 2092,
      "kilamtr": 2093,
      "lif": 2094,
      "lajvz": 2095,
      "adzr": 2096,
      "lists": 2097,
      "palis": 2098,
      "nnown": 2099,
      "mvlti": 2100,
      "bvdz": 2101,
      "pinj": 2102,
      "dejbjud": 2103,
      "gjud": 2104,
      "ifektiv": 2105,
      "kantent": 2106,
      "iejtin": 2107,
      "dizajr": 2108,
      "vjud": 2109,
      "nur": 2110,
      "twajs": 2111,
      "fejst": 2112,
      "ejzin": 2113,
      "dzejs": 2114,
      "ejvi": 2115,
      "spowk": 2116,
      "hap": 2117,
      "sawtist": 2118,
      "mejntejnd": 2119,
      "flekt": 2120,
      "vel": 2121,
      "lvmbi": 2122,
      "bojz": 2123,
      "tektsr": 2124,
      "tsur": 2125,
      "howldz": 2126,
      "ikli": 2127,
      "majn": 2128,
      "gon": 2129,
      "mjuzis": 2130,
      "fuli": 2131,
      "usiv": 2132,
      "edzi": 2133,
      "zown": 2134,
      "dets": 2135,
      "emf": 2136,
      "fas": 2137,
      "dvlt": 2138,
      "idzektid": 2139,
      "ejdin": 2140,
      "ww": 2141,
      "tsiz": 2142,
      "ejdr": 2143,
      "bowts": 2144,
      "un": 2145,
      "skatis": 2146,
      "nuli": 2147,
      "twelv": 2148,
      "flawr": 2149,
      "zanr": 2150,
      "gvl": 2151,
      "itisiz": 2152,
      "bed": 2153,
      "semi": 2154,
      "ls": 2155,
      "ejsin": 2156,
      "ejndzr": 2157,
      "wund": 2158,
      "mvz": 2159,
      "wils": 2160,
      "klr": 2161,
      "kilin": 2162,
      "osin": 2163,
      "ke": 2164,
      "ilaj": 2165,
      "wejd": 2166,
      "nejtin": 2167,
      "iinfor": 2168,
      "nvn": 2169,
      "nuklir": 2170,
      "fildz": 2171,
      "simpli": 2172,
      "sejv": 2173,
      "kampr": 2174,
      "lowni": 2175,
      "lan": 2176,
      "stur": 2177,
      "sw": 2178,
      "luzin": 2179,
      "falowz": 2180,
      "ntejnd": 2181,
      "bid": 2182,
      "lav": 2183,
      "pjur": 2184,
      "alf": 2185,
      "sks": 2186,
      "mest": 2187,
      "step": 2188,
      "nsekj": 2189,
      "paw": 2190,
      "vilj": 2191,
      "gd": 2192,
      "ksid": 2193,
      "milr": 2194,
      "tlik": 2195,
      "pajd": 2196,
      "websajt": 2197,
      "dog": 2198,
      "split": 2199,
      "dens": 2200,
      "ikstsejndz": 2201,
      "svl": 2202,
      "anow": 2203,
      "mpowzr": 2204,
      "ejnj": 2205,
      "fajl": 2206,
      "swits": 2207,
      "filmd": 2208,
      "vns": 2209,
      "mun": 2210,
      "tsek": 2211,
      "egr": 2212,
      "kik": 2213,
      "gju": 2214,
      "svnd": 2215,
      "ntejn": 2216,
      "lvejnj": 2217,
      "svbst": 2218,
      "bjut": 2219,
      "valjum": 2220,
      "kamj": 2221,
      "ejndzm": 2222,
      "mejr": 2223,
      "difensiv": 2224,
      "hajt": 2225,
      "owhaj": 2226,
      "vikt": 2227,
      "kid": 2228,
      "nter": 2229,
      "han": 2230,
      "disting": 2231,
      "spejn": 2232,
      "filin": 2233,
      "pejtr": 2234,
      "bak": 2235,
      "sak": 2236,
      "pvn": 2237,
      "ejkin": 2238,
      "stajn": 2239,
      "sits": 2240,
      "tent": 2241,
      "fisr": 2242,
      "institus": 2243,
      "witdr": 2244,
      "zes": 2245,
      "haki": 2246,
      "kiz": 2247,
      "dalr": 2248,
      "howp": 2249,
      "witn": 2250,
      "jvngr": 2251,
      "ikseps": 2252,
      "woltr": 2253,
      "tawnz": 2254,
      "owpr": 2255,
      "segm": 2256,
      "hilz": 2257,
      "eksr": 2258,
      "tal": 2259,
      "ml": 2260,
      "sinin": 2261,
      "ntifik": 2262,
      "tsivd": 2263,
      "meg": 2264,
      "ifli": 2265,
      "ipitid": 2266,
      "dvl": 2267,
      "spekts": 2268,
      "nkin": 2269,
      "stejnd": 2270,
      "ilev": 2271,
      "gamplej": 2272,
      "welt": 2273,
      "gejn": 2274,
      "sejp": 2275,
      "bitr": 2276,
      "howldin": 2277,
      "lfr": 2278,
      "ensur": 2279,
      "misin": 2280,
      "ntsajz": 2281,
      "ift": 2282,
      "disr": 2283,
      "ekst": 2284,
      "flvdin": 2285,
      "zow": 2286,
      "lut": 2287,
      "didn": 2288,
      "ko": 2289,
      "lajts": 2290,
      "manj": 2291,
      "dzojnt": 2292,
      "onlajn": 2293,
      "down": 2294,
      "hawr": 2295,
      "iwej": 2296,
      "delfi": 2297,
      "lid": 2298,
      "plajz": 2299,
      "spend": 2300,
      "lel": 2301,
      "fot": 2302,
      "pgr": 2303,
      "njuz": 2304,
      "imuv": 2305,
      "hvl": 2306,
      "lawz": 2307,
      "sejfti": 2308,
      "sutin": 2309,
      "mowb": 2310,
      "kjus": 2311,
      "dit": 2312,
      "umr": 2313,
      "owhajow": 2314,
      "givz": 2315,
      "simz": 2316,
      "ejmi": 2317,
      "lejtid": 2318,
      "loz": 2319,
      "divajs": 2320,
      "fesr": 2321,
      "folz": 2322,
      "vajv": 2323,
      "kejmbr": 2324,
      "skedzuld": 2325,
      "bn": 2326,
      "eslin": 2327,
      "ajdz": 2328,
      "istejt": 2329,
      "fow": 2330,
      "owzin": 2331,
      "bst": 2332,
      "igzistin": 2333,
      "mowd": 2334,
      "fajndz": 2335,
      "hem": 2336,
      "vmr": 2337,
      "nats": 2338,
      "gan": 2339,
      "bamr": 2340,
      "svbmr": 2341,
      "ibjutid": 2342,
      "lonts": 2343,
      "kul": 2344,
      "pidow": 2345,
      "kjub": 2346,
      "ntejnin": 2347,
      "skar": 2348,
      "gnejs": 2349,
      "mejkr": 2350,
      "ibjut": 2351,
      "tagr": 2352,
      "eskor": 2353,
      "sivin": 2354,
      "kwajt": 2355,
      "wejn": 2356,
      "dzuis": 2357,
      "vajdz": 2358,
      "ivnin": 2359,
      "dekr": 2360,
      "ikstens": 2361,
      "tendow": 2362,
      "nintendow": 2363,
      "mejts": 2364,
      "sawtwest": 2365,
      "pk": 2366,
      "kolz": 2367,
      "fits": 2368,
      "ejg": 2369,
      "tbol": 2370,
      "kak": 2371,
      "kanvr": 2372,
      "owlt": 2373,
      "fvndz": 2374,
      "beldz": 2375,
      "vmb": 2376,
      "gir": 2377,
      "emplojd": 2378,
      "windowz": 2379,
      "vejt": 2380,
      "isor": 2381,
      "vpt": 2382,
      "nowz": 2383,
      "hajd": 2384,
      "dzvdz": 2385,
      "efju": 2386,
      "dejtid": 2387,
      "imembr": 2388,
      "nsiskow": 2389,
      "gvlf": 2390,
      "vajdin": 2391,
      "mawt": 2392,
      "dzinz": 2393,
      "ejtt": 2394,
      "getin": 2395,
      "sift": 2396,
      "zm": 2397,
      "town": 2398,
      "lejbr": 2399,
      "vstr": 2400,
      "imz": 2401,
      "sap": 2402,
      "klowsli": 2403,
      "sidni": 2404,
      "dzefr": 2405,
      "adow": 2406,
      "owsi": 2407,
      "gj": 2408,
      "smow": 2409,
      "eskju": 2410,
      "wejtin": 2411,
      "kalr": 2412,
      "plejstejs": 2413,
      "tejt": 2414,
      "svnz": 2415,
      "hmz": 2416,
      "mjunis": 2417,
      "vfli": 2418,
      "nsists": 2419,
      "owlimpik": 2420,
      "displej": 2421,
      "gnis": 2422,
      "lind": 2423,
      "fjuz": 2424,
      "zir": 2425,
      "lejr": 2426,
      "enitin": 2427,
      "ntal": 2428,
      "engejdzd": 2429,
      "stejb": 2430,
      "dajm": 2431,
      "vki": 2432,
      "difajnd": 2433,
      "tsik": 2434,
      "ntajn": 2435,
      "idzd": 2436,
      "wvndr": 2437,
      "spin": 2438,
      "pojntm": 2439,
      "bvs": 2440,
      "pak": 2441,
      "kjur": 2442,
      "pat": 2443,
      "plr": 2444,
      "manstr": 2445,
      "idzin": 2446,
      "haliwud": 2447,
      "pajn": 2448,
      "nak": 2449,
      "kim": 2450,
      "nsm": 2451,
      "inkvm": 2452,
      "pejntin": 2453,
      "dmit": 2454,
      "watst": 2455,
      "egzist": 2456,
      "ilajn": 2457,
      "nidr": 2458,
      "itsu": 2459,
      "gejts": 2460,
      "ient": 2461,
      "intir": 2462,
      "span": 2463,
      "mek": 2464,
      "signifik": 2465,
      "howli": 2466,
      "dejl": 2467,
      "majgr": 2468,
      "nins": 2469,
      "adzekts": 2470,
      "vvl": 2471,
      "mestik": 2472,
      "atr": 2473,
      "blow": 2474,
      "stajlz": 2475,
      "titsr": 2476,
      "dizni": 2477,
      "nfedr": 2478,
      "kawnts": 2479,
      "dvajzr": 2480,
      "dzvnks": 2481,
      "vajr": 2482,
      "vli": 2483,
      "sper": 2484,
      "plejof": 2485,
      "mvzl": 2486,
      "nest": 2487,
      "sejpt": 2488,
      "isinli": 2489,
      "ajvz": 2490,
      "helm": 2491,
      "spektr": 2492,
      "kits": 2493,
      "ektin": 2494,
      "mint": 2495,
      "towni": 2496,
      "ajf": 2497,
      "sowin": 2498,
      "owtst": 2499,
      "inejmd": 2500,
      "tistr": 2501,
      "fid": 2502,
      "dzist": 2503,
      "ntis": 2504,
      "bejank": 2505,
      "fajndin": 2506,
      "tub": 2507,
      "demik": 2508,
      "spektiv": 2509,
      "uvm": 2510,
      "fimejlz": 2511,
      "ilif": 2512,
      "ban": 2513,
      "ntvki": 2514,
      "widdr": 2515,
      "wajn": 2516,
      "ptejs": 2517,
      "pli": 2518,
      "diklajnd": 2519,
      "tsus": 2520,
      "ikor": 2521,
      "edzistr": 2522,
      "uld": 2523,
      "ditejlz": 2524,
      "duti": 2525,
      "endzojd": 2526,
      "kent": 2527,
      "swa": 2528,
      "blism": 2529,
      "tests": 2530,
      "owlimpiks": 2531,
      "fk": 2532,
      "gin": 2533,
      "hid": 2534,
      "iskej": 2535,
      "send": 2536,
      "mowz": 2537,
      "sif": 2538,
      "bvl": 2539,
      "sekts": 2540,
      "bejbi": 2541,
      "suz": 2542,
      "tit": 2543,
      "kwik": 2544,
      "entajt": 2545,
      "sajkl": 2546,
      "wejk": 2547,
      "dekejd": 2548,
      "dizajnz": 2549,
      "ispandid": 2550,
      "distinkt": 2551,
      "invajt": 2552,
      "ksesr": 2553,
      "dawnt": 2554,
      "listik": 2555,
      "pvnk": 2556,
      "sifikli": 2557,
      "nment": 2558,
      "dipl": 2559,
      "ilow": 2560,
      "ikwiv": 2561,
      "kanvoj": 2562,
      "ast": 2563,
      "spekj": 2564,
      "sawndz": 2565,
      "abzr": 2566,
      "najts": 2567,
      "fun": 2568,
      "bawndr": 2569,
      "ajbin": 2570,
      "dzuli": 2571,
      "ajmz": 2572,
      "dima": 2573,
      "dept": 2574,
      "sists": 2575,
      "niti": 2576,
      "esej": 2577,
      "wilin": 2578,
      "ndow": 2579,
      "ispekt": 2580,
      "hvngr": 2581,
      "sipi": 2582,
      "tsuz": 2583,
      "bihejvjr": 2584,
      "dispjut": 2585,
      "tan": 2586,
      "lup": 2587,
      "isens": 2588,
      "imli": 2589,
      "izentin": 2590,
      "svd": 2591,
      "enejb": 2592,
      "widz": 2593,
      "tistik": 2594,
      "atow": 2595,
      "itejnd": 2596,
      "supir": 2597,
      "iu": 2598,
      "pju": 2599,
      "fawndr": 2600,
      "adr": 2601,
      "dest": 2602,
      "mtv": 2603,
      "eldr": 2604,
      "stvdid": 2605,
      "bejsik": 2606,
      "vmps": 2607,
      "nveks": 2608,
      "vents": 2609,
      "wulf": 2610,
      "spikin": 2611,
      "iplejsm": 2612,
      "fjur": 2613,
      "stapt": 2614,
      "bjur": 2615,
      "dawntawn": 2616,
      "dipikt": 2617,
      "mejntejn": 2618,
      "sol": 2619,
      "tvndr": 2620,
      "wok": 2621,
      "dn": 2622,
      "vnts": 2623,
      "powli": 2624,
      "bluz": 2625,
      "idziz": 2626,
      "sats": 2627,
      "iksklusiv": 2628,
      "inspr": 2629,
      "siin": 2630,
      "ndfol": 2631,
      "ojt": 2632,
      "dizajnr": 2633,
      "owniz": 2634,
      "bvnd": 2635,
      "bas": 2636,
      "atik": 2637,
      "inses": 2638,
      "lejtin": 2639,
      "tok": 2640,
      "enz": 2641,
      "owkl": 2642,
      "tajfun": 2643,
      "mpown": 2644,
      "ibel": 2645,
      "ejtinz": 2646,
      "mawnts": 2647,
      "emiks": 2648,
      "majz": 2649,
      "vajvd": 2650,
      "ninz": 2651,
      "nun": 2652,
      "gwa": 2653,
      "edits": 2654,
      "tidz": 2655,
      "nist": 2656,
      "idik": 2657,
      "sonr": 2658,
      "vajvr": 2659,
      "osiz": 2660,
      "legz": 2661,
      "svmwvn": 2662,
      "ktid": 2663,
      "umd": 2664,
      "nedr": 2665,
      "instold": 2666,
      "diklajn": 2667,
      "hvntin": 2668,
      "uvin": 2669,
      "vtk": 2670,
      "dzejk": 2671,
      "ikold": 2672,
      "vetr": 2673,
      "dzef": 2674,
      "izemb": 2675,
      "tol": 2676,
      "sild": 2677,
      "mplis": 2678,
      "dejs": 2679,
      "mjut": 2680,
      "bdzektiv": 2681,
      "abdzekts": 2682,
      "ikwipt": 2683,
      "nger": 2684,
      "spansr": 2685,
      "agz": 2686,
      "kwant": 2687,
      "wvnz": 2688,
      "nowtin": 2689,
      "owks": 2690,
      "nsistin": 2691,
      "dekejdz": 2692,
      "gw": 2693,
      "slip": 2694,
      "hvntr": 2695,
      "midiv": 2696,
      "imejndr": 2697,
      "tses": 2698,
      "dipend": 2699,
      "belt": 2700,
      "wir": 2701,
      "dejtin": 2702,
      "vtr": 2703,
      "fikst": 2704,
      "keli": 2705,
      "nba": 2706,
      "tju": 2707,
      "juzr": 2708,
      "endzoj": 2709,
      "ntinjuin": 2710,
      "dutiz": 2711,
      "wajdspr": 2712,
      "lukt": 2713,
      "najnt": 2714,
      "nowb": 2715,
      "lejbawr": 2716,
      "stem": 2717,
      "nows": 2718,
      "kejtin": 2719,
      "intents": 2720,
      "klawd": 2721,
      "mpet": 2722,
      "dzejn": 2723,
      "litik": 2724,
      "slowli": 2725,
      "lip": 2726,
      "kasts": 2727,
      "onli": 2728,
      "nsfor": 2729,
      "tw": 2730,
      "dk": 2731,
      "tajgr": 2732,
      "elin": 2733,
      "vmz": 2734,
      "plejnz": 2735,
      "vgz": 2736,
      "itiz": 2737,
      "nzis": 2738,
      "skowp": 2739,
      "klint": 2740,
      "svndej": 2741,
      "mst": 2742,
      "kvmfr": 2743,
      "amp": 2744,
      "lajin": 2745,
      "sumd": 2746,
      "powstid": 2747,
      "skim": 2748,
      "lajkt": 2749,
      "skawt": 2750,
      "nkluz": 2751,
      "awtbr": 2752,
      "klejmin": 2753,
      "hib": 2754,
      "klvbz": 2755,
      "spaj": 2756,
      "ejst": 2757,
      "skvli": 2758,
      "kantest": 2759,
      "ebr": 2760,
      "kna": 2761,
      "powp": 2762,
      "hitlr": 2763,
      "pawnd": 2764,
      "lift": 2765,
      "antow": 2766,
      "pus": 2767,
      "dajr": 2768,
      "nsestr": 2769,
      "iejtr": 2770,
      "welts": 2771,
      "nspr": 2772,
      "stejd": 2773,
      "tejni": 2774,
      "invalvin": 2775,
      "kvlt": 2776,
      "awtst": 2777,
      "pinz": 2778,
      "gvst": 2779,
      "astr": 2780,
      "utin": 2781,
      "klivl": 2782,
      "sejld": 2783,
      "adiow": 2784,
      "btejnd": 2785,
      "kjuzd": 2786,
      "tak": 2787,
      "gets": 2788,
      "ior": 2789,
      "izajnd": 2790,
      "junr": 2791,
      "bud": 2792,
      "lajnm": 2793,
      "lkj": 2794,
      "finisin": 2795,
      "ntid": 2796,
      "lsip": 2797,
      "inisi": 2798,
      "kist": 2799,
      "oin": 2800,
      "howstid": 2801,
      "manar": 2802,
      "fiftin": 2803,
      "dvgl": 2804,
      "tits": 2805,
      "edm": 2806,
      "ekspr": 2807,
      "twin": 2808,
      "ingr": 2809,
      "not": 2810,
      "dinajd": 2811,
      "long": 2812,
      "indowniz": 2813,
      "tidr": 2814,
      "depj": 2815,
      "nent": 2816,
      "nim": 2817,
      "zim": 2818,
      "dzent": 2819,
      "sum": 2820,
      "muvz": 2821,
      "iejtiv": 2822,
      "inow": 2823,
      "vajt": 2824,
      "kevin": 2825,
      "insist": 2826,
      "wig": 2827,
      "ajst": 2828,
      "vajvin": 2829,
      "welz": 2830,
      "bigvn": 2831,
      "ligz": 2832,
      "dezr": 2833,
      "bambar": 2834,
      "istiks": 2835,
      "tsejn": 2836,
      "dikt": 2837,
      "klif": 2838,
      "iwvn": 2839,
      "plejt": 2840,
      "tsestr": 2841,
      "ladz": 2842,
      "fvndin": 2843,
      "isbn": 2844,
      "kuk": 2845,
      "petr": 2846,
      "inl": 2847,
      "egn": 2848,
      "ibelj": 2849,
      "ampt": 2850,
      "disend": 2851,
      "skwad": 2852,
      "tsejs": 2853,
      "istik": 2854,
      "kowor": 2855,
      "sowlr": 2856,
      "wet": 2857,
      "sesr": 2858,
      "tsivm": 2859,
      "sektr": 2860,
      "disor": 2861,
      "swid": 2862,
      "owfi": 2863,
      "minis": 2864,
      "nels": 2865,
      "fajlz": 2866,
      "kvnd": 2867,
      "ifektivli": 2868,
      "sajnz": 2869,
      "mendm": 2870,
      "tikli": 2871,
      "mentejs": 2872,
      "dvlts": 2873,
      "mjul": 2874,
      "owg": 2875,
      "emn": 2876,
      "daks": 2877,
      "ulr": 2878,
      "bmit": 2879,
      "ktli": 2880,
      "folin": 2881,
      "sf": 2882,
      "nvinst": 2883,
      "but": 2884,
      "kipin": 2885,
      "hvnt": 2886,
      "towl": 2887,
      "indz": 2888,
      "testin": 2889,
      "lsips": 2890,
      "kwinz": 2891,
      "lajm": 2892,
      "emi": 2893,
      "vowts": 2894,
      "emp": 2895,
      "dzojnin": 2896,
      "mf": 2897,
      "ajdin": 2898,
      "pvblisr": 2899,
      "gag": 2900,
      "owlr": 2901,
      "bajp": 2902,
      "spikr": 2903,
      "tendr": 2904,
      "dilejd": 2905,
      "simd": 2906,
      "eksk": 2907,
      "kejd": 2908,
      "tvtsdawn": 2909,
      "distingwist": 2910,
      "ikwestid": 2911,
      "siliti": 2912,
      "gowsiejs": 2913,
      "ejks": 2914,
      "litin": 2915,
      "simf": 2916,
      "nejk": 2917,
      "elswer": 2918,
      "howpt": 2919,
      "sitin": 2920,
      "pikin": 2921,
      "nils": 2922,
      "ejlz": 2923,
      "ejtli": 2924,
      "hajm": 2925,
      "invalvm": 2926,
      "insr": 2927,
      "dzuz": 2928,
      "heli": 2929,
      "temptin": 2930,
      "tsajldhud": 2931,
      "pvblisin": 2932,
      "spajdr": 2933,
      "faw": 2934,
      "kupr": 2935,
      "hendr": 2936,
      "bolt": 2937,
      "toj": 2938,
      "ejdid": 2939,
      "tsel": 2940,
      "nizejs": 2941,
      "kowp": 2942,
      "gows": 2943,
      "soft": 2944,
      "eniwvn": 2945,
      "mejtr": 2946,
      "vktr": 2947,
      "zar": 2948,
      "lojr": 2949,
      "towk": 2950,
      "infl": 2951,
      "ond": 2952,
      "ejdar": 2953,
      "svmwvt": 2954,
      "vejtid": 2955,
      "liow": 2956,
      "don": 2957,
      "dipik": 2958,
      "tekniks": 2959,
      "vedz": 2960,
      "bzor": 2961,
      "tamps": 2962,
      "dimens": 2963,
      "slejs": 2964,
      "fist": 2965,
      "misi": 2966,
      "ilj": 2967,
      "dzit": 2968,
      "dismist": 2969,
      "kwowt": 2970,
      "hejz": 2971,
      "pwer": 2972,
      "fejsin": 2973,
      "klaw": 2974,
      "sajnin": 2975,
      "dimd": 2976,
      "wokr": 2977,
      "fem": 2978,
      "etnik": 2979,
      "pink": 2980,
      "gnajz": 2981,
      "twi": 2982,
      "limr": 2983,
      "timbr": 2984,
      "enfor": 2985,
      "ifis": 2986,
      "kanr": 2987,
      "semb": 2988,
      "fjunr": 2989,
      "bvn": 2990,
      "ndsk": 2991,
      "etiks": 2992,
      "wejst": 2993,
      "bvk": 2994,
      "nwelt": 2995,
      "klowsr": 2996,
      "vits": 2997,
      "tawnsip": 2998,
      "pojz": 2999,
      "tsip": 3000,
      "kamiks": 3001,
      "engejdzm": 3002,
      "ong": 3003,
      "kwaj": 3004,
      "ild": 3005,
      "diplojd": 3006,
      "mat": 3007,
      "kost": 3008,
      "sajtin": 3009,
      "wejl": 3010,
      "fisin": 3011,
      "watsin": 3012,
      "amb": 3013,
      "ziz": 3014,
      "tejlz": 3015,
      "dna": 3016,
      "ilajzd": 3017,
      "lizejs": 3018,
      "klej": 3019,
      "enh": 3020,
      "kipr": 3021,
      "patr": 3022,
      "lg": 3023,
      "vls": 3024,
      "mejnstr": 3025,
      "kejb": 3026,
      "lini": 3027,
      "wikend": 3028,
      "influents": 3029,
      "ilisiz": 3030,
      "hitin": 3031,
      "sowni": 3032,
      "bilivz": 3033,
      "ments": 3034,
      "ikstin": 3035,
      "iksplowz": 3036,
      "kojnz": 3037,
      "spand": 3038,
      "sensr": 3039,
      "swor": 3040,
      "ivajv": 3041,
      "hawzin": 3042,
      "dzani": 3043,
      "ibi": 3044,
      "emr": 3045,
      "vltsr": 3046,
      "pez": 3047,
      "lent": 3048,
      "mstr": 3049,
      "vidiowz": 3050,
      "delt": 3051,
      "kilr": 3052,
      "hjust": 3053,
      "glor": 3054,
      "hast": 3055,
      "ptiv": 3056,
      "dusiz": 3057,
      "fens": 3058,
      "swidis": 3059,
      "mol": 3060,
      "skilz": 3061,
      "filtr": 3062,
      "bilif": 3063,
      "va": 3064,
      "lgr": 3065,
      "zur": 3066,
      "baz": 3067,
      "egzit": 3068,
      "bvtr": 3069,
      "ltejni": 3070,
      "gejtr": 3071,
      "abdzekt": 3072,
      "bejkr": 3073,
      "sest": 3074,
      "kapi": 3075,
      "ditejl": 3076,
      "embar": 3077,
      "isn": 3078,
      "hejlow": 3079,
      "ntists": 3080,
      "jam": 3081,
      "lits": 3082,
      "emplojiz": 3083,
      "lint": 3084,
      "futidz": 3085,
      "nbk": 3086,
      "inher": 3087,
      "ival": 3088,
      "dzet": 3089,
      "kand": 3090,
      "milz": 3091,
      "ikspowzd": 3092,
      "kown": 3093,
      "window": 3094,
      "bold": 3095,
      "dawnlowd": 3096,
      "diskvst": 3097,
      "ejld": 3098,
      "bendz": 3099,
      "stownz": 3100,
      "jugows": 3101,
      "mvs": 3102,
      "tidzik": 3103,
      "sker": 3104,
      "idzips": 3105,
      "melbr": 3106,
      "bowlin": 3107,
      "gudz": 3108,
      "spendin": 3109,
      "wejtid": 3110,
      "dl": 3111,
      "ifor": 3112,
      "simpt": 3113,
      "endli": 3114,
      "kowapr": 3115,
      "tvf": 3116,
      "enlist": 3117,
      "linkt": 3118,
      "hjumr": 3119,
      "pust": 3120,
      "lger": 3121,
      "kas": 3122,
      "ditejld": 3123,
      "iventid": 3124,
      "ejdzid": 3125,
      "impas": 3126,
      "investm": 3127,
      "kvz": 3128,
      "ivilz": 3129,
      "zbaks": 3130,
      "bj": 3131,
      "hjudz": 3132,
      "dizr": 3133,
      "piks": 3134,
      "kdan": 3135,
      "sted": 3136,
      "vii": 3137,
      "pajk": 3138,
      "seltr": 3139,
      "minr": 3140,
      "dawt": 3141,
      "kav": 3142,
      "glen": 3143,
      "tad": 3144,
      "fo": 3145,
      "nskr": 3146,
      "smud": 3147,
      "kvts": 3148,
      "wejvz": 3149,
      "piem": 3150,
      "sanik": 3151,
      "sib": 3152,
      "lkr": 3153,
      "plvs": 3154,
      "howldr": 3155,
      "hens": 3156,
      "gilbr": 3157,
      "hon": 3158,
      "klowzin": 3159,
      "skvlptsr": 3160,
      "sidzr": 3161,
      "tsejndzin": 3162,
      "sikin": 3163,
      "ksr": 3164,
      "bim": 3165,
      "swejd": 3166,
      "ulin": 3167,
      "wedin": 3168,
      "tum": 3169,
      "ikstent": 3170,
      "klak": 3171,
      "misiz": 3172,
      "bowld": 3173,
      "pejtin": 3174,
      "inskr": 3175,
      "pitst": 3176,
      "itow": 3177,
      "powzin": 3178,
      "steps": 3179,
      "bojlr": 3180,
      "filz": 3181,
      "fifti": 3182,
      "kaptr": 3183,
      "tsili": 3184,
      "gib": 3185,
      "stef": 3186,
      "ekw": 3187,
      "tni": 3188,
      "tejnin": 3189,
      "wudz": 3190,
      "dvsn": 3191,
      "isip": 3192,
      "difendr": 3193,
      "gaw": 3194,
      "dzimi": 3195,
      "sejks": 3196,
      "ejndzin": 3197,
      "ilig": 3198,
      "sugr": 3199,
      "gejtid": 3200,
      "bist": 3201,
      "pawndz": 3202,
      "sowldr": 3203,
      "mk": 3204,
      "mplej": 3205,
      "dispr": 3206,
      "swift": 3207,
      "dal": 3208,
      "mpit": 3209,
      "nglow": 3210,
      "itsi": 3211,
      "kamr": 3212,
      "slejtsr": 3213,
      "owmejni": 3214,
      "sojl": 3215,
      "bilon": 3216,
      "divor": 3217,
      "dzvm": 3218,
      "infeks": 3219,
      "hvd": 3220,
      "nzlejs": 3221,
      "dvajs": 3222,
      "skedzul": 3223,
      "ditekt": 3224,
      "sitr": 3225,
      "helikaptr": 3226,
      "elis": 3227,
      "bowlt": 3228,
      "wal": 3229,
      "bvf": 3230,
      "giz": 3231,
      "nkow": 3232,
      "dzown": 3233,
      "hajl": 3234,
      "stip": 3235,
      "ivalvd": 3236,
      "ljuz": 3237,
      "tamik": 3238,
      "telin": 3239,
      "ejgow": 3240,
      "wold": 3241,
      "adik": 3242,
      "natsi": 3243,
      "elm": 3244,
      "stejn": 3245,
      "kaments": 3246,
      "juesej": 3247,
      "itisajzd": 3248,
      "fleks": 3249,
      "nip": 3250,
      "hawshowld": 3251,
      "tletik": 3252,
      "manik": 3253,
      "titsin": 3254,
      "klor": 3255,
      "disent": 3256,
      "fingr": 3257,
      "lvvr": 3258,
      "ikspensiv": 3259,
      "mentid": 3260,
      "indid": 3261,
      "stowl": 3262,
      "lebr": 3263,
      "kjumj": 3264,
      "mbis": 3265,
      "wilst": 3266,
      "tajz": 3267,
      "te": 3268,
      "owtr": 3269,
      "pejntinz": 3270,
      "owr": 3271,
      "tsir": 3272,
      "ejzi": 3273,
      "lajnr": 3274,
      "ignor": 3275,
      "eksploj": 3276,
      "majnor": 3277,
      "leni": 3278,
      "welk": 3279,
      "san": 3280,
      "tektiv": 3281,
      "flem": 3282,
      "adzik": 3283,
      "lektsr": 3284,
      "dipendin": 3285,
      "vowl": 3286,
      "spa": 3287,
      "niow": 3288,
      "flur": 3289,
      "lejks": 3290,
      "klowzr": 3291,
      "gv": 3292,
      "suts": 3293,
      "fowld": 3294,
      "ntest": 3295,
      "displejd": 3296,
      "sitsuejtid": 3297,
      "owtin": 3298,
      "vgbi": 3299,
      "dwor": 3300,
      "lejts": 3301,
      "tkwej": 3302,
      "slejtiv": 3303,
      "utid": 3304,
      "lektr": 3305,
      "tk": 3306,
      "nklin": 3307,
      "dzud": 3308,
      "imor": 3309,
      "hajbr": 3310,
      "pet": 3311,
      "diejgow": 3312,
      "mvnst": 3313,
      "softwer": 3314,
      "helpin": 3315,
      "kejts": 3316,
      "lestr": 3317,
      "past": 3318,
      "plejofs": 3319,
      "fen": 3320,
      "ledzd": 3321,
      "klem": 3322,
      "fols": 3323,
      "majnin": 3324,
      "wokin": 3325,
      "bilivin": 3326,
      "fvni": 3327,
      "asi": 3328,
      "westwr": 3329,
      "mli": 3330,
      "vsr": 3331,
      "litiz": 3332,
      "luks": 3333,
      "velt": 3334,
      "sef": 3335,
      "tinkin": 3336,
      "glejs": 3337,
      "iln": 3338,
      "miljr": 3339,
      "kwit": 3340,
      "lem": 3341,
      "ajp": 3342,
      "lajtin": 3343,
      "dawnz": 3344,
      "sejkspir": 3345,
      "sep": 3346,
      "minisowt": 3347,
      "pig": 3348,
      "vojst": 3349,
      "mtr": 3350,
      "misisipi": 3351,
      "sejvd": 3352,
      "vietnamis": 3353,
      "elz": 3354,
      "dvz": 3355,
      "pvblikli": 3356,
      "uki": 3357,
      "pst": 3358,
      "powlz": 3359,
      "powlr": 3360,
      "najm": 3361,
      "kansowl": 3362,
      "flajts": 3363,
      "hajwejz": 3364,
      "difitin": 3365,
      "ajks": 3366,
      "onr": 3367,
      "lajzin": 3368,
      "fajld": 3369,
      "andr": 3370,
      "mbi": 3371,
      "kankr": 3372,
      "blaks": 3373,
      "sizr": 3374,
      "izumd": 3375,
      "kir": 3376,
      "pali": 3377,
      "mpitid": 3378,
      "no": 3379,
      "ngj": 3380,
      "svnk": 3381,
      "uks": 3382,
      "filinz": 3383,
      "kawntiz": 3384,
      "owst": 3385,
      "fiziks": 3386,
      "dilibr": 3387,
      "mam": 3388,
      "svbdzik": 3389,
      "svbdzikts": 3390,
      "vzd": 3391,
      "saft": 3392,
      "mistejk": 3393,
      "gni": 3394,
      "vptid": 3395,
      "wiz": 3396,
      "kejnz": 3397,
      "aksajd": 3398,
      "dzuv": 3399,
      "ftid": 3400,
      "saks": 3401,
      "endor": 3402,
      "nber": 3403,
      "tsbis": 3404,
      "bjuti": 3405,
      "vvlnr": 3406,
      "kvv": 3407,
      "skel": 3408,
      "hok": 3409,
      "hedin": 3410,
      "ventsr": 3411,
      "knali": 3412,
      "vbz": 3413,
      "kidz": 3414,
      "ajkin": 3415,
      "iwor": 3416,
      "mplitin": 3417,
      "sipin": 3418,
      "ejin": 3419,
      "savr": 3420,
      "kloz": 3421,
      "ajziz": 3422,
      "dinr": 3423,
      "tif": 3424,
      "owbi": 3425,
      "kapr": 3426,
      "bejn": 3427,
      "ikvltsr": 3428,
      "majnz": 3429,
      "klvstr": 3430,
      "sb": 3431,
      "iol": 3432,
      "distinktiv": 3433,
      "ogr": 3434,
      "abvi": 3435,
      "taks": 3436,
      "kwr": 3437,
      "nuvr": 3438,
      "ofski": 3439,
      "ilvkt": 3440,
      "muviz": 3441,
      "lesr": 3442,
      "sd": 3443,
      "dilej": 3444,
      "kibor": 3445,
      "lajnin": 3446,
      "luizi": 3447,
      "ejlin": 3448,
      "gilti": 3449,
      "iplejsin": 3450,
      "nad": 3451,
      "plejsm": 3452,
      "tajzin": 3453,
      "ensr": 3454,
      "mvsr": 3455,
      "ajli": 3456,
      "kselr": 3457,
      "invr": 3458,
      "om": 3459,
      "kejdz": 3460,
      "zents": 3461,
      "svbr": 3462,
      "dzists": 3463,
      "ajkan": 3464,
      "ikj": 3465,
      "nawnsm": 3466,
      "vsin": 3467,
      "spens": 3468,
      "mvntr": 3469,
      "wants": 3470,
      "puld": 3471,
      "tdej": 3472,
      "ejviejs": 3473,
      "kf": 3474,
      "owsin": 3475,
      "nspir": 3476,
      "bihejvir": 3477,
      "sejk": 3478,
      "miow": 3479,
      "tendin": 3480,
      "nuk": 3481,
      "bownz": 3482,
      "dzendr": 3483,
      "spajr": 3484,
      "kojn": 3485,
      "idzi": 3486,
      "gdzestin": 3487,
      "idam": 3488,
      "fled": 3489,
      "welti": 3490,
      "sendin": 3491,
      "wazn": 3492,
      "likt": 3493,
      "ibilt": 3494,
      "istin": 3495,
      "vajzd": 3496,
      "pdejt": 3497,
      "gnetik": 3498,
      "suin": 3499,
      "bamin": 3500,
      "downejt": 3501,
      "pejtid": 3502,
      "gjuz": 3503,
      "dagz": 3504,
      "lun": 3505,
      "intuzi": 3506,
      "wajdr": 3507,
      "iskejpt": 3508,
      "igzib": 3509,
      "blajnd": 3510,
      "owdiz": 3511,
      "mili": 3512,
      "gejl": 3513,
      "lesli": 3514,
      "dzabz": 3515,
      "tet": 3516,
      "babi": 3517,
      "svbspisiz": 3518,
      "olmjuzik": 3519,
      "disajdz": 3520,
      "plojm": 3521,
      "kaks": 3522,
      "hindu": 3523,
      "izown": 3524,
      "slejvz": 3525,
      "listin": 3526,
      "fajz": 3527,
      "ipts": 3528,
      "sfer": 3529,
      "indr": 3530,
      "gsip": 3531,
      "dowm": 3532,
      "svpl": 3533,
      "fg": 3534,
      "fidin": 3535,
      "indiz": 3536,
      "dipli": 3537,
      "ktir": 3538,
      "mejnl": 3539,
      "owtow": 3540,
      "ndem": 3541,
      "akr": 3542,
      "idis": 3543,
      "owtest": 3544,
      "fawndin": 3545,
      "iksplejn": 3546,
      "nits": 3547,
      "ejbi": 3548,
      "imin": 3549,
      "pejm": 3550,
      "gift": 3551,
      "owtsin": 3552,
      "sier": 3553,
      "tlits": 3554,
      "misel": 3555,
      "mitinz": 3556,
      "pitsr": 3557,
      "mang": 3558,
      "instol": 3559,
      "iksplejnz": 3560,
      "gol": 3561,
      "vajn": 3562,
      "nfor": 3563,
      "vejg": 3564,
      "kwi": 3565,
      "slejv": 3566,
      "ikspowzr": 3567,
      "switsr": 3568,
      "odwej": 3569,
      "duow": 3570,
      "ilin": 3571,
      "mitid": 3572,
      "btr": 3573,
      "piz": 3574,
      "bitin": 3575,
      "bents": 3576,
      "num": 3577,
      "dvg": 3578,
      "tokin": 3579,
      "plut": 3580,
      "selr": 3581,
      "jusf": 3582,
      "idiktid": 3583,
      "bvlk": 3584,
      "bamz": 3585,
      "itsm": 3586,
      "lejnz": 3587,
      "ekow": 3588,
      "istsi": 3589,
      "wejni": 3590,
      "flr": 3591,
      "fastr": 3592,
      "btejn": 3593,
      "ejmin": 3594,
      "plejsin": 3595,
      "hawshowldz": 3596,
      "hof": 3597,
      "likw": 3598,
      "disajd": 3599,
      "owtsiz": 3600,
      "svlt": 3601,
      "ejzr": 3602,
      "swimin": 3603,
      "bal": 3604,
      "moj": 3605,
      "fts": 3606,
      "hvds": 3607,
      "uvr": 3608,
      "inkin": 3609,
      "ipitidli": 3610,
      "spl": 3611,
      "lektiv": 3612,
      "itejn": 3613,
      "ktiks": 3614,
      "fjud": 3615,
      "nzlejt": 3616,
      "bstr": 3617,
      "gini": 3618,
      "uli": 3619,
      "ilr": 3620,
      "amni": 3621,
      "@@": 3622,
      "najz": 3623,
      "wzr": 3624,
      "tajzd": 3625,
      "tistiks": 3626,
      "kvtin": 3627,
      "pawdr": 3628,
      "smar": 3629,
      "ejdiejs": 3630,
      "dvbd": 3631,
      "denis": 3632,
      "dzvmp": 3633,
      "endsip": 3634,
      "tul": 3635,
      "kantekst": 3636,
      "kejtr": 3637,
      "kel": 3638,
      "teksts": 3639,
      "ai": 3640,
      "dajz": 3641,
      "vor": 3642,
      "ndinz": 3643,
      "nzr": 3644,
      "ivowlt": 3645,
      "stir": 3646,
      "ndskejp": 3647,
      "minstr": 3648,
      "ndejs": 3649,
      "kejv": 3650,
      "gadz": 3651,
      "towkiow": 3652,
      "hejl": 3653,
      "upr": 3654,
      "ms": 3655,
      "tint": 3656,
      "setlr": 3657,
      "invejd": 3658,
      "denmar": 3659,
      "tents": 3660,
      "gowst": 3661,
      "skets": 3662,
      "ksiz": 3663,
      "zinz": 3664,
      "iki": 3665,
      "nsvlt": 3666,
      "pojntin": 3667,
      "nfes": 3668,
      "sikstin": 3669,
      "enlistid": 3670,
      "hejv": 3671,
      "owfajl": 3672,
      "zaj": 3673,
      "mpejnz": 3674,
      "ja": 3675,
      "nowm": 3676,
      "sag": 3677,
      "dipiks": 3678,
      "wilhelm": 3679,
      "iksklud": 3680,
      "ejr": 3681,
      "lowz": 3682,
      "vizw": 3683,
      "deklr": 3684,
      "pist": 3685,
      "klowdin": 3686,
      "nvt": 3687,
      "lojd": 3688,
      "zdi": 3689,
      "difaj": 3690,
      "unz": 3691,
      "awnz": 3692,
      "ajlz": 3693,
      "nstajn": 3694,
      "nag": 3695,
      "ajor": 3696,
      "kampawndz": 3697,
      "ntowni": 3698,
      "ds": 3699,
      "pam": 3700,
      "nektin": 3701,
      "sejvin": 3702,
      "kustik": 3703,
      "inkwajr": 3704,
      "minh": 3705,
      "lekts": 3706,
      "nkiz": 3707,
      "wolt": 3708,
      "ejvz": 3709,
      "mn": 3710,
      "dimalist": 3711,
      "plaz": 3712,
      "lvvd": 3713,
      "dzvdzm": 3714,
      "dzar": 3715,
      "silin": 3716,
      "vdz": 3717,
      "ajvi": 3718,
      "owlivi": 3719,
      "mvd": 3720,
      "owbam": 3721,
      "insekts": 3722,
      "imjun": 3723,
      "ikspens": 3724,
      "finiks": 3725,
      "holt": 3726,
      "lejdz": 3727,
      "bilz": 3728,
      "blisin": 3729,
      "slejvr": 3730,
      "wejs": 3731,
      "ditir": 3732,
      "hili": 3733,
      "bajn": 3734,
      "gasp": 3735,
      "ami": 3736,
      "emplojm": 3737,
      "difendin": 3738,
      "timd": 3739,
      "sivz": 3740,
      "nut": 3741,
      "kowk": 3742,
      "kilz": 3743,
      "najntin": 3744,
      "lili": 3745,
      "dzir": 3746,
      "iis": 3747,
      "gowsiejt": 3748,
      "pvtin": 3749,
      "owhib": 3750,
      "ikol": 3751,
      "kowm": 3752,
      "inogr": 3753,
      "lsi": 3754,
      "venju": 3755,
      "kjuz": 3756,
      "dzup": 3757,
      "ikl": 3758,
      "anter": 3759,
      "tenjr": 3760,
      "mowtiv": 3761,
      "jvng": 3762,
      "ekspl": 3763,
      "mistir": 3764,
      "eswej": 3765,
      "iviz": 3766,
      "hvm": 3767,
      "tsen": 3768,
      "nukli": 3769,
      "sejlr": 3770,
      "sam": 3771,
      "stow": 3772,
      "pent": 3773,
      "ikts": 3774,
      "dilin": 3775,
      "angowin": 3776,
      "lez": 3777,
      "ants": 3778,
      "bazni": 3779,
      "nles": 3780,
      "nfjuz": 3781,
      "tna": 3782,
      "izor": 3783,
      "inisiejt": 3784,
      "ejbr": 3785,
      "hajpat": 3786,
      "valkejn": 3787,
      "hjuz": 3788,
      "najs": 3789,
      "knalidzd": 3790,
      "lektsu": 3791,
      "isipitejs": 3792,
      "pvz": 3793,
      "owpi": 3794,
      "tudz": 3795,
      "bajnz": 3796,
      "niin": 3797,
      "dzuejtid": 3798,
      "waji": 3799,
      "mak": 3800,
      "howsts": 3801,
      "valjumz": 3802,
      "sowp": 3803,
      "gnr": 3804,
      "limp": 3805,
      "insur": 3806,
      "fowtow": 3807,
      "dvst": 3808,
      "kwadr": 3809,
      "stel": 3810,
      "ntejtr": 3811,
      "invent": 3812,
      "flemin": 3813,
      "usej": 3814,
      "tapt": 3815,
      "dvm": 3816,
      "nkuvr": 3817,
      "imi": 3818,
      "ivjud": 3819,
      "nejtr": 3820,
      "tubz": 3821,
      "spis": 3822,
      "sinow": 3823,
      "ojin": 3824,
      "bent": 3825,
      "lajziz": 3826,
      "indidz": 3827,
      "ln": 3828,
      "kaligz": 3829,
      "ksown": 3830,
      "wii": 3831,
      "sawtistr": 3832,
      "tkwejk": 3833,
      "skj": 3834,
      "ndmar": 3835,
      "howml": 3836,
      "feks": 3837,
      "kur": 3838,
      "hajpr": 3839,
      "uif": 3840,
      "dists": 3841,
      "dwajt": 3842,
      "lvr": 3843,
      "ihr": 3844,
      "dvktiv": 3845,
      "swis": 3846,
      "vowtin": 3847,
      "blv": 3848,
      "imowt": 3849,
      "skats": 3850,
      "sakr": 3851,
      "vowtr": 3852,
      "mo": 3853,
      "binit": 3854,
      "mitm": 3855,
      "dat": 3856,
      "ilajz": 3857,
      "ikvvr": 3858,
      "kial": 3859,
      "ibr": 3860,
      "ndzi": 3861,
      "links": 3862,
      "sesm": 3863,
      "mpsr": 3864,
      "pilz": 3865,
      "pg": 3866,
      "sizd": 3867,
      "zilj": 3868,
      "mowtivz": 3869,
      "toks": 3870,
      "lajtr": 3871,
      "mpitin": 3872,
      "nsivd": 3873,
      "fejlin": 3874,
      "wat": 3875,
      "flowz": 3876,
      "disb": 3877,
      "ajnz": 3878,
      "divowt": 3879,
      "dzem": 3880,
      "ajsl": 3881,
      "sejn": 3882,
      "feld": 3883,
      "twestr": 3884,
      "vejk": 3885,
      "kvlm": 3886,
      "dza": 3887,
      "ojn": 3888,
      "valk": 3889,
      "kinli": 3890,
      "mitior": 3891,
      "embl": 3892,
      "mig": 3893,
      "ped": 3894,
      "hoks": 3895,
      "ivendz": 3896,
      "bejr": 3897,
      "najtr": 3898,
      "vaw": 3899,
      "staps": 3900,
      "howlz": 3901,
      "nklir": 3902,
      "smowk": 3903,
      "wejdz": 3904,
      "ivajzd": 3905,
      "kamentin": 3906,
      "dzekt": 3907,
      "aws": 3908,
      "kalinz": 3909,
      "finl": 3910,
      "kbr": 3911,
      "gvnr": 3912,
      "tejst": 3913,
      "falowr": 3914,
      "hejt": 3915,
      "iplajd": 3916,
      "mejzin": 3917,
      "vltr": 3918,
      "swin": 3919,
      "lets": 3920,
      "kad": 3921,
      "infild": 3922,
      "ajdentik": 3923,
      "ntowniow": 3924,
      "howmow": 3925,
      "mvntli": 3926,
      "umin": 3927,
      "nejdow": 3928,
      "fibi": 3929,
      "gajz": 3930,
      "wandr": 3931,
      "sowlz": 3932,
      "mvltiplejr": 3933,
      "ub": 3934,
      "izalvd": 3935,
      "nejts": 3936,
      "sili": 3937,
      "istwr": 3938,
      "bajb": 3939,
      "sejlin": 3940,
      "bolz": 3941,
      "lajftajm": 3942,
      "balik": 3943,
      "pad": 3944,
      "glaj": 3945,
      "pitsbr": 3946,
      "gejmin": 3947,
      "menst": 3948,
      "ejnr": 3949,
      "plajin": 3950,
      "kwinzl": 3951,
      "tajl": 3952,
      "wvtevr": 3953,
      "zentejs": 3954,
      "iksklusivli": 3955,
      "nap": 3956,
      "dzel": 3957,
      "tsuer": 3958,
      "webr": 3959,
      "linir": 3960,
      "flej": 3961,
      "sipm": 3962,
      "dajin": 3963,
      "hes": 3964,
      "fajs": 3965,
      "dmajr": 3966,
      "kankwest": 3967,
      "tejtid": 3968,
      "mez": 3969,
      "flejmz": 3970,
      "inplej": 3971,
      "owkr": 3972,
      "sajzin": 3973,
      "powsts": 3974,
      "empti": 3975,
      "ilit": 3976,
      "hd": 3977,
      "ntar": 3978,
      "plezr": 3979,
      "ndzin": 3980,
      "dvajzd": 3981,
      "lum": 3982,
      "hen": 3983,
      "inu": 3984,
      "sajklownz": 3985,
      "zbr": 3986,
      "owdi": 3987,
      "lakt": 3988,
      "distsar": 3989,
      "sesiv": 3990,
      "ndziz": 3991,
      "ajdil": 3992,
      "spvn": 3993,
      "epik": 3994,
      "kwen": 3995,
      "dejviz": 3996,
      "fizi": 3997,
      "makr": 3998,
      "kst": 3999,
      "awtput": 4000,
      "lektin": 4001,
      "akl": 4002,
      "halow": 4003,
      "hag": 4004,
      "maskow": 4005,
      "displejz": 4006,
      "ispektiv": 4007,
      "ikstendin": 4008,
      "twk": 4009,
      "apin": 4010,
      "dztwk": 4011,
      "owtests": 4012,
      "nvnd": 4013,
      "vniksp": 4014,
      "padz": 4015,
      "dzowz": 4016,
      "naks": 4017,
      "azlow": 4018,
      "kvs": 4019,
      "egzajl": 4020,
      "zks": 4021,
      "talr": 4022,
      "inkluz": 4023,
      "kowtsiz": 4024,
      "ndik": 4025,
      "iksplis": 4026,
      "bejsm": 4027,
      "ekspekt": 4028,
      "igzists": 4029,
      "fvng": 4030,
      "downi": 4031,
      "mejntejnin": 4032,
      "pejntr": 4033,
      "ekspektejs": 4034,
      "ajdid": 4035,
      "tunz": 4036,
      "sad": 4037,
      "oskr": 4038,
      "dejm": 4039,
      "bowin": 4040,
      "ilowkejtid": 4041,
      "dzudis": 4042,
      "kampawnd": 4043,
      "nowp": 4044,
      "nhaj": 4045,
      "npajk": 4046,
      "milk": 4047,
      "glejsr": 4048,
      "owsoft": 4049,
      "disajsiv": 4050,
      "tfr": 4051,
      "ajtinz": 4052,
      "kp": 4053,
      "spil": 4054,
      "bejd": 4055,
      "lajtnin": 4056,
      "bvb": 4057,
      "iksajt": 4058,
      "igzi": 4059,
      "flin": 4060,
      "gejtin": 4061,
      "mvnd": 4062,
      "displejst": 4063,
      "vit": 4064,
      "vad": 4065,
      "ojdz": 4066,
      "lejzr": 4067,
      "silv": 4068,
      "vnikspektid": 4069,
      "nsumr": 4070,
      "ownow": 4071,
      "dzvdziz": 4072,
      "blakt": 4073,
      "isti": 4074,
      "miksin": 4075,
      "pjup": 4076,
      "bla": 4077,
      "sefild": 4078,
      "ejsiow": 4079,
      "inor": 4080,
      "awtin": 4081,
      "fbi": 4082,
      "sawr": 4083,
      "slajt": 4084,
      "fildr": 4085,
      "palow": 4086,
      "tempow": 4087,
      "gild": 4088,
      "dzanst": 4089,
      "despr": 4090,
      "ndfadr": 4091,
      "iksid": 4092,
      "bajal": 4093,
      "sdiks": 4094,
      "zii": 4095,
      "lil": 4096,
      "gjuin": 4097,
      "vowlt": 4098,
      "nlajkli": 4099,
      "idikt": 4100,
      "vwar": 4101,
      "itejl": 4102,
      "snaj": 4103,
      "wisk": 4104,
      "bowlr": 4105,
      "uvz": 4106,
      "lajtid": 4107,
      "tejp": 4108,
      "divr": 4109,
      "igar": 4110,
      "disejb": 4111,
      "kastum": 4112,
      "nstitsu": 4113,
      "heviwejt": 4114,
      "mikstsr": 4115,
      "hejg": 4116,
      "mowbil": 4117,
      "kwiz": 4118,
      "iadik": 4119,
      "nep": 4120,
      "simj": 4121,
      "bejli": 4122,
      "snejk": 4123,
      "sindr": 4124,
      "nakt": 4125,
      "pejdr": 4126,
      "lvk": 4127,
      "towd": 4128,
      "muham": 4129,
      "bizi": 4130,
      "sidin": 4131,
      "pojntid": 4132,
      "sutr": 4133,
      "kof": 4134,
      "ndlin": 4135,
      "tselsi": 4136,
      "tsiow": 4137,
      "gests": 4138,
      "klowdz": 4139,
      "nejtow": 4140,
      "was": 4141,
      "dejnis": 4142,
      "bajr": 4143,
      "tajlr": 4144,
      "pilr": 4145,
      "mpajr": 4146,
      "akow": 4147,
      "kandr": 4148,
      "seli": 4149,
      "howpin": 4150,
      "mvm": 4151,
      "pvp": 4152,
      "siner": 4153,
      "nojz": 4154,
      "mud": 4155,
      "nejmin": 4156,
      "diskow": 4157,
      "tsest": 4158,
      "lowdz": 4159,
      "divajn": 4160,
      "bust": 4161,
      "fm": 4162,
      "kbz": 4163,
      "demow": 4164,
      "ibjutin": 4165,
      "ekspor": 4166,
      "pvnism": 4167,
      "lud": 4168,
      "lenr": 4169,
      "dimin": 4170,
      "jukr": 4171,
      "gejnin": 4172,
      "vjuin": 4173,
      "tf": 4174,
      "imis": 4175,
      "asik": 4176,
      "nowl": 4177,
      "fajbr": 4178,
      "sinim": 4179,
      "gatik": 4180,
      "abi": 4181,
      "kajl": 4182,
      "ofsor": 4183,
      "idiz": 4184,
      "iksplejnin": 4185,
      "gas": 4186,
      "sawtwestr": 4187,
      "galf": 4188,
      "imper": 4189,
      "esp": 4190,
      "mistik": 4191,
      "kidn": 4192,
      "ikstinkt": 4193,
      "sivr": 4194,
      "isajs": 4195,
      "mantg": 4196,
      "vnks": 4197,
      "iksplow": 4198,
      "sejkr": 4199,
      "likts": 4200,
      "owtinz": 4201,
      "nowin": 4202,
      "jutub": 4203,
      "doj": 4204,
      "hedr": 4205,
      "powstr": 4206,
      "spektejtr": 4207,
      "tini": 4208,
      "fed": 4209,
      "ejvr": 4210,
      "wed": 4211,
      "emik": 4212,
      "juto": 4213,
      "kab": 4214,
      "bum": 4215,
      "nsis": 4216,
      "bejts": 4217,
      "wajldlajf": 4218,
      "mjuts": 4219,
      "kestr": 4220,
      "hans": 4221,
      "tami": 4222,
      "mplejnd": 4223,
      "nipj": 4224,
      "minli": 4225,
      "ejti": 4226,
      "tulz": 4227,
      "pant": 4228,
      "memwar": 4229,
      "dows": 4230,
      "abs": 4231,
      "midnajt": 4232,
      "stvdiin": 4233,
      "slowv": 4234,
      "ejdzr": 4235,
      "indvkt": 4236,
      "stli": 4237,
      "izlam": 4238,
      "intent": 4239,
      "lutr": 4240,
      "wiskans": 4241,
      "hvt": 4242,
      "owtejs": 4243,
      "huk": 4244,
      "bojfr": 4245,
      "won": 4246,
      "ikstensivli": 4247,
      "pier": 4248,
      "gal": 4249,
      "intin": 4250,
      "dzulj": 4251,
      "howmowseks": 4252,
      "mvp": 4253,
      "nb": 4254,
      "plejts": 4255,
      "vpset": 4256,
      "kanflikts": 4257,
      "hajlajtid": 4258,
      "filiejt": 4259,
      "izlamik": 4260,
      "bsk": 4261,
      "kdawn": 4262,
      "molt": 4263,
      "ifek": 4264,
      "majself": 4265,
      "ibjun": 4266,
      "kali": 4267,
      "timejt": 4268,
      "ejps": 4269,
      "ajkr": 4270,
      "ndl": 4271,
      "ipin": 4272,
      "hawzd": 4273,
      "mjur": 4274,
      "inud": 4275,
      "iagr": 4276,
      "distinks": 4277,
      "tekts": 4278,
      "lur": 4279,
      "mantgvmr": 4280,
      "stejks": 4281,
      "ald": 4282,
      "do": 4283,
      "endjur": 4284,
      "ndlr": 4285,
      "eskjud": 4286,
      "sajzr": 4287,
      "mowtin": 4288,
      "koz": 4289,
      "dzudi": 4290,
      "alv": 4291,
      "izir": 4292,
      "woks": 4293,
      "bilifs": 4294,
      "sigr": 4295,
      "dajv": 4296,
      "bmr": 4297,
      "helps": 4298,
      "dzes": 4299,
      "sinkin": 4300,
      "dig": 4301,
      "wudl": 4302,
      "jild": 4303,
      "invalvz": 4304,
      "pejl": 4305,
      "juk": 4306,
      "ejlwejz": 4307,
      "najtid": 4308,
      "adis": 4309,
      "dipikts": 4310,
      "mfibi": 4311,
      "eksplr": 4312,
      "hajts": 4313,
      "pamr": 4314,
      "bedr": 4315,
      "liks": 4316,
      "ntow": 4317,
      "wilz": 4318,
      "esm": 4319,
      "spel": 4320,
      "septs": 4321,
      "owziz": 4322,
      "gk": 4323,
      "awtdor": 4324,
      "boltik": 4325,
      "be": 4326,
      "ust": 4327,
      "howps": 4328,
      "ktivli": 4329,
      "nev": 4330,
      "towm": 4331,
      "lvn": 4332,
      "pepr": 4333,
      "mowld": 4334,
      "tsow": 4335,
      "temz": 4336,
      "lfild": 4337,
      "widow": 4338,
      "nsal": 4339,
      "mos": 4340,
      "nvil": 4341,
      "plez": 4342,
      "pvls": 4343,
      "ventsu": 4344,
      "tisju": 4345,
      "vsti": 4346,
      "igzem": 4347,
      "kjubik": 4348,
      "ivz": 4349,
      "iowz": 4350,
      "nsvmps": 4351,
      "fajts": 4352,
      "aniks": 4353,
      "tvmbr": 4354,
      "ajbr": 4355,
      "lib": 4356,
      "pand": 4357,
      "kawntin": 4358,
      "gwad": 4359,
      "vol": 4360,
      "bvtlr": 4361,
      "lbejni": 4362,
      "sink": 4363,
      "oldr": 4364,
      "otow": 4365,
      "lavi": 4366,
      "dzenj": 4367,
      "ati": 4368,
      "mbar": 4369,
      "tlit": 4370,
      "vpkvmin": 4371,
      "ndvktr": 4372,
      "hvb": 4373,
      "sfajd": 4374,
      "bidz": 4375,
      "nwol": 4376,
      "ansamb": 4377,
      "tivn": 4378,
      "siejs": 4379,
      "sajdin": 4380,
      "ok": 4381,
      "odr": 4382,
      "mowniz": 4383,
      "npr": 4384,
      "ditektiv": 4385,
      "leb": 4386,
      "kowstr": 4387,
      "ispand": 4388,
      "stvf": 4389,
      "vejn": 4390,
      "zest": 4391,
      "vent": 4392,
      "spandin": 4393,
      "spats": 4394,
      "losut": 4395,
      "wili": 4396,
      "owbat": 4397,
      "ntend": 4398,
      "niknejm": 4399,
      "isidin": 4400,
      "bisajdz": 4401,
      "dzibr": 4402,
      "lekj": 4403,
      "lowdin": 4404,
      "kowtsin": 4405,
      "dnr": 4406,
      "fal": 4407,
      "kos": 4408,
      "ifin": 4409,
      "mask": 4410,
      "pawndr": 4411,
      "dvnk": 4412,
      "itli": 4413,
      "spidz": 4414,
      "pejli": 4415,
      "sajnm": 4416,
      "filmejkr": 4417,
      "dep": 4418,
      "dajs": 4419,
      "kenit": 4420,
      "impowzd": 4421,
      "otan": 4422,
      "wisiz": 4423,
      "endejndzr": 4424,
      "mejlej": 4425,
      "kowlin": 4426,
      "psi": 4427,
      "viv": 4428,
      "nejbor": 4429,
      "deli": 4430,
      "mejtin": 4431,
      "niv": 4432,
      "wilr": 4433,
      "kows": 4434,
      "kjul": 4435,
      "spowks": 4436,
      "zan": 4437,
      "zor": 4438,
      "odi": 4439,
      "pidz": 4440,
      "siow": 4441,
      "dejn": 4442,
      "midiit": 4443,
      "tsvk": 4444,
      "nki": 4445,
      "hejst": 4446,
      "fle": 4447,
      "nfigjr": 4448,
      "ivd": 4449,
      "nvikt": 4450,
      "twitr": 4451,
      "stimj": 4452,
      "dzo": 4453,
      "dipiktin": 4454,
      "igzibit": 4455,
      "swan": 4456,
      "slat": 4457,
      "klawdz": 4458,
      "sipt": 4459,
      "suk": 4460,
      "tvtsdawnz": 4461,
      "hisp": 4462,
      "jugowslavi": 4463,
      "pv": 4464,
      "stwr": 4465,
      "mejp": 4466,
      "sejnts": 4467,
      "bsidi": 4468,
      "imuvin": 4469,
      "ilisin": 4470,
      "lism": 4471,
      "iejts": 4472,
      "vikr": 4473,
      "owti": 4474,
      "lvvz": 4475,
      "dziow": 4476,
      "lvft": 4477,
      "peg": 4478,
      "nidzin": 4479,
      "ukl": 4480,
      "gnow": 4481,
      "ntist": 4482,
      "ilivd": 4483,
      "libi": 4484,
      "majld": 4485,
      "kvlekt": 4486,
      "tetik": 4487,
      "pejin": 4488,
      "dwel": 4489,
      "onz": 4490,
      "fitin": 4491,
      "luiz": 4492,
      "puts": 4493,
      "istejts": 4494,
      "plizd": 4495,
      "maws": 4496,
      "mpajld": 4497,
      "swept": 4498,
      "iar": 4499,
      "estin": 4500,
      "kudn": 4501,
      "tajwan": 4502,
      "ptik": 4503,
      "dvk": 4504,
      "smowkin": 4505,
      "mt": 4506,
      "ted": 4507,
      "kni": 4508,
      "tejkr": 4509,
      "bur": 4510,
      "fles": 4511,
      "tinejdzr": 4512,
      "owdwej": 4513,
      "zen": 4514,
      "lvks": 4515,
      "fvnk": 4516,
      "beli": 4517,
      "hez": 4518,
      "howlm": 4519,
      "juts": 4520,
      "bandz": 4521,
      "ikstir": 4522,
      "sul": 4523,
      "kvsin": 4524,
      "idzu": 4525,
      "dvblin": 4526,
      "stedi": 4527,
      "ndvktin": 4528,
      "gla": 4529,
      "gejnz": 4530,
      "bejl": 4531,
      "iksesiv": 4532,
      "bskjur": 4533,
      "bigr": 4534,
      "viii": 4535,
      "nfjuzd": 4536,
      "vet": 4537,
      "diskvsin": 4538,
      "spi": 4539,
      "dzil": 4540,
      "skawtin": 4541,
      "pejp": 4542,
      "dzowk": 4543,
      "diplojm": 4544,
      "lusi": 4545,
      "nkak": 4546,
      "ejf": 4547,
      "dzas": 4548,
      "igow": 4549,
      "flown": 4550,
      "wokt": 4551,
      "widt": 4552,
      "lajl": 4553,
      "nigr": 4554,
      "tejld": 4555,
      "instolm": 4556,
      "tsit": 4557,
      "twist": 4558,
      "wast": 4559,
      "bend": 4560,
      "keni": 4561,
      "mlb": 4562,
      "dipow": 4563,
      "kansepts": 4564,
      "bali": 4565,
      "folt": 4566,
      "spajt": 4567,
      "enti": 4568,
      "najzin": 4569,
      "dzna": 4570,
      "dinaj": 4571,
      "spejskr": 4572,
      "filiz": 4573,
      "pavr": 4574,
      "pvblis": 4575,
      "vnpr": 4576,
      "tletiks": 4577,
      "nem": 4578,
      "aspekt": 4579,
      "gis": 4580,
      "tintin": 4581,
      "hvbr": 4582,
      "peti": 4583,
      "matr": 4584,
      "eskow": 4585,
      "sumakr": 4586,
      "igejdz": 4587,
      "pidowz": 4588,
      "downejs": 4589,
      "gvsts": 4590,
      "ndemd": 4591,
      "sejdiz": 4592,
      "pe": 4593,
      "iventin": 4594,
      "jan": 4595,
      "lowg": 4596,
      "dzvng": 4597,
      "nviks": 4598,
      "bad": 4599,
      "nsmis": 4600,
      "stsr": 4601,
      "blejmd": 4602,
      "bowi": 4603,
      "hoj": 4604,
      "mejtid": 4605,
      "nekts": 4606,
      "pvl": 4607,
      "livi": 4608,
      "mbow": 4609,
      "gejmr": 4610,
      "olb": 4611,
      "zownz": 4612,
      "dzis": 4613,
      "bun": 4614,
      "lats": 4615,
      "efjudziz": 4616,
      "kes": 4617,
      "wizr": 4618,
      "ipit": 4619,
      "lst": 4620,
      "tsim": 4621,
      "sowfi": 4622,
      "jutil": 4623,
      "stal": 4624,
      "ekses": 4625,
      "lips": 4626,
      "kakr": 4627,
      "pilgr": 4628,
      "nvins": 4629,
      "jugowslav": 4630,
      "hm": 4631,
      "kafi": 4632,
      "bler": 4633,
      "ibawndz": 4634,
      "owldz": 4635,
      "sowlli": 4636,
      "dilr": 4637,
      "tekstsr": 4638,
      "dzets": 4639,
      "dmis": 4640,
      "inhib": 4641,
      "ksesiv": 4642,
      "lpajn": 4643,
      "hudz": 4644,
      "ikal": 4645,
      "ivl": 4646,
      "ibadi": 4647,
      "invitejs": 4648,
      "blaj": 4649,
      "inti": 4650,
      "flajz": 4651,
      "lezbi": 4652,
      "westminstr": 4653,
      "eniks": 4654,
      "sapin": 4655,
      "dili": 4656,
      "mpar": 4657,
      "dzial": 4658,
      "denvr": 4659,
      "dimakr": 4660,
      "dos": 4661,
      "kastu": 4662,
      "idzoj": 4663,
      "aksim": 4664,
      "vktiv": 4665,
      "bajt": 4666,
      "vsts": 4667,
      "imejk": 4668,
      "seltik": 4669,
      "abst": 4670,
      "amptin": 4671,
      "valkejnow": 4672,
      "pliz": 4673,
      "etst": 4674,
      "lowgow": 4675,
      "biti": 4676,
      "namiks": 4677,
      "kajzr": 4678,
      "ksin": 4679,
      "kamplist": 4680,
      "hevir": 4681,
      "wof": 4682,
      "owklejmd": 4683,
      "infekt": 4684,
      "venuz": 4685,
      "vinz": 4686,
      "lajkwajz": 4687,
      "filips": 4688,
      "dzvmpin": 4689,
      "svndr": 4690,
      "sowm": 4691,
      "bdzeks": 4692,
      "dzesi": 4693,
      "sindik": 4694,
      "tinejdz": 4695,
      "abin": 4696,
      "fivr": 4697,
      "hekt": 4698,
      "dismis": 4699,
      "kwens": 4700,
      "gif": 4701,
      "zant": 4702,
      "avi": 4703,
      "pastsum": 4704,
      "soj": 4705,
      "nig": 4706,
      "vbr": 4707,
      "awtkvm": 4708,
      "igzost": 4709,
      "stejdzd": 4710,
      "mets": 4711,
      "stiks": 4712,
      "stejin": 4713,
      "hak": 4714,
      "nefju": 4715,
      "kawts": 4716,
      "enkvmp": 4717,
      "nsejs": 4718,
      "siksti": 4719,
      "owpajnd": 4720,
      "sipjar": 4721,
      "buts": 4722,
      "minow": 4723,
      "pazits": 4724,
      "slajd": 4725,
      "lejdiz": 4726,
      "pakm": 4727,
      "owmi": 4728,
      "wikn": 4729,
      "vist": 4730,
      "tsifs": 4731,
      "sans": 4732,
      "nsens": 4733,
      "asesin": 4734,
      "mitejs": 4735,
      "mjunik": 4736,
      "salv": 4737,
      "sajkal": 4738,
      "glo": 4739,
      "mw": 4740,
      "tat": 4741,
      "hvts": 4742,
      "svil": 4743,
      "ikstendz": 4744,
      "flowtil": 4745,
      "nkinz": 4746,
      "nsent": 4747,
      "lints": 4748,
      "tsej": 4749,
      "anwr": 4750,
      "dziagr": 4751,
      "tendz": 4752,
      "klip": 4753,
      "ihensiv": 4754,
      "dalf": 4755,
      "ikstinks": 4756,
      "gt": 4757,
      "midzin": 4758,
      "vien": 4759,
      "silown": 4760,
      "mplejnts": 4761,
      "ledr": 4762,
      "ivilin": 4763,
      "kb": 4764,
      "mfr": 4765,
      "nuf": 4766,
      "liejs": 4767,
      "seld": 4768,
      "vajbr": 4769,
      "pelr": 4770,
      "bets": 4771,
      "bejzin": 4772,
      "wantin": 4773,
      "fler": 4774,
      "tbawnd": 4775,
      "wulvr": 4776,
      "pest": 4777,
      "dowl": 4778,
      "bilonin": 4779,
      "mjud": 4780,
      "ivjuin": 4781,
      "np": 4782,
      "inkar": 4783,
      "bevr": 4784,
      "ilinz": 4785,
      "midwej": 4786,
      "blejk": 4787,
      "tvkr": 4788,
      "powk": 4789,
      "nowvr": 4790,
      "manwel": 4791,
      "lenti": 4792,
      "kalidziz": 4793,
      "dilajt": 4794,
      "welint": 4795,
      "switst": 4796,
      "limitejs": 4797,
      "nidziz": 4798,
      "flojd": 4799,
      "blakejd": 4800,
      "kapir": 4801,
      "vigr": 4802,
      "ifs": 4803,
      "mas": 4804,
      "wow": 4805,
      "kastumz": 4806,
      "sents": 4807,
      "mvnk": 4808,
      "lenkts": 4809,
      "dzejl": 4810,
      "tajdz": 4811,
      "hastil": 4812,
      "dilz": 4813,
      "ling": 4814,
      "ejdmar": 4815,
      "idit": 4816,
      "iksplowsiv": 4817,
      "po": 4818,
      "bilond": 4819,
      "eksplojt": 4820,
      "nikowl": 4821,
      "iowp": 4822,
      "spensr": 4823,
      "ispan": 4824,
      "slipin": 4825,
      "bdzektivz": 4826,
      "pidi": 4827,
      "distingwis": 4828,
      "stvm": 4829,
      "dzav": 4830,
      "pild": 4831,
      "hemis": 4832,
      "invens": 4833,
      "dowmejn": 4834,
      "pvnt": 4835,
      "pejvd": 4836,
      "niknejmd": 4837,
      "gnows": 4838,
      "helti": 4839,
      "mawntid": 4840,
      "kjulz": 4841,
      "tots": 4842,
      "ejsiz": 4843,
      "ivow": 4844,
      "laks": 4845,
      "dits": 4846,
      "itunz": 4847,
      "nistik": 4848,
      "owsidinz": 4849,
      "finz": 4850,
      "keplr": 4851,
      "najntint": 4852,
      "klu": 4853,
      "liktid": 4854,
      "solts": 4855,
      "stejk": 4856,
      "spawr": 4857,
      "vest": 4858,
      "zak": 4859,
      "dhir": 4860,
      "nsa": 4861,
      "svs": 4862,
      "silk": 4863,
      "indor": 4864,
      "kwir": 4865,
      "dajvin": 4866,
      "ilz": 4867,
      "mentin": 4868,
      "pisf": 4869,
      "blejd": 4870,
      "sawtwr": 4871,
      "etsetr": 4872,
      "nests": 4873,
      "bo": 4874,
      "zum": 4875,
      "skejt": 4876,
      "mg": 4877,
      "dzojnz": 4878,
      "nvejld": 4879,
      "fawnt": 4880,
      "ilejtin": 4881,
      "simpl": 4882,
      "owsidz": 4883,
      "nupor": 4884,
      "stol": 4885,
      "tapik": 4886,
      "dant": 4887,
      "dizalvd": 4888,
      "asaki": 4889,
      "kh": 4890,
      "van": 4891,
      "gibs": 4892,
      "ensuin": 4893,
      "hitr": 4894,
      "nmowst": 4895,
      "kowstlajn": 4896,
      "lvftwof": 4897,
      "kvn": 4898,
      "dowd": 4899,
      "lp": 4900,
      "kejas": 4901,
      "iejtid": 4902,
      "kajr": 4903,
      "vendz": 4904,
      "ajtir": 4905,
      "tsejnz": 4906,
      "ilajd": 4907,
      "engejdzin": 4908,
      "edis": 4909,
      "ganz": 4910,
      "ubi": 4911,
      "blend": 4912,
      "dvdli": 4913,
      "jutid": 4914,
      "ont": 4915,
      "vedzt": 4916,
      "dag": 4917,
      "flejvr": 4918,
      "agvst": 4919,
      "wend": 4920,
      "istar": 4921,
      "wiler": 4922,
      "ivajvd": 4923,
      "awnin": 4924,
      "hep": 4925,
      "dvndz": 4926,
      "linkin": 4927,
      "vajzr": 4928,
      "tistwr": 4929,
      "vsk": 4930,
      "wes": 4931,
      "plum": 4932,
      "mowl": 4933,
      "sejdz": 4934,
      "tsut": 4935,
      "flowtin": 4936,
      "agwiler": 4937,
      "mvndi": 4938,
      "plim": 4939,
      "ntiz": 4940,
      "utsi": 4941,
      "sowviets": 4942,
      "hemisfir": 4943,
      "bt": 4944,
      "powt": 4945,
      "esiks": 4946,
      "lvd": 4947,
      "silr": 4948,
      "hajlajt": 4949,
      "bowd": 4950,
      "powld": 4951,
      "flektin": 4952,
      "slowr": 4953,
      "jul": 4954,
      "ntindz": 4955,
      "tikn": 4956,
      "sav": 4957,
      "sinik": 4958,
      "awndid": 4959,
      "lotr": 4960,
      "ezid": 4961,
      "gejmspat": 4962,
      "azr": 4963,
      "tetr": 4964,
      "majzd": 4965,
      "gowb": 4966,
      "bvz": 4967,
      "tuts": 4968,
      "imd": 4969,
      "kd": 4970,
      "kswel": 4971,
      "midst": 4972,
      "pengw": 4973,
      "wajvz": 4974,
      "svf": 4975,
      "bvd": 4976,
      "mejbi": 4977,
      "lunr": 4978,
      "editr": 4979,
      "sab": 4980,
      "nowbadi": 4981,
      "plutowni": 4982,
      "saps": 4983,
      "wwf": 4984,
      "nojd": 4985,
      "powni": 4986,
      "ufs": 4987,
      "invalv": 4988,
      "glajdr": 4989,
      "dilejz": 4990,
      "dislajkt": 4991,
      "skinr": 4992,
      "towps": 4993,
      "kankor": 4994,
      "nvinj": 4995,
      "bskr": 4996,
      "nseps": 4997,
      "niki": 4998,
      "disist": 4999,
      "sidr": 5000,
      "dispjuts": 5001,
      "sekj": 5002,
      "plvg": 5003,
      "elik": 5004,
      "nists": 5005,
      "tektin": 5006,
      "fownz": 5007,
      "pledz": 5008,
      "lajmstown": 5009,
      "pd": 5010,
      "sensi": 5011,
      "pejg": 5012,
      "beti": 5013,
      "glu": 5014,
      "blvdi": 5015,
      "blown": 5016,
      "mvnks": 5017,
      "bvstr": 5018,
      "flvdz": 5019,
      "labi": 5020,
      "limitid": 5021,
      "nikow": 5022,
      "emplojr": 5023,
      "pek": 5024,
      "efjudz": 5025,
      "bvr": 5026,
      "wawnd": 5027,
      "siminli": 5028,
      "judzin": 5029,
      "sowsiits": 5030,
      "bsidier": 5031,
      "kdr": 5032,
      "ndm": 5033,
      "limz": 5034,
      "nvinsin": 5035,
      "tajlz": 5036,
      "boldw": 5037,
      "kvmb": 5038,
      "klajmin": 5039,
      "vejz": 5040,
      "fand": 5041,
      "madzu": 5042,
      "belgr": 5043,
      "jowhan": 5044,
      "vejtr": 5045,
      "hibr": 5046,
      "nowbel": 5047,
      "bejtid": 5048,
      "lajfstajl": 5049,
      "isiejtid": 5050,
      "lvg": 5051,
      "twelft": 5052,
      "stelr": 5053,
      "tig": 5054,
      "nses": 5055,
      "hajdz": 5056,
      "fidz": 5057,
      "fowli": 5058,
      "ltr": 5059,
      "igm": 5060,
      "owsid": 5061,
      "sowkejs": 5062,
      "distor": 5063,
      "lowl": 5064,
      "dedli": 5065,
      "islam": 5066,
      "aptik": 5067,
      "kips": 5068,
      "sini": 5069,
      "investr": 5070,
      "stvnt": 5071,
      "hab": 5072,
      "aptid": 5073,
      "igejnd": 5074,
      "tso": 5075,
      "izm": 5076,
      "zam": 5077,
      "miki": 5078,
      "howz": 5079,
      "skawts": 5080,
      "edgr": 5081,
      "minog": 5082,
      "pvmp": 5083,
      "bif": 5084,
      "mejz": 5085,
      "awm": 5086,
      "lejin": 5087,
      "ndzvnks": 5088,
      "mowdz": 5089,
      "kwejnt": 5090,
      "bajd": 5091,
      "dzowks": 5092,
      "agow": 5093,
      "swim": 5094,
      "winzr": 5095,
      "bawr": 5096,
      "mowment": 5097,
      "mali": 5098,
      "ljuejs": 5099,
      "stvk": 5100,
      "vmpajr": 5101,
      "emili": 5102,
      "indeks": 5103,
      "pusin": 5104,
      "spvng": 5105,
      "his": 5106,
      "pon": 5107,
      "ikwejz": 5108,
      "fajndinz": 5109,
      "zet": 5110,
      "baksin": 5111,
      "ket": 5112,
      "tajni": 5113,
      "usi": 5114,
      "vstid": 5115,
      "midz": 5116,
      "bats": 5117,
      "evi": 5118,
      "ngl": 5119,
      "safik": 5120,
      "odis": 5121,
      "sendz": 5122,
      "timmejts": 5123,
      "vnwej": 5124,
      "usow": 5125,
      "wajts": 5126,
      "lutli": 5127,
      "ikspajr": 5128,
      "taksik": 5129,
      "espr": 5130,
      "edw": 5131,
      "nsir": 5132,
      "skapik": 5133,
      "vktin": 5134,
      "gwat": 5135,
      "zl": 5136,
      "stept": 5137,
      "lejawt": 5138,
      "bejsist": 5139,
      "simbalik": 5140,
      "blejn": 5141,
      "saf": 5142,
      "gand": 5143,
      "zmejni": 5144,
      "nejd": 5145,
      "estetik": 5146,
      "kvmbr": 5147,
      "bejk": 5148,
      "hajdin": 5149,
      "kk": 5150,
      "tp": 5151,
      "wisin": 5152,
      "flowt": 5153,
      "gown": 5154,
      "stilz": 5155,
      "hats": 5156,
      "bvnkr": 5157,
      "skwr": 5158,
      "nhawr": 5159,
      "ilum": 5160,
      "dwer": 5161,
      "fjus": 5162,
      "fektin": 5163,
      "ibor": 5164,
      "isajd": 5165,
      "welfer": 5166,
      "tvt": 5167,
      "dzg": 5168,
      "tejtr": 5169,
      "mani": 5170,
      "kun": 5171,
      "dadzr": 5172,
      "lizi": 5173,
      "dispowz": 5174,
      "hetr": 5175,
      "pvnts": 5176,
      "dzend": 5177,
      "natr": 5178,
      "tsuzin": 5179,
      "snej": 5180,
      "twinz": 5181,
      "dum": 5182,
      "najdz": 5183,
      "dajdzest": 5184,
      "bvsiz": 5185,
      "spvngbab": 5186,
      "owdr": 5187,
      "idiks": 5188,
      "ejktr": 5189,
      "vni": 5190,
      "sivik": 5191,
      "slejt": 5192,
      "kenj": 5193,
      "gowlkipr": 5194,
      "kstr": 5195,
      "kowv": 5196,
      "eniwer": 5197,
      "didzenr": 5198,
      "skejlz": 5199,
      "mbig": 5200,
      "gowt": 5201,
      "lbi": 5202,
      "gaz": 5203,
      "stowk": 5204,
      "spajn": 5205,
      "kowlbr": 5206,
      "fikstsr": 5207,
      "jak": 5208,
      "vpl": 5209,
      "disi": 5210,
      "hajp": 5211,
      "wundz": 5212,
      "imber": 5213,
      "lindwol": 5214,
      "bengol": 5215,
      "iksplowd": 5216,
      "gnowst": 5217,
      "kmej": 5218,
      "skiin": 5219,
      "gwej": 5220,
      "nfajnd": 5221,
      "slajdz": 5222,
      "ejdzd": 5223,
      "fawl": 5224,
      "sowvr": 5225,
      "input": 5226,
      "bivr": 5227,
      "minj": 5228,
      "gejb": 5229,
      "kvbz": 5230,
      "swr": 5231,
      "esejts": 5232,
      "dzeninz": 5233,
      "ndsvn": 5234,
      "vpwr": 5235,
      "ejsr": 5236,
      "wudn": 5237,
      "ejaj": 5238,
      "elpi": 5239,
      "mejntejnz": 5240,
      "knalidz": 5241,
      "iksajtin": 5242,
      "hektar": 5243,
      "bf": 5244,
      "lizr": 5245,
      "enviz": 5246,
      "mzi": 5247,
      "imtr": 5248,
      "emploji": 5249,
      "ejis": 5250,
      "ikwal": 5251,
      "ntendr": 5252,
      "simi": 5253,
      "usejdr": 5254,
      "dfr": 5255,
      "glekt": 5256,
      "vind": 5257,
      "difits": 5258,
      "dzvdzd": 5259,
      "lektivli": 5260,
      "sakt": 5261,
      "lajp": 5262,
      "spajk": 5263,
      "sentimtr": 5264,
      "tapiks": 5265,
      "fon": 5266,
      "spant": 5267,
      "dap": 5268,
      "mawntin": 5269,
      "vektr": 5270,
      "pejst": 5271,
      "iskejps": 5272,
      "bw": 5273,
      "vatr": 5274,
      "bajndin": 5275,
      "vkts": 5276,
      "hilr": 5277,
      "slowd": 5278,
      "gejbr": 5279,
      "hvni": 5280,
      "ned": 5281,
      "lzbr": 5282,
      "lepr": 5283,
      "hapkinz": 5284,
      "kowdz": 5285,
      "fag": 5286,
      "aspr": 5287,
      "wilis": 5288,
      "fletsr": 5289,
      "logz": 5290,
      "ljud": 5291,
      "spond": 5292,
      "vejtiv": 5293,
      "spilbr": 5294,
      "nkar": 5295,
      "mvnki": 5296,
      "fejk": 5297,
      "ges": 5298,
      "bwejn": 5299,
      "nw": 5300,
      "nnejmd": 5301,
      "tes": 5302,
      "blejm": 5303,
      "ispektid": 5304,
      "ikwests": 5305,
      "dzuejs": 5306,
      "blr": 5307,
      "dlr": 5308,
      "kikt": 5309,
      "awdz": 5310,
      "midl": 5311,
      "itni": 5312,
      "selj": 5313,
      "tekn": 5314,
      "sawth": 5315,
      "fejtf": 5316,
      "nowbil": 5317,
      "instin": 5318,
      "tojz": 5319,
      "hind": 5320,
      "pvm": 5321,
      "nkludz": 5322,
      "inspektr": 5323,
      "kok": 5324,
      "dign": 5325,
      "tild": 5326,
      "lvmb": 5327,
      "jes": 5328,
      "iflekts": 5329,
      "teft": 5330,
      "ednot": 5331,
      "polin": 5332,
      "inspeks": 5333,
      "pitsin": 5334,
      "owmin": 5335,
      "nsumd": 5336,
      "ofs": 5337,
      "isidid": 5338,
      "bedz": 5339,
      "enlar": 5340,
      "duet": 5341,
      "lajnvp": 5342,
      "fitid": 5343,
      "lvki": 5344,
      "dint": 5345,
      "ifit": 5346,
      "kambajn": 5347,
      "bojd": 5348,
      "lindzi": 5349,
      "dzanz": 5350,
      "bdzekt": 5351,
      "nkvvr": 5352,
      "lvmnaj": 5353,
      "ji": 5354,
      "fisk": 5355,
      "dzeks": 5356,
      "wak": 5357,
      "gilz": 5358,
      "daps": 5359,
      "segr": 5360,
      "tsivin": 5361,
      "ikowsist": 5362,
      "vid": 5363,
      "bildr": 5364,
      "pajp": 5365,
      "skows": 5366,
      "sejfr": 5367,
      "svspekt": 5368,
      "lmejni": 5369,
      "hindr": 5370,
      "slowvaki": 5371,
      "olbi": 5372,
      "endis": 5373,
      "nejmli": 5374,
      "lvnts": 5375,
      "oinz": 5376,
      "setinz": 5377,
      "sbr": 5378,
      "dzetik": 5379,
      "itejnin": 5380,
      "seksi": 5381,
      "dzini": 5382,
      "svsiks": 5383,
      "nektr": 5384,
      "dvent": 5385,
      "svmtajm": 5386,
      "melt": 5387,
      "nejdowz": 5388,
      "ngli": 5389,
      "gifts": 5390,
      "dawnd": 5391,
      "hajlajts": 5392,
      "ifitid": 5393,
      "sawtbawnd": 5394,
      "tjur": 5395,
      "blum": 5396,
      "stapin": 5397,
      "nkludin": 5398,
      "ownin": 5399,
      "filip": 5400,
      "gwar": 5401,
      "izajdid": 5402,
      "dad": 5403,
      "kantents": 5404,
      "tbr": 5405,
      "estlr": 5406,
      "vini": 5407,
      "balist": 5408,
      "nktsuer": 5409,
      "kvltiv": 5410,
      "bowm": 5411,
      "ensis": 5412,
      "nowtr": 5413,
      "smvg": 5414,
      "iunj": 5415,
      "iintr": 5416,
      "watr": 5417,
      "mjuzikli": 5418,
      "towp": 5419,
      "nwa": 5420,
      "pes": 5421,
      "fowtowz": 5422,
      "lian": 5423,
      "izalv": 5424,
      "skw": 5425,
      "fejlz": 5426,
      "mendid": 5427,
      "semifajn": 5428,
      "iptid": 5429,
      "zink": 5430,
      "mplaj": 5431,
      "infliktid": 5432,
      "sipr": 5433,
      "taps": 5434,
      "bmis": 5435,
      "ojlr": 5436,
      "nikr": 5437,
      "slotr": 5438,
      "dzeni": 5439,
      "plats": 5440,
      "indiv": 5441,
      "vstiz": 5442,
      "ndstown": 5443,
      "sejfli": 5444,
      "tliks": 5445,
      "dekstr": 5446,
      "esivli": 5447,
      "fjuzin": 5448,
      "ngow": 5449,
      "bajsik": 5450,
      "olbiit": 5451,
      "witst": 5452,
      "awz": 5453,
      "vstak": 5454,
      "stup": 5455,
      "ejmr": 5456,
      "latr": 5457,
      "nud": 5458,
      "ndzd": 5459,
      "lowp": 5460,
      "majs": 5461,
      "dzojs": 5462,
      "mpleks": 5463,
      "gig": 5464,
      "lejkr": 5465,
      "kins": 5466,
      "listini": 5467,
      "difis": 5468,
      "individzu": 5469,
      "tinks": 5470,
      "vktid": 5471,
      "snajdr": 5472,
      "ifektivn": 5473,
      "insip": 5474,
      "bland": 5475,
      "ilej": 5476,
      "istajl": 5477,
      "etsin": 5478,
      "holz": 5479,
      "tajn": 5480,
      "welmin": 5481,
      "insekt": 5482,
      "fulr": 5483,
      "witni": 5484,
      "vojdin": 5485,
      "wintsestr": 5486,
      "wejtr": 5487,
      "sinkr": 5488,
      "owvz": 5489,
      "stilr": 5490,
      "vltin": 5491,
      "hebr": 5492,
      "alow": 5493,
      "lajks": 5494,
      "ne": 5495,
      "lowm": 5496,
      "milt": 5497,
      "sejvz": 5498,
      "lenz": 5499,
      "sejbr": 5500,
      "wildr": 5501,
      "mjutejs": 5502,
      "mbowdi": 5503,
      "kajvz": 5504,
      "sajki": 5505,
      "medli": 5506,
      "wand": 5507,
      "elt": 5508,
      "apsis": 5509,
      "ejkdawn": 5510,
      "enk": 5511,
      "ejtsajvi": 5512,
      "divi": 5513,
      "mitir": 5514,
      "asikjutr": 5515,
      "klajn": 5516,
      "thaws": 5517,
      "tas": 5518,
      "klevr": 5519,
      "svmps": 5520,
      "sensejs": 5521,
      "hvmfr": 5522,
      "nwilin": 5523,
      "wip": 5524,
      "vnpapj": 5525,
      "bajz": 5526,
      "hofm": 5527,
      "mvmbaj": 5528,
      "nwajd": 5529,
      "upt": 5530,
      "telr": 5531,
      "bwejnows": 5532,
      "vejd": 5533,
      "diktejtr": 5534,
      "dipendz": 5535,
      "kseptin": 5536,
      "enzajm": 5537,
      "izajn": 5538,
      "vili": 5539,
      "nowtor": 5540,
      "belz": 5541,
      "mvsk": 5542,
      "sejt": 5543,
      "inev": 5544,
      "nejz": 5545,
      "ntor": 5546,
      "kalig": 5547,
      "itisajzin": 5548,
      "ndez": 5549,
      "ang": 5550,
      "agzil": 5551,
      "mitiz": 5552,
      "hjugow": 5553,
      "agziljr": 5554,
      "hawsiz": 5555,
      "slowps": 5556,
      "ug": 5557,
      "inks": 5558,
      "wenevr": 5559,
      "ntens": 5560,
      "disper": 5561,
      "kejk": 5562,
      "bjuts": 5563,
      "dzasu": 5564,
      "mbigju": 5565,
      "divows": 5566,
      "nagr": 5567,
      "tidziz": 5568,
      "ndinejvi": 5569,
      "tokt": 5570,
      "nhar": 5571,
      "tjuz": 5572,
      "iliv": 5573,
      "najf": 5574,
      "insajt": 5575,
      "lownz": 5576,
      "kejl": 5577,
      "slejtr": 5578,
      "vlsr": 5579,
      "emiksiz": 5580,
      "bifr": 5581,
      "kulr": 5582,
      "inwej": 5583,
      "displejsm": 5584,
      "lvvin": 5585,
      "bdu": 5586,
      "fejd": 5587,
      "towz": 5588,
      "lindr": 5589,
      "ktiviz": 5590,
      "ientejs": 5591,
      "siblinz": 5592,
      "idzenr": 5593,
      "mab": 5594,
      "peld": 5595,
      "idej": 5596,
      "mesi": 5597,
      "sekt": 5598,
      "sto": 5599,
      "ikspeld": 5600,
      "iunajtid": 5601,
      "kinst": 5602,
      "kavski": 5603,
      "owvi": 5604,
      "jutin": 5605,
      "bani": 5606,
      "utr": 5607,
      "ejtint": 5608,
      "awtlets": 5609,
      "lafi": 5610,
      "etow": 5611,
      "ibildin": 5612,
      "esiz": 5613,
      "dajnin": 5614,
      "dzowh": 5615,
      "ajmtajm": 5616,
      "bisajd": 5617,
      "idzeks": 5618,
      "ispansiz": 5619,
      "lowpez": 5620,
      "sildz": 5621,
      "ajdial": 5622,
      "mbj": 5623,
      "flowin": 5624,
      "edid": 5625,
      "lontsin": 5626,
      "fini": 5627,
      "najtmer": 5628,
      "lajvstak": 5629,
      "owtestr": 5630,
      "svmbadi": 5631,
      "kukin": 5632,
      "kanvojz": 5633,
      "za": 5634,
      "tset": 5635,
      "gilt": 5636,
      "pulin": 5637,
      "ajkanik": 5638,
      "idzojnd": 5639,
      "bibl": 5640,
      "ejdzin": 5641,
      "binz": 5642,
      "dvkt": 5643,
      "blag": 5644,
      "flejm": 5645,
      "ejpt": 5646,
      "dzoz": 5647,
      "anti": 5648,
      "lajr": 5649,
      "imit": 5650,
      "stejp": 5651,
      "difor": 5652,
      "kampt": 5653,
      "asper": 5654,
      "tejtin": 5655,
      "entin": 5656,
      "igejn": 5657,
      "stikli": 5658,
      "bajk": 5659,
      "infir": 5660,
      "vninh": 5661,
      "inid": 5662,
      "ojz": 5663,
      "lowt": 5664,
      "sinti": 5665,
      "njub": 5666,
      "pulz": 5667,
      "howtelz": 5668,
      "bks": 5669,
      "ndmvdr": 5670,
      "anj": 5671,
      "difini": 5672,
      "nhajmr": 5673,
      "fildin": 5674,
      "powetik": 5675,
      "spitfajr": 5676,
      "gun": 5677,
      "skild": 5678,
      "powstpow": 5679,
      "inter": 5680,
      "ejnbow": 5681,
      "sajbr": 5682,
      "lidzit": 5683,
      "ajow": 5684,
      "ajps": 5685,
      "dilit": 5686,
      "emis": 5687,
      "ikspor": 5688,
      "imaj": 5689,
      "dinli": 5690,
      "fudz": 5691,
      "bes": 5692,
      "kfar": 5693,
      "mpowz": 5694,
      "bolk": 5695,
      "dzestsr": 5696,
      "mpowzin": 5697,
      "inawnd": 5698,
      "diklajnin": 5699,
      "nowlz": 5700,
      "sodi": 5701,
      "nawnsin": 5702,
      "stan": 5703,
      "tlin": 5704,
      "hejld": 5705,
      "ziii": 5706,
      "espn": 5707,
      "dowvr": 5708,
      "lagr": 5709,
      "mejkvp": 5710,
      "fidb": 5711,
      "powstpownd": 5712,
      "elidz": 5713,
      "owkin": 5714,
      "mownj": 5715,
      "bawts": 5716,
      "stif": 5717,
      "dzowkr": 5718,
      "wustr": 5719,
      "bdzektid": 5720,
      "wajg": 5721,
      "nestin": 5722,
      "iksidin": 5723,
      "bajin": 5724,
      "owki": 5725,
      "lajthaws": 5726,
      "liftin": 5727,
      "ntinjuejs": 5728,
      "sps": 5729,
      "swimr": 5730,
      "swel": 5731,
      "silz": 5732,
      "ekl": 5733,
      "tajmin": 5734,
      "kajndz": 5735,
      "iows": 5736,
      "bag": 5737,
      "ljuejt": 5738,
      "dvv": 5739,
      "oli": 5740,
      "iktli": 5741,
      "pats": 5742,
      "slowp": 5743,
      "isiejs": 5744,
      "{@": 5745,
      "diskar": 5746,
      "sumin": 5747,
      "nejtivz": 5748,
      "kz": 5749,
      "spiks": 5750,
      "mintajm": 5751,
      "lodid": 5752,
      "kumar": 5753,
      "gowltendr": 5754,
      "biinz": 5755,
      "plin": 5756,
      "igin": 5757,
      "smel": 5758,
      "neptun": 5759,
      "lseks": 5760,
      "bajnr": 5761,
      "zel": 5762,
      "wikr": 5763,
      "vejni": 5764,
      "stejz": 5765,
      "bajow": 5766,
      "eplik": 5767,
      "bowz": 5768,
      "beg": 5769,
      "owkej": 5770,
      "estsu": 5771,
      "db": 5772,
      "nn": 5773,
      "owf": 5774,
      "ilon": 5775,
      "bilit": 5776,
      "flajr": 5777,
      "isis": 5778,
      "pind": 5779,
      "ofspr": 5780,
      "lond": 5781,
      "dmits": 5782,
      "dism": 5783,
      "gust": 5784,
      "fvndr": 5785,
      "sejd": 5786,
      "ginz": 5787,
      "dzejmi": 5788,
      "howmtawn": 5789,
      "svlfr": 5790,
      "kawr": 5791,
      "hajejt": 5792,
      "spantejni": 5793,
      "hint": 5794,
      "mowlt": 5795,
      "tsiks": 5796,
      "dzesik": 5797,
      "antr": 5798,
      "mansun": 5799,
      "sifts": 5800,
      "hp": 5801,
      "nsejt": 5802,
      "majts": 5803,
      "ikspend": 5804,
      "dadz": 5805,
      "iskr": 5806,
      "bejz": 5807,
      "fitn": 5808,
      "gvt": 5809,
      "ntsez": 5810,
      "levr": 5811,
      "vnkans": 5812,
      "skinz": 5813,
      "lafiet": 5814,
      "fwej": 5815,
      "indust": 5816,
      "iter": 5817,
      "nzfild": 5818,
      "owmiz": 5819,
      "kamplism": 5820,
      "atsi": 5821,
      "kejvz": 5822,
      "stui": 5823,
      "futbolr": 5824,
      "stid": 5825,
      "mahr": 5826,
      "atsestr": 5827,
      "nets": 5828,
      "vitejs": 5829,
      "wejts": 5830,
      "stis": 5831,
      "klot": 5832,
      "mentow": 5833,
      "bisk": 5834,
      "setl": 5835,
      "editid": 5836,
      "lelz": 5837,
      "dd": 5838,
      "nnes": 5839,
      "isep": 5840,
      "delik": 5841,
      "ktis": 5842,
      "ton": 5843,
      "enklowzd": 5844,
      "hadz": 5845,
      "bows": 5846,
      "intensiv": 5847,
      "insajkl": 5848,
      "ejmwr": 5849,
      "imajnd": 5850,
      "townz": 5851,
      "eh": 5852,
      "mimik": 5853,
      "odli": 5854,
      "zumd": 5855,
      "nevil": 5856,
      "glostr": 5857,
      "het": 5858,
      "lpr": 5859,
      "diskwal": 5860,
      "svni": 5861,
      "izembl": 5862,
      "sakir": 5863,
      "pep": 5864,
      "dzez": 5865,
      "luivil": 5866,
      "kowvni": 5867,
      "dvkowvni": 5868,
      "makt": 5869,
      "difajnin": 5870,
      "volt": 5871,
      "wild": 5872,
      "lisejs": 5873,
      "klajd": 5874,
      "izum": 5875,
      "idm": 5876,
      "indajt": 5877,
      "klod": 5878,
      "nowvi": 5879,
      "badid": 5880,
      "tektr": 5881,
      "kanin": 5882,
      "ndur": 5883,
      "vnim": 5884,
      "lingw": 5885,
      "impawr": 5886,
      "felr": 5887,
      "lvmbr": 5888,
      "infiltr": 5889,
      "hjumor": 5890,
      "fvndzaj": 5891,
      "lisin": 5892,
      "dzub": 5893,
      "vajkin": 5894,
      "dentid": 5895,
      "kojnidz": 5896,
      "ndejtid": 5897,
      "owsor": 5898,
      "linr": 5899,
      "vejkejs": 5900,
      "iluz": 5901,
      "dedlajn": 5902,
      "mbajnin": 5903,
      "ikskludin": 5904,
      "mpin": 5905,
      "neli": 5906,
      "lisi": 5907,
      "netiks": 5908,
      "owik": 5909,
      "skimz": 5910,
      "bvkin": 5911,
      "kowtst": 5912,
      "plajn": 5913,
      "nsidid": 5914,
      "leksint": 5915,
      "lvgzr": 5916,
      "hindi": 5917,
      "idivel": 5918,
      "mowlr": 5919,
      "asbr": 5920,
      "diploj": 5921,
      "amin": 5922,
      "afaj": 5923,
      "difajn": 5924,
      "tajzm": 5925,
      "lambar": 5926,
      "bh": 5927,
      "uin": 5928,
      "dzajn": 5929,
      "dipor": 5930,
      "guld": 5931,
      "pajt": 5932,
      "ises": 5933,
      "diminist": 5934,
      "kajv": 5935,
      "zig": 5936,
      "hejstinz": 5937,
      "disar": 5938,
      "awtwr": 5939,
      "smits": 5940,
      "klinik": 5941,
      "zeld": 5942,
      "wivr": 5943,
      "emj": 5944,
      "divajzd": 5945,
      "utl": 5946,
      "vnzwik": 5947,
      "gowli": 5948,
      "dajaksajd": 5949,
      "wols": 5950,
      "ntidziz": 5951,
      "owmit": 5952,
      "lansow": 5953,
      "jel": 5954,
      "obr": 5955,
      "gwam": 5956,
      "usejd": 5957,
      "sowsial": 5958,
      "migel": 5959,
      "nfer": 5960,
      "tjar": 5961,
      "dajzd": 5962,
      "skvlptr": 5963,
      "awl": 5964,
      "kowlt": 5965,
      "dagit": 5966,
      "iplaj": 5967,
      "ndwits": 5968,
      "mowtif": 5969,
      "jug": 5970,
      "tial": 5971,
      "utow": 5972,
      "stilin": 5973,
      "afajel": 5974,
      "jejl": 5975,
      "juvr": 5976,
      "twar": 5977,
      "diteks": 5978,
      "mejnz": 5979,
      "aksi": 5980,
      "zv": 5981,
      "ajsin": 5982,
      "stimr": 5983,
      "izbejn": 5984,
      "simor": 5985,
      "skap": 5986,
      "septr": 5987,
      "bsr": 5988,
      "owfawnd": 5989,
      "gwen": 5990,
      "kmil": 5991,
      "ntser": 5992,
      "twajlajt": 5993,
      "dzuliet": 5994,
      "peni": 5995,
      "udin": 5996,
      "wejin": 5997,
      "stakhowlm": 5998,
      "tumz": 5999,
      "ksap": 6000,
      "numer": 6001,
      "entsiz": 6002,
      "lag": 6003,
      "winst": 6004,
      "kowbr": 6005,
      "powziz": 6006,
      "svmwer": 6007,
      "pejz": 6008,
      "sitkam": 6009,
      "dkor": 6010,
      "heks": 6011,
      "nitsr": 6012,
      "ntikw": 6013,
      "kjum": 6014,
      "ipisk": 6015,
      "eki": 6016,
      "destr": 6017,
      "gur": 6018,
      "najl": 6019,
      "disks": 6020,
      "madz": 6021,
      "ndzu": 6022,
      "ipl": 6023,
      "manti": 6024,
      "pilin": 6025,
      "swip": 6026,
      "vu": 6027,
      "dzip": 6028,
      "ksent": 6029,
      "levi": 6030,
      "klips": 6031,
      "empt": 6032,
      "awtfit": 6033,
      "sup": 6034,
      "klajmd": 6035,
      "iatik": 6036,
      "ktow": 6037,
      "howzej": 6038,
      "hawnd": 6039,
      "tiow": 6040,
      "kanv": 6041,
      "agw": 6042,
      "dzezu": 6043,
      "lts": 6044,
      "awns": 6045,
      "imb": 6046,
      "mus": 6047,
      "tenr": 6048,
      "istbawnd": 6049,
      "litow": 6050,
      "inkvmb": 6051,
      "gog": 6052,
      "nol": 6053,
      "itelin": 6054,
      "lowv": 6055,
      "idzekt": 6056,
      "kowli": 6057,
      "westbawnd": 6058,
      "mentor": 6059,
      "bojkat": 6060,
      "demiks": 6061,
      "diplowm": 6062,
      "dsip": 6063,
      "anset": 6064,
      "slejr": 6065,
      "ggr": 6066,
      "nojr": 6067,
      "senteni": 6068,
      "hajnr": 6069,
      "sistin": 6070,
      "esidentid": 6071,
      "inflejs": 6072,
      "tvtst": 6073,
      "me": 6074,
      "svbwej": 6075,
      "blits": 6076,
      "howlt": 6077,
      "fliz": 6078,
      "vowg": 6079,
      "epl": 6080,
      "wz": 6081,
      "mitsu": 6082,
      "veniz": 6083,
      "iel": 6084,
      "mfl": 6085,
      "tvm": 6086,
      "esejz": 6087,
      "jowg": 6088,
      "bawm": 6089,
      "heminwej": 6090,
      "pembr": 6091,
      "pikar": 6092,
      "wowl": 6093,
      "mownz": 6094,
      "howkiz": 6095,
      "mplejnt": 6096,
      "mojstsr": 6097,
      "kwer": 6098,
      "osowvr": 6099,
      "svbstr": 6100,
      "wisd": 6101,
      "estsuer": 6102,
      "estiz": 6103,
      "howstin": 6104,
      "powstin": 6105,
      "bnor": 6106,
      "mgm": 6107,
      "poz": 6108,
      "ejnt": 6109,
      "ntat": 6110,
      "dzojntli": 6111,
      "pajin": 6112,
      "tplejs": 6113,
      "zagr": 6114,
      "dzowi": 6115,
      "ikstsejndzd": 6116,
      "madzul": 6117,
      "venizwejl": 6118,
      "pf": 6119,
      "dzma": 6120,
      "iklizi": 6121,
      "nindz": 6122,
      "dizajnin": 6123,
      "wizd": 6124,
      "kawn": 6125,
      "hawz": 6126,
      "antinz": 6127,
      "aju": 6128,
      "sejps": 6129,
      "isuin": 6130,
      "pets": 6131,
      "ndajz": 6132,
      "lajtli": 6133,
      "entsm": 6134,
      "hot": 6135,
      "tj": 6136,
      "kwatik": 6137,
      "blakin": 6138,
      "iver": 6139,
      "ksepts": 6140,
      "lownli": 6141,
      "imens": 6142,
      "sawndin": 6143,
      "vnimplojm": 6144,
      "udi": 6145,
      "mpaz": 6146,
      "maz": 6147,
      "wilk": 6148,
      "indow": 6149,
      "hejti": 6150,
      "vowkt": 6151,
      "ugv": 6152,
      "gowvin": 6153,
      "nstejb": 6154,
      "wetl": 6155,
      "meltin": 6156,
      "lontajm": 6157,
      "kangow": 6158,
      "nizi": 6159,
      "bizantinz": 6160,
      "slendr": 6161,
      "hk": 6162,
      "pvk": 6163,
      "sfr": 6164,
      "vas": 6165,
      "ndownr": 6166,
      "idmik": 6167,
      "bukr": 6168,
      "ah": 6169,
      "endemik": 6170,
      "sajpr": 6171,
      "nejp": 6172,
      "ozbi": 6173,
      "webstr": 6174,
      "nojuvr": 6175,
      "btejnin": 6176,
      "mists": 6177,
      "ndful": 6178,
      "siftin": 6179,
      "wimb": 6180,
      "filiks": 6181,
      "mbu": 6182,
      "ikawnt": 6183,
      "estidz": 6184,
      "mowh": 6185,
      "iniz": 6186,
      "ladik": 6187,
      "wudi": 6188,
      "swer": 6189,
      "vlr": 6190,
      "amik": 6191,
      "ejdalf": 6192,
      "klik": 6193,
      "owlm": 6194,
      "sajkow": 6195,
      "telugv": 6196,
      "amz": 6197,
      "viks": 6198,
      "inseps": 6199,
      "lifs": 6200,
      "ilejt": 6201,
      "nkfr": 6202,
      "fok": 6203,
      "gb": 6204,
      "lept": 6205,
      "vajvz": 6206,
      "diskor": 6207,
      "gibz": 6208,
      "bens": 6209,
      "bvst": 6210,
      "ugr": 6211,
      "wem": 6212,
      "lisiz": 6213,
      "maf": 6214,
      "kvmr": 6215,
      "tajin": 6216,
      "dawnwr": 6217,
      "towkin": 6218,
      "ndar": 6219,
      "aladzik": 6220,
      "ntejnr": 6221,
      "ivalv": 6222,
      "piti": 6223,
      "ikolz": 6224,
      "nsep": 6225,
      "tutr": 6226,
      "mpejnd": 6227,
      "midsips": 6228,
      "leksi": 6229,
      "ilajzin": 6230,
      "gvm": 6231,
      "lof": 6232,
      "ivkn": 6233,
      "ipi": 6234,
      "kejsi": 6235,
      "vndis": 6236,
      "nzaj": 6237,
      "kidni": 6238,
      "safmor": 6239,
      "tsipr": 6240,
      "bowls": 6241,
      "ntiliz": 6242,
      "integr": 6243,
      "dawnstr": 6244,
      "gug": 6245,
      "dzajzd": 6246,
      "pazi": 6247,
      "nvej": 6248,
      "sintetik": 6249,
      "tont": 6250,
      "hipr": 6251,
      "kansowlz": 6252,
      "avow": 6253,
      "amptli": 6254,
      "hvtsins": 6255,
      "tili": 6256,
      "lusli": 6257,
      "svbdiviz": 6258,
      "fend": 6259,
      "nsmitid": 6260,
      "howldinz": 6261,
      "bownow": 6262,
      "mizr": 6263,
      "jum": 6264,
      "nzil": 6265,
      "isks": 6266,
      "imer": 6267,
      "tejps": 6268,
      "pajz": 6269,
      "iset": 6270,
      "dzenik": 6271,
      "najzr": 6272,
      "izin": 6273,
      "nzbr": 6274,
      "vvltsr": 6275,
      "enzajmz": 6276,
      "akin": 6277,
      "lezr": 6278,
      "wajowmin": 6279,
      "dinom": 6280,
      "pajpr": 6281,
      "mjutr": 6282,
      "nejdz": 6283,
      "mpelin": 6284,
      "bvg": 6285,
      "owsr": 6286,
      "wilow": 6287,
      "lukr": 6288,
      "hilin": 6289,
      "kwatr": 6290,
      "gejlik": 6291,
      "ibjuts": 6292,
      "imowsn": 6293,
      "ekowd": 6294,
      "hajfi": 6295,
      "dvtsi": 6296,
      "svnset": 6297,
      "pitsfor": 6298,
      "pigm": 6299,
      "wembli": 6300,
      "@{": 6301,
      "aji": 6302,
      "awtflow": 6303,
      "ejnwa": 6304,
      "bisidzd": 6305,
      "zimbab": 6306,
      "blej": 6307,
      "klowd": 6308,
      "kvtr": 6309,
      "awtlo": 6310,
      "menju": 6311,
      "gvnfajr": 6312,
      "ustsev": 6313,
      "ejsiv": 6314,
      "majndz": 6315,
      "nbit": 6316,
      "ogz": 6317,
      "intid": 6318,
      "wulvz": 6319,
      "vali": 6320,
      "nejlz": 6321,
      "blidin": 6322,
      "vejr": 6323,
      "pazitid": 6324,
      "smr": 6325,
      "ikar": 6326,
      "klel": 6327,
      "sinkler": 6328,
      "stipj": 6329,
      "izajdin": 6330,
      "itv": 6331,
      "skept": 6332,
      "mitow": 6333,
      "mejtowz": 6334,
      "iplej": 6335,
      "lmin": 6336,
      "skejtin": 6337,
      "flaz": 6338,
      "svspekts": 6339,
      "ploz": 6340,
      "alt": 6341,
      "sos": 6342,
      "ndejl": 6343,
      "ndalf": 6344,
      "kwow": 6345,
      "kofin": 6346,
      "avr": 6347,
      "hild": 6348,
      "nvind": 6349,
      "zik": 6350,
      "plur": 6351,
      "skiz": 6352,
      "vpstr": 6353,
      "bjuk": 6354,
      "pajplajn": 6355,
      "fb": 6356,
      "insejn": 6357,
      "odsajd": 6358,
      "gudm": 6359,
      "owlimpi": 6360,
      "velv": 6361,
      "titsinz": 6362,
      "blejdz": 6363,
      "sektin": 6364,
      "uzin": 6365,
      "eng": 6366,
      "igd": 6367,
      "iklips": 6368,
      "tsokl": 6369,
      "bjun": 6370,
      "sku": 6371,
      "bilonz": 6372,
      "dawnlowdz": 6373,
      "klinin": 6374,
      "woki": 6375,
      "ftin": 6376,
      "jil": 6377,
      "klift": 6378,
      "nmi": 6379,
      "sinapsis": 6380,
      "dzili": 6381,
      "buld": 6382,
      "uzi": 6383,
      "powstsis": 6384,
      "stownkr": 6385,
      "dejvids": 6386,
      "gnif": 6387,
      "powlow": 6388,
      "fendr": 6389,
      "taz": 6390,
      "lajdid": 6391,
      "natsiz": 6392,
      "hasp": 6393,
      "kulin": 6394,
      "visnu": 6395,
      "unow": 6396,
      "dztawn": 6397,
      "ksejs": 6398,
      "splits": 6399,
      "paks": 6400,
      "igzatik": 6401,
      "awtskr": 6402,
      "ikspektin": 6403,
      "bilitejs": 6404,
      "glejdz": 6405,
      "piv": 6406,
      "eksitr": 6407,
      "dejlajt": 6408,
      "ifju": 6409,
      "gvnpawdr": 6410,
      "npor": 6411,
      "iksk": 6412,
      "kowin": 6413,
      "webs": 6414,
      "asr": 6415,
      "ktsu": 6416,
      "tips": 6417,
      "sindi": 6418,
      "stejsi": 6419,
      "detr": 6420,
      "ajfown": 6421,
      "kejst": 6422,
      "klifs": 6423,
      "iksplowsi": 6424,
      "kakpit": 6425,
      "nfinist": 6426,
      "tajs": 6427,
      "pajps": 6428,
      "hejnz": 6429,
      "spajs": 6430,
      "insud": 6431,
      "bejsikli": 6432,
      "debr": 6433,
      "vgli": 6434,
      "salfr": 6435,
      "sikstint": 6436,
      "walstownkr": 6437,
      "kaf": 6438,
      "difinitiv": 6439,
      "nebj": 6440,
      "wot": 6441,
      "inhir": 6442,
      "etejs": 6443,
      "koli": 6444,
      "sla": 6445,
      "mistejks": 6446,
      "ametr": 6447,
      "eswejdr": 6448,
      "lajpsig": 6449,
      "hajnz": 6450,
      "kejdi": 6451,
      "ntint": 6452,
      "tolist": 6453,
      "kawnsilr": 6454,
      "iwr": 6455,
      "mbik": 6456,
      "nkam": 6457,
      "tudr": 6458,
      "kowlts": 6459,
      "bambej": 6460,
      "fowklor": 6461,
      "ilink": 6462,
      "najdzir": 6463,
      "hont": 6464,
      "jer": 6465,
      "vnklajn": 6466,
      "fvmb": 6467,
      "nhejg": 6468,
      "itejlr": 6469,
      "isajk": 6470,
      "ejvan": 6471,
      "gudbaj": 6472,
      "nklusiv": 6473,
      "ladzikli": 6474,
      "dawts": 6475,
      "kvr": 6476,
      "envoj": 6477,
      "wenzdi": 6478,
      "dsajr": 6479,
      "esid": 6480,
      "sistidi": 6481,
      "manow": 6482,
      "swej": 6483,
      "ensi": 6484,
      "enlajt": 6485,
      "kvltivejs": 6486,
      "tsapr": 6487,
      "juti": 6488,
      "elvis": 6489,
      "lingr": 6490,
      "nejgr": 6491,
      "midfildr": 6492,
      "vnikspektidli": 6493,
      "nzilvejni": 6494,
      "vvlk": 6495,
      "wenr": 6496,
      "spowksm": 6497,
      "hints": 6498,
      "enow": 6499,
      "nowel": 6500,
      "zn": 6501,
      "ejik": 6502,
      "tipik": 6503,
      "emikst": 6504,
      "sowdi": 6505,
      "nisi": 6506,
      "dakjar": 6507,
      "kojnd": 6508,
      "hejtr": 6509,
      "mbus": 6510,
      "ajak": 6511,
      "awtnvmbr": 6512,
      "etitiv": 6513,
      "inikspir": 6514,
      "ajg": 6515,
      "vtl": 6516,
      "wiltser": 6517,
      "mvstr": 6518,
      "matow": 6519,
      "tisfajin": 6520,
      "owlifik": 6521,
      "vkin": 6522,
      "diseps": 6523,
      "nsvltin": 6524,
      "nsiv": 6525,
      "dojts": 6526,
      "mitowkandr": 6527,
      "gnejtid": 6528,
      "tiviti": 6529,
      "pendin": 6530,
      "ednts": 6531,
      "ipetitiv": 6532,
      "kilinz": 6533,
      "bizmar": 6534,
      "lgbt": 6535,
      "dzvmpt": 6536,
      "nzb": 6537,
      "plvm": 6538,
      "igzr": 6539,
      "blik": 6540,
      "plik": 6541,
      "klowvr": 6542,
      "mantr": 6543,
      "fliin": 6544,
      "pejnf": 6545,
      "iksplowsivz": 6546,
      "kut": 6547,
      "ipvl": 6548,
      "hajz": 6549,
      "baha": 6550,
      "gajdz": 6551,
      "ivalvin": 6552,
      "fur": 6553,
      "ksim": 6554,
      "itz": 6555,
      "mejg": 6556,
      "ojld": 6557,
      "mism": 6558,
      "gnajzin": 6559,
      "plid": 6560,
      "ejdow": 6561,
      "ekf": 6562,
      "disg": 6563,
      "fekts": 6564,
      "hejn": 6565,
      "slowg": 6566,
      "egzajld": 6567,
      "jat": 6568,
      "tajmlajn": 6569,
      "izistid": 6570,
      "skvt": 6571,
      "winip": 6572,
      "pikju": 6573,
      "memf": 6574,
      "insent": 6575,
      "ditens": 6576,
      "owbvst": 6577,
      "ibild": 6578,
      "nez": 6579,
      "tvtsin": 6580,
      "ajmr": 6581,
      "itend": 6582,
      "plenti": 6583,
      "mats": 6584,
      "wilfr": 6585,
      "tams": 6586,
      "ajzinli": 6587,
      "fitsdzer": 6588,
      "ilongejt": 6589,
      "lvejs": 6590,
      "nwr": 6591,
      "vitow": 6592,
      "ejtf": 6593,
      "ptiz": 6594,
      "ludz": 6595,
      "kowhir": 6596,
      "fant": 6597,
      "bamd": 6598,
      "fiftint": 6599,
      "hvs": 6600,
      "lawndz": 6601,
      "stemz": 6602,
      "sojlz": 6603,
      "magr": 6604,
      "powkr": 6605,
      "tisf": 6606,
      "lakr": 6607,
      "sigm": 6608,
      "tvsk": 6609,
      "kowni": 6610,
      "tejm": 6611,
      "inifektiv": 6612,
      "nten": 6613,
      "vnkr": 6614,
      "nsur": 6615,
      "tidli": 6616,
      "kwint": 6617,
      "bb": 6618,
      "sejb": 6619,
      "degr": 6620,
      "intest": 6621,
      "dikins": 6622,
      "embedid": 6623,
      "lvz": 6624,
      "stold": 6625,
      "ilent": 6626,
      "displejin": 6627,
      "kowdi": 6628,
      "stejdzin": 6629,
      "hend": 6630,
      "tos": 6631,
      "ejgr": 6632,
      "letin": 6633,
      "ivalvr": 6634,
      "inviz": 6635,
      "bvm": 6636,
      "gajl": 6637,
      "teli": 6638,
      "tsejst": 6639,
      "tumr": 6640,
      "vitr": 6641,
      "selbi": 6642,
      "madel": 6643,
      "dvt": 6644,
      "sident": 6645,
      "nsk": 6646,
      "klejd": 6647,
      "awndinz": 6648,
      "hjumili": 6649,
      "kemp": 6650,
      "ldzir": 6651,
      "iwer": 6652,
      "esbi": 6653,
      "himi": 6654,
      "idzm": 6655,
      "gowldm": 6656,
      "atsu": 6657,
      "itens": 6658,
      "papmatr": 6659,
      "tsejndziz": 6660,
      "kowlm": 6661,
      "gili": 6662,
      "tsejsin": 6663,
      "spinin": 6664,
      "maja": 6665,
      "blvnt": 6666,
      "milwoki": 6667,
      "fejsbuk": 6668,
      "hepbr": 6669,
      "downr": 6670,
      "hejs": 6671,
      "butsr": 6672,
      "etsr": 6673,
      "awlz": 6674,
      "sowr": 6675,
      "spelin": 6676,
      "awtlajn": 6677,
      "lest": 6678,
      "vur": 6679,
      "zep": 6680,
      "ndejt": 6681,
      "indevr": 6682,
      "kti": 6683,
      "mawnd": 6684,
      "mlin": 6685,
      "ingow": 6686,
      "wink": 6687,
      "dinawnst": 6688,
      "ajnstajn": 6689,
      "kendr": 6690,
      "deks": 6691,
      "tseks": 6692,
      "ilowk": 6693,
      "ndzelik": 6694,
      "milki": 6695,
      "hvf": 6696,
      "foks": 6697,
      "snejks": 6698,
      "owtejtin": 6699,
      "idow": 6700,
      "singj": 6701,
      "kastli": 6702,
      "vilidzr": 6703,
      "ajkawts": 6704,
      "klo": 6705,
      "ejnir": 6706,
      "ifleks": 6707,
      "midik": 6708,
      "klajmz": 6709,
      "insig": 6710,
      "sibr": 6711,
      "hajn": 6712,
      "klodi": 6713,
      "owmiow": 6714,
      "ildr": 6715,
      "bowldr": 6716,
      "bm": 6717,
      "kvninh": 6718,
      "lps": 6719,
      "sojr": 6720,
      "dzedi": 6721,
      "dimajz": 6722,
      "bibr": 6723,
      "mpejnin": 6724,
      "majti": 6725,
      "efjus": 6726,
      "lowb": 6727,
      "bildz": 6728,
      "pheld": 6729,
      "elk": 6730,
      "pegi": 6731,
      "widr": 6732,
      "seti": 6733,
      "dawngr": 6734,
      "dvnst": 6735,
      "gajdlajnz": 6736,
      "ivens": 6737,
      "nus": 6738,
      "mowti": 6739,
      "matsu": 6740,
      "difekt": 6741,
      "upin": 6742,
      "tojl": 6743,
      "himlr": 6744,
      "handur": 6745,
      "gejtwej": 6746,
      "etid": 6747,
      "vajz": 6748,
      "bowhimi": 6749,
      "valkejnowz": 6750,
      "jowk": 6751,
      "dzak": 6752,
      "nsper": 6753,
      "klvts": 6754,
      "towbi": 6755,
      "gadwin": 6756,
      "hejm": 6757,
      "ventr": 6758,
      "simr": 6759,
      "implajd": 6760,
      "bvfi": 6761,
      "desk": 6762,
      "nvl": 6763,
      "venr": 6764,
      "dun": 6765,
      "idizajnd": 6766,
      "api": 6767,
      "dinow": 6768,
      "nkw": 6769,
      "emplojin": 6770,
      "tund": 6771,
      "istan": 6772,
      "ndzests": 6773,
      "weldin": 6774,
      "misr": 6775,
      "vajb": 6776,
      "flits": 6777,
      "esbitir": 6778,
      "kks": 6779,
      "lests": 6780,
      "osi": 6781,
      "pvt": 6782,
      "timor": 6783,
      "imbr": 6784,
      "vidi": 6785,
      "owkjur": 6786,
      "impid": 6787,
      "gna": 6788,
      "lejm": 6789,
      "fulfild": 6790,
      "dol": 6791,
      "flint": 6792,
      "owtis": 6793,
      "dzos": 6794,
      "ntig": 6795,
      "kagni": 6796,
      "fajnr": 6797,
      "dzus": 6798,
      "slvg": 6799,
      "limpiks": 6800,
      "ndaw": 6801,
      "igzo": 6802,
      "has": 6803,
      "ejvin": 6804,
      "spelz": 6805,
      "klejt": 6806,
      "ntiagow": 6807,
      "fawlr": 6808,
      "vant": 6809,
      "klawn": 6810,
      "howv": 6811,
      "svnsajn": 6812,
      "ltow": 6813,
      "hvlk": 6814,
      "eswotr": 6815,
      "ilejts": 6816,
      "ejng": 6817,
      "nseptsu": 6818,
      "tibr": 6819,
      "wejvl": 6820,
      "iskejpin": 6821,
      "ntsejndzd": 6822,
      "invejdr": 6823,
      "ivalvz": 6824,
      "debj": 6825,
      "kemik": 6826,
      "tows": 6827,
      "fikin": 6828,
      "eniwej": 6829,
      "kvps": 6830,
      "kwel": 6831,
      "nfild": 6832,
      "dzepr": 6833,
      "wajs": 6834,
      "iptsr": 6835,
      "aku": 6836,
      "nawns": 6837,
      "bajl": 6838,
      "klk": 6839,
      "klifr": 6840,
      "kenzi": 6841,
      "owliviej": 6842,
      "dzejd": 6843,
      "amw": 6844,
      "welmd": 6845,
      "kimi": 6846,
      "setb": 6847,
      "vajzin": 6848,
      "egzits": 6849,
      "tentik": 6850,
      "slav": 6851,
      "taf": 6852,
      "bajdzan": 6853,
      "edik": 6854,
      "minajdz": 6855,
      "tinkr": 6856,
      "hedkor": 6857,
      "estowni": 6858,
      "kejsmejts": 6859,
      "liown": 6860,
      "kowlr": 6861,
      "aspekts": 6862,
      "slik": 6863,
      "blajdzd": 6864,
      "nsum": 6865,
      "nsiliejs": 6866,
      "gowd": 6867,
      "nektid": 6868,
      "beng": 6869,
      "ngar": 6870,
      "tuz": 6871,
      "lups": 6872,
      "gustaf": 6873,
      "nkvmfr": 6874,
      "vejtin": 6875,
      "ojtr": 6876,
      "lumin": 6877,
      "nadu": 6878,
      "owdzen": 6879,
      "dzudisier": 6880,
      "etin": 6881,
      "ignr": 6882,
      "mjuzm": 6883,
      "bowlstr": 6884,
      "fn": 6885,
      "owmis": 6886,
      "owbis": 6887,
      "dziam": 6888,
      "kwizin": 6889,
      "pigz": 6890,
      "nski": 6891,
      "sajtejs": 6892,
      "asiti": 6893,
      "sh": 6894,
      "ajnin": 6895,
      "idejs": 6896,
      "tejvi": 6897,
      "bvnts": 6898,
      "baksr": 6899,
      "zimbabwej": 6900,
      "amr": 6901,
      "awli": 6902,
      "itejnz": 6903,
      "ejlud": 6904,
      "indef": 6905,
      "tz": 6906,
      "vvd": 6907,
      "ntent": 6908,
      "bihej": 6909,
      "bojl": 6910,
      "mfet": 6911,
      "gim": 6912,
      "sklr": 6913,
      "wilmint": 6914,
      "vndifitid": 6915,
      "kajli": 6916,
      "fvk": 6917,
      "lwr": 6918,
      "tsak": 6919,
      "tsesr": 6920,
      "etski": 6921,
      "tsowl": 6922,
      "klown": 6923,
      "husejn": 6924,
      "kanaj": 6925,
      "mvnkiz": 6926,
      "kidzin": 6927,
      "tvl": 6928,
      "nigowsi": 6929,
      "idli": 6930,
      "najnti": 6931,
      "endzr": 6932,
      "nots": 6933,
      "fidzi": 6934,
      "towj": 6935,
      "dalz": 6936,
      "isajsli": 6937,
      "smajl": 6938,
      "tuzdi": 6939,
      "sajdr": 6940,
      "hawsr": 6941,
      "lwajn": 6942,
      "nost": 6943,
      "owsow": 6944,
      "dejvi": 6945,
      "bikini": 6946,
      "uft": 6947,
      "inbr": 6948,
      "waf": 6949,
      "kowmz": 6950,
      "tenz": 6951,
      "nitowb": 6952,
      "afi": 6953,
      "beni": 6954,
      "owps": 6955,
      "awzr": 6956,
      "howgan": 6957,
      "skipr": 6958,
      "namikli": 6959,
      "netikli": 6960,
      "bses": 6961,
      "hvmb": 6962,
      "mut": 6963,
      "lejsi": 6964,
      "kajt": 6965,
      "emps": 6966,
      "igez": 6967,
      "sliv": 6968,
      "plutow": 6969,
      "gab": 6970,
      "ndor": 6971,
      "disgr": 6972,
      "ownj": 6973,
      "owkinaw": 6974,
      "inog": 6975,
      "bajts": 6976,
      "halik": 6977,
      "ajdilz": 6978,
      "depts": 6979,
      "ustr": 6980,
      "tsev": 6981,
      "owls": 6982,
      "akwr": 6983,
      "pinow": 6984,
      "igzempl": 6985,
      "lw": 6986,
      "osr": 6987,
      "zint": 6988,
      "vtgr": 6989,
      "owlg": 6990,
      "baliwud": 6991,
      "inogjr": 6992,
      "hbow": 6993,
      "stajld": 6994,
      "splitin": 6995,
      "limpik": 6996,
      "iksajtm": 6997,
      "lizin": 6998,
      "tilm": 6999,
      "plajr": 7000,
      "ksidin": 7001,
      "naktr": 7002,
      "hunt": 7003,
      "enib": 7004,
      "landz": 7005,
      "fjudz": 7006,
      "nvnsiejs": 7007,
      "vejpr": 7008,
      "stint": 7009,
      "bidin": 7010,
      "pleks": 7011,
      "tajzr": 7012,
      "kisin": 7013,
      "dzvmps": 7014,
      "juf": 7015,
      "higinz": 7016,
      "svmhaw": 7017,
      "lot": 7018,
      "kvmbajnz": 7019,
      "agment": 7020,
      "finisiz": 7021,
      "hold": 7022,
      "nbi": 7023,
      "inhaws": 7024,
      "nukvmr": 7025,
      "towlz": 7026,
      "nvinsiz": 7027,
      "kdz": 7028,
      "kelr": 7029,
      "ptajzd": 7030,
      "ubin": 7031,
      "tsv": 7032,
      "lidi": 7033,
      "disint": 7034,
      "lajflon": 7035,
      "stajp": 7036,
      "ntsajziz": 7037,
      "kagnitiv": 7038,
      "hek": 7039,
      "ejliz": 7040,
      "ndel": 7041,
      "ikaw": 7042,
      "nia": 7043,
      "difjuz": 7044,
      "slipr": 7045,
      "wajldr": 7046,
      "dajk": 7047,
      "felps": 7048,
      "mbor": 7049,
      "mojl": 7050,
      "ntsr": 7051,
      "vam": 7052,
      "nspikju": 7053,
      "nsild": 7054,
      "epstin": 7055,
      "inklajnd": 7056,
      "kajsr": 7057,
      "kowz": 7058,
      "wedz": 7059,
      "subr": 7060,
      "kjubr": 7061,
      "ispandin": 7062,
      "kikof": 7063,
      "bdul": 7064,
      "bsest": 7065,
      "goj": 7066,
      "dzajr": 7067,
      "likr": 7068,
      "kansor": 7069,
      "fliks": 7070,
      "kazmik": 7071,
      "hastidz": 7072,
      "vati": 7073,
      "hidr": 7074,
      "ojstr": 7075,
      "nkajnd": 7076,
      "bowk": 7077,
      "hjur": 7078,
      "dipowzd": 7079,
      "vnj": 7080,
      "pandr": 7081,
      "taka": 7082,
      "bedfr": 7083,
      "lingwi": 7084,
      "twej": 7085,
      "owbz": 7086,
      "ikww": 7087,
      "pvblisajzd": 7088,
      "swamp": 7089,
      "inwr": 7090,
      "jusr": 7091,
      "tisjuz": 7092,
      "tejnr": 7093,
      "kwejkr": 7094,
      "fp": 7095,
      "jaw": 7096,
      "wolr": 7097,
      "miln": 7098,
      "hiler": 7099,
      "vidzd": 7100,
      "ditejnd": 7101,
      "dud": 7102,
      "ftajm": 7103,
      "eksplojtejs": 7104,
      "wesli": 7105,
      "olz": 7106,
      "disendin": 7107,
      "fad": 7108,
      "belf": 7109,
      "pulm": 7110,
      "gez": 7111,
      "iit": 7112,
      "owmar": 7113,
      "ntiv": 7114,
      "ziv": 7115,
      "implajz": 7116,
      "piksar": 7117,
      "pvlp": 7118,
      "dwik": 7119,
      "ui": 7120,
      "dini": 7121,
      "ikwestin": 7122,
      "budiz": 7123,
      "bawnt": 7124,
      "fw": 7125,
      "hajkin": 7126,
      "dzvstm": 7127,
      "mks": 7128,
      "tsis": 7129,
      "ekwi": 7130,
      "utm": 7131,
      "spendz": 7132,
      "plejg": 7133,
      "kum": 7134,
      "nhor": 7135,
      "ejsist": 7136,
      "ksest": 7137,
      "iksentr": 7138,
      "minik": 7139,
      "itisajz": 7140,
      "tatinh": 7141,
      "mowtifs": 7142,
      "ezd": 7143,
      "iw": 7144,
      "ekinr": 7145,
      "emplojz": 7146,
      "daptin": 7147,
      "fajnz": 7148,
      "asesr": 7149,
      "tvg": 7150,
      "lifor": 7151,
      "fajsiz": 7152,
      "filhar": 7153,
      "infin": 7154,
      "ajlin": 7155,
      "wejvr": 7156,
      "lesnar": 7157,
      "eliz": 7158,
      "awlin": 7159,
      "dubaj": 7160,
      "hun": 7161,
      "sajb": 7162,
      "jowsi": 7163,
      "zuki": 7164,
      "zambi": 7165,
      "skejp": 7166,
      "agi": 7167,
      "influenz": 7168,
      "ldr": 7169,
      "tsejni": 7170,
      "juni": 7171,
      "mvskj": 7172,
      "nvts": 7173,
      "umi": 7174,
      "plvndr": 7175,
      "ipk": 7176,
      "sajgan": 7177,
      "mitik": 7178,
      "towli": 7179,
      "zowal": 7180,
      "lidow": 7181,
      "elmz": 7182,
      "vajdr": 7183,
      "ntibadiz": 7184,
      "switsin": 7185,
      "powlianik": 7186,
      "bp": 7187,
      "glr": 7188,
      "floz": 7189,
      "demowz": 7190,
      "ikos": 7191,
      "pejr": 7192,
      "impendin": 7193,
      "simplis": 7194,
      "lvs": 7195,
      "aptr": 7196,
      "kinsip": 7197,
      "siver": 7198,
      "svbplat": 7199,
      "pazit": 7200,
      "owvani": 7201,
      "jowkow": 7202,
      "psiz": 7203,
      "sifr": 7204,
      "nsajnd": 7205,
      "ejvow": 7206,
      "tapin": 7207,
      "gandi": 7208,
      "insists": 7209,
      "atowz": 7210,
      "lef": 7211,
      "ifektsr": 7212,
      "bvkinh": 7213,
      "jen": 7214,
      "udr": 7215,
      "diti": 7216,
      "lejl": 7217,
      "buli": 7218,
      "teknis": 7219,
      "silvestr": 7220,
      "psbr": 7221,
      "lajnb": 7222,
      "kikin": 7223,
      "aldow": 7224,
      "tsvn": 7225,
      "silinz": 7226,
      "endl": 7227,
      "gowsts": 7228,
      "palist": 7229,
      "wudid": 7230,
      "ilowkejs": 7231,
      "fizisist": 7232,
      "lvdwig": 7233,
      "unj": 7234,
      "wowld": 7235,
      "ndslajdz": 7236,
      "awtidziz": 7237,
      "ilajin": 7238,
      "sedz": 7239,
      "disajp": 7240,
      "kowtow": 7241,
      "smir": 7242,
      "ozwold": 7243,
      "danki": 7244,
      "dzenk": 7245,
      "tkwejks": 7246,
      "wigz": 7247,
      "wilbr": 7248,
      "ozbor": 7249,
      "sawv": 7250,
      "pelowt": 7251,
      "lipowli": 7252,
      "enzow": 7253,
      "spvndz": 7254,
      "ptejnd": 7255,
      "plejgd": 7256,
      "mownt": 7257,
      "loft": 7258,
      "kalin": 7259,
      "mpvlsr": 7260,
      "sajbir": 7261,
      "fajnm": 7262,
      "dzowhr": 7263,
      "avendzr": 7264,
      "swalow": 7265,
      "kluz": 7266,
      "sumz": 7267,
      "kvminz": 7268,
      "pitsiz": 7269,
      "soltid": 7270,
      "dzvtl": 7271,
      "vinj": 7272,
      "pastsr": 7273,
      "anst": 7274,
      "kapid": 7275,
      "najd": 7276,
      "twik": 7277,
      "uinz": 7278,
      "ivejlin": 7279,
      "listinz": 7280,
      "bulz": 7281,
      "istanbul": 7282,
      "staks": 7283,
      "disgvst": 7284,
      "hejd": 7285,
      "kmer": 7286,
      "finr": 7287,
      "dejtajm": 7288,
      "andhajm": 7289,
      "wudr": 7290,
      "zowdi": 7291,
      "kalid": 7292,
      "istli": 7293,
      "gamkjub": 7294,
      "witskr": 7295,
      "dvndr": 7296,
      "instejtid": 7297,
      "dwelin": 7298,
      "mestr": 7299,
      "idzwotr": 7300,
      "ajmejts": 7301,
      "owkar": 7302,
      "ensik": 7303,
      "timb": 7304,
      "ij": 7305,
      "juki": 7306,
      "mpeld": 7307,
      "blowin": 7308,
      "spowkspr": 7309,
      "mwej": 7310,
      "nowwer": 7311,
      "kowmow": 7312,
      "indifr": 7313,
      "kstejdz": 7314,
      "kanflu": 7315,
      "sizin": 7316,
      "weld": 7317,
      "bigininz": 7318,
      "iski": 7319,
      "ikskr": 7320,
      "kazwej": 7321,
      "diplitid": 7322,
      "tkvmin": 7323,
      "ajan": 7324,
      "simfanik": 7325,
      "stakr": 7326,
      "ikwejtr": 7327,
      "nsajl": 7328,
      "ojlz": 7329,
      "idemps": 7330,
      "tejpr": 7331,
      "vptli": 7332,
      "df": 7333,
      "majd": 7334,
      "majli": 7335,
      "indvl": 7336,
      "slips": 7337,
      "eliks": 7338,
      "spidwej": 7339,
      "pledzd": 7340,
      "munz": 7341,
      "dikli": 7342,
      "debi": 7343,
      "skajskr": 7344,
      "ipvlst": 7345,
      "tsekt": 7346,
      "sind": 7347,
      "impowz": 7348,
      "hejli": 7349,
      "tsejkavski": 7350,
      "ftsm": 7351,
      "pment": 7352,
      "tg": 7353,
      "sentor": 7354,
      "slowvini": 7355,
      "taksis": 7356,
      "sults": 7357,
      "ivowkt": 7358,
      "bowni": 7359,
      "lend": 7360,
      "ekowz": 7361,
      "olbr": 7362,
      "katr": 7363,
      "vajsr": 7364,
      "dzowli": 7365,
      "polow": 7366,
      "flik": 7367,
      "nejl": 7368,
      "indzest": 7369,
      "skv": 7370,
      "numownj": 7371,
      "dziowvani": 7372,
      "smolpaks": 7373,
      "svnlajt": 7374,
      "endzojin": 7375,
      "dojl": 7376,
      "hw": 7377,
      "slr": 7378,
      "ejtsr": 7379,
      "ikwestr": 7380,
      "ntawn": 7381,
      "testid": 7382,
      "ikskluz": 7383,
      "fasfr": 7384,
      "ditejlin": 7385,
      "mojst": 7386,
      "snajpr": 7387,
      "nhawsr": 7388,
      "ejow": 7389,
      "tipt": 7390,
      "mafi": 7391,
      "nab": 7392,
      "idikj": 7393,
      "nfest": 7394,
      "sfaj": 7395,
      "nsor": 7396,
      "nsumin": 7397,
      "dvf": 7398,
      "fejnt": 7399,
      "tejkowvr": 7400,
      "ble": 7401,
      "kbet": 7402,
      "tsaw": 7403,
      "ledzr": 7404,
      "edzd": 7405,
      "nfjuzin": 7406,
      "dbr": 7407,
      "bimz": 7408,
      "owkem": 7409,
      "ekspow": 7410,
      "zepilin": 7411,
      "dajl": 7412,
      "nian": 7413,
      "vajkinz": 7414,
      "nksgivin": 7415,
      "kjuzin": 7416,
      "nlim": 7417,
      "izbr": 7418,
      "ivowl": 7419,
      "hupr": 7420,
      "majsor": 7421,
      "kowsts": 7422,
      "festiv": 7423,
      "diskowgr": 7424,
      "bap": 7425,
      "tvs": 7426,
      "ndiz": 7427,
      "ekel": 7428,
      "spinr": 7429,
      "awtlajnd": 7430,
      "helmz": 7431,
      "uzber": 7432,
      "zimr": 7433,
      "mplin": 7434,
      "ivn": 7435,
      "nos": 7436,
      "tvk": 7437,
      "awnli": 7438,
      "intendin": 7439,
      "lingwistik": 7440,
      "pts": 7441,
      "iktid": 7442,
      "speld": 7443,
      "kistr": 7444,
      "hezit": 7445,
      "iisu": 7446,
      "inwud": 7447,
      "invins": 7448,
      "dibi": 7449,
      "kats": 7450,
      "lvvli": 7451,
      "nelz": 7452,
      "owsim": 7453,
      "kwowts": 7454,
      "diktejt": 7455,
      "iowl": 7456,
      "mot": 7457,
      "inkvmin": 7458,
      "iztendr": 7459,
      "skejd": 7460,
      "mag": 7461,
      "malr": 7462,
      "svbtajt": 7463,
      "kstor": 7464,
      "sivli": 7465,
      "svbf": 7466,
      "hjubr": 7467,
      "dw": 7468,
      "geti": 7469,
      "mendin": 7470,
      "likejtid": 7471,
      "awtkr": 7472,
      "idzekts": 7473,
      "kanwej": 7474,
      "misk": 7475,
      "itiowpi": 7476,
      "badigar": 7477,
      "isipit": 7478,
      "ezdin": 7479,
      "uvi": 7480,
      "owviz": 7481,
      "awtfits": 7482,
      "bukt": 7483,
      "iksting": 7484,
      "nizin": 7485,
      "sejvinz": 7486,
      "ihistor": 7487,
      "nds": 7488,
      "stejl": 7489,
      "stejnin": 7490,
      "stvnin": 7491,
      "tswud": 7492,
      "eles": 7493,
      "nadz": 7494,
      "ltejs": 7495,
      "mikejl": 7496,
      "salvd": 7497,
      "howpf": 7498,
      "enits": 7499,
      "ejtfor": 7500,
      "hajlajtin": 7501,
      "ezn": 7502,
      "balz": 7503,
      "intimid": 7504,
      "dks": 7505,
      "nlak": 7506,
      "ptid": 7507,
      "sitik": 7508,
      "tisiz": 7509,
      "witi": 7510,
      "wasp": 7511,
      "entst": 7512,
      "kowdid": 7513,
      "pagr": 7514,
      "nami": 7515,
      "dzistik": 7516,
      "jejts": 7517,
      "timr": 7518,
      "ksownamik": 7519,
      "gvtr": 7520,
      "hipow": 7521,
      "edinz": 7522,
      "imad": 7523,
      "tekstajl": 7524,
      "stajlajzd": 7525,
      "filiejs": 7526,
      "dantej": 7527,
      "gp": 7528,
      "sadik": 7529,
      "ejvd": 7530,
      "bibi": 7531,
      "plod": 7532,
      "kami": 7533,
      "awndr": 7534,
      "koldr": 7535,
      "fliktin": 7536,
      "imidzin": 7537,
      "lvnz": 7538,
      "svk": 7539,
      "nzi": 7540,
      "dejni": 7541,
      "lajvli": 7542,
      "vejkejt": 7543,
      "mplejn": 7544,
      "tvls": 7545,
      "izajd": 7546,
      "skajr": 7547,
      "majzin": 7548,
      "seltiks": 7549,
      "filis": 7550,
      "lajfsp": 7551,
      "ndskejps": 7552,
      "disgajzd": 7553,
      "dzens": 7554,
      "manz": 7555,
      "silvi": 7556,
      "hitskak": 7557,
      "dowp": 7558,
      "wl": 7559,
      "vnkt": 7560,
      "klowziz": 7561,
      "nib": 7562,
      "huks": 7563,
      "dzistr": 7564,
      "isipi": 7565,
      "wilinn": 7566,
      "ksil": 7567,
      "sidik": 7568,
      "vig": 7569,
      "nvektiv": 7570,
      "alr": 7571,
      "owdzi": 7572,
      "dzulz": 7573,
      "ilidzit": 7574,
      "mjan": 7575,
      "neksejs": 7576,
      "owbitsuer": 7577,
      "asest": 7578,
      "dolt": 7579,
      "zhed": 7580,
      "ajvm": 7581,
      "stat": 7582,
      "dinowt": 7583,
      "mangowli": 7584,
      "sensitiviti": 7585,
      "antin": 7586,
      "mlr": 7587,
      "izowmiz": 7588,
      "ektsr": 7589,
      "ivir": 7590,
      "nzvr": 7591,
      "olf": 7592,
      "spak": 7593,
      "nidin": 7594,
      "felowz": 7595,
      "beliz": 7596,
      "lap": 7597,
      "stiz": 7598,
      "ansow": 7599,
      "vmin": 7600,
      "idzr": 7601,
      "imejs": 7602,
      "owlf": 7603,
      "gowmez": 7604,
      "vajdid": 7605,
      "wajthed": 7606,
      "fulfil": 7607,
      "slejtid": 7608,
      "stajlistik": 7609,
      "zef": 7610,
      "ivu": 7611,
      "bowlz": 7612,
      "kamplis": 7613,
      "kus": 7614,
      "plajst": 7615,
      "felowsip": 7616,
      "lojz": 7617,
      "indzeks": 7618,
      "slavik": 7619,
      "ask": 7620,
      "bejtin": 7621,
      "gus": 7622,
      "otiz": 7623,
      "endid": 7624,
      "belar": 7625,
      "ikin": 7626,
      "ktajs": 7627,
      "skip": 7628,
      "gvnmen": 7629,
      "isiejt": 7630,
      "pvnis": 7631,
      "insipli": 7632,
      "gs": 7633,
      "gvnd": 7634,
      "iinstejtid": 7635,
      "kfr": 7636,
      "kiks": 7637,
      "lal": 7638,
      "duli": 7639,
      "wilt": 7640,
      "slipt": 7641,
      "stiki": 7642,
      "wilhelms": 7643,
      "nukliaj": 7644,
      "bawnti": 7645,
      "klis": 7646,
      "ndowz": 7647,
      "ikkn": 7648,
      "stingr": 7649,
      "pvmpin": 7650,
      "fni": 7651,
      "fojl": 7652,
      "ksaps": 7653,
      "invajts": 7654,
      "ltitudz": 7655,
      "nka": 7656,
      "enklowzr": 7657,
      "mejli": 7658,
      "igor": 7659,
      "ntiak": 7660,
      "gathaws": 7661,
      "stimd": 7662,
      "nigowsiejtin": 7663,
      "towjowt": 7664,
      "sbi": 7665,
      "wowv": 7666,
      "mpjutin": 7667,
      "lowsis": 7668,
      "onhowld": 7669,
      "plejboj": 7670,
      "palig": 7671,
      "stejtsm": 7672,
      "dzinowm": 7673,
      "kvlvr": 7674,
      "salvin": 7675,
      "pidowd": 7676,
      "halowwej": 7677,
      "smi": 7678,
      "ndli": 7679,
      "awzd": 7680,
      "plejtin": 7681,
      "awtluk": 7682,
      "miflin": 7683,
      "kanik": 7684,
      "milwol": 7685,
      "nkli": 7686,
      "hokinz": 7687,
      "inflvks": 7688,
      "vft": 7689,
      "inmejts": 7690,
      "digin": 7691,
      "vnkejtid": 7692,
      "kani": 7693,
      "bvngi": 7694,
      "stefan": 7695,
      "uem": 7696,
      "julisiz": 7697,
      "ltn": 7698,
      "hedid": 7699,
      "tawns": 7700,
      "gdp": 7701,
      "iseptr": 7702,
      "uematsu": 7703,
      "iisud": 7704,
      "nfliktin": 7705,
      "ajsow": 7706,
      "tsaj": 7707,
      "ntempt": 7708,
      "slim": 7709,
      "ejdiowhed": 7710,
      "gejor": 7711,
      "majlstown": 7712,
      "miniser": 7713,
      "mendz": 7714,
      "dzektr": 7715,
      "lajzr": 7716,
      "klen": 7717,
      "hajmr": 7718,
      "vintidz": 7719,
      "inventr": 7720,
      "najtklvb": 7721,
      "towg": 7722,
      "sof": 7723,
      "vlstr": 7724,
      "dani": 7725,
      "hvnts": 7726,
      "jelowstown": 7727,
      "stelt": 7728,
      "bdowm": 7729,
      "slown": 7730,
      "judz": 7731,
      "ivejld": 7732,
      "natinh": 7733,
      "invil": 7734,
      "ntisiti": 7735,
      "densli": 7736,
      "dajt": 7737,
      "hvg": 7738,
      "wejlin": 7739,
      "juneskow": 7740,
      "owdajn": 7741,
      "dejmi": 7742,
      "twor": 7743,
      "juan": 7744,
      "disgajz": 7745,
      "invejdin": 7746,
      "witm": 7747,
      "kwoj": 7748,
      "endzojz": 7749,
      "splintr": 7750,
      "bvks": 7751,
      "mind": 7752,
      "ofset": 7753,
      "badr": 7754,
      "sand": 7755,
      "gejtzhed": 7756,
      "svtawt": 7757,
      "owdin": 7758,
      "liejz": 7759,
      "kultar": 7760,
      "fd": 7761,
      "tsajl": 7762,
      "wadi": 7763,
      "wajndin": 7764,
      "hajin": 7765,
      "bilvvd": 7766,
      "mudi": 7767,
      "divajdin": 7768,
      "pvnist": 7769,
      "afik": 7770,
      "tanik": 7771,
      "nspajr": 7772,
      "ptin": 7773,
      "owzi": 7774,
      "kowsow": 7775,
      "deni": 7776,
      "tajtli": 7777,
      "dzistiks": 7778,
      "lmejs": 7779,
      "env": 7780,
      "luzr": 7781,
      "amad": 7782,
      "sipbildin": 7783,
      "jelowis": 7784,
      "mvk": 7785,
      "isejs": 7786,
      "mod": 7787,
      "enimor": 7788,
      "lowdid": 7789,
      "tizr": 7790,
      "kaljr": 7791,
      "heltker": 7792,
      "fowldin": 7793,
      "vivi": 7794,
      "kantin": 7795,
      "skit": 7796,
      "entitiz": 7797,
      "kanow": 7798,
      "powdi": 7799,
      "ispekts": 7800,
      "kawntdawn": 7801,
      "pitn": 7802,
      "snawt": 7803,
      "mowzli": 7804,
      "ilowdi": 7805,
      "uni": 7806,
      "wejks": 7807,
      "eptajlz": 7808,
      "owmeg": 7809,
      "ejkvp": 7810,
      "tsesnvt": 7811,
      "fokl": 7812,
      "glej": 7813,
      "kmr": 7814,
      "hilt": 7815,
      "bwa": 7816,
      "bian": 7817,
      "londr": 7818,
      "nastr": 7819,
      "kawbojz": 7820,
      "fks": 7821,
      "odz": 7822,
      "nton": 7823,
      "kag": 7824,
      "awnis": 7825,
      "kejatik": 7826,
      "vptin": 7827,
      "asow": 7828,
      "blejz": 7829,
      "gojn": 7830,
      "mlz": 7831,
      "ntiks": 7832,
      "tunin": 7833,
      "skir": 7834,
      "kindr": 7835,
      "fink": 7836,
      "mjusik": 7837,
      "dzajlz": 7838,
      "gubr": 7839,
      "destind": 7840,
      "nvk": 7841,
      "pdejts": 7842,
      "tedi": 7843,
      "owmer": 7844,
      "dikl": 7845,
      "wiginz": 7846,
      "gnastik": 7847,
      "npawr": 7848,
      "uow": 7849,
      "istwud": 7850,
      "ipitin": 7851,
      "sintisajzd": 7852,
      "medi": 7853,
      "ntows": 7854,
      "owter": 7855,
      "wajtis": 7856,
      "vkst": 7857,
      "benz": 7858,
      "kostin": 7859,
      "sajklanik": 7860,
      "kofski": 7861,
      "lvst": 7862,
      "owmow": 7863,
      "majlin": 7864,
      "vizejs": 7865,
      "hedlajn": 7866,
      "blivi": 7867,
      "folts": 7868,
      "kukt": 7869,
      "ikawntid": 7870,
      "ntim": 7871,
      "sises": 7872,
      "skits": 7873,
      "mingow": 7874,
      "igis": 7875,
      "flaks": 7876,
      "lizb": 7877,
      "zibr": 7878,
      "efjudzi": 7879,
      "habz": 7880,
      "inkamp": 7881,
      "dzeli": 7882,
      "tilt": 7883,
      "svtr": 7884,
      "spajnz": 7885,
      "lvi": 7886,
      "kowinsajd": 7887,
      "dzvstis": 7888,
      "kastel": 7889,
      "wb": 7890,
      "tselow": 7891,
      "dzwr": 7892,
      "ejtor": 7893,
      "edn": 7894,
      "niel": 7895,
      "sudow": 7896,
      "fejn": 7897,
      "bajnd": 7898,
      "ibz": 7899,
      "tsini": 7900,
      "bdv": 7901,
      "tsajr": 7902,
      "vnkanst": 7903,
      "nowmur": 7904,
      "hav": 7905,
      "belts": 7906,
      "antwan": 7907,
      "snik": 7908,
      "ndheld": 7909,
      "evid": 7910,
      "indik": 7911,
      "kantests": 7912,
      "tind": 7913,
      "danil": 7914,
      "flowd": 7915,
      "lakhid": 7916,
      "login": 7917,
      "nakawt": 7918,
      "anstejdz": 7919,
      "vnajdent": 7920,
      "dzunow": 7921,
      "lakin": 7922,
      "tsuejs": 7923,
      "kml": 7924,
      "vejdr": 7925,
      "tvmb": 7926,
      "zksi": 7927,
      "owbats": 7928,
      "awtpowst": 7929,
      "metik": 7930,
      "hejwr": 7931,
      "lsbr": 7932,
      "psin": 7933,
      "nsmitr": 7934,
      "owtek": 7935,
      "plejnt": 7936,
      "kowkow": 7937,
      "demi": 7938,
      "nikilowdi": 7939,
      "midwest": 7940,
      "gwajr": 7941,
      "kfor": 7942,
      "msajr": 7943,
      "himz": 7944,
      "liejzan": 7945,
      "idiskvvr": 7946,
      "ubr": 7947,
      "owspejs": 7948,
      "disentr": 7949,
      "plaw": 7950,
      "kowr": 7951,
      "nkvs": 7952,
      "adni": 7953,
      "kawboj": 7954,
      "wendi": 7955,
      "gejz": 7956,
      "olik": 7957,
      "sbor": 7958,
      "entuzi": 7959,
      "egej": 7960,
      "nasr": 7961,
      "swipin": 7962,
      "difajnz": 7963,
      "kitin": 7964,
      "pinf": 7965,
      "tolr": 7966,
      "nsut": 7967,
      "ksents": 7968,
      "suez": 7969,
      "dzitr": 7970,
      "bvlb": 7971,
      "espi": 7972,
      "tuni": 7973,
      "awtlet": 7974,
      "nubor": 7975,
      "selm": 7976,
      "tsuts": 7977,
      "towdz": 7978,
      "festejs": 7979,
      "nstin": 7980,
      "juin": 7981,
      "dislajk": 7982,
      "tuniz": 7983,
      "hedlajnin": 7984,
      "awtsajdr": 7985,
      "dzenow": 7986,
      "ispandz": 7987,
      "kwowtejs": 7988,
      "tt": 7989,
      "kuld": 7990,
      "beki": 7991,
      "deb": 7992,
      "kup": 7993,
      "nhr": 7994,
      "intejk": 7995,
      "dimr": 7996,
      "istof": 7997,
      "vier": 7998,
      "tejtiv": 7999,
      "sikn": 8000,
      "folawt": 8001,
      "tsifli": 8002,
      "ons": 8003,
      "owdid": 8004,
      "dzaki": 8005,
      "skwid": 8006,
      "bolr": 8007,
      "silj": 8008,
      "ejkawt": 8009,
      "hamasaki": 8010,
      "mbust": 8011,
      "ajsi": 8012,
      "enst": 8013,
      "lejni": 8014,
      "nakin": 8015,
      "getizbr": 8016,
      "dsr": 8017,
      "uzd": 8018,
      "ajnow": 8019,
      "nset": 8020,
      "najsin": 8021,
      "powstwor": 8022,
      "powlk": 8023,
      "kimbr": 8024,
      "ganzal": 8025,
      "gik": 8026,
      "itsar": 8027,
      "nitr": 8028,
      "vptiv": 8029,
      "biznis": 8030,
      "bejdows": 8031,
      "kawt": 8032,
      "nialitik": 8033,
      "gajn": 8034,
      "wetr": 8035,
      "stakt": 8036,
      "sowk": 8037,
      "dejnd": 8038,
      "nifr": 8039,
      "owlaf": 8040,
      "alinz": 8041,
      "dinajin": 8042,
      "gejmspi": 8043,
      "kejik": 8044,
      "dowmejnz": 8045,
      "wuli": 8046,
      "inflejt": 8047,
      "skvlz": 8048,
      "njuzd": 8049,
      "ndb": 8050,
      "stvmp": 8051,
      "ektor": 8052,
      "simown": 8053,
      "fowl": 8054,
      "ndlor": 8055,
      "tsk": 8056,
      "just": 8057,
      "selfis": 8058,
      "kenzint": 8059,
      "astens": 8060,
      "mba": 8061,
      "zfild": 8062,
      "inowl": 8063,
      "ankor": 8064,
      "nsali": 8065,
      "igs": 8066,
      "teknow": 8067,
      "skali": 8068,
      "kowsowvow": 8069,
      "swinin": 8070,
      "vnf": 8071,
      "minejts": 8072,
      "mjuzin": 8073,
      "manm": 8074,
      "glustr": 8075,
      "lulu": 8076,
      "lutin": 8077,
      "papi": 8078,
      "ipswits": 8079,
      "lpez": 8080,
      "dzentr": 8081,
      "izentm": 8082,
      "lajklihud": 8083,
      "skowps": 8084,
      "fows": 8085,
      "mon": 8086,
      "zus": 8087,
      "owman": 8088,
      "simow": 8089,
      "vmbi": 8090,
      "olm": 8091,
      "gowldbr": 8092,
      "ndu": 8093,
      "tutsi": 8094,
      "spe": 8095,
      "ktawn": 8096,
      "etn": 8097,
      "impar": 8098,
      "meli": 8099,
      "njr": 8100,
      "vejnz": 8101,
      "dzajz": 8102,
      "eskr": 8103,
      "bajs": 8104,
      "midiow": 8105,
      "akwel": 8106,
      "bitiz": 8107,
      "intaks": 8108,
      "dowmz": 8109,
      "pim": 8110,
      "spig": 8111,
      "dubi": 8112,
      "apsi": 8113,
      "invejsiv": 8114,
      "klaws": 8115,
      "dzuvent": 8116,
      "hojst": 8117,
      "adzi": 8118,
      "bosiz": 8119,
      "gawt": 8120,
      "ihaws": 8121,
      "pvmps": 8122,
      "ajbir": 8123,
      "ilejn": 8124,
      "klaz": 8125,
      "kowbejn": 8126,
      "svbg": 8127,
      "fejr": 8128,
      "tajtejni": 8129,
      "livinstown": 8130,
      "flemis": 8131,
      "sambr": 8132,
      "dmitin": 8133,
      "zer": 8134,
      "huvr": 8135,
      "tejr": 8136,
      "blizr": 8137,
      "buklit": 8138,
      "gejvar": 8139,
      "koni": 8140,
      "kofm": 8141,
      "fing": 8142,
      "fips": 8143,
      "kwil": 8144,
      "owsmit": 8145,
      "diskawnt": 8146,
      "blas": 8147,
      "ntibi": 8148,
      "penis": 8149,
      "klajv": 8150,
      "ajown": 8151,
      "ndes": 8152,
      "lowh": 8153,
      "labid": 8154,
      "iplen": 8155,
      "bdvks": 8156,
      "wejm": 8157,
      "awtm": 8158,
      "skulin": 8159,
      "nowd": 8160,
      "londz": 8161,
      "medowz": 8162,
      "ahim": 8163,
      "jestr": 8164,
      "lh": 8165,
      "mvt": 8166,
      "dug": 8167,
      "implajin": 8168,
      "makin": 8169,
      "fidr": 8170,
      "diklajnz": 8171,
      "klowi": 8172,
      "waw": 8173,
      "owsm": 8174,
      "owbow": 8175,
      "owats": 8176,
      "blesin": 8177,
      "tikr": 8178,
      "mowtor": 8179,
      "owvak": 8180,
      "tab": 8181,
      "wvl": 8182,
      "owilektr": 8183,
      "tsits": 8184,
      "howbar": 8185,
      "ikspowz": 8186,
      "negl": 8187,
      "indajtm": 8188,
      "spesifik": 8189,
      "fek": 8190,
      "hvvr": 8191,
      "indvks": 8192,
      "sints": 8193,
      "istgaw": 8194,
      "lunz": 8195,
      "sigizm": 8196,
      "iuzd": 8197,
      "eksplojts": 8198,
      "nikowlaj": 8199,
      "ntsu": 8200,
      "ajnfor": 8201,
      "liviejt": 8202,
      "biks": 8203,
      "hvmbr": 8204,
      "snu": 8205,
      "vaz": 8206,
      "ejpin": 8207,
      "enkawntr": 8208,
      "ign": 8209,
      "iptik": 8210,
      "stepin": 8211,
      "zesin": 8212,
      "sibli": 8213,
      "wad": 8214,
      "idzwej": 8215,
      "impowzin": 8216,
      "hedl": 8217,
      "kjun": 8218,
      "insident": 8219,
      "sowt": 8220,
      "klejn": 8221,
      "ipli": 8222,
      "wikendz": 8223,
      "aniklr": 8224,
      "ajuol": 8225,
      "ajj": 8226,
      "ipejtr": 8227,
      "sajfr": 8228,
      "powniz": 8229,
      "fledz": 8230,
      "kai": 8231,
      "ajtli": 8232,
      "sejg": 8233,
      "bejbiz": 8234,
      "nvejd": 8235,
      "ntiker": 8236,
      "jejvow": 8237,
      "kfk": 8238,
      "siwr": 8239,
      "wasin": 8240,
      "lajb": 8241,
      "nkm": 8242,
      "kwar": 8243,
      "fints": 8244,
      "hjumid": 8245,
      "nklejtsr": 8246,
      "dklif": 8247,
      "gof": 8248,
      "iitr": 8249,
      "sowtow": 8250,
      "zejt": 8251,
      "mejow": 8252,
      "smolvil": 8253,
      "sutawt": 8254,
      "dezm": 8255,
      "flut": 8256,
      "pektr": 8257,
      "tabr": 8258,
      "enkts": 8259,
      "aldi": 8260,
      "dvdz": 8261,
      "jusl": 8262,
      "ikspowzin": 8263,
      "svbk": 8264,
      "kvmpnim": 8265,
      "svnr": 8266,
      "dali": 8267,
      "utinli": 8268,
      "tb": 8269,
      "teg": 8270,
      "sowbr": 8271,
      "lontsr": 8272,
      "nawnsiz": 8273,
      "sant": 8274,
      "alik": 8275,
      "gwin": 8276,
      "vedr": 8277,
      "sepin": 8278,
      "endawm": 8279,
      "koldwel": 8280,
      "tendiz": 8281,
      "nfowld": 8282,
      "zul": 8283,
      "olin": 8284,
      "skajz": 8285,
      "kownz": 8286,
      "kowkejn": 8287,
      "witl": 8288,
      "andivu": 8289,
      "wajldk": 8290,
      "devi": 8291,
      "wulfg": 8292,
      "disiluz": 8293,
      "tejmi": 8294,
      "ndotr": 8295,
      "ldin": 8296,
      "sunr": 8297,
      "lber": 8298,
      "oswits": 8299,
      "wejnr": 8300,
      "sepinwol": 8301,
      "iakj": 8302,
      "jem": 8303,
      "izal": 8304,
      "tibi": 8305,
      "midiowkr": 8306,
      "inlet": 8307,
      "eji": 8308,
      "izejs": 8309,
      "ntsin": 8310,
      "vpts": 8311,
      "vptsr": 8312,
      "insvl": 8313,
      "fudzi": 8314,
      "dmi": 8315,
      "glut": 8316,
      "vvn": 8317,
      "disembar": 8318,
      "mininf": 8319,
      "suskw": 8320,
      "ikspvls": 8321,
      "dajak": 8322,
      "tejkof": 8323,
      "ajdentitiz": 8324,
      "nfjus": 8325,
      "gadr": 8326,
      "zowi": 8327,
      "suskweh": 8328,
      "hektr": 8329,
      "flak": 8330,
      "lab": 8331,
      "templr": 8332,
      "sval": 8333,
      "bvgz": 8334,
      "umor": 8335,
      "owfiz": 8336,
      "stajm": 8337,
      "sibu": 8338,
      "igan": 8339,
      "mplejnin": 8340,
      "dvlthud": 8341,
      "tsenaj": 8342,
      "dwind": 8343,
      "edivel": 8344,
      "iktin": 8345,
      "wiski": 8346,
      "elbow": 8347,
      "dvajz": 8348,
      "nejzi": 8349,
      "difolt": 8350,
      "luzan": 8351,
      "fizial": 8352,
      "smitsowni": 8353,
      "iet": 8354,
      "ianow": 8355,
      "sgt": 8356,
      "dzvnk": 8357,
      "dejaj": 8358,
      "duz": 8359,
      "ledzin": 8360,
      "distingwisin": 8361,
      "dab": 8362,
      "kesi": 8363,
      "onwr": 8364,
      "ndzow": 8365,
      "dzuelr": 8366,
      "pamp": 8367,
      "gowni": 8368,
      "lvl": 8369,
      "mowts": 8370,
      "piknik": 8371,
      "hejdr": 8372,
      "find": 8373,
      "gawn": 8374,
      "vnimpr": 8375,
      "fajlin": 8376,
      "idzektin": 8377,
      "visi": 8378,
      "milfr": 8379,
      "pints": 8380,
      "skunr": 8381,
      "nwi": 8382,
      "kling": 8383,
      "sikor": 8384,
      "bowfr": 8385,
      "awtspowk": 8386,
      "eskjuz": 8387,
      "dilejin": 8388,
      "ejki": 8389,
      "dze": 8390,
      "ivajt": 8391,
      "wajnr": 8392,
      "owkli": 8393,
      "melin": 8394,
      "zilmur": 8395,
      "mvdi": 8396,
      "blesid": 8397,
      "lkvt": 8398,
      "mesr": 8399,
      "stowni": 8400,
      "udalf": 8401,
      "spun": 8402,
      "tinli": 8403,
      "tejpt": 8404,
      "sejni": 8405,
      "losuts": 8406,
      "tang": 8407,
      "ias": 8408,
      "tfild": 8409,
      "wowd": 8410,
      "idzojn": 8411,
      "plejf": 8412,
      "hjuit": 8413,
      "fvkin": 8414,
      "lkow": 8415,
      "oks": 8416,
      "twits": 8417,
      "tson": 8418,
      "tsetnik": 8419,
      "isbr": 8420,
      "svmz": 8421,
      "bejb": 8422,
      "dowbi": 8423,
      "ntibadi": 8424,
      "tfowli": 8425,
      "dju": 8426,
      "ldzi": 8427,
      "ndawt": 8428,
      "suv": 8429,
      "intendz": 8430,
      "kiti": 8431,
      "skvlptid": 8432,
      "dunz": 8433,
      "skejld": 8434,
      "filmfer": 8435,
      "findr": 8436,
      "sakin": 8437,
      "iowlz": 8438,
      "pun": 8439,
      "pusan": 8440,
      "fz": 8441,
      "jvnz": 8442,
      "ilm": 8443,
      "filt": 8444,
      "luidzi": 8445,
      "bini": 8446,
      "mejnlajn": 8447,
      "dzowdi": 8448,
      "hokr": 8449,
      "fowbi": 8450,
      "spandz": 8451,
      "biow": 8452,
      "sowkejst": 8453,
      "onts": 8454,
      "maha": 8455,
      "wilks": 8456,
      "festow": 8457,
      "hatspr": 8458,
      "dzezuit": 8459,
      "kidzd": 8460,
      "svv": 8461,
      "indzvnks": 8462,
      "apap": 8463,
      "laf": 8464,
      "hedm": 8465,
      "sajkik": 8466,
      "dzimnejzi": 8467,
      "feminiz": 8468,
      "bistowd": 8469,
      "nfesiz": 8470,
      "bwv": 8471,
      "vawd": 8472,
      "ndslajd": 8473,
      "nslejtr": 8474,
      "lownd": 8475,
      "aktr": 8476,
      "vpbit": 8477,
      "fiti": 8478,
      "bowst": 8479,
      "ankowz": 8480,
      "indzekt": 8481,
      "bg": 8482,
      "dwejn": 8483,
      "kvb": 8484,
      "tep": 8485,
      "stvmb": 8486,
      "imk": 8487,
      "ipil": 8488,
      "vtsi": 8489,
      "kamjun": 8490,
      "hejf": 8491,
      "tsimni": 8492,
      "lawr": 8493,
      "lhun": 8494,
      "owa": 8495,
      "mowham": 8496,
      "divaz": 8497,
      "smajd": 8498,
      "tektivz": 8499,
      "kstown": 8500,
      "pn": 8501,
      "tgr": 8502,
      "inkejp": 8503,
      "tsips": 8504,
      "wudstak": 8505,
      "helsin": 8506,
      "nejmsejk": 8507,
      "ngowl": 8508,
      "kowltr": 8509,
      "ajkanz": 8510,
      "tsetniks": 8511,
      "glin": 8512,
      "psajzd": 8513,
      "gowr": 8514,
      "bagd": 8515,
      "bug": 8516,
      "nisan": 8517,
      "sisfajr": 8518,
      "idizajn": 8519,
      "vuk": 8520,
      "ntwr": 8521,
      "imir": 8522,
      "kowb": 8523,
      "fajnajt": 8524,
      "kugr": 8525,
      "mjutin": 8526,
      "jows": 8527,
      "dzejm": 8528,
      "ditektivz": 8529,
      "ntejdz": 8530,
      "vnfejvr": 8531,
      "empow": 8532,
      "dui": 8533,
      "endinz": 8534,
      "owlag": 8535,
      "mikal": 8536,
      "nilj": 8537,
      "ejpeks": 8538,
      "vfk": 8539,
      "mvstejn": 8540,
      "leksis": 8541,
      "ekstsekr": 8542,
      "atu": 8543,
      "wk": 8544,
      "kafk": 8545,
      "klownz": 8546,
      "ivowk": 8547,
      "powstm": 8548,
      "gutsi": 8549,
      "hond": 8550,
      "tejtow": 8551,
      "mowzar": 8552,
      "nagasaki": 8553,
      "hown": 8554,
      "iun": 8555,
      "mul": 8556,
      "vend": 8557,
      "dzk": 8558,
      "dvktr": 8559,
      "kejti": 8560,
      "hedzhag": 8561,
      "fowlidz": 8562,
      "spajks": 8563,
      "mots": 8564,
      "blejzr": 8565,
      "dp": 8566,
      "iplajz": 8567,
      "ajsiz": 8568,
      "dzb": 8569,
      "dzvkst": 8570,
      "wivin": 8571,
      "awtk": 8572,
      "kwotr": 8573,
      "habi": 8574,
      "lvstr": 8575,
      "stemd": 8576,
      "dakt": 8577,
      "vak": 8578,
      "ndant": 8579,
      "sibor": 8580,
      "implaj": 8581,
      "lowkwi": 8582,
      "dzvstini": 8583,
      "kulidz": 8584,
      "luminasiti": 8585,
      "blit": 8586,
      "sledz": 8587,
      "sten": 8588,
      "ktm": 8589,
      "nigz": 8590,
      "iftin": 8591,
      "sutik": 8592,
      "difvnkt": 8593,
      "limf": 8594,
      "dawni": 8595,
      "blowz": 8596,
      "poni": 8597,
      "insigni": 8598,
      "owmr": 8599,
      "divin": 8600,
      "vnemplojd": 8601,
      "svmer": 8602,
      "tvnst": 8603,
      "lajsd": 8604,
      "snowfol": 8605,
      "ihens": 8606,
      "jon": 8607,
      "vat": 8608,
      "sownj": 8609,
      "spejst": 8610,
      "mimi": 8611,
      "idzhed": 8612,
      "istow": 8613,
      "sondr": 8614,
      "kwasi": 8615,
      "sembliz": 8616,
      "knalidzin": 8617,
      "pinfol": 8618,
      "bajowd": 8619,
      "sajtid": 8620,
      "pvf": 8621,
      "tski": 8622,
      "lipt": 8623,
      "lowdi": 8624,
      "stejtwajd": 8625,
      "lai": 8626,
      "kowldr": 8627,
      "dvltr": 8628,
      "kvtsnz": 8629,
      "kwents": 8630,
      "ikskjus": 8631,
      "mowhamed": 8632,
      "elgr": 8633,
      "lajdz": 8634,
      "amor": 8635,
      "minim": 8636,
      "difin": 8637,
      "adet": 8638,
      "salj": 8639,
      "svndejz": 8640,
      "megadet": 8641,
      "glvv": 8642,
      "ibu": 8643,
      "sntsez": 8644,
      "hisiv": 8645,
      "nspl": 8646,
      "itsiz": 8647,
      "ajtn": 8648,
      "ldik": 8649,
      "fajst": 8650,
      "wejvd": 8651,
      "akstar": 8652,
      "nsil": 8653,
      "sensiz": 8654,
      "flod": 8655,
      "pakr": 8656,
      "najting": 8657,
      "wajldfajr": 8658,
      "bawz": 8659,
      "leksiowz": 8660,
      "ilowkejt": 8661,
      "biznismen": 8662,
      "glitr": 8663,
      "stonts": 8664,
      "kabr": 8665,
      "pejsin": 8666,
      "spatlajt": 8667,
      "skedzulin": 8668,
      "tjuis": 8669,
      "petsu": 8670,
      "gwaj": 8671,
      "labiin": 8672,
      "sowsiow": 8673,
      "hedej": 8674,
      "wundin": 8675,
      "bvlkhedz": 8676,
      "hezbal": 8677,
      "bowsamp": 8678,
      "osinz": 8679,
      "uti": 8680,
      "vajowl": 8681,
      "fejbr": 8682,
      "madeld": 8683,
      "devr": 8684,
      "vsiz": 8685,
      "klind": 8686,
      "kowpr": 8687,
      "pandz": 8688,
      "medow": 8689,
      "kwad": 8690,
      "ajtselow": 8691,
      "andow": 8692,
      "gejns": 8693,
      "jahu": 8694,
      "igsmer": 8695,
      "gejni": 8696,
      "zejv": 8697,
      "empir": 8698,
      "mpow": 8699,
      "pikit": 8700,
      "dzipsi": 8701,
      "tawnshend": 8702,
      "gel": 8703,
      "gabr": 8704,
      "ajnr": 8705,
      "mpjut": 8706,
      "filmagr": 8707,
      "blvf": 8708,
      "helpr": 8709,
      "flip": 8710,
      "bvdi": 8711,
      "stakpor": 8712,
      "jildz": 8713,
      "ifajnr": 8714,
      "diktr": 8715,
      "kpa": 8716,
      "knil": 8717,
      "tists": 8718,
      "kanvikt": 8719,
      "flvks": 8720,
      "palimr": 8721,
      "bulit": 8722,
      "nawnsr": 8723,
      "gampr": 8724,
      "bawlt": 8725,
      "kozmal": 8726,
      "nhajm": 8727,
      "zaw": 8728,
      "amj": 8729,
      "vstin": 8730,
      "najk": 8731,
      "iunajt": 8732,
      "insistin": 8733,
      "difinbejkr": 8734,
      "dvmp": 8735,
      "mpir": 8736,
      "awtkvmz": 8737,
      "sui": 8738,
      "svmd": 8739,
      "flvkts": 8740,
      "fikejs": 8741,
      "vilr": 8742,
      "konr": 8743,
      "tanj": 8744,
      "titr": 8745,
      "sinistr": 8746,
      "nimr": 8747,
      "instal": 8748,
      "kemist": 8749,
      "iklejmd": 8750,
      "hz": 8751,
      "jaz": 8752,
      "linin": 8753,
      "dajvz": 8754,
      "nansens": 8755,
      "fasfejt": 8756,
      "gvs": 8757,
      "ober": 8758,
      "sta": 8759,
      "tsam": 8760,
      "spidi": 8761,
      "kafr": 8762,
      "biljr": 8763,
      "svmnr": 8764,
      "mensm": 8765,
      "vntm": 8766,
      "sajzmik": 8767,
      "lvmpur": 8768,
      "nsalidejt": 8769,
      "hkin": 8770,
      "inkan": 8771,
      "tibet": 8772,
      "wajnbr": 8773,
      "istsr": 8774,
      "fildid": 8775,
      "inver": 8776,
      "egzitin": 8777,
      "vndisklowzd": 8778,
      "slept": 8779,
      "vker": 8780,
      "vaks": 8781,
      "stigm": 8782,
      "dawnfol": 8783,
      "hejwud": 8784,
      "hontin": 8785,
      "bengali": 8786,
      "dajaklis": 8787,
      "gos": 8788,
      "dimitr": 8789,
      "numism": 8790,
      "kowvi": 8791,
      "sawtin": 8792,
      "powstpown": 8793,
      "awtset": 8794,
      "betli": 8795,
      "gont": 8796,
      "jag": 8797,
      "nlakt": 8798,
      "emow": 8799,
      "iflektiv": 8800,
      "ajnhar": 8801,
      "kwan": 8802,
      "sajdlajnd": 8803,
      "stajnr": 8804,
      "nital": 8805,
      "spektivz": 8806,
      "svalbr": 8807,
      "betlihem": 8808,
      "fektid": 8809,
      "lanz": 8810,
      "slawz": 8811,
      "dzap": 8812,
      "izvmps": 8813,
      "ensiz": 8814,
      "sinski": 8815,
      "skitow": 8816,
      "helpf": 8817,
      "tsift": 8818,
      "lfansow": 8819,
      "filipej": 8820,
      "dzentli": 8821,
      "indvldz": 8822,
      "najtingejl": 8823,
      "bjuzd": 8824,
      "leld": 8825,
      "skl": 8826,
      "owma": 8827,
      "steg": 8828,
      "ligr": 8829,
      "plejgr": 8830,
      "idvnd": 8831,
      "ipjutid": 8832,
      "lepsi": 8833,
      "klitr": 8834,
      "tstap": 8835,
      "blakbvstr": 8836,
      "viskawnt": 8837,
      "sowlowz": 8838,
      "uit": 8839,
      "indzm": 8840,
      "owkt": 8841,
      "natin": 8842,
      "listikli": 8843,
      "pablow": 8844,
      "vilin": 8845,
      "kjutin": 8846,
      "lektik": 8847,
      "isipr": 8848,
      "vplowdid": 8849,
      "fejts": 8850,
      "lvin": 8851,
      "sdz": 8852,
      "ntajr": 8853,
      "bibli": 8854,
      "mejdz": 8855,
      "lins": 8856,
      "nadi": 8857,
      "mawntejnir": 8858,
      "hvnitr": 8859,
      "lakst": 8860,
      "neptuni": 8861,
      "sensibiliti": 8862,
      "ndawtidli": 8863,
      "dav": 8864,
      "gmajr": 8865,
      "kvk": 8866,
      "pudz": 8867,
      "bidi": 8868,
      "sinf": 8869,
      "tikvltsr": 8870,
      "powstir": 8871,
      "anikli": 8872,
      "melr": 8873,
      "mownow": 8874,
      "foknr": 8875,
      "sibliis": 8876,
      "zejvjr": 8877,
      "had": 8878,
      "vntin": 8879,
      "iku": 8880,
      "dimi": 8881,
      "akim": 8882,
      "kowbolt": 8883,
      "dzuiz": 8884,
      "tejsts": 8885,
      "ladzd": 8886,
      "infest": 8887,
      "bojs": 8888,
      "hindzuiz": 8889,
      "ganzlez": 8890,
      "wowz": 8891,
      "izajdz": 8892,
      "musow": 8893,
      "telbr": 8894,
      "naner": 8895,
      "ikolin": 8896,
      "lvkj": 8897,
      "ntendid": 8898,
      "twejz": 8899,
      "ejhawnd": 8900,
      "ikupr": 8901,
      "endi": 8902,
      "ntseskow": 8903,
      "fejmd": 8904,
      "mjutid": 8905,
      "ditektr": 8906,
      "klakwajz": 8907,
      "owbidi": 8908,
      "gigz": 8909,
      "inb": 8910,
      "izbi": 8911,
      "eksts": 8912,
      "hist": 8913,
      "lowdzi": 8914,
      "iviejt": 8915,
      "uziz": 8916,
      "dipowz": 8917,
      "lenow": 8918,
      "svtklif": 8919,
      "zowik": 8920,
      "tidzikli": 8921,
      "amow": 8922,
      "blink": 8923,
      "fowz": 8924,
      "ob": 8925,
      "insajzr": 8926,
      "klowk": 8927,
      "wudwor": 8928,
      "eznr": 8929,
      "tajmd": 8930,
      "invajtin": 8931,
      "lawi": 8932,
      "iventf": 8933,
      "fulb": 8934,
      "veli": 8935,
      "tsitin": 8936,
      "difl": 8937,
      "etni": 8938,
      "ignajtid": 8939,
      "gowts": 8940,
      "sawndsk": 8941,
      "powlin": 8942,
      "mnejs": 8943,
      "ntos": 8944,
      "wajnstajn": 8945,
      "vinjr": 8946,
      "mand": 8947,
      "owdwejz": 8948,
      "edzin": 8949,
      "holiz": 8950,
      "alij": 8951,
      "kowldplej": 8952,
      "bekh": 8953,
      "sles": 8954,
      "inli": 8955,
      "ntsildr": 8956,
      "kili": 8957,
      "lmir": 8958,
      "gajg": 8959,
      "adzikli": 8960,
      "bdam": 8961,
      "dzig": 8962,
      "dzejz": 8963,
      "liptik": 8964,
      "anks": 8965,
      "iskow": 8966,
      "fajnin": 8967,
      "ofsis": 8968,
      "suni": 8969,
      "stuk": 8970,
      "dzimn": 8971,
      "bdud": 8972,
      "imajndr": 8973,
      "ensiejt": 8974,
      "lfvnks": 8975,
      "livaj": 8976,
      "sisr": 8977,
      "sajs": 8978,
      "sejkin": 8979,
      "iliptik": 8980,
      "belr": 8981,
      "vowkejs": 8982,
      "emptid": 8983,
      "jin": 8984,
      "stig": 8985,
      "bajowkem": 8986,
      "ksan": 8987,
      "klaks": 8988,
      "lejzi": 8989,
      "pati": 8990,
      "hedlajnz": 8991,
      "dawnr": 8992,
      "slejn": 8993,
      "bawns": 8994,
      "mowldejvi": 8995,
      "kjuljr": 8996,
      "igzosts": 8997,
      "gnu": 8998,
      "givr": 8999,
      "ht": 9000,
      "inse": 9001,
      "owgli": 9002,
      "lder": 9003,
      "wajli": 9004,
      "apiks": 9005,
      "milnr": 9006,
      "jutf": 9007,
      "najtli": 9008,
      "vojv": 9009,
      "bojlin": 9010,
      "mikr": 9011,
      "platin": 9012,
      "adin": 9013,
      "depr": 9014,
      "dendr": 9015,
      "mhaws": 9016,
      "vownj": 9017,
      "esowld": 9018,
      "awtfildr": 9019,
      "duks": 9020,
      "fajladz": 9021,
      "vpbr": 9022,
      "divojd": 9023,
      "fajnli": 9024,
      "adm": 9025,
      "nisin": 9026,
      "kliv": 9027,
      "spatnits": 9028,
      "fowbik": 9029,
      "vawz": 9030,
      "apl": 9031,
      "fe": 9032,
      "kpr": 9033,
      "nmr": 9034,
      "svr": 9035,
      "zvil": 9036,
      "spajz": 9037,
      "atiks": 9038,
      "bles": 9039,
      "temtejs": 9040,
      "nowtejs": 9041,
      "hatr": 9042,
      "howlst": 9043,
      "pajtan": 9044,
      "nplez": 9045,
      "penr": 9046,
      "entsi": 9047,
      "silt": 9048,
      "melow": 9049,
      "ikawnts": 9050,
      "hiks": 9051,
      "mef": 9052,
      "invvl": 9053,
      "stvnts": 9054,
      "wispr": 9055,
      "skju": 9056,
      "skwol": 9057,
      "tinik": 9058,
      "entsiejtid": 9059,
      "wajthol": 9060,
      "kuli": 9061,
      "vjupojnt": 9062,
      "powltr": 9063,
      "vukowvr": 9064,
      "vilinuv": 9065,
      "lmr": 9066,
      "nkali": 9067,
      "pw": 9068,
      "ejj": 9069,
      "tsjar": 9070,
      "ntsi": 9071,
      "nsisk": 9072,
      "evow": 9073,
      "kiev": 9074,
      "mblr": 9075,
      "swamps": 9076,
      "noti": 9077,
      "bajowdajvr": 9078,
      "pint": 9079,
      "tez": 9080,
      "insik": 9081,
      "ndikj": 9082,
      "owbej": 9083,
      "ilvstr": 9084,
      "ivel": 9085,
      "mowg": 9086,
      "kinzi": 9087,
      "midfild": 9088,
      "flitwud": 9089,
      "kwikr": 9090,
      "swiftli": 9091,
      "envojz": 9092,
      "nigzbr": 9093,
      "bendr": 9094,
      "bendin": 9095,
      "vejts": 9096,
      "zejn": 9097,
      "dzektin": 9098,
      "ejsf": 9099,
      "sajnaj": 9100,
      "ejlm": 9101,
      "welminli": 9102,
      "maks": 9103,
      "howmsted": 9104,
      "ledzis": 9105,
      "ebi": 9106,
      "fez": 9107,
      "stivi": 9108,
      "dzaw": 9109,
      "ipel": 9110,
      "batr": 9111,
      "bakr": 9112,
      "najvz": 9113,
      "implikejtid": 9114,
      "bizm": 9115,
      "kowlkat": 9116,
      "skilf": 9117,
      "tanak": 9118,
      "inisiejs": 9119,
      "dzudej": 9120,
      "asikjutid": 9121,
      "owj": 9122,
      "disfvnks": 9123,
      "nowdz": 9124,
      "sus": 9125,
      "ulti": 9126,
      "panti": 9127,
      "jusaf": 9128,
      "dzowkt": 9129,
      "bejtowv": 9130,
      "distinktli": 9131,
      "disidzu": 9132,
      "nofski": 9133,
      "vkl": 9134,
      "owmani": 9135,
      "ndzektsr": 9136,
      "ipir": 9137,
      "setvp": 9138,
      "iowts": 9139,
      "dakin": 9140,
      "gjudzr": 9141,
      "soltin": 9142,
      "jama": 9143,
      "igzemps": 9144,
      "sindikejtid": 9145,
      "najsinaw": 9146,
      "iem": 9147,
      "ztawn": 9148,
      "ikits": 9149,
      "witli": 9150,
      "wap": 9151,
      "nzlejts": 9152,
      "diso": 9153,
      "kakt": 9154,
      "ivejd": 9155,
      "lowwej": 9156,
      "ludid": 9157,
      "lod": 9158,
      "lamr": 9159,
      "ibeld": 9160,
      "nglsi": 9161,
      "dzowvi": 9162,
      "bos": 9163,
      "kif": 9164,
      "nawn": 9165,
      "ptist": 9166,
      "tvi": 9167,
      "estetiks": 9168,
      "vlsiv": 9169,
      "nejowmi": 9170,
      "tsum": 9171,
      "stapowl": 9172,
      "mestikli": 9173,
      "kostelow": 9174,
      "pistajm": 9175,
      "buldogz": 9176,
      "jumar": 9177,
      "misiv": 9178,
      "wajp": 9179,
      "hui": 9180,
      "tinez": 9181,
      "pasts": 9182,
      "bjusiv": 9183,
      "latinow": 9184,
      "ksidz": 9185,
      "npvblist": 9186,
      "npejd": 9187,
      "owvejs": 9188,
      "stvmps": 9189,
      "lajg": 9190,
      "mim": 9191,
      "nowbu": 9192,
      "epi": 9193,
      "pojnj": 9194,
      "dajmor": 9195,
      "aksajdz": 9196,
      "lakawt": 9197,
      "ejviejtr": 9198,
      "musowlini": 9199,
      "tvb": 9200,
      "tsa": 9201,
      "likin": 9202,
      "lajkin": 9203,
      "binow": 9204,
      "fib": 9205,
      "nekl": 9206,
      "kwinsi": 9207,
      "owvow": 9208,
      "nojdz": 9209,
      "dwelinz": 9210,
      "wotfr": 9211,
      "nikt": 9212,
      "ntst": 9213,
      "imuvz": 9214,
      "wilm": 9215,
      "bustr": 9216,
      "sejfgar": 9217,
      "alif": 9218,
      "insentiv": 9219,
      "gejmsr": 9220,
      "fiown": 9221,
      "stvft": 9222,
      "logd": 9223,
      "hvntint": 9224,
      "splend": 9225,
      "stejlmejt": 9226,
      "vendr": 9227,
      "dzing": 9228,
      "sigar": 9229,
      "plini": 9230,
      "winsp": 9231,
      "howpl": 9232,
      "baminz": 9233,
      "mowzejik": 9234,
      "bvldz": 9235,
      "osk": 9236,
      "inflikt": 9237,
      "gowldsmit": 9238,
      "kapj": 9239,
      "ostak": 9240,
      "dvnkr": 9241,
      "ktini": 9242,
      "wejvlent": 9243,
      "kwist": 9244,
      "inawn": 9245,
      "indus": 9246,
      "ajpt": 9247,
      "owtejtid": 9248,
      "tajf": 9249,
      "hul": 9250,
      "divawt": 9251,
      "masa": 9252,
      "pejvm": 9253,
      "miljer": 9254,
      "ajsem": 9255,
      "megami": 9256,
      "fizisists": 9257,
      "mboj": 9258,
      "dilis": 9259,
      "silik": 9260,
      "awti": 9261,
      "wipin": 9262,
      "wadiso": 9263,
      "wajpt": 9264,
      "dzestik": 9265,
      "damis": 9266,
      "dzudejiz": 9267,
      "iif": 9268,
      "kend": 9269,
      "utinz": 9270,
      "zejlj": 9271,
      "awndbr": 9272,
      "lajkn": 9273,
      "labstr": 9274,
      "witbi": 9275,
      "asti": 9276,
      "fvz": 9277,
      "inju": 9278,
      "ikejt": 9279,
      "enkwajr": 9280,
      "wipr": 9281,
      "dupant": 9282,
      "dinajz": 9283,
      "wilki": 9284,
      "endzi": 9285,
      "slifr": 9286,
      "diktiv": 9287,
      "antinow": 9288,
      "bdvktid": 9289,
      "tfowliow": 9290,
      "andzu": 9291,
      "fdzor": 9292,
      "glajn": 9293,
      "ensiejs": 9294,
      "emd": 9295,
      "ojdr": 9296,
      "filr": 9297,
      "dajow": 9298,
      "svbdzen": 9299,
      "fejb": 9300,
      "finisr": 9301,
      "osbr": 9302,
      "kusin": 9303,
      "sejlzm": 9304,
      "nojin": 9305,
      "dzemz": 9306,
      "ktajsd": 9307,
      "tsid": 9308,
      "sisi": 9309,
      "ojli": 9310,
      "ipits": 9311,
      "kejg": 9312,
      "middej": 9313,
      "tensej": 9314,
      "bentli": 9315,
      "imajndz": 9316,
      "bawndz": 9317,
      "kpul": 9318,
      "mawndz": 9319,
      "ved": 9320,
      "inj": 9321,
      "lifejt": 9322,
      "vinski": 9323,
      "selt": 9324,
      "kejzi": 9325,
      "hamz": 9326,
      "kukr": 9327,
      "ltzow": 9328,
      "hilbr": 9329,
      "nuzletr": 9330,
      "satgvn": 9331,
      "mantidz": 9332,
      "nimoj": 9333,
      "bvlkhed": 9334,
      "abinz": 9335,
      "kists": 9336,
      "stowks": 9337,
      "eskat": 9338,
      "spans": 9339,
      "imow": 9340,
      "kini": 9341,
      "dzib": 9342,
      "diktin": 9343,
      "silan": 9344,
      "blumz": 9345,
      "kvtlr": 9346,
      "ekspown": 9347,
      "lelin": 9348,
      "dzuliow": 9349,
      "daleks": 9350,
      "pentigan": 9351,
      "ejlizber": 9352,
      "fat": 9353,
      "insens": 9354,
      "nsajr": 9355,
      "nowtis": 9356,
      "bugi": 9357,
      "pejnz": 9358,
      "siml": 9359,
      "dawnhil": 9360,
      "lajfbowt": 9361,
      "nanik": 9362,
      "sajkaj": 9363,
      "owbatik": 9364,
      "dibiasi": 9365,
      "dihajdr": 9366,
      "ntajsem": 9367,
      "sivi": 9368,
      "hukr": 9369,
      "wudf": 9370,
      "levin": 9371,
      "najki": 9372,
      "septik": 9373,
      "dowmingow": 9374,
      "tlst": 9375,
      "inspektid": 9376,
      "pvnktsr": 9377,
      "butleg": 9378,
      "bowmont": 9379,
      "ged": 9380,
      "ian": 9381,
      "noz": 9382,
      "wowk": 9383,
      "ntip": 9384,
      "wasps": 9385,
      "itejk": 9386,
      "skajn": 9387,
      "sejli": 9388,
      "lensi": 9389,
      "eksper": 9390,
      "dawtid": 9391,
      "halidej": 9392,
      "vptempow": 9393,
      "jamatow": 9394,
      "hvfint": 9395,
      "gdz": 9396,
      "kig": 9397,
      "kbk": 9398,
      "tsib": 9399,
      "dib": 9400,
      "didi": 9401,
      "ntejz": 9402,
      "dispowzd": 9403,
      "plajt": 9404,
      "majm": 9405,
      "meng": 9406,
      "enslej": 9407,
      "palr": 9408,
      "avski": 9409,
      "pazn": 9410,
      "gilinh": 9411,
      "dzvdzin": 9412,
      "klems": 9413,
      "lowvatow": 9414,
      "ghi": 9415,
      "glvvz": 9416,
      "pks": 9417,
      "espa": 9418,
      "disem": 9419,
      "wini": 9420,
      "akiz": 9421,
      "owsak": 9422,
      "lajtwejt": 9423,
      "mejtow": 9424,
      "bvfr": 9425,
      "iinkar": 9426,
      "pulkow": 9427,
      "dojtsl": 9428,
      "ejngfindr": 9429,
      "vgr": 9430,
      "zowl": 9431,
      "liktin": 9432,
      "dismej": 9433,
      "disklowzd": 9434,
      "udu": 9435,
      "awtdejtid": 9436,
      "istim": 9437,
      "mowdzow": 9438,
      "juniter": 9439,
      "luvr": 9440,
      "majns": 9441,
      "vinin": 9442,
      "simbi": 9443,
      "infliktin": 9444,
      "kawz": 9445,
      "nani": 9446,
      "kowlvmbi": 9447,
      "hemr": 9448,
      "mitsubisi": 9449,
      "bvmb": 9450,
      "pejts": 9451,
      "titow": 9452,
      "bajtin": 9453,
      "nspes": 9454,
      "spek": 9455,
      "kabow": 9456,
      "mpj": 9457,
      "tejkow": 9458,
      "lonhor": 9459,
      "owseks": 9460,
      "wolpowl": 9461,
      "mjunj": 9462,
      "nojzi": 9463,
      "pelz": 9464,
      "vpsajd": 9465,
      "ispektf": 9466,
      "wasbr": 9467,
      "hotor": 9468,
      "nfit": 9469,
      "hister": 9470,
      "kaps": 9471,
      "tinr": 9472,
      "bilin": 9473,
      "dvp": 9474,
      "hedlajnd": 9475,
      "sour": 9476,
      "owmir": 9477,
      "pajnz": 9478,
      "slajdin": 9479,
      "skedzulz": 9480,
      "petn": 9481,
      "watkinz": 9482,
      "dowdow": 9483,
      "ejsk": 9484,
      "emani": 9485,
      "fajf": 9486,
      "vlm": 9487,
      "tejnz": 9488,
      "maskar": 9489,
      "agutsi": 9490,
      "ilizin": 9491,
      "benzowdi": 9492,
      "klintst": 9493,
      "mbiv": 9494,
      "map": 9495,
      "nawt": 9496,
      "tbjur": 9497,
      "minal": 9498,
      "agd": 9499,
      "diksi": 9500,
      "nisiz": 9501,
      "kliks": 9502,
      "bojld": 9503,
      "viki": 9504,
      "tstow": 9505,
      "mowtawn": 9506,
      "swap": 9507,
      "asm": 9508,
      "ajwitn": 9509,
      "katidziz": 9510,
      "ojal": 9511,
      "hedli": 9512,
      "blupr": 9513,
      "watsm": 9514,
      "tvnbr": 9515,
      "ilinkwist": 9516,
      "helsinki": 9517,
      "asu": 9518,
      "tgz": 9519,
      "owkow": 9520,
      "vnof": 9521,
      "nsajld": 9522,
      "nigowsiejs": 9523,
      "imbadid": 9524,
      "divajdz": 9525,
      "gowfr": 9526,
      "dowr": 9527,
      "dejzi": 9528,
      "dzvmpr": 9529,
      "iksplowdin": 9530,
      "askow": 9531,
      "kplejs": 9532,
      "enik": 9533,
      "disendz": 9534,
      "seg": 9535,
      "alk": 9536,
      "bilar": 9537,
      "menz": 9538,
      "melvil": 9539,
      "pbz": 9540,
      "kintajr": 9541,
      "dajnr": 9542,
      "kjulin": 9543,
      "gilkr": 9544,
      "klajmr": 9545,
      "sawvdr": 9546,
      "junikor": 9547,
      "tumstown": 9548,
      "bekr": 9549,
      "lgejt": 9550,
      "nof": 9551,
      "nbawm": 9552,
      "bajwej": 9553,
      "legr": 9554,
      "kwemani": 9555,
      "howmwr": 9556,
      "bestselr": 9557,
      "jutowpi": 9558,
      "nisejs": 9559,
      "delow": 9560,
      "tsinkwemani": 9561,
      "nojziz": 9562,
      "majziz": 9563,
      "slipkn": 9564,
      "spesifikejs": 9565,
      "gnizi": 9566,
      "owbejs": 9567,
      "izli": 9568,
      "diejtr": 9569,
      "dising": 9570,
      "dawnlowdid": 9571,
      "tsunami": 9572,
[...]
