{
  "version": "1.0",
  "truncation": null,
  "padding": null,
  "added_tokens": [
    {
      "id": 0,
      "content": "[UNK]",
      "single_word": false,
      "lstrip": false,
      "rstrip": false,
      "normalized": false,
      "special": true
    },
    {
      "id": 1,
      "content": "[CLS]",
      "single_word": false,
      "lstrip": false,
      "rstrip": false,
      "normalized": false,
      "special": true
    },
    {
      "id": 2,
      "content": "[SEP]",
      "single_word": false,
      "lstrip": false,
      "rstrip": false,
      "normalized": false,
      "special": true
    },
    {
      "id": 3,
      "content": "[PAD]",
      "single_word": false,
      "lstrip": false,
      "rstrip": false,
      "normalized": false,
      "special": true
    },
    {
      "id": 4,
      "content": "[MASK]",
      "single_word": false,
      "lstrip": false,
      "rstrip": false,
      "normalized": false,
      "special": true
    }
  ],
  "normalizer": {
    "type": "Sequence",
    "normalizers": [
      {
        "type": "NFD"
      },
      {
        "type": "Lowercase"
      },
      {
        "type": "StripAccents"
      }
    ]
  },
  "pre_tokenizer": {
    "type": "Whitespace"
  },
  "post_processor": {
    "type": "TemplateProcessing",
    "single": [
      {
        "SpecialToken": {
          "id": "[CLS]",
          "type_id": 0
        }
      },
      {
        "Sequence": {
          "id": "A",
          "type_id": 0
        }
      },
      {
        "SpecialToken": {
          "id": "[SEP]",
          "type_id": 0
        }
      }
    ],
    "pair": [
      {
        "SpecialToken": {
          "id": "[CLS]",
          "type_id": 0
        }
      },
      {
        "Sequence": {
          "id": "A",
          "type_id": 0
        }
      },
      {
        "SpecialToken": {
          "id": "[SEP]",
          "type_id": 0
        }
      },
      {
        "Sequence": {
          "id": "B",
          "type_id": 1
        }
      },
      {
        "SpecialToken": {
          "id": "[SEP]",
          "type_id": 1
        }
      }
    ],
    "special_tokens": {
      "[CLS]": {
        "id": "[CLS]",
        "ids": [
          1
        ],
        "tokens": [
          "[CLS]"
        ]
      },
      "[SEP]": {
        "id": "[SEP]",
        "ids": [
          2
        ],
        "tokens": [
          "[SEP]"
        ]
      }
    }
  },
  "decoder": null,
  "model": {
    "type": "BPE",
    "dropout": null,
    "unk_token": "[UNK]",
    "continuing_subword_prefix": null,
    "end_of_word_suffix": null,
    "fuse_unk": false,
    "byte_fallback": false,
    "ignore_merges": false,
    "vocab": {
      "[UNK]": 0,
      "[CLS]": 1,
      "[SEP]": 2,
      "[PAD]": 3,
      "[MASK]": 4,
      "!": 5,
      "\"": 6,
      "'": 7,
      ",": 8,
      ".": 9,
      "0": 10,
      "1": 11,
      "2": 12,
      "3": 13,
      "4": 14,
      "5": 15,
      "6": 16,
      "7": 17,
      "8": 18,
      "9": 19,
      ":": 20,
      ";": 21,
      "?": 22,
      "a": 23,
      "b": 24,
      "c": 25,
      "d": 26,
      "e": 27,
      "f": 28,
      "g": 29,
      "h": 30,
      "i": 31,
      "j": 32,
      "k": 33,
      "l": 34,
      "m": 35,
      "n": 36,
      "o": 37,
      "p": 38,
      "q": 39,
      "r": 40,
      "s": 41,
      "t": 42,
      "u": 43,
      "v": 44,
      "w": 45,
      "x": 46,
      "y": 47,
      "z": 48,
      "th": 49,
      "in": 50,
      "the": 51,
      "an": 52,
      "er": 53,
      "on": 54,
      "ed": 55,
      "re": 56,
      "at": 57,
      "en": 58,
      "or": 59,
      "st": 60,
      "al": 61,
      "ar": 62,
      "as": 63,
      "and": 64,
      "of": 65,
      "to": 66,
      "ing": 67,
      "is": 68,
      "es": 69,
      "it": 70,
      "ro": 71,
      "ic": 72,
      "ou": 73,
      "le": 74,
      "ion": 75,
      "ch": 76,
      "se": 77,
      "il": 78,
      "am": 79,
      "ent": 80,
      "ad": 81,
      "be": 82,
      "ac": 83,
      "co": 84,
      "de": 85,
      "for": 86,
      "ly": 87,
      "was": 88,
      "ve": 89,
      "ur": 90,
      "un": 91,
      "he": 92,
      "ir": 93,
      "lo": 94,
      "im": 95,
      "wh": 96,
      "ig": 97,
      "ver": 98,
      "ter": 99,
      "wi": 100,
      "con": 101,
      "ce": 102,
      "ay": 103,
      "ol": 104,
      "with": 105,
      "ag": 106,
      "id": 107,
      "us": 108,
      "ation": 109,
      "te": 110,
      "that": 111,
      "by": 112,
      "ct": 113,
      "no": 114,
      "su": 115,
      "ap": 116,
      "me": 117,
      "ri": 118,
      "ne": 119,
      "mo": 120,
      "we": 121,
      "li": 122,
      "pe": 123,
      "po": 124,
      "ut": 125,
      "sh": 126,
      "com": 127,
      "19": 128,
      "ain": 129,
      "so": 130,
      "pro": 131,
      "ab": 132,
      "ul": 133,
      "ere": 134,
      "res": 135,
      "pl": 136,
      "di": 137,
      "00": 138,
      "rom": 139,
      "ers": 140,
      "his": 141,
      "all": 142,
      "ge": 143,
      "tr": 144,
      "um": 145,
      "from": 146,
      "ther": 147,
      "fe": 148,
      "art": 149,
      "oun": 150,
      "ld": 151,
      "are": 152,
      "ate": 153,
      "cl": 154,
      "per": 155,
      "ke": 156,
      "man": 157,
      "ber": 158,
      "igh": 159,
      "ex": 160,
      "af": 161,
      "bo": 162,
      "si": 163,
      "ment": 164,
      "qu": 165,
      "ich": 166,
      "were": 167,
      "ill": 168,
      "ard": 169,
      "ts": 170,
      "ast": 171,
      "ho": 172,
      "ie": 173,
      "au": 174,
      "one": 175,
      "gh": 176,
      "ies": 177,
      "ll": 178,
      "ated": 179,
      "ame": 180,
      "ong": 181,
      "ity": 182,
      "av": 183,
      "end": 184,
      "ted": 185,
      "out": 186,
      "br": 187,
      "had": 188,
      "str": 189,
      "ess": 190,
      "our": 191,
      "wn": 192,
      "ack": 193,
      "ish": 194,
      "up": 195,
      "ear": 196,
      "wor": 197,
      "ant": 198,
      "which": 199,
      "ist": 200,
      "but": 201,
      "por": 202,
      "do": 203,
      "der": 204,
      "ip": 205,
      "ine": 206,
      "ive": 207,
      "ak": 208,
      "her": 209,
      "wo": 210,
      "ally": 211,
      "du": 212,
      "ave": 213,
      "op": 214,
      "act": 215,
      "cor": 216,
      "its": 217,
      "not": 218,
      "go": 219,
      "ary": 220,
      "pr": 221,
      "iv": 222,
      "fir": 223,
      "cr": 224,
      "em": 225,
      "low": 226,
      "tim": 227,
      "ser": 228,
      "20": 229,
      "gr": 230,
      "ian": 231,
      "this": 232,
      "bl": 233,
      "ud": 234,
      "ach": 235,
      "200": 236,
      "ia": 237,
      "mar": 238,
      "fo": 239,
      "age": 240,
      "ree": 241,
      "ight": 242,
      "aw": 243,
      "after": 244,
      "if": 245,
      "ould": 246,
      "first": 247,
      "new": 248,
      "od": 249,
      "ous": 250,
      "land": 251,
      "ial": 252,
      "part": 253,
      "other": 254,
      "their": 255,
      "who": 256,
      "att": 257,
      "ign": 258,
      "form": 259,
      "ass": 260,
      "min": 261,
      "ction": 262,
      "ition": 263,
      "ical": 264,
      "sp": 265,
      "el": 266,
      "also": 267,
      "pres": 268,
      "ater": 269,
      "ound": 270,
      "gu": 271,
      "she": 272,
      "ev": 273,
      "play": 274,
      "des": 275,
      "they": 276,
      "ph": 277,
      "comm": 278,
      "off": 279,
      "ck": 280,
      "two": 281,
      "ty": 282,
      "ure": 283,
      "pre": 284,
      "cre": 285,
      "nor": 286,
      "18": 287,
      "pos": 288,
      "ma": 289,
      "cont": 290,
      "cent": 291,
      "comp": 292,
      "have": 293,
      "dis": 294,
      "ans": 295,
      "over": 296,
      "rou": 297,
      "fin": 298,
      "ice": 299,
      "jo": 300,
      "air": 301,
      "has": 302,
      "ile": 303,
      "est": 304,
      "year": 305,
      "ence": 306,
      "inter": 307,
      "ance": 308,
      "uring": 309,
      "been": 310,
      "ace": 311,
      "ok": 312,
      "ough": 313,
      "mber": 314,
      "201": 315,
      "ren": 316,
      "ship": 317,
      "spe": 318,
      "tur": 319,
      "port": 320,
      "ite": 321,
      "time": 322,
      "fr": 323,
      "ved": 324,
      "ory": 325,
      "mon": 326,
      "can": 327,
      "ade": 328,
      "work": 329,
      "ten": 330,
      "sc": 331,
      "when": 332,
      "able": 333,
      "sion": 334,
      "par": 335,
      "ep": 336,
      "ding": 337,
      "gro": 338,
      "fer": 339,
      "incl": 340,
      "fl": 341,
      "ced": 342,
      "during": 343,
      "pt": 344,
      "eng": 345,
      "et": 346,
      "fil": 347,
      "sho": 348,
      "gen": 349,
      "ail": 350,
      "vi": 351,
      "vis": 352,
      "dr": 353,
      "way": 354,
      "would": 355,
      "into": 356,
      "war": 357,
      "him": 358,
      "oc": 359,
      "most": 360,
      "ations": 361,
      "more": 362,
      "col": 363,
      "om": 364,
      "iz": 365,
      "coun": 366,
      "sy": 367,
      "bu": 368,
      "car": 369,
      "son": 370,
      "char": 371,
      "main": 372,
      "fore": 373,
      "rough": 374,
      "some": 375,
      "ates": 376,
      "day": 377,
      "ces": 378,
      "bec": 379,
      "ased": 380,
      "ton": 381,
      "ase": 382,
      "bet": 383,
      "ited": 384,
      "ds": 385,
      "vie": 386,
      "amp": 387,
      "les": 388,
      "reg": 389,
      "ang": 390,
      "sing": 391,
      "film": 392,
      "while": 393,
      "ire": 394,
      "sou": 395,
      "ju": 396,
      "int": 397,
      "used": 398,
      "pu": 399,
      "ason": 400,
      "includ": 401,
      "game": 402,
      "med": 403,
      "ning": 404,
      "cted": 405,
      "fol": 406,
      "ot": 407,
      "under": 408,
      "though": 409,
      "gan": 410,
      "there": 411,
      "only": 412,
      "than": 413,
      "sa": 414,
      "ick": 415,
      "high": 416,
      "wr": 417,
      "ue": 418,
      "cess": 419,
      "west": 420,
      "ican": 421,
      "ors": 422,
      "ict": 423,
      "cond": 424,
      "sch": 425,
      "later": 426,
      "any": 427,
      "ger": 428,
      "song": 429,
      "mus": 430,
      "king": 431,
      "bro": 432,
      "produ": 433,
      "my": 434,
      "again": 435,
      "je": 436,
      "win": 437,
      "may": 438,
      "old": 439,
      "ble": 440,
      "mi": 441,
      "ions": 442,
      "amer": 443,
      "cap": 444,
      "ped": 445,
      "about": 446,
      "red": 447,
      "three": 448,
      "ween": 449,
      "ath": 450,
      "199": 451,
      "between": 452,
      "through": 453,
      "als": 454,
      "rele": 455,
      "pol": 456,
      "ating": 457,
      "publ": 458,
      "them": 459,
      "led": 460,
      "la": 461,
      "gre": 462,
      "recor": 463,
      "follow": 464,
      "tain": 465,
      "kno": 466,
      "ned": 467,
      "num": 468,
      "ss": 469,
      "ste": 470,
      "ational": 471,
      "ele": 472,
      "where": 473,
      "ra": 474,
      "lar": 475,
      "ry": 476,
      "10": 477,
      "ward": 478,
      "sub": 479,
      "ful": 480,
      "season": 481,
      "ef": 482,
      "mat": 483,
      "sur": 484,
      "cur": 485,
      "alb": 486,
      "four": 487,
      "world": 488,
      "view": 489,
      "men": 490,
      "sel": 491,
      "well": 492,
      "ics": 493,
      "spec": 494,
      "ting": 495,
      "stru": 496,
      "second": 497,
      "north": 498,
      "ident": 499,
      "set": 500,
      "before": 501,
      "back": 502,
      "io": 503,
      "rel": 504,
      "team": 505,
      "000": 506,
      "ames": 507,
      "made": 508,
      "und": 509,
      "buil": 510,
      "ters": 511,
      "writ": 512,
      "ular": 513,
      "mu": 514,
      "then": 515,
      "loc": 516,
      "many": 517,
      "call": 518,
      "such": 519,
      "mer": 520,
      "ange": 521,
      "ci": 522,
      "ank": 523,
      "album": 524,
      "ann": 525,
      "cer": 526,
      "17": 527,
      "lin": 528,
      "ered": 529,
      "sup": 530,
      "tri": 531,
      "tem": 532,
      "appe": 533,
      "national": 534,
      "sever": 535,
      "ished": 536,
      "gener": 537,
      "vers": 538,
      "years": 539,
      "very": 540,
      "tro": 541,
      "mb": 542,
      "15": 543,
      "state": 544,
      "mis": 545,
      "like": 546,
      "mor": 547,
      "cy": 548,
      "howe": 549,
      "ta": 550,
      "ale": 551,
      "south": 552,
      "serv": 553,
      "show": 554,
      "both": 555,
      "mill": 556,
      "add": 557,
      "ily": 558,
      "being": 559,
      "however": 560,
      "bur": 561,
      "ents": 562,
      "music": 563,
      "epis": 564,
      "ft": 565,
      "ven": 566,
      "long": 567,
      "..": 568,
      "these": 569,
      "ative": 570,
      "log": 571,
      "lead": 572,
      "az": 573,
      "series": 574,
      "line": 575,
      "uary": 576,
      "batt": 577,
      "against": 578,
      "don": 579,
      "ied": 580,
      "sim": 581,
      "ual": 582,
      "ments": 583,
      "number": 584,
      "ult": 585,
      "charac": 586,
      "side": 587,
      "ince": 588,
      "vol": 589,
      "velo": 590,
      "bar": 591,
      "city": 592,
      "ub": 593,
      "rece": 594,
      "ens": 595,
      "mil": 596,
      "found": 597,
      "dire": 598,
      "brit": 599,
      "tal": 600,
      "16": 601,
      "arch": 602,
      "appear": 603,
      "dif": 604,
      "cro": 605,
      "united": 606,
      "12": 607,
      "ause": 608,
      "ific": 609,
      "unt": 610,
      "ob": 611,
      "develo": 612,
      "became": 613,
      "down": 614,
      "har": 615,
      "east": 616,
      "head": 617,
      "vision": 618,
      "several": 619,
      "leg": 620,
      "igin": 621,
      "including": 622,
      "ious": 623,
      "wer": 624,
      "origin": 625,
      "pop": 626,
      "hn": 627,
      "oper": 628,
      "stor": 629,
      "ca": 630,
      "bor": 631,
      "feat": 632,
      "contin": 633,
      "known": 634,
      "hist": 635,
      "val": 636,
      "ms": 637,
      "did": 638,
      "early": 639,
      "ley": 640,
      "ek": 641,
      "ner": 642,
      "198": 643,
      "cri": 644,
      "ode": 645,
      "gover": 646,
      "tre": 647,
      "lt": 648,
      "ls": 649,
      "bre": 650,
      "large": 651,
      "sted": 652,
      "clo": 653,
      "ended": 654,
      "cast": 655,
      "pass": 656,
      "nam": 657,
      "wil": 658,
      "194": 659,
      "sid": 660,
      "trans": 661,
      "cour": 662,
      "pers": 663,
      "try": 664,
      "suc": 665,
      "ise": 666,
      "ities": 667,
      "30": 668,
      "states": 669,
      "ures": 670,
      "episode": 671,
      "run": 672,
      "hou": 673,
      "group": 674,
      "john": 675,
      "jun": 676,
      "said": 677,
      "following": 678,
      "plan": 679,
      "sk": 680,
      "crit": 681,
      "cle": 682,
      "ings": 683,
      "ide": 684,
      "ind": 685,
      "design": 686,
      "comple": 687,
      "ived": 688,
      "peri": 689,
      "vo": 690,
      "could": 691,
      "ern": 692,
      "nove": 693,
      "record": 694,
      "ury": 695,
      "ield": 696,
      "sign": 697,
      "american": 698,
      "retur": 699,
      "own": 700,
      "bed": 701,
      "os": 702,
      "fam": 703,
      "use": 704,
      "ron": 705,
      "although": 706,
      "pon": 707,
      "called": 708,
      "vid": 709,
      "14": 710,
      "roy": 711,
      "indi": 712,
      "ii": 713,
      "self": 714,
      "197": 715,
      "offic": 716,
      "near": 717,
      "ually": 718,
      "present": 719,
      "band": 720,
      "stem": 721,
      "196": 722,
      "jor": 723,
      "remain": 724,
      "plo": 725,
      "road": 726,
      "public": 727,
      "began": 728,
      "ves": 729,
      "sm": 730,
      "scho": 731,
      "life": 732,
      "open": 733,
      "hel": 734,
      "star": 735,
      "dy": 736,
      "hy": 737,
      "sed": 738,
      "13": 739,
      "until": 740,
      "dec": 741,
      "ball": 742,
      "less": 743,
      "ople": 744,
      "ash": 745,
      "na": 746,
      "released": 747,
      "along": 748,
      "aking": 749,
      "gin": 750,
      "school": 751,
      "uni": 752,
      "ose": 753,
      "pri": 754,
      "because": 755,
      "descri": 756,
      "ised": 757,
      "fa": 758,
      "house": 759,
      "just": 760,
      "ital": 761,
      "var": 762,
      "ject": 763,
      "ort": 764,
      "come": 765,
      "people": 766,
      "you": 767,
      "place": 768,
      "position": 769,
      "success": 770,
      "system": 771,
      "week": 772,
      "gust": 773,
      "xt": 774,
      "pen": 775,
      "let": 776,
      "vide": 777,
      "resu": 778,
      "cover": 779,
      "50": 780,
      "million": 781,
      "ham": 782,
      "will": 783,
      "field": 784,
      "thir": 785,
      "hal": 786,
      "british": 787,
      "stri": 788,
      "cut": 789,
      "jan": 790,
      "sist": 791,
      "since": 792,
      "ple": 793,
      "tit": 794,
      "town": 795,
      "attack": 796,
      "around": 797,
      "best": 798,
      "six": 799,
      "sco": 800,
      "book": 801,
      "ving": 802,
      "sep": 803,
      "award": 804,
      "lit": 805,
      "major": 806,
      "eu": 807,
      "ica": 808,
      "vent": 809,
      "colle": 810,
      "start": 811,
      "fect": 812,
      "ized": 813,
      "ys": 814,
      "each": 815,
      "read": 816,
      "times": 817,
      "continu": 818,
      "now": 819,
      "ris": 820,
      "requ": 821,
      "character": 822,
      "track": 823,
      "stral": 824,
      "tember": 825,
      "def": 826,
      "september": 827,
      "sive": 828,
      "grap": 829,
      "care": 830,
      "same": 831,
      "took": 832,
      "august": 833,
      "sol": 834,
      "den": 835,
      "plac": 836,
      "stand": 837,
      "govern": 838,
      "order": 839,
      "final": 840,
      "top": 841,
      "another": 842,
      "cal": 843,
      "five": 844,
      "11": 845,
      "mid": 846,
      "ild": 847,
      "dep": 848,
      "km": 849,
      "what": 850,
      "home": 851,
      "ired": 852,
      "mal": 853,
      "get": 854,
      "que": 855,
      "camp": 856,
      "austral": 857,
      "aving": 858,
      "fle": 859,
      "stu": 860,
      "sen": 861,
      "test": 862,
      "fic": 863,
      "area": 864,
      "formed": 865,
      "fur": 866,
      "water": 867,
      "ze": 868,
      "ib": 869,
      "aim": 870,
      "consid": 871,
      "march": 872,
      "gun": 873,
      "tour": 874,
      "aft": 875,
      "light": 876,
      "ore": 877,
      "pat": 878,
      "century": 879,
      "direct": 880,
      "contro": 881,
      "met": 882,
      "ism": 883,
      "received": 884,
      "appro": 885,
      "due": 886,
      "urch": 887,
      "octo": 888,
      "small": 889,
      "last": 890,
      "october": 891,
      "ks": 892,
      "ork": 893,
      "hol": 894,
      "ility": 895,
      "even": 896,
      "allow": 897,
      "match": 898,
      "ps": 899,
      "liam": 900,
      "games": 901,
      "power": 902,
      "person": 903,
      "class": 904,
      "cial": 905,
      "pa": 906,
      "mot": 907,
      "tle": 908,
      "giv": 909,
      "government": 910,
      "thern": 911,
      "ese": 912,
      "partic": 913,
      "ket": 914,
      "ked": 915,
      "mag": 916,
      "lan": 917,
      "law": 918,
      "ately": 919,
      "won": 920,
      "york": 921,
      "command": 922,
      "rist": 923,
      "river": 924,
      "june": 925,
      "child": 926,
      "ported": 927,
      "squ": 928,
      "single": 929,
      "ril": 930,
      "general": 931,
      "dam": 932,
      "force": 933,
      "company": 934,
      "name": 935,
      "july": 936,
      "dece": 937,
      "25": 938,
      "point": 939,
      "played": 940,
      "gl": 941,
      "wal": 942,
      "ium": 943,
      "november": 944,
      "develop": 945,
      "cas": 946,
      "differ": 947,
      "ina": 948,
      "event": 949,
      "reach": 950,
      "third": 951,
      "sequ": 952,
      "death": 953,
      "much": 954,
      "review": 955,
      "island": 956,
      "respon": 957,
      "short": 958,
      "bus": 959,
      "ah": 960,
      "lish": 961,
      "april": 962,
      "posed": 963,
      "ster": 964,
      "ress": 965,
      "battle": 966,
      "ru": 967,
      "aged": 968,
      "kill": 969,
      "accor": 970,
      "fri": 971,
      "organ": 972,
      "ional": 973,
      "van": 974,
      "rad": 975,
      "story": 976,
      "ained": 977,
      "rest": 978,
      "fun": 979,
      "ages": 980,
      "univers": 981,
      "left": 982,
      "family": 983,
      "idge": 984,
      "building": 985,
      "went": 986,
      "far": 987,
      "wood": 988,
      "sal": 989,
      "month": 990,
      "ists": 991,
      "vious": 992,
      "hand": 993,
      "vir": 994,
      "based": 995,
      "0s": 996,
      "ague": 997,
      "ude": 998,
      "version": 999,
      "ined": 1000,
      "nat": 1001,
      "late": 1002,
      "addition": 1003,
      "ons": 1004,
      "club": 1005,
      "incre": 1006,
      "ling": 1007,
      "black": 1008,
      "thor": 1009,
      "german": 1010,
      "poin": 1011,
      "army": 1012,
      "ships": 1013,
      "thing": 1014,
      "avy": 1015,
      "december": 1016,
      "lon": 1017,
      "sum": 1018,
      "bat": 1019,
      "great": 1020,
      "named": 1021,
      "moved": 1022,
      "issu": 1023,
      "ically": 1024,
      "dest": 1025,
      "according": 1026,
      "included": 1027,
      "fall": 1028,
      "claim": 1029,
      "hum": 1030,
      "rote": 1031,
      "using": 1032,
      "gar": 1033,
      "january": 1034,
      "make": 1035,
      "che": 1036,
      "fort": 1037,
      "tt": 1038,
      "studi": 1039,
      "gram": 1040,
      "lim": 1041,
      "wrote": 1042,
      "195": 1043,
      "tak": 1044,
      "jap": 1045,
      "beli": 1046,
      "park": 1047,
      "polit": 1048,
      "gy": 1049,
      "24": 1050,
      "euro": 1051,
      "193": 1052,
      "constru": 1053,
      "sw": 1054,
      "hor": 1055,
      "ford": 1056,
      "flu": 1057,
      "cept": 1058,
      "species": 1059,
      "japan": 1060,
      "still": 1061,
      "ially": 1062,
      "lu": 1063,
      "stud": 1064,
      "init": 1065,
      "ier": 1066,
      "real": 1067,
      "pical": 1068,
      "sty": 1069,
      "previous": 1070,
      "bal": 1071,
      "ness": 1072,
      "champ": 1073,
      "former": 1074,
      "within": 1075,
      "video": 1076,
      "original": 1077,
      "ians": 1078,
      "described": 1079,
      "ney": 1080,
      "those": 1081,
      "ord": 1082,
      "bas": 1083,
      "fact": 1084,
      "list": 1085,
      "built": 1086,
      "board": 1087,
      "dist": 1088,
      "ns": 1089,
      "ins": 1090,
      "ution": 1091,
      "next": 1092,
      "rench": 1093,
      "vict": 1094,
      "pect": 1095,
      "ark": 1096,
      "ric": 1097,
      "forman": 1098,
      "storm": 1099,
      "...": 1100,
      "mc": 1101,
      "mbers": 1102,
      "put": 1103,
      "among": 1104,
      "rus": 1105,
      "production": 1106,
      "support": 1107,
      "flo": 1108,
      "bill": 1109,
      "further": 1110,
      "ler": 1111,
      "commun": 1112,
      "ont": 1113,
      "attem": 1114,
      "bert": 1115,
      "performan": 1116,
      "league": 1117,
      "sent": 1118,
      "ilar": 1119,
      "effect": 1120,
      "ral": 1121,
      "tele": 1122,
      "release": 1123,
      "foot": 1124,
      "ba": 1125,
      "ground": 1126,
      "placed": 1127,
      "held": 1128,
      "days": 1129,
      "ared": 1130,
      "white": 1131,
      "night": 1132,
      "ran": 1133,
      "christ": 1134,
      "fac": 1135,
      "cus": 1136,
      "scen": 1137,
      "move": 1138,
      "sound": 1139,
      "half": 1140,
      "bir": 1141,
      "history": 1142,
      "milit": 1143,
      "stit": 1144,
      "ben": 1145,
      "rican": 1146,
      "division": 1147,
      "similar": 1148,
      "augh": 1149,
      "febr": 1150,
      "february": 1151,
      "row": 1152,
      "fire": 1153,
      "ently": 1154,
      "period": 1155,
      "app": 1156,
      "action": 1157,
      "21": 1158,
      "say": 1159,
      "route": 1160,
      "dan": 1161,
      "player": 1162,
      "rock": 1163,
      "president": 1164,
      "train": 1165,
      "ny": 1166,
      "came": 1167,
      "church": 1168,
      "blo": 1169,
      "anim": 1170,
      "100": 1171,
      "prim": 1172,
      "friend": 1173,
      "station": 1174,
      "ured": 1175,
      "olog": 1176,
      "good": 1177,
      "22": 1178,
      "del": 1179,
      "youn": 1180,
      "ator": 1181,
      "europe": 1182,
      "cup": 1183,
      "university": 1184,
      "wards": 1185,
      "ences": 1186,
      "take": 1187,
      "dro": 1188,
      "hur": 1189,
      "stree": 1190,
      "equ": 1191,
      "cu": 1192,
      "local": 1193,
      "french": 1194,
      "members": 1195,
      "non": 1196,
      "service": 1197,
      "mit": 1198,
      "role": 1199,
      "estab": 1200,
      "soci": 1201,
      "post": 1202,
      "inc": 1203,
      "hun": 1204,
      "ik": 1205,
      "moun": 1206,
      "craft": 1207,
      "pot": 1208,
      "ga": 1209,
      "23": 1210,
      "phil": 1211,
      "2010": 1212,
      "continued": 1213,
      "having": 1214,
      "every": 1215,
      "ats": 1216,
      "key": 1217,
      "william": 1218,
      "see": 1219,
      "never": 1220,
      "ants": 1221,
      "ff": 1222,
      "prof": 1223,
      "begin": 1224,
      "tech": 1225,
      "ights": 1226,
      "tor": 1227,
      "bon": 1228,
      "27": 1229,
      "ged": 1230,
      "ken": 1231,
      "chang": 1232,
      "sci": 1233,
      "often": 1234,
      "sible": 1235,
      "free": 1236,
      "associ": 1237,
      "ines": 1238,
      "ending": 1239,
      "ute": 1240,
      "histor": 1241,
      "desp": 1242,
      "ulation": 1243,
      "leve": 1244,
      "28": 1245,
      "court": 1246,
      "elect": 1247,
      "geor": 1248,
      "2008": 1249,
      "lat": 1250,
      "wat": 1251,
      "chart": 1252,
      "2009": 1253,
      "different": 1254,
      "net": 1255,
      "mich": 1256,
      "career": 1257,
      "champion": 1258,
      "ior": 1259,
      "bridge": 1260,
      "26": 1261,
      "trad": 1262,
      "gest": 1263,
      "pho": 1264,
      "40": 1265,
      "sl": 1266,
      "ched": 1267,
      "indu": 1268,
      "without": 1269,
      "ars": 1270,
      "2011": 1271,
      "seven": 1272,
      "ison": 1273,
      "bel": 1274,
      "western": 1275,
      "wall": 1276,
      "despite": 1277,
      "provid": 1278,
      "rich": 1279,
      "england": 1280,
      "pur": 1281,
      "considered": 1282,
      "ha": 1283,
      "tropical": 1284,
      "party": 1285,
      "prote": 1286,
      "ret": 1287,
      "author": 1288,
      "dav": 1289,
      "ided": 1290,
      "served": 1291,
      "enter": 1292,
      "written": 1293,
      "father": 1294,
      "stead": 1295,
      "ctions": 1296,
      "few": 1297,
      "search": 1298,
      "country": 1299,
      "ural": 1300,
      "uc": 1301,
      "2007": 1302,
      "county": 1303,
      "concer": 1304,
      "super": 1305,
      "songs": 1306,
      "refer": 1307,
      "royal": 1308,
      "development": 1309,
      "ston": 1310,
      "ices": 1311,
      "sug": 1312,
      "lling": 1313,
      "graph": 1314,
      "military": 1315,
      "english": 1316,
      "highway": 1317,
      "member": 1318,
      "mp": 1319,
      "influ": 1320,
      "face": 1321,
      "wide": 1322,
      "sto": 1323,
      "arri": 1324,
      "given": 1325,
      "moder": 1326,
      "range": 1327,
      "beh": 1328,
      "compe": 1329,
      "program": 1330,
      "forces": 1331,
      "contr": 1332,
      "ref": 1333,
      "ross": 1334,
      "scor": 1335,
      "little": 1336,
      "become": 1337,
      "sit": 1338,
      "strong": 1339,
      "lost": 1340,
      "ried": 1341,
      "hit": 1342,
      "aff": 1343,
      "2012": 1344,
      "eder": 1345,
      "29": 1346,
      "coast": 1347,
      "hen": 1348,
      "how": 1349,
      "london": 1350,
      "live": 1351,
      "vin": 1352,
      "right": 1353,
      "total": 1354,
      "invol": 1355,
      "street": 1356,
      "change": 1357,
      "body": 1358,
      "front": 1359,
      "cir": 1360,
      "announ": 1361,
      "international": 1362,
      "sun": 1363,
      "cho": 1364,
      "ches": 1365,
      "190": 1366,
      "sea": 1367,
      "love": 1368,
      "hour": 1369,
      "mad": 1370,
      "quar": 1371,
      "close": 1372,
      "dri": 1373,
      "rail": 1374,
      "bri": 1375,
      "gave": 1376,
      "cru": 1377,
      "away": 1378,
      "ports": 1379,
      "popular": 1380,
      "decl": 1381,
      "struct": 1382,
      "iety": 1383,
      "sure": 1384,
      "published": 1385,
      "successful": 1386,
      "bs": 1387,
      "uk": 1388,
      "fan": 1389,
      "represent": 1390,
      "canad": 1391,
      "ery": 1392,
      "project": 1393,
      "ards": 1394,
      "produced": 1395,
      "lie": 1396,
      "stated": 1397,
      "performance": 1398,
      "wing": 1399,
      "returned": 1400,
      "san": 1401,
      "base": 1402,
      "aver": 1403,
      "ified": 1404,
      "children": 1405,
      "broad": 1406,
      "common": 1407,
      "ring": 1408,
      "need": 1409,
      "ae": 1410,
      "iment": 1411,
      "too": 1412,
      "ext": 1413,
      "ives": 1414,
      "ws": 1415,
      "aren": 1416,
      "making": 1417,
      "fail": 1418,
      "resul": 1419,
      "ban": 1420,
      "voc": 1421,
      "mur": 1422,
      "grad": 1423,
      "gn": 1424,
      "xim": 1425,
      "rain": 1426,
      "hon": 1427,
      "reported": 1428,
      "look": 1429,
      "interest": 1430,
      "curren": 1431,
      "jack": 1432,
      "recorded": 1433,
      "ably": 1434,
      "teen": 1435,
      "writing": 1436,
      "particular": 1437,
      "official": 1438,
      "television": 1439,
      "dou": 1440,
      "special": 1441,
      "aircraft": 1442,
      "pal": 1443,
      "gold": 1444,
      "ission": 1445,
      "aign": 1446,
      "covered": 1447,
      "2006": 1448,
      "rit": 1449,
      "campaign": 1450,
      "cross": 1451,
      "ink": 1452,
      "should": 1453,
      "include": 1454,
      "stone": 1455,
      "coming": 1456,
      "room": 1457,
      "import": 1458,
      "stat": 1459,
      "upon": 1460,
      "control": 1461,
      "press": 1462,
      "suf": 1463,
      "tar": 1464,
      "critic": 1465,
      "central": 1466,
      "intro": 1467,
      "sil": 1468,
      "women": 1469,
      "cum": 1470,
      "ama": 1471,
      "style": 1472,
      "nel": 1473,
      "mas": 1474,
      "hurrican": 1475,
      "cul": 1476,
      "sex": 1477,
      "destroy": 1478,
      "once": 1479,
      "died": 1480,
      "throughout": 1481,
      "ming": 1482,
      "fav": 1483,
      "works": 1484,
      "male": 1485,
      "young": 1486,
      "nal": 1487,
      "wan": 1488,
      "hill": 1489,
      "hard": 1490,
      "mission": 1491,
      "race": 1492,
      "fran": 1493,
      "ops": 1494,
      "himself": 1495,
      "vill": 1496,
      "australia": 1497,
      "chan": 1498,
      "pan": 1499,
      "depend": 1500,
      "mix": 1501,
      "arm": 1502,
      "istr": 1503,
      "pit": 1504,
      "ption": 1505,
      "depart": 1506,
      "2013": 1507,
      "clear": 1508,
      "ively": 1509,
      "commit": 1510,
      "big": 1511,
      "characters": 1512,
      "cing": 1513,
      "introdu": 1514,
      "ni": 1515,
      "cop": 1516,
      "eight": 1517,
      "located": 1518,
      "expl": 1519,
      "ever": 1520,
      "mark": 1521,
      "believ": 1522,
      "utes": 1523,
      "saw": 1524,
      "title": 1525,
      "players": 1526,
      "iness": 1527,
      "conne": 1528,
      "squad": 1529,
      "developed": 1530,
      "ges": 1531,
      "ploy": 1532,
      "instead": 1533,
      "ded": 1534,
      "vil": 1535,
      "southern": 1536,
      "60": 1537,
      "wa": 1538,
      "189": 1539,
      "construction": 1540,
      "james": 1541,
      "result": 1542,
      "center": 1543,
      "lled": 1544,
      "ey": 1545,
      "signific": 1546,
      "alth": 1547,
      "across": 1548,
      "ping": 1549,
      "remained": 1550,
      "months": 1551,
      "ana": 1552,
      "grand": 1553,
      "ka": 1554,
      "break": 1555,
      "return": 1556,
      "ways": 1557,
      "hall": 1558,
      "activ": 1559,
      "reed": 1560,
      "akes": 1561,
      "hing": 1562,
      "lies": 1563,
      "pra": 1564,
      "political": 1565,
      "taken": 1566,
      "coll": 1567,
      "bul": 1568,
      "various": 1569,
      "born": 1570,
      "ither": 1571,
      "acy": 1572,
      "ability": 1573,
      "trave": 1574,
      "modern": 1575,
      "fif": 1576,
      "itions": 1577,
      "ago": 1578,
      "hurricane": 1579,
      "experi": 1580,
      "seen": 1581,
      "cil": 1582,
      "ane": 1583,
      "toge": 1584,
      "conf": 1585,
      "felt": 1586,
      "aster": 1587,
      "bow": 1588,
      "together": 1589,
      "exp": 1590,
      "commission": 1591,
      "ival": 1592,
      "round": 1593,
      "ains": 1594,
      "dom": 1595,
      "office": 1596,
      "complete": 1597,
      "lied": 1598,
      "ino": 1599,
      "stage": 1600,
      "vest": 1601,
      "created": 1602,
      "america": 1603,
      "miles": 1604,
      "pted": 1605,
      "hu": 1606,
      "formation": 1607,
      "mm": 1608,
      "full": 1609,
      "areas": 1610,
      "noted": 1611,
      "announced": 1612,
      "ctor": 1613,
      "inv": 1614,
      "eventually": 1615,
      "appeared": 1616,
      "rap": 1617,
      "pain": 1618,
      "brother": 1619,
      "fight": 1620,
      "reached": 1621,
      "george": 1622,
      "mass": 1623,
      "college": 1624,
      "tell": 1625,
      "engine": 1626,
      "aval": 1627,
      "japanese": 1628,
      "mir": 1629,
      "ko": 1630,
      "pression": 1631,
      "recording": 1632,
      "gir": 1633,
      "dre": 1634,
      "got": 1635,
      "case": 1636,
      "mother": 1637,
      "occur": 1638,
      "northern": 1639,
      "gree": 1640,
      "cost": 1641,
      "soc": 1642,
      "ael": 1643,
      "sele": 1644,
      "heavy": 1645,
      "abo": 1646,
      "lines": 1647,
      "performed": 1648,
      "abor": 1649,
      "process": 1650,
      "2005": 1651,
      "points": 1652,
      "civ": 1653,
      "tail": 1654,
      "followed": 1655,
      "meet": 1656,
      "pair": 1657,
      "iting": 1658,
      "viet": 1659,
      "impro": 1660,
      "mean": 1661,
      "significant": 1662,
      "mac": 1663,
      "bank": 1664,
      "human": 1665,
      "section": 1666,
      "football": 1667,
      "treat": 1668,
      "2014": 1669,
      "killed": 1670,
      "cat": 1671,
      "level": 1672,
      "antic": 1673,
      "profess": 1674,
      "nes": 1675,
      "debut": 1676,
      "playing": 1677,
      "mph": 1678,
      "termin": 1679,
      "earli": 1680,
      "reco": 1681,
      "adv": 1682,
      "spr": 1683,
      "soon": 1684,
      "green": 1685,
      "qual": 1686,
      "ization": 1687,
      "current": 1688,
      "ties": 1689,
      "ones": 1690,
      "lished": 1691,
      "relation": 1692,
      "thought": 1693,
      "brown": 1694,
      "bin": 1695,
      "nar": 1696,
      "itive": 1697,
      "wel": 1698,
      "does": 1699,
      "thom": 1700,
      "established": 1701,
      "bi": 1702,
      "ues": 1703,
      "originally": 1704,
      "lower": 1705,
      "strict": 1706,
      "ribut": 1707,
      "whe": 1708,
      "tru": 1709,
      "sess": 1710,
      "australian": 1711,
      "ought": 1712,
      "pie": 1713,
      "han": 1714,
      "thre": 1715,
      "subsequ": 1716,
      "lou": 1717,
      "michael": 1718,
      "others": 1719,
      "tra": 1720,
      "tee": 1721,
      "director": 1722,
      "ox": 1723,
      "spir": 1724,
      "started": 1725,
      "enced": 1726,
      "atic": 1727,
      "entire": 1728,
      "dem": 1729,
      "rid": 1730,
      "exe": 1731,
      "ister": 1732,
      "quest": 1733,
      "david": 1734,
      "surv": 1735,
      "cret": 1736,
      "features": 1737,
      "nine": 1738,
      "reve": 1739,
      "audi": 1740,
      "business": 1741,
      "econ": 1742,
      "decided": 1743,
      "scre": 1744,
      "critics": 1745,
      "aves": 1746,
      "econom": 1747,
      "pred": 1748,
      "feet": 1749,
      "caused": 1750,
      "civil": 1751,
      "ray": 1752,
      "gs": 1753,
      "mes": 1754,
      "ony": 1755,
      "idence": 1756,
      "80": 1757,
      "site": 1758,
      "mater": 1759,
      "rather": 1760,
      "loss": 1761,
      "fleet": 1762,
      "fourth": 1763,
      "opened": 1764,
      "ample": 1765,
      "added": 1766,
      "bc": 1767,
      "sold": 1768,
      "aring": 1769,
      "important": 1770,
      "behind": 1771,
      "gal": 1772,
      "exist": 1773,
      "magaz": 1774,
      "sus": 1775,
      "research": 1776,
      "ids": 1777,
      "ators": 1778,
      "bes": 1779,
      "jour": 1780,
      "ker": 1781,
      "ime": 1782,
      "medi": 1783,
      "squadron": 1784,
      "sam": 1785,
      "independ": 1786,
      "here": 1787,
      "imp": 1788,
      "anti": 1789,
      "cou": 1790,
      "championship": 1791,
      "sat": 1792,
      "educ": 1793,
      "comment": 1794,
      "theast": 1795,
      "guns": 1796,
      "scri": 1797,
      "ief": 1798,
      "cred": 1799,
      "fish": 1800,
      "space": 1801,
      "tom": 1802,
      "uses": 1803,
      "possible": 1804,
      "rought": 1805,
      "leading": 1806,
      "radio": 1807,
      "pract": 1808,
      "eastern": 1809,
      "ram": 1810,
      "completed": 1811,
      "union": 1812,
      "damage": 1813,
      "population": 1814,
      "jud": 1815,
      "ilo": 1816,
      "invest": 1817,
      "leader": 1818,
      "thus": 1819,
      "almost": 1820,
      "peak": 1821,
      "working": 1822,
      "bay": 1823,
      "los": 1824,
      "da": 1825,
      "inst": 1826,
      "mart": 1827,
      "dle": 1828,
      "worked": 1829,
      "ient": 1830,
      "sib": 1831,
      "tic": 1832,
      "region": 1833,
      "boy": 1834,
      "initially": 1835,
      "lack": 1836,
      "inj": 1837,
      "bey": 1838,
      "type": 1839,
      "kingdom": 1840,
      "ising": 1841,
      "social": 1842,
      "cts": 1843,
      "oney": 1844,
      "awards": 1845,
      "laun": 1846,
      "31": 1847,
      "proble": 1848,
      "mult": 1849,
      "2004": 1850,
      "itar": 1851,
      "demo": 1852,
      "forced": 1853,
      "ances": 1854,
      "alter": 1855,
      "bell": 1856,
      "draw": 1857,
      "tradition": 1858,
      "assist": 1859,
      "individ": 1860,
      "ceed": 1861,
      "bit": 1862,
      "separ": 1863,
      "scene": 1864,
      "regular": 1865,
      "70": 1866,
      "weeks": 1867,
      "logy": 1868,
      "respect": 1869,
      "box": 1870,
      "help": 1871,
      "fig": 1872,
      "hip": 1873,
      "ying": 1874,
      "diffic": 1875,
      "operation": 1876,
      "mary": 1877,
      "bio": 1878,
      "god": 1879,
      "rank": 1880,
      "ply": 1881,
      "towards": 1882,
      "execut": 1883,
      "pi": 1884,
      "term": 1885,
      "france": 1886,
      "tained": 1887,
      "2015": 1888,
      "sour": 1889,
      "approach": 1890,
      "avail": 1891,
      "joined": 1892,
      "35": 1893,
      "compan": 1894,
      "council": 1895,
      "ready": 1896,
      "mic": 1897,
      "personal": 1898,
      "ature": 1899,
      "attempt": 1900,
      "chief": 1901,
      "bomb": 1902,
      "cult": 1903,
      "wanted": 1904,
      "hop": 1905,
      "feel": 1906,
      "turn": 1907,
      "pointed": 1908,
      "commer": 1909,
      "ado": 1910,
      "mith": 1911,
      "henry": 1912,
      "cell": 1913,
      "material": 1914,
      "washing": 1915,
      "goal": 1916,
      "decis": 1917,
      "cali": 1918,
      "allowed": 1919,
      "ith": 1920,
      "training": 1921,
      "leng": 1922,
      "recogn": 1923,
      "records": 1924,
      "navy": 1925,
      "188": 1926,
      "rang": 1927,
      "ency": 1928,
      "least": 1929,
      "scored": 1930,
      "fly": 1931,
      "rul": 1932,
      "provided": 1933,
      "wife": 1934,
      "shot": 1935,
      "quick": 1936,
      "counter": 1937,
      "span": 1938,
      "asing": 1939,
      "emy": 1940,
      "crew": 1941,
      "secret": 1942,
      "claimed": 1943,
      "hab": 1944,
      "earth": 1945,
      "average": 1946,
      "dut": 1947,
      "brought": 1948,
      "past": 1949,
      "brig": 1950,
      "cong": 1951,
      "nomin": 1952,
      "priv": 1953,
      "tempor": 1954,
      "ata": 1955,
      "nia": 1956,
      "estim": 1957,
      "memor": 1958,
      "know": 1959,
      "500": 1960,
      "featured": 1961,
      "ministr": 1962,
      "ened": 1963,
      "ager": 1964,
      "russi": 1965,
      "rac": 1966,
      "redu": 1967,
      "either": 1968,
      "corpor": 1969,
      "feder": 1970,
      "ville": 1971,
      "proper": 1972,
      "employ": 1973,
      "ends": 1974,
      "troops": 1975,
      "asy": 1976,
      "stop": 1977,
      "summer": 1978,
      "regard": 1979,
      "passed": 1980,
      "keep": 1981,
      "aven": 1982,
      "defe": 1983,
      "consist": 1984,
      "fut": 1985,
      "victory": 1986,
      "studio": 1987,
      "bound": 1988,
      "aper": 1989,
      "victor": 1990,
      "forms": 1991,
      "pay": 1992,
      "runs": 1993,
      "generally": 1994,
      "castle": 1995,
      "washington": 1996,
      "captain": 1997,
      "must": 1998,
      "uel": 1999,
      "hig": 2000,
      "ky": 2001,
      "ake": 2002,
      "prison": 2003,
      "igned": 2004,
      "robert": 2005,
      "example": 2006,
      "condu": 2007,
      "lot": 2008,
      "186": 2009,
      "bad": 2010,
      "events": 2011,
      "magazine": 2012,
      "beat": 2013,
      "host": 2014,
      "battal": 2015,
      "finished": 2016,
      "dark": 2017,
      "concl": 2018,
      "hest": 2019,
      "revol": 2020,
      "speed": 2021,
      "za": 2022,
      "icated": 2023,
      "middle": 2024,
      "imin": 2025,
      "spo": 2026,
      "aut": 2027,
      "lor": 2028,
      "ential": 2029,
      "opening": 2030,
      "fi": 2031,
      "designed": 2032,
      "particip": 2033,
      "paul": 2034,
      "length": 2035,
      "verse": 2036,
      "hours": 2037,
      "2003": 2038,
      "tex": 2039,
      "certain": 2040,
      "wit": 2041,
      "mun": 2042,
      "assi": 2043,
      "media": 2044,
      "drop": 2045,
      "parts": 2046,
      "writer": 2047,
      "believed": 2048,
      "lands": 2049,
      "winds": 2050,
      "tel": 2051,
      "police": 2052,
      "ense": 2053,
      "lake": 2054,
      "cycl": 2055,
      "taking": 2056,
      "inten": 2057,
      "comes": 2058,
      "suffer": 2059,
      "cially": 2060,
      "bour": 2061,
      "beginning": 2062,
      "chest": 2063,
      "stant": 2064,
      "acted": 2065,
      "roman": 2066,
      "available": 2067,
      "going": 2068,
      "replaced": 2069,
      "acc": 2070,
      "prior": 2071,
      "relig": 2072,
      "ering": 2073,
      "emp": 2074,
      "45": 2075,
      "75": 2076,
      "involved": 2077,
      "atl": 2078,
      "sey": 2079,
      "langu": 2080,
      "jer": 2081,
      "tv": 2082,
      "native": 2083,
      "liver": 2084,
      "ax": 2085,
      "phys": 2086,
      "minutes": 2087,
      "erous": 2088,
      "active": 2089,
      "european": 2090,
      "earlier": 2091,
      "nd": 2092,
      "ention": 2093,
      "plat": 2094,
      "ades": 2095,
      "cher": 2096,
      "hous": 2097,
      "turned": 2098,
      "vic": 2099,
      "itor": 2100,
      "bis": 2101,
      "heart": 2102,
      "society": 2103,
      "staff": 2104,
      "ai": 2105,
      "saying": 2106,
      "appearance": 2107,
      "hold": 2108,
      "immedi": 2109,
      "stre": 2110,
      "pac": 2111,
      "mountain": 2112,
      "hib": 2113,
      "ides": 2114,
      "compl": 2115,
      "association": 2116,
      "news": 2117,
      "deal": 2118,
      "largest": 2119,
      "highest": 2120,
      "particularly": 2121,
      "films": 2122,
      "scott": 2123,
      "nu": 2124,
      "suggest": 2125,
      "asked": 2126,
      "2000": 2127,
      "issue": 2128,
      "date": 2129,
      "iss": 2130,
      "phy": 2131,
      "virgin": 2132,
      "cks": 2133,
      "aled": 2134,
      "achie": 2135,
      "meas": 2136,
      "better": 2137,
      "icle": 2138,
      "percent": 2139,
      "lay": 2140,
      "ond": 2141,
      "lear": 2142,
      "mou": 2143,
      "reason": 2144,
      "chin": 2145,
      "typ": 2146,
      "ald": 2147,
      "daugh": 2148,
      "stry": 2149,
      "mach": 2150,
      "2001": 2151,
      "iction": 2152,
      "outside": 2153,
      "istic": 2154,
      "90": 2155,
      "units": 2156,
      "signed": 2157,
      "tou": 2158,
      "fit": 2159,
      "weak": 2160,
      "promo": 2161,
      "ible": 2162,
      "tries": 2163,
      "infan": 2164,
      "ather": 2165,
      "thomas": 2166,
      "ument": 2167,
      "charles": 2168,
      "gg": 2169,
      "fre": 2170,
      "increased": 2171,
      "load": 2172,
      "smith": 2173,
      "dig": 2174,
      "praised": 2175,
      "community": 2176,
      "pressed": 2177,
      "ida": 2178,
      "graphy": 2179,
      "alo": 2180,
      "acad": 2181,
      "pected": 2182,
      "governor": 2183,
      "reviews": 2184,
      "ateg": 2185,
      "califor": 2186,
      "future": 2187,
      "coach": 2188,
      "era": 2189,
      "ored": 2190,
      "nation": 2191,
      "above": 2192,
      "relationship": 2193,
      "ape": 2194,
      "prin": 2195,
      "liter": 2196,
      "ico": 2197,
      "broadcast": 2198,
      "ordered": 2199,
      "tion": 2200,
      "enough": 2201,
      "soldi": 2202,
      "natural": 2203,
      "peter": 2204,
      "additional": 2205,
      "usually": 2206,
      "ples": 2207,
      "agon": 2208,
      "guitar": 2209,
      "argu": 2210,
      "2002": 2211,
      "theat": 2212,
      "ize": 2213,
      "give": 2214,
      "cis": 2215,
      "infantry": 2216,
      "pts": 2217,
      "liber": 2218,
      "domin": 2219,
      "standing": 2220,
      "va": 2221,
      "viol": 2222,
      "canada": 2223,
      "previously": 2224,
      "find": 2225,
      "stra": 2226,
      "acqu": 2227,
      "gi": 2228,
      "accoun": 2229,
      "dead": 2230,
      "rights": 2231,
      "constit": 2232,
      "motion": 2233,
      "resident": 2234,
      "aps": 2235,
      "told": 2236,
      "ilities": 2237,
      "musical": 2238,
      "minor": 2239,
      "indian": 2240,
      "committee": 2241,
      "rison": 2242,
      "territ": 2243,
      "occup": 2244,
      "metres": 2245,
      "richard": 2246,
      "chap": 2247,
      "fest": 2248,
      "tax": 2249,
      "threat": 2250,
      "ener": 2251,
      "ayed": 2252,
      "elements": 2253,
      "instit": 2254,
      "bers": 2255,
      "positive": 2256,
      "lyr": 2257,
      "zer": 2258,
      "lam": 2259,
      "california": 2260,
      "defin": 2261,
      "lee": 2262,
      "emer": 2263,
      "recent": 2264,
      "colum": 2265,
      "specific": 2266,
      "capt": 2267,
      "woman": 2268,
      "ases": 2269,
      "amoun": 2270,
      "arily": 2271,
      "cam": 2272,
      "appointed": 2273,
      "explo": 2274,
      "ali": 2275,
      "pow": 2276,
      "food": 2277,
      "report": 2278,
      "money": 2279,
      "asse": 2280,
      "difficult": 2281,
      "spent": 2282,
      "female": 2283,
      "contribut": 2284,
      "premi": 2285,
      "berg": 2286,
      "blue": 2287,
      "overall": 2288,
      "lad": 2289,
      "groups": 2290,
      "pul": 2291,
      "directed": 2292,
      "alex": 2293,
      "vert": 2294,
      "reser": 2295,
      "photo": 2296,
      "die": 2297,
      "flood": 2298,
      "pun": 2299,
      "rup": 2300,
      "screen": 2301,
      "perform": 2302,
      "ctive": 2303,
      "ensive": 2304,
      "tun": 2305,
      "tw": 2306,
      "len": 2307,
      "exten": 2308,
      "hot": 2309,
      "interview": 2310,
      "failed": 2311,
      "poor": 2312,
      "cli": 2313,
      "ference": 2314,
      "frank": 2315,
      "square": 2316,
      "health": 2317,
      "reng": 2318,
      "required": 2319,
      "word": 2320,
      "yard": 2321,
      "novel": 2322,
      "prepar": 2323,
      "minister": 2324,
      "fant": 2325,
      "limited": 2326,
      "germany": 2327,
      "dev": 2328,
      "district": 2329,
      "usion": 2330,
      "prevent": 2331,
      "christian": 2332,
      "india": 2333,
      "structure": 2334,
      "187": 2335,
      "mex": 2336,
      "itself": 2337,
      "evidence": 2338,
      "contract": 2339,
      "sometimes": 2340,
      "science": 2341,
      "frequ": 2342,
      "prob": 2343,
      "battalion": 2344,
      "critical": 2345,
      "tured": 2346,
      "rating": 2347,
      "wind": 2348,
      "changes": 2349,
      "seem": 2350,
      "deep": 2351,
      "introduced": 2352,
      "ush": 2353,
      "actions": 2354,
      "onto": 2355,
      "streng": 2356,
      "tu": 2357,
      "transfer": 2358,
      "investig": 2359,
      "election": 2360,
      "idea": 2361,
      "course": 2362,
      "avo": 2363,
      "clim": 2364,
      "stars": 2365,
      "sis": 2366,
      "ultim": 2367,
      "except": 2368,
      "living": 2369,
      "ching": 2370,
      "study": 2371,
      "exper": 2372,
      "flight": 2373,
      "flow": 2374,
      "commercial": 2375,
      "ara": 2376,
      "bud": 2377,
      "whose": 2378,
      "odes": 2379,
      "score": 2380,
      "muse": 2381,
      "igan": 2382,
      "dies": 2383,
      "defeated": 2384,
      "already": 2385,
      "burg": 2386,
      "cit": 2387,
      "approxim": 2388,
      "slow": 2389,
      "situ": 2390,
      "plot": 2391,
      "agree": 2392,
      "queen": 2393,
      "administr": 2394,
      "compet": 2395,
      "eli": 2396,
      "bot": 2397,
      "flor": 2398,
      "names": 2399,
      "whom": 2400,
      "might": 2401,
      "mode": 2402,
      "erson": 2403,
      "chester": 2404,
      "changed": 2405,
      "gard": 2406,
      "worth": 2407,
      "students": 2408,
      "kets": 2409,
      "quickly": 2410,
      "sand": 2411,
      "education": 2412,
      "fied": 2413,
      "hero": 2414,
      "hosp": 2415,
      "effects": 2416,
      "favor": 2417,
      "entertain": 2418,
      "prog": 2419,
      "sky": 2420,
      "movement": 2421,
      "hood": 2422,
      "surface": 2423,
      "via": 2424,
      "espe": 2425,
      "tracks": 2426,
      "cm": 2427,
      "33": 2428,
      "subject": 2429,
      "gas": 2430,
      "cele": 2431,
      "girl": 2432,
      "scenes": 2433,
      "oly": 2434,
      "horse": 2435,
      "lord": 2436,
      "aining": 2437,
      "moving": 2438,
      "tons": 2439,
      "commander": 2440,
      "decision": 2441,
      "your": 2442,
      "plant": 2443,
      "department": 2444,
      "agreed": 2445,
      "arrived": 2446,
      "fifth": 2447,
      "ses": 2448,
      "join": 2449,
      "ology": 2450,
      "likely": 2451,
      "mr": 2452,
      "sons": 2453,
      "related": 2454,
      "especially": 2455,
      "fair": 2456,
      "centre": 2457,
      "ius": 2458,
      "museum": 2459,
      "britain": 2460,
      "services": 2461,
      "teams": 2462,
      "quarter": 2463,
      "consider": 2464,
      "depression": 2465,
      "suit": 2466,
      "dance": 2467,
      "voice": 2468,
      "operations": 2469,
      "parliam": 2470,
      "village": 2471,
      "shows": 2472,
      "nings": 2473,
      "latter": 2474,
      "object": 2475,
      "kin": 2476,
      "icted": 2477,
      "chic": 2478,
      "response": 2479,
      "estimated": 2480,
      "cape": 2481,
      "acce": 2482,
      "listed": 2483,
      "industry": 2484,
      "larger": 2485,
      "text": 2486,
      "size": 2487,
      "becoming": 2488,
      "pil": 2489,
      "cting": 2490,
      "carried": 2491,
      "ror": 2492,
      "daughter": 2493,
      "remaining": 2494,
      "discus": 2495,
      "docum": 2496,
      "legal": 2497,
      "iel": 2498,
      "establish": 2499,
      "ication": 2500,
      "blood": 2501,
      "sell": 2502,
      "adap": 2503,
      "parliament": 2504,
      "36": 2505,
      "meth": 2506,
      "married": 2507,
      "polic": 2508,
      "aint": 2509,
      "transport": 2510,
      "gested": 2511,
      "naval": 2512,
      "pressure": 2513,
      "kes": 2514,
      "running": 2515,
      "forest": 2516,
      "cree": 2517,
      "hi": 2518,
      "winter": 2519,
      "upper": 2520,
      "brief": 2521,
      "flag": 2522,
      "chall": 2523,
      "spring": 2524,
      "syn": 2525,
      "37": 2526,
      "leaving": 2527,
      "nic": 2528,
      "cand": 2529,
      "winning": 2530,
      "episodes": 2531,
      "acts": 2532,
      "entered": 2533,
      "joy": 2534,
      "1999": 2535,
      "paren": 2536,
      "virginia": 2537,
      "breed": 2538,
      "aging": 2539,
      "fell": 2540,
      "equip": 2541,
      "temporary": 2542,
      "atory": 2543,
      "suggested": 2544,
      "anal": 2545,
      "mel": 2546,
      "secur": 2547,
      "nearly": 2548,
      "books": 2549,
      "approximately": 2550,
      "ander": 2551,
      "twent": 2552,
      "occas": 2553,
      "experience": 2554,
      "location": 2555,
      "capital": 2556,
      "pose": 2557,
      "deb": 2558,
      "tural": 2559,
      "language": 2560,
      "shortly": 2561,
      "federal": 2562,
      "islands": 2563,
      "envir": 2564,
      "gian": 2565,
      "today": 2566,
      "forward": 2567,
      "glo": 2568,
      "network": 2569,
      "regiment": 2570,
      "finally": 2571,
      "empire": 2572,
      "jackson": 2573,
      "mixed": 2574,
      "access": 2575,
      "grow": 2576,
      "stad": 2577,
      "38": 2578,
      "aries": 2579,
      "relative": 2580,
      "purch": 2581,
      "detail": 2582,
      "shire": 2583,
      "rate": 2584,
      "repe": 2585,
      "stan": 2586,
      "destroyed": 2587,
      "bran": 2588,
      "influence": 2589,
      "proposed": 2590,
      "carri": 2591,
      "bring": 2592,
      "ging": 2593,
      "tery": 2594,
      "finan": 2595,
      "iron": 2596,
      "manager": 2597,
      "higher": 2598,
      "producer": 2599,
      "zo": 2600,
      "olymp": 2601,
      "louis": 2602,
      "spanish": 2603,
      "intended": 2604,
      "master": 2605,
      "selves": 2606,
      "environ": 2607,
      "32": 2608,
      "done": 2609,
      "49": 2610,
      "ams": 2611,
      "create": 2612,
      "kar": 2613,
      "nature": 2614,
      "unit": 2615,
      "professional": 2616,
      "provide": 2617,
      "subsequently": 2618,
      "color": 2619,
      "corps": 2620,
      "captured": 2621,
      "battles": 2622,
      "railway": 2623,
      "supported": 2624,
      "fully": 2625,
      "friends": 2626,
      "democr": 2627,
      "compared": 2628,
      "complex": 2629,
      "brigade": 2630,
      "attr": 2631,
      "immediately": 2632,
      "gue": 2633,
      "journal": 2634,
      "ishing": 2635,
      "fans": 2636,
      "jim": 2637,
      "temper": 2638,
      "fill": 2639,
      "block": 2640,
      "actor": 2641,
      "private": 2642,
      "prince": 2643,
      "expected": 2644,
      "soviet": 2645,
      "mouth": 2646,
      "birth": 2647,
      "weap": 2648,
      "scient": 2649,
      "planned": 2650,
      "py": 2651,
      "comb": 2652,
      "feature": 2653,
      "iation": 2654,
      "increasing": 2655,
      "awarded": 2656,
      "chinese": 2657,
      "initial": 2658,
      "chicago": 2659,
      "gor": 2660,
      "closed": 2661,
      "kilo": 2662,
      "whether": 2663,
      "aker": 2664,
      "helped": 2665,
      "agement": 2666,
      "affe": 2667,
      "mig": 2668,
      "legis": 2669,
      "haw": 2670,
      "acting": 2671,
      "marked": 2672,
      "officer": 2673,
      "reli": 2674,
      "issued": 2675,
      "secut": 2676,
      "fast": 2677,
      "yet": 2678,
      "eve": 2679,
      "bury": 2680,
      "soldiers": 2681,
      "trade": 2682,
      "icles": 2683,
      "possib": 2684,
      "comed": 2685,
      "longer": 2686,
      "buildings": 2687,
      "wed": 2688,
      "sail": 2689,
      "script": 2690,
      "edward": 2691,
      "billboard": 2692,
      "1998": 2693,
      "insp": 2694,
      "phen": 2695,
      "185": 2696,
      "cause": 2697,
      "ya": 2698,
      "teach": 2699,
      "roun": 2700,
      "valley": 2701,
      "sar": 2702,
      "plans": 2703,
      "300": 2704,
      "dol": 2705,
      "safe": 2706,
      "associated": 2707,
      "pacific": 2708,
      "kore": 2709,
      "34": 2710,
      "iple": 2711,
      "something": 2712,
      "iii": 2713,
      "ordin": 2714,
      "oce": 2715,
      "ological": 2716,
      "anna": 2717,
      "sul": 2718,
      "officers": 2719,
      "step": 2720,
      "lock": 2721,
      "remains": 2722,
      "ipal": 2723,
      "mostly": 2724,
      "exam": 2725,
      "atlantic": 2726,
      "defeat": 2727,
      "auto": 2728,
      "johnson": 2729,
      "ski": 2730,
      "oh": 2731,
      "instr": 2732,
      "themselves": 2733,
      "pict": 2734,
      "conserv": 2735,
      "want": 2736,
      "singles": 2737,
      "archite": 2738,
      "1st": 2739,
      "positions": 2740,
      "demon": 2741,
      "countries": 2742,
      "extended": 2743,
      "lyrics": 2744,
      "visit": 2745,
      "dun": 2746,
      "ender": 2747,
      "probably": 2748,
      "really": 2749,
      "information": 2750,
      "tank": 2751,
      "market": 2752,
      "48": 2753,
      "numerous": 2754,
      "sett": 2755,
      "singer": 2756,
      "saur": 2757,
      "appears": 2758,
      "sor": 2759,
      "marine": 2760,
      "china": 2761,
      "admir": 2762,
      "rd": 2763,
      "portr": 2764,
      "copies": 2765,
      "scot": 2766,
      "always": 2767,
      "aught": 2768,
      "hus": 2769,
      "rica": 2770,
      "request": 2771,
      "demand": 2772,
      "mitted": 2773,
      "awn": 2774,
      "issues": 2775,
      "goals": 2776,
      "distri": 2777,
      "cruis": 2778,
      "cham": 2779,
      "individual": 2780,
      "amed": 2781,
      "colon": 2782,
      "ull": 2783,
      "leave": 2784,
      "status": 2785,
      "energy": 2786,
      "psy": 2787,
      "neg": 2788,
      "congress": 2789,
      "rick": 2790,
      "conference": 2791,
      "includes": 2792,
      "takes": 2793,
      "andon": 2794,
      "mont": 2795,
      "jected": 2796,
      "suffered": 2797,
      "advan": 2798,
      "bing": 2799,
      "movie": 2800,
      "standard": 2801,
      "hospital": 2802,
      "1997": 2803,
      "yards": 2804,
      "weight": 2805,
      "maxim": 2806,
      "ories": 2807,
      "gil": 2808,
      "expand": 2809,
      "marri": 2810,
      "39": 2811,
      "dar": 2812,
      "problems": 2813,
      "sales": 2814,
      "inspired": 2815,
      "spl": 2816,
      "florida": 2817,
      "meeting": 2818,
      "roll": 2819,
      "albums": 2820,
      "rated": 2821,
      "attacks": 2822,
      "fighting": 2823,
      "edition": 2824,
      "letter": 2825,
      "martin": 2826,
      "double": 2827,
      "spect": 2828,
      "card": 2829,
      "carry": 2830,
      "sir": 2831,
      "increase": 2832,
      "47": 2833,
      "minute": 2834,
      "stock": 2835,
      "uded": 2836,
      "pet": 2837,
      "removed": 2838,
      "confir": 2839,
      "makes": 2840,
      "independent": 2841,
      "classi": 2842,
      "metal": 2843,
      "icket": 2844,
      "drum": 2845,
      "dred": 2846,
      "celebr": 2847,
      "bil": 2848,
      "creek": 2849,
      "texas": 2850,
      "artist": 2851,
      "portion": 2852,
      "fox": 2853,
      "offered": 2854,
      "forts": 2855,
      "pool": 2856,
      "refle": 2857,
      "revolution": 2858,
      "vey": 2859,
      "foreign": 2860,
      "majority": 2861,
      "dv": 2862,
      "nie": 2863,
      "terms": 2864,
      "primary": 2865,
      "veh": 2866,
      "words": 2867,
      "shoot": 2868,
      "iving": 2869,
      "oil": 2870,
      "thur": 2871,
      "males": 2872,
      "ask": 2873,
      "bass": 2874,
      "discovered": 2875,
      "wild": 2876,
      "ti": 2877,
      "adop": 2878,
      "composed": 2879,
      "dail": 2880,
      "guard": 2881,
      "ena": 2882,
      "peace": 2883,
      "alle": 2884,
      "arg": 2885,
      "assigned": 2886,
      "ranked": 2887,
      "isa": 2888,
      "kel": 2889,
      "carol": 2890,
      "combat": 2891,
      "think": 2892,
      "shar": 2893,
      "giving": 2894,
      "ets": 2895,
      "convent": 2896,
      "impact": 2897,
      "ously": 2898,
      "model": 2899,
      "divid": 2900,
      "entertainment": 2901,
      "raised": 2902,
      "figh": 2903,
      "stic": 2904,
      "damaged": 2905,
      "plays": 2906,
      "environment": 2907,
      "sin": 2908,
      "zz": 2909,
      "smo": 2910,
      "fel": 2911,
      "canadian": 2912,
      "edge": 2913,
      "traf": 2914,
      "categ": 2915,
      "aud": 2916,
      "daily": 2917,
      "cere": 2918,
      "selected": 2919,
      "uck": 2920,
      "distribut": 2921,
      "launched": 2922,
      "revealed": 2923,
      "africa": 2924,
      "rey": 2925,
      "techno": 2926,
      "promis": 2927,
      "ocean": 2928,
      "necess": 2929,
      "sports": 2930,
      "cyclone": 2931,
      "greg": 2932,
      "morning": 2933,
      "wis": 2934,
      "schol": 2935,
      "piece": 2936,
      "ners": 2937,
      "kent": 2938,
      "heav": 2939,
      "russian": 2940,
      "chair": 2941,
      "republic": 2942,
      "conditions": 2943,
      "inside": 2944,
      "swe": 2945,
      "twenty": 2946,
      "sof": 2947,
      "lived": 2948,
      "attacked": 2949,
      "constructed": 2950,
      "unable": 2951,
      "uries": 2952,
      "northeast": 2953,
      "wrest": 2954,
      "habit": 2955,
      "concept": 2956,
      "greater": 2957,
      "sched": 2958,
      "houses": 2959,
      "46": 2960,
      "bob": 2961,
      "anth": 2962,
      "respectively": 2963,
      "writers": 2964,
      "whole": 2965,
      "confl": 2966,
      "electric": 2967,
      "sister": 2968,
      "needed": 2969,
      "iter": 2970,
      "numbers": 2971,
      "stein": 2972,
      "below": 2973,
      "cers": 2974,
      "wish": 2975,
      "smaller": 2976,
      "angeles": 2977,
      "boat": 2978,
      "traditional": 2979,
      "bol": 2980,
      "onna": 2981,
      "advance": 2982,
      "religious": 2983,
      "francis": 2984,
      "contains": 2985,
      "attempted": 2986,
      "shown": 2987,
      "1995": 2988,
      "occurred": 2989,
      "gradu": 2990,
      "wound": 2991,
      "newsp": 2992,
      "famil": 2993,
      "2nd": 2994,
      "pick": 2995,
      "atives": 2996,
      "improve": 2997,
      "uals": 2998,
      "simp": 2999,
      "rare": 3000,
      "mention": 3001,
      "evol": 3002,
      "festival": 3003,
      "culture": 3004,
      "elected": 3005,
      "chem": 3006,
      "rein": 3007,
      "background": 3008,
      "annual": 3009,
      "distin": 3010,
      "ustr": 3011,
      "stom": 3012,
      "tower": 3013,
      "rose": 3014,
      "guest": 3015,
      "19th": 3016,
      "referred": 3017,
      "inch": 3018,
      "produce": 3019,
      "notes": 3020,
      "collection": 3021,
      "neigh": 3022,
      "gate": 3023,
      "render": 3024,
      "fal": 3025,
      "silver": 3026,
      "question": 3027,
      "amount": 3028,
      "gam": 3029,
      "1950": 3030,
      "crow": 3031,
      "1996": 3032,
      "schools": 3033,
      "replace": 3034,
      "olic": 3035,
      "audience": 3036,
      "theme": 3037,
      "indic": 3038,
      "ki": 3039,
      "italian": 3040,
      "largely": 3041,
      "resulted": 3042,
      "mess": 3043,
      "kept": 3044,
      "cath": 3045,
      "build": 3046,
      "2016": 3047,
      "economic": 3048,
      "slight": 3049,
      "arts": 3050,
      "severe": 3051,
      "architect": 3052,
      "variety": 3053,
      "tournam": 3054,
      "kind": 3055,
      "constant": 3056,
      "earned": 3057,
      "stream": 3058,
      "ira": 3059,
      "jac": 3060,
      "jose": 3061,
      "starting": 3062,
      "controver": 3063,
      "competition": 3064,
      "directly": 3065,
      "prime": 3066,
      "ug": 3067,
      "industri": 3068,
      "sisted": 3069,
      "philip": 3070,
      "path": 3071,
      "1994": 3072,
      "commented": 3073,
      "scul": 3074,
      "document": 3075,
      "ech": 3076,
      "disco": 3077,
      "stadium": 3078,
      "cab": 3079,
      "andre": 3080,
      "rapid": 3081,
      "attention": 3082,
      "ix": 3083,
      "chor": 3084,
      "55": 3085,
      "ssing": 3086,
      "quarters": 3087,
      "michigan": 3088,
      "trail": 3089,
      "izing": 3090,
      "camer": 3091,
      "refused": 3092,
      "extre": 3093,
      "zeal": 3094,
      "install": 3095,
      "atest": 3096,
      "sexual": 3097,
      "gran": 3098,
      "session": 3099,
      "stories": 3100,
      "greatest": 3101,
      "performances": 3102,
      "thr": 3103,
      "beth": 3104,
      "things": 3105,
      "ening": 3106,
      "princ": 3107,
      "declared": 3108,
      "imper": 3109,
      "180": 3110,
      "focus": 3111,
      "penn": 3112,
      "adel": 3113,
      "serious": 3114,
      "wales": 3115,
      "direction": 3116,
      "matches": 3117,
      "method": 3118,
      "ona": 3119,
      "marriage": 3120,
      "drew": 3121,
      "promin": 3122,
      "defense": 3123,
      "meant": 3124,
      "bia": 3125,
      "cry": 3126,
      "touch": 3127,
      "vocals": 3128,
      "wol": 3129,
      "hundred": 3130,
      "weather": 3131,
      "doctor": 3132,
      "sec": 3133,
      "abandon": 3134,
      "levels": 3135,
      "eth": 3136,
      "44": 3137,
      "sides": 3138,
      "ov": 3139,
      "lane": 3140,
      "concert": 3141,
      "ja": 3142,
      "inner": 3143,
      "chron": 3144,
      "murder": 3145,
      "nearby": 3146,
      "cases": 3147,
      "pret": 3148,
      "resist": 3149,
      "bun": 3150,
      "practice": 3151,
      "organization": 3152,
      "nick": 3153,
      "northwest": 3154,
      "marsh": 3155,
      "determin": 3156,
      "windo": 3157,
      "uter": 3158,
      "ination": 3159,
      "ications": 3160,
      "labor": 3161,
      "hl": 3162,
      "reception": 3163,
      "sn": 3164,
      "mile": 3165,
      "emper": 3166,
      "fantasy": 3167,
      "honor": 3168,
      "beach": 3169,
      "birds": 3170,
      "dvd": 3171,
      "eye": 3172,
      "candid": 3173,
      "incorpor": 3174,
      "chris": 3175,
      "pin": 3176,
      "admiral": 3177,
      "spot": 3178,
      "vocal": 3179,
      "favour": 3180,
      "systems": 3181,
      "separate": 3182,
      "grant": 3183,
      "libr": 3184,
      "highly": 3185,
      "uten": 3186,
      "1992": 3187,
      "means": 3188,
      "settle": 3189,
      "continue": 3190,
      "65": 3191,
      "pack": 3192,
      "gall": 3193,
      "southeast": 3194,
      "ulated": 3195,
      "ises": 3196,
      "invas": 3197,
      "urban": 3198,
      "rule": 3199,
      "medical": 3200,
      "rum": 3201,
      "mechan": 3202,
      "farm": 3203,
      "zealand": 3204,
      "african": 3205,
      "exhib": 3206,
      "executive": 3207,
      "ultimately": 3208,
      "passing": 3209,
      "jam": 3210,
      "charge": 3211,
      "drive": 3212,
      "scr": 3213,
      "reduced": 3214,
      "arab": 3215,
      "presented": 3216,
      "mexico": 3217,
      "effort": 3218,
      "divided": 3219,
      "observ": 3220,
      "theatre": 3221,
      "sr": 3222,
      "attended": 3223,
      "coal": 3224,
      "brad": 3225,
      "tried": 3226,
      "multiple": 3227,
      "aur": 3228,
      "lab": 3229,
      "sav": 3230,
      "ula": 3231,
      "vince": 3232,
      "20th": 3233,
      "memorial": 3234,
      "animals": 3235,
      "bled": 3236,
      "ow": 3237,
      "yel": 3238,
      "americ": 3239,
      "source": 3240,
      "efforts": 3241,
      "advent": 3242,
      "quality": 3243,
      "serve": 3244,
      "wealth": 3245,
      "stating": 3246,
      "lip": 3247,
      "studies": 3248,
      "responsible": 3249,
      "mut": 3250,
      "function": 3251,
      "accepted": 3252,
      "dor": 3253,
      "burn": 3254,
      "financial": 3255,
      "border": 3256,
      "fund": 3257,
      "nest": 3258,
      "1930": 3259,
      "symb": 3260,
      "trial": 3261,
      "ceremon": 3262,
      "400": 3263,
      "madonna": 3264,
      "mand": 3265,
      "restor": 3266,
      "incident": 3267,
      "creation": 3268,
      "founded": 3269,
      "begins": 3270,
      "true": 3271,
      "sole": 3272,
      "enemy": 3273,
      "ems": 3274,
      "setting": 3275,
      "rat": 3276,
      "thick": 3277,
      "traffic": 3278,
      "saint": 3279,
      "1991": 3280,
      "stay": 3281,
      "itation": 3282,
      "happ": 3283,
      "meaning": 3284,
      "scotland": 3285,
      "1993": 3286,
      "jones": 3287,
      "ome": 3288,
      "scale": 3289,
      "lieuten": 3290,
      "planet": 3291,
      "write": 3292,
      "chance": 3293,
      "extr": 3294,
      "protest": 3295,
      "flying": 3296,
      "parents": 3297,
      "managed": 3298,
      "advis": 3299,
      "loy": 3300,
      "airport": 3301,
      "mul": 3302,
      "aust": 3303,
      "paid": 3304,
      "95": 3305,
      "roads": 3306,
      "electron": 3307,
      "companies": 3308,
      "fat": 3309,
      "activity": 3310,
      "tam": 3311,
      "fellow": 3312,
      "arms": 3313,
      "painting": 3314,
      "resulting": 3315,
      "greek": 3316,
      "lap": 3317,
      "visions": 3318,
      "excl": 3319,
      "broke": 3320,
      "thous": 3321,
      "dropped": 3322,
      "titled": 3323,
      "tournament": 3324,
      "mind": 3325,
      "showed": 3326,
      "academy": 3327,
      "cub": 3328,
      "artill": 3329,
      "eigh": 3330,
      "allowing": 3331,
      "oth": 3332,
      "authority": 3333,
      "policy": 3334,
      "mn": 3335,
      "folk": 3336,
      "combined": 3337,
      "vation": 3338,
      "secretary": 3339,
      "emperor": 3340,
      "armed": 3341,
      "exped": 3342,
      "resol": 3343,
      "kn": 3344,
      "thin": 3345,
      "extreme": 3346,
      "artillery": 3347,
      "latin": 3348,
      "ceeded": 3349,
      "slo": 3350,
      "rot": 3351,
      "continues": 3352,
      "williams": 3353,
      "inches": 3354,
      "passeng": 3355,
      "spirit": 3356,
      "avoid": 3357,
      "ament": 3358,
      "property": 3359,
      "lieutenant": 3360,
      "sie": 3361,
      "kings": 3362,
      "subsequent": 3363,
      "syl": 3364,
      "artists": 3365,
      "solo": 3366,
      "chi": 3367,
      "calling": 3368,
      "tree": 3369,
      "enn": 3370,
      "contemporary": 3371,
      "attempts": 3372,
      "ulf": 3373,
      "territory": 3374,
      "accept": 3375,
      "account": 3376,
      "deliver": 3377,
      "grade": 3378,
      "cities": 3379,
      "lyn": 3380,
      "cold": 3381,
      "selling": 3382,
      "machine": 3383,
      "voy": 3384,
      "rev": 3385,
      "colour": 3386,
      "administration": 3387,
      "potential": 3388,
      "pilot": 3389,
      "behav": 3390,
      "presence": 3391,
      "wise": 3392,
      "viewers": 3393,
      "matic": 3394,
      "agu": 3395,
      "studios": 3396,
      "sixth": 3397,
      "egy": 3398,
      "thousand": 3399,
      "ell": 3400,
      "sequence": 3401,
      "officials": 3402,
      "bishop": 3403,
      "conducted": 3404,
      "yan": 3405,
      "sip": 3406,
      "maintain": 3407,
      "defence": 3408,
      "digital": 3409,
      "job": 3410,
      "ump": 3411,
      "repair": 3412,
      "propos": 3413,
      "contrast": 3414,
      "conds": 3415,
      "ites": 3416,
      "1942": 3417,
      "sac": 3418,
      "image": 3419,
      "extensive": 3420,
      "dome": 3421,
      "content": 3422,
      "78": 3423,
      "portun": 3424,
      "figure": 3425,
      "sense": 3426,
      "opportun": 3427,
      "hat": 3428,
      "owned": 3429,
      "recomm": 3430,
      "twel": 3431,
      "transferred": 3432,
      "scoring": 3433,
      "64": 3434,
      "temple": 3435,
      "senior": 3436,
      "enjoy": 3437,
      "hors": 3438,
      "maximum": 3439,
      "bond": 3440,
      "demonstr": 3441,
      "pedo": 3442,
      "ada": 3443,
      "yellow": 3444,
      "aga": 3445,
      "wy": 3446,
      "allied": 3447,
      "chos": 3448,
      "collabor": 3449,
      "pic": 3450,
      "bles": 3451,
      "isation": 3452,
      "beaut": 3453,
      "ification": 3454,
      "stal": 3455,
      "security": 3456,
      "filming": 3457,
      "therefore": 3458,
      "primarily": 3459,
      "patter": 3460,
      "faced": 3461,
      "strength": 3462,
      "actors": 3463,
      "relatively": 3464,
      "featuring": 3465,
      "theory": 3466,
      "student": 3467,
      "peaked": 3468,
      "apart": 3469,
      "dise": 3470,
      "torpedo": 3471,
      "arthur": 3472,
      "becomes": 3473,
      "bird": 3474,
      "actually": 3475,
      "seconds": 3476,
      "oxford": 3477,
      "joseph": 3478,
      "travel": 3479,
      "physical": 3480,
      "ku": 3481,
      "hap": 3482,
      "distance": 3483,
      "outs": 3484,
      "battleship": 3485,
      "mond": 3486,
      "accident": 3487,
      "concluded": 3488,
      "citiz": 3489,
      "boston": 3490,
      "hair": 3491,
      "draft": 3492,
      "brand": 3493,
      "share": 3494,
      "dur": 3495,
      "management": 3496,
      "observed": 3497,
      "harrison": 3498,
      "alleg": 3499,
      "supp": 3500,
      "raid": 3501,
      "table": 3502,
      "ots": 3503,
      "armor": 3504,
      "41": 3505,
      "situation": 3506,
      "mine": 3507,
      "conver": 3508,
      "manchester": 3509,
      "76": 3510,
      "sions": 3511,
      "mann": 3512,
      "sust": 3513,
      "prise": 3514,
      "identified": 3515,
      "alongside": 3516,
      "invasion": 3517,
      "swed": 3518,
      "alone": 3519,
      "affair": 3520,
      "ressed": 3521,
      "concent": 3522,
      "benef": 3523,
      "lic": 3524,
      "egypt": 3525,
      "paper": 3526,
      "mob": 3527,
      "arent": 3528,
      "slightly": 3529,
      "results": 3530,
      "returning": 3531,
      "brid": 3532,
      "historical": 3533,
      "versions": 3534,
      "missed": 3535,
      "owner": 3536,
      "42": 3537,
      "agreement": 3538,
      "kg": 3539,
      "ration": 3540,
      "kir": 3541,
      "1944": 3542,
      "historian": 3543,
      "inte": 3544,
      "wave": 3545,
      "crash": 3546,
      "minim": 3547,
      "dog": 3548,
      "imperial": 3549,
      "anci": 3550,
      "150": 3551,
      "85": 3552,
      "ridge": 3553,
      "sources": 3554,
      "ify": 3555,
      "pian": 3556,
      "surroun": 3557,
      "core": 3558,
      "ays": 3559,
      "else": 3560,
      "vessel": 3561,
      "influenced": 3562,
      "appoint": 3563,
      "nothing": 3564,
      "bbc": 3565,
      "freed": 3566,
      "43": 3567,
      "aid": 3568,
      "feed": 3569,
      "struck": 3570,
      "orders": 3571,
      "innings": 3572,
      "places": 3573,
      "custom": 3574,
      "types": 3575,
      "nominated": 3576,
      "soundtrack": 3577,
      "completely": 3578,
      "medal": 3579,
      "confirmed": 3580,
      "athlet": 3581,
      "residents": 3582,
      "comedy": 3583,
      "anne": 3584,
      "drawn": 3585,
      "promoted": 3586,
      "designated": 3587,
      "crown": 3588,
      "commissioned": 3589,
      "leon": 3590,
      "sem": 3591,
      "door": 3592,
      "iced": 3593,
      "paris": 3594,
      "preser": 3595,
      "cultural": 3596,
      "metro": 3597,
      "croat": 3598,
      "gets": 3599,
      "conflict": 3600,
      "appl": 3601,
      "istics": 3602,
      "powerful": 3603,
      "mainly": 3604,
      "capture": 3605,
      "solid": 3606,
      "attend": 3607,
      "tellig": 3608,
      "1990": 3609,
      "avenue": 3610,
      "floor": 3611,
      "waters": 3612,
      "intellig": 3613,
      "sought": 3614,
      "lation": 3615,
      "sher": 3616,
      "seasons": 3617,
      "encour": 3618,
      "stephen": 3619,
      "atom": 3620,
      "ari": 3621,
      "offensive": 3622,
      "astic": 3623,
      "oso": 3624,
      "shap": 3625,
      "opin": 3626,
      "achieve": 3627,
      "foc": 3628,
      "justice": 3629,
      "orche": 3630,
      "rear": 3631,
      "husband": 3632,
      "ji": 3633,
      "offer": 3634,
      "canal": 3635,
      "reaching": 3636,
      "explained": 3637,
      "dete": 3638,
      "older": 3639,
      "1920": 3640,
      "dim": 3641,
      "italy": 3642,
      "asia": 3643,
      "1945": 3644,
      "shell": 3645,
      "yer": 3646,
      "acu": 3647,
      "1941": 3648,
      "weapons": 3649,
      "appearances": 3650,
      "supply": 3651,
      "cine": 3652,
      "growth": 3653,
      "steam": 3654,
      "looking": 3655,
      "ume": 3656,
      "steel": 3657,
      "rho": 3658,
      "americans": 3659,
      "dang": 3660,
      "ancient": 3661,
      "successfully": 3662,
      "widely": 3663,
      "pap": 3664,
      "logical": 3665,
      "gained": 3666,
      "proved": 3667,
      "micro": 3668,
      "officially": 3669,
      "pieces": 3670,
      "assa": 3671,
      "baseball": 3672,
      "shel": 3673,
      "otto": 3674,
      "instrument": 3675,
      "drama": 3676,
      "workers": 3677,
      "watch": 3678,
      "jersey": 3679,
      "negot": 3680,
      "surrounding": 3681,
      "fiction": 3682,
      "duke": 3683,
      "poly": 3684,
      "eas": 3685,
      "kr": 3686,
      "choice": 3687,
      "rhy": 3688,
      "beyond": 3689,
      "swit": 3690,
      "nit": 3691,
      "ulations": 3692,
      "brothers": 3693,
      "mast": 3694,
      "gary": 3695,
      "kick": 3696,
      "mounted": 3697,
      "horses": 3698,
      "ireland": 3699,
      "manu": 3700,
      "exc": 3701,
      "jeff": 3702,
      "organized": 3703,
      "doing": 3704,
      "reign": 3705,
      "jr": 3706,
      "99": 3707,
      "express": 3708,
      "library": 3709,
      "element": 3710,
      "vania": 3711,
      "ano": 3712,
      "sle": 3713,
      "apo": 3714,
      "headquarters": 3715,
      "ahead": 3716,
      "ero": 3717,
      "ami": 3718,
      "says": 3719,
      "normal": 3720,
      "affected": 3721,
      "cert": 3722,
      "laid": 3723,
      "gri": 3724,
      "partner": 3725,
      "rainfall": 3726,
      "fine": 3727,
      "endo": 3728,
      "moon": 3729,
      "capac": 3730,
      "bush": 3731,
      "speech": 3732,
      "ert": 3733,
      "causing": 3734,
      "cool": 3735,
      "bodies": 3736,
      "bowl": 3737,
      "visited": 3738,
      "theless": 3739,
      "victoria": 3740,
      "represented": 3741,
      "expressed": 3742,
      "cance": 3743,
      "leaders": 3744,
      "crimin": 3745,
      "von": 3746,
      "fred": 3747,
      "require": 3748,
      "1989": 3749,
      "ito": 3750,
      "matter": 3751,
      "1943": 3752,
      "vote": 3753,
      "catholic": 3754,
      "famous": 3755,
      "equipment": 3756,
      "split": 3757,
      "zed": 3758,
      "escape": 3759,
      "apparent": 3760,
      "article": 3761,
      "broken": 3762,
      "hotel": 3763,
      "channel": 3764,
      "imag": 3765,
      "strike": 3766,
      "store": 3767,
      "fired": 3768,
      "reports": 3769,
      "tells": 3770,
      "snow": 3771,
      "computer": 3772,
      "fuel": 3773,
      "cip": 3774,
      "prominent": 3775,
      "bart": 3776,
      "occasion": 3777,
      "advanced": 3778,
      "600": 3779,
      "advant": 3780,
      "lb": 3781,
      "nations": 3782,
      "rob": 3783,
      "skill": 3784,
      "analys": 3785,
      "assemb": 3786,
      "worldwide": 3787,
      "claims": 3788,
      "charts": 3789,
      "techni": 3790,
      "tay": 3791,
      "technology": 3792,
      "sens": 3793,
      "category": 3794,
      "manufact": 3795,
      "defend": 3796,
      "experiment": 3797,
      "treatment": 3798,
      "leaves": 3799,
      "negative": 3800,
      "usual": 3801,
      "senate": 3802,
      "heavily": 3803,
      "uled": 3804,
      "reserve": 3805,
      "spread": 3806,
      "trees": 3807,
      "activities": 3808,
      "nas": 3809,
      "graphic": 3810,
      "powers": 3811,
      "dutch": 3812,
      "extra": 3813,
      "3rd": 3814,
      "meanwhile": 3815,
      "gment": 3816,
      "arre": 3817,
      "condition": 3818,
      "why": 3819,
      "unknown": 3820,
      "77": 3821,
      "guar": 3822,
      "actress": 3823,
      "editor": 3824,
      "figures": 3825,
      "shore": 3826,
      "walls": 3827,
      "hands": 3828,
      "apped": 3829,
      "toward": 3830,
      "believe": 3831,
      "historic": 3832,
      "combin": 3833,
      "rome": 3834,
      "injury": 3835,
      "aired": 3836,
      "sity": 3837,
      "brook": 3838,
      "passes": 3839,
      "landing": 3840,
      "homer": 3841,
      "ckey": 3842,
      "lives": 3843,
      "plement": 3844,
      "expedition": 3845,
      "strugg": 3846,
      "data": 3847,
      "sport": 3848,
      "negoti": 3849,
      "unlike": 3850,
      "motor": 3851,
      "currently": 3852,
      "1940": 3853,
      "zone": 3854,
      "golden": 3855,
      "heads": 3856,
      "dream": 3857,
      "casual": 3858,
      "ols": 3859,
      "crossing": 3860,
      "nav": 3861,
      "dry": 3862,
      "stations": 3863,
      "necessary": 3864,
      "challeng": 3865,
      "phone": 3866,
      "consisted": 3867,
      "typically": 3868,
      "holding": 3869,
      "debuted": 3870,
      "attach": 3871,
      "vice": 3872,
      "1980s": 3873,
      "none": 3874,
      "aling": 3875,
      "ledge": 3876,
      "lau": 3877,
      "republ": 3878,
      "icts": 3879,
      "zy": 3880,
      "rise": 3881,
      "heard": 3882,
      "bach": 3883,
      "couple": 3884,
      "branch": 3885,
      "expans": 3886,
      "argued": 3887,
      "rect": 3888,
      "eliza": 3889,
      "frequently": 3890,
      "dated": 3891,
      "cricket": 3892,
      "kh": 3893,
      "opposed": 3894,
      "awa": 3895,
      "shif": 3896,
      "yu": 3897,
      "ota": 3898,
      "industrial": 3899,
      "ato": 3900,
      "polish": 3901,
      "value": 3902,
      "reference": 3903,
      "66": 3904,
      "hear": 3905,
      "anta": 3906,
      "twice": 3907,
      "finish": 3908,
      "hope": 3909,
      "lect": 3910,
      "uments": 3911,
      "animal": 3912,
      "rand": 3913,
      "aspect": 3914,
      "clin": 3915,
      "ini": 3916,
      "ounds": 3917,
      "sphere": 3918,
      "yo": 3919,
      "opposition": 3920,
      "elimin": 3921,
      "maintained": 3922,
      "advert": 3923,
      "protection": 3924,
      "glass": 3925,
      "phas": 3926,
      "trying": 3927,
      "supre": 3928,
      "lying": 3929,
      "1970s": 3930,
      "wart": 3931,
      "ingu": 3932,
      "operated": 3933,
      "problem": 3934,
      "gia": 3935,
      "criticized": 3936,
      "fru": 3937,
      "arrange": 3938,
      "moment": 3939,
      "bra": 3940,
      "growing": 3941,
      "lun": 3942,
      "modif": 3943,
      "carolina": 3944,
      "gers": 3945,
      "web": 3946,
      "hr": 3947,
      "1960s": 3948,
      "holly": 3949,
      "joint": 3950,
      "compar": 3951,
      "wheel": 3952,
      "jes": 3953,
      "chosen": 3954,
      "austri": 3955,
      "cked": 3956,
      "pursu": 3957,
      "notable": 3958,
      "webs": 3959,
      "institute": 3960,
      "mount": 3961,
      "pir": 3962,
      "twelve": 3963,
      "note": 3964,
      "scottish": 3965,
      "bute": 3966,
      "ros": 3967,
      "producers": 3968,
      "rolling": 3969,
      "classic": 3970,
      "wounded": 3971,
      "plants": 3972,
      "1987": 3973,
      "comic": 3974,
      "caval": 3975,
      "sia": 3976,
      "seventh": 3977,
      "onel": 3978,
      "assembly": 3979,
      "max": 3980,
      "philoso": 3981,
      "sumed": 3982,
      "grew": 3983,
      "1988": 3984,
      "youth": 3985,
      "stood": 3986,
      "fare": 3987,
      "newspaper": 3988,
      "consecut": 3989,
      "zen": 3990,
      "billion": 3991,
      "degree": 3992,
      "sites": 3993,
      "nuclear": 3994,
      "independence": 3995,
      "96": 3996,
      "shop": 3997,
      "phia": 3998,
      "republican": 3999,
      "vari": 4000,
      "atures": 4001,
      "rival": 4002,
      "deck": 4003,
      "bru": 4004,
      "illustr": 4005,
      "fields": 4006,
      "ares": 4007,
      "voted": 4008,
      "risk": 4009,
      "oppos": 4010,
      "ficient": 4011,
      "bid": 4012,
      "vot": 4013,
      "serving": 4014,
      "boats": 4015,
      "jay": 4016,
      "hay": 4017,
      "mem": 4018,
      "div": 4019,
      "teenth": 4020,
      "scar": 4021,
      "joe": 4022,
      "simply": 4023,
      "roof": 4024,
      "perfect": 4025,
      "fresh": 4026,
      "killing": 4027,
      "aware": 4028,
      "weekly": 4029,
      "kee": 4030,
      "follows": 4031,
      "losing": 4032,
      "alternative": 4033,
      "contained": 4034,
      "expansion": 4035,
      "integr": 4036,
      "regarded": 4037,
      "christmas": 4038,
      "newly": 4039,
      "ec": 4040,
      "herself": 4041,
      "conce": 4042,
      "emphas": 4043,
      "individuals": 4044,
      "hydro": 4045,
      "cock": 4046,
      "iff": 4047,
      "pennsyl": 4048,
      "homes": 4049,
      "oppon": 4050,
      "happen": 4051,
      "agric": 4052,
      "eyes": 4053,
      "consecutive": 4054,
      "honour": 4055,
      "holds": 4056,
      "measure": 4057,
      "reven": 4058,
      "finding": 4059,
      "mist": 4060,
      "throw": 4061,
      "pier": 4062,
      "continent": 4063,
      "wilson": 4064,
      "unds": 4065,
      "mentioned": 4066,
      "ranged": 4067,
      "push": 4068,
      "adapt": 4069,
      "taylor": 4070,
      "franch": 4071,
      "creating": 4072,
      "ils": 4073,
      "pine": 4074,
      "spin": 4075,
      "website": 4076,
      "cannot": 4077,
      "chose": 4078,
      "seas": 4079,
      "ulty": 4080,
      "perman": 4081,
      "sets": 4082,
      "supporting": 4083,
      "lady": 4084,
      "visual": 4085,
      "circ": 4086,
      "arc": 4087,
      "encounter": 4088,
      "goes": 4089,
      "capacity": 4090,
      "kid": 4091,
      "alexander": 4092,
      "boys": 4093,
      "participated": 4094,
      "analysis": 4095,
      "initi": 4096,
      "contest": 4097,
      "56": 4098,
      "paralle": 4099,
      "1986": 4100,
      "tric": 4101,
      "hart": 4102,
      "hang": 4103,
      "adopted": 4104,
      "mcc": 4105,
      "democratic": 4106,
      "filmed": 4107,
      "calls": 4108,
      "gain": 4109,
      "leadership": 4110,
      "multi": 4111,
      "robin": 4112,
      "rod": 4113,
      "kit": 4114,
      "abandoned": 4115,
      "sche": 4116,
      "disease": 4117,
      "volume": 4118,
      "basis": 4119,
      "aly": 4120,
      "nan": 4121,
      "meters": 4122,
      "girls": 4123,
      "distingu": 4124,
      "possibly": 4125,
      "equal": 4126,
      "agg": 4127,
      "themes": 4128,
      "rush": 4129,
      "contact": 4130,
      "aded": 4131,
      "purpose": 4132,
      "pennsylvania": 4133,
      "seat": 4134,
      "freedom": 4135,
      "mate": 4136,
      "disc": 4137,
      "strip": 4138,
      "defensive": 4139,
      "mike": 4140,
      "failure": 4141,
      "fication": 4142,
      "gill": 4143,
      "dram": 4144,
      "irish": 4145,
      "judge": 4146,
      "wick": 4147,
      "glas": 4148,
      "genus": 4149,
      "straight": 4150,
      "iled": 4151,
      "adult": 4152,
      "harry": 4153,
      "treaty": 4154,
      "bron": 4155,
      "deploy": 4156,
      "58": 4157,
      "rooms": 4158,
      "lia": 4159,
      "palace": 4160,
      "foundation": 4161,
      "guide": 4162,
      "bac": 4163,
      "colonel": 4164,
      "ita": 4165,
      "brian": 4166,
      "md": 4167,
      "constitution": 4168,
      "xon": 4169,
      "interchange": 4170,
      "fro": 4171,
      "southwest": 4172,
      "basket": 4173,
      "garden": 4174,
      "tag": 4175,
      "spain": 4176,
      "principal": 4177,
      "ideas": 4178,
      "myth": 4179,
      "98": 4180,
      "cd": 4181,
      "retired": 4182,
      "wars": 4183,
      "surrender": 4184,
      "unique": 4185,
      "occupied": 4186,
      "improved": 4187,
      "hockey": 4188,
      "speak": 4189,
      "generation": 4190,
      "insu": 4191,
      "younger": 4192,
      "witness": 4193,
      "page": 4194,
      "agent": 4195,
      "ria": 4196,
      "suppor": 4197,
      "inno": 4198,
      "struction": 4199,
      "borough": 4200,
      "istan": 4201,
      "isra": 4202,
      "chamber": 4203,
      "sections": 4204,
      "evacu": 4205,
      "anni": 4206,
      "budget": 4207,
      "vised": 4208,
      "ctic": 4209,
      "titles": 4210,
      "kins": 4211,
      "opera": 4212,
      "grounds": 4213,
      "scientific": 4214,
      "repeated": 4215,
      "achieved": 4216,
      "count": 4217,
      "tho": 4218,
      "trou": 4219,
      "dollar": 4220,
      "roles": 4221,
      "families": 4222,
      "atmo": 4223,
      "online": 4224,
      "print": 4225,
      "elizabeth": 4226,
      "effective": 4227,
      "1939": 4228,
      "anda": 4229,
      "1990s": 4230,
      "briefly": 4231,
      "province": 4232,
      "eleven": 4233,
      "simple": 4234,
      "tered": 4235,
      "ider": 4236,
      "braz": 4237,
      "angle": 4238,
      "clou": 4239,
      "thro": 4240,
      "gameplay": 4241,
      "piano": 4242,
      "turns": 4243,
      "granted": 4244,
      "merch": 4245,
      "techn": 4246,
      "shor": 4247,
      "experienced": 4248,
      "regional": 4249,
      "determined": 4250,
      "burgh": 4251,
      "gather": 4252,
      "economy": 4253,
      "vehicles": 4254,
      "firm": 4255,
      "gent": 4256,
      "advantage": 4257,
      "lum": 4258,
      "caught": 4259,
      "junction": 4260,
      "rejected": 4261,
      "fame": 4262,
      "gives": 4263,
      "flat": 4264,
      "collap": 4265,
      "jen": 4266,
      "tact": 4267,
      "recently": 4268,
      "fighter": 4269,
      "baby": 4270,
      "controlled": 4271,
      "kilometres": 4272,
      "secondary": 4273,
      "expanded": 4274,
      "performing": 4275,
      "flooding": 4276,
      "ressive": 4277,
      "receive": 4278,
      "letters": 4279,
      "authorities": 4280,
      "1968": 4281,
      "adding": 4282,
      "attribut": 4283,
      "ola": 4284,
      "ene": 4285,
      "asc": 4286,
      "academ": 4287,
      "1985": 4288,
      "motional": 4289,
      "didn": 4290,
      "tall": 4291,
      "eld": 4292,
      "ohio": 4293,
      "cavalry": 4294,
      "ques": 4295,
      "52": 4296,
      "guy": 4297,
      "supreme": 4298,
      "commo": 4299,
      "vel": 4300,
      "1970": 4301,
      "fought": 4302,
      "conve": 4303,
      "commonly": 4304,
      "credited": 4305,
      "cook": 4306,
      "describes": 4307,
      "literature": 4308,
      "acquired": 4309,
      "soul": 4310,
      "assistant": 4311,
      "tend": 4312,
      "sort": 4313,
      "safety": 4314,
      "pel": 4315,
      "picture": 4316,
      "anton": 4317,
      "din": 4318,
      "lif": 4319,
      "fu": 4320,
      "iments": 4321,
      "singing": 4322,
      "regarding": 4323,
      "protected": 4324,
      "narr": 4325,
      "narrow": 4326,
      "accompan": 4327,
      "prefer": 4328,
      "scheduled": 4329,
      "ador": 4330,
      "freeway": 4331,
      "enge": 4332,
      "philadel": 4333,
      "cha": 4334,
      "planning": 4335,
      "alli": 4336,
      "criticism": 4337,
      "suggests": 4338,
      "inde": 4339,
      "clark": 4340,
      "shooting": 4341,
      "rian": 4342,
      "coln": 4343,
      "alty": 4344,
      "lev": 4345,
      "centuries": 4346,
      "ye": 4347,
      "utions": 4348,
      "800": 4349,
      "towns": 4350,
      "iday": 4351,
      "1984": 4352,
      "borne": 4353,
      "soft": 4354,
      "cambridge": 4355,
      "crime": 4356,
      "apol": 4357,
      "falls": 4358,
      "ults": 4359,
      "reading": 4360,
      "georgia": 4361,
      "ura": 4362,
      "height": 4363,
      "agan": 4364,
      "connected": 4365,
      "contain": 4366,
      "wic": 4367,
      "reput": 4368,
      "withdraw": 4369,
      "code": 4370,
      "poe": 4371,
      "convention": 4372,
      "iful": 4373,
      "gulf": 4374,
      "accompanied": 4375,
      "haps": 4376,
      "philadelphia": 4377,
      "victim": 4378,
      "campus": 4379,
      "progress": 4380,
      "reaction": 4381,
      "ligh": 4382,
      "cars": 4383,
      "88": 4384,
      "trip": 4385,
      "bands": 4386,
      "decre": 4387,
      "gency": 4388,
      "perhaps": 4389,
      "nis": 4390,
      "save": 4391,
      "attle": 4392,
      "launch": 4393,
      "une": 4394,
      "finds": 4395,
      "locations": 4396,
      "existing": 4397,
      "map": 4398,
      "escor": 4399,
      "recon": 4400,
      "eg": 4401,
      "asser": 4402,
      "inth": 4403,
      "russia": 4404,
      "estate": 4405,
      "mol": 4406,
      "price": 4407,
      "120": 4408,
      "facilities": 4409,
      "quite": 4410,
      "specim": 4411,
      "1967": 4412,
      "recru": 4413,
      "remo": 4414,
      "protect": 4415,
      "laws": 4416,
      "korean": 4417,
      "exchange": 4418,
      "gol": 4419,
      "containing": 4420,
      "moral": 4421,
      "97": 4422,
      "arrival": 4423,
      "forming": 4424,
      "approved": 4425,
      "nint": 4426,
      "belong": 4427,
      "touchdown": 4428,
      "whit": 4429,
      "evening": 4430,
      "selection": 4431,
      "ceremony": 4432,
      "wrestling": 4433,
      "headed": 4434,
      "ders": 4435,
      "1980": 4436,
      "nintendo": 4437,
      "aka": 4438,
      "liverpool": 4439,
      "ottoman": 4440,
      "rules": 4441,
      "scholar": 4442,
      "rout": 4443,
      "exer": 4444,
      "fash": 4445,
      "slav": 4446,
      "grey": 4447,
      "entirely": 4448,
      "product": 4449,
      "hits": 4450,
      "andrew": 4451,
      "herit": 4452,
      "trains": 4453,
      "columbia": 4454,
      "aer": 4455,
      "target": 4456,
      "geo": 4457,
      "cruiser": 4458,
      "miller": 4459,
      "bou": 4460,
      "intensity": 4461,
      "dedicated": 4462,
      "purchased": 4463,
      "gay": 4464,
      "contributed": 4465,
      "51": 4466,
      "lav": 4467,
      "dale": 4468,
      "allows": 4469,
      "composition": 4470,
      "jewish": 4471,
      "prop": 4472,
      "singap": 4473,
      "publish": 4474,
      "hell": 4475,
      "melo": 4476,
      "gone": 4477,
      "filled": 4478,
      "casualties": 4479,
      "tip": 4480,
      "structures": 4481,
      "oak": 4482,
      "provides": 4483,
      "iding": 4484,
      "employed": 4485,
      "windows": 4486,
      "brazil": 4487,
      "resem": 4488,
      "sessions": 4489,
      "battery": 4490,
      "prepared": 4491,
      "satis": 4492,
      "missing": 4493,
      "57": 4494,
      "engaged": 4495,
      "rig": 4496,
      "resistance": 4497,
      "turning": 4498,
      "faith": 4499,
      "las": 4500,
      "happy": 4501,
      "carey": 4502,
      "iring": 4503,
      "twin": 4504,
      "aste": 4505,
      "minist": 4506,
      "poll": 4507,
      "proto": 4508,
      "wright": 4509,
      "viewed": 4510,
      "publication": 4511,
      "eighth": 4512,
      "regions": 4513,
      "francisco": 4514,
      "correspon": 4515,
      "basketball": 4516,
      "singapore": 4517,
      "rance": 4518,
      "det": 4519,
      "lincoln": 4520,
      "ody": 4521,
      "bourne": 4522,
      "preced": 4523,
      "nik": 4524,
      "rence": 4525,
      "azz": 4526,
      "1983": 4527,
      "1969": 4528,
      "placing": 4529,
      "ables": 4530,
      "rounded": 4531,
      "resour": 4532,
      "pitch": 4533,
      "jean": 4534,
      "satur": 4535,
      "coastal": 4536,
      "raf": 4537,
      "1964": 4538,
      "desc": 4539,
      "plane": 4540,
      "focused": 4541,
      "heim": 4542,
      "ivity": 4543,
      "cles": 4544,
      "resc": 4545,
      "cies": 4546,
      "charged": 4547,
      "link": 4548,
      "54": 4549,
      "receiving": 4550,
      "corner": 4551,
      "views": 4552,
      "closely": 4553,
      "evil": 4554,
      "hms": 4555,
      "walter": 4556,
      "disney": 4557,
      "bath": 4558,
      "belief": 4559,
      "bn": 4560,
      "mam": 4561,
      "isol": 4562,
      "lers": 4563,
      "1914": 4564,
      "opportunity": 4565,
      "playstation": 4566,
      "anderson": 4567,
      "display": 4568,
      "lewis": 4569,
      "patro": 4570,
      "eds": 4571,
      "abs": 4572,
      "defined": 4573,
      "cler": 4574,
      "introduction": 4575,
      "1918": 4576,
      "fix": 4577,
      "cris": 4578,
      "roughly": 4579,
      "fashion": 4580,
      "consists": 4581,
      "steve": 4582,
      "semi": 4583,
      "kat": 4584,
      "getting": 4585,
      "rh": 4586,
      "decor": 4587,
      "railroad": 4588,
      "formal": 4589,
      "losses": 4590,
      "intensi": 4591,
      "ires": 4592,
      "alan": 4593,
      "mobile": 4594,
      "neighbor": 4595,
      "18th": 4596,
      "byz": 4597,
      "1982": 4598,
      "1971": 4599,
      "naz": 4600,
      "anything": 4601,
      "daniel": 4602,
      "1966": 4603,
      "provin": 4604,
      "iny": 4605,
      "1972": 4606,
      "label": 4607,
      "marks": 4608,
      "armour": 4609,
      "olympic": 4610,
      "68": 4611,
      "1979": 4612,
      "rub": 4613,
      "hired": 4614,
      "task": 4615,
      "survey": 4616,
      "garian": 4617,
      "intelligence": 4618,
      "pton": 4619,
      "rising": 4620,
      "trust": 4621,
      "cens": 4622,
      "bottom": 4623,
      "ounder": 4624,
      "walk": 4625,
      "gang": 4626,
      "appre": 4627,
      "fron": 4628,
      "recognized": 4629,
      "inspir": 4630,
      "byzant": 4631,
      "iger": 4632,
      "providing": 4633,
      "chemical": 4634,
      "politics": 4635,
      "malay": 4636,
      "izes": 4637,
      "symbol": 4638,
      "retire": 4639,
      "franchise": 4640,
      "tan": 4641,
      "developing": 4642,
      "chen": 4643,
      "relief": 4644,
      "shape": 4645,
      "kim": 4646,
      "appeal": 4647,
      "phase": 4648,
      "nast": 4649,
      "nhl": 4650,
      "shared": 4651,
      "1965": 4652,
      "responsib": 4653,
      "investigation": 4654,
      "rapidly": 4655,
      "ifying": 4656,
      "relations": 4657,
      "illa": 4658,
      "earl": 4659,
      "hollywood": 4660,
      "yl": 4661,
      "myster": 4662,
      "1975": 4663,
      "temperature": 4664,
      "germans": 4665,
      "plate": 4666,
      "professor": 4667,
      "94": 4668,
      "everything": 4669,
      "premier": 4670,
      "bright": 4671,
      "achu": 4672,
      "rane": 4673,
      "involve": 4674,
      "stro": 4675,
      "settlement": 4676,
      "mud": 4677,
      "kentuck": 4678,
      "davis": 4679,
      "personnel": 4680,
      "gene": 4681,
      "journey": 4682,
      "junior": 4683,
      "covering": 4684,
      "cited": 4685,
      "1974": 4686,
      "dian": 4687,
      "archae": 4688,
      "operating": 4689,
      "ario": 4690,
      "popularity": 4691,
      "knew": 4692,
      "shaped": 4693,
      "1973": 4694,
      "portray": 4695,
      "sab": 4696,
      "global": 4697,
      "breeding": 4698,
      "domestic": 4699,
      "significantly": 4700,
      "math": 4701,
      "skin": 4702,
      "synthe": 4703,
      "projects": 4704,
      "intersection": 4705,
      "mayor": 4706,
      "knowledge": 4707,
      "cot": 4708,
      "clean": 4709,
      "opinion": 4710,
      "ads": 4711,
      "literary": 4712,
      "67": 4713,
      "mountains": 4714,
      "injured": 4715,
      "uss": 4716,
      "adam": 4717,
      "heat": 4718,
      "250": 4719,
      "unte": 4720,
      "ctors": 4721,
      "fear": 4722,
      "raw": 4723,
      "escap": 4724,
      "assault": 4725,
      "1976": 4726,
      "onc": 4727,
      "confeder": 4728,
      "aces": 4729,
      "53": 4730,
      "reasons": 4731,
      "challenge": 4732,
      "entry": 4733,
      "sequel": 4734,
      "limit": 4735,
      "sounds": 4736,
      "ilton": 4737,
      "substant": 4738,
      "treated": 4739,
      "sters": 4740,
      "playoff": 4741,
      "kur": 4742,
      "platform": 4743,
      "volcan": 4744,
      "rical": 4745,
      "photograph": 4746,
      "poem": 4747,
      "distinct": 4748,
      "87": 4749,
      "eag": 4750,
      "bear": 4751,
      "promotion": 4752,
      "peninsu": 4753,
      "corn": 4754,
      "stages": 4755,
      "muslim": 4756,
      "accur": 4757,
      "breaking": 4758,
      "grapher": 4759,
      "dates": 4760,
      "storyline": 4761,
      "rupt": 4762,
      "dal": 4763,
      "consu": 4764,
      "stable": 4765,
      "acres": 4766,
      "stret": 4767,
      "humans": 4768,
      "orient": 4769,
      "hills": 4770,
      "missions": 4771,
      "existence": 4772,
      "renamed": 4773,
      "watched": 4774,
      "statement": 4775,
      "thirty": 4776,
      "cells": 4777,
      "roc": 4778,
      "strate": 4779,
      "chairman": 4780,
      "astron": 4781,
      "expect": 4782,
      "syd": 4783,
      "religion": 4784,
      "collected": 4785,
      "reputation": 4786,
      "genet": 4787,
      "violence": 4788,
      "divisions": 4789,
      "exact": 4790,
      "labour": 4791,
      "proceed": 4792,
      "nevertheless": 4793,
      "beyonc": 4794,
      "volunte": 4795,
      "allies": 4796,
      "donald": 4797,
      "wings": 4798,
      "invent": 4799,
      "160": 4800,
      "swim": 4801,
      "internal": 4802,
      "poet": 4803,
      "combination": 4804,
      "4th": 4805,
      "grave": 4806,
      "diam": 4807,
      "models": 4808,
      "iro": 4809,
      "females": 4810,
      "itude": 4811,
      "increasingly": 4812,
      "kentucky": 4813,
      "antly": 4814,
      "capable": 4815,
      "symp": 4816,
      "outer": 4817,
      "neither": 4818,
      "converted": 4819,
      "blues": 4820,
      "typical": 4821,
      "abilities": 4822,
      "dean": 4823,
      "declined": 4824,
      "buried": 4825,
      "ung": 4826,
      "evolution": 4827,
      "aki": 4828,
      "foss": 4829,
      "neut": 4830,
      "cia": 4831,
      "typho": 4832,
      "setts": 4833,
      "camera": 4834,
      "details": 4835,
      "59": 4836,
      "sustained": 4837,
      "depth": 4838,
      "tz": 4839,
      "virt": 4840,
      "enjoyed": 4841,
      "itled": 4842,
      "learned": 4843,
      "tests": 4844,
      "producing": 4845,
      "1946": 4846,
      "applied": 4847,
      "gray": 4848,
      "norway": 4849,
      "massachu": 4850,
      "ller": 4851,
      "genre": 4852,
      "ride": 4853,
      "1981": 4854,
      "controversy": 4855,
      "inum": 4856,
      "olympics": 4857,
      "brain": 4858,
      "jon": 4859,
      "nut": 4860,
      "1950s": 4861,
      "err": 4862,
      "1917": 4863,
      "ala": 4864,
      "mole": 4865,
      "championships": 4866,
      "massachusetts": 4867,
      "triple": 4868,
      "graded": 4869,
      "embar": 4870,
      "ule": 4871,
      "warm": 4872,
      "torn": 4873,
      "iles": 4874,
      "easily": 4875,
      "bling": 4876,
      "pear": 4877,
      "arsen": 4878,
      "ette": 4879,
      "advoc": 4880,
      "lla": 4881,
      "approached": 4882,
      "pus": 4883,
      "sud": 4884,
      "carrying": 4885,
      "entrance": 4886,
      "decade": 4887,
      "designs": 4888,
      "description": 4889,
      "responded": 4890,
      "tren": 4891,
      "chapel": 4892,
      "extension": 4893,
      "ento": 4894,
      "download": 4895,
      "discovery": 4896,
      "beautiful": 4897,
      "technical": 4898,
      "bt": 4899,
      "duty": 4900,
      "secure": 4901,
      "sects": 4902,
      "nate": 4903,
      "banks": 4904,
      "bian": 4905,
      "crowd": 4906,
      "gradually": 4907,
      "matt": 4908,
      "succeeded": 4909,
      "programs": 4910,
      "specifically": 4911,
      "arranged": 4912,
      "udes": 4913,
      "winner": 4914,
      "classical": 4915,
      "showing": 4916,
      "prize": 4917,
      "dub": 4918,
      "simpsons": 4919,
      "infe": 4920,
      "frag": 4921,
      "munic": 4922,
      "1948": 4923,
      "1960": 4924,
      "assess": 4925,
      "finals": 4926,
      "vul": 4927,
      "onic": 4928,
      "mers": 4929,
      "items": 4930,
      "omy": 4931,
      "exclus": 4932,
      "prisoners": 4933,
      "credit": 4934,
      "talk": 4935,
      "similarly": 4936,
      "weakened": 4937,
      "seems": 4938,
      "700": 4939,
      "copy": 4940,
      "vietnam": 4941,
      "nich": 4942,
      "indicated": 4943,
      "ignment": 4944,
      "versary": 4945,
      "clar": 4946,
      "additionally": 4947,
      "earliest": 4948,
      "products": 4949,
      "fruit": 4950,
      "terior": 4951,
      "lasted": 4952,
      "warning": 4953,
      "parties": 4954,
      "mtv": 4955,
      "kan": 4956,
      "rural": 4957,
      "presidential": 4958,
      "ruled": 4959,
      "constitut": 4960,
      "1978": 4961,
      "municipal": 4962,
      "cruisers": 4963,
      "threatened": 4964,
      "animated": 4965,
      "employe": 4966,
      "legend": 4967,
      "candidate": 4968,
      "reform": 4969,
      "cise": 4970,
      "engineer": 4971,
      "dd": 4972,
      "rab": 4973,
      "retained": 4974,
      "pup": 4975,
      "legacy": 4976,
      "cooper": 4977,
      "usa": 4978,
      "89": 4979,
      "sydney": 4980,
      "gross": 4981,
      "ries": 4982,
      "distribution": 4983,
      "shado": 4984,
      "writes": 4985,
      "79": 4986,
      "moore": 4987,
      "hugh": 4988,
      "icks": 4989,
      "superi": 4990,
      "reno": 4991,
      "routes": 4992,
      "1915": 4993,
      "wre": 4994,
      "poland": 4995,
      "eco": 4996,
      "giant": 4997,
      "restr": 4998,
      "presents": 4999,
      "diplo": 5000,
      "86": 5001,
      "valu": 5002,
      "peninsula": 5003,
      "acid": 5004,
      "basic": 5005,
      "supplies": 5006,
      "maryland": 5007,
      "circu": 5008,
      "saurus": 5009,
      "spar": 5010,
      "styles": 5011,
      "agency": 5012,
      "alogue": 5013,
      "nur": 5014,
      "andy": 5015,
      "compo": 5016,
      "adapted": 5017,
      "formula": 5018,
      "interior": 5019,
      "delivered": 5020,
      "boo": 5021,
      "speaking": 5022,
      "pleas": 5023,
      "afterwards": 5024,
      "storms": 5025,
      "1977": 5026,
      "seeing": 5027,
      "cycle": 5028,
      "magic": 5029,
      "engines": 5030,
      "consequ": 5031,
      "tony": 5032,
      "infl": 5033,
      "landfall": 5034,
      "interested": 5035,
      "stopped": 5036,
      "downtown": 5037,
      "dynast": 5038,
      "climate": 5039,
      "asian": 5040,
      "drug": 5041,
      "surviv": 5042,
      "engineering": 5043,
      "message": 5044,
      "convin": 5045,
      "rhodes": 5046,
      "fing": 5047,
      "lis": 5048,
      "remix": 5049,
      "entitled": 5050,
      "trig": 5051,
      "gordon": 5052,
      "equival": 5053,
      "hanna": 5054,
      "1963": 5055,
      "alien": 5056,
      "affairs": 5057,
      "permanent": 5058,
      "siege": 5059,
      "supporters": 5060,
      "settled": 5061,
      "extremely": 5062,
      "citizens": 5063,
      "explor": 5064,
      "affect": 5065,
      "wides": 5066,
      "bure": 5067,
      "patri": 5068,
      "pig": 5069,
      "wich": 5070,
      "1916": 5071,
      "wonder": 5072,
      "deaths": 5073,
      "champions": 5074,
      "jur": 5075,
      "expen": 5076,
      "isms": 5077,
      "kong": 5078,
      "seek": 5079,
      "proposal": 5080,
      "enem": 5081,
      "agen": 5082,
      "hull": 5083,
      "deleg": 5084,
      "returns": 5085,
      "vit": 5086,
      "mulder": 5087,
      "images": 5088,
      "holy": 5089,
      "bang": 5090,
      "knots": 5091,
      "asks": 5092,
      "issance": 5093,
      "correct": 5094,
      "streets": 5095,
      "mere": 5096,
      "appropri": 5097,
      "restaur": 5098,
      "aria": 5099,
      "oto": 5100,
      "typhoon": 5101,
      "mono": 5102,
      "retain": 5103,
      "61": 5104,
      "72": 5105,
      "mous": 5106,
      "1919": 5107,
      "entering": 5108,
      "guil": 5109,
      "bringing": 5110,
      "tanks": 5111,
      "albert": 5112,
      "survived": 5113,
      "inet": 5114,
      "competit": 5115,
      "ales": 5116,
      "lets": 5117,
      "adams": 5118,
      "iser": 5119,
      "compon": 5120,
      "shield": 5121,
      "1962": 5122,
      "importance": 5123,
      "iana": 5124,
      "omin": 5125,
      "implement": 5126,
      "izations": 5127,
      "strateg": 5128,
      "describing": 5129,
      "controversi": 5130,
      "offers": 5131,
      "eat": 5132,
      "composer": 5133,
      "69": 5134,
      "studied": 5135,
      "fict": 5136,
      "connection": 5137,
      "catch": 5138,
      "bought": 5139,
      "lights": 5140,
      "62": 5141,
      "medic": 5142,
      "incorporated": 5143,
      "leaf": 5144,
      "concerns": 5145,
      "medie": 5146,
      "someone": 5147,
      "umes": 5148,
      "ili": 5149,
      "remember": 5150,
      "cking": 5151,
      "ratings": 5152,
      "environmental": 5153,
      "acre": 5154,
      "1938": 5155,
      "colonial": 5156,
      "coin": 5157,
      "causes": 5158,
      "shots": 5159,
      "circum": 5160,
      "tes": 5161,
      "arrested": 5162,
      "lion": 5163,
      "portrayed": 5164,
      "installed": 5165,
      "universe": 5166,
      "entially": 5167,
      "miss": 5168,
      "concerned": 5169,
      "decline": 5170,
      "jane": 5171,
      "purchase": 5172,
      "simon": 5173,
      "hunting": 5174,
      "funds": 5175,
      "reduce": 5176,
      "ias": 5177,
      "ulate": 5178,
      "recalled": 5179,
      "universal": 5180,
      "feeling": 5181,
      "alliance": 5182,
      "sale": 5183,
      "classified": 5184,
      "carbon": 5185,
      "liberal": 5186,
      "corporation": 5187,
      "actual": 5188,
      "starts": 5189,
      "visible": 5190,
      "pure": 5191,
      "eral": 5192,
      "harmon": 5193,
      "ansas": 5194,
      "medieval": 5195,
      "prot": 5196,
      "nomination": 5197,
      "spons": 5198,
      "academic": 5199,
      "130": 5200,
      "crossed": 5201,
      "equipped": 5202,
      "sufficient": 5203,
      "objects": 5204,
      "brist": 5205,
      "invited": 5206,
      "driving": 5207,
      "biography": 5208,
      "lian": 5209,
      "recognition": 5210,
      "chapter": 5211,
      "establishment": 5212,
      "historians": 5213,
      "thousands": 5214,
      "identity": 5215,
      "conservative": 5216,
      "veter": 5217,
      "noting": 5218,
      "ington": 5219,
      "thunder": 5220,
      "anniversary": 5221,
      "93": 5222,
      "passage": 5223,
      "references": 5224,
      "debate": 5225,
      "decades": 5226,
      "consisting": 5227,
      "admitted": 5228,
      "recommended": 5229,
      "frame": 5230,
      "margin": 5231,
      "appointment": 5232,
      "bern": 5233,
      "truth": 5234,
      "hypo": 5235,
      "considerable": 5236,
      "kal": 5237,
      "psych": 5238,
      "ware": 5239,
      "1956": 5240,
      "circle": 5241,
      "gif": 5242,
      "1930s": 5243,
      "programme": 5244,
      "aints": 5245,
      "hil": 5246,
      "colony": 5247,
      "princess": 5248,
      "haz": 5249,
      "enemies": 5250,
      "charges": 5251,
      "mak": 5252,
      "maria": 5253,
      "hamilton": 5254,
      "posted": 5255,
      "arn": 5256,
      "claiming": 5257,
      "pread": 5258,
      "continuing": 5259,
      "remainder": 5260,
      "duties": 5261,
      "ranean": 5262,
      "1936": 5263,
      "utc": 5264,
      "manner": 5265,
      "rhyth": 5266,
      "oral": 5267,
      "distr": 5268,
      "navig": 5269,
      "widespread": 5270,
      "arsenal": 5271,
      "shi": 5272,
      "grav": 5273,
      "dones": 5274,
      "flank": 5275,
      "monument": 5276,
      "communist": 5277,
      "behavior": 5278,
      "17th": 5279,
      "promote": 5280,
      "willing": 5281,
      "classes": 5282,
      "kenned": 5283,
      "noon": 5284,
      "hut": 5285,
      "thy": 5286,
      "pictures": 5287,
      "nether": 5288,
      "indones": 5289,
      "compr": 5290,
      "electronic": 5291,
      "nell": 5292,
      "slowly": 5293,
      "aspects": 5294,
      "looked": 5295,
      "massive": 5296,
      "departure": 5297,
      "occasionally": 5298,
      "diag": 5299,
      "belt": 5300,
      "attached": 5301,
      "nba": 5302,
      "flash": 5303,
      "interpret": 5304,
      "knight": 5305,
      "romantic": 5306,
      "grass": 5307,
      "uan": 5308,
      "icit": 5309,
      "shir": 5310,
      "shut": 5311,
      "populations": 5312,
      "1961": 5313,
      "address": 5314,
      "cleve": 5315,
      "owners": 5316,
      "athen": 5317,
      "buff": 5318,
      "resources": 5319,
      "lists": 5320,
      "5th": 5321,
      "110": 5322,
      "wearing": 5323,
      "transition": 5324,
      "hitler": 5325,
      "parallel": 5326,
      "kennedy": 5327,
      "treas": 5328,
      "emergency": 5329,
      "crete": 5330,
      "theater": 5331,
      "senator": 5332,
      "norman": 5333,
      "factory": 5334,
      "wwe": 5335,
      "sunday": 5336,
      "howard": 5337,
      "63": 5338,
      "shaw": 5339,
      "assistance": 5340,
      "81": 5341,
      "1953": 5342,
      "alco": 5343,
      "orchestra": 5344,
      "certified": 5345,
      "indiana": 5346,
      "apping": 5347,
      "superior": 5348,
      "parish": 5349,
      "tested": 5350,
      "jordan": 5351,
      "vessels": 5352,
      "og": 5353,
      "cope": 5354,
      "liked": 5355,
      "races": 5356,
      "clubs": 5357,
      "continental": 5358,
      "occurs": 5359,
      "credits": 5360,
      "icate": 5361,
      "shark": 5362,
      "graphics": 5363,
      "animation": 5364,
      "iar": 5365,
      "weigh": 5366,
      "quant": 5367,
      "aked": 5368,
      "norwe": 5369,
      "destruction": 5370,
      "income": 5371,
      "classification": 5372,
      "memory": 5373,
      "wers": 5374,
      "vac": 5375,
      "7th": 5376,
      "demol": 5377,
      "scully": 5378,
      "cs": 5379,
      "fighters": 5380,
      "audio": 5381,
      "adventure": 5382,
      "acknow": 5383,
      "properties": 5384,
      "possess": 5385,
      "pope": 5386,
      "norm": 5387,
      "regon": 5388,
      "transl": 5389,
      "punk": 5390,
      "conduct": 5391,
      "sculpt": 5392,
      "otic": 5393,
      "passengers": 5394,
      "leton": 5395,
      "priest": 5396,
      "patrick": 5397,
      "pse": 5398,
      "chorus": 5399,
      "fled": 5400,
      "bean": 5401,
      "mathem": 5402,
      "ryan": 5403,
      "distur": 5404,
      "intention": 5405,
      "involving": 5406,
      "inal": 5407,
      "angel": 5408,
      "ras": 5409,
      "oldest": 5410,
      "equivalent": 5411,
      "architecture": 5412,
      "terminus": 5413,
      "opt": 5414,
      "1947": 5415,
      "stands": 5416,
      "amend": 5417,
      "allen": 5418,
      "rober": 5419,
      "1937": 5420,
      "prede": 5421,
      "heritage": 5422,
      "oregon": 5423,
      "possibility": 5424,
      "jum": 5425,
      "ression": 5426,
      "portu": 5427,
      "1958": 5428,
      "74": 5429,
      "tie": 5430,
      "prey": 5431,
      "hend": 5432,
      "dick": 5433,
      "amaz": 5434,
      "committed": 5435,
      "aret": 5436,
      "obtained": 5437,
      "regularly": 5438,
      "rescue": 5439,
      "cathe": 5440,
      "dynasty": 5441,
      "ione": 5442,
      "accused": 5443,
      "onia": 5444,
      "consc": 5445,
      "1910": 5446,
      "mexican": 5447,
      "sleep": 5448,
      "enix": 5449,
      "itz": 5450,
      "finishing": 5451,
      "1957": 5452,
      "derived": 5453,
      "agonist": 5454,
      "91": 5455,
      "inn": 5456,
      "illino": 5457,
      "ninth": 5458,
      "porter": 5459,
      "agues": 5460,
      "pes": 5461,
      "panel": 5462,
      "gus": 5463,
      "reviewers": 5464,
      "favorite": 5465,
      "92": 5466,
      "sic": 5467,
      "pink": 5468,
      "una": 5469,
      "douglas": 5470,
      "conscious": 5471,
      "hone": 5472,
      "deput": 5473,
      "cleveland": 5474,
      "worst": 5475,
      "shear": 5476,
      "hes": 5477,
      "pled": 5478,
      "hosted": 5479,
      "segment": 5480,
      "apt": 5481,
      "crisis": 5482,
      "roger": 5483,
      "replacement": 5484,
      "generated": 5485,
      "joining": 5486,
      "mates": 5487,
      "illinois": 5488,
      "ante": 5489,
      "supposed": 5490,
      "vehicle": 5491,
      "aboard": 5492,
      "throne": 5493,
      "assumed": 5494,
      "moves": 5495,
      "salt": 5496,
      "stanley": 5497,
      "6th": 5498,
      "marke": 5499,
      "factor": 5500,
      "aux": 5501,
      "fried": 5502,
      "diff": 5503,
      "mediter": 5504,
      "denied": 5505,
      "appearing": 5506,
      "sts": 5507,
      "turk": 5508,
      "freder": 5509,
      "representatives": 5510,
      "hin": 5511,
      "attor": 5512,
      "commanded": 5513,
      "tunnel": 5514,
      "bruce": 5515,
      "unusual": 5516,
      "gon": 5517,
      "hann": 5518,
      "auth": 5519,
      "reality": 5520,
      "tied": 5521,
      "fictional": 5522,
      "oli": 5523,
      "completion": 5524,
      "circulation": 5525,
      "mediterranean": 5526,
      "solar": 5527,
      "keeping": 5528,
      "dating": 5529,
      "strongly": 5530,
      "1959": 5531,
      "beatles": 5532,
      "vary": 5533,
      "nett": 5534,
      "bridges": 5535,
      "ilation": 5536,
      "kevin": 5537,
      "outstanding": 5538,
      "homo": 5539,
      "morgan": 5540,
      "responsibility": 5541,
      "begun": 5542,
      "surviving": 5543,
      "costs": 5544,
      "deem": 5545,
      "persu": 5546,
      "materials": 5547,
      "exception": 5548,
      "transportation": 5549,
      "argent": 5550,
      "cathedr": 5551,
      "painted": 5552,
      "circuit": 5553,
      "scout": 5554,
      "alleged": 5555,
      "norwegian": 5556,
      "analy": 5557,
      "bristol": 5558,
      "bag": 5559,
      "wickets": 5560,
      "column": 5561,
      "chain": 5562,
      "cott": 5563,
      "driven": 5564,
      "praise": 5565,
      "surpr": 5566,
      "monarch": 5567,
      "mail": 5568,
      "dragon": 5569,
      "methods": 5570,
      "pole": 5571,
      "pm": 5572,
      "sailed": 5573,
      "telling": 5574,
      "1954": 5575,
      "pav": 5576,
      "1955": 5577,
      "representative": 5578,
      "dynam": 5579,
      "atro": 5580,
      "erup": 5581,
      "racing": 5582,
      "carrier": 5583,
      "16th": 5584,
      "everyone": 5585,
      "opposite": 5586,
      "swi": 5587,
      "abol": 5588,
      "funding": 5589,
      "passenger": 5590,
      "isbn": 5591,
      "emerged": 5592,
      "ibility": 5593,
      "characteristics": 5594,
      "cancer": 5595,
      "aug": 5596,
      "infr": 5597,
      "lisa": 5598,
      "82": 5599,
      "eric": 5600,
      "uct": 5601,
      "differences": 5602,
      "bone": 5603,
      "criminal": 5604,
      "scheme": 5605,
      "atmosphere": 5606,
      "cash": 5607,
      "carto": 5608,
      "bombard": 5609,
      "conservation": 5610,
      "orange": 5611,
      "attributed": 5612,
      "dict": 5613,
      "buy": 5614,
      "weapon": 5615,
      "plus": 5616,
      "thereafter": 5617,
      "recovered": 5618,
      "coordin": 5619,
      "somer": 5620,
      "korea": 5621,
      "lsen": 5622,
      "platinum": 5623,
      "poses": 5624,
      "warri": 5625,
      "neck": 5626,
      "otherwise": 5627,
      "ultural": 5628,
      "aqu": 5629,
      "aine": 5630,
      "fee": 5631,
      "legislat": 5632,
      "amy": 5633,
      "wrong": 5634,
      "13th": 5635,
      "strategy": 5636,
      "adults": 5637,
      "rug": 5638,
      "shed": 5639,
      "aa": 5640,
      "stayed": 5641,
      "serves": 5642,
      "ients": 5643,
      "desire": 5644,
      "reinforce": 5645,
      "insur": 5646,
      "marines": 5647,
      "pattern": 5648,
      "ceme": 5649,
      "fitted": 5650,
      "morris": 5651,
      "facing": 5652,
      "communities": 5653,
      "effectively": 5654,
      "falling": 5655,
      "inity": 5656,
      "shu": 5657,
      "murray": 5658,
      "outbreak": 5659,
      "politic": 5660,
      "ministry": 5661,
      "accommo": 5662,
      "retirement": 5663,
      "1952": 5664,
      "musicians": 5665,
      "crosses": 5666,
      "robinson": 5667,
      "dissip": 5668,
      "unk": 5669,
      "nelson": 5670,
      "accounts": 5671,
      "documentary": 5672,
      "wins": 5673,
      "rier": 5674,
      "arrest": 5675,
      "distinguished": 5676,
      "casting": 5677,
      "lith": 5678,
      "71": 5679,
      "wine": 5680,
      "underground": 5681,
      "attracted": 5682,
      "trials": 5683,
      "parks": 5684,
      "submarine": 5685,
      "convinced": 5686,
      "premiere": 5687,
      "strengthe": 5688,
      "batting": 5689,
      "1933": 5690,
      "elder": 5691,
      "wear": 5692,
      "genes": 5693,
      "73": 5694,
      "elections": 5695,
      "movements": 5696,
      "bee": 5697,
      "israel": 5698,
      "bels": 5699,
      "gra": 5700,
      "commemor": 5701,
      "bab": 5702,
      "elev": 5703,
      "matthe": 5704,
      "ott": 5705,
      "injuries": 5706,
      "battleships": 5707,
      "ented": 5708,
      "84": 5709,
      "raise": 5710,
      "aftermath": 5711,
      "aco": 5712,
      "needs": 5713,
      "votes": 5714,
      "thel": 5715,
      "rant": 5716,
      "abled": 5717,
      "renew": 5718,
      "separated": 5719,
      "sudden": 5720,
      "boil": 5721,
      "quo": 5722,
      "inspiration": 5723,
      "immig": 5724,
      "pale": 5725,
      "ensure": 5726,
      "sweden": 5727,
      "beck": 5728,
      "tub": 5729,
      "garrison": 5730,
      "assem": 5731,
      "enses": 5732,
      "welsh": 5733,
      "predecess": 5734,
      "faces": 5735,
      "pas": 5736,
      "sover": 5737,
      "radar": 5738,
      "restored": 5739,
      "symph": 5740,
      "aza": 5741,
      "solution": 5742,
      "atell": 5743,
      "1935": 5744,
      "compos": 5745,
      "ez": 5746,
      "difficulty": 5747,
      "remn": 5748,
      "measures": 5749,
      "pak": 5750,
      "requested": 5751,
      "1949": 5752,
      "intense": 5753,
      "1951": 5754,
      "seemed": 5755,
      "tomb": 5756,
      "delayed": 5757,
      "toronto": 5758,
      "rivers": 5759,
      "authors": 5760,
      "facility": 5761,
      "dock": 5762,
      "rent": 5763,
      "depict": 5764,
      "surrounded": 5765,
      "standards": 5766,
      "sees": 5767,
      "puer": 5768,
      "hoped": 5769,
      "consum": 5770,
      "elsewhere": 5771,
      "netherlands": 5772,
      "impressed": 5773,
      "absor": 5774,
      "childhood": 5775,
      "convection": 5776,
      "penalty": 5777,
      "send": 5778,
      "apers": 5779,
      "reviewer": 5780,
      "bast": 5781,
      "rever": 5782,
      "byzantine": 5783,
      "tone": 5784,
      "moderate": 5785,
      "ille": 5786,
      "meets": 5787,
      "courts": 5788,
      "concern": 5789,
      "jet": 5790,
      "ulture": 5791,
      "temperatures": 5792,
      "examples": 5793,
      "liqu": 5794,
      "greatly": 5795,
      "uran": 5796,
      "cathedral": 5797,
      "jews": 5798,
      "cement": 5799,
      "obtain": 5800,
      "jazz": 5801,
      "queens": 5802,
      "iraq": 5803,
      "bris": 5804,
      "publishing": 5805,
      "involvement": 5806,
      "bears": 5807,
      "dangerous": 5808,
      "satell": 5809,
      "tran": 5810,
      "astro": 5811,
      "wooden": 5812,
      "hud": 5813,
      "acks": 5814,
      "hid": 5815,
      "easy": 5816,
      "wet": 5817,
      "internet": 5818,
      "leads": 5819,
      "carl": 5820,
      "productions": 5821,
      "legs": 5822,
      "creative": 5823,
      "atus": 5824,
      "sweet": 5825,
      "loco": 5826,
      "kelly": 5827,
      "spoke": 5828,
      "lose": 5829,
      "anger": 5830,
      "ayer": 5831,
      "hundreds": 5832,
      "9th": 5833,
      "pc": 5834,
      "immediate": 5835,
      "pha": 5836,
      "eggs": 5837,
      "scholars": 5838,
      "liz": 5839,
      "trained": 5840,
      "agas": 5841,
      "excell": 5842,
      "learn": 5843,
      "dimen": 5844,
      "anyone": 5845,
      "recordings": 5846,
      "clay": 5847,
      "bie": 5848,
      "armen": 5849,
      "pregn": 5850,
      "formally": 5851,
      "chel": 5852,
      "istry": 5853,
      "hatt": 5854,
      "pson": 5855,
      "inqu": 5856,
      "comfort": 5857,
      "russell": 5858,
      "firing": 5859,
      "uge": 5860,
      "learning": 5861,
      "blow": 5862,
      "accompl": 5863,
      "stones": 5864,
      "encouraged": 5865,
      "deli": 5866,
      "somewhat": 5867,
      "hub": 5868,
      "toms": 5869,
      "journalist": 5870,
      "graduate": 5871,
      "suffering": 5872,
      "pp": 5873,
      "1900": 5874,
      "bureau": 5875,
      "dish": 5876,
      "12th": 5877,
      "prohib": 5878,
      "techniques": 5879,
      "termine": 5880,
      "croatian": 5881,
      "poetry": 5882,
      "fles": 5883,
      "til": 5884,
      "orb": 5885,
      "determine": 5886,
      "forcing": 5887,
      "powered": 5888,
      "legislation": 5889,
      "modified": 5890,
      "pilo": 5891,
      "bos": 5892,
      "horror": 5893,
      "dismissed": 5894,
      "hans": 5895,
      "diet": 5896,
      "promise": 5897,
      "thompson": 5898,
      "amph": 5899,
      "dna": 5900,
      "mature": 5901,
      "trophy": 5902,
      "interests": 5903,
      "assass": 5904,
      "ole": 5905,
      "attempting": 5906,
      "carter": 5907,
      "whereas": 5908,
      "profit": 5909,
      "alcohol": 5910,
      "convoy": 5911,
      "attacking": 5912,
      "veget": 5913,
      "rice": 5914,
      "wig": 5915,
      "islam": 5916,
      "cad": 5917,
      "difference": 5918,
      "grace": 5919,
      "mars": 5920,
      "brick": 5921,
      "changing": 5922,
      "steven": 5923,
      "83": 5924,
      "nfl": 5925,
      "harbor": 5926,
      "sized": 5927,
      "monitor": 5928,
      "starred": 5929,
      "aj": 5930,
      "calcul": 5931,
      "rets": 5932,
      "dens": 5933,
      "nbc": 5934,
      "puerto": 5935,
      "adaptation": 5936,
      "phr": 5937,
      "controversial": 5938,
      "lod": 5939,
      "berlin": 5940,
      "commonwealth": 5941,
      "formerly": 5942,
      "phe": 5943,
      "closer": 5944,
      "uro": 5945,
      "register": 5946,
      "township": 5947,
      "biggest": 5948,
      "spears": 5949,
      "questions": 5950,
      "guardian": 5951,
      "orial": 5952,
      "politan": 5953,
      "fab": 5954,
      "cloud": 5955,
      "dot": 5956,
      "intent": 5957,
      "hungarian": 5958,
      "absence": 5959,
      "mack": 5960,
      "apple": 5961,
      "nels": 5962,
      "toll": 5963,
      "huge": 5964,
      "diagno": 5965,
      "ancy": 5966,
      "eved": 5967,
      "genetic": 5968,
      "fis": 5969,
      "harris": 5970,
      "conclusion": 5971,
      "landed": 5972,
      "deemed": 5973,
      "batman": 5974,
      "plain": 5975,
      "helm": 5976,
      "oxy": 5977,
      "narrative": 5978,
      "informed": 5979,
      "parker": 5980,
      "wolf": 5981,
      "stall": 5982,
      "adi": 5983,
      "dee": 5984,
      "wedding": 5985,
      "premiered": 5986,
      "apparently": 5987,
      "bats": 5988,
      "sight": 5989,
      "aus": 5990,
      "suic": 5991,
      "icon": 5992,
      "mck": 5993,
      "landsc": 5994,
      "laboratory": 5995,
      "rud": 5996,
      "loop": 5997,
      "detach": 5998,
      "distributed": 5999,
      "files": 6000,
      "novels": 6001,
      "1913": 6002,
      "tap": 6003,
      "testing": 6004,
      "longest": 6005,
      "enters": 6006,
      "depos": 6007,
      "representing": 6008,
      "operate": 6009,
      "watching": 6010,
      "territories": 6011,
      "instruments": 6012,
      "vs": 6013,
      "driver": 6014,
      "terror": 6015,
      "scand": 6016,
      "normally": 6017,
      "disci": 6018,
      "tox": 6019,
      "900": 6020,
      "kne": 6021,
      "1926": 6022,
      "rates": 6023,
      "hearing": 6024,
      "ameter": 6025,
      "fishing": 6026,
      "victims": 6027,
      "attorney": 6028,
      "matters": 6029,
      "tis": 6030,
      "restoration": 6031,
      "phan": 6032,
      "gallery": 6033,
      "mani": 6034,
      "engage": 6035,
      "stick": 6036,
      "secured": 6037,
      "1927": 6038,
      "basin": 6039,
      "restrict": 6040,
      "hole": 6041,
      "rep": 6042,
      "unsuccessful": 6043,
      "mainstream": 6044,
      "weekend": 6045,
      "finn": 6046,
      "visitors": 6047,
      "bronze": 6048,
      "substit": 6049,
      "defended": 6050,
      "releases": 6051,
      "refuge": 6052,
      "dum": 6053,
      "believes": 6054,
      "zero": 6055,
      "arrangement": 6056,
      "legisl": 6057,
      "comics": 6058,
      "extin": 6059,
      "armament": 6060,
      "resolution": 6061,
      "mete": 6062,
      "depicted": 6063,
      "influential": 6064,
      "coins": 6065,
      "ouse": 6066,
      "agents": 6067,
      "desert": 6068,
      "printed": 6069,
      "gib": 6070,
      "wes": 6071,
      "houston": 6072,
      "dominated": 6073,
      "graphical": 6074,
      "fisher": 6075,
      "giants": 6076,
      "mini": 6077,
      "1934": 6078,
      "1921": 6079,
      "housing": 6080,
      "raaf": 6081,
      "churches": 6082,
      "videos": 6083,
      "indians": 6084,
      "inary": 6085,
      "forth": 6086,
      "cous": 6087,
      "founder": 6088,
      "dramatic": 6089,
      "trek": 6090,
      "tenance": 6091,
      "santa": 6092,
      "140": 6093,
      "string": 6094,
      "notably": 6095,
      "cliff": 6096,
      "jacob": 6097,
      "relationships": 6098,
      "ani": 6099,
      "diver": 6100,
      "thes": 6101,
      "tot": 6102,
      "fici": 6103,
      "exit": 6104,
      "iest": 6105,
      "offices": 6106,
      "util": 6107,
      "behavi": 6108,
      "merged": 6109,
      "devil": 6110,
      "cemetery": 6111,
      "deployed": 6112,
      "alab": 6113,
      "1912": 6114,
      "swedish": 6115,
      "roberts": 6116,
      "simpson": 6117,
      "neighbour": 6118,
      "languages": 6119,
      "sper": 6120,
      "skills": 6121,
      "simult": 6122,
      "simultane": 6123,
      "goslav": 6124,
      "pill": 6125,
      "rebell": 6126,
      "dent": 6127,
      "stances": 6128,
      "berry": 6129,
      "teeth": 6130,
      "obl": 6131,
      "frequent": 6132,
      "device": 6133,
      "remin": 6134,
      "format": 6135,
      "samuel": 6136,
      "drums": 6137,
      "mental": 6138,
      "1932": 6139,
      "influences": 6140,
      "bapt": 6141,
      "warner": 6142,
      "operational": 6143,
      "anthony": 6144,
      "emotional": 6145,
      "jason": 6146,
      "chess": 6147,
      "aska": 6148,
      "disput": 6149,
      "reportedly": 6150,
      "dress": 6151,
      "factors": 6152,
      "drag": 6153,
      "opponents": 6154,
      "occupation": 6155,
      "happened": 6156,
      "wag": 6157,
      "scientists": 6158,
      "sad": 6159,
      "ternal": 6160,
      "agricultural": 6161,
      "cessive": 6162,
      "barr": 6163,
      "successor": 6164,
      "glac": 6165,
      "suitable": 6166,
      "cabinet": 6167,
      "abbey": 6168,
      "employees": 6169,
      "dialogue": 6170,
      "footage": 6171,
      "experiences": 6172,
      "yugoslav": 6173,
      "lowest": 6174,
      "170": 6175,
      "3d": 6176,
      "bb": 6177,
      "gaga": 6178,
      "handed": 6179,
      "raj": 6180,
      "constitutional": 6181,
      "inhabit": 6182,
      "timore": 6183,
      "window": 6184,
      "uous": 6185,
      "gap": 6186,
      "hook": 6187,
      "communication": 6188,
      "collect": 6189,
      "approval": 6190,
      "gates": 6191,
      "understand": 6192,
      "negotiations": 6193,
      "revolutionary": 6194,
      "appreci": 6195,
      "croatia": 6196,
      "executed": 6197,
      "arian": 6198,
      "expression": 6199,
      "maintenance": 6200,
      "enthus": 6201,
      "mov": 6202,
      "troit": 6203,
      "mathemat": 6204,
      "imes": 6205,
      "exposed": 6206,
      "crus": 6207,
      "medium": 6208,
      "acknowled": 6209,
      "imet": 6210,
      "employment": 6211,
      "1911": 6212,
      "spher": 6213,
      "mme": 6214,
      "discussed": 6215,
      "drawing": 6216,
      "personality": 6217,
      "ethnic": 6218,
      "substantial": 6219,
      "odo": 6220,
      "blu": 6221,
      "portions": 6222,
      "seed": 6223,
      "retreat": 6224,
      "stab": 6225,
      "detroit": 6226,
      "fc": 6227,
      "hd": 6228,
      "1929": 6229,
      "flew": 6230,
      "kon": 6231,
      "cker": 6232,
      "fatal": 6233,
      "hunt": 6234,
      "afternoon": 6235,
      "christop": 6236,
      "tribute": 6237,
      "clinton": 6238,
      "oz": 6239,
      "interstate": 6240,
      "tenth": 6241,
      "rine": 6242,
      "resign": 6243,
      "walker": 6244,
      "promp": 6245,
      "15th": 6246,
      "iet": 6247,
      "ube": 6248,
      "igen": 6249,
      "residential": 6250,
      "grown": 6251,
      "lex": 6252,
      "xbox": 6253,
      "elli": 6254,
      "jesus": 6255,
      "meteor": 6256,
      "tornado": 6257,
      "hey": 6258,
      "accompany": 6259,
      "resigned": 6260,
      "draf": 6261,
      "melbourne": 6262,
      "1931": 6263,
      "detailed": 6264,
      "linked": 6265,
      "existed": 6266,
      "susp": 6267,
      "evans": 6268,
      "goods": 6269,
      "cart": 6270,
      "nielsen": 6271,
      "portra": 6272,
      "organizations": 6273,
      "confess": 6274,
      "kirk": 6275,
      "1922": 6276,
      "irs": 6277,
      "reveals": 6278,
      "prevented": 6279,
      "marshall": 6280,
      "orbit": 6281,
      "militia": 6282,
      "preferred": 6283,
      "prosecut": 6284,
      "teacher": 6285,
      "pushed": 6286,
      "pike": 6287,
      "jar": 6288,
      "carib": 6289,
      "stewart": 6290,
      "balance": 6291,
      "hed": 6292,
      "meter": 6293,
      "interpre": 6294,
      "vals": 6295,
      "arriving": 6296,
      "tha": 6297,
      "swift": 6298,
      "anglo": 6299,
      "belg": 6300,
      "isolated": 6301,
      "neighborhood": 6302,
      "dru": 6303,
      "manus": 6304,
      "favorable": 6305,
      "closing": 6306,
      "communications": 6307,
      "trum": 6308,
      "sisters": 6309,
      "sevent": 6310,
      "forty": 6311,
      "partly": 6312,
      "covers": 6313,
      "yd": 6314,
      "origins": 6315,
      "cant": 6316,
      "moments": 6317,
      "dow": 6318,
      "halo": 6319,
      "expo": 6320,
      "anticip": 6321,
      "technique": 6322,
      "chase": 6323,
      "turkish": 6324,
      "familiar": 6325,
      "aire": 6326,
      "sarah": 6327,
      "departed": 6328,
      "sharp": 6329,
      "unes": 6330,
      "friendly": 6331,
      "kas": 6332,
      "imprison": 6333,
      "understanding": 6334,
      "chell": 6335,
      "austria": 6336,
      "mines": 6337,
      "livan": 6338,
      "stron": 6339,
      "marry": 6340,
      "stance": 6341,
      "vet": 6342,
      "sugar": 6343,
      "designer": 6344,
      "budd": 6345,
      "ongo": 6346,
      "periods": 6347,
      "colorado": 6348,
      "dir": 6349,
      "bull": 6350,
      "fifteen": 6351,
      "pione": 6352,
      "maid": 6353,
      "ordinary": 6354,
      "regist": 6355,
      "absol": 6356,
      "iva": 6357,
      "mortal": 6358,
      "ranking": 6359,
      "lennon": 6360,
      "usal": 6361,
      "proced": 6362,
      "arena": 6363,
      "greece": 6364,
      "instrumental": 6365,
      "nol": 6366,
      "alum": 6367,
      "extent": 6368,
      "crystal": 6369,
      "waves": 6370,
      "lux": 6371,
      "participate": 6372,
      "impossible": 6373,
      "perce": 6374,
      "baltimore": 6375,
      "instance": 6376,
      "hav": 6377,
      "meat": 6378,
      "seeking": 6379,
      "pines": 6380,
      "retri": 6381,
      "diamond": 6382,
      "khan": 6383,
      "ios": 6384,
      "bases": 6385,
      "diction": 6386,
      "patrol": 6387,
      "hong": 6388,
      "oft": 6389,
      "citing": 6390,
      "deputy": 6391,
      "picked": 6392,
      "specimens": 6393,
      "sullivan": 6394,
      "taught": 6395,
      "ghost": 6396,
      "cole": 6397,
      "spending": 6398,
      "concerts": 6399,
      "locomot": 6400,
      "mpt": 6401,
      "pad": 6402,
      "sacri": 6403,
      "soil": 6404,
      "organisation": 6405,
      "rows": 6406,
      "rarely": 6407,
      "dave": 6408,
      "helic": 6409,
      "amendment": 6410,
      "woods": 6411,
      "pace": 6412,
      "deser": 6413,
      "creator": 6414,
      "newspapers": 6415,
      "diameter": 6416,
      "finale": 6417,
      "10th": 6418,
      "precip": 6419,
      "brun": 6420,
      "upgraded": 6421,
      "patron": 6422,
      "chy": 6423,
      "rach": 6424,
      "alu": 6425,
      "doesn": 6426,
      "frederick": 6427,
      "14th": 6428,
      "withdrew": 6429,
      "obser": 6430,
      "metropolitan": 6431,
      "gau": 6432,
      "false": 6433,
      "mario": 6434,
      "anny": 6435,
      "ultimate": 6436,
      "poison": 6437,
      "timber": 6438,
      "directors": 6439,
      "physic": 6440,
      "citizen": 6441,
      "lined": 6442,
      "somerset": 6443,
      "wie": 6444,
      "exhibition": 6445,
      "uncertain": 6446,
      "mato": 6447,
      "encountered": 6448,
      "partially": 6449,
      "uted": 6450,
      "permission": 6451,
      "divor": 6452,
      "pounds": 6453,
      "perspect": 6454,
      "rescu": 6455,
      "pute": 6456,
      "aro": 6457,
      "cel": 6458,
      "1928": 6459,
      "forests": 6460,
      "loan": 6461,
      "discover": 6462,
      "gilbert": 6463,
      "drin": 6464,
      "bai": 6465,
      "difficulties": 6466,
      "policies": 6467,
      "bombers": 6468,
      "sword": 6469,
      "smooth": 6470,
      "hem": 6471,
      "armored": 6472,
      "legislature": 6473,
      "barbar": 6474,
      "prus": 6475,
      "gren": 6476,
      "mint": 6477,
      "iowa": 6478,
      "thrill": 6479,
      "nichol": 6480,
      "orous": 6481,
      "dia": 6482,
      "1925": 6483,
      "household": 6484,
      "turrets": 6485,
      "iate": 6486,
      "thetic": 6487,
      "inaug": 6488,
      "shakes": 6489,
      "feud": 6490,
      "cannon": 6491,
      "advice": 6492,
      "schedule": 6493,
      "wells": 6494,
      "merchant": 6495,
      "pare": 6496,
      "adjac": 6497,
      "athletic": 6498,
      "suicide": 6499,
      "sank": 6500,
      "spur": 6501,
      "miami": 6502,
      "fortress": 6503,
      "vast": 6504,
      "violent": 6505,
      "pilots": 6506,
      "disaster": 6507,
      "adjacent": 6508,
      "bry": 6509,
      "pitched": 6510,
      "traveled": 6511,
      "federation": 6512,
      "expensive": 6513,
      "sector": 6514,
      "oul": 6515,
      "terri": 6516,
      "seattle": 6517,
      "refers": 6518,
      "guards": 6519,
      "benefit": 6520,
      "signs": 6521,
      "seats": 6522,
      "napo": 6523,
      "philosophy": 6524,
      "interesting": 6525,
      "values": 6526,
      "gardens": 6527,
      "mour": 6528,
      "harbour": 6529,
      "ranging": 6530,
      "1924": 6531,
      "horn": 6532,
      "comments": 6533,
      "lemur": 6534,
      "gery": 6535,
      "criticised": 6536,
      "minimum": 6537,
      "eagle": 6538,
      "prompted": 6539,
      "mos": 6540,
      "scat": 6541,
      "compete": 6542,
      "pron": 6543,
      "alabama": 6544,
      "eness": 6545,
      "fined": 6546,
      "1920s": 6547,
      "tin": 6548,
      "australians": 6549,
      "numbered": 6550,
      "destroyers": 6551,
      "struggle": 6552,
      "satellite": 6553,
      "discipl": 6554,
      "remove": 6555,
      "missou": 6556,
      "atomic": 6557,
      "surprise": 6558,
      "whil": 6559,
      "pakistan": 6560,
      "soldier": 6561,
      "oxygen": 6562,
      "helicop": 6563,
      "collapse": 6564,
      "habitat": 6565,
      "gle": 6566,
      "napoleon": 6567,
      "8th": 6568,
      "medicine": 6569,
      "instru": 6570,
      "nationally": 6571,
      "alpha": 6572,
      "possession": 6573,
      "neutral": 6574,
      "caribbean": 6575,
      "vig": 6576,
      "charlie": 6577,
      "km2": 6578,
      "rico": 6579,
      "spiritual": 6580,
      "indeed": 6581,
      "rebellion": 6582,
      "eing": 6583,
      "lawrence": 6584,
      "minnes": 6585,
      "marketing": 6586,
      "enterprise": 6587,
      "wait": 6588,
      "hamp": 6589,
      "designation": 6590,
      "teaching": 6591,
      "ologist": 6592,
      "qualified": 6593,
      "indicate": 6594,
      "paintings": 6595,
      "judic": 6596,
      "manuscri": 6597,
      "whilst": 6598,
      "mason": 6599,
      "tale": 6600,
      "baker": 6601,
      "fifty": 6602,
      "wore": 6603,
      "ige": 6604,
      "1923": 6605,
      "protagonist": 6606,
      "bak": 6607,
      "clock": 6608,
      "bent": 6609,
      "echo": 6610,
      "worship": 6611,
      "tight": 6612,
      "yon": 6613,
      "hindu": 6614,
      "pretty": 6615,
      "survivors": 6616,
      "pressive": 6617,
      "restaurant": 6618,
      "loved": 6619,
      "rio": 6620,
      "wake": 6621,
      "lone": 6622,
      "describe": 6623,
      "jona": 6624,
      "riders": 6625,
      "alive": 6626,
      "ifications": 6627,
      "legislative": 6628,
      "administrative": 6629,
      "rounds": 6630,
      "ng": 6631,
      "oy": 6632,
      "zes": 6633,
      "ora": 6634,
      "charter": 6635,
      "collaboration": 6636,
      "nazi": 6637,
      "travelled": 6638,
      "boss": 6639,
      "dancing": 6640,
      "inland": 6641,
      "illi": 6642,
      "depending": 6643,
      "assisted": 6644,
      "afford": 6645,
      "candidates": 6646,
      "buck": 6647,
      "grammy": 6648,
      "poems": 6649,
      "crews": 6650,
      "dra": 6651,
      "inher": 6652,
      "clu": 6653,
      "sang": 6654,
      "hungary": 6655,
      "11th": 6656,
      "victories": 6657,
      "degre": 6658,
      "cester": 6659,
      "ining": 6660,
      "situated": 6661,
      "dollars": 6662,
      "velt": 6663,
      "displayed": 6664,
      "minimal": 6665,
      "marg": 6666,
      "villages": 6667,
      "surge": 6668,
      "bowling": 6669,
      "noble": 6670,
      "battalions": 6671,
      "appropriate": 6672,
      "dispute": 6673,
      "survive": 6674,
      "encing": 6675,
      "wen": 6676,
      "itim": 6677,
      "tware": 6678,
      "keeper": 6679,
      "rugby": 6680,
      "rav": 6681,
      "altar": 6682,
      "cin": 6683,
      "flower": 6684,
      "earthqu": 6685,
      "promised": 6686,
      "belgium": 6687,
      "gry": 6688,
      "restricted": 6689,
      "cade": 6690,
      "serial": 6691,
      "option": 6692,
      "diego": 6693,
      "degrees": 6694,
      "kiss": 6695,
      "uncle": 6696,
      "logist": 6697,
      "helping": 6698,
      "software": 6699,
      "cos": 6700,
      "funeral": 6701,
      "amongst": 6702,
      "colonies": 6703,
      "aman": 6704,
      "ateur": 6705,
      "behaviour": 6706,
      "playoffs": 6707,
      "kw": 6708,
      "rie": 6709,
      "shock": 6710,
      "partnership": 6711,
      "symptoms": 6712,
      "monster": 6713,
      "colleg": 6714,
      "subsid": 6715,
      "benjam": 6716,
      "eliminated": 6717,
      "bard": 6718,
      "ila": 6719,
      "nad": 6720,
      "tat": 6721,
      "concrete": 6722,
      "purposes": 6723,
      "mining": 6724,
      "intel": 6725,
      "drivers": 6726,
      "christopher": 6727,
      "articles": 6728,
      "amin": 6729,
      "missis": 6730,
      "reconna": 6731,
      "alfred": 6732,
      "imeter": 6733,
      "repairs": 6734,
      "fallen": 6735,
      "compilation": 6736,
      "thinking": 6737,
      "mississip": 6738,
      "trouble": 6739,
      "bic": 6740,
      "roots": 6741,
      "voiced": 6742,
      "21st": 6743,
      "occasions": 6744,
      "essential": 6745,
      "kyo": 6746,
      "roose": 6747,
      "1908": 6748,
      "benjamin": 6749,
      "munition": 6750,
      "1909": 6751,
      "minnesota": 6752,
      "chand": 6753,
      "idae": 6754,
      "jection": 6755,
      "1905": 6756,
      "reconnaissance": 6757,
      "vietnames": 6758,
      "vietnamese": 6759,
      "maj": 6760,
      "statue": 6761,
      "loyal": 6762,
      "preserved": 6763,
      "vii": 6764,
      "walking": 6765,
      "functions": 6766,
      "backs": 6767,
      "publicly": 6768,
      "lighting": 6769,
      "organised": 6770,
      "horiz": 6771,
      "matthew": 6772,
      "heading": 6773,
      "console": 6774,
      "preparation": 6775,
      "ske": 6776,
      "sau": 6777,
      "rupted": 6778,
      "intensified": 6779,
      "manhatt": 6780,
      "businesses": 6781,
      "stern": 6782,
      "ima": 6783,
      "cide": 6784,
      "aws": 6785,
      "steps": 6786,
      "ij": 6787,
      "sick": 6788,
      "absolute": 6789,
      "manhattan": 6790,
      "rocks": 6791,
      "highways": 6792,
      "believing": 6793,
      "defeating": 6794,
      "franklin": 6795,
      "alignment": 6796,
      "illness": 6797,
      "keys": 6798,
      "touring": 6799,
      "gab": 6800,
      "flights": 6801,
      "sian": 6802,
      "blin": 6803,
      "stell": 6804,
      "signal": 6805,
      "competed": 6806,
      "aced": 6807,
      "elabor": 6808,
      "backing": 6809,
      "argument": 6810,
      "legitim": 6811,
      "amounts": 6812,
      "attendance": 6813,
      "roosevelt": 6814,
      "assum": 6815,
      "resumed": 6816,
      "excav": 6817,
      "pent": 6818,
      "agers": 6819,
      "fy": 6820,
      "asking": 6821,
      "residence": 6822,
      "arist": 6823,
      "kansas": 6824,
      "amid": 6825,
      "laho": 6826,
      "cargo": 6827,
      "cc": 6828,
      "iso": 6829,
      "itors": 6830,
      "therine": 6831,
      "ammunition": 6832,
      "signing": 6833,
      "kom": 6834,
      "inspe": 6835,
      "conqu": 6836,
      "frig": 6837,
      "consistent": 6838,
      "sting": 6839,
      "conspir": 6840,
      "rix": 6841,
      "recur": 6842,
      "sha": 6843,
      "cylin": 6844,
      "aggressive": 6845,
      "yam": 6846,
      "affil": 6847,
      "portland": 6848,
      "strategic": 6849,
      "counties": 6850,
      "airborne": 6851,
      "subjects": 6852,
      "nash": 6853,
      "ishment": 6854,
      "vas": 6855,
      "polar": 6856,
      "deliber": 6857,
      "1907": 6858,
      "opponent": 6859,
      "usd": 6860,
      "anime": 6861,
      "assists": 6862,
      "registered": 6863,
      "rip": 6864,
      "submitted": 6865,
      "retail": 6866,
      "dul": 6867,
      "audiences": 6868,
      "provincial": 6869,
      "documents": 6870,
      "acle": 6871,
      "warren": 6872,
      "conventional": 6873,
      "alternate": 6874,
      "philippines": 6875,
      "nucle": 6876,
      "bros": 6877,
      "doubt": 6878,
      "mall": 6879,
      "engineers": 6880,
      "fires": 6881,
      "dogs": 6882,
      "uding": 6883,
      "mississippi": 6884,
      "lanes": 6885,
      "netic": 6886,
      "feelings": 6887,
      "astronom": 6888,
      "rants": 6889,
      "campbell": 6890,
      "shells": 6891,
      "cow": 6892,
      "radical": 6893,
      "predict": 6894,
      "tribes": 6895,
      "shall": 6896,
      "ownership": 6897,
      "pound": 6898,
      "sig": 6899,
      "beaten": 6900,
      "completing": 6901,
      "percentage": 6902,
      "laugh": 6903,
      "hunter": 6904,
      "waiting": 6905,
      "gie": 6906,
      "cze": 6907,
      "pler": 6908,
      "listing": 6909,
      "blocks": 6910,
      "charity": 6911,
      "amateur": 6912,
      "behalf": 6913,
      "electro": 6914,
      "stores": 6915,
      "dwar": 6916,
      "magn": 6917,
      "coat": 6918,
      "persist": 6919,
      "montre": 6920,
      "shakespe": 6921,
      "artistic": 6922,
      "quad": 6923,
      "worn": 6924,
      "publications": 6925,
      "rhythm": 6926,
      "ava": 6927,
      "evolved": 6928,
      "cinema": 6929,
      "globe": 6930,
      "tennes": 6931,
      "recognised": 6932,
      "divers": 6933,
      "shakespeare": 6934,
      "billy": 6935,
      "dc": 6936,
      "boards": 6937,
      "tong": 6938,
      "guine": 6939,
      "ensu": 6940,
      "stair": 6941,
      "explosion": 6942,
      "chronicle": 6943,
      "targets": 6944,
      "chet": 6945,
      "lakes": 6946,
      "oon": 6947,
      "kam": 6948,
      "itated": 6949,
      "beam": 6950,
      "grim": 6951,
      "dess": 6952,
      "provision": 6953,
      "feather": 6954,
      "frustr": 6955,
      "repl": 6956,
      "pene": 6957,
      "suspended": 6958,
      "360": 6959,
      "prompt": 6960,
      "engagement": 6961,
      "revenue": 6962,
      "cartoon": 6963,
      "movies": 6964,
      "impression": 6965,
      "dod": 6966,
      "layer": 6967,
      "goth": 6968,
      "reluct": 6969,
      "cular": 6970,
      "planets": 6971,
      "margaret": 6972,
      "vak": 6973,
      "ideal": 6974,
      "civilian": 6975,
      "beauty": 6976,
      "mush": 6977,
      "maneu": 6978,
      "poorly": 6979,
      "pher": 6980,
      "craw": 6981,
      "delay": 6982,
      "lucas": 6983,
      "jury": 6984,
      "offering": 6985,
      "threw": 6986,
      "egyptian": 6987,
      "ati": 6988,
      "lips": 6989,
      "xx": 6990,
      "replacing": 6991,
      "filed": 6992,
      "guilty": 6993,
      "mble": 6994,
      "tribun": 6995,
      "measured": 6996,
      "faster": 6997,
      "aimed": 6998,
      "nice": 6999,
      "sket": 7000,
      "agre": 7001,
      "boundary": 7002,
      "shak": 7003,
      "quiet": 7004,
      "armies": 7005,
      "temporarily": 7006,
      "tennessee": 7007,
      "clearly": 7008,
      "acceler": 7009,
      "loose": 7010,
      "umn": 7011,
      "obvious": 7012,
      "visiting": 7013,
      "surgery": 7014,
      "galax": 7015,
      "louisiana": 7016,
      "fixed": 7017,
      "rim": 7018,
      "looks": 7019,
      "missouri": 7020,
      "ingly": 7021,
      "butter": 7022,
      "shipping": 7023,
      "represents": 7024,
      "alog": 7025,
      "dino": 7026,
      "simultaneously": 7027,
      "vulner": 7028,
      "sequences": 7029,
      "ounced": 7030,
      "storage": 7031,
      "closure": 7032,
      "ariz": 7033,
      "1906": 7034,
      "readers": 7035,
      "remnants": 7036,
      "slip": 7037,
      "educational": 7038,
      "oke": 7039,
      "bones": 7040,
      "metre": 7041,
      "1904": 7042,
      "montreal": 7043,
      "protein": 7044,
      "saved": 7045,
      "aviation": 7046,
      "birthday": 7047,
      "strange": 7048,
      "ache": 7049,
      "coverage": 7050,
      "mund": 7051,
      "recommend": 7052,
      "progressive": 7053,
      "mitchell": 7054,
      "aside": 7055,
      "sung": 7056,
      "patterns": 7057,
      "iated": 7058,
      "cancelled": 7059,
      "lus": 7060,
      "intercept": 7061,
      "talent": 7062,
      "fossil": 7063,
      "thum": 7064,
      "comparison": 7065,
      "rell": 7066,
      "mania": 7067,
      "spotted": 7068,
      "oles": 7069,
      "institution": 7070,
      "wants": 7071,
      "loaded": 7072,
      "valuable": 7073,
      "acou": 7074,
      "suggesting": 7075,
      "rebuilt": 7076,
      "check": 7077,
      "thirteen": 7078,
      "perspective": 7079,
      "notice": 7080,
      "overseas": 7081,
      "palest": 7082,
      "practices": 7083,
      "reflected": 7084,
      "stere": 7085,
      "wasn": 7086,
      "cuba": 7087,
      "graham": 7088,
      "altered": 7089,
      "iers": 7090,
      "ferry": 7091,
      "juli": 7092,
      "institutions": 7093,
      "ortho": 7094,
      "bare": 7095,
      "sitting": 7096,
      "clif": 7097,
      "agriculture": 7098,
      "furthermore": 7099,
      "predomin": 7100,
      "kane": 7101,
      "destroyer": 7102,
      "tig": 7103,
      "wid": 7104,
      "abc": 7105,
      "vertical": 7106,
      "pressing": 7107,
      "ailed": 7108,
      "pulled": 7109,
      "propag": 7110,
      "icken": 7111,
      "fastest": 7112,
      "bombing": 7113,
      "prope": 7114,
      "drove": 7115,
      "physics": 7116,
      "escaped": 7117,
      "sq": 7118,
      "exh": 7119,
      "marie": 7120,
      "valid": 7121,
      "badly": 7122,
      "application": 7123,
      "convers": 7124,
      "subspecies": 7125,
      "motions": 7126,
      "ranks": 7127,
      "jobs": 7128,
      "lesser": 7129,
      "cutting": 7130,
      "summit": 7131,
      "adequ": 7132,
      "trium": 7133,
      "stev": 7134,
      "drugs": 7135,
      "wicket": 7136,
      "blind": 7137,
      "lacked": 7138,
      "flowers": 7139,
      "allmusic": 7140,
      "listen": 7141,
      "contributions": 7142,
      "decides": 7143,
      "bulk": 7144,
      "umber": 7145,
      "subur": 7146,
      "argues": 7147,
      "slaves": 7148,
      "mills": 7149,
      "hypothe": 7150,
      "tack": 7151,
      "motiv": 7152,
      "confederate": 7153,
      "illy": 7154,
      "autumn": 7155,
      "intellect": 7156,
      "isen": 7157,
      "rede": 7158,
      "eign": 7159,
      "dense": 7160,
      "nn": 7161,
      "spider": 7162,
      "ropo": 7163,
      "illegal": 7164,
      "context": 7165,
      "striking": 7166,
      "flagship": 7167,
      "sovereign": 7168,
      "oxide": 7169,
      "fate": 7170,
      "indies": 7171,
      "accum": 7172,
      "artney": 7173,
      "founding": 7174,
      "controls": 7175,
      "severely": 7176,
      "dic": 7177,
      "squadrons": 7178,
      "earning": 7179,
      "characterized": 7180,
      "feeding": 7181,
      "rook": 7182,
      "starring": 7183,
      "iner": 7184,
      "wayne": 7185,
      "musician": 7186,
      "passion": 7187,
      "wight": 7188,
      "alber": 7189,
      "persian": 7190,
      "cave": 7191,
      "ranges": 7192,
      "lords": 7193,
      "tokyo": 7194,
      "distinctive": 7195,
      "ambass": 7196,
      "immun": 7197,
      "mirror": 7198,
      "taxon": 7199,
      "tamil": 7200,
      "condem": 7201,
      "mainland": 7202,
      "killer": 7203,
      "inhabitants": 7204,
      "dj": 7205,
      "jump": 7206,
      "turb": 7207,
      "iary": 7208,
      "yield": 7209,
      "abund": 7210,
      "paras": 7211,
      "guitarist": 7212,
      "wider": 7213,
      "explain": 7214,
      "shift": 7215,
      "arizona": 7216,
      "saturday": 7217,
      "juris": 7218,
      "vard": 7219,
      "clash": 7220,
      "doors": 7221,
      "maur": 7222,
      "stol": 7223,
      "dominant": 7224,
      "oliv": 7225,
      "liberty": 7226,
      "dall": 7227,
      "dylan": 7228,
      "waste": 7229,
      "retro": 7230,
      "bonus": 7231,
      "excellent": 7232,
      "commanding": 7233,
      "pearl": 7234,
      "dox": 7235,
      "spend": 7236,
      "phenom": 7237,
      "rag": 7238,
      "tempo": 7239,
      "ieties": 7240,
      "revival": 7241,
      "delaw": 7242,
      "compass": 7243,
      "cultiv": 7244,
      "meetings": 7245,
      "definition": 7246,
      "carriers": 7247,
      "observations": 7248,
      "athletes": 7249,
      "idency": 7250,
      "pension": 7251,
      "users": 7252,
      "explains": 7253,
      "mercur": 7254,
      "arctic": 7255,
      "xture": 7256,
      "iran": 7257,
      "parliamentary": 7258,
      "demonstrated": 7259,
      "faction": 7260,
      "oklaho": 7261,
      "danger": 7262,
      "utical": 7263,
      "arrive": 7264,
      "broadway": 7265,
      "batter": 7266,
      "bald": 7267,
      "08": 7268,
      "honey": 7269,
      "amb": 7270,
      "descend": 7271,
      "artific": 7272,
      "amps": 7273,
      "backed": 7274,
      "mrs": 7275,
      "aerial": 7276,
      "skull": 7277,
      "austrian": 7278,
      "hidden": 7279,
      "maker": 7280,
      "tang": 7281,
      "sax": 7282,
      "connect": 7283,
      "bah": 7284,
      "lift": 7285,
      "kees": 7286,
      "holiday": 7287,
      "blan": 7288,
      "prepare": 7289,
      "edin": 7290,
      "altit": 7291,
      "wool": 7292,
      "northward": 7293,
      "harvey": 7294,
      "murphy": 7295,
      "predicted": 7296,
      "conversion": 7297,
      "gos": 7298,
      "mechanical": 7299,
      "verte": 7300,
      "artwork": 7301,
      "sak": 7302,
      "talking": 7303,
      "funny": 7304,
      "interpretation": 7305,
      "fs": 7306,
      "lem": 7307,
      "reaches": 7308,
      "experimental": 7309,
      "peaking": 7310,
      "duo": 7311,
      "switzer": 7312,
      "riding": 7313,
      "bombs": 7314,
      "chal": 7315,
      "barry": 7316,
      "considering": 7317,
      "slave": 7318,
      "1901": 7319,
      "pages": 7320,
      "delaware": 7321,
      "labe": 7322,
      "partial": 7323,
      "helps": 7324,
      "declar": 7325,
      "switzerland": 7326,
      "dread": 7327,
      "nova": 7328,
      "hammer": 7329,
      "zzle": 7330,
      "towers": 7331,
      "iling": 7332,
      "juan": 7333,
      "households": 7334,
      "nominations": 7335,
      "kil": 7336,
      "sla": 7337,
      "texts": 7338,
      "apartment": 7339,
      "symphony": 7340,
      "liquid": 7341,
      "oklahoma": 7342,
      "kids": 7343,
      "athe": 7344,
      "westward": 7345,
      "bacter": 7346,
      "aig": 7347,
      "rings": 7348,
      "enna": 7349,
      "feels": 7350,
      "copper": 7351,
      "beats": 7352,
      "posit": 7353,
      "seriously": 7354,
      "choose": 7355,
      "michel": 7356,
      "attained": 7357,
      "urer": 7358,
      "repeatedly": 7359,
      "wned": 7360,
      "useful": 7361,
      "predecessor": 7362,
      "sony": 7363,
      "census": 7364,
      "swimming": 7365,
      "rett": 7366,
      "luck": 7367,
      "lob": 7368,
      "lac": 7369,
      "pep": 7370,
      "definite": 7371,
      "audition": 7372,
      "congreg": 7373,
      "09": 7374,
      "virus": 7375,
      "thanks": 7376,
      "consequently": 7377,
      "circumstances": 7378,
      "tales": 7379,
      "practical": 7380,
      "chemistry": 7381,
      "ique": 7382,
      "perry": 7383,
      "dubbed": 7384,
      "sciento": 7385,
      "statistics": 7386,
      "lithuan": 7387,
      "vous": 7388,
      "melody": 7389,
      "delivery": 7390,
      "metall": 7391,
      "perceived": 7392,
      "friendship": 7393,
      "electricity": 7394,
      "spell": 7395,
      "gear": 7396,
      "bene": 7397,
      "1903": 7398,
      "papers": 7399,
      "trigger": 7400,
      "abu": 7401,
      "acher": 7402,
      "1902": 7403,
      "leslie": 7404,
      "revolt": 7405,
      "todd": 7406,
      "compens": 7407,
      "remarked": 7408,
      "proof": 7409,
      "breath": 7410,
      "markets": 7411,
      "glen": 7412,
      "sunk": 7413,
      "ballad": 7414,
      "improvements": 7415,
      "hydrogen": 7416,
      "alexand": 7417,
      "accurate": 7418,
      "toy": 7419,
      "mort": 7420,
      "enlisted": 7421,
      "tactics": 7422,
      "adm": 7423,
      "hore": 7424,
      "burton": 7425,
      "denmark": 7426,
      "lain": 7427,
      "keith": 7428,
      "turret": 7429,
      "personally": 7430,
      "aya": 7431,
      "johnny": 7432,
      "powder": 7433,
      "115": 7434,
      "acclaim": 7435,
      "consul": 7436,
      "jonathan": 7437,
      "ressing": 7438,
      "angular": 7439,
      "radiation": 7440,
      "theatrical": 7441,
      "landscape": 7442,
      "nap": 7443,
      "tram": 7444,
      "persons": 7445,
      "dawn": 7446,
      "dinosaur": 7447,
      "patt": 7448,
      "airlines": 7449,
      "atlanta": 7450,
      "ptions": 7451,
      "tai": 7452,
      "mong": 7453,
      "inals": 7454,
      "sult": 7455,
      "execution": 7456,
      "coup": 7457,
      "nev": 7458,
      "overw": 7459,
      "assembled": 7460,
      "ien": 7461,
      "intim": 7462,
      "compound": 7463,
      "ruth": 7464,
      "burns": 7465,
      "ruling": 7466,
      "marvel": 7467,
      "demands": 7468,
      "sixteen": 7469,
      "rihanna": 7470,
      "feld": 7471,
      "madagas": 7472,
      "strengthened": 7473,
      "som": 7474,
      "travels": 7475,
      "campaigns": 7476,
      "nixon": 7477,
      "nag": 7478,
      "semin": 7479,
      "ghan": 7480,
      "raising": 7481,
      "apolis": 7482,
      "edwards": 7483,
      "finger": 7484,
      "gender": 7485,
      "explan": 7486,
      "elevation": 7487,
      "dispat": 7488,
      "burial": 7489,
      "mingham": 7490,
      "demanded": 7491,
      "aggreg": 7492,
      "princi": 7493,
      "agger": 7494,
      "valent": 7495,
      "pam": 7496,
      "profile": 7497,
      "targe": 7498,
      "pitts": 7499,
      "illustrated": 7500,
      "kurt": 7501,
      "archbishop": 7502,
      "bernard": 7503,
      "daughters": 7504,
      "clothing": 7505,
      "succession": 7506,
      "membership": 7507,
      "insisted": 7508,
      "rebel": 7509,
      "gentle": 7510,
      "canter": 7511,
      "wilhelm": 7512,
      "ibn": 7513,
      "ruption": 7514,
      "mercury": 7515,
      "een": 7516,
      "thal": 7517,
      "oct": 7518,
      "bearing": 7519,
      "dressed": 7520,
      "gling": 7521,
      "brilli": 7522,
      "compounds": 7523,
      "aming": 7524,
      "extend": 7525,
      "settlers": 7526,
      "jimmy": 7527,
      "arnold": 7528,
      "intervent": 7529,
      "tracy": 7530,
      "phoenix": 7531,
      "connecting": 7532,
      "neil": 7533,
      "fewer": 7534,
      "ticket": 7535,
      "adventures": 7536,
      "struggled": 7537,
      "glee": 7538,
      "dust": 7539,
      "twi": 7540,
      "rebound": 7541,
      "volcano": 7542,
      "lang": 7543,
      "prove": 7544,
      "erected": 7545,
      "earn": 7546,
      "liner": 7547,
      "ading": 7548,
      "armoured": 7549,
      "demolished": 7550,
      "fourteen": 7551,
      "compliment": 7552,
      "hawa": 7553,
      "oblig": 7554,
      "rachel": 7555,
      "succeed": 7556,
      "trading": 7557,
      "edited": 7558,
      "external": 7559,
      "stronger": 7560,
      "decisions": 7561,
      "masters": 7562,
      "increases": 7563,
      "spart": 7564,
      "remark": 7565,
      "warfare": 7566,
      "caa": 7567,
      "investment": 7568,
      "insects": 7569,
      "itted": 7570,
      "tours": 7571,
      "yankees": 7572,
      "blast": 7573,
      "removal": 7574,
      "jup": 7575,
      "cards": 7576,
      "manga": 7577,
      "objective": 7578,
      "pursue": 7579,
      "answer": 7580,
      "culmin": 7581,
      "advertising": 7582,
      "stuff": 7583,
      "challenged": 7584,
      "trench": 7585,
      "birmingham": 7586,
      "madagascar": 7587,
      "sonic": 7588,
      "deterior": 7589,
      "monte": 7590,
      "defences": 7591,
      "exposure": 7592,
      "hir": 7593,
      "lig": 7594,
      "trick": 7595,
      "vern": 7596,
      "coron": 7597,
      "developers": 7598,
      "exactly": 7599,
      "rin": 7600,
      "bobby": 7601,
      "juven": 7602,
      "tna": 7603,
      "gence": 7604,
      "obama": 7605,
      "discovers": 7606,
      "pend": 7607,
      "epic": 7608,
      "magazines": 7609,
      "defending": 7610,
      "confron": 7611,
      "sciences": 7612,
      "electrical": 7613,
      "vor": 7614,
      "placement": 7615,
      "concentration": 7616,
      "fasc": 7617,
      "icke": 7618,
      "acces": 7619,
      "lium": 7620,
      "manuel": 7621,
      "herald": 7622,
      "wealthy": 7623,
      "quarterback": 7624,
      "hudson": 7625,
      "hearts": 7626,
      "conquest": 7627,
      "approaching": 7628,
      "mg": 7629,
      "pist": 7630,
      "strand": 7631,
      "boom": 7632,
      "bust": 7633,
      "venue": 7634,
      "exercise": 7635,
      "cann": 7636,
      "select": 7637,
      "raids": 7638,
      "dimension": 7639,
      "limits": 7640,
      "clip": 7641,
      "establishing": 7642,
      "connectic": 7643,
      "mccartney": 7644,
      "connecticut": 7645,
      "craz": 7646,
      "commentary": 7647,
      "sten": 7648,
      "nered": 7649,
      "gods": 7650,
      "ontario": 7651,
      "acknowledged": 7652,
      "hate": 7653,
      "harm": 7654,
      "doct": 7655,
      "centers": 7656,
      "athy": 7657,
      "realized": 7658,
      "hast": 7659,
      "putting": 7660,
      "indicating": 7661,
      "fier": 7662,
      "beau": 7663,
      "understood": 7664,
      "pipe": 7665,
      "hence": 7666,
      "burning": 7667,
      "hul": 7668,
      "architectural": 7669,
      "axis": 7670,
      "qualifying": 7671,
      "initiated": 7672,
      "canterbury": 7673,
      "friday": 7674,
      "supplied": 7675,
      "shadow": 7676,
      "acoustic": 7677,
      "evalu": 7678,
      "morrison": 7679,
      "ais": 7680,
      "tube": 7681,
      "sultan": 7682,
      "05": 7683,
      "uniform": 7684,
      "traveling": 7685,
      "ongoing": 7686,
      "tent": 7687,
      "stress": 7688,
      "tooth": 7689,
      "slavery": 7690,
      "ader": 7691,
      "improvement": 7692,
      "announcement": 7693,
      "shorter": 7694,
      "withdrawal": 7695,
      "cen": 7696,
      "unless": 7697,
      "celebrated": 7698,
      "theore": 7699,
      "visits": 7700,
      "extratro": 7701,
      "tape": 7702,
      "conven": 7703,
      "bomber": 7704,
      "stationed": 7705,
      "athens": 7706,
      "evacuated": 7707,
      "wreck": 7708,
      "tab": 7709,
      "dissipated": 7710,
      "extratropical": 7711,
      "nh": 7712,
      "leonard": 7713,
      "vertebr": 7714,
      "gaz": 7715,
      "tum": 7716,
      "permitted": 7717,
      "hardy": 7718,
      "survival": 7719,
      "cture": 7720,
      "justin": 7721,
      "titan": 7722,
      "discussion": 7723,
      "precipitation": 7724,
      "penetr": 7725,
      "stim": 7726,
      "voices": 7727,
      "grove": 7728,
      "itary": 7729,
      "youngest": 7730,
      "industries": 7731,
      "arrangements": 7732,
      "debt": 7733,
      "graduated": 7734,
      "egg": 7735,
      "hosts": 7736,
      "kap": 7737,
      "volumes": 7738,
      "silent": 7739,
      "hawaii": 7740,
      "potter": 7741,
      "recovery": 7742,
      "photographs": 7743,
      "xi": 7744,
      "fleming": 7745,
      "viv": 7746,
      "currency": 7747,
      "estimates": 7748,
      "makers": 7749,
      "aes": 7750,
      "nt": 7751,
      "promotional": 7752,
      "troop": 7753,
      "millenn": 7754,
      "requires": 7755,
      "strongest": 7756,
      "guese": 7757,
      "crops": 7758,
      "attitude": 7759,
      "angered": 7760,
      "originated": 7761,
      "horizon": 7762,
      "reporter": 7763,
      "parach": 7764,
      "ucing": 7765,
      "06": 7766,
      "trough": 7767,
      "terrain": 7768,
      "marking": 7769,
      "biographer": 7770,
      "tubes": 7771,
      "confront": 7772,
      "oked": 7773,
      "suspect": 7774,
      "couver": 7775,
      "onymous": 7776,
      "jupiter": 7777,
      "07": 7778,
      "thouse": 7779,
      "tension": 7780,
      "cuts": 7781,
      "vancouver": 7782,
      "exclusive": 7783,
      "fed": 7784,
      "105": 7785,
      "referring": 7786,
      "expert": 7787,
      "350": 7788,
      "ende": 7789,
      "donated": 7790,
      "transit": 7791,
      "guinea": 7792,
      "devast": 7793,
      "supplement": 7794,
      "cros": 7795,
      "ika": 7796,
      "chev": 7797,
      "specimen": 7798,
      "kor": 7799,
      "cruise": 7800,
      "jama": 7801,
      "translation": 7802,
      "colleagues": 7803,
      "bench": 7804,
      "closest": 7805,
      "wii": 7806,
      "ceased": 7807,
      "esp": 7808,
      "manor": 7809,
      "luke": 7810,
      "minority": 7811,
      "southeastern": 7812,
      "zig": 7813,
      "indicates": 7814,
      "vamp": 7815,
      "rolled": 7816,
      "mons": 7817,
      "forecast": 7818,
      "programming": 7819,
      "watershed": 7820,
      "scattered": 7821,
      "m2": 7822,
      "tas": 7823,
      "aber": 7824,
      "speaker": 7825,
      "uranium": 7826,
      "drinking": 7827,
      "earthquake": 7828,
      "outr": 7829,
      "amen": 7830,
      "clan": 7831,
      "signature": 7832,
      "portuguese": 7833,
      "phrase": 7834,
      "emphasis": 7835,
      "density": 7836,
      "decide": 7837,
      "parent": 7838,
      "bradman": 7839,
      "gments": 7840,
      "plum": 7841,
      "attending": 7842,
      "identify": 7843,
      "sharks": 7844,
      "embr": 7845,
      "collins": 7846,
      "concentrated": 7847,
      "rar": 7848,
      "heaven": 7849,
      "kum": 7850,
      "roe": 7851,
      "uefa": 7852,
      "lawyer": 7853,
      "discuss": 7854,
      "gathered": 7855,
      "merely": 7856,
      "shin": 7857,
      "rangers": 7858,
      "bypass": 7859,
      "ifer": 7860,
      "collapsed": 7861,
      "dwight": 7862,
      "lomb": 7863,
      "neo": 7864,
      "topped": 7865,
      "preparations": 7866,
      "cav": 7867,
      "traditionally": 7868,
      "achievement": 7869,
      "consult": 7870,
      "genesis": 7871,
      "mick": 7872,
      "alice": 7873,
      "flex": 7874,
      "territorial": 7875,
      "advertise": 7876,
      "optim": 7877,
      "failing": 7878,
      "photography": 7879,
      "coalition": 7880,
      "annually": 7881,
      "governments": 7882,
      "voting": 7883,
      "interpreted": 7884,
      "ncaa": 7885,
      "indigen": 7886,
      "worthy": 7887,
      "democrats": 7888,
      "spy": 7889,
      "provinces": 7890,
      "cousin": 7891,
      "ision": 7892,
      "buffalo": 7893,
      "artificial": 7894,
      "spaces": 7895,
      "continuous": 7896,
      "principles": 7897,
      "mans": 7898,
      "kills": 7899,
      "rik": 7900,
      "dak": 7901,
      "minster": 7902,
      "tribe": 7903,
      "scription": 7904,
      "lind": 7905,
      "publisher": 7906,
      "competing": 7907,
      "1893": 7908,
      "prisoner": 7909,
      "hind": 7910,
      "oliver": 7911,
      "predators": 7912,
      "victorian": 7913,
      "questioned": 7914,
      "voyage": 7915,
      "hide": 7916,
      "dual": 7917,
      "prices": 7918,
      "spon": 7919,
      "turner": 7920,
      "seized": 7921,
      "hampshire": 7922,
      "orthodox": 7923,
      "proportion": 7924,
      "afghan": 7925,
      "respective": 7926,
      "accompanying": 7927,
      "edinburgh": 7928,
      "veloc": 7929,
      "beng": 7930,
      "inge": 7931,
      "rena": 7932,
      "maya": 7933,
      "terminal": 7934,
      "investigate": 7935,
      "declaration": 7936,
      "indigenous": 7937,
      "rs": 7938,
      "conceived": 7939,
      "collections": 7940,
      "1896": 7941,
      "reinforcements": 7942,
      "till": 7943,
      "talks": 7944,
      "reverse": 7945,
      "adier": 7946,
      "heroes": 7947,
      "shan": 7948,
      "bisho": 7949,
      "hyper": 7950,
      "portrayal": 7951,
      "portrait": 7952,
      "stops": 7953,
      "sect": 7954,
      "universities": 7955,
      "witch": 7956,
      "fairly": 7957,
      "sending": 7958,
      "craig": 7959,
      "broadcasting": 7960,
      "escort": 7961,
      "foster": 7962,
      "cotton": 7963,
      "ambassador": 7964,
      "spoken": 7965,
      "flooded": 7966,
      "offense": 7967,
      "panic": 7968,
      "flows": 7969,
      "tenure": 7970,
      "salv": 7971,
      "innov": 7972,
      "regime": 7973,
      "ruler": 7974,
      "racial": 7975,
      "revenge": 7976,
      "abuse": 7977,
      "experiments": 7978,
      "volunteers": 7979,
      "user": 7980,
      "representation": 7981,
      "beneath": 7982,
      "bren": 7983,
      "intr": 7984,
      "hitting": 7985,
      "certainly": 7986,
      "recurring": 7987,
      "ux": 7988,
      "icity": 7989,
      "output": 7990,
      "partis": 7991,
      "profession": 7992,
      "imetres": 7993,
      "ww": 7994,
      "lope": 7995,
      "celt": 7996,
      "magnit": 7997,
      "1898": 7998,
      "stereo": 7999,
      "lier": 8000,
      "redes": 8001,
      "goddess": 8002,
      "reward": 8003,
      "humor": 8004,
      "supervis": 8005,
      "overwhel": 8006,
      "apy": 8007,
      "fundament": 8008,
      "branches": 8009,
      "mum": 8010,
      "ulous": 8011,
      "dioc": 8012,
      "courses": 8013,
      "hawk": 8014,
      "yorkshire": 8015,
      "contribution": 8016,
      "enthusi": 8017,
      "disband": 8018,
      "imagery": 8019,
      "cable": 8020,
      "kol": 8021,
      "enforce": 8022,
      "fying": 8023,
      "revised": 8024,
      "handle": 8025,
      "consolid": 8026,
      "songwriter": 8027,
      "historically": 8028,
      "gaming": 8029,
      "wire": 8030,
      "nose": 8031,
      "ensis": 8032,
      "lloy": 8033,
      "tender": 8034,
      "companion": 8035,
      "commenting": 8036,
      "underwent": 8037,
      "solved": 8038,
      "components": 8039,
      "ministers": 8040,
      "jerry": 8041,
      "recip": 8042,
      "hammad": 8043,
      "drummer": 8044,
      "christianity": 8045,
      "enhan": 8046,
      "org": 8047,
      "serge": 8048,
      "grossing": 8049,
      "component": 8050,
      "atop": 8051,
      "ralph": 8052,
      "destroying": 8053,
      "kis": 8054,
      "carn": 8055,
      "streak": 8056,
      "millennium": 8057,
      "shallow": 8058,
      "elig": 8059,
      "reducing": 8060,
      "argentina": 8061,
      "gospe": 8062,
      "reduction": 8063,
      "reflect": 8064,
      "crack": 8065,
      "charted": 8066,
      "devices": 8067,
      "replied": 8068,
      "cket": 8069,
      "unclear": 8070,
      "awak": 8071,
      "authorized": 8072,
      "alt": 8073,
      "patients": 8074,
      "duration": 8075,
      "antonio": 8076,
      "mosco": 8077,
      "gaining": 8078,
      "nake": 8079,
      "corrid": 8080,
      "identical": 8081,
      "ike": 8082,
      "oo": 8083,
      "winners": 8084,
      "memo": 8085,
      "1899": 8086,
      "queensland": 8087,
      "ffield": 8088,
      "insist": 8089,
      "balls": 8090,
      "approaches": 8091,
      "reich": 8092,
      "cox": 8093,
      "prev": 8094,
      "reveal": 8095,
      "frequency": 8096,
      "smoke": 8097,
      "competitive": 8098,
      "seventeen": 8099,
      "surve": 8100,
      "marge": 8101,
      "multiplayer": 8102,
      "connections": 8103,
      "samples": 8104,
      "crop": 8105,
      "1940s": 8106,
      "leigh": 8107,
      "dell": 8108,
      "meg": 8109,
      "smart": 8110,
      "proposals": 8111,
      "requirements": 8112,
      "rp": 8113,
      "distant": 8114,
      "climb": 8115,
      "resolved": 8116,
      "embarked": 8117,
      "finland": 8118,
      "125": 8119,
      "traded": 8120,
      "lloyd": 8121,
      "surrendered": 8122,
      "characteristic": 8123,
      "loud": 8124,
      "sings": 8125,
      "lifetime": 8126,
      "arrives": 8127,
      "ua": 8128,
      "burned": 8129,
      "urally": 8130,
      "springs": 8131,
      "translated": 8132,
      "kate": 8133,
      "norfolk": 8134,
      "jos": 8135,
      "platforms": 8136,
      "thrown": 8137,
      "aser": 8138,
      "uration": 8139,
      "turkey": 8140,
      "itals": 8141,
      "karl": 8142,
      "whate": 8143,
      "researchers": 8144,
      "reconstruction": 8145,
      "chore": 8146,
      "moor": 8147,
      "plaza": 8148,
      "banned": 8149,
      "nicholas": 8150,
      "romance": 8151,
      "elite": 8152,
      "rider": 8153,
      "whatever": 8154,
      "zan": 8155,
      "ampton": 8156,
      "praising": 8157,
      "confidence": 8158,
      "exclusively": 8159,
      "tul": 8160,
      "significance": 8161,
      "suddenly": 8162,
      "stevens": 8163,
      "warriors": 8164,
      "ensed": 8165,
      "scope": 8166,
      "intervention": 8167,
      "crimes": 8168,
      "rebels": 8169,
      "itis": 8170,
      "celebration": 8171,
      "varied": 8172,
      "belgian": 8173,
      "chronic": 8174,
      "tical": 8175,
      "districts": 8176,
      "navigation": 8177,
      "icing": 8178,
      "considers": 8179,
      "commanders": 8180,
      "jin": 8181,
      "finance": 8182,
      "villa": 8183,
      "saf": 8184,
      "secre": 8185,
      "cession": 8186,
      "verses": 8187,
      "pairs": 8188,
      "beer": 8189,
      "1850": 8190,
      "catherine": 8191,
      "truck": 8192,
      "cof": 8193,
      "daw": 8194,
      "emmy": 8195,
      "scientology": 8196,
      "uma": 8197,
      "counters": 8198,
      "resur": 8199,
      "astru": 8200,
      "idol": 8201,
      "descent": 8202,
      "intermedi": 8203,
      "flames": 8204,
      "davies": 8205,
      "screenplay": 8206,
      "shares": 8207,
      "mansion": 8208,
      "darwin": 8209,
      "parody": 8210,
      "thorough": 8211,
      "shoulder": 8212,
      "sailing": 8213,
      "remote": 8214,
      "sample": 8215,
      "toured": 8216,
      "handled": 8217,
      "taxes": 8218,
      "reviewed": 8219,
      "advised": 8220,
      "reactions": 8221,
      "vincent": 8222,
      "boilers": 8223,
      "ono": 8224,
      "lide": 8225,
      "endor": 8226,
      "strikes": 8227,
      "yn": 8228,
      "bann": 8229,
      "kie": 8230,
      "seal": 8231,
      "empty": 8232,
      "pull": 8233,
      "intersects": 8234,
      "philosoph": 8235,
      "hughes": 8236,
      "lover": 8237,
      "vulnerable": 8238,
      "uki": 8239,
      "proceeded": 8240,
      "vick": 8241,
      "bennett": 8242,
      "posts": 8243,
      "diversity": 8244,
      "sile": 8245,
      "presidency": 8246,
      "scores": 8247,
      "mim": 8248,
      "ores": 8249,
      "riel": 8250,
      "opportunities": 8251,
      "sustain": 8252,
      "bred": 8253,
      "medals": 8254,
      "harvard": 8255,
      "presentation": 8256,
      "construct": 8257,
      "disturb": 8258,
      "cena": 8259,
      "acles": 8260,
      "eva": 8261,
      "gins": 8262,
      "manufacturing": 8263,
      "swing": 8264,
      "structural": 8265,
      "marshal": 8266,
      "bombardment": 8267,
      "telegraph": 8268,
      "commissioner": 8269,
      "rivalry": 8270,
      "saxon": 8271,
      "thers": 8272,
      "reinforced": 8273,
      "decorated": 8274,
      "idal": 8275,
      "geoff": 8276,
      "milk": 8277,
      "nautical": 8278,
      "oslo": 8279,
      "rocky": 8280,
      "judges": 8281,
      "tiger": 8282,
      "cleared": 8283,
      "1897": 8284,
      "petition": 8285,
      "lighted": 8286,
      "indonesia": 8287,
      "lasting": 8288,
      "twc": 8289,
      "stroke": 8290,
      "gift": 8291,
      "exceed": 8292,
      "extending": 8293,
      "knights": 8294,
      "rally": 8295,
      "itarian": 8296,
      "teles": 8297,
      "transported": 8298,
      "explicit": 8299,
      "moscow": 8300,
      "jtwc": 8301,
      "alaska": 8302,
      "exists": 8303,
      "realistic": 8304,
      "cyclones": 8305,
      "chancell": 8306,
      "mish": 8307,
      "peters": 8308,
      "baron": 8309,
      "chip": 8310,
      "protests": 8311,
      "runner": 8312,
      "drafted": 8313,
      "pittsburgh": 8314,
      "rodr": 8315,
      "drain": 8316,
      "tonnes": 8317,
      "infrastru": 8318,
      "drink": 8319,
      "triumph": 8320,
      "convict": 8321,
      "maine": 8322,
      "clothes": 8323,
      "wald": 8324,
      "rust": 8325,
      "cameron": 8326,
      "mystery": 8327,
      "mare": 8328,
      "beating": 8329,
      "random": 8330,
      "exile": 8331,
      "haven": 8332,
      "toler": 8333,
      "pover": 8334,
      "ori": 8335,
      "mobil": 8336,
      "absent": 8337,
      "essentially": 8338,
      "coaches": 8339,
      "nonetheless": 8340,
      "mckin": 8341,
      "commenced": 8342,
      "airing": 8343,
      "applications": 8344,
      "prix": 8345,
      "rivals": 8346,
      "petro": 8347,
      "bly": 8348,
      "terry": 8349,
      "usive": 8350,
      "trap": 8351,
      "eleph": 8352,
      "owen": 8353,
      "relatives": 8354,
      "swiss": 8355,
      "maintaining": 8356,
      "eating": 8357,
      "chad": 8358,
      "tir": 8359,
      "restore": 8360,
      "breast": 8361,
      "choreo": 8362,
      "hag": 8363,
      "pard": 8364,
      "withdrawn": 8365,
      "canyon": 8366,
      "accessible": 8367,
      "cats": 8368,
      "instruct": 8369,
      "pete": 8370,
      "viii": 8371,
      "observation": 8372,
      "kle": 8373,
      "theories": 8374,
      "relocated": 8375,
      "leans": 8376,
      "wallace": 8377,
      "enzy": 8378,
      "witnesses": 8379,
      "warnings": 8380,
      "panzer": 8381,
      "turnpike": 8382,
      "preparing": 8383,
      "reforms": 8384,
      "volcanic": 8385,
      "cules": 8386,
      "fitz": 8387,
      "tos": 8388,
      "airline": 8389,
      "participation": 8390,
      "carries": 8391,
      "bott": 8392,
      "colors": 8393,
      "inquir": 8394,
      "mixing": 8395,
      "rhe": 8396,
      "microsoft": 8397,
      "ribute": 8398,
      "odd": 8399,
      "writings": 8400,
      "monthly": 8401,
      "dil": 8402,
      "impl": 8403,
      "tering": 8404,
      "syria": 8405,
      "otes": 8406,
      "04": 8407,
      "senators": 8408,
      "aide": 8409,
      "hollow": 8410,
      "soph": 8411,
      "landers": 8412,
      "elic": 8413,
      "displaced": 8414,
      "patient": 8415,
      "archaeological": 8416,
      "amazing": 8417,
      "ighted": 8418,
      "guerr": 8419,
      "colours": 8420,
      "allo": 8421,
      "aron": 8422,
      "unexpected": 8423,
      "iously": 8424,
      "republicans": 8425,
      "sculpture": 8426,
      "dit": 8427,
      "illes": 8428,
      "iko": 8429,
      "crest": 8430,
      "traditions": 8431,
      "interviews": 8432,
      "routine": 8433,
      "cau": 8434,
      "richmond": 8435,
      "breaks": 8436,
      "magnitude": 8437,
      "planes": 8438,
      "dying": 8439,
      "malaysia": 8440,
      "chile": 8441,
      "interaction": 8442,
      "organic": 8443,
      "concerning": 8444,
      "israeli": 8445,
      "1000": 8446,
      "sheffield": 8447,
      "blocked": 8448,
      "villain": 8449,
      "dreadn": 8450,
      "paraly": 8451,
      "chambers": 8452,
      "reader": 8453,
      "lightning": 8454,
      "mythology": 8455,
      "sega": 8456,
      "larry": 8457,
      "austin": 8458,
      "shifted": 8459,
      "uton": 8460,
      "displays": 8461,
      "worlds": 8462,
      "hurricanes": 8463,
      "grandfather": 8464,
      "learns": 8465,
      "sponsored": 8466,
      "dallas": 8467,
      "commercially": 8468,
      "jefferson": 8469,
      "dinner": 8470,
      "desper": 8471,
      "1890": 8472,
      "arguing": 8473,
      "fon": 8474,
      "neth": 8475,
      "neuro": 8476,
      "bryan": 8477,
      "phic": 8478,
      "johnston": 8479,
      "parkway": 8480,
      "judicial": 8481,
      "inations": 8482,
      "corporate": 8483,
      "bold": 8484,
      "eur": 8485,
      "ivan": 8486,
      "cyrus": 8487,
      "rog": 8488,
      "salary": 8489,
      "confusion": 8490,
      "clarke": 8491,
      "fbi": 8492,
      "sack": 8493,
      "zi": 8494,
      "segments": 8495,
      "illo": 8496,
      "faculty": 8497,
      "mv": 8498,
      "recover": 8499,
      "imposed": 8500,
      "1895": 8501,
      "trend": 8502,
      "stume": 8503,
      "zoo": 8504,
      "honours": 8505,
      "inhab": 8506,
      "costume": 8507,
      "heavyweight": 8508,
      "iveness": 8509,
      "iley": 8510,
      "regiments": 8511,
      "constitu": 8512,
      "oriented": 8513,
      "chelsea": 8514,
      "unlikely": 8515,
      "circular": 8516,
      "funded": 8517,
      "opposing": 8518,
      "diverse": 8519,
      "adesh": 8520,
      "uru": 8521,
      "releg": 8522,
      "fortun": 8523,
      "sta": 8524,
      "alam": 8525,
      "parsons": 8526,
      "enger": 8527,
      "suspic": 8528,
      "sexuality": 8529,
      "stretch": 8530,
      "bars": 8531,
      "emotion": 8532,
      "inning": 8533,
      "snake": 8534,
      "dancers": 8535,
      "manage": 8536,
      "angry": 8537,
      "impressive": 8538,
      "mell": 8539,
      "surprised": 8540,
      "adequate": 8541,
      "cattle": 8542,
      "tus": 8543,
      "educated": 8544,
      "biological": 8545,
      "stown": 8546,
      "flies": 8547,
      "alban": 8548,
      "variation": 8549,
      "comfortable": 8550,
      "sap": 8551,
      "tier": 8552,
      "ista": 8553,
      "armstrong": 8554,
      "boulev": 8555,
      "eno": 8556,
      "precise": 8557,
      "hs": 8558,
      "vital": 8559,
      "decay": 8560,
      "het": 8561,
      "quit": 8562,
      "wished": 8563,
      "manip": 8564,
      "courage": 8565,
      "danish": 8566,
      "brooks": 8567,
      "metric": 8568,
      "shops": 8569,
      "convic": 8570,
      "iance": 8571,
      "infrastructure": 8572,
      "iders": 8573,
      "newton": 8574,
      "brazilian": 8575,
      "noticed": 8576,
      "steep": 8577,
      "susan": 8578,
      "examination": 8579,
      "gamer": 8580,
      "kers": 8581,
      "ceded": 8582,
      "angles": 8583,
      "stuart": 8584,
      "kaiser": 8585,
      "bible": 8586,
      "tickets": 8587,
      "dwell": 8588,
      "sox": 8589,
      "gomer": 8590,
      "holes": 8591,
      "organisms": 8592,
      "principle": 8593,
      "sas": 8594,
      "ulating": 8595,
      "gel": 8596,
      "naming": 8597,
      "asha": 8598,
      "deeply": 8599,
      "sporting": 8600,
      "root": 8601,
      "diplomatic": 8602,
      "recreation": 8603,
      "amor": 8604,
      "pod": 8605,
      "monast": 8606,
      "tern": 8607,
      "constantin": 8608,
      "caes": 8609,
      "ballo": 8610,
      "quebec": 8611,
      "laf": 8612,
      "commerce": 8613,
      "divorce": 8614,
      "pert": 8615,
      "craf": 8616,
      "bills": 8617,
      "advancing": 8618,
      "pitcher": 8619,
      "canon": 8620,
      "northwestern": 8621,
      "civilians": 8622,
      "girlfriend": 8623,
      "rifle": 8624,
      "compre": 8625,
      "guests": 8626,
      "golf": 8627,
      "disturbance": 8628,
      "taste": 8629,
      "berger": 8630,
      "edon": 8631,
      "inclusion": 8632,
      "variations": 8633,
      "avia": 8634,
      "crazy": 8635,
      "tol": 8636,
      "pursuit": 8637,
      "prosper": 8638,
      "proteins": 8639,
      "travelling": 8640,
      "apollo": 8641,
      "sheep": 8642,
      "divine": 8643,
      "knee": 8644,
      "stolen": 8645,
      "hoping": 8646,
      "hamlet": 8647,
      "orleans": 8648,
      "whale": 8649,
      "bub": 8650,
      "infer": 8651,
      "sier": 8652,
      "fault": 8653,
      "ahl": 8654,
      "gig": 8655,
      "opens": 8656,
      "processes": 8657,
      "kaz": 8658,
      "avian": 8659,
      "directions": 8660,
      "pleased": 8661,
      "settlements": 8662,
      "onica": 8663,
      "peas": 8664,
      "equally": 8665,
      "laps": 8666,
      "cussion": 8667,
      "substitute": 8668,
      "utah": 8669,
      "plates": 8670,
      "crush": 8671,
      "scenario": 8672,
      "ratio": 8673,
      "insurance": 8674,
      "enon": 8675,
      "weld": 8676,
      "ieth": 8677,
      "camps": 8678,
      "potentially": 8679,
      "locally": 8680,
      "tyler": 8681,
      "harold": 8682,
      "challenges": 8683,
      "lodge": 8684,
      "monastery": 8685,
      "vy": 8686,
      "serbian": 8687,
      "knows": 8688,
      "satisfied": 8689,
      "mk": 8690,
      "peg": 8691,
      "parad": 8692,
      "1861": 8693,
      "editions": 8694,
      "lax": 8695,
      "columns": 8696,
      "inhib": 8697,
      "tune": 8698,
      "locked": 8699,
      "benefits": 8700,
      "followers": 8701,
      "conspiracy": 8702,
      "dium": 8703,
      "evident": 8704,
      "integrated": 8705,
      "rookie": 8706,
      "dles": 8707,
      "oted": 8708,
      "yout": 8709,
      "prest": 8710,
      "gerald": 8711,
      "240": 8712,
      "dreams": 8713,
      "1889": 8714,
      "functional": 8715,
      "peo": 8716,
      "muhammad": 8717,
      "inated": 8718,
      "grams": 8719,
      "sentence": 8720,
      "delta": 8721,
      "explaining": 8722,
      "offshore": 8723,
      "vik": 8724,
      "statements": 8725,
      "altitude": 8726,
      "jacqu": 8727,
      "inf": 8728,
      "choir": 8729,
      "extinct": 8730,
      "tide": 8731,
      "stefan": 8732,
      "addressed": 8733,
      "error": 8734,
      "requiring": 8735,
      "spawn": 8736,
      "carp": 8737,
      "links": 8738,
      "rains": 8739,
      "persuaded": 8740,
      "03": 8741,
      "knowing": 8742,
      "similarities": 8743,
      "tough": 8744,
      "implemented": 8745,
      "cbs": 8746,
      "jurisdiction": 8747,
      "gow": 8748,
      "capturing": 8749,
      "usage": 8750,
      "ups": 8751,
      "veteran": 8752,
      "options": 8753,
      "parachute": 8754,
      "boulevard": 8755,
      "cord": 8756,
      "operates": 8757,
      "categories": 8758,
      "gothic": 8759,
      "fortune": 8760,
      "correspond": 8761,
      "pregnant": 8762,
      "lak": 8763,
      "documented": 8764,
      "ails": 8765,
      "counted": 8766,
      "youtube": 8767,
      "caster": 8768,
      "paint": 8769,
      "constantine": 8770,
      "farmers": 8771,
      "devoted": 8772,
      "1894": 8773,
      "veterans": 8774,
      "keen": 8775,
      "mah": 8776,
      "schum": 8777,
      "socialist": 8778,
      "initiative": 8779,
      "nights": 8780,
      "isons": 8781,
      "reservo": 8782,
      "virtually": 8783,
      "indonesian": 8784,
      "accommodate": 8785,
      "trio": 8786,
      "wiscon": 8787,
      "lance": 8788,
      "restri": 8789,
      "feared": 8790,
      "booth": 8791,
      "wildlife": 8792,
      "disorder": 8793,
      "1891": 8794,
      "gum": 8795,
      "sham": 8796,
      "fork": 8797,
      "forever": 8798,
      "mise": 8799,
      "hg": 8800,
      "maps": 8801,
      "els": 8802,
      "participants": 8803,
      "complained": 8804,
      "weakening": 8805,
      "escorted": 8806,
      "erie": 8807,
      "claren": 8808,
      "colored": 8809,
      "cardiff": 8810,
      "boundaries": 8811,
      "prototype": 8812,
      "ggling": 8813,
      "shah": 8814,
      "favourite": 8815,
      "tactical": 8816,
      "scandal": 8817,
      "galaxy": 8818,
      "domain": 8819,
      "borrow": 8820,
      "cass": 8821,
      "ffin": 8822,
      "anthem": 8823,
      "persona": 8824,
      "rams": 8825,
      "wisconsin": 8826,
      "byr": 8827,
      "lag": 8828,
      "guild": 8829,
      "glor": 8830,
      "atically": 8831,
      "knocked": 8832,
      "studying": 8833,
      "hostile": 8834,
      "switch": 8835,
      "113": 8836,
      "shack": 8837,
      "pierre": 8838,
      "1800": 8839,
      "lotte": 8840,
      "onet": 8841,
      "anarch": 8842,
      "sean": 8843,
      "trapped": 8844,
      "threats": 8845,
      "tribut": 8846,
      "dealing": 8847,
      "1892": 8848,
      "kyle": 8849,
      "extensively": 8850,
      "chlor": 8851,
      "itate": 8852,
      "upset": 8853,
      "johann": 8854,
      "honorary": 8855,
      "montgomer": 8856,
      "danny": 8857,
      "ferr": 8858,
      "hire": 8859,
      "tools": 8860,
      "locate": 8861,
      "manuscript": 8862,
      "relev": 8863,
      "preserve": 8864,
      "cence": 8865,
      "twit": 8866,
      "sym": 8867,
      "athle": 8868,
      "islamic": 8869,
      "hurt": 8870,
      "confident": 8871,
      "meteorological": 8872,
      "cage": 8873,
      "conflicts": 8874,
      "highlighted": 8875,
      "myself": 8876,
      "sentenced": 8877,
      "usalem": 8878,
      "midnight": 8879,
      "circul": 8880,
      "rocket": 8881,
      "viewer": 8882,
      "macarthur": 8883,
      "gospel": 8884,
      "marc": 8885,
      "1870": 8886,
      "massacre": 8887,
      "spheric": 8888,
      "tasked": 8889,
      "tribune": 8890,
      "soap": 8891,
      "flee": 8892,
      "rushing": 8893,
      "housed": 8894,
      "velocity": 8895,
      "pand": 8896,
      "discrimin": 8897,
      "warships": 8898,
      "teammate": 8899,
      "ashes": 8900,
      "jerusalem": 8901,
      "gul": 8902,
      "theodo": 8903,
      "tigers": 8904,
      "owing": 8905,
      "pum": 8906,
      "01": 8907,
      "boeing": 8908,
      "ifies": 8909,
      "fold": 8910,
      "easter": 8911,
      "lington": 8912,
      "honors": 8913,
      "refere": 8914,
      "rays": 8915,
      "ours": 8916,
      "partners": 8917,
      "hybrid": 8918,
      "lacking": 8919,
      "politicians": 8920,
      "evacuation": 8921,
      "inherited": 8922,
      "cure": 8923,
      "abroad": 8924,
      "isn": 8925,
      "renewed": 8926,
      "humanity": 8927,
      "machin": 8928,
      "festiv": 8929,
      "montgomery": 8930,
      "regardless": 8931,
      "recruited": 8932,
      "scholarship": 8933,
      "explore": 8934,
      "rescued": 8935,
      "associate": 8936,
      "defenders": 8937,
      "thet": 8938,
      "formations": 8939,
      "1888": 8940,
      "encounters": 8941,
      "noise": 8942,
      "barnes": 8943,
      "telephone": 8944,
      "darkness": 8945,
      "handling": 8946,
      "dimin": 8947,
      "tourism": 8948,
      "complicated": 8949,
      "uto": 8950,
      "beliefs": 8951,
      "anatom": 8952,
      "tea": 8953,
      "attract": 8954,
      "crashed": 8955,
      "complement": 8956,
      "scots": 8957,
      "legitimate": 8958,
      "mau": 8959,
      "enos": 8960,
      "rogers": 8961,
      "provisions": 8962,
      "enabled": 8963,
      "walks": 8964,
      "considerably": 8965,
      "isle": 8966,
      "prospect": 8967,
      "receives": 8968,
      "separation": 8969,
      "mage": 8970,
      "hein": 8971,
      "barn": 8972,
      "competitions": 8973,
      "pyram": 8974,
      "chancellor": 8975,
      "pursued": 8976,
      "elaborate": 8977,
      "heir": 8978,
      "colm": 8979,
      "fifa": 8980,
      "detected": 8981,
      "throwing": 8982,
      "imprisoned": 8983,
      "ashore": 8984,
      "skir": 8985,
      "brigadier": 8986,
      "breeds": 8987,
      "mals": 8988,
      "prayer": 8989,
      "mixture": 8990,
      "czech": 8991,
      "trunk": 8992,
      "cane": 8993,
      "warned": 8994,
      "ficiently": 8995,
      "dat": 8996,
      "zac": 8997,
      "garnered": 8998,
      "baltic": 8999,
      "observer": 9000,
      "speculation": 9001,
      "tracked": 9002,
      "involves": 9003,
      "bitter": 9004,
      "sinking": 9005,
      "chuck": 9006,
      "grid": 9007,
      "trailer": 9008,
      "assessment": 9009,
      "enders": 9010,
      "sheet": 9011,
      "frontier": 9012,
      "promoting": 9013,
      "wiz": 9014,
      "depicts": 9015,
      "anticipated": 9016,
      "andro": 9017,
      "flour": 9018,
      "1885": 9019,
      "unve": 9020,
      "meyer": 9021,
      "uprising": 9022,
      "suspected": 9023,
      "enor": 9024,
      "heath": 9025,
      "bore": 9026,
      "sanct": 9027,
      "amphib": 9028,
      "450": 9029,
      "shaft": 9030,
      "dependent": 9031,
      "suspension": 9032,
      "batteries": 9033,
      "mandy": 9034,
      "remembered": 9035,
      "krist": 9036,
      "vine": 9037,
      "brilliant": 9038,
      "leop": 9039,
      "magnetic": 9040,
      "batted": 9041,
      "hopes": 9042,
      "infin": 9043,
      "mari": 9044,
      "auton": 9045,
      "cran": 9046,
      "developments": 9047,
      "occasional": 9048,
      "pirates": 9049,
      "regulations": 9050,
      "burger": 9051,
      "nato": 9052,
      "arcade": 9053,
      "accus": 9054,
      "urged": 9055,
      "activated": 9056,
      "thames": 9057,
      "belle": 9058,
      "editing": 9059,
      "adri": 9060,
      "fossils": 9061,
      "eventual": 9062,
      "marit": 9063,
      "internationally": 9064,
      "saturn": 9065,
      "oting": 9066,
      "linear": 9067,
      "02": 9068,
      "lions": 9069,
      "vat": 9070,
      "bog": 9071,
      "confirm": 9072,
      "barbara": 9073,
      "dozen": 9074,
      "facts": 9075,
      "fluor": 9076,
      "tissue": 9077,
      "railways": 9078,
      "boyfriend": 9079,
      "lengths": 9080,
      "sures": 9081,
      "castles": 9082,
      "truly": 9083,
      "charlotte": 9084,
      "metac": 9085,
      "reagan": 9086,
      "unning": 9087,
      "nephe": 9088,
      "sherman": 9089,
      "220": 9090,
      "lich": 9091,
      "produces": 9092,
      "cardinals": 9093,
      "lud": 9094,
      "romney": 9095,
      "hamas": 9096,
      "apply": 9097,
      "molecular": 9098,
      "rendered": 9099,
      "mechanism": 9100,
      "volunteer": 9101,
      "decreased": 9102,
      "pleasure": 9103,
      "consumption": 9104,
      "vinc": 9105,
      "disappointed": 9106,
      "thereby": 9107,
      "1865": 9108,
      "lyrical": 9109,
      "nancy": 9110,
      "moth": 9111,
      "miner": 9112,
      "chamberlain": 9113,
      "jere": 9114,
      "2000s": 9115,
      "interven": 9116,
      "politician": 9117,
      "rational": 9118,
      "config": 9119,
      "pall": 9120,
      "flav": 9121,
      "chiat": 9122,
      "restrictions": 9123,
      "idi": 9124,
      "derby": 9125,
      "ela": 9126,
      "directing": 9127,
      "slam": 9128,
      "intellectual": 9129,
      "nand": 9130,
      "uine": 9131,
      "weir": 9132,
      "positively": 9133,
      "nig": 9134,
      "pto": 9135,
      "mood": 9136,
      "customers": 9137,
      "leo": 9138,
      "excess": 9139,
      "contracts": 9140,
      "inser": 9141,
      "anchor": 9142,
      "revers": 9143,
      "iti": 9144,
      "synthesis": 9145,
      "reminis": 9146,
      "diary": 9147,
      "mccar": 9148,
      "occurring": 9149,
      "psychiat": 9150,
      "mutual": 9151,
      "helicopter": 9152,
      "zom": 9153,
      "upcoming": 9154,
      "spokes": 9155,
      "dere": 9156,
      "usions": 9157,
      "updated": 9158,
      "machines": 9159,
      "boun": 9160,
      "accidentally": 9161,
      "ao": 9162,
      "compositions": 9163,
      "haul": 9164,
      "infection": 9165,
      "sweep": 9166,
      "mammals": 9167,
      "delegates": 9168,
      "pok": 9169,
      "invaded": 9170,
      "dud": 9171,
      "counsel": 9172,
      "productive": 9173,
      "eon": 9174,
      "widen": 9175,
      "iceland": 9176,
      "southwestern": 9177,
      "detective": 9178,
      "tees": 9179,
      "sharing": 9180,
      "spee": 9181,
      "conversation": 9182,
      "rna": 9183,
      "111": 9184,
      "license": 9185,
      "airfield": 9186,
      "knock": 9187,
      "zim": 9188,
      "encies": 9189,
      "voters": 9190,
      "constantinople": 9191,
      "viewing": 9192,
      "lighter": 9193,
      "inaugural": 9194,
      "newcastle": 9195,
      "bradley": 9196,
      "debris": 9197,
      "emen": 9198,
      "genuine": 9199,
      "corresponding": 9200,
      "eddie": 9201,
      "inger": 9202,
      "grat": 9203,
      "lawsuit": 9204,
      "corridor": 9205,
      "tet": 9206,
      "sheriff": 9207,
      "poster": 9208,
      "spit": 9209,
      "borders": 9210,
      "disputed": 9211,
      "definitely": 9212,
      "pip": 9213,
      "arte": 9214,
      "holland": 9215,
[...]
