{
  "version": "1.0",
  "truncation": null,
  "padding": null,
  "added_tokens": [
    {
      "id": 0,
      "content": "[UNK]",
      "single_word": false,
      "lstrip": false,
      "rstrip": false,
      "normalized": false,
      "special": true
    },
    {
      "id": 1,
      "content": "[CLS]",
      "single_word": false,
      "lstrip": false,
      "rstrip": false,
      "normalized": false,
      "special": true
    },
    {
      "id": 2,
      "content": "[SEP]",
      "single_word": false,
      "lstrip": false,
      "rstrip": false,
      "normalized": false,
      "special": true
    },
    {
      "id": 3,
      "content": "[PAD]",
      "single_word": false,
      "lstrip": false,
      "rstrip": false,
      "normalized": false,
      "special": true
    },
    {
      "id": 4,
      "content": "[MASK]",
      "single_word": false,
      "lstrip": false,
      "rstrip": false,
      "normalized": false,
      "special": true
    }
  ],
  "normalizer": {
    "type": "Sequence",
    "normalizers": [
      {
        "type": "NFD"
      },
      {
        "type": "Lowercase"
      },
      {
        "type": "StripAccents"
      }
    ]
  },
  "pre_tokenizer": {
    "type": "Whitespace"
  },
  "post_processor": {
    "type": "TemplateProcessing",
    "single": [
      {
        "SpecialToken": {
          "id": "[CLS]",
          "type_id": 0
        }
      },
      {
        "Sequence": {
          "id": "A",
          "type_id": 0
        }
      },
      {
        "SpecialToken": {
          "id": "[SEP]",
          "type_id": 0
        }
      }
    ],
    "pair": [
      {
        "SpecialToken": {
          "id": "[CLS]",
          "type_id": 0
        }
      },
      {
        "Sequence": {
          "id": "A",
          "type_id": 0
        }
      },
      {
        "SpecialToken": {
          "id": "[SEP]",
          "type_id": 0
        }
      },
      {
        "Sequence": {
          "id": "B",
          "type_id": 1
        }
      },
      {
        "SpecialToken": {
          "id": "[SEP]",
          "type_id": 1
        }
      }
    ],
    "special_tokens": {
      "[CLS]": {
        "id": "[CLS]",
        "ids": [
          1
        ],
        "tokens": [
          "[CLS]"
        ]
      },
      "[SEP]": {
        "id": "[SEP]",
        "ids": [
          2
        ],
        "tokens": [
          "[SEP]"
        ]
      }
    }
  },
  "decoder": null,
  "model": {
    "type": "BPE",
    "dropout": null,
    "unk_token": "[UNK]",
    "continuing_subword_prefix": null,
    "end_of_word_suffix": null,
    "fuse_unk": false,
    "byte_fallback": false,
    "ignore_merges": false,
    "vocab": {
      "[UNK]": 0,
      "[CLS]": 1,
      "[SEP]": 2,
      "[PAD]": 3,
      "[MASK]": 4,
      "!": 5,
      "\"": 6,
      "#": 7,
      "$": 8,
      "%": 9,
      "&": 10,
      "'": 11,
      "(": 12,
      ")": 13,
      "*": 14,
      "+": 15,
      ",": 16,
      "-": 17,
      ".": 18,
      "/": 19,
      "0": 20,
      "1": 21,
      "2": 22,
      "3": 23,
      "4": 24,
      "5": 25,
      "6": 26,
      "7": 27,
      "8": 28,
      "9": 29,
      ":": 30,
      ";": 31,
      "<": 32,
      "=": 33,
      ">": 34,
      "?": 35,
      "@": 36,
      "[": 37,
      "\\": 38,
      "]": 39,
      "^": 40,
      "_": 41,
      "`": 42,
      "a": 43,
      "b": 44,
      "c": 45,
      "d": 46,
      "e": 47,
      "f": 48,
      "g": 49,
      "h": 50,
      "i": 51,
      "j": 52,
      "k": 53,
      "l": 54,
      "m": 55,
      "n": 56,
      "o": 57,
      "p": 58,
      "q": 59,
      "r": 60,
      "s": 61,
      "t": 62,
      "u": 63,
      "v": 64,
      "w": 65,
      "x": 66,
      "y": 67,
      "z": 68,
      "{": 69,
      "|": 70,
      "}": 71,
      "~": 72,
      "": 73,
      "": 74,
      "": 75,
      "": 76,
      "": 77,
      "": 78,
      "¡": 79,
      "¢": 80,
      "£": 81,
      "¤": 82,
      "¥": 83,
      "§": 84,
      "©": 85,
      "«": 86,
      "­": 87,
      "®": 88,
      "¯": 89,
      "°": 90,
      "±": 91,
      "²": 92,
      "³": 93,
      "´": 94,
      "µ": 95,
      "¶": 96,
      "·": 97,
      "¹": 98,
      "º": 99,
      "»": 100,
      "¼": 101,
      "½": 102,
      "¾": 103,
      "¿": 104,
      "×": 105,
      "ß": 106,
      "æ": 107,
      "ð": 108,
      "÷": 109,
      "ø": 110,
      "þ": 111,
      "đ": 112,
      "ħ": 113,
      "ı": 114,
      "ĸ": 115,
      "ł": 116,
      "ŋ": 117,
      "œ": 118,
      "ŧ": 119,
      "ſ": 120,
      "ƀ": 121,
      "ƈ": 122,
      "ƍ": 123,
      "ƒ": 124,
      "ƙ": 125,
      "ƛ": 126,
      "ƣ": 127,
      "ƥ": 128,
      "ƭ": 129,
      "ƿ": 130,
      "ǀ": 131,
      "ǁ": 132,
      "ǂ": 133,
      "ǃ": 134,
      "ǝ": 135,
      "ȝ": 136,
      "ȷ": 137,
      "ȼ": 138,
      "ɉ": 139,
      "ɐ": 140,
      "ɑ": 141,
      "ɒ": 142,
      "ɓ": 143,
      "ɔ": 144,
      "ɕ": 145,
      "ɖ": 146,
      "ɗ": 147,
      "ɘ": 148,
      "ə": 149,
      "ɚ": 150,
      "ɛ": 151,
      "ɜ": 152,
      "ɞ": 153,
      "ɟ": 154,
      "ɠ": 155,
      "ɡ": 156,
      "ɢ": 157,
      "ɣ": 158,
      "ɤ": 159,
      "ɥ": 160,
      "ɦ": 161,
      "ɧ": 162,
      "ɨ": 163,
      "ɪ": 164,
      "ɫ": 165,
      "ɬ": 166,
      "ɭ": 167,
      "ɮ": 168,
      "ɯ": 169,
      "ɰ": 170,
      "ɱ": 171,
      "ɲ": 172,
      "ɳ": 173,
      "ɴ": 174,
      "ɵ": 175,
      "ɶ": 176,
      "ɷ": 177,
      "ɸ": 178,
      "ɹ": 179,
      "ɺ": 180,
      "ɻ": 181,
      "ɽ": 182,
      "ɾ": 183,
      "ʀ": 184,
      "ʁ": 185,
      "ʂ": 186,
      "ʃ": 187,
      "ʄ": 188,
      "ʇ": 189,
      "ʈ": 190,
      "ʉ": 191,
      "ʊ": 192,
      "ʋ": 193,
      "ʌ": 194,
      "ʍ": 195,
      "ʎ": 196,
      "ʏ": 197,
      "ʐ": 198,
      "ʑ": 199,
      "ʒ": 200,
      "ʔ": 201,
      "ʕ": 202,
      "ʖ": 203,
      "ʗ": 204,
      "ʘ": 205,
      "ʙ": 206,
      "ʛ": 207,
      "ʝ": 208,
      "ʞ": 209,
      "ʟ": 210,
      "ʠ": 211,
      "ʡ": 212,
      "ʢ": 213,
      "ʰ": 214,
      "ʱ": 215,
      "ʲ": 216,
      "ʳ": 217,
      "ʷ": 218,
      "ʹ": 219,
      "ʻ": 220,
      "ʼ": 221,
      "ʽ": 222,
      "ʾ": 223,
      "ʿ": 224,
      "ˀ": 225,
      "ˁ": 226,
      "ˆ": 227,
      "ˇ": 228,
      "ˈ": 229,
      "ˌ": 230,
      "ː": 231,
      "ˑ": 232,
      "˔": 233,
      "˕": 234,
      "˖": 235,
      "˘": 236,
      "˚": 237,
      "˜": 238,
      "˞": 239,
      "ˠ": 240,
      "ˢ": 241,
      "ˣ": 242,
      "ˤ": 243,
      "˥": 244,
      "˦": 245,
      "˧": 246,
      "˨": 247,
      "˩": 248,
      "΄": 249,
      "α": 250,
      "β": 251,
      "γ": 252,
      "δ": 253,
      "ε": 254,
      "ζ": 255,
      "η": 256,
      "θ": 257,
      "ι": 258,
      "κ": 259,
      "λ": 260,
      "μ": 261,
      "ν": 262,
      "ξ": 263,
      "ο": 264,
      "π": 265,
      "ρ": 266,
      "ς": 267,
      "σ": 268,
      "τ": 269,
      "υ": 270,
      "φ": 271,
      "χ": 272,
      "ψ": 273,
      "ω": 274,
      "ϑ": 275,
      "ϕ": 276,
      "ϝ": 277,
      "ϟ": 278,
      "ϵ": 279,
      "а": 280,
      "б": 281,
      "в": 282,
      "г": 283,
      "д": 284,
      "е": 285,
      "ж": 286,
      "з": 287,
      "и": 288,
      "к": 289,
      "л": 290,
      "м": 291,
      "н": 292,
      "о": 293,
      "п": 294,
      "р": 295,
      "с": 296,
      "т": 297,
      "у": 298,
      "ф": 299,
      "х": 300,
      "ц": 301,
      "ч": 302,
      "ш": 303,
      "щ": 304,
      "ъ": 305,
      "ы": 306,
      "ь": 307,
      "э": 308,
      "ю": 309,
      "я": 310,
      "ђ": 311,
      "є": 312,
      "і": 313,
      "ј": 314,
      "љ": 315,
      "њ": 316,
      "ћ": 317,
      "ѡ": 318,
      "ѣ": 319,
      "ѥ": 320,
      "ѧ": 321,
      "ѯ": 322,
      "ѹ": 323,
      "ғ": 324,
      "қ": 325,
      "ү": 326,
      "ҳ": 327,
      "ҷ": 328,
      "ө": 329,
      "ӷ": 330,
      "ա": 331,
      "բ": 332,
      "գ": 333,
      "դ": 334,
      "ե": 335,
      "զ": 336,
      "է": 337,
      "ը": 338,
      "թ": 339,
      "ժ": 340,
      "ի": 341,
      "լ": 342,
      "խ": 343,
      "ծ": 344,
      "կ": 345,
      "հ": 346,
      "ձ": 347,
      "ղ": 348,
      "ճ": 349,
      "մ": 350,
      "յ": 351,
      "ն": 352,
      "շ": 353,
      "ո": 354,
      "չ": 355,
      "պ": 356,
      "ջ": 357,
      "ռ": 358,
      "ս": 359,
      "վ": 360,
      "տ": 361,
      "ր": 362,
      "ց": 363,
      "ւ": 364,
      "փ": 365,
      "ք": 366,
      "օ": 367,
      "և": 368,
      "א": 369,
      "ב": 370,
      "ג": 371,
      "ד": 372,
      "ה": 373,
      "ו": 374,
      "ז": 375,
      "ח": 376,
      "ט": 377,
      "י": 378,
      "ך": 379,
      "כ": 380,
      "ל": 381,
      "ם": 382,
      "מ": 383,
      "ן": 384,
      "נ": 385,
      "ס": 386,
      "ע": 387,
      "ף": 388,
      "פ": 389,
      "ץ": 390,
      "צ": 391,
      "ק": 392,
      "ר": 393,
      "ש": 394,
      "ת": 395,
      "ױ": 396,
      "׳": 397,
      "،": 398,
      "ء": 399,
      "ا": 400,
      "ب": 401,
      "ة": 402,
      "ت": 403,
      "ث": 404,
      "ج": 405,
      "ح": 406,
      "خ": 407,
      "د": 408,
      "ذ": 409,
      "ر": 410,
      "ز": 411,
      "س": 412,
      "ش": 413,
      "ص": 414,
      "ض": 415,
      "ط": 416,
      "ظ": 417,
      "ع": 418,
      "غ": 419,
      "ـ": 420,
      "ف": 421,
      "ق": 422,
      "ك": 423,
      "ل": 424,
      "م": 425,
      "ن": 426,
      "ه": 427,
      "و": 428,
      "ى": 429,
      "ي": 430,
      "١": 431,
      "٧": 432,
      "پ": 433,
      "چ": 434,
      "ڈ": 435,
      "ڠ": 436,
      "ک": 437,
      "ڬ": 438,
      "گ": 439,
      "ں": 440,
      "ھ": 441,
      "ہ": 442,
      "ی": 443,
      "ۍ": 444,
      "ے": 445,
      "ە": 446,
      "ܐ": 447,
      "ܒ": 448,
      "ܔ": 449,
      "ܕ": 450,
      "ܗ": 451,
      "ܘ": 452,
      "ܙ": 453,
      "ܚ": 454,
      "ܛ": 455,
      "ܝ": 456,
      "ܠ": 457,
      "ܡ": 458,
      "ܢ": 459,
      "ܣ": 460,
      "ܥ": 461,
      "ܦ": 462,
      "ܪ": 463,
      "ܬ": 464,
      "अ": 465,
      "आ": 466,
      "इ": 467,
      "ई": 468,
      "उ": 469,
      "ऋ": 470,
      "ए": 471,
      "ऐ": 472,
      "औ": 473,
      "क": 474,
      "ख": 475,
      "ग": 476,
      "घ": 477,
      "ङ": 478,
      "च": 479,
      "छ": 480,
      "ज": 481,
      "ञ": 482,
      "ट": 483,
      "ठ": 484,
      "ड": 485,
      "ण": 486,
      "त": 487,
      "थ": 488,
      "द": 489,
      "ध": 490,
      "न": 491,
      "प": 492,
      "फ": 493,
      "ब": 494,
      "भ": 495,
      "म": 496,
      "य": 497,
      "र": 498,
      "ल": 499,
      "व": 500,
      "श": 501,
      "ष": 502,
      "स": 503,
      "ह": 504,
      "ऽ": 505,
      "ॐ": 506,
      "।": 507,
      "॥": 508,
      "१": 509,
      "२": 510,
      "३": 511,
      "অ": 512,
      "আ": 513,
      "ই": 514,
      "এ": 515,
      "ক": 516,
      "খ": 517,
      "গ": 518,
      "ঙ": 519,
      "চ": 520,
      "জ": 521,
      "ট": 522,
      "ড": 523,
      "ঢ": 524,
      "ণ": 525,
      "ত": 526,
      "থ": 527,
      "দ": 528,
      "ন": 529,
      "প": 530,
      "ব": 531,
      "ভ": 532,
      "ম": 533,
      "য": 534,
      "র": 535,
      "ল": 536,
      "শ": 537,
      "ষ": 538,
      "স": 539,
      "হ": 540,
      "ৰ": 541,
      "ਅ": 542,
      "ਉ": 543,
      "ਖ": 544,
      "ਘ": 545,
      "ਜ": 546,
      "ਝ": 547,
      "ਦ": 548,
      "ਲ": 549,
      "ਵ": 550,
      "ਸ": 551,
      "ਹ": 552,
      "ખ": 553,
      "ફ": 554,
      "બ": 555,
      "ર": 556,
      "લ": 557,
      "સ": 558,
      "ପ": 559,
      "ର": 560,
      "ஃ": 561,
      "அ": 562,
      "ஆ": 563,
      "இ": 564,
      "ஈ": 565,
      "எ": 566,
      "ஒ": 567,
      "க": 568,
      "ங": 569,
      "ச": 570,
      "ட": 571,
      "ண": 572,
      "த": 573,
      "ந": 574,
      "ன": 575,
      "ப": 576,
      "ம": 577,
      "ய": 578,
      "ர": 579,
      "ற": 580,
      "ல": 581,
      "ள": 582,
      "ழ": 583,
      "வ": 584,
      "ஸ": 585,
      "క": 586,
      "ఖ": 587,
      "గ": 588,
      "జ": 589,
      "ట": 590,
      "ఠ": 591,
      "డ": 592,
      "త": 593,
      "థ": 594,
      "ద": 595,
      "న": 596,
      "ప": 597,
      "బ": 598,
      "భ": 599,
      "మ": 600,
      "య": 601,
      "ర": 602,
      "ల": 603,
      "వ": 604,
      "ష": 605,
      "స": 606,
      "ಕ": 607,
      "ಖ": 608,
      "ಗ": 609,
      "ಚ": 610,
      "ಟ": 611,
      "ಠ": 612,
      "ಡ": 613,
      "ತ": 614,
      "ದ": 615,
      "ನ": 616,
      "ಪ": 617,
      "ಬ": 618,
      "ಭ": 619,
      "ಮ": 620,
      "ಯ": 621,
      "ರ": 622,
      "ಱ": 623,
      "ಲ": 624,
      "ಳ": 625,
      "ವ": 626,
      "ಶ": 627,
      "ಸ": 628,
      "ಹ": 629,
      "ೞ": 630,
      "അ": 631,
      "ങ": 632,
      "ദ": 633,
      "ന": 634,
      "പ": 635,
      "മ": 636,
      "യ": 637,
      "ര": 638,
      "ള": 639,
      "വ": 640,
      "ശ": 641,
      "സ": 642,
      "ഹ": 643,
      "අ": 644,
      "එ": 645,
      "ක": 646,
      "ග": 647,
      "ජ": 648,
      "ත": 649,
      "ධ": 650,
      "න": 651,
      "ප": 652,
      "ම": 653,
      "ය": 654,
      "ර": 655,
      "ල": 656,
      "ව": 657,
      "ශ": 658,
      "හ": 659,
      "ළ": 660,
      "ก": 661,
      "ข": 662,
      "ค": 663,
      "ฆ": 664,
      "ง": 665,
      "จ": 666,
      "ฉ": 667,
      "ช": 668,
      "ซ": 669,
      "ญ": 670,
      "ฎ": 671,
      "ฏ": 672,
      "ฐ": 673,
      "ฑ": 674,
      "ณ": 675,
      "ด": 676,
      "ต": 677,
      "ถ": 678,
      "ท": 679,
      "ธ": 680,
      "น": 681,
      "บ": 682,
      "ป": 683,
      "ผ": 684,
      "ฝ": 685,
      "พ": 686,
      "ฟ": 687,
      "ภ": 688,
      "ม": 689,
      "ย": 690,
      "ร": 691,
      "ฤ": 692,
      "ล": 693,
      "ว": 694,
      "ศ": 695,
      "ษ": 696,
      "ส": 697,
      "ห": 698,
      "ฬ": 699,
      "อ": 700,
      "ฮ": 701,
      "ะ": 702,
      "า": 703,
      "ำ": 704,
      "฿": 705,
      "เ": 706,
      "แ": 707,
      "โ": 708,
      "ใ": 709,
      "ไ": 710,
      "་": 711,
      "༌": 712,
      "།": 713,
      "ཀ": 714,
      "ཁ": 715,
      "ག": 716,
      "ང": 717,
      "ཆ": 718,
      "ཇ": 719,
      "ཐ": 720,
      "ད": 721,
      "ན": 722,
      "པ": 723,
      "བ": 724,
      "མ": 725,
      "ཙ": 726,
      "ཚ": 727,
      "ཛ": 728,
      "འ": 729,
      "ཡ": 730,
      "ར": 731,
      "ལ": 732,
      "ས": 733,
      "ཧ": 734,
      "က": 735,
      "ဂ": 736,
      "င": 737,
      "စ": 738,
      "ဆ": 739,
      "န": 740,
      "ပ": 741,
      "ဗ": 742,
      "ဘ": 743,
      "မ": 744,
      "ယ": 745,
      "ရ": 746,
      "လ": 747,
      "ဝ": 748,
      "ဟ": 749,
      "ა": 750,
      "ბ": 751,
      "გ": 752,
      "დ": 753,
      "ე": 754,
      "ვ": 755,
      "ზ": 756,
      "თ": 757,
      "ი": 758,
      "კ": 759,
      "ლ": 760,
      "მ": 761,
      "ნ": 762,
      "ო": 763,
      "პ": 764,
      "ჟ": 765,
      "რ": 766,
      "ს": 767,
      "ტ": 768,
      "უ": 769,
      "ფ": 770,
      "ქ": 771,
      "ღ": 772,
      "ყ": 773,
      "შ": 774,
      "ჩ": 775,
      "ც": 776,
      "ძ": 777,
      "წ": 778,
      "ჭ": 779,
      "ხ": 780,
      "ჯ": 781,
      "ჰ": 782,
      "ჱ": 783,
      "ჲ": 784,
      "ჳ": 785,
      "ჴ": 786,
      "ჵ": 787,
      "ჶ": 788,
      "ჷ": 789,
      "ჸ": 790,
      "ჹ": 791,
      "ჺ": 792,
      "჻": 793,
      "ᄀ": 794,
      "ᄁ": 795,
      "ᄂ": 796,
      "ᄃ": 797,
      "ᄄ": 798,
      "ᄅ": 799,
      "ᄆ": 800,
      "ᄇ": 801,
      "ᄈ": 802,
      "ᄉ": 803,
      "ᄊ": 804,
      "ᄋ": 805,
      "ᄌ": 806,
      "ᄎ": 807,
      "ᄏ": 808,
      "ᄐ": 809,
      "ᄑ": 810,
      "ᄒ": 811,
      "ᅡ": 812,
      "ᅢ": 813,
      "ᅣ": 814,
      "ᅥ": 815,
      "ᅦ": 816,
      "ᅧ": 817,
      "ᅨ": 818,
      "ᅩ": 819,
      "ᅪ": 820,
      "ᅫ": 821,
      "ᅬ": 822,
      "ᅭ": 823,
      "ᅮ": 824,
      "ᅯ": 825,
      "ᅱ": 826,
      "ᅲ": 827,
      "ᅳ": 828,
      "ᅴ": 829,
      "ᅵ": 830,
      "ᆨ": 831,
      "ᆫ": 832,
      "ᆮ": 833,
      "ᆯ": 834,
      "ᆰ": 835,
      "ᆷ": 836,
      "ᆸ": 837,
      "ᆺ": 838,
      "ᆻ": 839,
      "ᆼ": 840,
      "ᇂ": 841,
      "ሀ": 842,
      "ለ": 843,
      "ሐ": 844,
      "ሓ": 845,
      "ሕ": 846,
      "መ": 847,
      "ማ": 848,
      "ሥ": 849,
      "ረ": 850,
      "ር": 851,
      "ሰ": 852,
      "ስ": 853,
      "ቆ": 854,
      "ቈ": 855,
      "በ": 856,
      "ብ": 857,
      "ቲ": 858,
      "ታ": 859,
      "ት": 860,
      "ነ": 861,
      "ና": 862,
      "ን": 863,
      "ኖ": 864,
      "አ": 865,
      "ኢ": 866,
      "እ": 867,
      "ከ": 868,
      "ኲ": 869,
      "ዕ": 870,
      "ዘ": 871,
      "ዛ": 872,
      "የ": 873,
      "ያ": 874,
      "ይ": 875,
      "ዮ": 876,
      "ደ": 877,
      "ድ": 878,
      "ጅ": 879,
      "ገ": 880,
      "ጉ": 881,
      "ጵ": 882,
      "ፈ": 883,
      "ፍ": 884,
      "፡": 885,
      "ᏹ": 886,
      "ᐊ": 887,
      "ᑲ": 888,
      "ᒡ": 889,
      "ᓘ": 890,
      "ᚢ": 891,
      "ᚣ": 892,
      "ᚦ": 893,
      "ᚨ": 894,
      "ᚩ": 895,
      "ᚬ": 896,
      "ᚱ": 897,
      "ᚷ": 898,
      "ᚹ": 899,
      "ᚺ": 900,
      "ᚻ": 901,
      "ᚼ": 902,
      "ᚾ": 903,
      "ᛁ": 904,
      "ᛃ": 905,
      "ᛄ": 906,
      "ᛇ": 907,
      "ᛋ": 908,
      "ᛏ": 909,
      "ᛒ": 910,
      "ᛗ": 911,
      "ᛚ": 912,
      "ᛝ": 913,
      "ᛞ": 914,
      "ᛟ": 915,
      "ᛠ": 916,
      "ក": 917,
      "ខ": 918,
      "គ": 919,
      "ង": 920,
      "ច": 921,
      "ឆ": 922,
      "ជ": 923,
      "ញ": 924,
      "ដ": 925,
      "ឋ": 926,
      "ណ": 927,
      "ត": 928,
      "ថ": 929,
      "ទ": 930,
      "ធ": 931,
      "ន": 932,
      "ប": 933,
      "ព": 934,
      "ភ": 935,
      "ម": 936,
      "យ": 937,
      "រ": 938,
      "ល": 939,
      "វ": 940,
      "ស": 941,
      "ហ": 942,
      "អ": 943,
      "ឥ": 944,
      "ឪ": 945,
      "ឫ": 946,
      "ឯ": 947,
      "ᠠ": 948,
      "ᠣ": 949,
      "ᠨ": 950,
      "ᠪ": 951,
      "ᠮ": 952,
      "ᠯ": 953,
      "ᠰ": 954,
      "ᠴ": 955,
      "ᠵ": 956,
      "ᠸ": 957,
      "ᡝ": 958,
      "ᡠ": 959,
      "ᡥ": 960,
      "ᡨ": 961,
      "ᡳ": 962,
      "ᡴ": 963,
      "ᡵ": 964,
      "ᴰ": 965,
      "ᴷ": 966,
      "ᴺ": 967,
      "ᵀ": 968,
      "ᵊ": 969,
      "ᵑ": 970,
      "ᵗ": 971,
      "ᵘ": 972,
      "ᵝ": 973,
      "ᵻ": 974,
      "ᵿ": 975,
      "ᶑ": 976,
      "ᶢ": 977,
      "ᶦ": 978,
      "ᶴ": 979,
      "ᶷ": 980,
      "᾿": 981,
      "​": 982,
      "‌": 983,
      "‍": 984,
      "‐": 985,
      "‑": 986,
      "‒": 987,
      "–": 988,
      "—": 989,
      "―": 990,
      "‖": 991,
      "‘": 992,
      "’": 993,
      "‚": 994,
      "‛": 995,
      "“": 996,
      "”": 997,
      "„": 998,
      "‟": 999,
      "†": 1000,
      "‡": 1001,
      "•": 1002,
      "…": 1003,
      "‰": 1004,
      "′": 1005,
      "″": 1006,
      "※": 1007,
      "‼": 1008,
      "‿": 1009,
      "⁄": 1010,
      "⁊": 1011,
      "⁠": 1012,
      "⁡": 1013,
      "⁰": 1014,
      "⁺": 1015,
      "ⁿ": 1016,
      "₁": 1017,
      "₂": 1018,
      "₃": 1019,
      "₄": 1020,
      "₡": 1021,
      "₣": 1022,
      "₤": 1023,
      "₦": 1024,
      "₧": 1025,
      "₨": 1026,
      "₩": 1027,
      "₫": 1028,
      "€": 1029,
      "₱": 1030,
      "₴": 1031,
      "₹": 1032,
      "ℂ": 1033,
      "℃": 1034,
      "ℓ": 1035,
      "ℕ": 1036,
      "№": 1037,
      "ℛ": 1038,
      "ℝ": 1039,
      "℞": 1040,
      "™": 1041,
      "ℤ": 1042,
      "℥": 1043,
      "ℵ": 1044,
      "⅓": 1045,
      "⅔": 1046,
      "⅙": 1047,
      "⅛": 1048,
      "⅜": 1049,
      "⅝": 1050,
      "⅞": 1051,
      "ⅱ": 1052,
      "←": 1053,
      "↑": 1054,
      "→": 1055,
      "↓": 1056,
      "↔": 1057,
      "↗": 1058,
      "↘": 1059,
      "↦": 1060,
      "↪": 1061,
      "↵": 1062,
      "⇄": 1063,
      "⇌": 1064,
      "⇒": 1065,
      "⇪": 1066,
      "∀": 1067,
      "∂": 1068,
      "∅": 1069,
      "∆": 1070,
      "∇": 1071,
      "∈": 1072,
      "∊": 1073,
      "∑": 1074,
      "−": 1075,
      "∕": 1076,
      "∖": 1077,
      "∗": 1078,
      "∘": 1079,
      "√": 1080,
      "∝": 1081,
      "∞": 1082,
      "∣": 1083,
      "∩": 1084,
      "∪": 1085,
      "∫": 1086,
      "∴": 1087,
      "∼": 1088,
      "≈": 1089,
      "≡": 1090,
      "≤": 1091,
      "≥": 1092,
      "≪": 1093,
      "≫": 1094,
      "≲": 1095,
      "⊂": 1096,
      "⊕": 1097,
      "⊗": 1098,
      "⊙": 1099,
      "⊞": 1100,
      "⊢": 1101,
      "⊣": 1102,
      "⊥": 1103,
      "⋅": 1104,
      "⋆": 1105,
      "⋯": 1106,
      "⌊": 1107,
      "⌋": 1108,
      "⌘": 1109,
      "①": 1110,
      "②": 1111,
      "③": 1112,
      "④": 1113,
      "⑤": 1114,
      "⑥": 1115,
      "⑦": 1116,
      "⑧": 1117,
      "─": 1118,
      "█": 1119,
      "▢": 1120,
      "▲": 1121,
      "▼": 1122,
      "○": 1123,
      "●": 1124,
      "◦": 1125,
      "☄": 1126,
      "★": 1127,
      "☆": 1128,
      "☉": 1129,
      "☧": 1130,
      "☫": 1131,
      "☭": 1132,
      "☽": 1133,
      "☾": 1134,
      "♀": 1135,
      "♂": 1136,
      "♄": 1137,
      "♅": 1138,
      "♆": 1139,
      "♇": 1140,
      "♈": 1141,
      "♉": 1142,
      "♠": 1143,
      "♣": 1144,
      "♥": 1145,
      "♦": 1146,
      "♩": 1147,
      "♪": 1148,
      "♭": 1149,
      "♮": 1150,
      "♯": 1151,
      "⚳": 1152,
      "⚴": 1153,
      "⚵": 1154,
      "⛢": 1155,
      "✡": 1156,
      "✱": 1157,
      "❄": 1158,
      "❅": 1159,
      "❆": 1160,
      "❤": 1161,
      "⟦": 1162,
      "⟧": 1163,
      "⟨": 1164,
      "⟩": 1165,
      "⥇": 1166,
      "⩽": 1167,
      "⫶": 1168,
      "ⱱ": 1169,
      "ⲁ": 1170,
      "ⲛ": 1171,
      "ⲥ": 1172,
      "ⲧ": 1173,
      "ⲩ": 1174,
      "ⲫ": 1175,
      "ⲱ": 1176,
      "ⴀ": 1177,
      "ⴂ": 1178,
      "ⴃ": 1179,
      "ⴈ": 1180,
      "ⴌ": 1181,
      "ⴕ": 1182,
      "ⴟ": 1183,
      "ⴰ": 1184,
      "ⴳ": 1185,
      "ⴷ": 1186,
      "ⴻ": 1187,
      "ⴼ": 1188,
      "ⴽ": 1189,
      "ⵃ": 1190,
      "ⵇ": 1191,
      "ⵉ": 1192,
      "ⵍ": 1193,
      "ⵎ": 1194,
      "ⵏ": 1195,
      "ⵓ": 1196,
      "ⵔ": 1197,
      "ⵕ": 1198,
      "ⵖ": 1199,
      "ⵙ": 1200,
      "ⵛ": 1201,
      "ⵜ": 1202,
      "ⵡ": 1203,
      "ⵢ": 1204,
      "ⵣ": 1205,
      "⸨": 1206,
      "⸩": 1207,
      "、": 1208,
      "。": 1209,
      "々": 1210,
      "〈": 1211,
      "〉": 1212,
      "《": 1213,
      "》": 1214,
      "「": 1215,
      "」": 1216,
      "『": 1217,
      "』": 1218,
      "【": 1219,
      "】": 1220,
      "〒": 1221,
      "〜": 1222,
      "あ": 1223,
      "ぃ": 1224,
      "い": 1225,
      "ぅ": 1226,
      "う": 1227,
      "ぇ": 1228,
      "え": 1229,
      "ぉ": 1230,
      "お": 1231,
      "か": 1232,
      "き": 1233,
      "く": 1234,
      "け": 1235,
      "こ": 1236,
      "さ": 1237,
      "し": 1238,
      "す": 1239,
      "せ": 1240,
      "そ": 1241,
      "た": 1242,
      "ち": 1243,
      "っ": 1244,
      "つ": 1245,
      "て": 1246,
      "と": 1247,
      "な": 1248,
      "に": 1249,
      "ぬ": 1250,
      "ね": 1251,
      "の": 1252,
      "は": 1253,
      "ひ": 1254,
      "ふ": 1255,
      "へ": 1256,
      "ほ": 1257,
      "ま": 1258,
      "み": 1259,
      "む": 1260,
      "め": 1261,
      "も": 1262,
      "ゃ": 1263,
      "や": 1264,
      "ゅ": 1265,
      "ゆ": 1266,
      "ょ": 1267,
      "よ": 1268,
      "ら": 1269,
      "り": 1270,
      "る": 1271,
      "れ": 1272,
      "ろ": 1273,
      "わ": 1274,
      "ゑ": 1275,
      "を": 1276,
      "ん": 1277,
      "ァ": 1278,
      "ア": 1279,
      "ィ": 1280,
      "イ": 1281,
      "ゥ": 1282,
      "ウ": 1283,
      "ェ": 1284,
      "エ": 1285,
      "ォ": 1286,
      "オ": 1287,
      "カ": 1288,
      "キ": 1289,
      "ク": 1290,
      "ケ": 1291,
      "コ": 1292,
      "サ": 1293,
      "シ": 1294,
      "ス": 1295,
      "セ": 1296,
      "ソ": 1297,
      "タ": 1298,
      "チ": 1299,
      "ッ": 1300,
      "ツ": 1301,
      "テ": 1302,
      "ト": 1303,
      "ナ": 1304,
      "ニ": 1305,
      "ヌ": 1306,
      "ネ": 1307,
      "ノ": 1308,
      "ハ": 1309,
      "ヒ": 1310,
      "フ": 1311,
      "ヘ": 1312,
      "ホ": 1313,
      "マ": 1314,
      "ミ": 1315,
      "ム": 1316,
      "メ": 1317,
      "モ": 1318,
      "ャ": 1319,
      "ヤ": 1320,
      "ュ": 1321,
      "ユ": 1322,
      "ョ": 1323,
      "ヨ": 1324,
      "ラ": 1325,
      "リ": 1326,
      "ル": 1327,
      "レ": 1328,
      "ロ": 1329,
      "ワ": 1330,
      "ヲ": 1331,
      "ン": 1332,
      "ヶ": 1333,
      "・": 1334,
      "ー": 1335,
      "一": 1336,
      "丁": 1337,
      "七": 1338,
      "万": 1339,
      "丈": 1340,
      "三": 1341,
      "上": 1342,
      "下": 1343,
      "不": 1344,
      "与": 1345,
      "丑": 1346,
      "且": 1347,
      "世": 1348,
      "丘": 1349,
      "丙": 1350,
      "东": 1351,
      "丝": 1352,
      "丞": 1353,
      "両": 1354,
      "丨": 1355,
      "个": 1356,
      "中": 1357,
      "丶": 1358,
      "丸": 1359,
      "丹": 1360,
      "为": 1361,
      "主": 1362,
      "丽": 1363,
      "丿": 1364,
      "乃": 1365,
      "久": 1366,
      "么": 1367,
      "义": 1368,
      "之": 1369,
      "乌": 1370,
      "乎": 1371,
      "乐": 1372,
      "乘": 1373,
      "乙": 1374,
      "乚": 1375,
      "乛": 1376,
      "九": 1377,
      "也": 1378,
      "习": 1379,
      "书": 1380,
      "乩": 1381,
      "买": 1382,
      "乱": 1383,
      "乳": 1384,
      "乾": 1385,
      "亀": 1386,
      "亅": 1387,
      "了": 1388,
      "予": 1389,
      "争": 1390,
      "事": 1391,
      "二": 1392,
      "云": 1393,
      "五": 1394,
      "井": 1395,
      "亚": 1396,
      "些": 1397,
      "亜": 1398,
      "亞": 1399,
      "亡": 1400,
      "交": 1401,
      "亦": 1402,
      "亨": 1403,
      "京": 1404,
      "亮": 1405,
      "亰": 1406,
      "人": 1407,
      "什": 1408,
      "仁": 1409,
      "仇": 1410,
      "今": 1411,
      "介": 1412,
      "仔": 1413,
      "仕": 1414,
      "他": 1415,
      "付": 1416,
      "仙": 1417,
      "代": 1418,
      "令": 1419,
      "以": 1420,
      "仪": 1421,
      "们": 1422,
      "仮": 1423,
      "仰": 1424,
      "仲": 1425,
      "件": 1426,
      "任": 1427,
      "份": 1428,
      "伊": 1429,
      "伏": 1430,
      "伐": 1431,
      "休": 1432,
      "会": 1433,
      "伝": 1434,
      "伟": 1435,
      "传": 1436,
      "伪": 1437,
      "伯": 1438,
      "伴": 1439,
      "伸": 1440,
      "似": 1441,
      "佃": 1442,
      "但": 1443,
      "位": 1444,
      "住": 1445,
      "佐": 1446,
      "佑": 1447,
      "体": 1448,
      "何": 1449,
      "余": 1450,
      "佛": 1451,
      "作": 1452,
      "你": 1453,
      "佳": 1454,
      "併": 1455,
      "使": 1456,
      "來": 1457,
      "例": 1458,
      "侍": 1459,
      "侗": 1460,
      "供": 1461,
      "依": 1462,
      "侠": 1463,
      "侨": 1464,
      "侬": 1465,
      "侯": 1466,
      "係": 1467,
      "促": 1468,
      "俄": 1469,
      "俊": 1470,
      "保": 1471,
      "信": 1472,
      "俭": 1473,
      "修": 1474,
      "俱": 1475,
      "俳": 1476,
      "倉": 1477,
      "個": 1478,
      "們": 1479,
      "候": 1480,
      "借": 1481,
      "倪": 1482,
      "倫": 1483,
      "倭": 1484,
      "偃": 1485,
      "假": 1486,
      "偏": 1487,
      "健": 1488,
      "側": 1489,
      "偵": 1490,
      "偽": 1491,
      "傀": 1492,
      "傅": 1493,
      "傑": 1494,
      "傘": 1495,
      "備": 1496,
      "催": 1497,
      "傭": 1498,
      "傳": 1499,
      "傷": 1500,
      "像": 1501,
      "僑": 1502,
      "僕": 1503,
      "僧": 1504,
      "儀": 1505,
      "億": 1506,
      "儒": 1507,
      "儚": 1508,
      "儡": 1509,
      "優": 1510,
      "儿": 1511,
      "允": 1512,
      "元": 1513,
      "充": 1514,
      "兆": 1515,
      "先": 1516,
      "光": 1517,
      "克": 1518,
      "免": 1519,
      "兒": 1520,
      "兔": 1521,
      "兜": 1522,
      "入": 1523,
      "內": 1524,
      "全": 1525,
      "兩": 1526,
      "八": 1527,
      "公": 1528,
      "六": 1529,
      "兰": 1530,
      "共": 1531,
      "关": 1532,
      "兵": 1533,
      "其": 1534,
      "具": 1535,
      "典": 1536,
      "养": 1537,
      "冀": 1538,
      "内": 1539,
      "円": 1540,
      "冉": 1541,
      "册": 1542,
      "再": 1543,
      "冒": 1544,
      "写": 1545,
      "军": 1546,
      "冠": 1547,
      "冥": 1548,
      "冫": 1549,
      "冬": 1550,
      "冯": 1551,
      "决": 1552,
      "冴": 1553,
      "冶": 1554,
      "冷": 1555,
      "净": 1556,
      "准": 1557,
      "凌": 1558,
      "凤": 1559,
      "処": 1560,
      "凪": 1561,
      "凯": 1562,
      "凰": 1563,
      "凱": 1564,
      "凶": 1565,
      "凹": 1566,
      "出": 1567,
      "刀": 1568,
      "刃": 1569,
      "分": 1570,
      "切": 1571,
      "刊": 1572,
      "划": 1573,
      "列": 1574,
      "刘": 1575,
      "初": 1576,
      "判": 1577,
      "別": 1578,
      "利": 1579,
      "别": 1580,
      "到": 1581,
      "制": 1582,
      "刷": 1583,
      "券": 1584,
      "刹": 1585,
      "刺": 1586,
      "刻": 1587,
      "則": 1588,
      "前": 1589,
      "剑": 1590,
      "剛": 1591,
      "剣": 1592,
      "剧": 1593,
      "剩": 1594,
      "副": 1595,
      "割": 1596,
      "創": 1597,
      "劃": 1598,
      "劇": 1599,
      "劉": 1600,
      "劍": 1601,
      "力": 1602,
      "办": 1603,
      "功": 1604,
      "加": 1605,
      "劣": 1606,
      "动": 1607,
      "助": 1608,
      "劳": 1609,
      "勃": 1610,
      "勅": 1611,
      "勇": 1612,
      "勒": 1613,
      "動": 1614,
      "勘": 1615,
      "務": 1616,
      "勝": 1617,
      "勞": 1618,
      "勢": 1619,
      "勳": 1620,
      "勾": 1621,
      "包": 1622,
      "化": 1623,
      "北": 1624,
      "匠": 1625,
      "匹": 1626,
      "区": 1627,
      "医": 1628,
      "區": 1629,
      "十": 1630,
      "千": 1631,
      "升": 1632,
      "午": 1633,
      "半": 1634,
      "华": 1635,
      "协": 1636,
      "卐": 1637,
      "卒": 1638,
      "卓": 1639,
      "協": 1640,
      "单": 1641,
      "卖": 1642,
      "南": 1643,
      "博": 1644,
      "卜": 1645,
      "占": 1646,
      "卡": 1647,
      "卢": 1648,
      "卦": 1649,
      "卫": 1650,
      "印": 1651,
      "危": 1652,
      "即": 1653,
      "却": 1654,
      "卸": 1655,
      "卿": 1656,
      "厂": 1657,
      "厄": 1658,
      "历": 1659,
      "厘": 1660,
      "厚": 1661,
      "原": 1662,
      "厥": 1663,
      "厦": 1664,
      "厩": 1665,
      "去": 1666,
      "县": 1667,
      "参": 1668,
      "參": 1669,
      "叉": 1670,
      "及": 1671,
      "友": 1672,
      "双": 1673,
      "反": 1674,
      "収": 1675,
      "发": 1676,
      "叔": 1677,
      "取": 1678,
      "受": 1679,
      "变": 1680,
      "叛": 1681,
      "叠": 1682,
      "叡": 1683,
      "叢": 1684,
      "口": 1685,
      "古": 1686,
      "句": 1687,
      "只": 1688,
      "叫": 1689,
      "召": 1690,
      "可": 1691,
      "台": 1692,
      "史": 1693,
      "右": 1694,
      "叶": 1695,
      "号": 1696,
      "司": 1697,
      "合": 1698,
      "吉": 1699,
      "同": 1700,
      "名": 1701,
      "后": 1702,
      "向": 1703,
      "吕": 1704,
      "君": 1705,
      "吞": 1706,
      "吟": 1707,
      "吧": 1708,
      "启": 1709,
      "吳": 1710,
      "吴": 1711,
      "吸": 1712,
      "吹": 1713,
      "吾": 1714,
      "呂": 1715,
      "呉": 1716,
      "告": 1717,
      "周": 1718,
      "呪": 1719,
      "味": 1720,
      "呼": 1721,
      "命": 1722,
      "咆": 1723,
      "和": 1724,
      "咖": 1725,
      "咙": 1726,
      "咫": 1727,
      "咲": 1728,
      "咸": 1729,
      "哀": 1730,
      "品": 1731,
      "哈": 1732,
      "哉": 1733,
      "响": 1734,
      "員": 1735,
      "哥": 1736,
      "哮": 1737,
      "哲": 1738,
      "唄": 1739,
      "唐": 1740,
      "唯": 1741,
      "唱": 1742,
      "商": 1743,
      "問": 1744,
      "啓": 1745,
      "啟": 1746,
      "啡": 1747,
      "善": 1748,
      "喇": 1749,
      "喋": 1750,
      "喚": 1751,
      "喜": 1752,
      "喝": 1753,
      "喬": 1754,
      "嘉": 1755,
      "嘘": 1756,
      "噛": 1757,
      "器": 1758,
      "嚣": 1759,
      "嚴": 1760,
      "囁": 1761,
      "囂": 1762,
      "囃": 1763,
      "囚": 1764,
      "四": 1765,
      "回": 1766,
      "因": 1767,
      "团": 1768,
      "団": 1769,
      "図": 1770,
      "国": 1771,
      "图": 1772,
      "圈": 1773,
      "國": 1774,
      "圍": 1775,
      "圏": 1776,
      "園": 1777,
      "圓": 1778,
      "圖": 1779,
      "土": 1780,
      "圣": 1781,
      "圧": 1782,
      "在": 1783,
      "地": 1784,
      "圻": 1785,
      "坂": 1786,
      "均": 1787,
      "坊": 1788,
      "坑": 1789,
      "块": 1790,
      "坚": 1791,
      "坝": 1792,
      "坡": 1793,
      "坤": 1794,
      "坪": 1795,
      "型": 1796,
      "垣": 1797,
      "城": 1798,
      "埔": 1799,
      "域": 1800,
      "執": 1801,
      "培": 1802,
      "基": 1803,
      "堀": 1804,
      "堂": 1805,
      "堅": 1806,
      "堆": 1807,
      "堡": 1808,
      "堤": 1809,
      "堯": 1810,
      "報": 1811,
      "場": 1812,
      "塊": 1813,
      "塔": 1814,
      "塘": 1815,
      "塚": 1816,
      "塞": 1817,
      "塩": 1818,
      "填": 1819,
      "塵": 1820,
      "境": 1821,
      "墓": 1822,
      "墙": 1823,
      "增": 1824,
      "壁": 1825,
      "壌": 1826,
      "壓": 1827,
      "壟": 1828,
      "壤": 1829,
      "士": 1830,
      "壬": 1831,
      "壮": 1832,
      "壯": 1833,
      "声": 1834,
      "壱": 1835,
      "売": 1836,
      "壳": 1837,
      "壷": 1838,
      "壽": 1839,
      "处": 1840,
      "备": 1841,
      "変": 1842,
      "复": 1843,
      "夏": 1844,
      "夕": 1845,
      "外": 1846,
      "多": 1847,
      "夜": 1848,
      "够": 1849,
      "夢": 1850,
      "夤": 1851,
      "大": 1852,
      "天": 1853,
      "太": 1854,
      "夫": 1855,
      "央": 1856,
      "失": 1857,
      "头": 1858,
      "夷": 1859,
      "奇": 1860,
      "奈": 1861,
      "奉": 1862,
      "奎": 1863,
      "奏": 1864,
      "奐": 1865,
      "契": 1866,
      "奔": 1867,
      "奥": 1868,
      "奧": 1869,
      "奪": 1870,
      "女": 1871,
      "奴": 1872,
      "好": 1873,
      "如": 1874,
      "妃": 1875,
      "妇": 1876,
      "妍": 1877,
      "妖": 1878,
      "妙": 1879,
      "妮": 1880,
      "妹": 1881,
      "妻": 1882,
      "姉": 1883,
      "姊": 1884,
      "始": 1885,
      "姑": 1886,
      "委": 1887,
      "姚": 1888,
      "姥": 1889,
      "姦": 1890,
      "姫": 1891,
      "姬": 1892,
      "姿": 1893,
      "威": 1894,
      "娘": 1895,
      "娜": 1896,
      "婁": 1897,
      "婆": 1898,
      "婚": 1899,
      "婷": 1900,
      "嫁": 1901,
      "嬢": 1902,
      "嬴": 1903,
      "子": 1904,
      "孔": 1905,
      "字": 1906,
      "存": 1907,
      "孙": 1908,
      "孛": 1909,
      "孝": 1910,
      "孟": 1911,
      "季": 1912,
      "孤": 1913,
      "学": 1914,
      "孩": 1915,
      "孫": 1916,
      "孵": 1917,
      "學": 1918,
      "宁": 1919,
      "宅": 1920,
      "宇": 1921,
      "守": 1922,
      "安": 1923,
      "宋": 1924,
      "完": 1925,
      "宏": 1926,
      "宗": 1927,
      "官": 1928,
      "宙": 1929,
      "定": 1930,
      "宜": 1931,
      "宝": 1932,
      "实": 1933,
      "実": 1934,
      "客": 1935,
      "宣": 1936,
      "室": 1937,
      "宫": 1938,
      "宮": 1939,
      "宴": 1940,
      "宵": 1941,
      "家": 1942,
      "宸": 1943,
      "容": 1944,
      "宿": 1945,
      "寂": 1946,
      "寄": 1947,
      "密": 1948,
      "寇": 1949,
      "富": 1950,
      "寔": 1951,
      "寗": 1952,
      "寛": 1953,
      "寝": 1954,
      "寞": 1955,
      "察": 1956,
      "寧": 1957,
      "寨": 1958,
      "審": 1959,
      "寬": 1960,
      "寵": 1961,
      "寶": 1962,
      "寸": 1963,
      "对": 1964,
      "寺": 1965,
      "寻": 1966,
      "対": 1967,
      "寿": 1968,
      "封": 1969,
      "射": 1970,
      "将": 1971,
      "將": 1972,
      "尉": 1973,
      "尊": 1974,
      "尋": 1975,
      "對": 1976,
      "導": 1977,
      "小": 1978,
      "少": 1979,
      "尔": 1980,
      "尚": 1981,
      "尧": 1982,
      "就": 1983,
      "尸": 1984,
      "尹": 1985,
      "尺": 1986,
      "尼": 1987,
      "尽": 1988,
      "尾": 1989,
      "局": 1990,
      "居": 1991,
      "届": 1992,
      "屋": 1993,
      "屍": 1994,
      "屑": 1995,
      "展": 1996,
      "屠": 1997,
      "層": 1998,
      "屬": 1999,
      "屯": 2000,
      "山": 2001,
      "屿": 2002,
      "岐": 2003,
      "岑": 2004,
      "岚": 2005,
      "岛": 2006,
      "岡": 2007,
      "岩": 2008,
      "岬": 2009,
      "岭": 2010,
      "岳": 2011,
      "岸": 2012,
      "峰": 2013,
      "島": 2014,
      "崇": 2015,
      "崎": 2016,
      "崔": 2017,
      "崖": 2018,
      "嵐": 2019,
      "嶋": 2020,
      "嶺": 2021,
      "嶼": 2022,
      "巂": 2023,
      "巖": 2024,
      "川": 2025,
      "州": 2026,
      "巡": 2027,
      "工": 2028,
      "左": 2029,
      "巨": 2030,
      "巫": 2031,
      "差": 2032,
      "己": 2033,
      "巳": 2034,
      "巴": 2035,
      "巻": 2036,
      "币": 2037,
      "市": 2038,
      "布": 2039,
      "帆": 2040,
      "师": 2041,
      "希": 2042,
      "帕": 2043,
      "帖": 2044,
      "帝": 2045,
      "帥": 2046,
      "带": 2047,
      "師": 2048,
      "帮": 2049,
      "帰": 2050,
      "帶": 2051,
      "常": 2052,
      "幕": 2053,
      "幡": 2054,
      "幣": 2055,
      "干": 2056,
      "平": 2057,
      "年": 2058,
      "幸": 2059,
      "幻": 2060,
      "幽": 2061,
      "广": 2062,
      "庁": 2063,
      "広": 2064,
      "庄": 2065,
      "庆": 2066,
      "庇": 2067,
      "序": 2068,
      "库": 2069,
      "底": 2070,
      "庖": 2071,
      "店": 2072,
      "庙": 2073,
      "庚": 2074,
      "府": 2075,
      "度": 2076,
      "座": 2077,
      "庫": 2078,
      "庭": 2079,
      "庵": 2080,
      "康": 2081,
      "廉": 2082,
      "廊": 2083,
      "廖": 2084,
      "廟": 2085,
      "廣": 2086,
      "廬": 2087,
      "延": 2088,
      "廷": 2089,
      "建": 2090,
      "廻": 2091,
      "廿": 2092,
      "开": 2093,
      "弁": 2094,
      "式": 2095,
      "弐": 2096,
      "弓": 2097,
      "弔": 2098,
      "引": 2099,
      "弘": 2100,
      "弟": 2101,
      "张": 2102,
      "弥": 2103,
      "弦": 2104,
      "弧": 2105,
      "弱": 2106,
      "張": 2107,
      "強": 2108,
      "弹": 2109,
      "强": 2110,
      "弾": 2111,
      "彌": 2112,
      "当": 2113,
      "录": 2114,
      "彖": 2115,
      "彙": 2116,
      "形": 2117,
      "彦": 2118,
      "彩": 2119,
      "彪": 2120,
      "彬": 2121,
      "彭": 2122,
      "影": 2123,
      "役": 2124,
      "彼": 2125,
      "征": 2126,
      "径": 2127,
      "待": 2128,
      "律": 2129,
      "後": 2130,
      "徐": 2131,
      "徒": 2132,
      "得": 2133,
      "從": 2134,
      "御": 2135,
      "復": 2136,
      "微": 2137,
      "徳": 2138,
      "德": 2139,
      "徹": 2140,
      "徽": 2141,
      "心": 2142,
      "必": 2143,
      "忍": 2144,
      "志": 2145,
      "忘": 2146,
      "応": 2147,
      "忠": 2148,
      "快": 2149,
      "念": 2150,
      "怀": 2151,
      "怎": 2152,
      "怒": 2153,
      "怖": 2154,
      "思": 2155,
      "怡": 2156,
      "急": 2157,
      "性": 2158,
      "怨": 2159,
      "怪": 2160,
      "总": 2161,
      "恆": 2162,
      "恋": 2163,
      "恐": 2164,
      "恒": 2165,
      "恢": 2166,
      "恥": 2167,
      "恩": 2168,
      "恭": 2169,
      "息": 2170,
      "恵": 2171,
      "恼": 2172,
      "悔": 2173,
      "悟": 2174,
      "悠": 2175,
      "悦": 2176,
      "悪": 2177,
      "悫": 2178,
      "悲": 2179,
      "悼": 2180,
      "情": 2181,
      "惑": 2182,
      "惟": 2183,
      "惠": 2184,
      "惡": 2185,
      "想": 2186,
      "愁": 2187,
      "愍": 2188,
      "意": 2189,
      "愚": 2190,
      "愛": 2191,
      "感": 2192,
      "愽": 2193,
      "慈": 2194,
      "態": 2195,
      "慎": 2196,
      "慧": 2197,
      "慰": 2198,
      "慶": 2199,
      "憂": 2200,
      "憎": 2201,
      "憑": 2202,
      "憲": 2203,
      "憶": 2204,
      "應": 2205,
      "懍": 2206,
      "懷": 2207,
      "戈": 2208,
      "戊": 2209,
      "戎": 2210,
      "成": 2211,
      "我": 2212,
      "战": 2213,
      "戦": 2214,
      "戯": 2215,
      "戰": 2216,
      "戴": 2217,
      "户": 2218,
      "戸": 2219,
      "房": 2220,
      "所": 2221,
      "扁": 2222,
      "扇": 2223,
      "扈": 2224,
      "扉": 2225,
      "手": 2226,
      "才": 2227,
      "打": 2228,
      "托": 2229,
      "扶": 2230,
      "找": 2231,
      "承": 2232,
      "技": 2233,
      "抄": 2234,
      "抓": 2235,
      "投": 2236,
      "抜": 2237,
      "択": 2238,
      "护": 2239,
      "报": 2240,
      "披": 2241,
      "抱": 2242,
      "抵": 2243,
      "担": 2244,
      "拉": 2245,
      "拍": 2246,
      "拏": 2247,
      "拐": 2248,
      "拖": 2249,
      "拘": 2250,
      "招": 2251,
      "拜": 2252,
      "拟": 2253,
      "拥": 2254,
      "括": 2255,
      "拳": 2256,
      "拾": 2257,
      "持": 2258,
      "挂": 2259,
      "指": 2260,
      "挑": 2261,
      "挥": 2262,
      "振": 2263,
      "据": 2264,
      "捷": 2265,
      "授": 2266,
      "掛": 2267,
      "採": 2268,
      "探": 2269,
      "控": 2270,
      "掲": 2271,
      "描": 2272,
      "提": 2273,
      "揚": 2274,
      "換": 2275,
      "援": 2276,
      "揺": 2277,
      "摂": 2278,
      "摩": 2279,
      "摸": 2280,
      "撃": 2281,
      "撒": 2282,
      "撞": 2283,
      "播": 2284,
      "撲": 2285,
      "操": 2286,
      "攝": 2287,
      "支": 2288,
      "收": 2289,
      "改": 2290,
      "攻": 2291,
      "放": 2292,
      "政": 2293,
      "故": 2294,
      "敏": 2295,
      "救": 2296,
      "教": 2297,
      "敢": 2298,
      "散": 2299,
      "敦": 2300,
      "敬": 2301,
      "数": 2302,
      "敵": 2303,
      "敷": 2304,
      "數": 2305,
      "文": 2306,
      "斉": 2307,
      "斎": 2308,
      "斗": 2309,
      "料": 2310,
      "斜": 2311,
      "斤": 2312,
      "斩": 2313,
      "斬": 2314,
      "断": 2315,
      "斯": 2316,
      "新": 2317,
      "方": 2318,
      "於": 2319,
      "施": 2320,
      "旅": 2321,
      "旋": 2322,
      "族": 2323,
      "旗": 2324,
      "无": 2325,
      "日": 2326,
      "旦": 2327,
      "旧": 2328,
      "早": 2329,
      "旭": 2330,
      "时": 2331,
      "旺": 2332,
      "昂": 2333,
      "昇": 2334,
      "昌": 2335,
      "明": 2336,
      "昏": 2337,
      "易": 2338,
      "昔": 2339,
      "星": 2340,
      "映": 2341,
      "春": 2342,
      "昭": 2343,
      "是": 2344,
      "昼": 2345,
      "時": 2346,
      "晉": 2347,
      "晋": 2348,
      "晒": 2349,
      "普": 2350,
      "景": 2351,
      "晴": 2352,
      "晶": 2353,
      "智": 2354,
      "暁": 2355,
      "暂": 2356,
      "暖": 2357,
      "暗": 2358,
      "暦": 2359,
      "暮": 2360,
      "暴": 2361,
      "曆": 2362,
      "曜": 2363,
      "曦": 2364,
      "曲": 2365,
      "更": 2366,
      "書": 2367,
      "曹": 2368,
      "曼": 2369,
      "曾": 2370,
      "最": 2371,
      "會": 2372,
      "月": 2373,
      "有": 2374,
      "朋": 2375,
      "服": 2376,
      "朏": 2377,
      "朔": 2378,
      "朗": 2379,
      "望": 2380,
      "朝": 2381,
      "期": 2382,
      "朧": 2383,
      "木": 2384,
      "未": 2385,
      "末": 2386,
      "本": 2387,
      "札": 2388,
      "朱": 2389,
      "朴": 2390,
      "朵": 2391,
      "机": 2392,
      "朽": 2393,
      "杀": 2394,
      "杂": 2395,
      "权": 2396,
      "李": 2397,
      "杏": 2398,
      "材": 2399,
      "村": 2400,
      "杖": 2401,
      "杜": 2402,
      "束": 2403,
      "条": 2404,
      "来": 2405,
      "杨": 2406,
      "杯": 2407,
      "東": 2408,
      "杲": 2409,
      "松": 2410,
      "板": 2411,
      "极": 2412,
      "析": 2413,
      "林": 2414,
      "枚": 2415,
      "果": 2416,
      "枝": 2417,
      "枭": 2418,
      "枯": 2419,
      "架": 2420,
      "柆": 2421,
      "柏": 2422,
      "柔": 2423,
      "柚": 2424,
      "柩": 2425,
      "柱": 2426,
      "柳": 2427,
      "柴": 2428,
      "査": 2429,
      "栄": 2430,
      "标": 2431,
      "栈": 2432,
      "树": 2433,
      "栖": 2434,
      "栗": 2435,
      "栞": 2436,
      "校": 2437,
      "株": 2438,
      "样": 2439,
      "核": 2440,
      "根": 2441,
      "格": 2442,
      "栽": 2443,
      "栾": 2444,
      "桀": 2445,
      "桂": 2446,
      "桃": 2447,
      "案": 2448,
      "桎": 2449,
      "桐": 2450,
      "桑": 2451,
      "桓": 2452,
      "桜": 2453,
      "桥": 2454,
      "桧": 2455,
      "梁": 2456,
      "梅": 2457,
      "梏": 2458,
      "梓": 2459,
      "條": 2460,
      "梦": 2461,
      "梨": 2462,
      "梭": 2463,
      "梯": 2464,
      "械": 2465,
      "梵": 2466,
      "梶": 2467,
      "棋": 2468,
      "棍": 2469,
      "棗": 2470,
      "棘": 2471,
      "棚": 2472,
      "棟": 2473,
      "森": 2474,
      "棲": 2475,
      "棵": 2476,
      "棺": 2477,
      "椅": 2478,
      "植": 2479,
      "椎": 2480,
      "椒": 2481,
      "椛": 2482,
      "検": 2483,
      "椰": 2484,
      "椿": 2485,
      "楊": 2486,
      "楚": 2487,
      "楠": 2488,
      "業": 2489,
      "楯": 2490,
      "極": 2491,
      "楼": 2492,
      "楽": 2493,
      "概": 2494,
      "榆": 2495,
      "榊": 2496,
      "榔": 2497,
      "榛": 2498,
      "榮": 2499,
      "榴": 2500,
      "槐": 2501,
      "様": 2502,
      "槤": 2503,
      "槻": 2504,
      "樂": 2505,
      "樉": 2506,
      "樊": 2507,
      "樓": 2508,
      "樗": 2509,
      "標": 2510,
      "樛": 2511,
      "模": 2512,
      "権": 2513,
      "横": 2514,
      "樱": 2515,
      "樸": 2516,
      "樹": 2517,
      "橋": 2518,
      "橘": 2519,
      "橚": 2520,
      "機": 2521,
      "橫": 2522,
      "橿": 2523,
      "檀": 2524,
      "檜": 2525,
      "檳": 2526,
      "檻": 2527,
      "櫓": 2528,
      "櫻": 2529,
      "權": 2530,
      "欒": 2531,
      "欠": 2532,
      "次": 2533,
      "欣": 2534,
      "欲": 2535,
      "欽": 2536,
      "歌": 2537,
      "歓": 2538,
      "歡": 2539,
      "止": 2540,
      "正": 2541,
      "步": 2542,
      "武": 2543,
      "歩": 2544,
      "歪": 2545,
      "歲": 2546,
      "歳": 2547,
      "歴": 2548,
      "歷": 2549,
      "歸": 2550,
      "死": 2551,
      "殊": 2552,
      "残": 2553,
      "段": 2554,
      "殺": 2555,
      "殻": 2556,
      "殿": 2557,
      "毅": 2558,
      "母": 2559,
      "毎": 2560,
      "每": 2561,
      "比": 2562,
      "毕": 2563,
      "毘": 2564,
      "毛": 2565,
      "毫": 2566,
      "毬": 2567,
      "氏": 2568,
      "民": 2569,
      "气": 2570,
      "気": 2571,
      "氣": 2572,
      "水": 2573,
      "氷": 2574,
      "永": 2575,
      "氾": 2576,
      "汇": 2577,
      "汉": 2578,
      "汐": 2579,
      "汗": 2580,
      "汝": 2581,
      "江": 2582,
      "池": 2583,
      "汤": 2584,
      "汪": 2585,
      "汰": 2586,
      "汶": 2587,
      "決": 2588,
      "汽": 2589,
      "沂": 2590,
      "沃": 2591,
      "沈": 2592,
      "沉": 2593,
      "沌": 2594,
      "沐": 2595,
      "沒": 2596,
      "沖": 2597,
      "沙": 2598,
      "沛": 2599,
      "没": 2600,
      "沢": 2601,
      "沫": 2602,
      "河": 2603,
      "沸": 2604,
      "油": 2605,
      "治": 2606,
      "沼": 2607,
      "沽": 2608,
      "泉": 2609,
      "泊": 2610,
      "法": 2611,
      "泗": 2612,
      "泡": 2613,
      "波": 2614,
      "泣": 2615,
      "泥": 2616,
      "注": 2617,
      "泰": 2618,
      "泾": 2619,
      "洁": 2620,
      "洋": 2621,
      "洛": 2622,
      "洞": 2623,
      "津": 2624,
      "洪": 2625,
      "洲": 2626,
      "活": 2627,
      "派": 2628,
      "流": 2629,
      "浅": 2630,
      "浙": 2631,
      "浚": 2632,
      "浜": 2633,
      "浦": 2634,
      "浩": 2635,
      "浪": 2636,
      "浮": 2637,
      "海": 2638,
      "消": 2639,
      "涙": 2640,
      "润": 2641,
      "涵": 2642,
      "涼": 2643,
      "淇": 2644,
      "淑": 2645,
      "淘": 2646,
      "淡": 2647,
      "淨": 2648,
      "深": 2649,
      "淳": 2650,
      "淵": 2651,
      "淹": 2652,
      "添": 2653,
      "清": 2654,
      "渊": 2655,
      "渚": 2656,
      "減": 2657,
      "渠": 2658,
      "渡": 2659,
      "渣": 2660,
      "渥": 2661,
      "渦": 2662,
      "温": 2663,
      "測": 2664,
      "港": 2665,
      "游": 2666,
      "渾": 2667,
      "湊": 2668,
      "湖": 2669,
      "湯": 2670,
      "湾": 2671,
      "満": 2672,
      "源": 2673,
      "準": 2674,
      "溜": 2675,
      "溢": 2676,
      "溪": 2677,
      "溫": 2678,
      "溶": 2679,
      "滅": 2680,
      "滋": 2681,
      "滑": 2682,
      "滨": 2683,
      "滿": 2684,
      "漁": 2685,
      "漂": 2686,
      "漆": 2687,
      "漏": 2688,
      "漠": 2689,
      "漢": 2690,
      "漫": 2691,
      "漳": 2692,
      "漸": 2693,
      "潘": 2694,
      "潜": 2695,
      "潤": 2696,
      "澄": 2697,
      "澤": 2698,
      "澪": 2699,
      "激": 2700,
      "濃": 2701,
      "濞": 2702,
      "濟": 2703,
      "瀛": 2704,
      "瀬": 2705,
      "灣": 2706,
      "火": 2707,
      "灯": 2708,
      "灰": 2709,
      "灵": 2710,
      "灶": 2711,
      "灼": 2712,
      "災": 2713,
      "灾": 2714,
      "炎": 2715,
      "炬": 2716,
      "炮": 2717,
      "炯": 2718,
      "炷": 2719,
      "炸": 2720,
      "点": 2721,
      "為": 2722,
      "炼": 2723,
      "烈": 2724,
      "烏": 2725,
      "烙": 2726,
      "烟": 2727,
      "烦": 2728,
      "烧": 2729,
      "焉": 2730,
      "焔": 2731,
      "無": 2732,
      "焦": 2733,
      "然": 2734,
      "焼": 2735,
      "煌": 2736,
      "煙": 2737,
      "煜": 2738,
      "照": 2739,
      "煩": 2740,
      "煮": 2741,
      "熊": 2742,
      "熔": 2743,
      "熙": 2744,
      "熟": 2745,
      "熱": 2746,
      "燃": 2747,
      "燈": 2748,
      "燕": 2749,
      "營": 2750,
      "爆": 2751,
      "爪": 2752,
      "爭": 2753,
      "爱": 2754,
      "爲": 2755,
      "爵": 2756,
      "父": 2757,
      "爺": 2758,
      "爻": 2759,
      "爽": 2760,
      "爾": 2761,
      "片": 2762,
      "版": 2763,
      "牌": 2764,
      "牙": 2765,
      "牛": 2766,
      "牡": 2767,
      "牢": 2768,
      "牧": 2769,
      "物": 2770,
      "牵": 2771,
      "特": 2772,
      "犖": 2773,
      "犬": 2774,
      "犯": 2775,
      "狀": 2776,
      "狂": 2777,
      "狐": 2778,
      "狗": 2779,
      "狛": 2780,
      "狡": 2781,
      "狩": 2782,
      "独": 2783,
      "狭": 2784,
      "狱": 2785,
      "狸": 2786,
      "狼": 2787,
      "猛": 2788,
      "猩": 2789,
      "猪": 2790,
      "猫": 2791,
      "献": 2792,
      "猿": 2793,
      "獄": 2794,
      "獅": 2795,
      "獣": 2796,
      "獵": 2797,
      "獻": 2798,
      "玄": 2799,
      "玉": 2800,
      "王": 2801,
      "玖": 2802,
      "玩": 2803,
      "玲": 2804,
      "珂": 2805,
      "珍": 2806,
      "珙": 2807,
      "珠": 2808,
      "現": 2809,
      "球": 2810,
      "理": 2811,
      "琦": 2812,
      "琪": 2813,
      "琬": 2814,
      "琮": 2815,
      "琴": 2816,
      "瑋": 2817,
      "瑙": 2818,
      "瑜": 2819,
      "瑞": 2820,
      "瑠": 2821,
      "瑣": 2822,
      "瑪": 2823,
      "瑾": 2824,
      "璉": 2825,
      "環": 2826,
      "璽": 2827,
      "瓊": 2828,
      "瓜": 2829,
      "瓢": 2830,
      "瓦": 2831,
      "瓩": 2832,
      "瓷": 2833,
      "甘": 2834,
      "甜": 2835,
      "生": 2836,
      "產": 2837,
      "産": 2838,
      "用": 2839,
      "甫": 2840,
      "田": 2841,
      "由": 2842,
      "甲": 2843,
      "申": 2844,
      "男": 2845,
      "町": 2846,
      "画": 2847,
      "甽": 2848,
      "界": 2849,
      "畑": 2850,
      "留": 2851,
      "畜": 2852,
      "畢": 2853,
      "略": 2854,
      "番": 2855,
      "畫": 2856,
      "異": 2857,
      "疾": 2858,
      "病": 2859,
      "症": 2860,
      "痘": 2861,
      "痛": 2862,
      "痴": 2863,
      "瘡": 2864,
      "瘤": 2865,
      "発": 2866,
      "登": 2867,
      "發": 2868,
      "白": 2869,
      "百": 2870,
      "的": 2871,
      "皇": 2872,
      "皙": 2873,
      "皮": 2874,
      "皿": 2875,
      "盆": 2876,
      "盈": 2877,
      "益": 2878,
      "盏": 2879,
      "盐": 2880,
      "监": 2881,
      "盒": 2882,
      "盗": 2883,
      "盘": 2884,
      "盛": 2885,
      "盟": 2886,
      "監": 2887,
      "盤": 2888,
      "盧": 2889,
      "目": 2890,
      "直": 2891,
      "相": 2892,
      "盼": 2893,
      "省": 2894,
      "看": 2895,
      "県": 2896,
      "眞": 2897,
      "真": 2898,
      "眼": 2899,
      "着": 2900,
      "督": 2901,
      "瞬": 2902,
      "瞳": 2903,
      "矢": 2904,
      "知": 2905,
      "矩": 2906,
      "短": 2907,
      "矮": 2908,
      "矯": 2909,
      "石": 2910,
      "砂": 2911,
      "砍": 2912,
      "研": 2913,
      "砖": 2914,
      "砲": 2915,
      "破": 2916,
      "硕": 2917,
      "硝": 2918,
      "硨": 2919,
      "碍": 2920,
      "碗": 2921,
      "碩": 2922,
      "確": 2923,
      "碼": 2924,
      "磁": 2925,
      "磅": 2926,
      "磐": 2927,
      "磨": 2928,
      "磯": 2929,
      "磲": 2930,
      "礁": 2931,
      "礎": 2932,
      "礮": 2933,
      "示": 2934,
      "礼": 2935,
      "社": 2936,
      "祀": 2937,
      "祈": 2938,
      "祐": 2939,
      "祖": 2940,
      "祚": 2941,
      "神": 2942,
      "祠": 2943,
      "祥": 2944,
      "票": 2945,
      "祭": 2946,
      "祺": 2947,
      "祿": 2948,
      "禁": 2949,
      "禄": 2950,
      "禎": 2951,
      "福": 2952,
      "禦": 2953,
      "禮": 2954,
      "禰": 2955,
      "禺": 2956,
      "禾": 2957,
      "秀": 2958,
      "私": 2959,
      "秋": 2960,
      "科": 2961,
      "秒": 2962,
      "秘": 2963,
      "租": 2964,
      "秤": 2965,
      "秦": 2966,
      "移": 2967,
      "程": 2968,
      "稔": 2969,
      "稚": 2970,
      "種": 2971,
      "稲": 2972,
      "稷": 2973,
      "穂": 2974,
      "穌": 2975,
      "積": 2976,
      "穎": 2977,
      "穗": 2978,
      "穢": 2979,
      "究": 2980,
      "空": 2981,
      "突": 2982,
      "窓": 2983,
      "窗": 2984,
      "窟": 2985,
      "竇": 2986,
      "立": 2987,
      "站": 2988,
      "竜": 2989,
      "章": 2990,
      "童": 2991,
      "端": 2992,
      "竹": 2993,
      "竺": 2994,
      "笑": 2995,
      "笔": 2996,
      "笛": 2997,
      "笠": 2998,
      "符": 2999,
      "笨": 3000,
      "第": 3001,
      "笹": 3002,
      "筆": 3003,
      "等": 3004,
      "筋": 3005,
      "筍": 3006,
      "筐": 3007,
      "筑": 3008,
      "答": 3009,
      "策": 3010,
      "筹": 3011,
      "箇": 3012,
      "算": 3013,
      "管": 3014,
      "箪": 3015,
      "箭": 3016,
      "箱": 3017,
      "節": 3018,
      "範": 3019,
      "篇": 3020,
      "篋": 3021,
      "篚": 3022,
      "篤": 3023,
      "簡": 3024,
      "簿": 3025,
      "籃": 3026,
      "籌": 3027,
      "籍": 3028,
      "籠": 3029,
      "米": 3030,
      "籵": 3031,
      "粁": 3032,
      "粉": 3033,
      "粍": 3034,
      "粟": 3035,
      "粥": 3036,
      "粨": 3037,
      "精": 3038,
      "糊": 3039,
      "糎": 3040,
      "糖": 3041,
      "糸": 3042,
      "系": 3043,
      "紀": 3044,
      "約": 3045,
      "紅": 3046,
      "紋": 3047,
      "納": 3048,
      "純": 3049,
      "紘": 3050,
      "紙": 3051,
      "級": 3052,
      "素": 3053,
      "紡": 3054,
      "紫": 3055,
      "細": 3056,
      "紹": 3057,
      "紺": 3058,
      "終": 3059,
      "組": 3060,
      "絆": 3061,
      "経": 3062,
      "結": 3063,
      "絡": 3064,
      "給": 3065,
      "統": 3066,
      "絵": 3067,
      "絶": 3068,
      "綁": 3069,
      "經": 3070,
      "継": 3071,
      "続": 3072,
      "綜": 3073,
      "綠": 3074,
      "維": 3075,
      "綯": 3076,
      "綱": 3077,
      "網": 3078,
      "綸": 3079,
      "綺": 3080,
      "綾": 3081,
      "緋": 3082,
      "総": 3083,
      "緑": 3084,
      "緒": 3085,
      "線": 3086,
      "締": 3087,
      "編": 3088,
      "緩": 3089,
      "緯": 3090,
      "縄": 3091,
      "縊": 3092,
      "縣": 3093,
      "總": 3094,
      "繋": 3095,
      "織": 3096,
      "繼": 3097,
      "續": 3098,
      "红": 3099,
      "级": 3100,
      "纪": 3101,
      "纯": 3102,
      "纲": 3103,
      "纵": 3104,
      "线": 3105,
      "组": 3106,
      "绅": 3107,
      "细": 3108,
      "终": 3109,
      "绍": 3110,
      "经": 3111,
      "给": 3112,
      "统": 3113,
      "继": 3114,
      "绮": 3115,
      "维": 3116,
      "综": 3117,
      "缽": 3118,
      "网": 3119,
      "罗": 3120,
      "罠": 3121,
      "罪": 3122,
      "置": 3123,
      "罰": 3124,
      "罸": 3125,
      "羅": 3126,
      "羊": 3127,
      "美": 3128,
      "群": 3129,
      "義": 3130,
      "羽": 3131,
      "翁": 3132,
      "習": 3133,
      "翔": 3134,
      "翘": 3135,
      "翠": 3136,
      "翡": 3137,
      "翱": 3138,
      "翹": 3139,
      "翻": 3140,
      "翼": 3141,
      "老": 3142,
      "考": 3143,
      "者": 3144,
      "耆": 3145,
      "而": 3146,
      "耕": 3147,
      "耳": 3148,
      "耶": 3149,
      "耿": 3150,
      "聃": 3151,
      "联": 3152,
      "聖": 3153,
      "聘": 3154,
      "聚": 3155,
      "聞": 3156,
      "聡": 3157,
      "聯": 3158,
      "聰": 3159,
      "聲": 3160,
      "職": 3161,
      "肃": 3162,
      "肉": 3163,
      "肖": 3164,
      "肚": 3165,
      "股": 3166,
      "肥": 3167,
      "肩": 3168,
      "育": 3169,
      "胞": 3170,
      "胠": 3171,
      "胡": 3172,
      "胤": 3173,
      "胴": 3174,
      "胸": 3175,
      "能": 3176,
      "脂": 3177,
      "脇": 3178,
      "脈": 3179,
      "脉": 3180,
      "脚": 3181,
      "脩": 3182,
      "脱": 3183,
      "脳": 3184,
      "腎": 3185,
      "腐": 3186,
      "腰": 3187,
      "腹": 3188,
      "腿": 3189,
      "膀": 3190,
      "膺": 3191,
      "臂": 3192,
      "臘": 3193,
      "臚": 3194,
      "臣": 3195,
      "臨": 3196,
      "自": 3197,
      "臭": 3198,
      "至": 3199,
      "致": 3200,
      "臺": 3201,
      "與": 3202,
      "興": 3203,
      "舍": 3204,
      "舎": 3205,
      "舞": 3206,
      "舟": 3207,
      "航": 3208,
      "船": 3209,
      "艦": 3210,
      "良": 3211,
      "色": 3212,
      "艳": 3213,
      "艶": 3214,
      "艺": 3215,
      "节": 3216,
      "芒": 3217,
      "芙": 3218,
      "芝": 3219,
      "芦": 3220,
      "芬": 3221,
      "芭": 3222,
      "芮": 3223,
      "芯": 3224,
      "花": 3225,
      "芳": 3226,
      "芸": 3227,
      "芹": 3228,
      "芽": 3229,
      "苏": 3230,
      "苑": 3231,
      "苗": 3232,
      "苣": 3233,
      "若": 3234,
      "英": 3235,
      "苺": 3236,
      "茂": 3237,
      "范": 3238,
      "茅": 3239,
      "茜": 3240,
      "茶": 3241,
      "茸": 3242,
      "草": 3243,
      "荊": 3244,
      "荒": 3245,
      "荔": 3246,
      "荘": 3247,
      "荥": 3248,
      "荪": 3249,
      "荫": 3250,
      "药": 3251,
      "荷": 3252,
      "荻": 3253,
      "荼": 3254,
      "莉": 3255,
      "莊": 3256,
      "莎": 3257,
      "莘": 3258,
      "莞": 3259,
      "莫": 3260,
      "莱": 3261,
      "莲": 3262,
      "莴": 3263,
      "菇": 3264,
      "菉": 3265,
      "菊": 3266,
      "菜": 3267,
      "華": 3268,
      "菱": 3269,
      "菲": 3270,
      "萌": 3271,
      "萍": 3272,
      "萝": 3273,
      "营": 3274,
      "萧": 3275,
      "萨": 3276,
      "萬": 3277,
      "落": 3278,
      "葆": 3279,
      "葉": 3280,
      "著": 3281,
      "葛": 3282,
      "董": 3283,
      "葦": 3284,
      "葫": 3285,
      "葵": 3286,
      "蒙": 3287,
      "蒭": 3288,
      "蒲": 3289,
      "蒼": 3290,
      "蒿": 3291,
      "蓀": 3292,
      "蓑": 3293,
      "蓝": 3294,
      "蓮": 3295,
      "蔡": 3296,
      "蔭": 3297,
      "蔵": 3298,
      "蕃": 3299,
      "蕉": 3300,
      "蕨": 3301,
      "蕩": 3302,
      "蕭": 3303,
      "薇": 3304,
      "薊": 3305,
      "薔": 3306,
      "薙": 3307,
      "薛": 3308,
      "薩": 3309,
      "薫": 3310,
      "薯": 3311,
      "藍": 3312,
      "藏": 3313,
      "藕": 3314,
      "藝": 3315,
      "藤": 3316,
      "藥": 3317,
      "藩": 3318,
      "藻": 3319,
      "蘄": 3320,
      "蘅": 3321,
      "蘇": 3322,
      "蘑": 3323,
      "蘭": 3324,
      "虎": 3325,
      "虐": 3326,
      "虔": 3327,
      "處": 3328,
      "虚": 3329,
      "虛": 3330,
      "號": 3331,
      "虫": 3332,
      "虹": 3333,
      "蛇": 3334,
      "蛍": 3335,
      "蛙": 3336,
      "蛭": 3337,
      "蜃": 3338,
      "蜡": 3339,
      "蝉": 3340,
      "蝕": 3341,
      "蝶": 3342,
      "融": 3343,
      "螺": 3344,
      "蟲": 3345,
      "蠕": 3346,
      "蠻": 3347,
      "血": 3348,
      "衆": 3349,
      "行": 3350,
      "術": 3351,
      "街": 3352,
      "衙": 3353,
      "衛": 3354,
      "衝": 3355,
      "衡": 3356,
      "衢": 3357,
      "衣": 3358,
      "补": 3359,
      "表": 3360,
      "袁": 3361,
      "袈": 3362,
      "袖": 3363,
      "被": 3364,
      "裁": 3365,
      "裂": 3366,
      "装": 3367,
      "裏": 3368,
      "裔": 3369,
      "裕": 3370,
      "補": 3371,
      "裟": 3372,
      "裳": 3373,
      "裸": 3374,
      "製": 3375,
      "褒": 3376,
      "襄": 3377,
      "襟": 3378,
      "襲": 3379,
      "西": 3380,
      "要": 3381,
      "覇": 3382,
      "見": 3383,
      "規": 3384,
      "視": 3385,
      "覚": 3386,
      "親": 3387,
      "観": 3388,
      "覺": 3389,
      "觀": 3390,
      "观": 3391,
      "角": 3392,
      "解": 3393,
      "触": 3394,
      "觳": 3395,
      "言": 3396,
      "計": 3397,
      "記": 3398,
      "設": 3399,
      "許": 3400,
      "訳": 3401,
      "証": 3402,
      "詔": 3403,
      "詞": 3404,
      "詠": 3405,
      "試": 3406,
      "詩": 3407,
      "話": 3408,
      "誌": 3409,
      "誐": 3410,
      "誒": 3411,
      "誓": 3412,
      "誕": 3413,
      "誘": 3414,
      "語": 3415,
      "誠": 3416,
      "誡": 3417,
      "誦": 3418,
      "說": 3419,
      "説": 3420,
      "読": 3421,
      "誰": 3422,
      "課": 3423,
      "調": 3424,
      "談": 3425,
      "論": 3426,
      "諭": 3427,
      "諷": 3428,
      "諸": 3429,
      "謀": 3430,
      "謁": 3431,
      "謎": 3432,
      "謙": 3433,
      "講": 3434,
      "謝": 3435,
      "謡": 3436,
      "識": 3437,
      "譚": 3438,
      "譜": 3439,
      "警": 3440,
      "議": 3441,
      "護": 3442,
      "讀": 3443,
      "變": 3444,
      "讐": 3445,
      "讓": 3446,
      "计": 3447,
      "让": 3448,
      "议": 3449,
      "许": 3450,
      "论": 3451,
      "讼": 3452,
      "诉": 3453,
      "词": 3454,
      "诗": 3455,
      "诚": 3456,
      "话": 3457,
      "语": 3458,
      "诶": 3459,
      "请": 3460,
      "诺": 3461,
      "读": 3462,
      "课": 3463,
      "谁": 3464,
      "谦": 3465,
      "谭": 3466,
      "谷": 3467,
      "豆": 3468,
      "豊": 3469,
      "豌": 3470,
      "豐": 3471,
      "豚": 3472,
      "象": 3473,
      "豪": 3474,
      "豫": 3475,
      "豬": 3476,
      "豹": 3477,
      "貓": 3478,
      "貝": 3479,
      "貞": 3480,
      "負": 3481,
      "財": 3482,
      "貫": 3483,
      "貴": 3484,
      "費": 3485,
      "賀": 3486,
      "資": 3487,
      "賈": 3488,
      "賊": 3489,
      "賓": 3490,
      "賞": 3491,
      "賢": 3492,
      "賦": 3493,
      "質": 3494,
      "購": 3495,
      "贝": 3496,
      "贞": 3497,
      "财": 3498,
      "贤": 3499,
      "质": 3500,
      "贵": 3501,
      "贺": 3502,
      "贼": 3503,
      "资": 3504,
      "赤": 3505,
      "赭": 3506,
      "走": 3507,
      "赵": 3508,
      "起": 3509,
      "超": 3510,
      "越": 3511,
      "趙": 3512,
      "足": 3513,
      "跆": 3514,
      "跑": 3515,
      "跖": 3516,
      "跟": 3517,
      "跡": 3518,
      "路": 3519,
      "跳": 3520,
      "踊": 3521,
      "踏": 3522,
      "踢": 3523,
      "蹴": 3524,
      "身": 3525,
      "車": 3526,
      "軌": 3527,
      "軍": 3528,
      "軒": 3529,
      "転": 3530,
      "軽": 3531,
      "載": 3532,
      "輔": 3533,
      "輛": 3534,
      "輝": 3535,
      "輪": 3536,
      "輿": 3537,
      "轉": 3538,
      "车": 3539,
      "轩": 3540,
      "转": 3541,
      "辆": 3542,
      "辉": 3543,
      "辛": 3544,
      "辣": 3545,
      "辭": 3546,
      "辯": 3547,
      "辰": 3548,
      "農": 3549,
      "边": 3550,
      "辺": 3551,
      "辽": 3552,
      "达": 3553,
      "辿": 3554,
      "迄": 3555,
      "迅": 3556,
      "过": 3557,
      "迈": 3558,
      "运": 3559,
      "近": 3560,
      "返": 3561,
      "这": 3562,
      "进": 3563,
      "远": 3564,
      "迦": 3565,
      "迪": 3566,
      "述": 3567,
      "迷": 3568,
      "追": 3569,
      "送": 3570,
      "适": 3571,
      "逆": 3572,
      "选": 3573,
      "這": 3574,
      "通": 3575,
      "造": 3576,
      "逢": 3577,
      "連": 3578,
      "逯": 3579,
      "週": 3580,
      "進": 3581,
      "遁": 3582,
      "遇": 3583,
      "遊": 3584,
      "運": 3585,
      "遍": 3586,
      "過": 3587,
      "道": 3588,
      "達": 3589,
      "遗": 3590,
      "遙": 3591,
      "遜": 3592,
      "遠": 3593,
      "遥": 3594,
      "遮": 3595,
      "選": 3596,
      "遺": 3597,
      "遼": 3598,
      "避": 3599,
      "邁": 3600,
      "還": 3601,
      "邊": 3602,
      "邑": 3603,
      "邓": 3604,
      "那": 3605,
      "邦": 3606,
      "邪": 3607,
      "邱": 3608,
      "郁": 3609,
      "郊": 3610,
      "郎": 3611,
      "郑": 3612,
      "郛": 3613,
      "郝": 3614,
      "郡": 3615,
      "部": 3616,
      "郭": 3617,
      "郷": 3618,
      "都": 3619,
      "鄧": 3620,
      "鄭": 3621,
      "酈": 3622,
      "酉": 3623,
      "酒": 3624,
      "酔": 3625,
      "酥": 3626,
      "酱": 3627,
      "酷": 3628,
      "酸": 3629,
      "醋": 3630,
      "醒": 3631,
      "醫": 3632,
      "采": 3633,
      "釈": 3634,
      "釋": 3635,
      "里": 3636,
      "重": 3637,
      "野": 3638,
      "量": 3639,
      "金": 3640,
      "釗": 3641,
      "釣": 3642,
      "鈍": 3643,
      "鈴": 3644,
      "鉄": 3645,
      "鉢": 3646,
      "鉦": 3647,
      "鉱": 3648,
      "鉴": 3649,
      "銀": 3650,
      "銃": 3651,
      "銅": 3652,
      "銓": 3653,
      "銖": 3654,
      "銘": 3655,
      "銳": 3656,
      "鋒": 3657,
      "鋪": 3658,
      "鋼": 3659,
      "錄": 3660,
      "錡": 3661,
      "錦": 3662,
      "錬": 3663,
      "録": 3664,
      "鍋": 3665,
      "鍵": 3666,
      "鎖": 3667,
      "鎧": 3668,
      "鎮": 3669,
      "鏡": 3670,
      "鐘": 3671,
      "鐵": 3672,
      "鐸": 3673,
      "鑒": 3674,
      "钊": 3675,
      "钢": 3676,
      "钦": 3677,
      "钱": 3678,
      "铁": 3679,
      "铎": 3680,
      "铜": 3681,
      "铭": 3682,
      "铺": 3683,
      "锡": 3684,
      "键": 3685,
      "镇": 3686,
      "镗": 3687,
      "镜": 3688,
      "長": 3689,
      "长": 3690,
      "門": 3691,
      "閃": 3692,
      "開": 3693,
      "閏": 3694,
      "閒": 3695,
      "間": 3696,
      "関": 3697,
      "閣": 3698,
      "閨": 3699,
      "闇": 3700,
      "闍": 3701,
      "闕": 3702,
      "闘": 3703,
      "關": 3704,
      "门": 3705,
      "问": 3706,
      "闯": 3707,
      "阁": 3708,
      "阪": 3709,
      "防": 3710,
      "阳": 3711,
      "阿": 3712,
      "陀": 3713,
      "附": 3714,
      "际": 3715,
      "陈": 3716,
      "降": 3717,
      "限": 3718,
      "陛": 3719,
      "院": 3720,
      "陣": 3721,
      "除": 3722,
      "陪": 3723,
      "陳": 3724,
      "陵": 3725,
      "陶": 3726,
      "陸": 3727,
      "険": 3728,
      "陽": 3729,
      "隆": 3730,
      "隊": 3731,
      "階": 3732,
      "隔": 3733,
      "隗": 3734,
      "隠": 3735,
      "隣": 3736,
      "隱": 3737,
      "隴": 3738,
      "隸": 3739,
      "隻": 3740,
      "隼": 3741,
      "雀": 3742,
      "雁": 3743,
      "雄": 3744,
      "雅": 3745,
      "集": 3746,
      "雇": 3747,
      "雉": 3748,
      "雎": 3749,
      "雕": 3750,
      "雙": 3751,
      "雛": 3752,
      "雜": 3753,
      "雞": 3754,
      "離": 3755,
      "難": 3756,
      "雨": 3757,
      "雪": 3758,
      "雲": 3759,
      "雳": 3760,
      "零": 3761,
      "雷": 3762,
      "電": 3763,
      "雾": 3764,
      "需": 3765,
      "霆": 3766,
      "震": 3767,
      "霊": 3768,
      "霍": 3769,
      "霖": 3770,
      "霜": 3771,
      "霞": 3772,
      "霧": 3773,
      "霰": 3774,
      "露": 3775,
      "霸": 3776,
      "霹": 3777,
      "靂": 3778,
      "靈": 3779,
      "青": 3780,
      "靖": 3781,
      "静": 3782,
      "非": 3783,
      "靠": 3784,
      "面": 3785,
      "革": 3786,
      "靴": 3787,
      "靼": 3788,
      "鞋": 3789,
      "鞍": 3790,
      "鞠": 3791,
      "韃": 3792,
      "韋": 3793,
      "韓": 3794,
      "韦": 3795,
      "韩": 3796,
      "韭": 3797,
      "音": 3798,
      "韶": 3799,
      "響": 3800,
      "頃": 3801,
      "項": 3802,
      "順": 3803,
      "須": 3804,
      "頌": 3805,
      "領": 3806,
      "頭": 3807,
      "顆": 3808,
      "題": 3809,
      "額": 3810,
      "顏": 3811,
      "顔": 3812,
      "願": 3813,
      "顯": 3814,
      "项": 3815,
      "顾": 3816,
      "颂": 3817,
      "颊": 3818,
      "颖": 3819,
      "颗": 3820,
      "颜": 3821,
      "風": 3822,
      "颪": 3823,
      "颱": 3824,
      "飄": 3825,
      "风": 3826,
      "飛": 3827,
      "飞": 3828,
      "食": 3829,
      "飯": 3830,
      "飾": 3831,
      "餅": 3832,
      "養": 3833,
      "餓": 3834,
      "館": 3835,
      "饼": 3836,
      "馆": 3837,
      "馒": 3838,
      "首": 3839,
      "香": 3840,
      "馬": 3841,
      "馮": 3842,
      "駆": 3843,
      "駐": 3844,
      "駒": 3845,
      "駙": 3846,
      "駢": 3847,
      "駿": 3848,
      "騎": 3849,
      "騒": 3850,
      "験": 3851,
      "騭": 3852,
      "騰": 3853,
      "騷": 3854,
      "驁": 3855,
      "驚": 3856,
      "驤": 3857,
      "马": 3858,
      "驰": 3859,
      "骨": 3860,
      "骸": 3861,
      "髀": 3862,
      "高": 3863,
      "髪": 3864,
      "鬘": 3865,
      "鬥": 3866,
      "鬪": 3867,
      "鬼": 3868,
      "魂": 3869,
      "魄": 3870,
      "魔": 3871,
      "魚": 3872,
      "魯": 3873,
      "鮑": 3874,
      "鮫": 3875,
      "鮮": 3876,
      "鯖": 3877,
      "鯵": 3878,
      "鰐": 3879,
      "鱀": 3880,
      "鱼": 3881,
      "鲁": 3882,
      "鲤": 3883,
      "鳥": 3884,
      "鳩": 3885,
      "鳳": 3886,
      "鳴": 3887,
      "鳶": 3888,
      "鴉": 3889,
      "鴣": 3890,
      "鴨": 3891,
      "鴻": 3892,
      "鵡": 3893,
      "鵩": 3894,
      "鵬": 3895,
      "鶍": 3896,
      "鶴": 3897,
      "鷓": 3898,
      "鷹": 3899,
      "鷺": 3900,
      "鸚": 3901,
      "鸟": 3902,
      "鸡": 3903,
      "鸭": 3904,
      "鸿": 3905,
      "鹅": 3906,
      "鹹": 3907,
      "鹼": 3908,
      "鹽": 3909,
      "鹿": 3910,
      "麗": 3911,
      "麥": 3912,
      "麵": 3913,
      "麻": 3914,
      "麼": 3915,
      "麾": 3916,
      "黃": 3917,
      "黄": 3918,
      "黎": 3919,
      "黑": 3920,
      "黒": 3921,
      "黙": 3922,
      "黛": 3923,
      "黨": 3924,
      "鼉": 3925,
      "鼎": 3926,
      "鼓": 3927,
      "鼠": 3928,
      "鼻": 3929,
      "齉": 3930,
      "齊": 3931,
      "齋": 3932,
      "齐": 3933,
      "龍": 3934,
      "龙": 3935,
      "ꜛ": 3936,
      "ꜜ": 3937,
      "ꜣ": 3938,
      "ꜩ": 3939,
      "ꜫ": 3940,
      "ꜭ": 3941,
      "ꞅ": 3942,
      "ꞎ": 3943,
      "ꞵ": 3944,
      "ꦠ": 3945,
      "ꦯ": 3946,
      "ꦲ": 3947,
      "ꭓ": 3948,
      "ꭰ": 3949,
      "ꭳ": 3950,
      "ꭶ": 3951,
      "ꭸ": 3952,
      "ꭹ": 3953,
      "ꮀ": 3954,
      "ꮃ": 3955,
      "ꮉ": 3956,
      "ꮝ": 3957,
      "ꮿ": 3958,
      "ﬀ": 3959,
      "ﬁ": 3960,
      "ﬂ": 3961,
      "ﮭ": 3962,
      "ﮮ": 3963,
      "ﷲ": 3964,
      "ﷺ": 3965,
      "ﺒ": 3966,
      "ﻉ": 3967,
      "ﻋ": 3968,
      "ﻔ": 3969,
      "ﻴ": 3970,
      "﻿": 3971,
      "！": 3972,
      "％": 3973,
      "＆": 3974,
      "（": 3975,
      "）": 3976,
      "，": 3977,
      "－": 3978,
      "／": 3979,
      "１": 3980,
      "２": 3981,
      "３": 3982,
      "４": 3983,
      "６": 3984,
      "：": 3985,
      "＜": 3986,
      "＝": 3987,
      "＞": 3988,
      "？": 3989,
      "［": 3990,
      "］": 3991,
      "ａ": 3992,
      "ｃ": 3993,
      "ｄ": 3994,
      "ｇ": 3995,
      "ｉ": 3996,
      "ｊ": 3997,
      "ｌ": 3998,
      "ｍ": 3999,
      "ｐ": 4000,
      "ｒ": 4001,
      "ｘ": 4002,
      "｜": 4003,
      "～": 4004,
      "｢": 4005,
      "｣": 4006,
      "･": 4007,
      "ｰ": 4008,
      "￥": 4009,
      "�": 4010,
      "𐀁": 4011,
      "𐀈": 4012,
      "𐀫": 4013,
      "𐎠": 4014,
      "𐎢": 4015,
      "𐎭": 4016,
      "𐎰": 4017,
      "𐎹": 4018,
      "𐎺": 4019,
      "𐎼": 4020,
      "𐏁": 4021,
      "𐭃": 4022,
      "𐭉": 4023,
      "𐭓": 4024,
      "𐭕": 4025,
      "𒀯": 4026,
      "𒀳": 4027,
      "𝕄": 4028,
      "𝕡": 4029,
      "🖕": 4030,
      "th": 4031,
      "in": 4032,
      "the": 4033,
      "an": 4034,
      "er": 4035,
      "on": 4036,
      "ed": 4037,
      "re": 4038,
      "at": 4039,
      "en": 4040,
      "or": 4041,
      "st": 4042,
      "al": 4043,
      "ar": 4044,
      "as": 4045,
      "and": 4046,
      "of": 4047,
      "to": 4048,
      "ing": 4049,
      "is": 4050,
      "es": 4051,
      "it": 4052,
      "ro": 4053,
      "ic": 4054,
      "ou": 4055,
      "le": 4056,
      "ion": 4057,
      "ch": 4058,
      "se": 4059,
      "il": 4060,
      "am": 4061,
      "ent": 4062,
      "ad": 4063,
      "el": 4064,
      "ac": 4065,
      "co": 4066,
      "for": 4067,
      "be": 4068,
      "was": 4069,
      "de": 4070,
      "ur": 4071,
      "un": 4072,
      "ly": 4073,
      "ir": 4074,
      "wh": 4075,
      "im": 4076,
      "-@": 4077,
      "@-@": 4078,
      "iv": 4079,
      "ig": 4080,
      "he": 4081,
      "lo": 4082,
      "ter": 4083,
      "wi": 4084,
      "con": 4085,
      "ay": 4086,
      "ce": 4087,
      "ol": 4088,
      "ver": 4089,
      "with": 4090,
      "id": 4091,
      "ag": 4092,
      "us": 4093,
      "ation": 4094,
      "that": 4095,
      "by": 4096,
      "ct": 4097,
      "te": 4098,
      "no": 4099,
      "su": 4100,
      "ap": 4101,
      "mo": 4102,
      "me": 4103,
      "ne": 4104,
      "ut": 4105,
      "sh": 4106,
      "po": 4107,
      "av": 4108,
      "com": 4109,
      "tr": 4110,
      "19": 4111,
      "ain": 4112,
      "pe": 4113,
      "ab": 4114,
      "pro": 4115,
      "ers": 4116,
      "so": 4117,
      "ul": 4118,
      "pl": 4119,
      "ist": 4120,
      "res": 4121,
      "ere": 4122,
      "00": 4123,
      "all": 4124,
      "rom": 4125,
      "we": 4126,
      "his": 4127,
      "um": 4128,
      "ther": 4129,
      "from": 4130,
      "ge": 4131,
      "cl": 4132,
      "art": 4133,
      "are": 4134,
      "oun": 4135,
      "op": 4136,
      "ill": 4137,
      "ie": 4138,
      "ies": 4139,
      "man": 4140,
      "fe": 4141,
      "ber": 4142,
      "igh": 4143,
      "ke": 4144,
      "ex": 4145,
      "af": 4146,
      "bo": 4147,
      "ate": 4148,
      "ment": 4149,
      "qu": 4150,
      "ard": 4151,
      "ts": 4152,
      "ich": 4153,
      "were": 4154,
      "ast": 4155,
      "ip": 4156,
      "per": 4157,
      "au": 4158,
      "gh": 4159,
      "br": 4160,
      "if": 4161,
      "one": 4162,
      "ho": 4163,
      "ld": 4164,
      "cr": 4165,
      "ated": 4166,
      "ong": 4167,
      "ity": 4168,
      "ame": 4169,
      "ive": 4170,
      "end": 4171,
      "ess": 4172,
      "ted": 4173,
      "str": 4174,
      "had": 4175,
      "ian": 4176,
      "our": 4177,
      "ish": 4178,
      "pr": 4179,
      "wn": 4180,
      "ack": 4181,
      "out": 4182,
      "ve": 4183,
      "up": 4184,
      "ear": 4185,
      "ial": 4186,
      "wor": 4187,
      "which": 4188,
      "der": 4189,
      "but": 4190,
      "por": 4191,
      "ant": 4192,
      "do": 4193,
      "ia": 4194,
      "ak": 4195,
      "ine": 4196,
      "her": 4197,
      "du": 4198,
      "wo": 4199,
      "ud": 4200,
      "act": 4201,
      "cor": 4202,
      "its": 4203,
      "not": 4204,
      "go": 4205,
      "ary": 4206,
      "ass": 4207,
      "ell": 4208,
      "fir": 4209,
      "em": 4210,
      "ical": 4211,
      "ave": 4212,
      "tim": 4213,
      "gr": 4214,
      "low": 4215,
      "bl": 4216,
      "ser": 4217,
      "20": 4218,
      "this": 4219,
      "200": 4220,
      "li": 4221,
      "ach": 4222,
      "mar": 4223,
      "od": 4224,
      "fo": 4225,
      "age": 4226,
      "after": 4227,
      "ight": 4228,
      "aw": 4229,
      "ould": 4230,
      "ree": 4231,
      "first": 4232,
      "new": 4233,
      "ous": 4234,
      "part": 4235,
      "other": 4236,
      "ction": 4237,
      "form": 4238,
      "their": 4239,
      "who": 4240,
      "sp": 4241,
      "ign": 4242,
      "min": 4243,
      "land": 4244,
      "ition": 4245,
      "att": 4246,
      "also": 4247,
      "pres": 4248,
      "ater": 4249,
      "ound": 4250,
      "gu": 4251,
      "ide": 4252,
      "ind": 4253,
      "des": 4254,
      "ire": 4255,
      "play": 4256,
      "fr": 4257,
      "ph": 4258,
      "they": 4259,
      "ib": 4260,
      "comm": 4261,
      "ck": 4262,
      "off": 4263,
      "ure": 4264,
      "two": 4265,
      "ty": 4266,
      "pre": 4267,
      "cre": 4268,
      "18": 4269,
      "pos": 4270,
      "nor": 4271,
      "ma": 4272,
      "she": 4273,
      "comp": 4274,
      "cent": 4275,
      "have": 4276,
      "ally": 4277,
      "dis": 4278,
      "ile": 4279,
      "over": 4280,
      "rou": 4281,
      "jo": 4282,
      "iz": 4283,
      "air": 4284,
      ".@": 4285,
      "@.@": 4286,
      "has": 4287,
      "ice": 4288,
      "ans": 4289,
      "ev": 4290,
      "year": 4291,
      "inter": 4292,
      "ence": 4293,
      "dr": 4294,
      "uring": 4295,
      "cont": 4296,
      "been": 4297,
      "ace": 4298,
      "ok": 4299,
      "ied": 4300,
      "ough": 4301,
      ",@": 4302,
      "@,@": 4303,
      "201": 4304,
      "mber": 4305,
      "can": 4306,
      "col": 4307,
      "ship": 4308,
      "ory": 4309,
      "ren": 4310,
      "est": 4311,
      "port": 4312,
      "tur": 4313,
      "time": 4314,
      "ite": 4315,
      "mon": 4316,
      "spe": 4317,
      "ance": 4318,
      "ade": 4319,
      "work": 4320,
      "ten": 4321,
      "gro": 4322,
      "arr": 4323,
      "when": 4324,
      "ved": 4325,
      "able": 4326,
      "fl": 4327,
      "ely": 4328,
      "fin": 4329,
      "io": 4330,
      "sion": 4331,
      "ep": 4332,
      "par": 4333,
      "incl": 4334,
      "fer": 4335,
      "ang": 4336,
      "ced": 4337,
      "during": 4338,
      "cord": 4339,
      "eng": 4340,
      "old": 4341,
      "sho": 4342,
      "fil": 4343,
      "gen": 4344,
      "ail": 4345,
      "way": 4346,
      "ations": 4347,
      "would": 4348,
      "vel": 4349,
      "into": 4350,
      "him": 4351,
      "most": 4352,
      "et": 4353,
      "more": 4354,
      "oc": 4355,
      "int": 4356,
      "sy": 4357,
      "coun": 4358,
      "om": 4359,
      "son": 4360,
      "char": 4361,
      "main": 4362,
      "fore": 4363,
      "rough": 4364,
      "some": 4365,
      "war": 4366,
      "sc": 4367,
      "ates": 4368,
      "day": 4369,
      "bec": 4370,
      "amp": 4371,
      "ton": 4372,
      "ase": 4373,
      "ased": 4374,
      "ces": 4375,
      "bet": 4376,
      "ited": 4377,
      "vie": 4378,
      "reg": 4379,
      "bu": 4380,
      "sing": 4381,
      "film": 4382,
      "while": 4383,
      "sou": 4384,
      "used": 4385,
      "und": 4386,
      "ason": 4387,
      "pu": 4388,
      "game": 4389,
      "includ": 4390,
      "pt": 4391,
      "med": 4392,
      "cond": 4393,
      "ric": 4394,
      "cess": 4395,
      "ning": 4396,
      "cted": 4397,
      "les": 4398,
      "ju": 4399,
      "under": 4400,
      "though": 4401,
      "gan": 4402,
      "there": 4403,
      "only": 4404,
      "than": 4405,
      "sel": 4406,
      "sa": 4407,
      "wr": 4408,
      "high": 4409,
      "produ": 4410,
      "ue": 4411,
      "king": 4412,
      "fol": 4413,
      "ild": 4414,
      "ious": 4415,
      "west": 4416,
      "sch": 4417,
      "later": 4418,
      "ors": 4419,
      "any": 4420,
      "mus": 4421,
      "song": 4422,
      "ger": 4423,
      "ix": 4424,
      "my": 4425,
      "bro": 4426,
      "again": 4427,
      "ann": 4428,
      "ot": 4429,
      "je": 4430,
      "may": 4431,
      "ions": 4432,
      "amer": 4433,
      "cap": 4434,
      "rel": 4435,
      "about": 4436,
      "three": 4437,
      "ween": 4438,
      "ath": 4439,
      "199": 4440,
      "eld": 4441,
      "ick": 4442,
      "vis": 4443,
      "between": 4444,
      "rele": 4445,
      "led": 4446,
      "through": 4447,
      "publ": 4448,
      "ating": 4449,
      "them": 4450,
      "ss": 4451,
      "gre": 4452,
      "record": 4453,
      "tain": 4454,
      "follow": 4455,
      "red": 4456,
      "pol": 4457,
      "ational": 4458,
      "kno": 4459,
      "second": 4460,
      "ele": 4461,
      "num": 4462,
      "where": 4463,
      "ra": 4464,
      "10": 4465,
      "als": 4466,
      "ict": 4467,
      "ens": 4468,
      "ward": 4469,
      "sub": 4470,
      "season": 4471,
      "ful": 4472,
      "lar": 4473,
      "ste": 4474,
      "turn": 4475,
      "car": 4476,
      "mat": 4477,
      "alb": 4478,
      "cur": 4479,
      "four": 4480,
      "world": 4481,
      "view": 4482,
      "back": 4483,
      "sur": 4484,
      "well": 4485,
      "men": 4486,
      "ting": 4487,
      "americ": 4488,
      "stru": 4489,
      "spec": 4490,
      "ident": 4491,
      "set": 4492,
      "north": 4493,
      "then": 4494,
      "la": 4495,
      "before": 4496,
      "ered": 4497,
      "team": 4498,
      "ames": 4499,
      "000": 4500,
      "made": 4501,
      "ters": 4502,
      "writ": 4503,
      "ular": 4504,
      "call": 4505,
      "mu": 4506,
      "mer": 4507,
      "many": 4508,
      "will": 4509,
      "such": 4510,
      "ived": 4511,
      "add": 4512,
      "mb": 4513,
      "loc": 4514,
      "cer": 4515,
      "bel": 4516,
      "ank": 4517,
      "album": 4518,
      "national": 4519,
      "17": 4520,
      "sup": 4521,
      "tem": 4522,
      "ings": 4523,
      "cons": 4524,
      "ished": 4525,
      "sever": 4526,
      "gener": 4527,
      "appe": 4528,
      "years": 4529,
      "ics": 4530,
      "tro": 4531,
      "ry": 4532,
      "15": 4533,
      "ta": 4534,
      "mis": 4535,
      "cy": 4536,
      "state": 4537,
      "serv": 4538,
      "ins": 4539,
      "howe": 4540,
      "mor": 4541,
      "mill": 4542,
      "mi": 4543,
      "ale": 4544,
      "south": 4545,
      "ific": 4546,
      "show": 4547,
      "both": 4548,
      "very": 4549,
      "ily": 4550,
      "ents": 4551,
      "however": 4552,
      "epis": 4553,
      "ped": 4554,
      "rece": 4555,
      "bur": 4556,
      "..": 4557,
      "music": 4558,
      "being": 4559,
      "these": 4560,
      "log": 4561,
      "lead": 4562,
      "stud": 4563,
      "series": 4564,
      "az": 4565,
      "ane": 4566,
      "ult": 4567,
      "sim": 4568,
      "uary": 4569,
      "against": 4570,
      "ments": 4571,
      "ual": 4572,
      "batt": 4573,
      "ond": 4574,
      "number": 4575,
      "charac": 4576,
      "vol": 4577,
      "ub": 4578,
      "ince": 4579,
      "hist": 4580,
      "line": 4581,
      "city": 4582,
      "soc": 4583,
      "arch": 4584,
      "ft": 4585,
      "found": 4586,
      "16": 4587,
      "velop": 4588,
      "brit": 4589,
      "iver": 4590,
      "appear": 4591,
      "tal": 4592,
      "leg": 4593,
      "12": 4594,
      "develop": 4595,
      "cro": 4596,
      "united": 4597,
      "ven": 4598,
      "win": 4599,
      "ause": 4600,
      "unt": 4601,
      "ef": 4602,
      "ob": 4603,
      "became": 4604,
      "down": 4605,
      "long": 4606,
      "dire": 4607,
      "east": 4608,
      "pop": 4609,
      "orig": 4610,
      "several": 4611,
      "including": 4612,
      "mil": 4613,
      "wer": 4614,
      "lin": 4615,
      "head": 4616,
      "ca": 4617,
      "oper": 4618,
      "hn": 4619,
      "feat": 4620,
      "early": 4621,
      "bor": 4622,
      "contin": 4623,
      "198": 4624,
      "known": 4625,
      "did": 4626,
      "stor": 4627,
      "ms": 4628,
      "ley": 4629,
      "ode": 4630,
      "pass": 4631,
      "nam": 4632,
      "ek": 4633,
      "let": 4634,
      "trans": 4635,
      "gover": 4636,
      "dif": 4637,
      "tre": 4638,
      "dist": 4639,
      "sul": 4640,
      "like": 4641,
      "origin": 4642,
      "cast": 4643,
      "194": 4644,
      "clo": 4645,
      "fi": 4646,
      "ended": 4647,
      "ii": 4648,
      "pers": 4649,
      "public": 4650,
      "ons": 4651,
      "cour": 4652,
      "bre": 4653,
      "ative": 4654,
      "suc": 4655,
      "ner": 4656,
      "div": 4657,
      "try": 4658,
      "ities": 4659,
      "30": 4660,
      "ange": 4661,
      "prov": 4662,
      "ures": 4663,
      "states": 4664,
      "episode": 4665,
      "crit": 4666,
      "ise": 4667,
      "rol": 4668,
      "john": 4669,
      "group": 4670,
      "jun": 4671,
      "hou": 4672,
      "said": 4673,
      "run": 4674,
      "following": 4675,
      "ird": 4676,
      "cle": 4677,
      "design": 4678,
      "ern": 4679,
      "peri": 4680,
      "could": 4681,
      "ury": 4682,
      "own": 4683,
      "vo": 4684,
      "american": 4685,
      "fam": 4686,
      "sk": 4687,
      "use": 4688,
      "although": 4689,
      "sign": 4690,
      "dec": 4691,
      "called": 4692,
      "del": 4693,
      "14": 4694,
      "jor": 4695,
      "roy": 4696,
      "sm": 4697,
      "sed": 4698,
      "197": 4699,
      "cover": 4700,
      "self": 4701,
      "196": 4702,
      "offic": 4703,
      "near": 4704,
      "ually": 4705,
      "present": 4706,
      "stem": 4707,
      "band": 4708,
      "descr": 4709,
      "remain": 4710,
      "life": 4711,
      "road": 4712,
      "hy": 4713,
      "bar": 4714,
      "gest": 4715,
      "began": 4716,
      "scho": 4717,
      "ball": 4718,
      "open": 4719,
      "13": 4720,
      "sen": 4721,
      "na": 4722,
      "ash": 4723,
      "until": 4724,
      "ople": 4725,
      "released": 4726,
      "ose": 4727,
      "aking": 4728,
      "school": 4729,
      "along": 4730,
      "because": 4731,
      "ided": 4732,
      "just": 4733,
      "ised": 4734,
      "ort": 4735,
      "success": 4736,
      "position": 4737,
      "dep": 4738,
      "house": 4739,
      "class": 4740,
      "ized": 4741,
      "ital": 4742,
      "ject": 4743,
      "var": 4744,
      "fa": 4745,
      "ivers": 4746,
      "come": 4747,
      "people": 4748,
      "you": 4749,
      "ium": 4750,
      "less": 4751,
      "place": 4752,
      "gust": 4753,
      "ron": 4754,
      "system": 4755,
      "ys": 4756,
      "ling": 4757,
      "ially": 4758,
      "hel": 4759,
      "week": 4760,
      "austr": 4761,
      "ists": 4762,
      "prev": 4763,
      "50": 4764,
      "million": 4765,
      "return": 4766,
      "test": 4767,
      "hal": 4768,
      "dy": 4769,
      "ier": 4770,
      "cut": 4771,
      "sco": 4772,
      "ham": 4773,
      "british": 4774,
      "tit": 4775,
      "since": 4776,
      "town": 4777,
      "best": 4778,
      "six": 4779,
      "around": 4780,
      "attack": 4781,
      "award": 4782,
      "book": 4783,
      "major": 4784,
      "sep": 4785,
      "field": 4786,
      "colle": 4787,
      "ible": 4788,
      "lit": 4789,
      "fect": 4790,
      "start": 4791,
      "each": 4792,
      "track": 4793,
      "read": 4794,
      "times": 4795,
      "build": 4796,
      "eu": 4797,
      "continu": 4798,
      "val": 4799,
      "now": 4800,
      "character": 4801,
      "requ": 4802,
      "govern": 4803,
      "ision": 4804,
      "tember": 4805,
      "grap": 4806,
      "care": 4807,
      "xt": 4808,
      "def": 4809,
      "star": 4810,
      "pen": 4811,
      "september": 4812,
      "har": 4813,
      "comple": 4814,
      "same": 4815,
      "took": 4816,
      "august": 4817,
      "plo": 4818,
      "stand": 4819,
      "plac": 4820,
      "final": 4821,
      "order": 4822,
      "top": 4823,
      "11": 4824,
      "resul": 4825,
      "que": 4826,
      "another": 4827,
      "five": 4828,
      "ble": 4829,
      "mid": 4830,
      "mal": 4831,
      "what": 4832,
      "ior": 4833,
      "km": 4834,
      "sl": 4835,
      "den": 4836,
      "get": 4837,
      "ired": 4838,
      "anc": 4839,
      "ri": 4840,
      "camp": 4841,
      "cal": 4842,
      "fur": 4843,
      "jan": 4844,
      "aving": 4845,
      "austral": 4846,
      "ress": 4847,
      "water": 4848,
      "formed": 4849,
      "area": 4850,
      "aim": 4851,
      "describ": 4852,
      "tour": 4853,
      "consid": 4854,
      "rest": 4855,
      "march": 4856,
      "ves": 4857,
      "ple": 4858,
      "ism": 4859,
      "aft": 4860,
      "gun": 4861,
      "met": 4862,
      "pat": 4863,
      "side": 4864,
      "mot": 4865,
      "century": 4866,
      "ks": 4867,
      "received": 4868,
      "ore": 4869,
      "home": 4870,
      "fle": 4871,
      "ctor": 4872,
      "yor": 4873,
      "octo": 4874,
      "due": 4875,
      "last": 4876,
      "small": 4877,
      "october": 4878,
      "urch": 4879,
      "ord": 4880,
      "gin": 4881,
      "ility": 4882,
      "contr": 4883,
      "person": 4884,
      "os": 4885,
      "even": 4886,
      "ives": 4887,
      "allow": 4888,
      "ically": 4889,
      "games": 4890,
      "match": 4891,
      "power": 4892,
      "chr": 4893,
      "mag": 4894,
      "tle": 4895,
      "pa": 4896,
      "partic": 4897,
      "adv": 4898,
      "thern": 4899,
      "government": 4900,
      "ket": 4901,
      "ked": 4902,
      "ground": 4903,
      "ians": 4904,
      "ison": 4905,
      "ately": 4906,
      "york": 4907,
      "command": 4908,
      "ines": 4909,
      "ief": 4910,
      "child": 4911,
      "june": 4912,
      "ina": 4913,
      "ported": 4914,
      "won": 4915,
      "third": 4916,
      "single": 4917,
      "resp": 4918,
      "general": 4919,
      "squ": 4920,
      "dam": 4921,
      "ril": 4922,
      "plan": 4923,
      "company": 4924,
      "force": 4925,
      "25": 4926,
      "july": 4927,
      "point": 4928,
      "ik": 4929,
      "wal": 4930,
      "played": 4931,
      "dece": 4932,
      "nove": 4933,
      "ional": 4934,
      "iving": 4935,
      "ient": 4936,
      "november": 4937,
      "sequ": 4938,
      "event": 4939,
      "ah": 4940,
      "list": 4941,
      "appro": 4942,
      "death": 4943,
      "reach": 4944,
      "sal": 4945,
      "review": 4946,
      "much": 4947,
      "ru": 4948,
      "island": 4949,
      "cas": 4950,
      "lish": 4951,
      "large": 4952,
      "short": 4953,
      "april": 4954,
      "bus": 4955,
      "differ": 4956,
      "name": 4957,
      "law": 4958,
      "organ": 4959,
      "posed": 4960,
      "kill": 4961,
      "aged": 4962,
      "battle": 4963,
      "accord": 4964,
      "story": 4965,
      "ages": 4966,
      "vide": 4967,
      "di": 4968,
      "ained": 4969,
      "rad": 4970,
      "univers": 4971,
      "family": 4972,
      "left": 4973,
      "gl": 4974,
      "went": 4975,
      "nat": 4976,
      "tt": 4977,
      "ively": 4978,
      "wood": 4979,
      "0s": 4980,
      "month": 4981,
      "idge": 4982,
      "hand": 4983,
      "ster": 4984,
      "vir": 4985,
      "ined": 4986,
      "based": 4987,
      "ague": 4988,
      "inc": 4989,
      "ude": 4990,
      "sum": 4991,
      "production": 4992,
      "addition": 4993,
      "club": 4994,
      "far": 4995,
      "incre": 4996,
      "thor": 4997,
      "black": 4998,
      "version": 4999,
      "ilt": 5000,
      "poin": 5001,
      "german": 5002,
      "thing": 5003,
      "history": 5004,
      "army": 5005,
      "ships": 5006,
      "ned": 5007,
      "december": 5008,
      "avy": 5009,
      "bat": 5010,
      "fic": 5011,
      "great": 5012,
      "named": 5013,
      "issu": 5014,
      "river": 5015,
      "hum": 5016,
      "fall": 5017,
      "moved": 5018,
      "dest": 5019,
      "according": 5020,
      "included": 5021,
      "poss": 5022,
      "claim": 5023,
      "rote": 5024,
      "constru": 5025,
      "sw": 5026,
      "using": 5027,
      "make": 5028,
      "january": 5029,
      "195": 5030,
      "fort": 5031,
      "gram": 5032,
      "ford": 5033,
      "wrote": 5034,
      "polit": 5035,
      "tak": 5036,
      "park": 5037,
      "193": 5038,
      "late": 5039,
      "ute": 5040,
      "euro": 5041,
      "24": 5042,
      "gy": 5043,
      "jap": 5044,
      "cept": 5045,
      "hor": 5046,
      "don": 5047,
      "carr": 5048,
      "species": 5049,
      "cho": 5050,
      "flu": 5051,
      "init": 5052,
      "sty": 5053,
      "real": 5054,
      "japan": 5055,
      "previous": 5056,
      "video": 5057,
      "ont": 5058,
      "pical": 5059,
      "champ": 5060,
      "ness": 5061,
      "bill": 5062,
      "post": 5063,
      "former": 5064,
      "original": 5065,
      "within": 5066,
      "lim": 5067,
      "still": 5068,
      "control": 5069,
      "described": 5070,
      "board": 5071,
      "ified": 5072,
      "ney": 5073,
      "those": 5074,
      "ution": 5075,
      "fact": 5076,
      "minist": 5077,
      "forman": 5078,
      "built": 5079,
      "ler": 5080,
      "rench": 5081,
      "next": 5082,
      "vict": 5083,
      "ark": 5084,
      "...": 5085,
      "uc": 5086,
      "commun": 5087,
      "storm": 5088,
      "mbers": 5089,
      "ps": 5090,
      "light": 5091,
      "put": 5092,
      "performan": 5093,
      "among": 5094,
      "release": 5095,
      "mc": 5096,
      "rus": 5097,
      "flo": 5098,
      "support": 5099,
      "further": 5100,
      "iven": 5101,
      "bert": 5102,
      "attem": 5103,
      "league": 5104,
      "pect": 5105,
      "fri": 5106,
      "ilar": 5107,
      "tele": 5108,
      "ants": 5109,
      "lab": 5110,
      "fac": 5111,
      "effect": 5112,
      "fel": 5113,
      "che": 5114,
      "foot": 5115,
      "ba": 5116,
      "placed": 5117,
      "bas": 5118,
      "bal": 5119,
      "days": 5120,
      "route": 5121,
      "vision": 5122,
      "white": 5123,
      "ared": 5124,
      "held": 5125,
      "christ": 5126,
      "ival": 5127,
      "sound": 5128,
      "scen": 5129,
      "night": 5130,
      "move": 5131,
      "cus": 5132,
      "stit": 5133,
      "ben": 5134,
      "say": 5135,
      "ured": 5136,
      "half": 5137,
      "iam": 5138,
      "milit": 5139,
      "similar": 5140,
      "division": 5141,
      "augh": 5142,
      "febr": 5143,
      "row": 5144,
      "february": 5145,
      "fire": 5146,
      "ow": 5147,
      "ral": 5148,
      "sold": 5149,
      "period": 5150,
      "22": 5151,
      "sent": 5152,
      "action": 5153,
      "mich": 5154,
      "president": 5155,
      "player": 5156,
      "anim": 5157,
      "100": 5158,
      "rock": 5159,
      "train": 5160,
      "vi": 5161,
      "good": 5162,
      "round": 5163,
      "blo": 5164,
      "prim": 5165,
      "church": 5166,
      "friend": 5167,
      "cup": 5168,
      "ences": 5169,
      "ator": 5170,
      "europe": 5171,
      "ny": 5172,
      "21": 5173,
      "youn": 5174,
      "station": 5175,
      "hur": 5176,
      "university": 5177,
      "wards": 5178,
      "gar": 5179,
      "take": 5180,
      "service": 5181,
      "stree": 5182,
      "french": 5183,
      "local": 5184,
      "members": 5185,
      "role": 5186,
      "ize": 5187,
      "estab": 5188,
      "mit": 5189,
      "hun": 5190,
      "pot": 5191,
      "fun": 5192,
      "dro": 5193,
      "came": 5194,
      "craft": 5195,
      "hol": 5196,
      "2010": 5197,
      "ga": 5198,
      "equ": 5199,
      "moun": 5200,
      "23": 5201,
      "non": 5202,
      "lan": 5203,
      "ats": 5204,
      "tor": 5205,
      "see": 5206,
      "having": 5207,
      "every": 5208,
      "continued": 5209,
      "key": 5210,
      "never": 5211,
      "william": 5212,
      "ones": 5213,
      "prof": 5214,
      "soci": 5215,
      "tech": 5216,
      "ights": 5217,
      "27": 5218,
      "ently": 5219,
      "ken": 5220,
      "ged": 5221,
      "chart": 5222,
      "chang": 5223,
      "sol": 5224,
      "ides": 5225,
      "associ": 5226,
      "often": 5227,
      "belie": 5228,
      "ending": 5229,
      "ulation": 5230,
      "desp": 5231,
      "histor": 5232,
      "2008": 5233,
      "28": 5234,
      "2009": 5235,
      "career": 5236,
      "court": 5237,
      "geor": 5238,
      "net": 5239,
      "ese": 5240,
      "wind": 5241,
      "logy": 5242,
      "wat": 5243,
      "cu": 5244,
      "lat": 5245,
      "champion": 5246,
      "2011": 5247,
      "26": 5248,
      "lu": 5249,
      "level": 5250,
      "40": 5251,
      "ars": 5252,
      "bridge": 5253,
      "ds": 5254,
      "different": 5255,
      "indu": 5256,
      "ched": 5257,
      "without": 5258,
      "once": 5259,
      "seven": 5260,
      "wall": 5261,
      "western": 5262,
      "pho": 5263,
      "ret": 5264,
      "despite": 5265,
      "england": 5266,
      "ha": 5267,
      "party": 5268,
      "considered": 5269,
      "free": 5270,
      "building": 5271,
      "rich": 5272,
      "enter": 5273,
      "app": 5274,
      "ctions": 5275,
      "author": 5276,
      "pur": 5277,
      "ving": 5278,
      "dav": 5279,
      "tropical": 5280,
      "vent": 5281,
      "development": 5282,
      "served": 5283,
      "written": 5284,
      "father": 5285,
      "hold": 5286,
      "2007": 5287,
      "country": 5288,
      "stead": 5289,
      "search": 5290,
      "ural": 5291,
      "few": 5292,
      "prote": 5293,
      "mp": 5294,
      "county": 5295,
      "super": 5296,
      "concer": 5297,
      "influ": 5298,
      "trad": 5299,
      "refer": 5300,
      "songs": 5301,
      "graph": 5302,
      "royal": 5303,
      "els": 5304,
      "ross": 5305,
      "moder": 5306,
      "ices": 5307,
      "english": 5308,
      "member": 5309,
      "sug": 5310,
      "military": 5311,
      "exp": 5312,
      "highway": 5313,
      "face": 5314,
      "given": 5315,
      "program": 5316,
      "elect": 5317,
      "press": 5318,
      "scor": 5319,
      "ref": 5320,
      "beh": 5321,
      "dan": 5322,
      "phil": 5323,
      "sit": 5324,
      "become": 5325,
      "2012": 5326,
      "forces": 5327,
      "little": 5328,
      "eder": 5329,
      "international": 5330,
      "lond": 5331,
      "lost": 5332,
      "strong": 5333,
      "ze": 5334,
      "hit": 5335,
      "29": 5336,
      "coast": 5337,
      "aver": 5338,
      "how": 5339,
      "london": 5340,
      "total": 5341,
      "sto": 5342,
      "uk": 5343,
      "aff": 5344,
      "invol": 5345,
      "street": 5346,
      "suggest": 5347,
      "body": 5348,
      "cir": 5349,
      "change": 5350,
      "front": 5351,
      "announ": 5352,
      "190": 5353,
      "sun": 5354,
      "ches": 5355,
      "mad": 5356,
      "sea": 5357,
      "hour": 5358,
      "iety": 5359,
      "right": 5360,
      "close": 5361,
      "rail": 5362,
      "away": 5363,
      "mass": 5364,
      "gave": 5365,
      "popular": 5366,
      "ports": 5367,
      "terr": 5368,
      "canad": 5369,
      "published": 5370,
      "decl": 5371,
      "ery": 5372,
      "successful": 5373,
      "represent": 5374,
      "sure": 5375,
      "mix": 5376,
      "find": 5377,
      "performance": 5378,
      "ards": 5379,
      "gold": 5380,
      "project": 5381,
      "produced": 5382,
      "live": 5383,
      "compe": 5384,
      "tw": 5385,
      "ops": 5386,
      "stated": 5387,
      "san": 5388,
      "ipt": 5389,
      "aren": 5390,
      "children": 5391,
      "lie": 5392,
      "returned": 5393,
      "suf": 5394,
      "ext": 5395,
      "broad": 5396,
      "base": 5397,
      "need": 5398,
      "bs": 5399,
      "fan": 5400,
      "common": 5401,
      "iment": 5402,
      "too": 5403,
      "hen": 5404,
      "struct": 5405,
      "fail": 5406,
      "grad": 5407,
      "making": 5408,
      "love": 5409,
      "mur": 5410,
      "fre": 5411,
      "quar": 5412,
      "ink": 5413,
      "reported": 5414,
      "ington": 5415,
      "look": 5416,
      "interest": 5417,
      "curren": 5418,
      "xim": 5419,
      "jack": 5420,
      "ae": 5421,
      "recorded": 5422,
      "writing": 5423,
      "cul": 5424,
      "teen": 5425,
      "particular": 5426,
      "television": 5427,
      "ably": 5428,
      "official": 5429,
      "2006": 5430,
      "aign": 5431,
      "ran": 5432,
      "aircraft": 5433,
      "special": 5434,
      "dou": 5435,
      "ission": 5436,
      "trav": 5437,
      "ama": 5438,
      "gn": 5439,
      "cross": 5440,
      "van": 5441,
      "campaign": 5442,
      "covered": 5443,
      "should": 5444,
      "studio": 5445,
      "stat": 5446,
      "import": 5447,
      "include": 5448,
      "room": 5449,
      "ns": 5450,
      "pal": 5451,
      "coming": 5452,
      "upon": 5453,
      "critic": 5454,
      "intro": 5455,
      "stone": 5456,
      "women": 5457,
      "direct": 5458,
      "central": 5459,
      "style": 5460,
      "cru": 5461,
      "ston": 5462,
      "arm": 5463,
      "cum": 5464,
      "hurric": 5465,
      "sex": 5466,
      "male": 5467,
      "throughout": 5468,
      "destroy": 5469,
      "anted": 5470,
      "fav": 5471,
      "nal": 5472,
      "ains": 5473,
      "vill": 5474,
      "hill": 5475,
      "hard": 5476,
      "mission": 5477,
      "young": 5478,
      "works": 5479,
      "sil": 5480,
      "depend": 5481,
      "ying": 5482,
      "himself": 5483,
      "tar": 5484,
      "died": 5485,
      "2013": 5486,
      "pit": 5487,
      "ws": 5488,
      "wing": 5489,
      "hon": 5490,
      "construction": 5491,
      "australia": 5492,
      "iness": 5493,
      "mel": 5494,
      "depart": 5495,
      "clear": 5496,
      "characters": 5497,
      "introdu": 5498,
      "cop": 5499,
      "commit": 5500,
      "ising": 5501,
      "big": 5502,
      "vest": 5503,
      "ges": 5504,
      "expl": 5505,
      "cost": 5506,
      "ni": 5507,
      "eight": 5508,
      "utes": 5509,
      "mark": 5510,
      "players": 5511,
      "located": 5512,
      "scr": 5513,
      "title": 5514,
      "189": 5515,
      "developed": 5516,
      "instead": 5517,
      "acy": 5518,
      "60": 5519,
      "squad": 5520,
      "wa": 5521,
      "southern": 5522,
      "ever": 5523,
      "james": 5524,
      "race": 5525,
      "sat": 5526,
      "saw": 5527,
      "result": 5528,
      "begin": 5529,
      "center": 5530,
      "grand": 5531,
      "hall": 5532,
      "alth": 5533,
      "inv": 5534,
      "across": 5535,
      "ino": 5536,
      "outs": 5537,
      "vil": 5538,
      "remained": 5539,
      "months": 5540,
      "conne": 5541,
      "break": 5542,
      "cell": 5543,
      "ways": 5544,
      "activ": 5545,
      "dom": 5546,
      "signific": 5547,
      "akes": 5548,
      "political": 5549,
      "pan": 5550,
      "pra": 5551,
      "modern": 5552,
      "gress": 5553,
      "taken": 5554,
      "itions": 5555,
      "various": 5556,
      "bow": 5557,
      "fif": 5558,
      "born": 5559,
      "ither": 5560,
      "ago": 5561,
      "ability": 5562,
      "bul": 5563,
      "aster": 5564,
      "hurricane": 5565,
      "ka": 5566,
      "ban": 5567,
      "experi": 5568,
      "toge": 5569,
      "iers": 5570,
      "mm": 5571,
      "seen": 5572,
      "conf": 5573,
      "together": 5574,
      "hot": 5575,
      "felt": 5576,
      "ff": 5577,
      "formation": 5578,
      "commission": 5579,
      "ibut": 5580,
      "office": 5581,
      "cil": 5582,
      "america": 5583,
      "stage": 5584,
      "ey": 5585,
      "ament": 5586,
      "created": 5587,
      "erc": 5588,
      "bed": 5589,
      "full": 5590,
      "miles": 5591,
      "industr": 5592,
      "ances": 5593,
      "areas": 5594,
      "noted": 5595,
      "colon": 5596,
      "ls": 5597,
      "announced": 5598,
      "hu": 5599,
      "eventually": 5600,
      "appeared": 5601,
      "itor": 5602,
      "brother": 5603,
      "tic": 5604,
      "pain": 5605,
      "college": 5606,
      "george": 5607,
      "reached": 5608,
      "ming": 5609,
      "fight": 5610,
      "engine": 5611,
      "got": 5612,
      "rap": 5613,
      "tens": 5614,
      "mother": 5615,
      "mir": 5616,
      "occur": 5617,
      "pression": 5618,
      "gree": 5619,
      "sele": 5620,
      "aval": 5621,
      "northern": 5622,
      "case": 5623,
      "rain": 5624,
      "gg": 5625,
      "2005": 5626,
      "japanese": 5627,
      "dre": 5628,
      "performed": 5629,
      "process": 5630,
      "abo": 5631,
      "range": 5632,
      "heavy": 5633,
      "points": 5634,
      "tail": 5635,
      "followed": 5636,
      "civ": 5637,
      "meet": 5638,
      "gir": 5639,
      "viet": 5640,
      "sus": 5641,
      "pair": 5642,
      "iting": 5643,
      "sour": 5644,
      "bank": 5645,
      "2014": 5646,
      "ization": 5647,
      "help": 5648,
      "mac": 5649,
      "pted": 5650,
      "debut": 5651,
      "human": 5652,
      "wide": 5653,
      "mean": 5654,
      "wash": 5655,
      "football": 5656,
      "atic": 5657,
      "antic": 5658,
      "section": 5659,
      "treat": 5660,
      "cat": 5661,
      "profess": 5662,
      "ties": 5663,
      "ko": 5664,
      "idence": 5665,
      "significant": 5666,
      "killed": 5667,
      "playing": 5668,
      "mph": 5669,
      "ring": 5670,
      "han": 5671,
      "nes": 5672,
      "harr": 5673,
      "termin": 5674,
      "green": 5675,
      "brown": 5676,
      "qual": 5677,
      "spr": 5678,
      "current": 5679,
      "relation": 5680,
      "lished": 5681,
      "ption": 5682,
      "itive": 5683,
      "thought": 5684,
      "thom": 5685,
      "whe": 5686,
      "does": 5687,
      "wil": 5688,
      "ues": 5689,
      "soon": 5690,
      "micha": 5691,
      "established": 5692,
      "reco": 5693,
      "tru": 5694,
      "pie": 5695,
      "originally": 5696,
      "lines": 5697,
      "lower": 5698,
      "mas": 5699,
      "angel": 5700,
      "voc": 5701,
      "ought": 5702,
      "quest": 5703,
      "others": 5704,
      "thre": 5705,
      "subsequ": 5706,
      "spir": 5707,
      "cred": 5708,
      "director": 5709,
      "vin": 5710,
      "sci": 5711,
      "dem": 5712,
      "nel": 5713,
      "david": 5714,
      "started": 5715,
      "enced": 5716,
      "entire": 5717,
      "exe": 5718,
      "tee": 5719,
      "australian": 5720,
      "cret": 5721,
      "features": 5722,
      "invest": 5723,
      "nine": 5724,
      "econ": 5725,
      "surv": 5726,
      "scre": 5727,
      "econom": 5728,
      "decided": 5729,
      "assist": 5730,
      "business": 5731,
      "aves": 5732,
      "critics": 5733,
      "pred": 5734,
      "afric": 5735,
      "feet": 5736,
      "caused": 5737,
      "union": 5738,
      "80": 5739,
      "civil": 5740,
      "mater": 5741,
      "jud": 5742,
      "loss": 5743,
      "site": 5744,
      "rather": 5745,
      "fourth": 5746,
      "opened": 5747,
      "fleet": 5748,
      "ids": 5749,
      "ample": 5750,
      "aring": 5751,
      "added": 5752,
      "iss": 5753,
      "bc": 5754,
      "acc": 5755,
      "ime": 5756,
      "important": 5757,
      "sam": 5758,
      "independ": 5759,
      "exist": 5760,
      "jour": 5761,
      "radio": 5762,
      "research": 5763,
      "behind": 5764,
      "magaz": 5765,
      "rid": 5766,
      "uses": 5767,
      "mart": 5768,
      "ators": 5769,
      "educ": 5770,
      "medi": 5771,
      "here": 5772,
      "tra": 5773,
      "championship": 5774,
      "impro": 5775,
      "anti": 5776,
      "comment": 5777,
      "ivid": 5778,
      "fish": 5779,
      "space": 5780,
      "possible": 5781,
      "ply": 5782,
      "population": 5783,
      "leading": 5784,
      "pract": 5785,
      "rought": 5786,
      "guns": 5787,
      "novel": 5788,
      "theast": 5789,
      "completed": 5790,
      "eastern": 5791,
      "tom": 5792,
      "ox": 5793,
      "damage": 5794,
      "logical": 5795,
      "vic": 5796,
      "leader": 5797,
      "bay": 5798,
      "thus": 5799,
      "almost": 5800,
      "bell": 5801,
      "ram": 5802,
      "inst": 5803,
      "peak": 5804,
      "bin": 5805,
      "working": 5806,
      "worked": 5807,
      "indian": 5808,
      "region": 5809,
      "boy": 5810,
      "ky": 5811,
      "michael": 5812,
      "awards": 5813,
      "initially": 5814,
      "social": 5815,
      "gal": 5816,
      "type": 5817,
      "lack": 5818,
      "kingdom": 5819,
      "inj": 5820,
      "consist": 5821,
      "2004": 5822,
      "ilo": 5823,
      "oney": 5824,
      "die": 5825,
      "bey": 5826,
      "ith": 5827,
      "cts": 5828,
      "lou": 5829,
      "los": 5830,
      "bio": 5831,
      "demo": 5832,
      "mult": 5833,
      "31": 5834,
      "bit": 5835,
      "midd": 5836,
      "proble": 5837,
      "hab": 5838,
      "mes": 5839,
      "forced": 5840,
      "attr": 5841,
      "alter": 5842,
      "tradition": 5843,
      "draw": 5844,
      "itar": 5845,
      "individ": 5846,
      "bon": 5847,
      "ceed": 5848,
      "cult": 5849,
      "scene": 5850,
      "separ": 5851,
      "vers": 5852,
      "70": 5853,
      "personal": 5854,
      "ensive": 5855,
      "god": 5856,
      "regular": 5857,
      "laun": 5858,
      "weeks": 5859,
      "anch": 5860,
      "box": 5861,
      "france": 5862,
      "2015": 5863,
      "mary": 5864,
      "respect": 5865,
      "ius": 5866,
      "fig": 5867,
      "hip": 5868,
      "ana": 5869,
      "recording": 5870,
      "diffic": 5871,
      "rank": 5872,
      "operation": 5873,
      "execut": 5874,
      "towards": 5875,
      "term": 5876,
      "ray": 5877,
      "emplo": 5878,
      "tained": 5879,
      "35": 5880,
      "approach": 5881,
      "ris": 5882,
      "joined": 5883,
      "reve": 5884,
      "compan": 5885,
      "avail": 5886,
      "council": 5887,
      "ature": 5888,
      "ready": 5889,
      "chief": 5890,
      "bomb": 5891,
      "wanted": 5892,
      "ica": 5893,
      "attempt": 5894,
      "ata": 5895,
      "tell": 5896,
      "henry": 5897,
      "host": 5898,
      "mith": 5899,
      "pointed": 5900,
      "material": 5901,
      "goal": 5902,
      "russ": 5903,
      "aud": 5904,
      "188": 5905,
      "allowed": 5906,
      "records": 5907,
      "ker": 5908,
      "ency": 5909,
      "recogn": 5910,
      "rul": 5911,
      "training": 5912,
      "ping": 5913,
      "scored": 5914,
      "ager": 5915,
      "pac": 5916,
      "fly": 5917,
      "bir": 5918,
      "wife": 5919,
      "navy": 5920,
      "provided": 5921,
      "least": 5922,
      "quick": 5923,
      "nia": 5924,
      "counter": 5925,
      "secret": 5926,
      "asing": 5927,
      "fund": 5928,
      "ax": 5929,
      "crew": 5930,
      "shot": 5931,
      "emy": 5932,
      "claimed": 5933,
      "nomin": 5934,
      "earth": 5935,
      "brig": 5936,
      "dut": 5937,
      "labor": 5938,
      "average": 5939,
      "brought": 5940,
      "past": 5941,
      "priv": 5942,
      "bird": 5943,
      "feder": 5944,
      "know": 5945,
      "phys": 5946,
      "tempor": 5947,
      "500": 5948,
      "featured": 5949,
      "corpor": 5950,
      "estim": 5951,
      "either": 5952,
      "memor": 5953,
      "proper": 5954,
      "asy": 5955,
      "model": 5956,
      "ened": 5957,
      "redu": 5958,
      "ends": 5959,
      "stop": 5960,
      "lap": 5961,
      "istic": 5962,
      "regard": 5963,
      "ville": 5964,
      "fut": 5965,
      "summer": 5966,
      "lier": 5967,
      "keep": 5968,
      "passed": 5969,
      "mun": 5970,
      "castle": 5971,
      "hig": 5972,
      "victory": 5973,
      "must": 5974,
      "aper": 5975,
      "bound": 5976,
      "troops": 5977,
      "pay": 5978,
      "victor": 5979,
      "generally": 5980,
      "captain": 5981,
      "forms": 5982,
      "washington": 5983,
      "defe": 5984,
      "runs": 5985,
      "ai": 5986,
      "gian": 5987,
      "ister": 5988,
      "robert": 5989,
      "186": 5990,
      "prison": 5991,
      "cycl": 5992,
      "igned": 5993,
      "bad": 5994,
      "ration": 5995,
      "example": 5996,
      "yed": 5997,
      "span": 5998,
      "events": 5999,
      "magazine": 6000,
      "condu": 6001,
      "ense": 6002,
      "revol": 6003,
      "beat": 6004,
      "aven": 6005,
      "republic": 6006,
      "rac": 6007,
      "leng": 6008,
      "ake": 6009,
      "concl": 6010,
      "cali": 6011,
      "cing": 6012,
      "dark": 6013,
      "finished": 6014,
      "ony": 6015,
      "ention": 6016,
      "hest": 6017,
      "paul": 6018,
      "speed": 6019,
      "spo": 6020,
      "middle": 6021,
      "xic": 6022,
      "compl": 6023,
      "battal": 6024,
      "fu": 6025,
      "ential": 6026,
      "2003": 6027,
      "imin": 6028,
      "opening": 6029,
      "particip": 6030,
      "aut": 6031,
      "ades": 6032,
      "designed": 6033,
      "tex": 6034,
      "certain": 6035,
      "hours": 6036,
      "squadron": 6037,
      "media": 6038,
      "lot": 6039,
      "writer": 6040,
      "parts": 6041,
      "relig": 6042,
      "drop": 6043,
      "iple": 6044,
      "believed": 6045,
      "ald": 6046,
      "ering": 6047,
      "police": 6048,
      "ification": 6049,
      "chest": 6050,
      "comes": 6051,
      "taking": 6052,
      "stant": 6053,
      "cou": 6054,
      "bour": 6055,
      "indic": 6056,
      "hop": 6057,
      "lake": 6058,
      "suffer": 6059,
      "beginning": 6060,
      "available": 6061,
      "jer": 6062,
      "lands": 6063,
      "going": 6064,
      "roman": 6065,
      "replaced": 6066,
      "winds": 6067,
      "prior": 6068,
      "bi": 6069,
      "atl": 6070,
      "45": 6071,
      "iction": 6072,
      "hous": 6073,
      "tv": 6074,
      "langu": 6075,
      "75": 6076,
      "minutes": 6077,
      "involved": 6078,
      "distric": 6079,
      "nd": 6080,
      "european": 6081,
      "erous": 6082,
      "active": 6083,
      "sey": 6084,
      "emp": 6085,
      "earlier": 6086,
      "plat": 6087,
      "heart": 6088,
      "cher": 6089,
      "turned": 6090,
      "society": 6091,
      "hib": 6092,
      "ush": 6093,
      "length": 6094,
      "staff": 6095,
      "appearance": 6096,
      "saying": 6097,
      "lord": 6098,
      "commerc": 6099,
      "respons": 6100,
      "immedi": 6101,
      "agre": 6102,
      "stre": 6103,
      "ida": 6104,
      "2000": 6105,
      "association": 6106,
      "nu": 6107,
      "lik": 6108,
      "news": 6109,
      "gs": 6110,
      "deal": 6111,
      "mountain": 6112,
      "films": 6113,
      "administ": 6114,
      "particularly": 6115,
      "highest": 6116,
      "largest": 6117,
      "scott": 6118,
      "issue": 6119,
      "smith": 6120,
      "asked": 6121,
      "achie": 6122,
      "virgin": 6123,
      "percent": 6124,
      "meas": 6125,
      "aled": 6126,
      "better": 6127,
      "cks": 6128,
      "typ": 6129,
      "2001": 6130,
      "icle": 6131,
      "lear": 6132,
      "reason": 6133,
      "mach": 6134,
      "daugh": 6135,
      "plot": 6136,
      "mou": 6137,
      "date": 6138,
      "graphy": 6139,
      "cam": 6140,
      "90": 6141,
      "ather": 6142,
      "guard": 6143,
      "outside": 6144,
      "tries": 6145,
      "tou": 6146,
      "native": 6147,
      "charles": 6148,
      "promo": 6149,
      "thomas": 6150,
      "units": 6151,
      "signed": 6152,
      "ument": 6153,
      "weak": 6154,
      "fit": 6155,
      "increased": 6156,
      "pul": 6157,
      "feel": 6158,
      "anned": 6159,
      "fest": 6160,
      "dig": 6161,
      "reviews": 6162,
      "praised": 6163,
      "load": 6164,
      "motion": 6165,
      "pressed": 6166,
      "da": 6167,
      "community": 6168,
      "infan": 6169,
      "acad": 6170,
      "future": 6171,
      "ateg": 6172,
      "pected": 6173,
      "audi": 6174,
      "califor": 6175,
      "ored": 6176,
      "governor": 6177,
      "era": 6178,
      "mic": 6179,
      "coach": 6180,
      "ci": 6181,
      "relationship": 6182,
      "liter": 6183,
      "broadcast": 6184,
      "ike": 6185,
      "agon": 6186,
      "additional": 6187,
      "above": 6188,
      "2002": 6189,
      "peter": 6190,
      "ape": 6191,
      "enough": 6192,
      "theat": 6193,
      "natural": 6194,
      "ordered": 6195,
      "usually": 6196,
      "canada": 6197,
      "ried": 6198,
      "ples": 6199,
      "lay": 6200,
      "guitar": 6201,
      "complete": 6202,
      "acqu": 6203,
      "stra": 6204,
      "anal": 6205,
      "give": 6206,
      "viol": 6207,
      "iding": 6208,
      "domin": 6209,
      "acted": 6210,
      "standing": 6211,
      "access": 6212,
      "constit": 6213,
      "accoun": 6214,
      "previously": 6215,
      "dead": 6216,
      "capt": 6217,
      "tax": 6218,
      "musical": 6219,
      "rights": 6220,
      "resident": 6221,
      "told": 6222,
      "ded": 6223,
      "ayed": 6224,
      "ilities": 6225,
      "minor": 6226,
      "chap": 6227,
      "infantry": 6228,
      "critical": 6229,
      "committee": 6230,
      "occup": 6231,
      "richard": 6232,
      "ener": 6233,
      "instit": 6234,
      "premi": 6235,
      "elements": 6236,
      "lee": 6237,
      "threat": 6238,
      "dev": 6239,
      "positive": 6240,
      "defin": 6241,
      "argu": 6242,
      "california": 6243,
      "imp": 6244,
      "colum": 6245,
      "woman": 6246,
      "recent": 6247,
      "ases": 6248,
      "emer": 6249,
      "metres": 6250,
      "amoun": 6251,
      "explo": 6252,
      "food": 6253,
      "ference": 6254,
      "arily": 6255,
      "word": 6256,
      "appointed": 6257,
      "pow": 6258,
      "money": 6259,
      "female": 6260,
      "berg": 6261,
      "travel": 6262,
      "background": 6263,
      "pec": 6264,
      "report": 6265,
      "asse": 6266,
      "spent": 6267,
      "contribut": 6268,
      "blue": 6269,
      "difficult": 6270,
      "phy": 6271,
      "bers": 6272,
      "alex": 6273,
      "iff": 6274,
      "rup": 6275,
      "overall": 6276,
      "screen": 6277,
      "photo": 6278,
      "groups": 6279,
      "frank": 6280,
      "reser": 6281,
      "directed": 6282,
      "pun": 6283,
      "flood": 6284,
      "lor": 6285,
      "tun": 6286,
      "perform": 6287,
      "ctive": 6288,
      "structure": 6289,
      "nation": 6290,
      "interview": 6291,
      "failed": 6292,
      "poor": 6293,
      "barr": 6294,
      "health": 6295,
      "onto": 6296,
      "square": 6297,
      "lad": 6298,
      "yard": 6299,
      "prepar": 6300,
      "prob": 6301,
      "required": 6302,
      "usion": 6303,
      "hap": 6304,
      "reng": 6305,
      "len": 6306,
      "fant": 6307,
      "appl": 6308,
      "ara": 6309,
      "india": 6310,
      "respond": 6311,
      "card": 6312,
      "187": 6313,
      "christian": 6314,
      "limited": 6315,
      "wit": 6316,
      "actions": 6317,
      "science": 6318,
      "germany": 6319,
      "district": 6320,
      "zer": 6321,
      "itself": 6322,
      "evidence": 6323,
      "sometimes": 6324,
      "frequ": 6325,
      "vert": 6326,
      "changes": 6327,
      "odes": 6328,
      "introduced": 6329,
      "rating": 6330,
      "reception": 6331,
      "seem": 6332,
      "commercial": 6333,
      "deep": 6334,
      "ibility": 6335,
      "tured": 6336,
      "contract": 6337,
      "election": 6338,
      "idea": 6339,
      "iii": 6340,
      "course": 6341,
      "ultim": 6342,
      "streng": 6343,
      "clim": 6344,
      "transfer": 6345,
      "battalion": 6346,
      "gard": 6347,
      "tu": 6348,
      "stars": 6349,
      "investig": 6350,
      "except": 6351,
      "study": 6352,
      "ien": 6353,
      "turning": 6354,
      "living": 6355,
      "exper": 6356,
      "flow": 6357,
      "bud": 6358,
      "flight": 6359,
      "lam": 6360,
      "score": 6361,
      "whose": 6362,
      "avo": 6363,
      "burg": 6364,
      "cit": 6365,
      "mexic": 6366,
      "igan": 6367,
      "already": 6368,
      "situ": 6369,
      "worth": 6370,
      "approxim": 6371,
      "compet": 6372,
      "agree": 6373,
      "onse": 6374,
      "defeated": 6375,
      "flor": 6376,
      "queen": 6377,
      "chic": 6378,
      "education": 6379,
      "muse": 6380,
      "whom": 6381,
      "minister": 6382,
      "chester": 6383,
      "might": 6384,
      "names": 6385,
      "bot": 6386,
      "forest": 6387,
      "students": 6388,
      "changed": 6389,
      "kets": 6390,
      "va": 6391,
      "sand": 6392,
      "hosp": 6393,
      "quickly": 6394,
      "hero": 6395,
      "entertain": 6396,
      "slow": 6397,
      "hood": 6398,
      "effects": 6399,
      "surface": 6400,
      "33": 6401,
      "cele": 6402,
      "erson": 6403,
      "favor": 6404,
      "gas": 6405,
      "transport": 6406,
      "movement": 6407,
      "ching": 6408,
      "cm": 6409,
      "tracks": 6410,
      "response": 6411,
      "girl": 6412,
      "oly": 6413,
      "subject": 6414,
      "nar": 6415,
      "prevent": 6416,
      "plant": 6417,
      "scenes": 6418,
      "horse": 6419,
      "aining": 6420,
      "your": 6421,
      "greg": 6422,
      "commander": 6423,
      "moving": 6424,
      "decision": 6425,
      "adap": 6426,
      "fifth": 6427,
      "espec": 6428,
      "department": 6429,
      "fair": 6430,
      "centre": 6431,
      "related": 6432,
      "sons": 6433,
      "agreed": 6434,
      "arrived": 6435,
      "join": 6436,
      "especially": 6437,
      "likely": 6438,
      "services": 6439,
      "britain": 6440,
      "museum": 6441,
      "quarter": 6442,
      "consider": 6443,
      "parli": 6444,
      "blood": 6445,
      "text": 6446,
      "teams": 6447,
      "iel": 6448,
      "tho": 6449,
      "suit": 6450,
      "voice": 6451,
      "trial": 6452,
      "shows": 6453,
      "chan": 6454,
      "village": 6455,
      "object": 6456,
      "wel": 6457,
      "tons": 6458,
      "fell": 6459,
      "depression": 6460,
      "nings": 6461,
      "nic": 6462,
      "operations": 6463,
      "industry": 6464,
      "lyric": 6465,
      "flag": 6466,
      "larger": 6467,
      "aint": 6468,
      "estimated": 6469,
      "becoming": 6470,
      "size": 6471,
      "36": 6472,
      "docum": 6473,
      "listed": 6474,
      "daughter": 6475,
      "cting": 6476,
      "pil": 6477,
      "episodes": 6478,
      "discus": 6479,
      "parliament": 6480,
      "carried": 6481,
      "remaining": 6482,
      "legal": 6483,
      "latter": 6484,
      "polic": 6485,
      "establish": 6486,
      "married": 6487,
      "escap": 6488,
      "rate": 6489,
      "glo": 6490,
      "eds": 6491,
      "pressure": 6492,
      "winter": 6493,
      "spring": 6494,
      "cand": 6495,
      "running": 6496,
      "princ": 6497,
      "1999": 6498,
      "brief": 6499,
      "37": 6500,
      "upper": 6501,
      "complet": 6502,
      "via": 6503,
      "surround": 6504,
      "naval": 6505,
      "kr": 6506,
      "leaving": 6507,
      "chall": 6508,
      "virginia": 6509,
      "syn": 6510,
      "winning": 6511,
      "atory": 6512,
      "cree": 6513,
      "entered": 6514,
      "paren": 6515,
      "sess": 6516,
      "aging": 6517,
      "pose": 6518,
      "suggested": 6519,
      "ll": 6520,
      "prin": 6521,
      "equip": 6522,
      "tural": 6523,
      "ander": 6524,
      "books": 6525,
      "temporary": 6526,
      "nearly": 6527,
      "influence": 6528,
      "secur": 6529,
      "twent": 6530,
      "icted": 6531,
      "approximately": 6532,
      "intens": 6533,
      "experience": 6534,
      "occas": 6535,
      "iation": 6536,
      "capital": 6537,
      "location": 6538,
      "deb": 6539,
      "stad": 6540,
      "language": 6541,
      "hi": 6542,
      "ses": 6543,
      "shortly": 6544,
      "envir": 6545,
      "islands": 6546,
      "network": 6547,
      "jackson": 6548,
      "empire": 6549,
      "today": 6550,
      "38": 6551,
      "regiment": 6552,
      "sky": 6553,
      "mixed": 6554,
      "finally": 6555,
      "forward": 6556,
      "grow": 6557,
      "aries": 6558,
      "mr": 6559,
      "federal": 6560,
      "shire": 6561,
      "tery": 6562,
      "purch": 6563,
      "detail": 6564,
      "louis": 6565,
      "meth": 6566,
      "proposed": 6567,
      "nature": 6568,
      "pon": 6569,
      "producer": 6570,
      "manager": 6571,
      "olymp": 6572,
      "49": 6573,
      "32": 6574,
      "bring": 6575,
      "higher": 6576,
      "aker": 6577,
      "ging": 6578,
      "destroyed": 6579,
      "err": 6580,
      "ams": 6581,
      "master": 6582,
      "selves": 6583,
      "environ": 6584,
      "corps": 6585,
      "professional": 6586,
      "create": 6587,
      "intended": 6588,
      "spanish": 6589,
      "pts": 6590,
      "provide": 6591,
      "railway": 6592,
      "color": 6593,
      "unit": 6594,
      "democr": 6595,
      "journal": 6596,
      "subsequently": 6597,
      "friends": 6598,
      "captured": 6599,
      "brigade": 6600,
      "supported": 6601,
      "compared": 6602,
      "done": 6603,
      "fill": 6604,
      "fully": 6605,
      "ays": 6606,
      "battles": 6607,
      "temper": 6608,
      "fans": 6609,
      "ishing": 6610,
      "immediately": 6611,
      "complex": 6612,
      "soviet": 6613,
      "actor": 6614,
      "kar": 6615,
      "jim": 6616,
      "private": 6617,
      "liber": 6618,
      "expected": 6619,
      "birth": 6620,
      "mouth": 6621,
      "scient": 6622,
      "block": 6623,
      "py": 6624,
      "weap": 6625,
      "inese": 6626,
      "yet": 6627,
      "edward": 6628,
      "planned": 6629,
      "stan": 6630,
      "initial": 6631,
      "feature": 6632,
      "chicago": 6633,
      "agement": 6634,
      "comb": 6635,
      "awarded": 6636,
      "ya": 6637,
      "iron": 6638,
      "increasing": 6639,
      "archite": 6640,
      "whether": 6641,
      "icles": 6642,
      "helped": 6643,
      "closed": 6644,
      "haw": 6645,
      "ribut": 6646,
      "legis": 6647,
      "acting": 6648,
      "comed": 6649,
      "chinese": 6650,
      "marked": 6651,
      "arg": 6652,
      "trade": 6653,
      "cel": 6654,
      "1998": 6655,
      "ado": 6656,
      "issued": 6657,
      "officer": 6658,
      "ull": 6659,
      "bury": 6660,
      "fast": 6661,
      "secut": 6662,
      "kin": 6663,
      "dance": 6664,
      "jose": 6665,
      "longer": 6666,
      "bish": 6667,
      "mig": 6668,
      "buildings": 6669,
      "prince": 6670,
      "185": 6671,
      "conserv": 6672,
      "soldiers": 6673,
      "insp": 6674,
      "billboard": 6675,
      "nick": 6676,
      "cause": 6677,
      "teach": 6678,
      "phen": 6679,
      "acts": 6680,
      "valley": 6681,
      "rang": 6682,
      "sail": 6683,
      "dol": 6684,
      "plans": 6685,
      "34": 6686,
      "positions": 6687,
      "300": 6688,
      "relat": 6689,
      "instr": 6690,
      "standard": 6691,
      "gins": 6692,
      "distribut": 6693,
      "associated": 6694,
      "martin": 6695,
      "something": 6696,
      "ordin": 6697,
      "ipal": 6698,
      "atlantic": 6699,
      "step": 6700,
      "auto": 6701,
      "officers": 6702,
      "oh": 6703,
      "singles": 6704,
      "johnson": 6705,
      "remains": 6706,
      "exam": 6707,
      "mostly": 6708,
      "trib": 6709,
      "themselves": 6710,
      "pacific": 6711,
      "pict": 6712,
      "franc": 6713,
      "want": 6714,
      "thr": 6715,
      "stic": 6716,
      "demon": 6717,
      "defeat": 6718,
      "1st": 6719,
      "countries": 6720,
      "oce": 6721,
      "extended": 6722,
      "kilo": 6723,
      "ender": 6724,
      "anna": 6725,
      "kore": 6726,
      "information": 6727,
      "lyrics": 6728,
      "gue": 6729,
      "visit": 6730,
      "48": 6731,
      "really": 6732,
      "market": 6733,
      "traf": 6734,
      "probably": 6735,
      "ises": 6736,
      "habit": 6737,
      "ona": 6738,
      "financ": 6739,
      "numerous": 6740,
      "dies": 6741,
      "sett": 6742,
      "mont": 6743,
      "singer": 6744,
      "repe": 6745,
      "dun": 6746,
      "ula": 6747,
      "appears": 6748,
      "hus": 6749,
      "scot": 6750,
      "copies": 6751,
      "saur": 6752,
      "admir": 6753,
      "portr": 6754,
      "kind": 6755,
      "awn": 6756,
      "always": 6757,
      "affe": 6758,
      "aught": 6759,
      "cham": 6760,
      "goals": 6761,
      "mitted": 6762,
      "demand": 6763,
      "tank": 6764,
      "china": 6765,
      "issues": 6766,
      "sales": 6767,
      "amed": 6768,
      "request": 6769,
      "marine": 6770,
      "individual": 6771,
      "thes": 6772,
      "uni": 6773,
      "lock": 6774,
      "energy": 6775,
      "psy": 6776,
      "1997": 6777,
      "congress": 6778,
      "leave": 6779,
      "sor": 6780,
      "artist": 6781,
      "takes": 6782,
      "conference": 6783,
      "includes": 6784,
      "ye": 6785,
      "jected": 6786,
      "neg": 6787,
      "status": 6788,
      "mess": 6789,
      "andon": 6790,
      "zo": 6791,
      "edition": 6792,
      "maxim": 6793,
      "edge": 6794,
      "39": 6795,
      "suffered": 6796,
      "hospital": 6797,
      "florida": 6798,
      "yards": 6799,
      "expand": 6800,
      "movie": 6801,
      "weight": 6802,
      "inspired": 6803,
      "albums": 6804,
      "problems": 6805,
      "sir": 6806,
      "meeting": 6807,
      "47": 6808,
      "spect": 6809,
      "drum": 6810,
      "wild": 6811,
      "revolution": 6812,
      "letter": 6813,
      "loy": 6814,
      "double": 6815,
      "attacks": 6816,
      "stock": 6817,
      "confir": 6818,
      "increase": 6819,
      "icket": 6820,
      "independent": 6821,
      "uded": 6822,
      "script": 6823,
      "makes": 6824,
      "spl": 6825,
      "fighting": 6826,
      "bond": 6827,
      "metal": 6828,
      "geo": 6829,
      "bass": 6830,
      "celebr": 6831,
      "removed": 6832,
      "minute": 6833,
      "texas": 6834,
      "andre": 6835,
      "pool": 6836,
      "method": 6837,
      "forts": 6838,
      "refle": 6839,
      "fox": 6840,
      "foreign": 6841,
      "portion": 6842,
      "offered": 6843,
      "cruis": 6844,
      "majority": 6845,
      "ena": 6846,
      "veh": 6847,
      "terms": 6848,
      "creek": 6849,
      "primary": 6850,
      "words": 6851,
      "dv": 6852,
      "males": 6853,
      "rd": 6854,
      "oil": 6855,
      "shoot": 6856,
      "impact": 6857,
      "restr": 6858,
      "thur": 6859,
      "sell": 6860,
      "alle": 6861,
      "combat": 6862,
      "dail": 6863,
      "composed": 6864,
      "adop": 6865,
      "breed": 6866,
      "wid": 6867,
      "culture": 6868,
      "discovered": 6869,
      "wis": 6870,
      "ift": 6871,
      "convent": 6872,
      "peace": 6873,
      "entertainment": 6874,
      "assigned": 6875,
      "concept": 6876,
      "carol": 6877,
      "ranked": 6878,
      "think": 6879,
      "giving": 6880,
      "uck": 6881,
      "figh": 6882,
      "smo": 6883,
      "thir": 6884,
      "categ": 6885,
      "environment": 6886,
      "plays": 6887,
      "ously": 6888,
      "raised": 6889,
      "canadian": 6890,
      "ost": 6891,
      "shar": 6892,
      "cere": 6893,
      "ication": 6894,
      "damaged": 6895,
      "ustr": 6896,
      "africa": 6897,
      "sar": 6898,
      "sof": 6899,
      "ask": 6900,
      "techno": 6901,
      "daily": 6902,
      "revealed": 6903,
      "selected": 6904,
      "promis": 6905,
      "cyclone": 6906,
      "mob": 6907,
      "sports": 6908,
      "necess": 6909,
      "piece": 6910,
      "marri": 6911,
      "schol": 6912,
      "ners": 6913,
      "rated": 6914,
      "morning": 6915,
      "kent": 6916,
      "ocean": 6917,
      "conditions": 6918,
      "wrest": 6919,
      "miss": 6920,
      "chair": 6921,
      "twenty": 6922,
      "heav": 6923,
      "elled": 6924,
      "russian": 6925,
      "46": 6926,
      "lived": 6927,
      "inside": 6928,
      "manu": 6929,
      "architect": 6930,
      "notes": 6931,
      "swe": 6932,
      "safe": 6933,
      "uries": 6934,
      "greater": 6935,
      "pet": 6936,
      "constructed": 6937,
      "unable": 6938,
      "sched": 6939,
      "launched": 6940,
      "onna": 6941,
      "writers": 6942,
      "sister": 6943,
      "respectively": 6944,
      "whole": 6945,
      "evol": 6946,
      "attacked": 6947,
      "angeles": 6948,
      "houses": 6949,
      "gely": 6950,
      "bob": 6951,
      "needed": 6952,
      "northeast": 6953,
      "confl": 6954,
      "ioned": 6955,
      "1995": 6956,
      "electric": 6957,
      "numbers": 6958,
      "gall": 6959,
      "traditional": 6960,
      "bol": 6961,
      "francis": 6962,
      "smaller": 6963,
      "cepted": 6964,
      "icated": 6965,
      "boat": 6966,
      "contains": 6967,
      "famil": 6968,
      "wish": 6969,
      "religious": 6970,
      "gradu": 6971,
      "below": 6972,
      "advance": 6973,
      "shown": 6974,
      "attempted": 6975,
      "newsp": 6976,
      "occurred": 6977,
      "ov": 6978,
      "stein": 6979,
      "improve": 6980,
      "festival": 6981,
      "inch": 6982,
      "2nd": 6983,
      "wound": 6984,
      "rose": 6985,
      "tension": 6986,
      "gam": 6987,
      "elected": 6988,
      "rare": 6989,
      "distin": 6990,
      "annual": 6991,
      "2016": 6992,
      "collection": 6993,
      "chem": 6994,
      "tower": 6995,
      "lon": 6996,
      "rein": 6997,
      "guest": 6998,
      "1996": 6999,
      "olic": 7000,
      "silver": 7001,
      "19th": 7002,
      "1950": 7003,
      "referred": 7004,
      "neigh": 7005,
      "produce": 7006,
      "izing": 7007,
      "dar": 7008,
      "gate": 7009,
      "cab": 7010,
      "theme": 7011,
      "amount": 7012,
      "anced": 7013,
      "jac": 7014,
      "render": 7015,
      "stom": 7016,
      "crow": 7017,
      "cath": 7018,
      "constant": 7019,
      "replace": 7020,
      "schools": 7021,
      "kept": 7022,
      "audience": 7023,
      "italian": 7024,
      "economic": 7025,
      "uals": 7026,
      "ify": 7027,
      "largely": 7028,
      "arts": 7029,
      "tion": 7030,
      "resulted": 7031,
      "verse": 7032,
      "ski": 7033,
      "tournam": 7034,
      "slight": 7035,
      "ira": 7036,
      "contro": 7037,
      "variety": 7038,
      "aust": 7039,
      "earned": 7040,
      "stream": 7041,
      "competition": 7042,
      "sumed": 7043,
      "1994": 7044,
      "starting": 7045,
      "prime": 7046,
      "ech": 7047,
      "stadium": 7048,
      "document": 7049,
      "bia": 7050,
      "commented": 7051,
      "sec": 7052,
      "attention": 7053,
      "55": 7054,
      "za": 7055,
      "scul": 7056,
      "performances": 7057,
      "camer": 7058,
      "protest": 7059,
      "rapid": 7060,
      "aland": 7061,
      "extre": 7062,
      "install": 7063,
      "quarters": 7064,
      "adel": 7065,
      "sexual": 7066,
      "trail": 7067,
      "stories": 7068,
      "refused": 7069,
      "atest": 7070,
      "ja": 7071,
      "pic": 7072,
      "ssing": 7073,
      "philip": 7074,
      "enjo": 7075,
      "penn": 7076,
      "traffic": 7077,
      "greatest": 7078,
      "180": 7079,
      "beth": 7080,
      "michigan": 7081,
      "imper": 7082,
      "things": 7083,
      "focus": 7084,
      "ening": 7085,
      "declared": 7086,
      "marriage": 7087,
      "ug": 7088,
      "direction": 7089,
      "iption": 7090,
      "ume": 7091,
      "serious": 7092,
      "defense": 7093,
      "matches": 7094,
      "cry": 7095,
      "bes": 7096,
      "path": 7097,
      "wales": 7098,
      "drew": 7099,
      "meant": 7100,
      "inner": 7101,
      "promin": 7102,
      "vocals": 7103,
      "touch": 7104,
      "ki": 7105,
      "ination": 7106,
      "concert": 7107,
      "44": 7108,
      "uss": 7109,
      "hundr": 7110,
      "wol": 7111,
      "chann": 7112,
      "chron": 7113,
      "weather": 7114,
      "resist": 7115,
      "levels": 7116,
      "rio": 7117,
      "pret": 7118,
      "rit": 7119,
      "abandon": 7120,
      "cases": 7121,
      "aware": 7122,
      "fal": 7123,
      "nearby": 7124,
      "doctor": 7125,
      "practice": 7126,
      "uter": 7127,
      "apo": 7128,
      "mul": 7129,
      "lane": 7130,
      "marsh": 7131,
      "itory": 7132,
      "aur": 7133,
      "shi": 7134,
      "murder": 7135,
      "gil": 7136,
      "organization": 7137,
      "windo": 7138,
      "northwest": 7139,
      "ibly": 7140,
      "uten": 7141,
      "ips": 7142,
      "source": 7143,
      "determin": 7144,
      "pin": 7145,
      "farm": 7146,
      "fantasy": 7147,
      "medical": 7148,
      "dvd": 7149,
      "sn": 7150,
      "candid": 7151,
      "beach": 7152,
      "1992": 7153,
      "emper": 7154,
      "spot": 7155,
      "incorpor": 7156,
      "vocal": 7157,
      "honor": 7158,
      "admiral": 7159,
      "sides": 7160,
      "grant": 7161,
      "systems": 7162,
      "birds": 7163,
      "eye": 7164,
      "favour": 7165,
      "arab": 7166,
      "separate": 7167,
      "pack": 7168,
      "means": 7169,
      "highly": 7170,
      "continue": 7171,
      "syl": 7172,
      "65": 7173,
      "settle": 7174,
      "invas": 7175,
      "jam": 7176,
      "pick": 7177,
      "iest": 7178,
      "ump": 7179,
      "lis": 7180,
      "theatre": 7181,
      "ulated": 7182,
      "charge": 7183,
      "rule": 7184,
      "og": 7185,
      "mod": 7186,
      "rick": 7187,
      "mechan": 7188,
      "observ": 7189,
      "executive": 7190,
      "urban": 7191,
      "specific": 7192,
      "nest": 7193,
      "prop": 7194,
      "rey": 7195,
      "mile": 7196,
      "mexico": 7197,
      "directly": 7198,
      "southeast": 7199,
      "burn": 7200,
      "exhib": 7201,
      "presented": 7202,
      "bishop": 7203,
      "sav": 7204,
      "ultimately": 7205,
      "ding": 7206,
      "reduced": 7207,
      "passing": 7208,
      "drive": 7209,
      "zealand": 7210,
      "kes": 7211,
      "libr": 7212,
      "effort": 7213,
      "african": 7214,
      "multiple": 7215,
      "attended": 7216,
      "brad": 7217,
      "tried": 7218,
      "ito": 7219,
      "yel": 7220,
      "coal": 7221,
      "advent": 7222,
      "chris": 7223,
      "bled": 7224,
      "efforts": 7225,
      "20th": 7226,
      "animals": 7227,
      "mut": 7228,
      "symb": 7229,
      "quality": 7230,
      "1930": 7231,
      "function": 7232,
      "serve": 7233,
      "studies": 7234,
      "dor": 7235,
      "accepted": 7236,
      "memorial": 7237,
      "stating": 7238,
      "lieuten": 7239,
      "financial": 7240,
      "mand": 7241,
      "progress": 7242,
      "allied": 7243,
      "responsible": 7244,
      "thro": 7245,
      "wealth": 7246,
      "ceremon": 7247,
      "border": 7248,
      "1993": 7249,
      "madonna": 7250,
      "lic": 7251,
      "creation": 7252,
      "incident": 7253,
      "1991": 7254,
      "400": 7255,
      "saint": 7256,
      "founded": 7257,
      "true": 7258,
      "restor": 7259,
      "itation": 7260,
      "begins": 7261,
      "sole": 7262,
      "vey": 7263,
      "yer": 7264,
      "setting": 7265,
      "scotland": 7266,
      "hl": 7267,
      "nov": 7268,
      "happ": 7269,
      "enemy": 7270,
      "jones": 7271,
      "scale": 7272,
      "write": 7273,
      "meaning": 7274,
      "eth": 7275,
      "planet": 7276,
      "95": 7277,
      "ems": 7278,
      "thick": 7279,
      "possess": 7280,
      "fat": 7281,
      "parents": 7282,
      "managed": 7283,
      "zz": 7284,
      "airport": 7285,
      "flying": 7286,
      "arrest": 7287,
      "paid": 7288,
      "folk": 7289,
      "advis": 7290,
      "greek": 7291,
      "iance": 7292,
      "roads": 7293,
      "fellow": 7294,
      "activity": 7295,
      "illery": 7296,
      "companies": 7297,
      "arms": 7298,
      "excl": 7299,
      "cub": 7300,
      "iate": 7301,
      "thous": 7302,
      "resulting": 7303,
      "tournament": 7304,
      "ficient": 7305,
      "titled": 7306,
      "dropped": 7307,
      "painting": 7308,
      "broke": 7309,
      "rum": 7310,
      "simp": 7311,
      "academy": 7312,
      "lieutenant": 7313,
      "enn": 7314,
      "showed": 7315,
      "authority": 7316,
      "eigh": 7317,
      "allowing": 7318,
      "exped": 7319,
      "policy": 7320,
      "resol": 7321,
      "secretary": 7322,
      "agu": 7323,
      "plane": 7324,
      "combined": 7325,
      "ert": 7326,
      "strugg": 7327,
      "thin": 7328,
      "armed": 7329,
      "mind": 7330,
      "spirit": 7331,
      "administration": 7332,
      "ceeded": 7333,
      "williams": 7334,
      "solo": 7335,
      "property": 7336,
      "passeng": 7337,
      "slo": 7338,
      "rev": 7339,
      "continues": 7340,
      "inches": 7341,
      "emperor": 7342,
      "artillery": 7343,
      "colour": 7344,
      "kings": 7345,
      "ites": 7346,
      "subsequent": 7347,
      "matic": 7348,
      "calling": 7349,
      "artists": 7350,
      "content": 7351,
      "ti": 7352,
      "ulf": 7353,
      "attempts": 7354,
      "territory": 7355,
      "contemporary": 7356,
      "grade": 7357,
      "rot": 7358,
      "isation": 7359,
      "account": 7360,
      "accept": 7361,
      "selling": 7362,
      "cold": 7363,
      "ali": 7364,
      "behav": 7365,
      "cities": 7366,
      "pilot": 7367,
      "oth": 7368,
      "leon": 7369,
      "machine": 7370,
      "potential": 7371,
      "une": 7372,
      "viewers": 7373,
      "rush": 7374,
      "studios": 7375,
      "egy": 7376,
      "voy": 7377,
      "presence": 7378,
      "sac": 7379,
      "thousand": 7380,
      "divided": 7381,
      "tam": 7382,
      "tree": 7383,
      "ada": 7384,
      "hat": 7385,
      "sixth": 7386,
      "digital": 7387,
      "ano": 7388,
      "conducted": 7389,
      "image": 7390,
      "ody": 7391,
      "sequence": 7392,
      "propos": 7393,
      "officials": 7394,
      "extens": 7395,
      "maintain": 7396,
      "job": 7397,
      "elle": 7398,
      "dome": 7399,
      "brand": 7400,
      "aga": 7401,
      "78": 7402,
      "repair": 7403,
      "contrast": 7404,
      "map": 7405,
      "filming": 7406,
      "1942": 7407,
      "bles": 7408,
      "collabor": 7409,
      "opport": 7410,
      "figure": 7411,
      "64": 7412,
      "wed": 7413,
      "recomm": 7414,
      "scoring": 7415,
      "owned": 7416,
      "hors": 7417,
      "twel": 7418,
      "latin": 7419,
      "wise": 7420,
      "transferred": 7421,
      "senior": 7422,
      "maximum": 7423,
      "sin": 7424,
      "demonstr": 7425,
      "defence": 7426,
      "ications": 7427,
      "pedo": 7428,
      "theory": 7429,
      "opportun": 7430,
      "yan": 7431,
      "featuring": 7432,
      "temple": 7433,
      "dise": 7434,
      "ku": 7435,
      "therefore": 7436,
      "student": 7437,
      "seconds": 7438,
      "apart": 7439,
      "yellow": 7440,
      "oxford": 7441,
      "kel": 7442,
      "primarily": 7443,
      "peaked": 7444,
      "relatively": 7445,
      "arthur": 7446,
      "becomes": 7447,
      "actors": 7448,
      "patter": 7449,
      "accident": 7450,
      "joseph": 7451,
      "strength": 7452,
      "faced": 7453,
      "torpedo": 7454,
      "mond": 7455,
      "actually": 7456,
      "mann": 7457,
      "security": 7458,
      "distance": 7459,
      "physical": 7460,
      "cert": 7461,
      "sr": 7462,
      "hair": 7463,
      "share": 7464,
      "management": 7465,
      "citiz": 7466,
      "beaut": 7467,
      "concluded": 7468,
      "table": 7469,
      "draft": 7470,
      "41": 7471,
      "observed": 7472,
      "boston": 7473,
      "conver": 7474,
      "harrison": 7475,
      "manchester": 7476,
      "pi": 7477,
      "tan": 7478,
      "battleship": 7479,
      "situation": 7480,
      "contest": 7481,
      "starr": 7482,
      "76": 7483,
      "egypt": 7484,
      "prise": 7485,
      "shell": 7486,
      "brid": 7487,
      "suppl": 7488,
      "affair": 7489,
      "swed": 7490,
      "invasion": 7491,
      "alleg": 7492,
      "liver": 7493,
      "results": 7494,
      "identified": 7495,
      "sust": 7496,
      "rical": 7497,
      "alongside": 7498,
      "alone": 7499,
      "benef": 7500,
      "ressed": 7501,
      "concent": 7502,
      "42": 7503,
      "sources": 7504,
      "extr": 7505,
      "paper": 7506,
      "stay": 7507,
      "owner": 7508,
      "armor": 7509,
      "istics": 7510,
      "arent": 7511,
      "1944": 7512,
      "gi": 7513,
      "pian": 7514,
      "express": 7515,
      "historical": 7516,
      "kg": 7517,
      "personnel": 7518,
      "agreement": 7519,
      "returning": 7520,
      "missed": 7521,
      "inte": 7522,
      "paris": 7523,
      "anger": 7524,
      "slightly": 7525,
      "dog": 7526,
      "cultural": 7527,
      "85": 7528,
      "historian": 7529,
      "versions": 7530,
      "ari": 7531,
      "kir": 7532,
      "types": 7533,
      "43": 7534,
      "crash": 7535,
      "push": 7536,
      "minim": 7537,
      "150": 7538,
      "appoint": 7539,
      "else": 7540,
      "nothing": 7541,
      "atives": 7542,
      "imperial": 7543,
      "custom": 7544,
      "influenced": 7545,
      "bbc": 7546,
      "chi": 7547,
      "soundtrack": 7548,
      "freed": 7549,
      "orders": 7550,
      "stal": 7551,
      "vessel": 7552,
      "places": 7553,
      "nominated": 7554,
      "innings": 7555,
      "core": 7556,
      "struck": 7557,
      "completely": 7558,
      "isions": 7559,
      "metro": 7560,
      "athlet": 7561,
      "confirmed": 7562,
      "drawn": 7563,
      "door": 7564,
      "comedy": 7565,
      "iced": 7566,
      "commissioned": 7567,
      "promoted": 7568,
      "crown": 7569,
      "attend": 7570,
      "residents": 7571,
      "oso": 7572,
      "si": 7573,
      "gill": 7574,
      "1990": 7575,
      "astic": 7576,
      "designated": 7577,
      "croat": 7578,
      "iza": 7579,
      "preser": 7580,
      "ellig": 7581,
      "exc": 7582,
      "gets": 7583,
      "shel": 7584,
      "atom": 7585,
      "conflict": 7586,
      "sense": 7587,
      "capture": 7588,
      "charts": 7589,
      "orche": 7590,
      "mainly": 7591,
      "powerful": 7592,
      "wy": 7593,
      "intellig": 7594,
      "prec": 7595,
      "opin": 7596,
      "stephen": 7597,
      "encour": 7598,
      "justice": 7599,
      "sought": 7600,
      "seasons": 7601,
      "nit": 7602,
      "shap": 7603,
      "waters": 7604,
      "avenue": 7605,
      "cers": 7606,
      "1920": 7607,
      "achieve": 7608,
      "1945": 7609,
      "floor": 7610,
      "foc": 7611,
      "offer": 7612,
      "electron": 7613,
      "fiction": 7614,
      "husband": 7615,
      "explained": 7616,
      "ancient": 7617,
      "reaching": 7618,
      "older": 7619,
      "italy": 7620,
      "1941": 7621,
      "appearances": 7622,
      "anne": 7623,
      "canal": 7624,
      "cine": 7625,
      "ato": 7626,
      "channel": 7627,
      "asia": 7628,
      "growth": 7629,
      "mine": 7630,
      "instrument": 7631,
      "iated": 7632,
      "weapons": 7633,
      "looking": 7634,
      "supply": 7635,
      "poly": 7636,
      "medal": 7637,
      "ulations": 7638,
      "widely": 7639,
      "americans": 7640,
      "proved": 7641,
      "gained": 7642,
      "steam": 7643,
      "watch": 7644,
      "officially": 7645,
      "successfully": 7646,
      "dete": 7647,
      "pieces": 7648,
      "micro": 7649,
      "pap": 7650,
      "rhy": 7651,
      "workers": 7652,
      "otto": 7653,
      "jersey": 7654,
      "baseball": 7655,
      "acu": 7656,
      "99": 7657,
      "duke": 7658,
      "negot": 7659,
      "sid": 7660,
      "sher": 7661,
      "swit": 7662,
      "dur": 7663,
      "ridge": 7664,
      "hotel": 7665,
      "assa": 7666,
      "offensive": 7667,
      "horses": 7668,
      "choice": 7669,
      "beyond": 7670,
      "gary": 7671,
      "brothers": 7672,
      "question": 7673,
      "ets": 7674,
      "mast": 7675,
      "fix": 7676,
      "rear": 7677,
      "aid": 7678,
      "eas": 7679,
      "element": 7680,
      "ireland": 7681,
      "mounted": 7682,
      "endo": 7683,
      "steel": 7684,
      "rat": 7685,
      "doing": 7686,
      "ological": 7687,
      "vania": 7688,
      "library": 7689,
      "organized": 7690,
      "normal": 7691,
      "aer": 7692,
      "izes": 7693,
      "reign": 7694,
      "ahead": 7695,
      "legisl": 7696,
      "affected": 7697,
      "expans": 7698,
      "rho": 7699,
      "capac": 7700,
      "says": 7701,
      "ider": 7702,
      "headquarters": 7703,
      "partner": 7704,
      "1989": 7705,
      "bowl": 7706,
      "cool": 7707,
      "branch": 7708,
      "speech": 7709,
      "bodies": 7710,
      "causing": 7711,
      "gor": 7712,
      "imag": 7713,
      "visited": 7714,
      "moon": 7715,
      "fred": 7716,
      "rainfall": 7717,
      "leaders": 7718,
      "1943": 7719,
      "expressed": 7720,
      "theless": 7721,
      "require": 7722,
      "represented": 7723,
      "catholic": 7724,
      "assemb": 7725,
      "vote": 7726,
      "jul": 7727,
      "laid": 7728,
      "victoria": 7729,
      "escape": 7730,
      "matter": 7731,
      "split": 7732,
      "article": 7733,
      "famous": 7734,
      "techni": 7735,
      "equipment": 7736,
      "zy": 7737,
      "apparent": 7738,
      "roll": 7739,
      "store": 7740,
      "computer": 7741,
      "broken": 7742,
      "yu": 7743,
      "reports": 7744,
      "fired": 7745,
      "ami": 7746,
      "tay": 7747,
      "avoid": 7748,
      "600": 7749,
      "drama": 7750,
      "crimin": 7751,
      "narr": 7752,
      "advanced": 7753,
      "prominent": 7754,
      "snow": 7755,
      "bush": 7756,
      "nations": 7757,
      "skill": 7758,
      "ung": 7759,
      "analys": 7760,
      "technology": 7761,
      "category": 7762,
      "strike": 7763,
      "lyn": 7764,
      "advant": 7765,
      "rome": 7766,
      "worldwide": 7767,
      "tells": 7768,
      "nav": 7769,
      "sport": 7770,
      "claims": 7771,
      "bart": 7772,
      "experiment": 7773,
      "ji": 7774,
      "manufact": 7775,
      "treatment": 7776,
      "occasion": 7777,
      "motor": 7778,
      "nas": 7779,
      "leaves": 7780,
      "defend": 7781,
      "usual": 7782,
      "77": 7783,
      "graphic": 7784,
      "uled": 7785,
      "spread": 7786,
      "reserve": 7787,
      "trees": 7788,
      "dutch": 7789,
      "3rd": 7790,
      "activities": 7791,
      "heavily": 7792,
      "extra": 7793,
      "powers": 7794,
      "condition": 7795,
      "disco": 7796,
      "why": 7797,
      "senate": 7798,
      "actress": 7799,
      "ories": 7800,
      "editor": 7801,
      "gment": 7802,
      "figures": 7803,
      "trip": 7804,
      "meanwhile": 7805,
      "unknown": 7806,
      "shore": 7807,
      "ifying": 7808,
      "plement": 7809,
      "lind": 7810,
      "rob": 7811,
      "believe": 7812,
      "brook": 7813,
      "aired": 7814,
      "hands": 7815,
      "expedition": 7816,
      "combin": 7817,
      "sle": 7818,
      "stations": 7819,
      "walls": 7820,
      "lb": 7821,
      "injury": 7822,
      "historic": 7823,
      "toward": 7824,
      "data": 7825,
      "1980s": 7826,
      "1940": 7827,
      "sie": 7828,
      "passes": 7829,
      "lives": 7830,
      "symbol": 7831,
      "arrange": 7832,
      "golden": 7833,
      "ckey": 7834,
      "alo": 7835,
      "homer": 7836,
      "landing": 7837,
      "unlike": 7838,
      "illustr": 7839,
      "zone": 7840,
      "currently": 7841,
      "debuted": 7842,
      "typically": 7843,
      "uel": 7844,
      "von": 7845,
      "phone": 7846,
      "feed": 7847,
      "bach": 7848,
      "awa": 7849,
      "necessary": 7850,
      "challeng": 7851,
      "web": 7852,
      "dream": 7853,
      "attach": 7854,
      "consisted": 7855,
      "rise": 7856,
      "dry": 7857,
      "none": 7858,
      "ror": 7859,
      "casual": 7860,
      "crossing": 7861,
      "ledge": 7862,
      "cricket": 7863,
      "anta": 7864,
      "eliza": 7865,
      "argued": 7866,
      "wave": 7867,
      "rect": 7868,
      "rael": 7869,
      "severe": 7870,
      "uments": 7871,
      "66": 7872,
      "heard": 7873,
      "opposed": 7874,
      "aling": 7875,
      "couple": 7876,
      "frequently": 7877,
      "composition": 7878,
      "glass": 7879,
      "polish": 7880,
      "opposition": 7881,
      "formula": 7882,
      "industrial": 7883,
      "value": 7884,
      "reference": 7885,
      "twice": 7886,
      "hear": 7887,
      "wart": 7888,
      "animal": 7889,
      "ounds": 7890,
      "description": 7891,
      "sphere": 7892,
      "1970s": 7893,
      "ingu": 7894,
      "finish": 7895,
      "ini": 7896,
      "aspect": 7897,
      "fine": 7898,
      "elimin": 7899,
      "advert": 7900,
      "mist": 7901,
      "heads": 7902,
      "maintained": 7903,
      "notable": 7904,
      "supre": 7905,
      "gia": 7906,
      "cked": 7907,
      "trying": 7908,
      "protection": 7909,
      "iverse": 7910,
      "chor": 7911,
      "1960s": 7912,
      "problem": 7913,
      "phas": 7914,
      "vice": 7915,
      "criticized": 7916,
      "fuel": 7917,
      "moment": 7918,
      "iet": 7919,
      "note": 7920,
      "growing": 7921,
      "adapt": 7922,
      "operated": 7923,
      "compar": 7924,
      "fru": 7925,
      "yo": 7926,
      "transl": 7927,
      "carolina": 7928,
      "holly": 7929,
      "joint": 7930,
      "discover": 7931,
      "bru": 7932,
      "chosen": 7933,
      "strip": 7934,
      "institute": 7935,
      "label": 7936,
      "webs": 7937,
      "kick": 7938,
      "1987": 7939,
      "arc": 7940,
      "scottish": 7941,
      "apped": 7942,
      "plants": 7943,
      "mount": 7944,
      "ibe": 7945,
      "twelve": 7946,
      "pursu": 7947,
      "comic": 7948,
      "producers": 7949,
      "entr": 7950,
      "1988": 7951,
      "ita": 7952,
      "ros": 7953,
      "rolling": 7954,
      "zen": 7955,
      "integr": 7956,
      "max": 7957,
      "philoso": 7958,
      "bra": 7959,
      "seventh": 7960,
      "bil": 7961,
      "dated": 7962,
      "imen": 7963,
      "assembly": 7964,
      "gers": 7965,
      "grew": 7966,
      "nuclear": 7967,
      "multi": 7968,
      "wounded": 7969,
      "newspaper": 7970,
      "youth": 7971,
      "classic": 7972,
      "96": 7973,
      "phia": 7974,
      "sites": 7975,
      "stood": 7976,
      "fare": 7977,
      "consecut": 7978,
      "billion": 7979,
      "caval": 7980,
      "degree": 7981,
      "independence": 7982,
      "atures": 7983,
      "lev": 7984,
      "istan": 7985,
      "ome": 7986,
      "surrounding": 7987,
      "rival": 7988,
      "risk": 7989,
      "hay": 7990,
      "voted": 7991,
      "nan": 7992,
      "rand": 7993,
      "fields": 7994,
      "republican": 7995,
      "jay": 7996,
      "oppos": 7997,
      "cart": 7998,
      "banks": 7999,
      "deck": 8000,
      "vot": 8001,
      "serving": 8002,
      "bid": 8003,
      "simply": 8004,
      "mem": 8005,
      "perfect": 8006,
      "teenth": 8007,
      "expansion": 8008,
      "weekly": 8009,
      "follows": 8010,
      "joe": 8011,
      "ares": 8012,
      "contained": 8013,
      "elev": 8014,
      "regarded": 8015,
      "roof": 8016,
      "agric": 8017,
      "fresh": 8018,
      "circ": 8019,
      "losing": 8020,
      "killing": 8021,
      "herself": 8022,
      "cock": 8023,
      "spin": 8024,
      "honour": 8025,
      "ota": 8026,
      "christmas": 8027,
      "newly": 8028,
      "oppon": 8029,
      "individuals": 8030,
      "hr": 8031,
      "elling": 8032,
      "kee": 8033,
      "pennsyl": 8034,
      "shop": 8035,
      "emphas": 8036,
      "reven": 8037,
      "sens": 8038,
      "mn": 8039,
      "raid": 8040,
      "continent": 8041,
      "franch": 8042,
      "pier": 8043,
      "hydro": 8044,
      "happen": 8045,
      "ec": 8046,
      "rod": 8047,
      "measure": 8048,
      "boats": 8049,
      "jes": 8050,
      "holds": 8051,
      "consecutive": 8052,
      "hart": 8053,
      "wilson": 8054,
      "conce": 8055,
      "throw": 8056,
      "eyes": 8057,
      "homes": 8058,
      "volume": 8059,
      "bron": 8060,
      "tric": 8061,
      "mentioned": 8062,
      "creating": 8063,
      "website": 8064,
      "sets": 8065,
      "taylor": 8066,
      "bac": 8067,
      "chose": 8068,
      "cannot": 8069,
      "visual": 8070,
      "56": 8071,
      "perman": 8072,
      "hope": 8073,
      "ulty": 8074,
      "1986": 8075,
      "supporting": 8076,
      "lady": 8077,
      "collap": 8078,
      "ils": 8079,
      "capacity": 8080,
      "goes": 8081,
      "anged": 8082,
      "alexander": 8083,
      "sections": 8084,
      "yl": 8085,
      "kid": 8086,
      "analysis": 8087,
      "boys": 8088,
      "themes": 8089,
      "encounter": 8090,
      "participated": 8091,
      "opera": 8092,
      "paralle": 8093,
      "leadership": 8094,
      "democratic": 8095,
      "meters": 8096,
      "calls": 8097,
      "aly": 8098,
      "adopted": 8099,
      "robin": 8100,
      "disease": 8101,
      "warr": 8102,
      "filmed": 8103,
      "seas": 8104,
      "girls": 8105,
      "negative": 8106,
      "kn": 8107,
      "colonel": 8108,
      "basis": 8109,
      "equal": 8110,
      "genus": 8111,
      "possibly": 8112,
      "abandoned": 8113,
      "gain": 8114,
      "contact": 8115,
      "pennsylvania": 8116,
      "purpose": 8117,
      "aded": 8118,
      "ancing": 8119,
      "brian": 8120,
      "mate": 8121,
      "disc": 8122,
      "freedom": 8123,
      "seat": 8124,
      "mike": 8125,
      "anda": 8126,
      "tag": 8127,
      "failure": 8128,
      "pine": 8129,
      "gameplay": 8130,
      "58": 8131,
      "adult": 8132,
      "session": 8133,
      "irish": 8134,
      "iled": 8135,
      "garden": 8136,
      "wick": 8137,
      "treaty": 8138,
      "judge": 8139,
      "egg": 8140,
      "rooms": 8141,
      "straight": 8142,
      "foundation": 8143,
      "palace": 8144,
      "iations": 8145,
      "pel": 8146,
      "sche": 8147,
      "distingu": 8148,
      "lying": 8149,
      "98": 8150,
      "constitution": 8151,
      "kins": 8152,
      "principal": 8153,
      "rif": 8154,
      "iana": 8155,
      "logist": 8156,
      "merch": 8157,
      "kit": 8158,
      "ideas": 8159,
      "corn": 8160,
      "southwest": 8161,
      "spain": 8162,
      "harry": 8163,
      "interchange": 8164,
      "wars": 8165,
      "glas": 8166,
      "sem": 8167,
      "hockey": 8168,
      "retired": 8169,
      "soul": 8170,
      "dial": 8171,
      "extensive": 8172,
      "surrender": 8173,
      "fro": 8174,
      "struction": 8175,
      "page": 8176,
      "improved": 8177,
      "generation": 8178,
      "1990s": 8179,
      "dip": 8180,
      "deliver": 8181,
      "occupied": 8182,
      "basket": 8183,
      "younger": 8184,
      "suppor": 8185,
      "agent": 8186,
      "speak": 8187,
      "chamber": 8188,
      "coll": 8189,
      "roles": 8190,
      "borough": 8191,
      "witness": 8192,
      "budget": 8193,
      "ctic": 8194,
      "titles": 8195,
      "asc": 8196,
      "1939": 8197,
      "vised": 8198,
      "md": 8199,
      "dollar": 8200,
      "achieved": 8201,
      "cd": 8202,
      "trou": 8203,
      "repeated": 8204,
      "piano": 8205,
      "elizabeth": 8206,
      "online": 8207,
      "count": 8208,
      "kh": 8209,
      "jeff": 8210,
      "economy": 8211,
      "atmo": 8212,
      "ques": 8213,
      "israel": 8214,
      "print": 8215,
      "effective": 8216,
      "families": 8217,
      "nis": 8218,
      "academ": 8219,
      "braz": 8220,
      "simple": 8221,
      "eleven": 8222,
      "briefly": 8223,
      "evacu": 8224,
      "province": 8225,
      "burgh": 8226,
      "territor": 8227,
      "regional": 8228,
      "tered": 8229,
      "anth": 8230,
      "shor": 8231,
      "granted": 8232,
      "gather": 8233,
      "clou": 8234,
      "firm": 8235,
      "slav": 8236,
      "techn": 8237,
      "trust": 8238,
      "ura": 8239,
      "determined": 8240,
      "vehicles": 8241,
      "experienced": 8242,
      "fame": 8243,
      "rejected": 8244,
      "turns": 8245,
      "holding": 8246,
      "advantage": 8247,
      "adow": 8248,
      "tall": 8249,
      "defensive": 8250,
      "fighter": 8251,
      "caught": 8252,
      "1985": 8253,
      "dram": 8254,
      "scar": 8255,
      "1968": 8256,
      "grav": 8257,
      "flat": 8258,
      "baby": 8259,
      "recently": 8260,
      "junction": 8261,
      "ola": 8262,
      "tact": 8263,
      "attribut": 8264,
      "controlled": 8265,
      "performing": 8266,
      "receive": 8267,
      "expanded": 8268,
      "din": 8269,
      "letters": 8270,
      "gives": 8271,
      "secondary": 8272,
      "flooding": 8273,
      "lum": 8274,
      "motional": 8275,
      "authorities": 8276,
      "sufficient": 8277,
      "ots": 8278,
      "didn": 8279,
      "kilometres": 8280,
      "lers": 8281,
      "nie": 8282,
      "52": 8283,
      "cavalry": 8284,
      "1970": 8285,
      "ohio": 8286,
      "iring": 8287,
      "soft": 8288,
      "literature": 8289,
      "credited": 8290,
      "cook": 8291,
      "commonly": 8292,
      "guy": 8293,
      "acquired": 8294,
      "assistant": 8295,
      "describes": 8296,
      "anton": 8297,
      "safety": 8298,
      "fought": 8299,
      "iments": 8300,
      "1984": 8301,
      "tend": 8302,
      "regarding": 8303,
      "picture": 8304,
      "singing": 8305,
      "prefer": 8306,
      "protected": 8307,
      "utions": 8308,
      "philadel": 8309,
      "accompan": 8310,
      "math": 8311,
      "criticism": 8312,
      "scheduled": 8313,
      "clark": 8314,
      "towns": 8315,
      "narrow": 8316,
      "ires": 8317,
      "freeway": 8318,
      "ador": 8319,
      "iar": 8320,
      "suggests": 8321,
      "alty": 8322,
      "centuries": 8323,
      "wan": 8324,
      "planning": 8325,
      "800": 8326,
      "code": 8327,
      "supreme": 8328,
      "iday": 8329,
      "jen": 8330,
      "convention": 8331,
      "shooting": 8332,
      "agan": 8333,
      "locations": 8334,
      "crime": 8335,
      "reading": 8336,
      "georgia": 8337,
      "cambridge": 8338,
      "ria": 8339,
      "ifications": 8340,
      "cha": 8341,
      "distribution": 8342,
      "whit": 8343,
      "88": 8344,
      "ults": 8345,
      "reput": 8346,
      "falls": 8347,
      "height": 8348,
      "contain": 8349,
      "connected": 8350,
      "alternative": 8351,
      "scientific": 8352,
      "philadelphia": 8353,
      "elder": 8354,
      "lif": 8355,
      "bing": 8356,
      "iful": 8357,
      "chance": 8358,
      "haps": 8359,
      "accompanied": 8360,
      "campus": 8361,
      "recon": 8362,
      "gulf": 8363,
      "ligh": 8364,
      "protect": 8365,
      "victim": 8366,
      "bands": 8367,
      "decre": 8368,
      "las": 8369,
      "unique": 8370,
      "apol": 8371,
      "cars": 8372,
      "withdraw": 8373,
      "tel": 8374,
      "attle": 8375,
      "ios": 8376,
      "save": 8377,
      "perhaps": 8378,
      "1967": 8379,
      "reaction": 8380,
      "escor": 8381,
      "finds": 8382,
      "gency": 8383,
      "existing": 8384,
      "wic": 8385,
      "russia": 8386,
      "iter": 8387,
      "price": 8388,
      "97": 8389,
      "estate": 8390,
      "coln": 8391,
      "quite": 8392,
      "120": 8393,
      "facilities": 8394,
      "trains": 8395,
      "garr": 8396,
      "moral": 8397,
      "laws": 8398,
      "rules": 8399,
      "wrestling": 8400,
      "exchange": 8401,
      "1980": 8402,
      "arrival": 8403,
      "publication": 8404,
      "ottoman": 8405,
      "inth": 8406,
      "poe": 8407,
      "containing": 8408,
      "ceremony": 8409,
      "liverpool": 8410,
      "recru": 8411,
      "chen": 8412,
      "domestic": 8413,
      "jr": 8414,
      "nint": 8415,
      "belong": 8416,
      "insu": 8417,
      "selection": 8418,
      "forming": 8419,
      "approved": 8420,
      "nintendo": 8421,
      "regist": 8422,
      "entry": 8423,
      "herit": 8424,
      "scholar": 8425,
      "ias": 8426,
      "fash": 8427,
      "repl": 8428,
      "ivity": 8429,
      "conve": 8430,
      "product": 8431,
      "miller": 8432,
      "carry": 8433,
      "cruiser": 8434,
      "headed": 8435,
      "det": 8436,
      "evening": 8437,
      "touchdown": 8438,
      "target": 8439,
      "columbia": 8440,
      "51": 8441,
      "hits": 8442,
      "bath": 8443,
      "entirely": 8444,
      "rout": 8445,
      "proto": 8446,
      "andrew": 8447,
      "poll": 8448,
      "grey": 8449,
      "structures": 8450,
      "launch": 8451,
      "jean": 8452,
      "bou": 8453,
      "publish": 8454,
      "extension": 8455,
      "gene": 8456,
      "dedicated": 8457,
      "gay": 8458,
      "singap": 8459,
      "allows": 8460,
      "purchased": 8461,
      "resistance": 8462,
      "legacy": 8463,
      "contributed": 8464,
      "korean": 8465,
      "provides": 8466,
      "inde": 8467,
      "ivan": 8468,
      "gone": 8469,
      "rh": 8470,
      "57": 8471,
      "filled": 8472,
      "brazil": 8473,
      "oak": 8474,
      "prising": 8475,
      "1983": 8476,
      "cens": 8477,
      "lau": 8478,
      "windows": 8479,
      "satis": 8480,
      "battery": 8481,
      "employed": 8482,
      "faith": 8483,
      "prepared": 8484,
      "jewish": 8485,
      "missing": 8486,
      "borne": 8487,
      "wheel": 8488,
      "happy": 8489,
      "engaged": 8490,
      "intensity": 8491,
      "ella": 8492,
      "francisco": 8493,
      "wright": 8494,
      "lincoln": 8495,
      "correspond": 8496,
      "singapore": 8497,
      "regions": 8498,
      "viewed": 8499,
      "aces": 8500,
      "1964": 8501,
      "bourne": 8502,
      "eighth": 8503,
      "nik": 8504,
      "azz": 8505,
      "casualties": 8506,
      "1969": 8507,
      "preced": 8508,
      "heim": 8509,
      "istol": 8510,
      "carey": 8511,
      "mam": 8512,
      "promotion": 8513,
      "aka": 8514,
      "satur": 8515,
      "resour": 8516,
      "54": 8517,
      "cles": 8518,
      "daniel": 8519,
      "pitch": 8520,
      "iant": 8521,
      "placing": 8522,
      "raf": 8523,
      "rig": 8524,
      "lav": 8525,
      "coastal": 8526,
      "playstation": 8527,
      "rence": 8528,
      "disney": 8529,
      "charged": 8530,
      "defined": 8531,
      "mol": 8532,
      "1914": 8533,
      "evil": 8534,
      "hms": 8535,
      "introduction": 8536,
      "1918": 8537,
      "walter": 8538,
      "basketball": 8539,
      "closely": 8540,
      "corner": 8541,
      "views": 8542,
      "liest": 8543,
      "focused": 8544,
      "receiving": 8545,
      "anderson": 8546,
      "isol": 8547,
      "link": 8548,
      "opportunity": 8549,
      "belief": 8550,
      "dale": 8551,
      "lewis": 8552,
      "allies": 8553,
      "display": 8554,
      "cris": 8555,
      "1982": 8556,
      "ero": 8557,
      "byz": 8558,
      "iny": 8559,
      "steve": 8560,
      "1971": 8561,
      "iles": 8562,
      "decor": 8563,
      "alan": 8564,
      "consists": 8565,
      "1966": 8566,
      "premier": 8567,
      "1972": 8568,
      "roughly": 8569,
      "sud": 8570,
      "formal": 8571,
      "1979": 8572,
      "getting": 8573,
      "abs": 8574,
      "losses": 8575,
      "neighbor": 8576,
      "consul": 8577,
      "sions": 8578,
      "inspir": 8579,
      "18th": 8580,
      "hundred": 8581,
      "kat": 8582,
      "rub": 8583,
      "olympic": 8584,
      "railroad": 8585,
      "remo": 8586,
      "68": 8587,
      "byzant": 8588,
      "iger": 8589,
      "aste": 8590,
      "anything": 8591,
      "adding": 8592,
      "ology": 8593,
      "relations": 8594,
      "resc": 8595,
      "mobile": 8596,
      "marks": 8597,
      "hired": 8598,
      "desc": 8599,
      "garian": 8600,
      "bun": 8601,
      "intelligence": 8602,
      "retire": 8603,
      "religion": 8604,
      "1965": 8605,
      "recognized": 8606,
      "naz": 8607,
      "stu": 8608,
      "bottom": 8609,
      "franchise": 8610,
      "appre": 8611,
      "walk": 8612,
      "chemical": 8613,
      "sab": 8614,
      "ounder": 8615,
      "politics": 8616,
      "providing": 8617,
      "nhl": 8618,
      "lun": 8619,
      "phase": 8620,
      "mud": 8621,
      "semi": 8622,
      "1975": 8623,
      "94": 8624,
      "sis": 8625,
      "task": 8626,
      "guide": 8627,
      "developing": 8628,
      "appeal": 8629,
      "shared": 8630,
      "illa": 8631,
      "relief": 8632,
      "cler": 8633,
      "patrol": 8634,
      "earl": 8635,
      "kim": 8636,
      "credits": 8637,
      "gang": 8638,
      "armour": 8639,
      "nast": 8640,
      "fron": 8641,
      "hang": 8642,
      "solid": 8643,
      "plate": 8644,
      "germans": 8645,
      "hollywood": 8646,
      "pir": 8647,
      "temperature": 8648,
      "enge": 8649,
      "shape": 8650,
      "professor": 8651,
      "ogue": 8652,
      "myster": 8653,
      "rapidly": 8654,
      "investigation": 8655,
      "junior": 8656,
      "everything": 8657,
      "bright": 8658,
      "davis": 8659,
      "1974": 8660,
      "achu": 8661,
      "rons": 8662,
      "settlement": 8663,
      "involve": 8664,
      "journey": 8665,
      "1973": 8666,
      "kentuck": 8667,
      "cited": 8668,
      "specif": 8669,
      "breeding": 8670,
      "ene": 8671,
      "popularity": 8672,
      "knew": 8673,
      "ctors": 8674,
      "global": 8675,
      "archae": 8676,
      "67": 8677,
      "mode": 8678,
      "roc": 8679,
      "isb": 8680,
      "operating": 8681,
      "opinion": 8682,
      "shaped": 8683,
      "portray": 8684,
      "beyonce": 8685,
      "adam": 8686,
      "rever": 8687,
      "1976": 8688,
      "53": 8689,
      "significantly": 8690,
      "clean": 8691,
      "ables": 8692,
      "tense": 8693,
      "knowledge": 8694,
      "fran": 8695,
      "projects": 8696,
      "mayor": 8697,
      "evolution": 8698,
      "literary": 8699,
      "intersection": 8700,
      "heat": 8701,
      "injured": 8702,
      "250": 8703,
      "fear": 8704,
      "cot": 8705,
      "confeder": 8706,
      "stages": 8707,
      "cape": 8708,
      "reasons": 8709,
      "skin": 8710,
      "bear": 8711,
      "assault": 8712,
      "sounds": 8713,
      "ilton": 8714,
      "ads": 8715,
      "playoff": 8716,
      "challenge": 8717,
      "volcan": 8718,
      "substant": 8719,
      "87": 8720,
      "raw": 8721,
      "mountains": 8722,
      "gord": 8723,
      "treated": 8724,
      "missions": 8725,
      "orient": 8726,
      "photograph": 8727,
      "eag": 8728,
      "kur": 8729,
      "muslim": 8730,
      "humans": 8731,
      "arsen": 8732,
      "lies": 8733,
      "poem": 8734,
      "grapher": 8735,
      "grounds": 8736,
      "genet": 8737,
      "employ": 8738,
      "arranged": 8739,
      "platform": 8740,
      "rupt": 8741,
      "exerc": 8742,
      "acres": 8743,
      "distinct": 8744,
      "itz": 8745,
      "cells": 8746,
      "accur": 8747,
      "breaking": 8748,
      "storyline": 8749,
      "stable": 8750,
      "peninsu": 8751,
      "ule": 8752,
      "labour": 8753,
      "existence": 8754,
      "jon": 8755,
      "internal": 8756,
      "divisions": 8757,
      "violence": 8758,
      "watched": 8759,
      "stret": 8760,
      "astron": 8761,
      "strate": 8762,
      "chairman": 8763,
      "statement": 8764,
      "thirty": 8765,
      "reputation": 8766,
      "renamed": 8767,
      "hills": 8768,
      "exact": 8769,
      "collected": 8770,
      "syd": 8771,
      "invent": 8772,
      "nur": 8773,
      "wings": 8774,
      "160": 8775,
      "unte": 8776,
      "itude": 8777,
      "expect": 8778,
      "genre": 8779,
      "proceed": 8780,
      "swim": 8781,
      "females": 8782,
      "limit": 8783,
      "nevertheless": 8784,
      "finding": 8785,
      "outer": 8786,
      "models": 8787,
      "combination": 8788,
      "ients": 8789,
      "symp": 8790,
      "donald": 8791,
      "extrem": 8792,
      "4th": 8793,
      "volunte": 8794,
      "increasingly": 8795,
      "typical": 8796,
      "abilities": 8797,
      "dates": 8798,
      "blues": 8799,
      "capable": 8800,
      "neut": 8801,
      "diam": 8802,
      "kentucky": 8803,
      "1946": 8804,
      "59": 8805,
      "1981": 8806,
      "neither": 8807,
      "gent": 8808,
      "foss": 8809,
      "declined": 8810,
      "converted": 8811,
      "buried": 8812,
      "ales": 8813,
      "poet": 8814,
      "details": 8815,
      "camera": 8816,
      "tests": 8817,
      "depth": 8818,
      "eco": 8819,
      "enjoyed": 8820,
      "virt": 8821,
      "nut": 8822,
      "1950s": 8823,
      "itled": 8824,
      "setts": 8825,
      "learned": 8826,
      "applied": 8827,
      "ala": 8828,
      "norway": 8829,
      "producing": 8830,
      "versy": 8831,
      "gray": 8832,
      "controversy": 8833,
      "sustained": 8834,
      "matt": 8835,
      "inum": 8836,
      "1917": 8837,
      "mole": 8838,
      "cking": 8839,
      "massachu": 8840,
      "brain": 8841,
      "dd": 8842,
      "olympics": 8843,
      "championships": 8844,
      "warm": 8845,
      "torn": 8846,
      "mers": 8847,
      "bling": 8848,
      "massachusetts": 8849,
      "bis": 8850,
      "advoc": 8851,
      "triple": 8852,
      "maria": 8853,
      "iro": 8854,
      "ride": 8855,
      "approached": 8856,
      "pear": 8857,
      "graded": 8858,
      "decade": 8859,
      "technical": 8860,
      "hell": 8861,
      "easily": 8862,
      "onic": 8863,
      "entrance": 8864,
      "dub": 8865,
      "credit": 8866,
      "frag": 8867,
      "download": 8868,
      "designs": 8869,
      "carrying": 8870,
      "duty": 8871,
      "responded": 8872,
      "discovery": 8873,
      "typho": 8874,
      "beautiful": 8875,
      "1948": 8876,
      "usa": 8877,
      "programs": 8878,
      "tren": 8879,
      "udes": 8880,
      "nate": 8881,
      "asser": 8882,
      "sects": 8883,
      "secure": 8884,
      "1960": 8885,
      "succeeded": 8886,
      "gradually": 8887,
      "prize": 8888,
      "sax": 8889,
      "winner": 8890,
      "specifically": 8891,
      "ole": 8892,
      "classical": 8893,
      "sters": 8894,
      "simpsons": 8895,
      "munic": 8896,
      "crowd": 8897,
      "cia": 8898,
      "nich": 8899,
      "vul": 8900,
      "showing": 8901,
      "stro": 8902,
      "items": 8903,
      "assess": 8904,
      "prisoners": 8905,
      "clar": 8906,
      "exclus": 8907,
      "finals": 8908,
      "1978": 8909,
      "legend": 8910,
      "gres": 8911,
      "talk": 8912,
      "fruit": 8913,
      "indicated": 8914,
      "jur": 8915,
      "similarly": 8916,
      "constitut": 8917,
      "ignment": 8918,
      "700": 8919,
      "products": 8920,
      "parties": 8921,
      "seems": 8922,
      "cies": 8923,
      "kon": 8924,
      "additionally": 8925,
      "vietnam": 8926,
      "terior": 8927,
      "presidential": 8928,
      "mtv": 8929,
      "earliest": 8930,
      "89": 8931,
      "warning": 8932,
      "lasted": 8933,
      "animated": 8934,
      "pup": 8935,
      "municipal": 8936,
      "reform": 8937,
      "weakened": 8938,
      "threatened": 8939,
      "rab": 8940,
      "carbon": 8941,
      "79": 8942,
      "employe": 8943,
      "candidate": 8944,
      "rural": 8945,
      "bian": 8946,
      "aki": 8947,
      "routes": 8948,
      "cruisers": 8949,
      "gol": 8950,
      "86": 8951,
      "ols": 8952,
      "ruled": 8953,
      "bt": 8954,
      "omy": 8955,
      "circu": 8956,
      "engineer": 8957,
      "dang": 8958,
      "1915": 8959,
      "cooper": 8960,
      "gross": 8961,
      "compo": 8962,
      "basic": 8963,
      "icks": 8964,
      "poland": 8965,
      "fashion": 8966,
      "retained": 8967,
      "acid": 8968,
      "hugh": 8969,
      "1977": 8970,
      "giant": 8971,
      "maryland": 8972,
      "sydney": 8973,
      "writes": 8974,
      "moore": 8975,
      "tes": 8976,
      "presents": 8977,
      "valu": 8978,
      "magic": 8979,
      "sort": 8980,
      "ette": 8981,
      "gle": 8982,
      "superi": 8983,
      "explor": 8984,
      "climate": 8985,
      "saurus": 8986,
      "peninsula": 8987,
      "remix": 8988,
      "champions": 8989,
      "styles": 8990,
      "cycle": 8991,
      "pleas": 8992,
      "diplo": 8993,
      "tony": 8994,
      "speaking": 8995,
      "adapted": 8996,
      "andy": 8997,
      "ivered": 8998,
      "agency": 8999,
      "interior": 9000,
      "agen": 9001,
      "issance": 9002,
      "alien": 9003,
      "supplies": 9004,
      "hanna": 9005,
      "seeing": 9006,
      "infl": 9007,
      "engines": 9008,
      "trig": 9009,
      "1963": 9010,
      "interested": 9011,
      "afterwards": 9012,
      "copy": 9013,
      "message": 9014,
      "shadow": 9015,
      "storms": 9016,
      "drug": 9017,
      "engineering": 9018,
      "delivered": 9019,
      "equival": 9020,
      "consequ": 9021,
      "administr": 9022,
      "landfall": 9023,
      "architecture": 9024,
      "fing": 9025,
      "hamp": 9026,
      "cancell": 9027,
      "supporters": 9028,
      "pig": 9029,
      "rebell": 9030,
      "aria": 9031,
      "stopped": 9032,
      "entitled": 9033,
      "convin": 9034,
      "citizens": 9035,
      "bure": 9036,
      "isms": 9037,
      "wich": 9038,
      "affairs": 9039,
      "permanent": 9040,
      "settled": 9041,
      "tz": 9042,
      "dean": 9043,
      "wre": 9044,
      "affect": 9045,
      "1916": 9046,
      "extremely": 9047,
      "surviv": 9048,
      "gordon": 9049,
      "asian": 9050,
      "iser": 9051,
      "diamond": 9052,
      "dynast": 9053,
      "causes": 9054,
      "wonder": 9055,
      "icts": 9056,
      "medit": 9057,
      "izations": 9058,
      "downtown": 9059,
      "proposal": 9060,
      "images": 9061,
      "wides": 9062,
      "mulder": 9063,
      "importance": 9064,
      "restaur": 9065,
      "seek": 9066,
      "sip": 9067,
      "enem": 9068,
      "medic": 9069,
      "deaths": 9070,
      "tip": 9071,
      "inet": 9072,
      "kong": 9073,
      "holy": 9074,
      "deleg": 9075,
      "dal": 9076,
      "ieval": 9077,
      "returns": 9078,
      "spar": 9079,
      "composer": 9080,
      "61": 9081,
      "72": 9082,
      "implement": 9083,
      "1919": 9084,
      "correct": 9085,
      "ratings": 9086,
      "mous": 9087,
      "albert": 9088,
      "classification": 9089,
      "rhodes": 9090,
      "asks": 9091,
      "bran": 9092,
      "knots": 9093,
      "appropr": 9094,
      "1962": 9095,
      "hull": 9096,
      "bringing": 9097,
      "adams": 9098,
      "obl": 9099,
      "acre": 9100,
      "eat": 9101,
      "modif": 9102,
      "entering": 9103,
      "69": 9104,
      "competit": 9105,
      "oto": 9106,
      "compon": 9107,
      "streets": 9108,
      "classified": 9109,
      "retain": 9110,
      "survived": 9111,
      "umes": 9112,
      "omin": 9113,
      "antly": 9114,
      "eral": 9115,
      "shield": 9116,
      "controvers": 9117,
      "fict": 9118,
      "offers": 9119,
      "studied": 9120,
      "describing": 9121,
      "references": 9122,
      "aftermath": 9123,
      "connection": 9124,
      "catch": 9125,
      "sale": 9126,
      "62": 9127,
      "bag": 9128,
      "colonial": 9129,
      "argent": 9130,
      "incorporated": 9131,
      "iber": 9132,
      "bought": 9133,
      "leaf": 9134,
      "iversary": 9135,
      "simon": 9136,
      "1938": 9137,
      "remember": 9138,
      "environmental": 9139,
      "jane": 9140,
      "someone": 9141,
      "strateg": 9142,
      "concerns": 9143,
      "sessions": 9144,
      "arrested": 9145,
      "universe": 9146,
      "rivers": 9147,
      "circum": 9148,
      "biography": 9149,
      "ario": 9150,
      "lights": 9151,
      "shots": 9152,
      "grass": 9153,
      "chapel": 9154,
      "portrayed": 9155,
      "alliance": 9156,
      "concerned": 9157,
      "entially": 9158,
      "ulate": 9159,
      "hunting": 9160,
      "onia": 9161,
      "installed": 9162,
      "rian": 9163,
      "harmon": 9164,
      "purchase": 9165,
      "universal": 9166,
      "reduce": 9167,
      "ili": 9168,
      "decline": 9169,
      "recalled": 9170,
      "tanks": 9171,
      "audio": 9172,
      "retr": 9173,
      "nomination": 9174,
      "corporation": 9175,
      "feeling": 9176,
      "ez": 9177,
      "pure": 9178,
      "siege": 9179,
      "liberal": 9180,
      "actual": 9181,
      "mono": 9182,
      "medieval": 9183,
      "spons": 9184,
      "130": 9185,
      "objects": 9186,
      "typhoon": 9187,
      "ansas": 9188,
      "starts": 9189,
      "chapter": 9190,
      "invited": 9191,
      "academic": 9192,
      "recognition": 9193,
      "equipped": 9194,
      "identity": 9195,
      "thousands": 9196,
      "driving": 9197,
      "funds": 9198,
      "1956": 9199,
      "hypo": 9200,
      "establishment": 9201,
      "princess": 9202,
      "noting": 9203,
      "crossed": 9204,
      "passage": 9205,
      "thunder": 9206,
      "anniversary": 9207,
      "historians": 9208,
      "debate": 9209,
      "admitted": 9210,
      "veter": 9211,
      "haz": 9212,
      "recommended": 9213,
      "appointment": 9214,
      "decades": 9215,
      "kal": 9216,
      "arsenal": 9217,
      "opt": 9218,
      "1930s": 9219,
      "truth": 9220,
      "consisting": 9221,
      "angle": 9222,
      "lion": 9223,
      "pav": 9224,
      "hut": 9225,
      "programme": 9226,
      "93": 9227,
      "kan": 9228,
      "aints": 9229,
      "psycho": 9230,
      "frame": 9231,
      "considerable": 9232,
      "bern": 9233,
      "1936": 9234,
      "ware": 9235,
      "colony": 9236,
      "ille": 9237,
      "rhyth": 9238,
      "hamilton": 9239,
      "sequel": 9240,
      "navig": 9241,
      "enemies": 9242,
      "manner": 9243,
      "visible": 9244,
      "mak": 9245,
      "posted": 9246,
      "anean": 9247,
      "conservative": 9248,
      "leton": 9249,
      "lets": 9250,
      "charges": 9251,
      "remainder": 9252,
      "claiming": 9253,
      "nee": 9254,
      "duties": 9255,
      "isa": 9256,
      "classes": 9257,
      "behavior": 9258,
      "pread": 9259,
      "continuing": 9260,
      "thesis": 9261,
      "kenned": 9262,
      "utc": 9263,
      "vac": 9264,
      "communist": 9265,
      "wins": 9266,
      "17th": 9267,
      "willing": 9268,
      "circle": 9269,
      "widespread": 9270,
      "animation": 9271,
      "promote": 9272,
      "bee": 9273,
      "pictures": 9274,
      "1961": 9275,
      "electronic": 9276,
      "nether": 9277,
      "ugu": 9278,
      "athen": 9279,
      "flash": 9280,
      "una": 9281,
      "occasionally": 9282,
      "flank": 9283,
      "departure": 9284,
      "ento": 9285,
      "knight": 9286,
      "interpret": 9287,
      "looked": 9288,
      "aspects": 9289,
      "nba": 9290,
      "romantic": 9291,
      "indones": 9292,
      "slowly": 9293,
      "tie": 9294,
      "populations": 9295,
      "noon": 9296,
      "uan": 9297,
      "shut": 9298,
      "sic": 9299,
      "attached": 9300,
      "inity": 9301,
      "inton": 9302,
      "reli": 9303,
      "1953": 9304,
      "belt": 9305,
      "owners": 9306,
      "transition": 9307,
      "kennedy": 9308,
      "bang": 9309,
      "norman": 9310,
      "110": 9311,
      "crete": 9312,
      "buff": 9313,
      "wearing": 9314,
      "resources": 9315,
      "orchestra": 9316,
      "continental": 9317,
      "63": 9318,
      "twin": 9319,
      "arn": 9320,
      "81": 9321,
      "parallel": 9322,
      "ilation": 9323,
      "destruction": 9324,
      "freder": 9325,
      "5th": 9326,
      "jordan": 9327,
      "rebel": 9328,
      "factory": 9329,
      "emergency": 9330,
      "icit": 9331,
      "graphics": 9332,
      "senator": 9333,
      "sunday": 9334,
      "inal": 9335,
      "alco": 9336,
      "shark": 9337,
      "howard": 9338,
      "assistance": 9339,
      "parish": 9340,
      "indiana": 9341,
      "treas": 9342,
      "clubs": 9343,
      "theater": 9344,
      "monument": 9345,
      "diag": 9346,
      "occurs": 9347,
      "certified": 9348,
      "norwe": 9349,
      "apping": 9350,
      "aked": 9351,
      "liked": 9352,
      "transportation": 9353,
      "scully": 9354,
      "icate": 9355,
      "quant": 9356,
      "mathem": 9357,
      "address": 9358,
      "adventure": 9359,
      "hitler": 9360,
      "vessels": 9361,
      "memory": 9362,
      "wers": 9363,
      "superior": 9364,
      "covering": 9365,
      "fighters": 9366,
      "vit": 9367,
      "income": 9368,
      "inn": 9369,
      "tunnel": 9370,
      "7th": 9371,
      "aux": 9372,
      "demol": 9373,
      "veland": 9374,
      "priest": 9375,
      "pc": 9376,
      "amend": 9377,
      "1947": 9378,
      "conservation": 9379,
      "properties": 9380,
      "chorus": 9381,
      "ryan": 9382,
      "bean": 9383,
      "acknow": 9384,
      "norm": 9385,
      "1937": 9386,
      "pope": 9387,
      "isted": 9388,
      "weigh": 9389,
      "1958": 9390,
      "74": 9391,
      "punk": 9392,
      "shir": 9393,
      "hann": 9394,
      "equivalent": 9395,
      "intention": 9396,
      "dio": 9397,
      "passengers": 9398,
      "involving": 9399,
      "rober": 9400,
      "92": 9401,
      "wwe": 9402,
      "prised": 9403,
      "carl": 9404,
      "enix": 9405,
      "excell": 9406,
      "91": 9407,
      "1910": 9408,
      "regon": 9409,
      "conduct": 9410,
      "allen": 9411,
      "1957": 9412,
      "heritage": 9413,
      "ictions": 9414,
      "oldest": 9415,
      "prede": 9416,
      "jum": 9417,
      "stands": 9418,
      "terminus": 9419,
      "aret": 9420,
      "ders": 9421,
      "hone": 9422,
      "possibility": 9423,
      "ione": 9424,
      "amaz": 9425,
      "conv": 9426,
      "fried": 9427,
      "hend": 9428,
      "cathe": 9429,
      "salt": 9430,
      "dick": 9431,
      "regularly": 9432,
      "patrick": 9433,
      "agonist": 9434,
      "obtained": 9435,
      "sleep": 9436,
      "sculpt": 9437,
      "rescue": 9438,
      "consc": 9439,
      "illino": 9440,
      "gon": 9441,
      "bombard": 9442,
      "roger": 9443,
      "derived": 9444,
      "finishing": 9445,
      "ninth": 9446,
      "committed": 9447,
      "accused": 9448,
      "worst": 9449,
      "porter": 9450,
      "cleveland": 9451,
      "pink": 9452,
      "agues": 9453,
      "survey": 9454,
      "instru": 9455,
      "apt": 9456,
      "deput": 9457,
      "infe": 9458,
      "ivals": 9459,
      "conscious": 9460,
      "shaw": 9461,
      "aug": 9462,
      "turk": 9463,
      "reviewers": 9464,
      "oregon": 9465,
      "favorite": 9466,
      "douglas": 9467,
      "illinois": 9468,
      "mediterr": 9469,
      "moves": 9470,
      "shu": 9471,
      "crisis": 9472,
      "segment": 9473,
      "joining": 9474,
      "bab": 9475,
      "pled": 9476,
      "mates": 9477,
      "iva": 9478,
      "generated": 9479,
      "vehicle": 9480,
      "replacement": 9481,
      "dynasty": 9482,
      "supposed": 9483,
      "hosted": 9484,
      "aboard": 9485,
      "infr": 9486,
      "factor": 9487,
      "assumed": 9488,
      "stanley": 9489,
      "marke": 9490,
      "dragon": 9491,
      "eric": 9492,
      "throne": 9493,
      "prot": 9494,
      "gap": 9495,
      "circulation": 9496,
      "shear": 9497,
      "appearing": 9498,
      "denied": 9499,
      "1959": 9500,
      "cott": 9501,
      "reality": 9502,
      "6th": 9503,
      "nett": 9504,
      "solar": 9505,
      "representatives": 9506,
      "fictional": 9507,
      "abor": 9508,
      "unusual": 9509,
      "premiere": 9510,
      "morgan": 9511,
      "tied": 9512,
      "urb": 9513,
      "completion": 9514,
      "bruce": 9515,
      "aqu": 9516,
      "circuit": 9517,
      "commanded": 9518,
      "shif": 9519,
      "vary": 9520,
      "beatles": 9521,
      "massive": 9522,
      "mediterranean": 9523,
      "abol": 9524,
      "outstanding": 9525,
      "1954": 9526,
      "keeping": 9527,
      "rates": 9528,
      "kevin": 9529,
      "strongly": 9530,
      "lect": 9531,
      "costs": 9532,
      "persu": 9533,
      "monarch": 9534,
      "materials": 9535,
      "norwegian": 9536,
      "mail": 9537,
      "1955": 9538,
      "wickets": 9539,
      "begun": 9540,
      "thetic": 9541,
      "pole": 9542,
      "bristol": 9543,
      "cathedr": 9544,
      "homo": 9545,
      "exception": 9546,
      "mexican": 9547,
      "bridges": 9548,
      "scout": 9549,
      "characteristics": 9550,
      "pm": 9551,
      "auth": 9552,
      "attor": 9553,
      "analy": 9554,
      "deem": 9555,
      "painted": 9556,
      "praise": 9557,
      "responsibility": 9558,
      "thel": 9559,
      "aine": 9560,
      "methods": 9561,
      "alleged": 9562,
      "jar": 9563,
      "fold": 9564,
      "isbn": 9565,
      "cancer": 9566,
      "dynam": 9567,
      "driven": 9568,
      "surviving": 9569,
      "gression": 9570,
      "16th": 9571,
      "passenger": 9572,
      "carrier": 9573,
      "erup": 9574,
      "sailed": 9575,
      "everyone": 9576,
      "representative": 9577,
      "politic": 9578,
      "column": 9579,
      "funding": 9580,
      "resem": 9581,
      "uct": 9582,
      "buy": 9583,
      "plus": 9584,
      "emerged": 9585,
      "opposite": 9586,
      "lisa": 9587,
      "atmosphere": 9588,
      "ras": 9589,
      "differences": 9590,
      "habitat": 9591,
      "82": 9592,
      "legislat": 9593,
      "carto": 9594,
      "scheme": 9595,
      "orange": 9596,
      "criminal": 9597,
      "thereafter": 9598,
      "weapon": 9599,
      "desire": 9600,
      "coordin": 9601,
      "attributed": 9602,
      "otherwise": 9603,
      "pes": 9604,
      "platinum": 9605,
      "somer": 9606,
      "phill": 9607,
      "approv": 9608,
      "poses": 9609,
      "thy": 9610,
      "strengthen": 9611,
      "shed": 9612,
      "casting": 9613,
      "neck": 9614,
      "wrong": 9615,
      "13th": 9616,
      "recovered": 9617,
      "adults": 9618,
      "korea": 9619,
      "amy": 9620,
      "stayed": 9621,
      "strategy": 9622,
      "gus": 9623,
      "accom": 9624,
      "bone": 9625,
      "fled": 9626,
      "retirement": 9627,
      "morris": 9628,
      "ultural": 9629,
      "communities": 9630,
      "effectively": 9631,
      "murray": 9632,
      "insur": 9633,
      "1952": 9634,
      "serves": 9635,
      "reinforce": 9636,
      "ministry": 9637,
      "outbreak": 9638,
      "rug": 9639,
      "joy": 9640,
      "falling": 9641,
      "facing": 9642,
      "musicians": 9643,
      "atro": 9644,
      "fab": 9645,
      "stri": 9646,
      "nelson": 9647,
      "pattern": 9648,
      "robinson": 9649,
      "elections": 9650,
      "documentary": 9651,
      "inqu": 9652,
      "chain": 9653,
      "fitted": 9654,
      "accounts": 9655,
      "71": 9656,
      "84": 9657,
      "stall": 9658,
      "ayer": 9659,
      "wear": 9660,
      "parks": 9661,
      "prey": 9662,
      "73": 9663,
      "unk": 9664,
      "fee": 9665,
      "races": 9666,
      "wine": 9667,
      "underground": 9668,
      "batting": 9669,
      "1933": 9670,
      "crosses": 9671,
      "rud": 9672,
      "coin": 9673,
      "inspiration": 9674,
      "marines": 9675,
      "trials": 9676,
      "dissip": 9677,
      "attracted": 9678,
      "hil": 9679,
      "convinced": 9680,
      "tub": 9681,
      "aza": 9682,
      "mck": 9683,
      "swi": 9684,
      "sees": 9685,
      "submarine": 9686,
      "solution": 9687,
      "dating": 9688,
      "hans": 9689,
      "iors": 9690,
      "movements": 9691,
      "racing": 9692,
      "refu": 9693,
      "injuries": 9694,
      "pale": 9695,
      "needs": 9696,
      "votes": 9697,
      "cip": 9698,
      "ceme": 9699,
      "raise": 9700,
      "sweden": 9701,
      "immig": 9702,
      "relative": 9703,
      "deplo": 9704,
      "tone": 9705,
      "separated": 9706,
      "1935": 9707,
      "quo": 9708,
      "boil": 9709,
      "renew": 9710,
      "uran": 9711,
      "symph": 9712,
      "sudden": 9713,
      "ensure": 9714,
      "pak": 9715,
      "commemor": 9716,
      "cad": 9717,
      "sover": 9718,
      "faces": 9719,
      "mete": 9720,
      "genes": 9721,
      "ulture": 9722,
      "garrison": 9723,
      "predecess": 9724,
      "battleships": 9725,
      "1949": 9726,
      "toronto": 9727,
      "1951": 9728,
      "welsh": 9729,
      "compos": 9730,
      "enses": 9731,
      "restored": 9732,
      "distinguished": 9733,
      "rent": 9734,
      "standards": 9735,
      "intense": 9736,
      "difficulty": 9737,
      "dock": 9738,
      "queens": 9739,
      "byzantine": 9740,
      "puer": 9741,
      "ique": 9742,
      "matthe": 9743,
      "delayed": 9744,
      "facility": 9745,
      "seemed": 9746,
      "surrounded": 9747,
      "authors": 9748,
      "bast": 9749,
      "loco": 9750,
      "sist": 9751,
      "radar": 9752,
      "hoped": 9753,
      "tomb": 9754,
      "absor": 9755,
      "requested": 9756,
      "consum": 9757,
      "measures": 9758,
      "hud": 9759,
      "remn": 9760,
      "childhood": 9761,
      "productions": 9762,
      "penalty": 9763,
      "internet": 9764,
      "netherlands": 9765,
      "apers": 9766,
      "atus": 9767,
      "agas": 9768,
      "publishing": 9769,
      "telling": 9770,
      "beck": 9771,
      "divers": 9772,
      "send": 9773,
      "impressed": 9774,
      "sts": 9775,
      "courts": 9776,
      "jazz": 9777,
      "moderate": 9778,
      "temperatures": 9779,
      "reviewer": 9780,
      "elsewhere": 9781,
      "concern": 9782,
      "bie": 9783,
      "greatly": 9784,
      "cathedral": 9785,
      "blu": 9786,
      "cement": 9787,
      "dangerous": 9788,
      "astro": 9789,
      "hind": 9790,
      "abled": 9791,
      "satell": 9792,
      "jews": 9793,
      "meets": 9794,
      "pha": 9795,
      "examples": 9796,
      "sweet": 9797,
      "obtain": 9798,
      "gra": 9799,
      "bears": 9800,
      "wet": 9801,
      "acks": 9802,
      "leads": 9803,
      "legs": 9804,
      "convection": 9805,
      "dimen": 9806,
      "adaptation": 9807,
      "accompl": 9808,
      "lith": 9809,
      "spoke": 9810,
      "kelly": 9811,
      "hid": 9812,
      "iraq": 9813,
      "easy": 9814,
      "frequent": 9815,
      "recordings": 9816,
      "ante": 9817,
      "involvement": 9818,
      "1900": 9819,
      "hatt": 9820,
      "hundreds": 9821,
      "assem": 9822,
      "pregn": 9823,
      "learn": 9824,
      "eggs": 9825,
      "immediate": 9826,
      "cope": 9827,
      "lose": 9828,
      "armen": 9829,
      "clay": 9830,
      "thomp": 9831,
      "sight": 9832,
      "scholars": 9833,
      "formally": 9834,
      "comfort": 9835,
      "anyone": 9836,
      "techniques": 9837,
      "hub": 9838,
      "phr": 9839,
      "journalist": 9840,
      "graduate": 9841,
      "learning": 9842,
      "encouraged": 9843,
      "wooden": 9844,
      "hes": 9845,
      "bureau": 9846,
      "firing": 9847,
      "margin": 9848,
      "somewhat": 9849,
      "trophy": 9850,
      "83": 9851,
      "jet": 9852,
      "rice": 9853,
      "prohib": 9854,
      "oles": 9855,
      "12th": 9856,
      "khan": 9857,
      "mars": 9858,
      "suffering": 9859,
      "islam": 9860,
      "premiered": 9861,
      "legislation": 9862,
      "pilo": 9863,
      "talent": 9864,
      "russell": 9865,
      "termine": 9866,
      "thompson": 9867,
      "powered": 9868,
      "croatian": 9869,
      "trained": 9870,
      "assass": 9871,
      "horror": 9872,
      "determine": 9873,
      "rav": 9874,
      "dot": 9875,
      "dish": 9876,
      "oz": 9877,
      "dismissed": 9878,
      "dna": 9879,
      "bos": 9880,
      "carter": 9881,
      "mature": 9882,
      "calcul": 9883,
      "profit": 9884,
      "modified": 9885,
      "promise": 9886,
      "9th": 9887,
      "orb": 9888,
      "steven": 9889,
      "iot": 9890,
      "nbc": 9891,
      "aco": 9892,
      "wig": 9893,
      "interests": 9894,
      "alcohol": 9895,
      "stones": 9896,
      "whereas": 9897,
      "vation": 9898,
      "veget": 9899,
      "forcing": 9900,
      "changing": 9901,
      "attempting": 9902,
      "ij": 9903,
      "puerto": 9904,
      "nfl": 9905,
      "yi": 9906,
      "arrangement": 9907,
      "lod": 9908,
      "grace": 9909,
      "extreme": 9910,
      "convoy": 9911,
      "ture": 9912,
      "attacking": 9913,
      "questions": 9914,
      "poetry": 9915,
      "tap": 9916,
      "mcc": 9917,
      "hav": 9918,
      "harbor": 9919,
      "amph": 9920,
      "pip": 9921,
      "berlin": 9922,
      "controversial": 9923,
      "rets": 9924,
      "dee": 9925,
      "spears": 9926,
      "bats": 9927,
      "formerly": 9928,
      "dict": 9929,
      "liqu": 9930,
      "biggest": 9931,
      "guardian": 9932,
      "cript": 9933,
      "impl": 9934,
      "register": 9935,
      "chel": 9936,
      "conclusion": 9937,
      "starred": 9938,
      "brick": 9939,
      "monitor": 9940,
      "influences": 9941,
      "closer": 9942,
      "wolf": 9943,
      "absence": 9944,
      "nell": 9945,
      "wag": 9946,
      "cloud": 9947,
      "apple": 9948,
      "batman": 9949,
      "intent": 9950,
      "genetic": 9951,
      "arian": 9952,
      "driver": 9953,
      "hungarian": 9954,
      "township": 9955,
      "scand": 9956,
      "blow": 9957,
      "1913": 9958,
      "harris": 9959,
      "informed": 9960,
      "extin": 9961,
      "instruments": 9962,
      "files": 9963,
      "suic": 9964,
      "deemed": 9965,
      "commonwealth": 9966,
      "plain": 9967,
      "strik": 9968,
      "anes": 9969,
      "erce": 9970,
      "novels": 9971,
      "toms": 9972,
      "parker": 9973,
      "detach": 9974,
      "arry": 9975,
      "laboratory": 9976,
      "apparently": 9977,
      "narrative": 9978,
      "amb": 9979,
      "landed": 9980,
      "ouse": 9981,
      "distributed": 9982,
      "landsc": 9983,
      "niel": 9984,
      "bronze": 9985,
      "imes": 9986,
      "loop": 9987,
      "testing": 9988,
      "tha": 9989,
      "covers": 9990,
      "politan": 9991,
      "1926": 9992,
      "representing": 9993,
      "terror": 9994,
      "diet": 9995,
      "satisf": 9996,
      "longest": 9997,
      "depos": 9998,
      "creative": 9999,
      "territories": 10000,
      "mani": 10001,
      "watching": 10002,
      "normally": 10003,
      "armament": 10004,
      "matters": 10005,
      "operate": 10006,
      "oxy": 10007,
      "diagno": 10008,
      "900": 10009,
      "zero": 10010,
      "enters": 10011,
      "1927": 10012,
      "finn": 10013,
      "ameter": 10014,
      "gallery": 10015,
      "vs": 10016,
      "restoration": 10017,
      "gib": 10018,
      "embar": 10019,
      "fishing": 10020,
      "phe": 10021,
      "uro": 10022,
      "coins": 10023,
      "comics": 10024,
      "engage": 10025,
      "mainstream": 10026,
      "1921": 10027,
      "secured": 10028,
      "victims": 10029,
      "mack": 10030,
      "hearing": 10031,
      "hole": 10032,
      "visitors": 10033,
      "disci": 10034,
      "1934": 10035,
      "releases": 10036,
      "basin": 10037,
      "ancy": 10038,
      "iley": 10039,
      "substit": 10040,
      "aa": 10041,
      "unsuccessful": 10042,
      "giants": 10043,
      "tenance": 10044,
      "graphical": 10045,
      "resolution": 10046,
      "format": 10047,
      "weekend": 10048,
      "believes": 10049,
      "wes": 10050,
      "hin": 10051,
      "mini": 10052,
      "houston": 10053,
      "refuge": 10054,
      "trek": 10055,
      "excess": 10056,
      "desert": 10057,
      "influential": 10058,
      "defended": 10059,
      "ixon": 10060,
      "mitch": 10061,
      "fisher": 10062,
      "printed": 10063,
      "imet": 10064,
      "depicted": 10065,
      "agents": 10066,
      "meteor": 10067,
      "clip": 10068,
      "videos": 10069,
      "housing": 10070,
      "cous": 10071,
      "cliff": 10072,
      "forth": 10073,
      "attorney": 10074,
      "inary": 10075,
      "founder": 10076,
      "dum": 10077,
      "devil": 10078,
      "dominated": 10079,
      "churches": 10080,
      "relationships": 10081,
      "jacob": 10082,
      "fc": 10083,
      "1912": 10084,
      "string": 10085,
      "notably": 10086,
      "liz": 10087,
      "140": 10088,
      "indians": 10089,
      "santa": 10090,
      "chess": 10091,
      "ani": 10092,
      "shr": 10093,
      "cant": 10094,
      "swedish": 10095,
      "merged": 10096,
      "neighbour": 10097,
      "eland": 10098,
      "goslav": 10099,
      "simpson": 10100,
      "roberts": 10101,
      "pill": 10102,
      "languages": 10103,
      "exit": 10104,
      "skills": 10105,
      "alab": 10106,
      "util": 10107,
      "ultane": 10108,
      "simultane": 10109,
      "offices": 10110,
      "glac": 10111,
      "1932": 10112,
      "jesus": 10113,
      "lov": 10114,
      "device": 10115,
      "communication": 10116,
      "cabinet": 10117,
      "sad": 10118,
      "stances": 10119,
      "pad": 10120,
      "occupation": 10121,
      "bapt": 10122,
      "drums": 10123,
      "mental": 10124,
      "remin": 10125,
      "raaf": 10126,
      "opponents": 10127,
      "factors": 10128,
      "cemetery": 10129,
      "emotional": 10130,
      "fis": 10131,
      "teeth": 10132,
      "pse": 10133,
      "saf": 10134,
      "dress": 10135,
      "deployed": 10136,
      "warner": 10137,
      "aska": 10138,
      "scientists": 10139,
      "jason": 10140,
      "tot": 10141,
      "aus": 10142,
      "operational": 10143,
      "dialogue": 10144,
      "yugoslav": 10145,
      "reportedly": 10146,
      "anthony": 10147,
      "170": 10148,
      "aj": 10149,
      "mov": 10150,
      "constitutional": 10151,
      "berry": 10152,
[...]
