{
  "version": "1.0",
  "truncation": null,
  "padding": null,
  "added_tokens": [
    {
      "id": 0,
      "content": "[UNK]",
      "single_word": false,
      "lstrip": false,
      "rstrip": false,
      "normalized": false,
      "special": true
    },
    {
      "id": 1,
      "content": "[CLS]",
      "single_word": false,
      "lstrip": false,
      "rstrip": false,
      "normalized": false,
      "special": true
    },
    {
      "id": 2,
      "content": "[SEP]",
      "single_word": false,
      "lstrip": false,
      "rstrip": false,
      "normalized": false,
      "special": true
    },
    {
      "id": 3,
      "content": "[PAD]",
      "single_word": false,
      "lstrip": false,
      "rstrip": false,
      "normalized": false,
      "special": true
    },
    {
      "id": 4,
      "content": "[MASK]",
      "single_word": false,
      "lstrip": false,
      "rstrip": false,
      "normalized": false,
      "special": true
    }
  ],
  "normalizer": {
    "type": "Sequence",
    "normalizers": [
      {
        "type": "NFD"
      },
      {
        "type": "Lowercase"
      },
      {
        "type": "StripAccents"
      }
    ]
  },
  "pre_tokenizer": {
    "type": "Whitespace"
  },
  "post_processor": {
    "type": "TemplateProcessing",
    "single": [
      {
        "SpecialToken": {
          "id": "[CLS]",
          "type_id": 0
        }
      },
      {
        "Sequence": {
          "id": "A",
          "type_id": 0
        }
      },
      {
        "SpecialToken": {
          "id": "[SEP]",
          "type_id": 0
        }
      }
    ],
    "pair": [
      {
        "SpecialToken": {
          "id": "[CLS]",
          "type_id": 0
        }
      },
      {
        "Sequence": {
          "id": "A",
          "type_id": 0
        }
      },
      {
        "SpecialToken": {
          "id": "[SEP]",
          "type_id": 0
        }
      },
      {
        "Sequence": {
          "id": "B",
          "type_id": 1
        }
      },
      {
        "SpecialToken": {
          "id": "[SEP]",
          "type_id": 1
        }
      }
    ],
    "special_tokens": {
      "[CLS]": {
        "id": "[CLS]",
        "ids": [
          1
        ],
        "tokens": [
          "[CLS]"
        ]
      },
      "[SEP]": {
        "id": "[SEP]",
        "ids": [
          2
        ],
        "tokens": [
          "[SEP]"
        ]
      }
    }
  },
  "decoder": null,
  "model": {
    "type": "WordPiece",
    "unk_token": "[UNK]",
    "continuing_subword_prefix": "##",
    "max_input_chars_per_word": 100,
    "vocab": {
      "[UNK]": 0,
      "[CLS]": 1,
      "[SEP]": 2,
      "[PAD]": 3,
      "[MASK]": 4,
      "!": 5,
      "\"": 6,
      "'": 7,
      ",": 8,
      ".": 9,
      "0": 10,
      "1": 11,
      "2": 12,
      "3": 13,
      "4": 14,
      "5": 15,
      "6": 16,
      "7": 17,
      "8": 18,
      "9": 19,
      ":": 20,
      ";": 21,
      "?": 22,
      "a": 23,
      "b": 24,
      "c": 25,
      "d": 26,
      "e": 27,
      "f": 28,
      "g": 29,
      "h": 30,
      "i": 31,
      "j": 32,
      "k": 33,
      "l": 34,
      "m": 35,
      "n": 36,
      "o": 37,
      "p": 38,
      "q": 39,
      "r": 40,
      "s": 41,
      "t": 42,
      "u": 43,
      "v": 44,
      "w": 45,
      "x": 46,
      "y": 47,
      "z": 48,
      "æ": 49,
      "ð": 50,
      "ŋ": 51,
      "ɑ": 52,
      "ɔ": 53,
      "ə": 54,
      "ɛ": 55,
      "ɡ": 56,
      "ɪ": 57,
      "ɹ": 58,
      "ʃ": 59,
      "ʊ": 60,
      "ʌ": 61,
      "ʒ": 62,
      "θ": 63,
      "##o": 64,
      "##w": 65,
      "##b": 66,
      "##ɑ": 67,
      "##s": 68,
      "##ə": 69,
      "##e": 70,
      "##n": 71,
      "##p": 72,
      "##a": 73,
      "##d": 74,
      "##u": 75,
      "##r": 76,
      "##h": 77,
      "##i": 78,
      "##f": 79,
      "##m": 80,
      "##æ": 81,
      "##t": 82,
      "##ɹ": 83,
      "##l": 84,
      "##g": 85,
      "##v": 86,
      "##ʒ": 87,
      "##ɪ": 88,
      "##k": 89,
      "##2": 90,
      "##5": 91,
      "##4": 92,
      "##c": 93,
      "##x": 94,
      "##ʌ": 95,
      "##ʃ": 96,
      "##y": 97,
      "##j": 98,
      "##z": 99,
      "##1": 100,
      "##θ": 101,
      "##ɔ": 102,
      "##ɡ": 103,
      "##ɛ": 104,
      "##7": 105,
      "##9": 106,
      "##q": 107,
      "##ŋ": 108,
      "##ʊ": 109,
      "##0": 110,
      "##3": 111,
      "##8": 112,
      "##ð": 113,
      "##6": 114,
      "##.": 115,
      "##'": 116,
      "##nd": 117,
      "##he": 118,
      "the": 119,
      "ðə": 120,
      "##ən": 121,
      "##er": 122,
      "##st": 123,
      "##ej": 124,
      "##in": 125,
      "##ow": 126,
      "##nt": 127,
      "##ed": 128,
      "##aj": 129,
      "##on": 130,
      "##or": 131,
      "##at": 132,
      "##əl": 133,
      "##ar": 134,
      "##it": 135,
      "##ɔɹ": 136,
      "##es": 137,
      "of": 138,
      "##al": 139,
      "ɪn": 140,
      "in": 141,
      "ʌv": 142,
      "##ɪŋ": 143,
      "##ing": 144,
      "##an": 145,
      "ænd": 146,
      "and": 147,
      "to": 148,
      "##as": 149,
      "##is": 150,
      "##ic": 151,
      "st": 152,
      "##ou": 153,
      "tə": 154,
      "##re": 155,
      "##il": 156,
      "##ion": 157,
      "##en": 158,
      "##əd": 159,
      "##om": 160,
      "##ɹi": 161,
      "##ts": 162,
      "##ʃən": 163,
      "##li": 164,
      "##ɪk": 165,
      "th": 166,
      "##el": 167,
      "##aw": 168,
      "##ec": 169,
      "##ent": 170,
      "wɪ": 171,
      "##tɹ": 172,
      "##əm": 173,
      "##tʃ": 174,
      "##ɑɹ": 175,
      "wɑ": 176,
      "##am": 177,
      "##id": 178,
      "pɹ": 179,
      "##əs": 180,
      "##ət": 181,
      "##ad": 182,
      "##le": 183,
      "##ur": 184,
      "on": 185,
      "was": 186,
      "##ac": 187,
      "wɑz": 188,
      "19": 189,
      "##ld": 190,
      "fɔɹ": 191,
      "##ro": 192,
      "##ɛɹ": 193,
      "##iv": 194,
      "##et": 195,
      "dɪ": 196,
      "for": 197,
      "##ks": 198,
      "##ut": 199,
      "##ly": 200,
      "##æt": 201,
      "##im": 202,
      "##dʒ": 203,
      "##ir": 204,
      "fɹ": 205,
      "##æn": 206,
      "as": 207,
      "##ɛn": 208,
      "re": 209,
      "##ʌm": 210,
      "dʒ": 211,
      "##ɪz": 212,
      "##ənt": 213,
      "be": 214,
      "##ot": 215,
      "##ɛk": 216,
      "20": 217,
      "ɛs": 218,
      "ɑn": 219,
      "##ol": 220,
      "##ig": 221,
      "##ɪn": 222,
      "hæ": 223,
      "##us": 224,
      "##ith": 225,
      "##mp": 226,
      "##ay": 227,
      "##ers": 228,
      "##ejt": 229,
      "##ɪl": 230,
      "##vɹ": 231,
      "##un": 232,
      "æz": 233,
      "al": 234,
      "with": 235,
      "##ul": 236,
      "pl": 237,
      "##ɪt": 238,
      "##ation": 239,
      "that": 240,
      "ðæt": 241,
      "##ɹz": 242,
      "wɪð": 243,
      "wh": 244,
      "baj": 245,
      "##ɹd": 246,
      "##iz": 247,
      "sp": 248,
      "##ɛl": 249,
      "##ud": 250,
      "##mb": 251,
      "at": 252,
      "by": 253,
      "he": 254,
      "##ejʃən": 255,
      "is": 256,
      "##ək": 257,
      "##ce": 258,
      "##ch": 259,
      "##ver": 260,
      "an": 261,
      "##ist": 262,
      "fr": 263,
      "wɹ": 264,
      "##ɪs": 265,
      "##ɛnt": 266,
      "tɹ": 267,
      "ow": 268,
      "##os": 269,
      "kɑ": 270,
      "##and": 271,
      "ch": 272,
      "##əz": 273,
      "##ain": 274,
      "##pt": 275,
      "##um": 276,
      "##th": 277,
      "ɪz": 278,
      "##ge": 279,
      "##her": 280,
      "de": 281,
      "##ʌn": 282,
      "##ɪd": 283,
      "##av": 284,
      "##own": 285,
      "com": 286,
      "##ip": 287,
      "##əns": 288,
      "##ju": 289,
      "it": 290,
      "æt": 291,
      "hi": 292,
      "##ft": 293,
      "##ejm": 294,
      "su": 295,
      "co": 296,
      "his": 297,
      "ɪt": 298,
      "hɪz": 299,
      "##æk": 300,
      "ɑɹ": 301,
      "se": 302,
      "##ajt": 303,
      "from": 304,
      "fɹʌm": 305,
      "##ɪv": 306,
      "bɹ": 307,
      "tʃ": 308,
      "pro": 309,
      "##ess": 310,
      "##low": 311,
      "##ct": 312,
      "##od": 313,
      "ɔl": 314,
      "##ənd": 315,
      "##ɛd": 316,
      "##pɹ": 317,
      "200": 318,
      "kɹ": 319,
      "##stɹ": 320,
      "##ere": 321,
      "æn": 322,
      "con": 323,
      "ne": 324,
      "##ɪɹ": 325,
      "##ðɹ": 326,
      "##ejn": 327,
      "##ɪʃ": 328,
      "##ɛɹi": 329,
      "##ɑn": 330,
      "sh": 331,
      "##op": 332,
      "##ri": 333,
      "##ajd": 334,
      "ɹɪ": 335,
      "ɪnt": 336,
      "bi": 337,
      "##ajn": 338,
      "##ɑt": 339,
      "##ate": 340,
      "##mən": 341,
      "##ɪst": 342,
      "ɡɹ": 343,
      "##ect": 344,
      "##ard": 345,
      "##art": 346,
      "##ænd": 347,
      "##ɛs": 348,
      "or": 349,
      "##oj": 350,
      "##if": 351,
      "##gh": 352,
      "sk": 353,
      "##00": 354,
      "ar": 355,
      "ex": 356,
      "were": 357,
      "##ich": 358,
      "##pp": 359,
      "##ɛst": 360,
      "##ies": 361,
      "##oc": 362,
      "##ment": 363,
      "##ak": 364,
      "int": 365,
      "##ant": 366,
      "pr": 367,
      "##ab": 368,
      "ju": 369,
      "##əp": 370,
      "le": 371,
      "##all": 372,
      "##igh": 373,
      "##bɹ": 374,
      "##ast": 375,
      "##ill": 376,
      "##se": 377,
      "##ort": 378,
      "mej": 379,
      "##əst": 380,
      "aj": 381,
      "##ag": 382,
      "kæ": 383,
      "tr": 384,
      "kəm": 385,
      "18": 386,
      "bɪ": 387,
      "##ated": 388,
      "##est": 389,
      "##ity": 390,
      "##ong": 391,
      "##əb": 392,
      "##ʊɹ": 393,
      "##ap": 394,
      "dɪs": 395,
      "nu": 396,
      "##ik": 397,
      "##ʌt": 398,
      "##ame": 399,
      "##ɔl": 400,
      "##ive": 401,
      "ðɛɹ": 402,
      "##ɑɹt": 403,
      "##ore": 404,
      "had": 405,
      "201": 406,
      "hæd": 407,
      "##pl": 408,
      "##lud": 409,
      "un": 410,
      "##əli": 411,
      "##ʊd": 412,
      "##ɛt": 413,
      "##ɔɹd": 414,
      "##owl": 415,
      "##our": 416,
      "wɪtʃ": 417,
      "##ear": 418,
      "mo": 419,
      "which": 420,
      "##zd": 421,
      "##ɔŋ": 422,
      "are": 423,
      "##ajm": 424,
      "##ɪp": 425,
      "##ough": 426,
      "aw": 427,
      "##bl": 428,
      "##ɑl": 429,
      "##vi": 430,
      "not": 431,
      "##əf": 432,
      "fl": 433,
      "tim": 434,
      "##kɹ": 435,
      "##ial": 436,
      "##ɪm": 437,
      "ɔɹ": 438,
      "##ɔɹt": 439,
      "##ound": 440,
      "br": 441,
      "##ədʒ": 442,
      "##awnd": 443,
      "wʌn": 444,
      "##kt": 445,
      "##mənt": 446,
      "##ɛkt": 447,
      "##ian": 448,
      "##ɪʃən": 449,
      "now": 450,
      "tw": 451,
      "rec": 452,
      "##ejd": 453,
      "##qu": 454,
      "##əɡ": 455,
      "##ack": 456,
      "dɹ": 457,
      "##ine": 458,
      "ej": 459,
      "##ejs": 460,
      "##ust": 461,
      "bl": 462,
      "##ary": 463,
      "wor": 464,
      "hɹ": 465,
      "whe": 466,
      "##ʒən": 467,
      "##out": 468,
      "kl": 469,
      "##ia": 470,
      "##əti": 471,
      "sɹ": 472,
      "##ajl": 473,
      "##ejl": 474,
      "##ell": 475,
      "##ɛnd": 476,
      "##əlz": 477,
      "æf": 478,
      "##cc": 479,
      "ad": 480,
      "##ical": 481,
      "##ave": 482,
      "sc": 483,
      "how": 484,
      "cl": 485,
      "##ve": 486,
      "gr": 487,
      "but": 488,
      "##sow": 489,
      "fir": 490,
      "her": 491,
      "##æs": 492,
      "en": 493,
      "##ord": 494,
      "tu": 495,
      "hu": 496,
      "##mber": 497,
      "this": 498,
      "ðɪs": 499,
      "bʌt": 500,
      "inc": 501,
      "jun": 502,
      "##act": 503,
      "sɛ": 504,
      "##ther": 505,
      "comp": 506,
      "kən": 507,
      "##fter": 508,
      "cont": 509,
      "##ould": 510,
      "sʌ": 511,
      "ab": 512,
      "##owd": 513,
      "##ejtəd": 514,
      "##ous": 515,
      "##ish": 516,
      "æftɹ": 517,
      "##æl": 518,
      "##ɑp": 519,
      "after": 520,
      "fɹst": 521,
      "first": 522,
      "##so": 523,
      "stɹ": 524,
      "##awn": 525,
      "nɑt": 526,
      "##ions": 527,
      "me": 528,
      "##ight": 529,
      "##æm": 530,
      "##ɪɹi": 531,
      "##ɡɹ": 532,
      "its": 533,
      "res": 534,
      "ɪts": 535,
      "new": 536,
      "own": 537,
      "##owz": 538,
      "##fɔɹ": 539,
      "hæv": 540,
      "##ure": 541,
      "their": 542,
      "##ɛmb": 543,
      "##ff": 544,
      "ro": 545,
      "di": 546,
      "##owst": 547,
      "laj": 548,
      "fe": 549,
      "man": 550,
      "one": 551,
      "##ɑd": 552,
      "##age": 553,
      "##ɛm": 554,
      "##ue": 555,
      "per": 556,
      "199": 557,
      "##ass": 558,
      "also": 559,
      "ɔlsow": 560,
      "##te": 561,
      "əb": 562,
      "##ome": 563,
      "go": 564,
      "mar": 565,
      "##ejnd": 566,
      "cr": 567,
      "us": 568,
      "##owt": 569,
      "she": 570,
      "##ater": 571,
      "##ign": 572,
      "##mer": 573,
      "##og": 574,
      "##owk": 575,
      "ɪnk": 576,
      "##ənz": 577,
      "##ie": 578,
      "##ɪdʒ": 579,
      "##əv": 580,
      "##man": 581,
      "##ide": 582,
      "##ʌl": 583,
      "##vd": 584,
      "##ild": 585,
      "they": 586,
      "ðej": 587,
      "##fɹ": 588,
      "ser": 589,
      "##ajɹ": 590,
      "æl": 591,
      "##ree": 592,
      "##ɪks": 593,
      "##ond": 594,
      "ən": 595,
      "##hed": 596,
      "##awt": 597,
      "##ɑk": 598,
      "two": 599,
      "tajm": 600,
      "ag": 601,
      "##ps": 602,
      "who": 603,
      "te": 604,
      "##ern": 605,
      "əp": 606,
      "haw": 607,
      "ɹɛ": 608,
      "have": 609,
      "des": 610,
      "##sp": 611,
      "##ok": 612,
      "dis": 613,
      "bec": 614,
      "mæ": 615,
      "##ally": 616,
      "##ry": 617,
      "bɪk": 618,
      "##ib": 619,
      "no": 620,
      "##ile": 621,
      "app": 622,
      "we": 623,
      "##uc": 624,
      "ɪntɹ": 625,
      "owvɹ": 626,
      "part": 627,
      "mɔɹ": 628,
      "##jəl": 629,
      "bɪn": 630,
      "sm": 631,
      "##ence": 632,
      "##ition": 633,
      "##ŋk": 634,
      "year": 635,
      "rel": 636,
      "##ɑm": 637,
      "off": 638,
      "##tɹz": 639,
      "##əw": 640,
      "ɛn": 641,
      "has": 642,
      "play": 643,
      "hæz": 644,
      "##uring": 645,
      "##per": 646,
      "000": 647,
      "been": 648,
      "dej": 649,
      "comm": 650,
      "ɪks": 651,
      "##ti": 652,
      "##ely": 653,
      "other": 654,
      "##ajz": 655,
      "##ade": 656,
      "over": 657,
      "##ount": 658,
      "ɪnd": 659,
      "nɔɹ": 660,
      "##ru": 661,
      "so": 662,
      "ʃi": 663,
      "##ejk": 664,
      "wʊd": 665,
      "##tʃɹ": 666,
      "bo": 667,
      "lɛ": 668,
      "##ace": 669,
      "##ice": 670,
      "əm": 671,
      "##ɪkəl": 672,
      "##ɛmbɹ": 673,
      "##jən": 674,
      "si": 675,
      "##att": 676,
      "10": 677,
      "fɪl": 678,
      "car": 679,
      "sɛnt": 680,
      "##juz": 681,
      "ɡejm": 682,
      "fil": 683,
      "pɑɹt": 684,
      "##iə": 685,
      "##ations": 686,
      "##ach": 687,
      "po": 688,
      "##ans": 689,
      "θɹ": 690,
      "##əbəl": 691,
      "##ory": 692,
      "##ance": 693,
      "##sən": 694,
      "fɑ": 695,
      "up": 696,
      "pre": 697,
      "##ʊɹɪŋ": 698,
      "wɛn": 699,
      "ɹil": 700,
      "əl": 701,
      "all": 702,
      "dec": 703,
      "mu": 704,
      "sʌm": 705,
      "du": 706,
      "##iən": 707,
      "ev": 708,
      "when": 709,
      "col": 710,
      "maj": 711,
      "##ejtɹ": 712,
      "##ved": 713,
      "plej": 714,
      "##orm": 715,
      "##ʌk": 716,
      "sow": 717,
      "##land": 718,
      "mɑɹ": 719,
      "pɹɑ": 720,
      "##ail": 721,
      "time": 722,
      "##ndɹ": 723,
      "ɔf": 724,
      "ʌðɹ": 725,
      "##ɑɹd": 726,
      "out": 727,
      "during": 728,
      "dʊɹɪŋ": 729,
      "17": 730,
      "ət": 731,
      "##nder": 732,
      "##æst": 733,
      "##ite": 734,
      "sɛk": 735,
      "##æns": 736,
      "includ": 737,
      "ɪnklud": 738,
      "kw": 739,
      "ind": 740,
      "##ult": 741,
      "##urn": 742,
      "##ens": 743,
      "ək": 744,
      "can": 745,
      "##ŋɡ": 746,
      "##itʃ": 747,
      "##em": 748,
      "would": 749,
      "sec": 750,
      "##ækt": 751,
      "##vəl": 752,
      "haj": 753,
      "dɪv": 754,
      "əɡ": 755,
      "rep": 756,
      "par": 757,
      "##one": 758,
      "##ejʃənz": 759,
      "##ber": 760,
      "hɪm": 761,
      "awt": 762,
      "##ajnd": 763,
      "into": 764,
      "ɪntu": 765,
      "him": 766,
      "##ra": 767,
      "##we": 768,
      "kɑn": 769,
      "##ɪti": 770,
      "wɔɹ": 771,
      "15": 772,
      "##ænt": 773,
      "12": 774,
      "##vel": 775,
      "198": 776,
      "sin": 777,
      "##ric": 778,
      "ɛɹ": 779,
      "min": 780,
      "##ates": 781,
      "ɛnd": 782,
      "war": 783,
      "ear": 784,
      "jo": 785,
      "char": 786,
      "##pən": 787,
      "##awnt": 788,
      "kəns": 789,
      "194": 790,
      "##ang": 791,
      "act": 792,
      "##able": 793,
      "##ered": 794,
      "##bəl": 795,
      "##wej": 796,
      "##ʌvɹ": 797,
      "##ased": 798,
      "əd": 799,
      "fin": 800,
      "more": 801,
      "##ase": 802,
      "bet": 803,
      "##ited": 804,
      "cent": 805,
      "##ose": 806,
      "##fl": 807,
      "fɪlm": 808,
      "##ɡz": 809,
      "film": 810,
      "fɔɹm": 811,
      "##ʊk": 812,
      "mɛn": 813,
      "##ejtʃ": 814,
      "lo": 815,
      "##ɛvɹ": 816,
      "##ɛns": 817,
      "##ick": 818,
      "##ʌst": 819,
      "16": 820,
      "thr": 821,
      "##lənd": 822,
      "##ʃənəl": 823,
      "acc": 824,
      "##ind": 825,
      "stud": 826,
      "siz": 827,
      "##ted": 828,
      "##ire": 829,
      "##amp": 830,
      "##ason": 831,
      "##ʃəl": 832,
      "##ows": 833,
      "##ors": 834,
      "mus": 835,
      "wajl": 836,
      "æd": 837,
      "197": 838,
      "while": 839,
      "11": 840,
      "kn": 841,
      "##ings": 842,
      "nor": 843,
      "196": 844,
      "most": 845,
      "mowst": 846,
      "bu": 847,
      "##ɪŋz": 848,
      "##up": 849,
      "game": 850,
      "##les": 851,
      "dr": 852,
      "##ajv": 853,
      "##ɛz": 854,
      "##ənts": 855,
      "kæn": 856,
      "##ɪɹz": 857,
      "there": 858,
      "ʌp": 859,
      "##ejndʒ": 860,
      "bɪɡ": 861,
      "##win": 862,
      "##ejts": 863,
      "##ces": 864,
      "rem": 865,
      "##iow": 866,
      "mɪl": 867,
      "kənt": 868,
      "cons": 869,
      "gen": 870,
      "##ʃənz": 871,
      "##ake": 872,
      "ɪl": 873,
      "saw": 874,
      "pe": 875,
      "ɪmp": 876,
      "##aus": 877,
      "qu": 878,
      "##fer": 879,
      "##bs": 880,
      "imp": 881,
      "##rit": 882,
      "##gr": 883,
      "later": 884,
      "##ɹəl": 885,
      "##gan": 886,
      "song": 887,
      "sɔŋ": 888,
      "##iss": 889,
      "##ɔɹi": 890,
      "mæn": 891,
      "again": 892,
      "əɡɛn": 893,
      "only": 894,
      "ownli": 895,
      "bow": 896,
      "lejtɹ": 897,
      "bɪt": 898,
      "gre": 899,
      "reg": 900,
      "ʌndɹ": 901,
      "##vən": 902,
      "##ɪkt": 903,
      "fol": 904,
      "lɔ": 905,
      "##rib": 906,
      "work": 907,
      "##ey": 908,
      "pu": 909,
      "##ntɹ": 910,
      "##əts": 911,
      "##ɛɹək": 912,
      "may": 913,
      "under": 914,
      "them": 915,
      "prod": 916,
      "sy": 917,
      "##end": 918,
      "ret": 919,
      "some": 920,
      "than": 921,
      "##ətɪv": 922,
      "##ath": 923,
      "θɹi": 924,
      "dɪf": 925,
      "three": 926,
      "##als": 927,
      "sw": 928,
      "##ɑɹdʒ": 929,
      "about": 930,
      "əbawt": 931,
      "13": 932,
      "##ock": 933,
      "θɹu": 934,
      "##eld": 935,
      "##ood": 936,
      "ɪk": 937,
      "##ween": 938,
      "##ɪf": 939,
      "between": 940,
      "bɪtwin": 941,
      "wɪl": 942,
      "##ons": 943,
      "ac": 944,
      "kɔɹ": 945,
      "##oth": 946,
      "day": 947,
      "##ʌbl": 948,
      "##hip": 949,
      "wɛɹ": 950,
      "mjuz": 951,
      "el": 952,
      "##ction": 953,
      "high": 954,
      "air": 955,
      "##ents": 956,
      "nɔɹθ": 957,
      "##tiejtʃ": 958,
      "##ɪns": 959,
      "through": 960,
      "##ɪɡ": 961,
      "rele": 962,
      "record": 963,
      "low": 964,
      "fɑlow": 965,
      "follow": 966,
      "am": 967,
      "ass": 968,
      "ðæn": 969,
      "eng": 970,
      "##bj": 971,
      "##fɔɹm": 972,
      "##ter": 973,
      "att": 974,
      "sɛkənd": 975,
      "second": 976,
      "##fore": 977,
      "##ren": 978,
      "##ational": 979,
      "vɹ": 980,
      "end": 981,
      "##outh": 982,
      "mʌ": 983,
      "##ʃɪp": 984,
      "##way": 985,
      "ph": 986,
      "14": 987,
      "##ɪʒən": 988,
      "##ict": 989,
      "##hn": 990,
      "##ating": 991,
      "æk": 992,
      "##pr": 993,
      "##ɑɹk": 994,
      "pres": 995,
      "##ew": 996,
      "##aid": 997,
      "195": 998,
      "ɛm": 999,
      "sɹv": 1000,
      "##orn": 1001,
      "##ember": 1002,
      "##ajzd": 1003,
      "ed": 1004,
      "pol": 1005,
      "season": 1006,
      "alb": 1007,
      "dʒɛn": 1008,
      "##ced": 1009,
      "do": 1010,
      "##its": 1011,
      "##ɑs": 1012,
      "four": 1013,
      "def": 1014,
      "193": 1015,
      "næ": 1016,
      "ep": 1017,
      "sɪɹi": 1018,
      "sl": 1019,
      "amer": 1020,
      "ɹɛk": 1021,
      "pos": 1022,
      "americ": 1023,
      "wɹld": 1024,
      "world": 1025,
      "dɛ": 1026,
      "ɹæ": 1027,
      "əmɛɹək": 1028,
      "north": 1029,
      "wɛl": 1030,
      "ɹɪz": 1031,
      "mi": 1032,
      "count": 1033,
      "##pəs": 1034,
      "ɪf": 1035,
      "ent": 1036,
      "where": 1037,
      "sim": 1038,
      "form": 1039,
      "##oun": 1040,
      "mejd": 1041,
      "ɹaj": 1042,
      "##ʌnt": 1043,
      "ælb": 1044,
      "bɪfɔɹ": 1045,
      "before": 1046,
      "cre": 1047,
      "jɪɹ": 1048,
      "##ejtɪd": 1049,
      "191": 1050,
      "sɪŋ": 1051,
      "ɪnv": 1052,
      "##ojnt": 1053,
      "pɹi": 1054,
      "##əkəl": 1055,
      "wɹk": 1056,
      "##ral": 1057,
      "team": 1058,
      "##tən": 1059,
      "##ular": 1060,
      "sawθ": 1061,
      "##ames": 1062,
      "əs": 1063,
      "spec": 1064,
      "ɪksp": 1065,
      "ɹli": 1066,
      "nejm": 1067,
      "pɹəd": 1068,
      "made": 1069,
      "ðɛm": 1070,
      "ɑɹm": 1071,
      "arm": 1072,
      "lar": 1073,
      "gu": 1074,
      "sch": 1075,
      "kʌm": 1076,
      "west": 1077,
      "bɪl": 1078,
      "##ision": 1079,
      "vi": 1080,
      "sizən": 1081,
      "batt": 1082,
      "##ived": 1083,
      "such": 1084,
      "sʌtʃ": 1085,
      "##ied": 1086,
      "##ɹn": 1087,
      "##hes": 1088,
      "sur": 1089,
      "##ɛmp": 1090,
      "bæ": 1091,
      "##ejtɪŋ": 1092,
      "pow": 1093,
      "sing": 1094,
      "ælbəm": 1095,
      "album": 1096,
      "nʌm": 1097,
      "##ug": 1098,
      "##ph": 1099,
      "##owld": 1100,
      "kəmp": 1101,
      "publ": 1102,
      "##ery": 1103,
      "ɛl": 1104,
      "##ever": 1105,
      "##ards": 1106,
      "##ajtəd": 1107,
      "##ton": 1108,
      "##ished": 1109,
      "li": 1110,
      "sever": 1111,
      "##ejst": 1112,
      "##ɡəl": 1113,
      "pʌbl": 1114,
      "jɪɹz": 1115,
      "years": 1116,
      "##ained": 1117,
      "met": 1118,
      "str": 1119,
      "30": 1120,
      "dɪz": 1121,
      "səp": 1122,
      "perf": 1123,
      "##ics": 1124,
      "##ɪʃt": 1125,
      "##ɛktəd": 1126,
      "##ss": 1127,
      "supp": 1128,
      "##wɔɹd": 1129,
      "writ": 1130,
      "sɪ": 1131,
      "##ʌŋ": 1132,
      "gener": 1133,
      "##æmp": 1134,
      "bro": 1135,
      "south": 1136,
      "ɪv": 1137,
      "loc": 1138,
      "##ub": 1139,
      "##əks": 1140,
      "call": 1141,
      "ɹip": 1142,
      "add": 1143,
      "##ert": 1144,
      "##jəlɹ": 1145,
      "lowk": 1146,
      "##jə": 1147,
      "lɑɹdʒ": 1148,
      "inv": 1149,
      "both": 1150,
      "##io": 1151,
      "##uz": 1152,
      "lik": 1153,
      "bowθ": 1154,
      "##ected": 1155,
      "25": 1156,
      "##ep": 1157,
      "##ejv": 1158,
      "wɛ": 1159,
      "hɛ": 1160,
      "then": 1161,
      "inter": 1162,
      "ðɛn": 1163,
      "however": 1164,
      "hawɛvɹ": 1165,
      "##ily": 1166,
      "ɹɪm": 1167,
      "##ank": 1168,
      "used": 1169,
      "juzd": 1170,
      "ɹɪdʒ": 1171,
      "epis": 1172,
      "##..": 1173,
      "##ɔld": 1174,
      "ɛks": 1175,
      "##æks": 1176,
      "##ning": 1177,
      "biɪŋ": 1178,
      "being": 1179,
      "192": 1180,
      "sub": 1181,
      "ɛpəs": 1182,
      "##ɛntʃ": 1183,
      "these": 1184,
      "ðiz": 1185,
      "episod": 1186,
      "stejt": 1187,
      "mil": 1188,
      "well": 1189,
      "ɛpəsowd": 1190,
      "##sk": 1191,
      "state": 1192,
      "##ury": 1193,
      "sɪɹiz": 1194,
      "##ection": 1195,
      "ɪm": 1196,
      "bæk": 1197,
      "##ɡən": 1198,
      "##ual": 1199,
      "vɛɹi": 1200,
      "series": 1201,
      "against": 1202,
      "əɡɛnst": 1203,
      "bæt": 1204,
      "##int": 1205,
      "##az": 1206,
      "back": 1207,
      "##air": 1208,
      "kɹi": 1209,
      "ɛɹi": 1210,
      "##ane": 1211,
      "fajn": 1212,
      "...": 1213,
      "ɹej": 1214,
      "##vɹs": 1215,
      "charact": 1216,
      "##ific": 1217,
      "ɪɡz": 1218,
      "##au": 1219,
      "inst": 1220,
      "##æf": 1221,
      "fawnd": 1222,
      "found": 1223,
      "number": 1224,
      "##ʌlt": 1225,
      "lead": 1226,
      "many": 1227,
      "mɛni": 1228,
      "##velop": 1229,
      "##other": 1230,
      "##ale": 1231,
      "##ten": 1232,
      "##ather": 1233,
      "music": 1234,
      "ɹawnd": 1235,
      "rece": 1236,
      "main": 1237,
      "pɹfɔɹm": 1238,
      "əf": 1239,
      "lajk": 1240,
      "sɛvɹ": 1241,
      "op": 1242,
      "city": 1243,
      "sɪti": 1244,
      "##ments": 1245,
      "mill": 1246,
      "pop": 1247,
      "nʌmbɹ": 1248,
      "lɔŋ": 1249,
      "##ool": 1250,
      "mid": 1251,
      "##ious": 1252,
      "##ause": 1253,
      "mɛ": 1254,
      "ɑɹt": 1255,
      "ter": 1256,
      "bɹɪt": 1257,
      "brit": 1258,
      "##ɛkʃən": 1259,
      "pɹɛz": 1260,
      "became": 1261,
      "bɪkejm": 1262,
      "kow": 1263,
      "##ʌkʃən": 1264,
      "##ise": 1265,
      "##ʌd": 1266,
      "united": 1267,
      "dɪvɛl": 1268,
      "develop": 1269,
      "junajtəd": 1270,
      "several": 1271,
      "sɛvɹəl": 1272,
      "##ins": 1273,
      "dire": 1274,
      "east": 1275,
      "##ɔz": 1276,
      "ho": 1277,
      "div": 1278,
      "including": 1279,
      "ɪnkludɪŋ": 1280,
      "##ɛlf": 1281,
      "set": 1282,
      "100": 1283,
      "##res": 1284,
      "ship": 1285,
      "mɪn": 1286,
      "stɔɹ": 1287,
      "##ife": 1288,
      "art": 1289,
      "ɑpɹ": 1290,
      "fʊ": 1291,
      "ti": 1292,
      "dʒɑn": 1293,
      "##əmz": 1294,
      "sɛt": 1295,
      "did": 1296,
      "long": 1297,
      "##mpl": 1298,
      "kɛɹ": 1299,
      "orig": 1300,
      "##apt": 1301,
      "##bi": 1302,
      "##ɹiz": 1303,
      "##vern": 1304,
      "##ised": 1305,
      "fɔɹs": 1306,
      "dɪd": 1307,
      "##ejdʒ": 1308,
      "##awɹ": 1309,
      "ʃɪp": 1310,
      "##tɹn": 1311,
      "pɑp": 1312,
      "early": 1313,
      "saj": 1314,
      "mjuzɪk": 1315,
      "##əld": 1316,
      "##ʌnd": 1317,
      "##atur": 1318,
      "howm": 1319,
      "appear": 1320,
      "ækt": 1321,
      "tejk": 1322,
      "##ll": 1323,
      "kɑɹ": 1324,
      "show": 1325,
      "##ork": 1326,
      "##si": 1327,
      "##ines": 1328,
      "ɡʌvɹ": 1329,
      "##ah": 1330,
      "ɹɑ": 1331,
      "sɛd": 1332,
      "hɪst": 1333,
      "dist": 1334,
      "##ʌðɹ": 1335,
      "##ɪld": 1336,
      "ɹi": 1337,
      "##jɹ": 1338,
      "##ative": 1339,
      "hist": 1340,
      "hɛl": 1341,
      "wɔ": 1342,
      "dɪstɹ": 1343,
      "exp": 1344,
      "origin": 1345,
      "jus": 1346,
      "contin": 1347,
      "govern": 1348,
      "##ajb": 1349,
      "2010": 1350,
      "##olog": 1351,
      "lajn": 1352,
      "##oy": 1353,
      "21": 1354,
      "##elf": 1355,
      "##ities": 1356,
      "ɹəs": 1357,
      "mod": 1358,
      "kəl": 1359,
      "##ange": 1360,
      "conc": 1361,
      "##red": 1362,
      "##anc": 1363,
      "lɛd": 1364,
      "##æd": 1365,
      "episode": 1366,
      "prov": 1367,
      "##ley": 1368,
      "wi": 1369,
      "states": 1370,
      "stejts": 1371,
      "pɛɹ": 1372,
      "est": 1373,
      "##ross": 1374,
      "##ron": 1375,
      "dif": 1376,
      "##fəl": 1377,
      "##ajs": 1378,
      "ɹɪs": 1379,
      "##ke": 1380,
      "said": 1381,
      "##ful": 1382,
      "##ird": 1383,
      "##are": 1384,
      "john": 1385,
      "ann": 1386,
      "fɑlowɪŋ": 1387,
      "following": 1388,
      "mejk": 1389,
      "ɹajt": 1390,
      "##ɔɹn": 1391,
      "##ɔs": 1392,
      "grou": 1393,
      "##ɔt": 1394,
      "crit": 1395,
      "##nɹ": 1396,
      "##min": 1397,
      "design": 1398,
      "##ejz": 1399,
      "liv": 1400,
      "km": 1401,
      "pip": 1402,
      "dʒɹ": 1403,
      "kɑm": 1404,
      "run": 1405,
      "could": 1406,
      "kʊd": 1407,
      "nɪɹ": 1408,
      "const": 1409,
      "##ətɹ": 1410,
      "kɪŋ": 1411,
      "##ield": 1412,
      "dɪskɹ": 1413,
      "24": 1414,
      "##əntli": 1415,
      "##ouse": 1416,
      "return": 1417,
      "##ɹdz": 1418,
      "##ɛktɹ": 1419,
      "med": 1420,
      "2008": 1421,
      "oper": 1422,
      "american": 1423,
      "pers": 1424,
      "mat": 1425,
      "2009": 1426,
      "unt": 1427,
      "ɹəsiv": 1428,
      "əmɛɹəkən": 1429,
      "ənt": 1430,
      "alth": 1431,
      "nown": 1432,
      "ɹʌn": 1433,
      "down": 1434,
      "known": 1435,
      "##ven": 1436,
      "##ðow": 1437,
      "ɔlðow": 1438,
      "although": 1439,
      "comple": 1440,
      "near": 1441,
      "bar": 1442,
      "aust": 1443,
      "bɑ": 1444,
      "any": 1445,
      "nɑ": 1446,
      "ɹɪdʒən": 1447,
      "##səl": 1448,
      "sej": 1449,
      "direct": 1450,
      "##ɹən": 1451,
      "lɪ": 1452,
      "wɛst": 1453,
      "2011": 1454,
      "kɹɪt": 1455,
      "har": 1456,
      "sign": 1457,
      "ger": 1458,
      "ɹowd": 1459,
      "skul": 1460,
      "king": 1461,
      "serv": 1462,
      "win": 1463,
      "##əmənt": 1464,
      "##owm": 1465,
      "pass": 1466,
      "##rop": 1467,
      "ɔɹd": 1468,
      "ord": 1469,
      "##ann": 1470,
      "##ivers": 1471,
      "lænd": 1472,
      "##ually": 1473,
      "##nəs": 1474,
      "desc": 1475,
      "land": 1476,
      "ɪŋɡ": 1477,
      "22": 1478,
      "##jud": 1479,
      "##ident": 1480,
      "ɛni": 1481,
      "##ued": 1482,
      "səks": 1483,
      "fam": 1484,
      "læ": 1485,
      "##view": 1486,
      "##ought": 1487,
      "##lie": 1488,
      "disc": 1489,
      "##flu": 1490,
      "star": 1491,
      "kəntɪn": 1492,
      "began": 1493,
      "bɪɡæn": 1494,
      "##ʌb": 1495,
      "fju": 1496,
      "red": 1497,
      "##ɔɹdɪŋ": 1498,
      "ɹis": 1499,
      "##ejnz": 1500,
      "pi": 1501,
      "dep": 1502,
      "offic": 1503,
      "until": 1504,
      "əntɪl": 1505,
      "eff": 1506,
      "2007": 1507,
      "##ople": 1508,
      "##ism": 1509,
      "fo": 1510,
      "sɪst": 1511,
      "wil": 1512,
      "kɔld": 1513,
      "##aking": 1514,
      "ɪkst": 1515,
      "like": 1516,
      "along": 1517,
      "because": 1518,
      "bɪkɔz": 1519,
      "school": 1520,
      "əlɔŋ": 1521,
      "##gest": 1522,
      "pojnt": 1523,
      "##ʌv": 1524,
      "ɡɪv": 1525,
      "##xt": 1526,
      "ɹilist": 1527,
      "released": 1528,
      "##əzɪʃən": 1529,
      "open": 1530,
      "##0s": 1531,
      "ʃow": 1532,
      "list": 1533,
      "##ccess": 1534,
      "##0ɛs": 1535,
      "fitʃ": 1536,
      "##ænz": 1537,
      "mont": 1538,
      "ɪnst": 1539,
      "##mənts": 1540,
      "haws": 1541,
      "##ɪfɪk": 1542,
      "jɔɹ": 1543,
      "##ojd": 1544,
      "mʌn": 1545,
      "id": 1546,
      "called": 1547,
      "##enn": 1548,
      "resp": 1549,
      "nej": 1550,
      "dawn": 1551,
      "##əvɹs": 1552,
      "bre": 1553,
      "##ele": 1554,
      "dʒun": 1555,
      "mejn": 1556,
      "national": 1557,
      "produc": 1558,
      "mɑd": 1559,
      "2012": 1560,
      "tɛl": 1561,
      "23": 1562,
      "##ɹid": 1563,
      "atte": 1564,
      "ge": 1565,
      "##els": 1566,
      "##ided": 1567,
      "kɑl": 1568,
      "pipəl": 1569,
      "people": 1570,
      "ste": 1571,
      "næʃənəl": 1572,
      "ʌs": 1573,
      "wee": 1574,
      "##stem": 1575,
      "##ətiz": 1576,
      "lu": 1577,
      "ɹək": 1578,
      "ant": 1579,
      "ɪns": 1580,
      "##ɹtʃ": 1581,
      "##ially": 1582,
      "##iəm": 1583,
      "inf": 1584,
      "##ɡəst": 1585,
      "port": 1586,
      "adv": 1587,
      "just": 1588,
      "190": 1589,
      "klæs": 1590,
      "ɹid": 1591,
      "stɑɹ": 1592,
      "##ax": 1593,
      "class": 1594,
      "mɪljən": 1595,
      "kəmpl": 1596,
      "million": 1597,
      "##osed": 1598,
      "##itt": 1599,
      "##ized": 1600,
      "##ɛpt": 1601,
      "support": 1602,
      "mək": 1603,
      "ɛv": 1604,
      "im": 1605,
      "##ys": 1606,
      "hɛd": 1607,
      "dʒʌst": 1608,
      "cour": 1609,
      "system": 1610,
      "klow": 1611,
      "##ɛkst": 1612,
      "##ger": 1613,
      "bɹɪtɪʃ": 1614,
      "british": 1615,
      "german": 1616,
      "##ution": 1617,
      "sɪns": 1618,
      "ever": 1619,
      "lajf": 1620,
      "sɛntʃ": 1621,
      "since": 1622,
      "ɹowl": 1623,
      "head": 1624,
      "lid": 1625,
      "##nɪŋ": 1626,
      "aut": 1627,
      "cor": 1628,
      "##stɹn": 1629,
      "##ession": 1630,
      "best": 1631,
      "around": 1632,
      "aug": 1633,
      "will": 1634,
      "if": 1635,
      "wik": 1636,
      "sejm": 1637,
      "itʃ": 1638,
      "əwɔɹd": 1639,
      "nowt": 1640,
      "##kw": 1641,
      "major": 1642,
      "dʒɹmən": 1643,
      "##ətɛɹi": 1644,
      "bɛst": 1645,
      "sɛpt": 1646,
      "ajd": 1647,
      "ɹiv": 1648,
      "var": 1649,
      "##ists": 1650,
      "ext": 1651,
      "each": 1652,
      "success": 1653,
      "kawnt": 1654,
      "sept": 1655,
      "##any": 1656,
      "##ains": 1657,
      "##jun": 1658,
      "town": 1659,
      "##oci": 1660,
      "mɪd": 1661,
      "##ined": 1662,
      "daj": 1663,
      "mɹ": 1664,
      "dʌ": 1665,
      "plejs": 1666,
      "##dʒɹ": 1667,
      "ist": 1668,
      "##ejnɪŋ": 1669,
      "six": 1670,
      "##æft": 1671,
      "character": 1672,
      "ədɪʃən": 1673,
      "bænd": 1674,
      "use": 1675,
      "ɹɛd": 1676,
      "ɔstɹ": 1677,
      "##ark": 1678,
      "life": 1679,
      "september": 1680,
      "sɛptɛmbɹ": 1681,
      "dɪskɹajb": 1682,
      "describ": 1683,
      "2006": 1684,
      "august": 1685,
      "##amed": 1686,
      "##ope": 1687,
      "muv": 1688,
      "pɹəv": 1689,
      "##ajɹd": 1690,
      "bɪld": 1691,
      "produ": 1692,
      "pɑɹ": 1693,
      "same": 1694,
      "road": 1695,
      "dɪsk": 1696,
      "bætəl": 1697,
      "##ty": 1698,
      "##led": 1699,
      "stɹit": 1700,
      "əpɹ": 1701,
      "trans": 1702,
      "kəntɹ": 1703,
      "fej": 1704,
      "##aced": 1705,
      "27": 1706,
      "waj": 1707,
      "tre": 1708,
      "occ": 1709,
      "final": 1710,
      "28": 1711,
      "ɑkt": 1712,
      "ɛd": 1713,
      "##jum": 1714,
      "oct": 1715,
      "another": 1716,
      "ənʌðɹ": 1717,
      "fajv": 1718,
      "fajnəl": 1719,
      "riv": 1720,
      "ɡɹejt": 1721,
      "five": 1722,
      "##ɔɹs": 1723,
      "##ɑlədʒ": 1724,
      "ɹɪt": 1725,
      "##ium": 1726,
      "##aining": 1727,
      "50": 1728,
      "build": 1729,
      "group": 1730,
      "səksɛs": 1731,
      "##ired": 1732,
      "##cept": 1733,
      "pəl": 1734,
      "##ɛndəd": 1735,
      "public": 1736,
      "dem": 1737,
      "æks": 1738,
      "bɪkʌm": 1739,
      "##ɪŋk": 1740,
      "prom": 1741,
      "##ɑnt": 1742,
      "##eter": 1743,
      "owld": 1744,
      "old": 1745,
      "ɔfəs": 1746,
      "ty": 1747,
      "my": 1748,
      "austral": 1749,
      "##əkejʃən": 1750,
      "you": 1751,
      "##aving": 1752,
      "##əɡɹ": 1753,
      "ɹʌ": 1754,
      "##ɪts": 1755,
      "##ɛʃ": 1756,
      "ɡɹup": 1757,
      "line": 1758,
      "took": 1759,
      "tʊk": 1760,
      "##ni": 1761,
      "##æŋk": 1762,
      "ejdʒ": 1763,
      "band": 1764,
      "bejs": 1765,
      "dɪp": 1766,
      "kʌmpən": 1767,
      "##ətli": 1768,
      "2013": 1769,
      "##ible": 1770,
      "hum": 1771,
      "coll": 1772,
      "house": 1773,
      "ɑɡəst": 1774,
      "səpɔɹt": 1775,
      "ɛɹiə": 1776,
      "area": 1777,
      "##owbɹ": 1778,
      "ɔstɹejl": 1779,
      "##fɹd": 1780,
      "ft": 1781,
      "##ner": 1782,
      "sɪks": 1783,
      "smɔl": 1784,
      "26": 1785,
      "start": 1786,
      "pɹow": 1787,
      "mɑɹtʃ": 1788,
      "θɹd": 1789,
      "##acks": 1790,
      "40": 1791,
      "##vers": 1792,
      "##ruct": 1793,
      "wʌt": 1794,
      "##ris": 1795,
      "fæm": 1796,
      "consid": 1797,
      "hal": 1798,
      "cap": 1799,
      "hel": 1800,
      "##aph": 1801,
      "kənsɪd": 1802,
      "##get": 1803,
      "##ues": 1804,
      "century": 1805,
      "kʌl": 1806,
      "##ɪzəm": 1807,
      "short": 1808,
      "sɛntʃɹi": 1809,
      "sɪm": 1810,
      "nowv": 1811,
      "##ober": 1812,
      "kæmp": 1813,
      "received": 1814,
      "ɹəsivd": 1815,
      "##ɪtʃ": 1816,
      "189": 1817,
      "turn": 1818,
      "small": 1819,
      "ɑktowbɹ": 1820,
      "dɪvɛləp": 1821,
      "october": 1822,
      "camp": 1823,
      "##ejp": 1824,
      "contro": 1825,
      "##mbers": 1826,
      "##ature": 1827,
      "##app": 1828,
      "##ects": 1829,
      "stɑɹt": 1830,
      "##af": 1831,
      "##ki": 1832,
      "##ɪnt": 1833,
      "##hern": 1834,
      "##ility": 1835,
      "sɹvəs": 1836,
      "##uss": 1837,
      "univers": 1838,
      "##əɡn": 1839,
      "junəvɹs": 1840,
      "dʒul": 1841,
      "sajd": 1842,
      "##ically": 1843,
      "##ants": 1844,
      "##ward": 1845,
      "tow": 1846,
      "ænt": 1847,
      "dɪsp": 1848,
      "due": 1849,
      "ke": 1850,
      "##æp": 1851,
      "pɹs": 1852,
      "what": 1853,
      "ɹɪp": 1854,
      "##kl": 1855,
      "ɹɪl": 1856,
      "games": 1857,
      "mon": 1858,
      "partic": 1859,
      "##ðɹn": 1860,
      "læst": 1861,
      "last": 1862,
      "##liam": 1863,
      "government": 1864,
      "##ght": 1865,
      "##əθ": 1866,
      "##əsi": 1867,
      "ɹəf": 1868,
      "##zɪŋ": 1869,
      "##əwəli": 1870,
      "##son": 1871,
      "kæp": 1872,
      "ɹɪvɹ": 1873,
      "##ɛktɪv": 1874,
      "##ull": 1875,
      "##ɑks": 1876,
      "sɪstəm": 1877,
      "##gin": 1878,
      "rest": 1879,
      "vers": 1880,
      "##ately": 1881,
      "march": 1882,
      "##hing": 1883,
      "mætʃ": 1884,
      "sɪŋɡəl": 1885,
      "##bo": 1886,
      "dʒɛnɹəl": 1887,
      "rout": 1888,
      "##ble": 1889,
      "ref": 1890,
      "command": 1891,
      "##ored": 1892,
      "ʃɔɹt": 1893,
      "ɡʌvɹmənt": 1894,
      "##ətəd": 1895,
      "nove": 1896,
      "sn": 1897,
      "##ʌp": 1898,
      "arr": 1899,
      "home": 1900,
      "##ene": 1901,
      "gl": 1902,
      "way": 1903,
      "fɹi": 1904,
      "tit": 1905,
      "##ently": 1906,
      "##ɛp": 1907,
      "june": 1908,
      "##əlɹ": 1909,
      "##ɹv": 1910,
      "law": 1911,
      "jɔɹk": 1912,
      "jan": 1913,
      "dʒæn": 1914,
      "fɛl": 1915,
      "kəmænd": 1916,
      "##cl": 1917,
      "mag": 1918,
      "tajt": 1919,
      "##ejlz": 1920,
      "##ians": 1921,
      "single": 1922,
      "prot": 1923,
      "third": 1924,
      "leg": 1925,
      "general": 1926,
      "ɹowt": 1927,
      "giv": 1928,
      "##wɹd": 1929,
      "report": 1930,
      "pæs": 1931,
      "##ms": 1932,
      "##ɹɪk": 1933,
      "ɹejndʒ": 1934,
      "##ɪtəl": 1935,
      "skw": 1936,
      "squ": 1937,
      "ɛmp": 1938,
      "##ina": 1939,
      "men": 1940,
      "mit": 1941,
      "##ɛkts": 1942,
      "july": 1943,
      "dʒulaj": 1944,
      "##oss": 1945,
      "child": 1946,
      "##ission": 1947,
      "29": 1948,
      "capt": 1949,
      "nowvɛmbɹ": 1950,
      "kəmplit": 1951,
      "##inc": 1952,
      "taj": 1953,
      "november": 1954,
      "2005": 1955,
      "##ɪktɹ": 1956,
      "ɹitʃ": 1957,
      "##ov": 1958,
      "sʌn": 1959,
      "ɡejmz": 1960,
      "##kəl": 1961,
      "##ster": 1962,
      "cal": 1963,
      "##urch": 1964,
      "##pɹəl": 1965,
      "kɑntɹ": 1966,
      "dɛθ": 1967,
      "tʃejndʒ": 1968,
      "skɹ": 1969,
      "death": 1970,
      "apr": 1971,
      "##und": 1972,
      "review": 1973,
      "ajlənd": 1974,
      "much": 1975,
      "##ɛks": 1976,
      "island": 1977,
      "event": 1978,
      "##ash": 1979,
      "ɪst": 1980,
      "pej": 1981,
      "la": 1982,
      "fɛ": 1983,
      "ɹik": 1984,
      "york": 1985,
      "##ute": 1986,
      "mʌtʃ": 1987,
      "april": 1988,
      "ejpɹəl": 1989,
      "care": 1990,
      "fur": 1991,
      "##ɑns": 1992,
      "dam": 1993,
      "ɡl": 1994,
      "sɛl": 1995,
      "vɪd": 1996,
      "##jəm": 1997,
      "tawn": 1998,
      "large": 1999,
      "##raft": 2000,
      "wɔtɹ": 2001,
      "2014": 2002,
      "place": 2003,
      "hɑ": 2004,
      "##uary": 2005,
      "tɑp": 2006,
      "pawɹ": 2007,
      "dɪfɹ": 2008,
      "ɹɪk": 2009,
      "result": 2010,
      "accord": 2011,
      "əlaw": 2012,
      "power": 2013,
      "even": 2014,
      "left": 2015,
      "lɛft": 2016,
      "##vent": 2017,
      "##lish": 2018,
      "##aim": 2019,
      "##ogr": 2020,
      "stre": 2021,
      "sun": 2022,
      "vis": 2023,
      "##ats": 2024,
      "##əwəl": 2025,
      "ɹɪzʌlt": 2026,
      "cast": 2027,
      "che": 2028,
      "person": 2029,
      "attack": 2030,
      "mark": 2031,
      "allow": 2032,
      "ɹɪsp": 2033,
      "##omet": 2034,
      "sʌb": 2035,
      "vide": 2036,
      "##mz": 2037,
      "mejdʒɹ": 2038,
      "conf": 2039,
      "##ilt": 2040,
      "tɛn": 2041,
      "differ": 2042,
      "##viəs": 2043,
      "mʌnθ": 2044,
      "month": 2045,
      "pit": 2046,
      "pɹəvajd": 2047,
      "top": 2048,
      "##vious": 2049,
      "gun": 2050,
      "story": 2051,
      "cur": 2052,
      "intern": 2053,
      "appro": 2054,
      "##əfajd": 2055,
      "progr": 2056,
      "kill": 2057,
      "bejst": 2058,
      "based": 2059,
      "tʊɹ": 2060,
      "##θɹ": 2061,
      "##ively": 2062,
      "ɡʌn": 2063,
      "family": 2064,
      "fæməli": 2065,
      "wej": 2066,
      "##ɑɡ": 2067,
      "##idge": 2068,
      "##ting": 2069,
      "##mi": 2070,
      "##ague": 2071,
      "sɪk": 2072,
      "ɹejd": 2073,
      "naw": 2074,
      "##uts": 2075,
      "##iʃ": 2076,
      "ɪntɹn": 2077,
      "pɔɹ": 2078,
      "vict": 2079,
      "incre": 2080,
      "ɹut": 2081,
      "##ədɛnt": 2082,
      "park": 2083,
      "spe": 2084,
      "mɑɹk": 2085,
      "ɑɹmi": 2086,
      "pæ": 2087,
      "expl": 2088,
      "##ures": 2089,
      "##ɛɹd": 2090,
      "kʌmpəni": 2091,
      "fɪn": 2092,
      "kɑmp": 2093,
      "company": 2094,
      "army": 2095,
      "##ales": 2096,
      "##ink": 2097,
      "##avy": 2098,
      "ele": 2099,
      "eur": 2100,
      "##owzd": 2101,
      "december": 2102,
      "##ejbəl": 2103,
      "dɪsɛmbɹ": 2104,
      "lejt": 2105,
      "##na": 2106,
      "plejd": 2107,
      "##æɡ": 2108,
      "played": 2109,
      "ɡow": 2110,
      "##by": 2111,
      "cond": 2112,
      "great": 2113,
      "klʌb": 2114,
      "##over": 2115,
      "kʌnt": 2116,
      "##ɑz": 2117,
      "##rist": 2118,
      "addition": 2119,
      "əkɔɹdɪŋ": 2120,
      "according": 2121,
      "included": 2122,
      "ɪnkludəd": 2123,
      "river": 2124,
      "storm": 2125,
      "##orts": 2126,
      "name": 2127,
      "battle": 2128,
      "ʌn": 2129,
      "ins": 2130,
      "səl": 2131,
      "led": 2132,
      "dʒænju": 2133,
      "##rote": 2134,
      "january": 2135,
      "dʒænjuɛɹi": 2136,
      "water": 2137,
      "dæm": 2138,
      "##eng": 2139,
      "bɪli": 2140,
      "kɛɹɪktɹ": 2141,
      "mow": 2142,
      "##wɹ": 2143,
      "pɹsən": 2144,
      "dɪvɪʒən": 2145,
      "wind": 2146,
      "hand": 2147,
      "##aged": 2148,
      "owpən": 2149,
      "##ared": 2150,
      "##ves": 2151,
      "##apan": 2152,
      "##che": 2153,
      "##ified": 2154,
      "##bɔl": 2155,
      "##ony": 2156,
      "##ball": 2157,
      "ii": 2158,
      "31": 2159,
      "kɑns": 2160,
      "##ried": 2161,
      "wrote": 2162,
      "ang": 2163,
      "wom": 2164,
      "wɪθ": 2165,
      "won": 2166,
      "188": 2167,
      "far": 2168,
      "late": 2169,
      "hɛɹ": 2170,
      "##ime": 2171,
      "##ɔd": 2172,
      "pɑl": 2173,
      "##ʌkt": 2174,
      "japan": 2175,
      "##iʃiz": 2176,
      "times": 2177,
      "liɡ": 2178,
      "val": 2179,
      "blæk": 2180,
      "##ages": 2181,
      "black": 2182,
      "organ": 2183,
      "opp": 2184,
      "##æŋ": 2185,
      "##ott": 2186,
      "previous": 2187,
      "pɹiviəs": 2188,
      "##aff": 2189,
      "requ": 2190,
      "##ience": 2191,
      "ɹilis": 2192,
      "perfor": 2193,
      "post": 2194,
      "pʌblɪk": 2195,
      "hænd": 2196,
      "##ured": 2197,
      "within": 2198,
      "wɪðɪn": 2199,
      "##ost": 2200,
      "əpɪɹ": 2201,
      "featur": 2202,
      "vɪkt": 2203,
      "fɑɹ": 2204,
      "##ɹɪŋ": 2205,
      "##ient": 2206,
      "stɪl": 2207,
      "##bɹt": 2208,
      "av": 2209,
      "##ody": 2210,
      "make": 2211,
      "##ɪʃənz": 2212,
      "##vz": 2213,
      "tajmz": 2214,
      "dɪskɹajbd": 2215,
      "described": 2216,
      "##med": 2217,
      "kæl": 2218,
      "init": 2219,
      "ɪnɪʃ": 2220,
      "##əstɹ": 2221,
      "vɪdiow": 2222,
      "##ital": 2223,
      "##ɑdʒ": 2224,
      "##lig": 2225,
      "bej": 2226,
      "ðowz": 2227,
      "those": 2228,
      "rad": 2229,
      "##ped": 2230,
      "sɛntɹ": 2231,
      "##iew": 2232,
      "##ɑnd": 2233,
      "dʒɛnɹ": 2234,
      "still": 2235,
      "wɪnd": 2236,
      "bel": 2237,
      "2004": 2238,
      "bus": 2239,
      "nɛkst": 2240,
      "##ɛntəd": 2241,
      "video": 2242,
      "next": 2243,
      "##lz": 2244,
      "ɪʃ": 2245,
      "deb": 2246,
      "ɪmpɹ": 2247,
      "named": 2248,
      "nejmd": 2249,
      "stænd": 2250,
      "stand": 2251,
      "champ": 2252,
      "prop": 2253,
      "186": 2254,
      "##omin": 2255,
      "mɑn": 2256,
      "##ɛʃən": 2257,
      "ɹipɔɹt": 2258,
      "dɪk": 2259,
      "pɑɹk": 2260,
      "week": 2261,
      "book": 2262,
      "perform": 2263,
      "tʃæmp": 2264,
      "tɹaj": 2265,
      "ɹɛkɹd": 2266,
      "among": 2267,
      "əmʌŋ": 2268,
      "original": 2269,
      "##bert": 2270,
      "further": 2271,
      "jʊɹ": 2272,
      "##ɪθ": 2273,
      "##ling": 2274,
      "belie": 2275,
      "mɛt": 2276,
      "ətɛmp": 2277,
      "attemp": 2278,
      "##ejmz": 2279,
      "fɹðɹ": 2280,
      "pɹfɔɹməns": 2281,
      "performan": 2282,
      "vɹʒən": 2283,
      "ɹɪtɹn": 2284,
      "kənstɹ": 2285,
      "pʊ": 2286,
      "2015": 2287,
      "lɛs": 2288,
      "ɹɪdʒənəl": 2289,
      "##ilar": 2290,
      "very": 2291,
      "league": 2292,
      "##enc": 2293,
      "release": 2294,
      "force": 2295,
      "ɔɹɡən": 2296,
      "though": 2297,
      "bɑɹ": 2298,
      "ivən": 2299,
      "dest": 2300,
      "view": 2301,
      "iss": 2302,
      "bill": 2303,
      "ɹɑk": 2304,
      "poss": 2305,
      "stɔɹm": 2306,
      "foot": 2307,
      "##uʃən": 2308,
      "##ged": 2309,
      "fʊt": 2310,
      "##ɹim": 2311,
      "##ɪɹd": 2312,
      "##ajlz": 2313,
      "wɔl": 2314,
      "kənd": 2315,
      "##ʌs": 2316,
      "##lajn": 2317,
      "real": 2318,
      "pəzɪʃən": 2319,
      "wajt": 2320,
      "club": 2321,
      "tʃɑɹ": 2322,
      "ɛntɹ": 2323,
      "##bru": 2324,
      "cy": 2325,
      "slow": 2326,
      "exper": 2327,
      "hɑɹ": 2328,
      "commun": 2329,
      "species": 2330,
      "##ɹt": 2331,
      "spiʃiz": 2332,
      "wɪn": 2333,
      "##ɹə": 2334,
      "##æbl": 2335,
      "##jut": 2336,
      "##ached": 2337,
      "##ret": 2338,
      "members": 2339,
      "##rench": 2340,
      "##əpt": 2341,
      "##ract": 2342,
      "peri": 2343,
      "##itions": 2344,
      "powst": 2345,
      "bʊk": 2346,
      "sound": 2347,
      "sawnd": 2348,
      "polit": 2349,
      "emp": 2350,
      "ɪvɛnt": 2351,
      "##ides": 2352,
      "##əbli": 2353,
      "##ajk": 2354,
      "ɹoj": 2355,
      "500": 2356,
      "##sc": 2357,
      "##əwɛɹi": 2358,
      "fajɹ": 2359,
      "##ety": 2360,
      "former": 2361,
      "fɔɹmɹ": 2362,
      "milit": 2363,
      "hɪstɹi": 2364,
      "christ": 2365,
      "##ɔn": 2366,
      "##ior": 2367,
      "history": 2368,
      "##bjəwɛɹi": 2369,
      "fɛbjəwɛɹi": 2370,
      "dejz": 2371,
      "febru": 2372,
      "february": 2373,
      "white": 2374,
      "similar": 2375,
      "##ɪnz": 2376,
      "tak": 2377,
      "##yal": 2378,
      "##əmi": 2379,
      "dɪzajn": 2380,
      "fle": 2381,
      "sik": 2382,
      "##sɛlf": 2383,
      "nort": 2384,
      "187": 2385,
      "##bən": 2386,
      "sold": 2387,
      "ɹow": 2388,
      "sowld": 2389,
      "period": 2390,
      "tour": 2391,
      "ðow": 2392,
      "mɛd": 2393,
      "division": 2394,
      "elect": 2395,
      "rock": 2396,
      "bɪlt": 2397,
      "days": 2398,
      "built": 2399,
      "route": 2400,
      "##ator": 2401,
      "match": 2402,
      "##ntʃ": 2403,
      "dɪst": 2404,
      "award": 2405,
      "##lt": 2406,
      "pɪɹi": 2407,
      "tɹæns": 2408,
      "pɹɛzədɛnt": 2409,
      "##ʌŋk": 2410,
      "side": 2411,
      "mæɡ": 2412,
      "əkɹ": 2413,
      "##ress": 2414,
      "##uck": 2415,
      "hɛld": 2416,
      "##di": 2417,
      "sout": 2418,
      "held": 2419,
      "ɡʊd": 2420,
      "##br": 2421,
      "##ched": 2422,
      "##ences": 2423,
      "jʊɹəp": 2424,
      "tele": 2425,
      "europe": 2426,
      "bas": 2427,
      "##owni": 2428,
      "##ai": 2429,
      "youn": 2430,
      "good": 2431,
      "##tʃu": 2432,
      "point": 2433,
      "sit": 2434,
      "service": 2435,
      "bʊ": 2436,
      "tɛmp": 2437,
      "junəvɹsəti": 2438,
      "university": 2439,
      "hjum": 2440,
      "##ness": 2441,
      "##ne": 2442,
      "stɔɹi": 2443,
      "##ups": 2444,
      "ɹɪv": 2445,
      "repl": 2446,
      "kɑnt": 2447,
      "french": 2448,
      "fɹɛntʃ": 2449,
      "cle": 2450,
      "lɪst": 2451,
      "tʃɹtʃ": 2452,
      "mæs": 2453,
      "say": 2454,
      "auth": 2455,
      "##inz": 2456,
      "president": 2457,
      "##ɛmbɹz": 2458,
      "kʌvɹ": 2459,
      "sum": 2460,
      "ɹejs": 2461,
      "##ðɹz": 2462,
      "2003": 2463,
      "kɑmən": 2464,
      "ejt": 2465,
      "desp": 2466,
      "local": 2467,
      "estab": 2468,
      "mer": 2469,
      "##əsts": 2470,
      "typ": 2471,
      "ɹɛz": 2472,
      "##ront": 2473,
      "role": 2474,
      "##kow": 2475,
      "bowl": 2476,
      "##ney": 2477,
      "temp": 2478,
      "35": 2479,
      "##ives": 2480,
      "pat": 2481,
      "##ars": 2482,
      "present": 2483,
      "##ɔɹdʒ": 2484,
      "##ering": 2485,
      "dʒoj": 2486,
      "equ": 2487,
      "##ɛtɹ": 2488,
      "dɪl": 2489,
      "##rod": 2490,
      "kɔɹt": 2491,
      "fit": 2492,
      "##ætɪk": 2493,
      "##ense": 2494,
      "light": 2495,
      "mɛmbɹz": 2496,
      "came": 2497,
      "##ɑpɪkəl": 2498,
      "##ænə": 2499,
      "##ropical": 2500,
      "det": 2501,
      "ɪstæbl": 2502,
      "every": 2503,
      "nɛvɹ": 2504,
      "plejɹ": 2505,
      "hævɪŋ": 2506,
      "having": 2507,
      "beh": 2508,
      "tot": 2509,
      "mawnt": 2510,
      "never": 2511,
      "##ech": 2512,
      "caus": 2513,
      "william": 2514,
      "cross": 2515,
      "lowkəl": 2516,
      "mor": 2517,
      "##ɛntəl": 2518,
      "##ɹdʒ": 2519,
      "fel": 2520,
      "hit": 2521,
      "##par": 2522,
      "kɪl": 2523,
      "pɪɹiəd": 2524,
      "few": 2525,
      "əfɪʃ": 2526,
      "##jʊɹ": 2527,
      "##əkw": 2528,
      "sug": 2529,
      "əv": 2530,
      "najt": 2531,
      "move": 2532,
      "##me": 2533,
      "kɹɪst": 2534,
      "test": 2535,
      "##uted": 2536,
      "##tʃɹd": 2537,
      "tɛk": 2538,
      "##tʃɹəl": 2539,
      "##ʒɹ": 2540,
      "tɛst": 2541,
      "pɑpjəl": 2542,
      "mount": 2543,
      "##mɪn": 2544,
      "##ulation": 2545,
      "əsow": 2546,
      "lim": 2547,
      "##əbɪl": 2548,
      "towt": 2549,
      "plæn": 2550,
      "ejtʃ": 2551,
      "kejm": 2552,
      "associ": 2553,
      "əsowsi": 2554,
      "player": 2555,
      "hæf": 2556,
      "order": 2557,
      "ɔɹdɹ": 2558,
      "prof": 2559,
      "sɪməlɹ": 2560,
      "super": 2561,
      "see": 2562,
      "phil": 2563,
      "##atic": 2564,
      "ətæk": 2565,
      "wɑnt": 2566,
      "ɔfən": 2567,
      "often": 2568,
      "common": 2569,
      "ɪnf": 2570,
      "pɹədʌkʃən": 2571,
      "production": 2572,
      "fre": 2573,
      "half": 2574,
      "take": 2575,
      "ɹɛpɹ": 2576,
      "mænədʒ": 2577,
      "naj": 2578,
      "##ese": 2579,
      "ɛvɹi": 2580,
      "tɹæ": 2581,
      "kəntɹowl": 2582,
      "hur": 2583,
      "dejv": 2584,
      "##hen": 2585,
      "ædv": 2586,
      "continued": 2587,
      "kəntɪnjud": 2588,
      "vaj": 2589,
      "geor": 2590,
      "pɹajm": 2591,
      "lajt": 2592,
      "plan": 2593,
      "jʌŋ": 2594,
      "wat": 2595,
      "##ving": 2596,
      "kɹɪɹ": 2597,
      "fire": 2598,
      "dæmədʒ": 2599,
      "career": 2600,
      "2000": 2601,
      "claim": 2602,
      "##kɹæft": 2603,
      "histor": 2604,
      "rev": 2605,
      "sty": 2606,
      "##line": 2607,
      "bɑd": 2608,
      "level": 2609,
      "klows": 2610,
      "ɹidʒən": 2611,
      "##ɛnʃən": 2612,
      "sent": 2613,
      "##ɑlədʒi": 2614,
      "##ograph": 2615,
      "##light": 2616,
      "##ying": 2617,
      "mɛɹi": 2618,
      "press": 2619,
      "dʒɔɹdʒ": 2620,
      "mich": 2621,
      "different": 2622,
      "2001": 2623,
      "tʃæmpiən": 2624,
      "fight": 2625,
      "fun": 2626,
      "##gy": 2627,
      "without": 2628,
      "wɪθawt": 2629,
      "ɛnt": 2630,
      "##θɪŋ": 2631,
      "dɑk": 2632,
      "mɛɹ": 2633,
      "tro": 2634,
      "ɪɹ": 2635,
      "##uvd": 2636,
      "##ɪb": 2637,
      "ɛdʒ": 2638,
      "sɛvən": 2639,
      "kejs": 2640,
      "##ler": 2641,
      "despite": 2642,
      "dɪspajt": 2643,
      "fɔl": 2644,
      "track": 2645,
      "rom": 2646,
      "cover": 2647,
      "##ɑb": 2648,
      "num": 2649,
      "england": 2650,
      "ɪŋɡlənd": 2651,
      "##stən": 2652,
      "supɹ": 2653,
      "stʌd": 2654,
      "wajd": 2655,
      "##æʃ": 2656,
      "##ology": 2657,
      "less": 2658,
      "pɑɹti": 2659,
      "hʌ": 2660,
      "##ring": 2661,
      "aff": 2662,
      "vɪz": 2663,
      "tɹæk": 2664,
      "##ister": 2665,
      "ɹɛst": 2666,
      "considered": 2667,
      "kənsɪdɹd": 2668,
      "pæst": 2669,
      "ɪntɹnæ": 2670,
      "hɪɹ": 2671,
      "##ruction": 2672,
      "kənv": 2673,
      "party": 2674,
      "æs": 2675,
      "dav": 2676,
      "##ejmd": 2677,
      "court": 2678,
      "##con": 2679,
      "##idi": 2680,
      "field": 2681,
      "##lɪʃ": 2682,
      "ɪnkɹ": 2683,
      "fild": 2684,
      "pɹəp": 2685,
      "church": 2686,
      "ɡowl": 2687,
      "lʌv": 2688,
      "2002": 2689,
      "##read": 2690,
      "##iend": 2691,
      "repres": 2692,
      "proj": 2693,
      "ten": 2694,
      "stɹɔŋ": 2695,
      "##ices": 2696,
      "##ops": 2697,
      "##ɡɹæm": 2698,
      "##ham": 2699,
      "səb": 2700,
      "country": 2701,
      "##dʒɛst": 2702,
      "county": 2703,
      "kawnti": 2704,
      "don": 2705,
      "##ier": 2706,
      "litt": 2707,
      "##ɪŋtən": 2708,
      "fɹæns": 2709,
      "bɔɹd": 2710,
      "lʌnd": 2711,
      "comb": 2712,
      "##ae": 2713,
      "æm": 2714,
      "##day": 2715,
      "champions": 2716,
      "arch": 2717,
      "bur": 2718,
      "songs": 2719,
      "fɹɛnd": 2720,
      "sɔŋz": 2721,
      "friend": 2722,
      "ɹojəl": 2723,
      "royal": 2724,
      "stɹʌk": 2725,
      "development": 2726,
      "##ones": 2727,
      "hig": 2728,
      "mɪlətɛɹi": 2729,
      "sil": 2730,
      "colle": 2731,
      "military": 2732,
      "english": 2733,
      "moved": 2734,
      "muvd": 2735,
      "highway": 2736,
      "influ": 2737,
      "hajwej": 2738,
      "ɹɪtən": 2739,
      "written": 2740,
      "version": 2741,
      "free": 2742,
      "##wɛst": 2743,
      "want": 2744,
      "səs": 2745,
      "##ett": 2746,
      "##ɛnsɪv": 2747,
      "##be": 2748,
      "position": 2749,
      "##ford": 2750,
      "pɑs": 2751,
      "ɡɑɹd": 2752,
      "ve": 2753,
      "dɪfɹənt": 2754,
      "ɪŋɡlɪʃ": 2755,
      "kəmjun": 2756,
      "bɪz": 2757,
      "hy": 2758,
      "ænəm": 2759,
      "##ɪnd": 2760,
      "majn": 2761,
      "mɪs": 2762,
      "##erv": 2763,
      "vol": 2764,
      "##ənsi": 2765,
      "lɪtəl": 2766,
      "program": 2767,
      "sɪmp": 2768,
      "become": 2769,
      "ɪlɛktɹ": 2770,
      "##ption": 2771,
      "##ival": 2772,
      "pɹowɡɹæm": 2773,
      "little": 2774,
      "dɪt": 2775,
      "##pi": 2776,
      "forces": 2777,
      "fɔɹsɪz": 2778,
      "sol": 2779,
      "lej": 2780,
      "sajt": 2781,
      "chang": 2782,
      "fact": 2783,
      "dɪvɛləpmənt": 2784,
      "lost": 2785,
      "tɑm": 2786,
      "anim": 2787,
      "lɔst": 2788,
      "defe": 2789,
      "##ɪsts": 2790,
      "##ertain": 2791,
      "ɛk": 2792,
      "##ɪstɹ": 2793,
      "##let": 2794,
      "##eder": 2795,
      "ɪnflu": 2796,
      "##alk": 2797,
      "lond": 2798,
      "bɪldɪŋ": 2799,
      "building": 2800,
      "given": 2801,
      "son": 2802,
      "##ɪpt": 2803,
      "coast": 2804,
      "chart": 2805,
      "tropical": 2806,
      "##bɹɡ": 2807,
      "control": 2808,
      "tɹɑpɪkəl": 2809,
      "lʌndən": 2810,
      "ɡɪvən": 2811,
      "##co": 2812,
      "em": 2813,
      "london": 2814,
      "dʒæ": 2815,
      "total": 2816,
      "45": 2817,
      "səɡ": 2818,
      "##cle": 2819,
      "invol": 2820,
      "æktɪv": 2821,
      "author": 2822,
      "##vision": 2823,
      "ɹɪmejnd": 2824,
      "kʌntɹi": 2825,
      "ɪi": 2826,
      "suggest": 2827,
      "səɡdʒɛst": 2828,
      "ətɛmpt": 2829,
      "##ɪbj": 2830,
      "bit": 2831,
      "ɪnvɑl": 2832,
      "##craft": 2833,
      "stejdʒ": 2834,
      "miss": 2835,
      "kɹɔs": 2836,
      "##ɑv": 2837,
      "af": 2838,
      "##uct": 2839,
      "##ɛðɹ": 2840,
      "ɡejv": 2841,
      "##ɔɹts": 2842,
      "international": 2843,
      "refer": 2844,
      "##ison": 2845,
      "tri": 2846,
      "vir": 2847,
      "##ches": 2848,
      "ənawn": 2849,
      "announ": 2850,
      "##tɹnd": 2851,
      "pɹɪns": 2852,
      "ɪntɹnæʃənəl": 2853,
      "##mbɹ": 2854,
      "##sts": 2855,
      "sɪn": 2856,
      "##ɪkli": 2857,
      "lab": 2858,
      "hour": 2859,
      "tɛləv": 2860,
      "pur": 2861,
      "##ights": 2862,
      "read": 2863,
      "##ended": 2864,
      "##əmənts": 2865,
      "fajnd": 2866,
      "60": 2867,
      "night": 2868,
      "##ajəti": 2869,
      "sal": 2870,
      "street": 2871,
      "dut": 2872,
      "##ck": 2873,
      "##sh": 2874,
      "##lɹ": 2875,
      "##ɪɡn": 2876,
      "185": 2877,
      "lajv": 2878,
      "trad": 2879,
      "##ention": 2880,
      "nid": 2881,
      "sel": 2882,
      "ɡɛt": 2883,
      "kowst": 2884,
      "##ened": 2885,
      "##que": 2886,
      "flow": 2887,
      "##sequ": 2888,
      "canad": 2889,
      "eight": 2890,
      "rail": 2891,
      "##uv": 2892,
      "ɡowld": 2893,
      "find": 2894,
      "##ɪkjəlɹ": 2895,
      "sɔ": 2896,
      "ra": 2897,
      "gold": 2898,
      "pis": 2899,
      "ly": 2900,
      "##inə": 2901,
      "lɪm": 2902,
      "lib": 2903,
      "gave": 2904,
      "skɔɹ": 2905,
      "import": 2906,
      "wɛnt": 2907,
      "bɹɪdʒ": 2908,
      "towtəl": 2909,
      "station": 2910,
      "kʌp": 2911,
      "went": 2912,
      "ɛndʒən": 2913,
      "pɹəf": 2914,
      "##ʌf": 2915,
      "##ots": 2916,
      "performance": 2917,
      "##ural": 2918,
      "represent": 2919,
      "dɛk": 2920,
      "father": 2921,
      "ɪmpɔɹt": 2922,
      "ɹɪtɹnd": 2923,
      "returned": 2924,
      "##dɹ": 2925,
      "cir": 2926,
      "tɛɹ": 2927,
      "##ɛɡ": 2928,
      "##ɪldɹən": 2929,
      "somet": 2930,
      "##tend": 2931,
      "ni": 2932,
      "##ailed": 2933,
      "using": 2934,
      "juzɪŋ": 2935,
      "##dʒɛkt": 2936,
      "##ætʃ": 2937,
      "del": 2938,
      "##ɑpt": 2939,
      "##ʃi": 2940,
      "need": 2941,
      "ɹejl": 2942,
      "broad": 2943,
      "get": 2944,
      "##ɔɹdəd": 2945,
      "32": 2946,
      "published": 2947,
      "pʌblɪʃt": 2948,
      "pɹədust": 2949,
      "produced": 2950,
      "bɹɔd": 2951,
      "##ald": 2952,
      "##fɹm": 2953,
      "western": 2954,
      "conn": 2955,
      "wɛstɹn": 2956,
      "strong": 2957,
      "##rent": 2958,
      "##omb": 2959,
      "compet": 2960,
      "##ajzɪŋ": 2961,
      "##fəs": 2962,
      "##ead": 2963,
      "front": 2964,
      "boj": 2965,
      "##ownz": 2966,
      "reported": 2967,
      "##ajld": 2968,
      "ɑɹk": 2969,
      "##ejtɪv": 2970,
      "##ional": 2971,
      "##ədə": 2972,
      "tɛləvɪʒən": 2973,
      "obs": 2974,
      "trav": 2975,
      "popular": 2976,
      "##əni": 2977,
      "dɪm": 2978,
      "spɛ": 2979,
      "##ably": 2980,
      "particular": 2981,
      "ɹɛpɹəz": 2982,
      "recorded": 2983,
      "ɹəkɔɹdəd": 2984,
      "mass": 2985,
      "children": 2986,
      "tɹn": 2987,
      "tʃɪldɹən": 2988,
      "##ef": 2989,
      "right": 2990,
      "əpɑn": 2991,
      "television": 2992,
      "nuz": 2993,
      "##ləs": 2994,
      "pɹɑs": 2995,
      "##self": 2996,
      "##fɹəns": 2997,
      "ɹim": 2998,
      "base": 2999,
      "stated": 3000,
      "stejtəd": 3001,
      "##lo": 3002,
      "##ories": 3003,
      "ob": 3004,
      "ɛɹkɹæft": 3005,
      "aircraft": 3006,
      "##ɪsən": 3007,
      "##aign": 3008,
      "special": 3009,
      "fʊl": 3010,
      "##liz": 3011,
      "hɪl": 3012,
      "dʒi": 3013,
      "intere": 3014,
      "dɪfit": 3015,
      "ships": 3016,
      "ʃɪps": 3017,
      "cam": 3018,
      "fɑðɹ": 3019,
      "ɡɹawnd": 3020,
      "ground": 3021,
      "campaign": 3022,
      "##ədɪʃən": 3023,
      "##less": 3024,
      "ɹɛdʒ": 3025,
      "live": 3026,
      "mɛmbɹ": 3027,
      "pɹədus": 3028,
      "should": 3029,
      "##ɛdʒ": 3030,
      "##ances": 3031,
      "include": 3032,
      "making": 3033,
      "mejkɪŋ": 3034,
      "##ɪft": 3035,
      "lɪv": 3036,
      "##echn": 3037,
      "ide": 3038,
      "ɹivju": 3039,
      "##ojs": 3040,
      "arg": 3041,
      "dou": 3042,
      "##ɔf": 3043,
      "##ama": 3044,
      "##ɪsəp": 3045,
      "ɹejn": 3046,
      "critic": 3047,
      "##aul": 3048,
      "spɛʃəl": 3049,
      "awɹ": 3050,
      "təwɔɹd": 3051,
      "##ints": 3052,
      "vju": 3053,
      "pəlɪt": 3054,
      "##ajɪŋ": 3055,
      "hɪt": 3056,
      "age": 3057,
      "hɪstɔɹ": 3058,
      "##ənsəz": 3059,
      "dɪsajd": 3060,
      "##iter": 3061,
      "love": 3062,
      "hɹək": 3063,
      "stajl": 3064,
      "hurric": 3065,
      "wɪmən": 3066,
      "destro": 3067,
      "women": 3068,
      "sɛntɹəl": 3069,
      "##ned": 3070,
      "##ston": 3071,
      "kæt": 3072,
      "central": 3073,
      "cult": 3074,
      "θɹuawt": 3075,
      "throughout": 3076,
      "##osp": 3077,
      "##cess": 3078,
      "##ument": 3079,
      "ɪnkɹis": 3080,
      "##used": 3081,
      "upon": 3082,
      "prim": 3083,
      "hom": 3084,
      "ham": 3085,
      "36": 3086,
      "pri": 3087,
      "1999": 3088,
      "young": 3089,
      "wʌns": 3090,
      "once": 3091,
      "skɑt": 3092,
      "##iness": 3093,
      "##ɑɡɹ": 3094,
      "##fild": 3095,
      "suff": 3096,
      "##uced": 3097,
      "##ɔlt": 3098,
      "##my": 3099,
      "##iment": 3100,
      "sɪt": 3101,
      "sen": 3102,
      "hɪmsɛlf": 3103,
      "himself": 3104,
      "##ətəl": 3105,
      "ɪkspl": 3106,
      "##ʒɹz": 3107,
      "##old": 3108,
      "official": 3109,
      "vɪl": 3110,
      "australia": 3111,
      "ɔstɹejljə": 3112,
      "##lænd": 3113,
      "owp": 3114,
      "championship": 3115,
      "tʃæmpiənʃɪp": 3116,
      "flɔɹ": 3117,
      "##lid": 3118,
      "##ges": 3119,
      "stejʃən": 3120,
      "##aur": 3121,
      "mot": 3122,
      "rich": 3123,
      "hɛvi": 3124,
      "techn": 3125,
      "kæɹɪk": 3126,
      "dip": 3127,
      "##æljən": 3128,
      "wɪljəm": 3129,
      "characters": 3130,
      "kæɹɪktɹz": 3131,
      "aud": 3132,
      "hor": 3133,
      "tur": 3134,
      "##ædʒ": 3135,
      "wall": 3136,
      "##aws": 3137,
      "##ensive": 3138,
      "75": 3139,
      "##bz": 3140,
      "non": 3141,
      "fɔɹt": 3142,
      "ɹɛɡ": 3143,
      "pɹət": 3144,
      "fav": 3145,
      "kɑnst": 3146,
      "ɹu": 3147,
      "##ective": 3148,
      "fac": 3149,
      "##rew": 3150,
      "wʊ": 3151,
      "##əsɪfɪk": 3152,
      "##alth": 3153,
      "depart": 3154,
      "cas": 3155,
      "300": 3156,
      "cli": 3157,
      "pik": 3158,
      "ap": 3159,
      "vill": 3160,
      "squad": 3161,
      "skwɑd": 3162,
      "##itive": 3163,
      "əwej": 3164,
      "players": 3165,
      "plejɹz": 3166,
      "##fic": 3167,
      "relations": 3168,
      "fɹʌnt": 3169,
      "##play": 3170,
      "##ither": 3171,
      "instead": 3172,
      "ɪnstɛd": 3173,
      "##wɛɹ": 3174,
      "mad": 3175,
      "dajd": 3176,
      "southern": 3177,
      "dev": 3178,
      "tajtəl": 3179,
      "title": 3180,
      "sʌðɹn": 3181,
      "seven": 3182,
      "dʒejmz": 3183,
      "##ets": 3184,
      "##akes": 3185,
      "ɹajtɪŋ": 3186,
      "fejvɹ": 3187,
      "bɪh": 3188,
      "away": 3189,
      "james": 3190,
      "writing": 3191,
      "pɹəm": 3192,
      "fall": 3193,
      "bɪɡɪn": 3194,
      "tʃɑɹt": 3195,
      "kɑlɪdʒ": 3196,
      "##ɔɹəti": 3197,
      "begin": 3198,
      "promot": 3199,
      "##yl": 3200,
      "184": 3201,
      "across": 3202,
      "əkɹɔs": 3203,
      "pɔɹt": 3204,
      "sea": 3205,
      "ɹipl": 3206,
      "dɔ": 3207,
      "lɑ": 3208,
      "ball": 3209,
      "remained": 3210,
      "##ising": 3211,
      "introd": 3212,
      "ɪntɹəd": 3213,
      "mʌnθs": 3214,
      "months": 3215,
      "pal": 3216,
      "center": 3217,
      "80": 3218,
      "died": 3219,
      "##ape": 3220,
      "væl": 3221,
      "dɪvɛləpt": 3222,
      "developed": 3223,
      "##ɛndɪŋ": 3224,
      "signific": 3225,
      "bɔɹn": 3226,
      "enc": 3227,
      "##rest": 3228,
      "political": 3229,
      "pəlɪtəkəl": 3230,
      "##aster": 3231,
      "alt": 3232,
      "##ɪɹiəl": 3233,
      "full": 3234,
      "##eth": 3235,
      "grand": 3236,
      "fort": 3237,
      "fi": 3238,
      "vɛɹiəs": 3239,
      "commit": 3240,
      "various": 3241,
      "cat": 3242,
      "nɑn": 3243,
      "##ency": 3244,
      "##ɡow": 3245,
      "occur": 3246,
      "kɔl": 3247,
      "ki": 3248,
      "too": 3249,
      "hɑɹd": 3250,
      "1998": 3251,
      "stat": 3252,
      "wood": 3253,
      "hɹəkejn": 3254,
      "hurricane": 3255,
      "##ob": 3256,
      "##lin": 3257,
      "kej": 3258,
      "dɑn": 3259,
      "ɹɛl": 3260,
      "cop": 3261,
      "##utes": 3262,
      "33": 3263,
      "hɛn": 3264,
      "dejt": 3265,
      "##əh": 3266,
      "##əkɹ": 3267,
      "mɑdɹn": 3268,
      "aver": 3269,
      "hol": 3270,
      "modern": 3271,
      "##acy": 3272,
      "net": 3273,
      "##æntʃ": 3274,
      "##tʃɹz": 3275,
      "plejst": 3276,
      "hon": 3277,
      "sɪl": 3278,
      "fowk": 3279,
      "tʃajn": 3280,
      "##field": 3281,
      "race": 3282,
      "hill": 3283,
      "sʌbs": 3284,
      "ɡɹænd": 3285,
      "##ration": 3286,
      "ɹum": 3287,
      "soc": 3288,
      "pra": 3289,
      "office": 3290,
      "mət": 3291,
      "ill": 3292,
      "fɔɹθ": 3293,
      "bɛn": 3294,
      "big": 3295,
      "ɹipɔɹtəd": 3296,
      "##ille": 3297,
      "##ries": 3298,
      "vo": 3299,
      "##inted": 3300,
      "mal": 3301,
      "hard": 3302,
      "majlz": 3303,
      "##ael": 3304,
      "pɹowt": 3305,
      "fɛlt": 3306,
      "works": 3307,
      "##ŋkθ": 3308,
      "conv": 3309,
      "felt": 3310,
      "areas": 3311,
      "ɛɹiəz": 3312,
      "vɑl": 3313,
      "##su": 3314,
      "##ədi": 3315,
      "noted": 3316,
      "nowtəd": 3317,
      "##mit": 3318,
      "ævɹ": 3319,
      "##pəniz": 3320,
      "##ʃɹ": 3321,
      "indust": 3322,
      "##ont": 3323,
      "##ls": 3324,
      "america": 3325,
      "əmɛɹəkə": 3326,
      "blu": 3327,
      "ɪvɛntʃ": 3328,
      "eventually": 3329,
      "ɪvɛntʃəwəli": 3330,
      "kæpt": 3331,
      "pɹɛzənt": 3332,
      "bri": 3333,
      "born": 3334,
      "russ": 3335,
      "ənawnst": 3336,
      "announced": 3337,
      "created": 3338,
      "kɹiejtəd": 3339,
      "##lied": 3340,
      "miles": 3341,
      "style": 3342,
      "##əbɹ": 3343,
      "reached": 3344,
      "ɹitʃt": 3345,
      "brother": 3346,
      "college": 3347,
      "##ejʒən": 3348,
      "ɔlm": 3349,
      "destroy": 3350,
      "##dom": 3351,
      "project": 3352,
      "##ship": 3353,
      "ɛvɹ": 3354,
      "ədv": 3355,
      "##zɹ": 3356,
      "japanese": 3357,
      "dʒæpəniz": 3358,
      "hot": 3359,
      "##ming": 3360,
      "howld": 3361,
      "engine": 3362,
      "ɪkspɪɹi": 3363,
      "ɡɹow": 3364,
      "put": 3365,
      "##ɹɛd": 3366,
      "##ejks": 3367,
      "37": 3368,
      "dɛd": 3369,
      "ir": 3370,
      "əpɹow": 3371,
      "ɹikw": 3372,
      "təɡ": 3373,
      "successful": 3374,
      "ʃʊd": 3375,
      "tɹit": 3376,
      "nɔɹðɹn": 3377,
      "northern": 3378,
      "hold": 3379,
      "interest": 3380,
      "dʌbəl": 3381,
      "##ung": 3382,
      "##most": 3383,
      "sɹk": 3384,
      "jɑɹd": 3385,
      "ɪntɹəst": 3386,
      "lɛvəl": 3387,
      "body": 3388,
      "bɛl": 3389,
      "1997": 3390,
      "##mɹ": 3391,
      "seen": 3392,
      "pain": 3393,
      "heavy": 3394,
      "ɹul": 3395,
      "##ɑnɪk": 3396,
      "##əmətli": 3397,
      "##imately": 3398,
      "san": 3399,
      "##atter": 3400,
      "##ʃə": 3401,
      "##ɛts": 3402,
      "hen": 3403,
      "sʌmɹ": 3404,
      "najn": 3405,
      "##ɛstɹ": 3406,
      "##ɛɹz": 3407,
      "dɹɛkt": 3408,
      "fɑlowd": 3409,
      "followed": 3410,
      "kɪld": 3411,
      "toget": 3412,
      "bɹawn": 3413,
      "##ənst": 3414,
      "təɡɛðɹ": 3415,
      "##ality": 3416,
      "70": 3417,
      "range": 3418,
      "together": 3419,
      "hall": 3420,
      "##ɹək": 3421,
      "meet": 3422,
      "##ɛf": 3423,
      "circ": 3424,
      "pɹfɔɹmd": 3425,
      "performed": 3426,
      "rol": 3427,
      "##ana": 3428,
      "sɹvd": 3429,
      "served": 3430,
      "civ": 3431,
      "help": 3432,
      "hɛlp": 3433,
      "##ma": 3434,
      "fajt": 3435,
      "məl": 3436,
      "decl": 3437,
      "kæmpejn": 3438,
      "ejbəl": 3439,
      "00": 3440,
      "brown": 3441,
      "bridge": 3442,
      "member": 3443,
      "struct": 3444,
      "construction": 3445,
      "bɑdi": 3446,
      "kənstɹʌkʃən": 3447,
      "##æsk": 3448,
      "hɔl": 3449,
      "activ": 3450,
      "ɑɹɡ": 3451,
      "george": 3452,
      "##work": 3453,
      "mur": 3454,
      "tʌn": 3455,
      "##lɪŋ": 3456,
      "esc": 3457,
      "kawn": 3458,
      "lɔs": 3459,
      "coun": 3460,
      "ɹowz": 3461,
      "football": 3462,
      "fʊtbɔl": 3463,
      "god": 3464,
      "pɹej": 3465,
      "##cent": 3466,
      "##ədəns": 3467,
      "killed": 3468,
      "kowl": 3469,
      "tor": 3470,
      "significant": 3471,
      "pɪk": 3472,
      "tɹænz": 3473,
      "##iting": 3474,
      "able": 3475,
      "##idence": 3476,
      "round": 3477,
      "taken": 3478,
      "tejkən": 3479,
      "establ": 3480,
      "##ɪvəl": 3481,
      "##eal": 3482,
      "ɪɡzæmp": 3483,
      "##ization": 3484,
      "bət": 3485,
      "earli": 3486,
      "ɛst": 3487,
      "##elling": 3488,
      "dɑ": 3489,
      "impro": 3490,
      "ident": 3491,
      "ajdɛnt": 3492,
      "mm": 3493,
      "ru": 3494,
      "becom": 3495,
      "wɹks": 3496,
      "##wɹk": 3497,
      "##ʌktəd": 3498,
      "kæst": 3499,
      "pojnts": 3500,
      "##ɑɡɹəf": 3501,
      "wɛðɹ": 3502,
      "##ators": 3503,
      "ækʃən": 3504,
      "183": 3505,
      "que": 3506,
      "action": 3507,
      "process": 3508,
      "##olution": 3509,
      "ɡɑd": 3510,
      "points": 3511,
      "los": 3512,
      "##æb": 3513,
      "human": 3514,
      "##west": 3515,
      "ren": 3516,
      "vari": 3517,
      "##ico": 3518,
      "##tajm": 3519,
      "##æli": 3520,
      "spl": 3521,
      "iv": 3522,
      "does": 3523,
      "##əstɹi": 3524,
      "θɔt": 3525,
      "thought": 3526,
      "mean": 3527,
      "##bur": 3528,
      "##ecut": 3529,
      "##dəm": 3530,
      "ɪstæblɪʃt": 3531,
      "established": 3532,
      "look": 3533,
      "originally": 3534,
      "ɹɪdʒənəli": 3535,
      "##ɪtəd": 3536,
      "mc": 3537,
      "invest": 3538,
      "ɹit": 3539,
      "ɹiz": 3540,
      "pɑpjəlɹ": 3541,
      "wɑʃ": 3542,
      "thom": 3543,
      "ɹilejʃən": 3544,
      "howl": 3545,
      "australian": 3546,
      "ɔstɹejljən": 3547,
      "##press": 3548,
      "##aval": 3549,
      "gar": 3550,
      "##ɹəs": 3551,
      "subsequ": 3552,
      "sʌbsəkw": 3553,
      "kɹu": 3554,
      "mem": 3555,
      "34": 3556,
      "others": 3557,
      "tv": 3558,
      "tɛkn": 3559,
      "ʌðɹz": 3560,
      "ɪndʒ": 3561,
      "##enced": 3562,
      "38": 3563,
      "powl": 3564,
      "##ove": 3565,
      "##ʌdʒ": 3566,
      "insp": 3567,
      "entire": 3568,
      "ɪntajɹ": 3569,
      "appeared": 3570,
      "əpɪɹd": 3571,
      "##augh": 3572,
      "səm": 3573,
      "##ament": 3574,
      "spejs": 3575,
      "david": 3576,
      "stiv": 3577,
      "dejvɪd": 3578,
      "mɪk": 3579,
      "##ʒəwəl": 3580,
      "ɪnvɛst": 3581,
      "fən": 3582,
      "located": 3583,
      "lowkejtəd": 3584,
      "##rict": 3585,
      "director": 3586,
      "##əʃ": 3587,
      "surv": 3588,
      "features": 3589,
      "fitʃɹz": 3590,
      "tɹævəl": 3591,
      "fim": 3592,
      "mɑ": 3593,
      "fem": 3594,
      "ɛf": 3595,
      "##iving": 3596,
      "1995": 3597,
      "wr": 3598,
      "pɹɑdʒɛkt": 3599,
      "ɑpɹejʃən": 3600,
      "ɹəd": 3601,
      "##ɔɹtɹ": 3602,
      "vot": 3603,
      "voc": 3604,
      "owl": 3605,
      "crew": 3606,
      "æfɹək": 3607,
      "bɹejk": 3608,
      "vowk": 3609,
      "##ray": 3610,
      "gir": 3611,
      "den": 3612,
      "##ini": 3613,
      "commission": 3614,
      "##oph": 3615,
      "business": 3616,
      "##ked": 3617,
      "ɹajts": 3618,
      "started": 3619,
      "stɑɹtəd": 3620,
      "stage": 3621,
      "ɪkspɹ": 3622,
      "mother": 3623,
      "playing": 3624,
      "plejɪŋ": 3625,
      "spid": 3626,
      "reb": 3627,
      "attend": 3628,
      "kɑzd": 3629,
      "caused": 3630,
      "pɹɑsɛs": 3631,
      "##aves": 3632,
      "decided": 3633,
      "afric": 3634,
      "kɹɪtɪks": 3635,
      "critics": 3636,
      "##oon": 3637,
      "civil": 3638,
      "tɔɹ": 3639,
      "pɹɛs": 3640,
      "pot": 3641,
      "##ɪli": 3642,
      "##gg": 3643,
      "feet": 3644,
      "kingdom": 3645,
      "word": 3646,
      "##ize": 3647,
      "ævɹɪdʒ": 3648,
      "ɹæðɹ": 3649,
      "rank": 3650,
      "rather": 3651,
      "dɹɛktɹ": 3652,
      "##go": 3653,
      "fourth": 3654,
      "tɹejd": 3655,
      "jud": 3656,
      "mater": 3657,
      "ɡɹin": 3658,
      "##epend": 3659,
      "kwɑl": 3660,
      "1996": 3661,
      "ur": 3662,
      "##ɪpɛnd": 3663,
      "##cil": 3664,
      "##ənsɪz": 3665,
      "plænt": 3666,
      "##ɛtɪk": 3667,
      "dɪsajdɪd": 3668,
      "econ": 3669,
      "dɛl": 3670,
      "flit": 3671,
      "2016": 3672,
      "##isted": 3673,
      "behind": 3674,
      "##lies": 3675,
      "fɛd": 3676,
      "ɪndɪpɛnd": 3677,
      "independ": 3678,
      "bɪhajnd": 3679,
      "fɔɹmd": 3680,
      "formed": 3681,
      "econom": 3682,
      "##ple": 3683,
      "sus": 3684,
      "site": 3685,
      "discover": 3686,
      "ædəd": 3687,
      "added": 3688,
      "magaz": 3689,
      "mæɡəz": 3690,
      "resear": 3691,
      "case": 3692,
      "##vɹt": 3693,
      "ital": 3694,
      "##wɛl": 3695,
      "fleet": 3696,
      "let": 3697,
      "90": 3698,
      "##ɛld": 3699,
      "important": 3700,
      "##ɛndɹ": 3701,
      "cost": 3702,
      "ɹɪli": 3703,
      "kəntɪnju": 3704,
      "sam": 3705,
      "soon": 3706,
      "##uk": 3707,
      "sɛns": 3708,
      "bɪznəs": 3709,
      "rh": 3710,
      "##oks": 3711,
      "##ani": 3712,
      "pred": 3713,
      "1994": 3714,
      "##reek": 3715,
      "##ample": 3716,
      "##ɑmə": 3717,
      "##arr": 3718,
      "ɹowm": 3719,
      "comment": 3720,
      "fejs": 3721,
      "##kæst": 3722,
      "##awd": 3723,
      "##heast": 3724,
      "soci": 3725,
      "dvd": 3726,
      "ɪkw": 3727,
      "##ətɔɹi": 3728,
      "dɪpɑɹt": 3729,
      "##den": 3730,
      "##ivid": 3731,
      "kawnsəl": 3732,
      "##ɹow": 3733,
      "mart": 3734,
      "##dle": 3735,
      "eastern": 3736,
      "istɹn": 3737,
      "current": 3738,
      "damage": 3739,
      "kɑz": 3740,
      "completed": 3741,
      "kəmplitəd": 3742,
      "green": 3743,
      "##ɑdʒɪkəl": 3744,
      "outs": 3745,
      "ɑp": 3746,
      "pen": 3747,
      "almost": 3748,
      "ɔlmowst": 3749,
      "##ee": 3750,
      "guns": 3751,
      "##head": 3752,
      "neg": 3753,
      "sex": 3754,
      "educ": 3755,
      "close": 3756,
      "##ief": 3757,
      "pɑpjəlejʃən": 3758,
      "population": 3759,
      "awts": 3760,
      "ber": 3761,
      "ɪmpɔɹtənt": 3762,
      "##aces": 3763,
      "inform": 3764,
      "##aps": 3765,
      "majkəl": 3766,
      "##məs": 3767,
      "ɡʌnz": 3768,
      "ɹisɹtʃ": 3769,
      "hɛnɹi": 3770,
      "indian": 3771,
      "mʌðɹ": 3772,
      "lang": 3773,
      "##əpəl": 3774,
      "lidɹ": 3775,
      "cut": 3776,
      "initially": 3777,
      "ɪnɪʃəli": 3778,
      "##wʊd": 3779,
      "nɑmən": 3780,
      "key": 3781,
      "##ubl": 3782,
      "##ɹət": 3783,
      "##ince": 3784,
      "##wood": 3785,
      "ɔt": 3786,
      "dɛm": 3787,
      "jour": 3788,
      "dæns": 3789,
      "mejnt": 3790,
      "tran": 3791,
      "ɪntɹv": 3792,
      "wid": 3793,
      "region": 3794,
      "##nz": 3795,
      "49": 3796,
      "loss": 3797,
      "bal": 3798,
      "##oney": 3799,
      "cro": 3800,
      "kɪŋdəm": 3801,
      "##ɛɹə": 3802,
      "hɔɹs": 3803,
      "owpənd": 3804,
      "opened": 3805,
      "scre": 3806,
      "faj": 3807,
      "##arch": 3808,
      "awards": 3809,
      "dɪfɛns": 3810,
      "əwɔɹdz": 3811,
      "princ": 3812,
      "##ata": 3813,
      "180": 3814,
      "mix": 3815,
      "ɑk": 3816,
      "dʒɹn": 3817,
      "##itar": 3818,
      "##ɛpʃən": 3819,
      "əsɪst": 3820,
      "##cast": 3821,
      "pɹækt": 3822,
      "lɛdʒ": 3823,
      "social": 3824,
      "##yn": 3825,
      "pract": 3826,
      "##jənz": 3827,
      "##wejz": 3828,
      "proble": 3829,
      "pɹɑbl": 3830,
      "sowʃəl": 3831,
      "kənf": 3832,
      "michael": 3833,
      "##baj": 3834,
      "nɛt": 3835,
      "mɪdəl": 3836,
      "θim": 3837,
      "relationship": 3838,
      "ɹilejʃənʃɪp": 3839,
      "fʌnd": 3840,
      "mel": 3841,
      "ajs": 3842,
      "bɑm": 3843,
      "individ": 3844,
      "##ceed": 3845,
      "##reat": 3846,
      "sowl": 3847,
      "sett": 3848,
      "æŋɡ": 3849,
      "kɑst": 3850,
      "fund": 3851,
      "wiks": 3852,
      "grow": 3853,
      "æb": 3854,
      "ɛɡz": 3855,
      "41": 3856,
      "##ades": 3857,
      "leading": 3858,
      "lidɪŋ": 3859,
      "dʒej": 3860,
      "##ways": 3861,
      "weeks": 3862,
      "inj": 3863,
      "##ogn": 3864,
      "##θl": 3865,
      "tradition": 3866,
      "working": 3867,
      "sɛpɹ": 3868,
      "separ": 3869,
      "dɪkl": 3870,
      "wɹkɪŋ": 3871,
      "bay": 3872,
      "lou": 3873,
      "wɹkt": 3874,
      "##fi": 3875,
      "worked": 3876,
      "tɹədɪʃən": 3877,
      "##ŋɡɹ": 3878,
      "##tejn": 3879,
      "kɹɪs": 3880,
      "ɪnstɹ": 3881,
      "pɑz": 3882,
      "diffic": 3883,
      "1992": 3884,
      "##ɪi": 3885,
      "dɪfəkəl": 3886,
      "difficult": 3887,
      "radio": 3888,
      "clos": 3889,
      "stɹɛ": 3890,
      "secret": 3891,
      "dʒu": 3892,
      "towards": 3893,
      "təwɔɹdz": 3894,
      "##juzd": 3895,
      "##medi": 3896,
      "accom": 3897,
      "room": 3898,
      "ɹejdiow": 3899,
      "ɛfɹ": 3900,
      "recording": 3901,
      "ɹəkɔɹdɪŋ": 3902,
      "appo": 3903,
      "əθ": 3904,
      "ɹɛpɹəzɛnt": 3905,
      "##mploy": 3906,
      "əpojnt": 3907,
      "##ætəs": 3908,
      "##ino": 3909,
      "bomb": 3910,
      "##por": 3911,
      "##ara": 3912,
      "fɪʃ": 3913,
      "france": 3914,
      "əpɹowtʃ": 3915,
      "səɡn": 3916,
      "səɡnɪfɪk": 3917,
      "kip": 3918,
      "mɛl": 3919,
      "cup": 3920,
      "mac": 3921,
      "council": 3922,
      "##ədʒəz": 3923,
      "##asing": 3924,
      "laun": 3925,
      "hɑɹt": 3926,
      "peak": 3927,
      "ɹɛs": 3928,
      "400": 3929,
      "##anch": 3930,
      "scene": 3931,
      "##ændəd": 3932,
      "sour": 3933,
      "##rison": 3934,
      "sɛn": 3935,
      "##ica": 3936,
      "union": 3937,
      "goal": 3938,
      "junjən": 3939,
      "##ski": 3940,
      "##uel": 3941,
      "##men": 3942,
      "rain": 3943,
      "pɔl": 3944,
      "##cher": 3945,
      "pɹɪv": 3946,
      "dil": 3947,
      "henry": 3948,
      "must": 3949,
      "əlawd": 3950,
      "##imes": 3951,
      "##məl": 3952,
      "quick": 3953,
      "##əzejʃən": 3954,
      "commer": 3955,
      "sæn": 3956,
      "kɑmb": 3957,
      "reve": 3958,
      "ɹθ": 3959,
      "55": 3960,
      "##gn": 3961,
      "material": 3962,
      "##ɪmən": 3963,
      "robert": 3964,
      "records": 3965,
      "lɔntʃ": 3966,
      "navy": 3967,
      "ɹɛkɹdz": 3968,
      "nejvi": 3969,
      "##ŋɡw": 3970,
      "tɹejnɪŋ": 3971,
      "training": 3972,
      "##ɔk": 3973,
      "washing": 3974,
      "##æləs": 3975,
      "pil": 3976,
      "skɔɹd": 3977,
      "ɡæ": 3978,
      "least": 3979,
      "scored": 3980,
      "kæɹi": 3981,
      "provided": 3982,
      "pɹəvajdəd": 3983,
      "novel": 3984,
      "hjumən": 3985,
      "exc": 3986,
      "##ɪmp": 3987,
      "reach": 3988,
      "##ological": 3989,
      "wɑntəd": 3990,
      "wanted": 3991,
      "er": 3992,
      "##əkt": 3993,
      "kənsɪst": 3994,
      "extend": 3995,
      "treat": 3996,
      "tʃɑɹdʒ": 3997,
      "republ": 3998,
      "##jətɪv": 3999,
      "bud": 4000,
      "ey": 4001,
      "##hɛd": 4002,
      "troops": 4003,
      "angel": 4004,
      "fig": 4005,
      "bɹɔt": 4006,
      "brought": 4007,
      "##æfɪk": 4008,
      "average": 4009,
      "##hest": 4010,
      "##oring": 4011,
      "##ʒə": 4012,
      "ændɹ": 4013,
      "##board": 4014,
      "transp": 4015,
      "recogn": 4016,
      "ɹɛkəɡn": 4017,
      "##ʌmp": 4018,
      "tɹups": 4019,
      "1991": 4020,
      "ɡɑ": 4021,
      "##ɡɹawnd": 4022,
      "fitʃɹd": 4023,
      "featured": 4024,
      "earth": 4025,
      "sɔɹs": 4026,
      "##ɔɹdən": 4027,
      "##ɹist": 4028,
      "dowz": 4029,
      "brig": 4030,
      "1993": 4031,
      "iðɹ": 4032,
      "179": 4033,
      "pʊt": 4034,
      "either": 4035,
      "ətɹ": 4036,
      "je": 4037,
      "feder": 4038,
      "fut": 4039,
      "dɹaj": 4040,
      "pɹɑpɹ": 4041,
      "proper": 4042,
      "allowed": 4043,
      "fif": 4044,
      "39": 4045,
      "##ams": 4046,
      "tʃajld": 4047,
      "æktɹ": 4048,
      "past": 4049,
      "nomin": 4050,
      "##ager": 4051,
      "wajf": 4052,
      "##ədənt": 4053,
      "lack": 4054,
      "cho": 4055,
      "estim": 4056,
      "bæl": 4057,
      "fækt": 4058,
      "ɛstəm": 4059,
      "##hib": 4060,
      "vɪktɹi": 4061,
      "pɑ": 4062,
      "sat": 4063,
      "foc": 4064,
      "##əkejʃənz": 4065,
      "kʌt": 4066,
      "wife": 4067,
      "##ədz": 4068,
      "ɑks": 4069,
      "victory": 4070,
      "42": 4071,
      "##vəlz": 4072,
      "colon": 4073,
      "studio": 4074,
      "studiow": 4075,
      "pət": 4076,
      "placed": 4077,
      "##ɛkjətɪv": 4078,
      "mʌst": 4079,
      "generally": 4080,
      "dʒɛnɹəli": 4081,
      "inn": 4082,
      "max": 4083,
      "##tiz": 4084,
      "avail": 4085,
      "##ɪstɪk": 4086,
      "washington": 4087,
      "əvejl": 4088,
      "ver": 4089,
      "paul": 4090,
      "express": 4091,
      "##ajdɹ": 4092,
      "##ript": 4093,
      "##pper": 4094,
      "fɪɡ": 4095,
      "dim": 4096,
      "ajɹ": 4097,
      "##əvɪdʒ": 4098,
      "tar": 4099,
      "wɑʃɪŋtən": 4100,
      "priv": 4101,
      "wɑtʃ": 4102,
      "rul": 4103,
      "dʒow": 4104,
      "ɪntʃ": 4105,
      "summer": 4106,
      "48": 4107,
      "pɹɪz": 4108,
      "##here": 4109,
      "ach": 4110,
      "fɛɹ": 4111,
      "mun": 4112,
      "sup": 4113,
      "ɹʌnz": 4114,
      "runs": 4115,
      "tun": 4116,
      "vɹdʒ": 4117,
      "ɹɑbɹt": 4118,
      "example": 4119,
      "ɪɡzæmpəl": 4120,
      "ɪndəvɪdʒ": 4121,
      "##ɛkʃənz": 4122,
      "##ʒəl": 4123,
      "182": 4124,
      "der": 4125,
      "events": 4126,
      "ɪvɛnts": 4127,
      "##mənənt": 4128,
      "magazine": 4129,
      "mæɡəzin": 4130,
      "dɛz": 4131,
      "tʃif": 4132,
      "chief": 4133,
      "pet": 4134,
      "##owtəd": 4135,
      "##mon": 4136,
      "##əkejtəd": 4137,
      "republic": 4138,
      "battal": 4139,
      "ɛmpl": 4140,
      "leng": 4141,
      "lʊk": 4142,
      "##mpt": 4143,
      "board": 4144,
      "ale": 4145,
      "##əmɛnt": 4146,
      "esp": 4147,
      "##mənd": 4148,
      "##arter": 4149,
      "nb": 4150,
      "dark": 4151,
      "##icated": 4152,
      "##igned": 4153,
      "##antic": 4154,
      "awɹz": 4155,
      "police": 4156,
      "##ɹiə": 4157,
      "ɡɹænt": 4158,
      "ɡæl": 4159,
      "##ætɹ": 4160,
      "grad": 4161,
      "pɛn": 4162,
      "##erous": 4163,
      "stu": 4164,
      "##iɹ": 4165,
      "##kej": 4166,
      "##dej": 4167,
      "studi": 4168,
      "səv": 4169,
      "effect": 4170,
      "staff": 4171,
      "ut": 4172,
      "181": 4173,
      "accept": 4174,
      "pəlis": 4175,
      "##ential": 4176,
      "##aper": 4177,
      "dʒojnd": 4178,
      "joined": 4179,
      "designed": 4180,
      "dɪzajnd": 4181,
      "##ville": 4182,
      "squadron": 4183,
      "skwɑdɹən": 4184,
      "##ground": 4185,
      "particip": 4186,
      "pɑɹtɪsəp": 4187,
      "mæks": 4188,
      "##minist": 4189,
      "kwɛst": 4190,
      "##ells": 4191,
      "##iction": 4192,
      "hours": 4193,
      "æksɛpt": 4194,
      "sid": 4195,
      "kil": 4196,
      "stown": 4197,
      "##ɛv": 4198,
      "sho": 4199,
      "surf": 4200,
      "dʒin": 4201,
      "regular": 4202,
      "employ": 4203,
      "ɡɪt": 4204,
      "##əpæn": 4205,
      "middle": 4206,
      "quest": 4207,
      "nine": 4208,
      "##ination": 4209,
      "spæn": 4210,
      "speed": 4211,
      "shot": 4212,
      "##aut": 4213,
      "ʃɑt": 4214,
      "dʌn": 4215,
      "ku": 4216,
      "operation": 4217,
      "1942": 4218,
      "pɑzətɪv": 4219,
      "##æntɪk": 4220,
      "ɹəɡ": 4221,
      "deli": 4222,
      "##hel": 4223,
      "##ajən": 4224,
      "##iple": 4225,
      "opening": 4226,
      "owpənɪŋ": 4227,
      "kɑmpl": 4228,
      "##æləti": 4229,
      "tɹm": 4230,
      "bɪlivd": 4231,
      "believed": 4232,
      "##ɔst": 4233,
      "stæf": 4234,
      "ɡɪtɑɹ": 4235,
      "regard": 4236,
      "ɹəɡɑɹd": 4237,
      "come": 4238,
      "tʌ": 4239,
      "##anks": 4240,
      "65": 4241,
      "47": 4242,
      "bir": 4243,
      "media": 4244,
      "dɪskʌvɹ": 4245,
      "ox": 4246,
      "bɹowk": 4247,
      "cou": 4248,
      "##ənejʃən": 4249,
      "mary": 4250,
      "lejd": 4251,
      "##pped": 4252,
      "##iejtʃ": 4253,
      "dʒəpæn": 4254,
      "tɪp": 4255,
      "##str": 4256,
      "##pɔɹt": 4257,
      "replaced": 4258,
      "ɹiplejst": 4259,
      "mph": 4260,
      "ɛmpiejtʃ": 4261,
      "əfɪʃəl": 4262,
      "##bject": 4263,
      "rob": 4264,
      "##ili": 4265,
      "prior": 4266,
      "infant": 4267,
      "stone": 4268,
      "dʒæk": 4269,
      "##erson": 4270,
      "mɪst": 4271,
      "scen": 4272,
      "##əɡejʃən": 4273,
      "dɹajv": 4274,
      "hajɹ": 4275,
      "host": 4276,
      "mɑɹt": 4277,
      "##ɹɛɹi": 4278,
      "winds": 4279,
      "midiə": 4280,
      "##ɑts": 4281,
      "relig": 4282,
      "pay": 4283,
      "kɔɹs": 4284,
      "##ids": 4285,
      "ɡɪl": 4286,
      "deter": 4287,
      "captain": 4288,
      "sɪɡn": 4289,
      "##ɑmɪk": 4290,
      "involved": 4291,
      "ɪnvɑlvd": 4292,
      "stop": 4293,
      "mcc": 4294,
      "lejk": 4295,
      "pɹɛm": 4296,
      "european": 4297,
      "uk": 4298,
      "langu": 4299,
      "ɹliɹ": 4300,
      "earlier": 4301,
      "jʊɹəpiən": 4302,
      "##osition": 4303,
      "læŋɡw": 4304,
      "minutes": 4305,
      "mɪnəts": 4306,
      "##mar": 4307,
      "##fall": 4308,
      "52": 4309,
      "bɔl": 4310,
      "pɔɹtɹ": 4311,
      "finished": 4312,
      "fɪnɪʃt": 4313,
      "adm": 4314,
      "##kn": 4315,
      "##ejtɹz": 4316,
      "##ɑnə": 4317,
      "dɪspl": 4318,
      "fɪk": 4319,
      "##ɛktɪvli": 4320,
      "46": 4321,
      "##ækʃən": 4322,
      "hop": 4323,
      "research": 4324,
      "##pression": 4325,
      "səsajəti": 4326,
      "society": 4327,
      "##mə": 4328,
      "##off": 4329,
      "paw": 4330,
      "səksɛsfəl": 4331,
      "##iers": 4332,
      "kɹuz": 4333,
      "news": 4334,
      "##vəluʃən": 4335,
      "length": 4336,
      "dw": 4337,
      "conte": 4338,
      "tɑɹ": 4339,
      "lɪtɹ": 4340,
      "læk": 4341,
      "sejɪŋ": 4342,
      "saying": 4343,
      "contrib": 4344,
      "##asion": 4345,
      "tɹu": 4346,
      "##for": 4347,
      "ɛdʒəkejʃən": 4348,
      "##pted": 4349,
      "ɪmidi": 4350,
      "immedi": 4351,
      "sequ": 4352,
      "##fɔl": 4353,
      "possible": 4354,
      "pɑsəbəl": 4355,
      "ɹɛɡjəlɹ": 4356,
      "emb": 4357,
      "1944": 4358,
      "phys": 4359,
      "##pɹejʃən": 4360,
      "mejl": 4361,
      "fɹæŋk": 4362,
      "43": 4363,
      "space": 4364,
      "lɪɹ": 4365,
      "səɡnɪfɪkənt": 4366,
      "bɹi": 4367,
      "##ago": 4368,
      "fjutʃɹ": 4369,
      "fɔɹst": 4370,
      "ɪnfənt": 4371,
      "dɪpɹ": 4372,
      "natur": 4373,
      "change": 4374,
      "##stɹit": 4375,
      "64": 4376,
      "dro": 4377,
      "##pəl": 4378,
      "kəmɹ": 4379,
      "əsowsiejʃən": 4380,
      "cred": 4381,
      "trib": 4382,
      "θiə": 4383,
      "association": 4384,
      "##ɪkjəlɹli": 4385,
      "44": 4386,
      "cycl": 4387,
      "boy": 4388,
      "largest": 4389,
      "lɑɹdʒəst": 4390,
      "hajəst": 4391,
      "highest": 4392,
      "fa": 4393,
      "pɑɹtɪkjəlɹli": 4394,
      "particularly": 4395,
      "ny": 4396,
      "ɹæp": 4397,
      "##əmən": 4398,
      "bɪɡɪnɪŋ": 4399,
      "beginning": 4400,
      "mult": 4401,
      "vojs": 4402,
      "fly": 4403,
      "bad": 4404,
      "films": 4405,
      "commerc": 4406,
      "exist": 4407,
      "fɪlmz": 4408,
      "awtsajd": 4409,
      "conduct": 4410,
      "break": 4411,
      "scott": 4412,
      "##ɔɹtɹz": 4413,
      "ɪnsp": 4414,
      "ɪntɹs": 4415,
      "##ecutive": 4416,
      "available": 4417,
      "əvejləbəl": 4418,
      "ətʃ": 4419,
      "sɑ": 4420,
      "##ishing": 4421,
      "plat": 4422,
      "##ɡə": 4423,
      "mʌlt": 4424,
      "##ɹiəl": 4425,
      "##vɹz": 4426,
      "pɹsɛnt": 4427,
      "piec": 4428,
      "percent": 4429,
      "##icle": 4430,
      "##laj": 4431,
      "respons": 4432,
      "forced": 4433,
      "bɛtɹ": 4434,
      "virgin": 4435,
      "##ɪkə": 4436,
      "kæptən": 4437,
      "anti": 4438,
      "assist": 4439,
      "section": 4440,
      "ɑb": 4441,
      "ben": 4442,
      "dɪsɪʒən": 4443,
      "1990": 4444,
      "stʌdi": 4445,
      "sajn": 4446,
      "tejl": 4447,
      "vɹdʒɪn": 4448,
      "grant": 4449,
      "dæn": 4450,
      "sɑl": 4451,
      "deal": 4452,
      "flor": 4453,
      "##form": 4454,
      "tʃɑɹlz": 4455,
      "achie": 4456,
      "ətʃiv": 4457,
      "weak": 4458,
      "roman": 4459,
      "atl": 4460,
      "nin": 4461,
      "better": 4462,
      "contract": 4463,
      "outside": 4464,
      "##ership": 4465,
      "pejnt": 4466,
      "##anned": 4467,
      "taking": 4468,
      "tejkɪŋ": 4469,
      "nɑvəl": 4470,
      "lear": 4471,
      "##umb": 4472,
      "##reg": 4473,
      "tɹnd": 4474,
      "disp": 4475,
      "meas": 4476,
      "150": 4477,
      "##der": 4478,
      "kɛn": 4479,
      "ɹɪlɪdʒ": 4480,
      "##asy": 4481,
      "dɑɹk": 4482,
      "committe": 4483,
      "span": 4484,
      "ɪs": 4485,
      "1945": 4486,
      "##port": 4487,
      "sikw": 4488,
      "##istic": 4489,
      "1941": 4490,
      "maint": 4491,
      "ejd": 4492,
      "ɹɛlətɪv": 4493,
      "thomas": 4494,
      "concern": 4495,
      "charles": 4496,
      "sɛkʃən": 4497,
      "turned": 4498,
      "ɪnkɹist": 4499,
      "increased": 4500,
      "##əndʒ": 4501,
      "ended": 4502,
      "##ification": 4503,
      "ɛndəd": 4504,
      "##ush": 4505,
      "##ateg": 4506,
      "##sel": 4507,
      "ɪntɛns": 4508,
      "tajp": 4509,
      "##ætən": 4510,
      "kæləf": 4511,
      "units": 4512,
      "junəts": 4513,
      "lowɹ": 4514,
      "lower": 4515,
      "reason": 4516,
      "##of": 4517,
      "kɹɛd": 4518,
      "clear": 4519,
      "##iding": 4520,
      "##ula": 4521,
      "klɪɹ": 4522,
      "##bor": 4523,
      "##ɔɹz": 4524,
      "dɪsəp": 4525,
      "administ": 4526,
      "feel": 4527,
      "pɹɛʃ": 4528,
      "community": 4529,
      "kəmjunəti": 4530,
      "calif": 4531,
      "##ases": 4532,
      "##ɡəlz": 4533,
      "tɑməs": 4534,
      "##ətɪŋ": 4535,
      "passed": 4536,
      "kæsəl": 4537,
      "praised": 4538,
      "pɹejzd": 4539,
      "ɹivjuz": 4540,
      "reviews": 4541,
      "californ": 4542,
      "pitɹ": 4543,
      "##ejdz": 4544,
      "respect": 4545,
      "transport": 4546,
      "kɑp": 4547,
      "##ography": 4548,
      "##ʒəwəli": 4549,
      "ʃɹ": 4550,
      "ult": 4551,
      "going": 4552,
      "ɡowɪŋ": 4553,
      "above": 4554,
      "əbʌv": 4555,
      "beat": 4556,
      "2nd": 4557,
      "nɪk": 4558,
      "appearance": 4559,
      "əpɪɹəns": 4560,
      "##əsli": 4561,
      "##ɪləti": 4562,
      "future": 4563,
      "##ems": 4564,
      "sɪvəl": 4565,
      "##jəp": 4566,
      "##gen": 4567,
      "thus": 4568,
      "ðʌs": 4569,
      "##ɪŋkt": 4570,
      "ədɪʃənəl": 4571,
      "additional": 4572,
      "phot": 4573,
      "bird": 4574,
      "##əfəkejʃən": 4575,
      "kowtʃ": 4576,
      "##itor": 4577,
      "fɪz": 4578,
      "##ɛli": 4579,
      "guitar": 4580,
      "iz": 4581,
      "##ətɹz": 4582,
      "##aded": 4583,
      "ɪnʌf": 4584,
      "enough": 4585,
      "bɑt": 4586,
      "##ude": 4587,
      "castle": 4588,
      "wɪndz": 4589,
      "infantry": 4590,
      "liter": 4591,
      "##gress": 4592,
      "lake": 4593,
      "ɔɹdɹd": 4594,
      "ordered": 4595,
      "hous": 4596,
      "lut": 4597,
      "smɪθ": 4598,
      "smith": 4599,
      "ænti": 4600,
      "51": 4601,
      "contr": 4602,
      "previously": 4603,
      "pɹiviəsli": 4604,
      "bɹʌðɹ": 4605,
      "kænədə": 4606,
      "canada": 4607,
      "ənl": 4608,
      "1989": 4609,
      "1943": 4610,
      "##esh": 4611,
      "##zən": 4612,
      "##æksən": 4613,
      "##ocr": 4614,
      "acade": 4615,
      "##fɹmejʃən": 4616,
      "##tt": 4617,
      "ɛksp": 4618,
      "##iənz": 4619,
      "sajnd": 4620,
      "##king": 4621,
      "##ɪɹiɹ": 4622,
      "##ilities": 4623,
      "signed": 4624,
      "əkawnt": 4625,
      "account": 4626,
      "##vɪl": 4627,
      "##bɔɹd": 4628,
      "##oll": 4629,
      "musical": 4630,
      "vajəl": 4631,
      "minor": 4632,
      "fud": 4633,
      "##val": 4634,
      "##ətʃ": 4635,
      "territ": 4636,
      "pan": 4637,
      "hju": 4638,
      "##wards": 4639,
      "pɹajv": 4640,
      "##æstɹ": 4641,
      "pæn": 4642,
      "ɹɪtʃɹd": 4643,
      "ɪnfəntɹi": 4644,
      "market": 4645,
      "##ix": 4646,
      "gi": 4647,
      "threat": 4648,
      "θɹɛt": 4649,
      "##ɛɹəli": 4650,
      "fer": 4651,
      "rap": 4652,
      "pʊɹ": 4653,
      "rights": 4654,
      "##zb": 4655,
      "ɪndiən": 4656,
      "tex": 4657,
      "ɛləmənts": 4658,
      "elements": 4659,
      "alex": 4660,
      "##ɔɹnjə": 4661,
      "##arily": 4662,
      "kæləfɔɹnjə": 4663,
      "instit": 4664,
      "theat": 4665,
      "shar": 4666,
      "sɹfəs": 4667,
      "dig": 4668,
      "california": 4669,
      "doc": 4670,
      "positive": 4671,
      "bul": 4672,
      "sajz": 4673,
      "emer": 4674,
      "tom": 4675,
      "##agon": 4676,
      "lɔɹd": 4677,
      "ɡɹædʒ": 4678,
      "sinjɹ": 4679,
      "corn": 4680,
      "viol": 4681,
      "##orary": 4682,
      "our": 4683,
      "nec": 4684,
      "tɹæn": 4685,
      "wild": 4686,
      "##pɑns": 4687,
      "prob": 4688,
      "plæt": 4689,
      "dead": 4690,
      "pɑɹts": 4691,
      "parts": 4692,
      "##de": 4693,
      "food": 4694,
      "##ference": 4695,
      "abs": 4696,
      "stri": 4697,
      "##æz": 4698,
      "##aughter": 4699,
      "lord": 4700,
      "##nes": 4701,
      "give": 4702,
      "##icket": 4703,
      "keep": 4704,
      "lines": 4705,
      "lɛŋkθ": 4706,
      "ɪʃu": 4707,
      "ɹɪspɑns": 4708,
      "dajn": 4709,
      "money": 4710,
      "spik": 4711,
      "travel": 4712,
      "profession": 4713,
      "female": 4714,
      "##ʌmb": 4715,
      "fimejl": 4716,
      "##sɛl": 4717,
      "reveal": 4718,
      "ɹejt": 4719,
      "spent": 4720,
      "spɛnt": 4721,
      "##klud": 4722,
      "poor": 4723,
      "##uch": 4724,
      "lajnz": 4725,
      "ali": 4726,
      "overall": 4727,
      "obser": 4728,
      "owvɹɔl": 4729,
      "towld": 4730,
      "told": 4731,
      "##elled": 4732,
      "beg": 4733,
      "broadcast": 4734,
      "bɹɔdkæst": 4735,
      "##ections": 4736,
      "##com": 4737,
      "##wɹdz": 4738,
      "1940": 4739,
      "kʌ": 4740,
      "##nal": 4741,
      "personal": 4742,
      "type": 4743,
      "##ask": 4744,
      "pac": 4745,
      "##ɡejdʒ": 4746,
      "ɡɹej": 4747,
      "flʌd": 4748,
      "committee": 4749,
      "##ɛʃənəl": 4750,
      "attempt": 4751,
      "dɹɛktəd": 4752,
      "directed": 4753,
      "##ening": 4754,
      "scient": 4755,
      "flood": 4756,
      "##ɹs": 4757,
      "stejd": 4758,
      "kəmɪti": 4759,
      "mjuzɪkəl": 4760,
      "jack": 4761,
      "##ʊɹi": 4762,
      "##uation": 4763,
      "victor": 4764,
      "fejld": 4765,
      "failed": 4766,
      "kju": 4767,
      "væn": 4768,
      "interview": 4769,
      "##ɪŋɡ": 4770,
      "mʌni": 4771,
      "kɑɹd": 4772,
      "deep": 4773,
      "bɹɪtən": 4774,
      "blue": 4775,
      "ɹispɑns": 4776,
      "kəmɪʃən": 4777,
      "domin": 4778,
      "##ɪʃɪŋ": 4779,
      "required": 4780,
      "ɹikwajɹd": 4781,
      "pɹajɹ": 4782,
      "ɡɹups": 4783,
      "##əbɪləti": 4784,
      "tax": 4785,
      "groups": 4786,
      "hɔɹ": 4787,
      "##ɛktɪŋ": 4788,
      "##reng": 4789,
      "mach": 4790,
      "wal": 4791,
      "germany": 4792,
      "dʒɹməni": 4793,
      "##usion": 4794,
      "##oke": 4795,
      "ɡʌvɹnɹ": 4796,
      "happ": 4797,
      "prevent": 4798,
      "fore": 4799,
      "md": 4800,
      "##lɪn": 4801,
      "600": 4802,
      "dɪstɹɪkt": 4803,
      "district": 4804,
      "skɹin": 4805,
      "##reed": 4806,
      "##ɑɡɹəfi": 4807,
      "##sajd": 4808,
      "mɪkst": 4809,
      "term": 4810,
      "##tajmz": 4811,
      "itself": 4812,
      "ɪtsɛlf": 4813,
      "health": 4814,
      "hunt": 4815,
      "hɛlθ": 4816,
      "fæk": 4817,
      "anal": 4818,
      "ʃɛɹ": 4819,
      "constit": 4820,
      "##ida": 4821,
      "ɛvədəns": 4822,
      "lætɹ": 4823,
      "bɛɹ": 4824,
      "peter": 4825,
      "debut": 4826,
      "evidence": 4827,
      "christian": 4828,
      "ɪndiə": 4829,
      "india": 4830,
      "sometimes": 4831,
      "səmtajmz": 4832,
      "luz": 4833,
      "##fli": 4834,
      "##ʃənd": 4835,
      "battalion": 4836,
      "bətæljən": 4837,
      "frank": 4838,
      "fænt": 4839,
      "ədvæns": 4840,
      "##ɪbjut": 4841,
      "amb": 4842,
      "env": 4843,
      "##ajɹən": 4844,
      "huz": 4845,
      "ɛnɡejdʒ": 4846,
      "prison": 4847,
      "kɑŋɡɹ": 4848,
      "pɹɪzən": 4849,
      "##stænd": 4850,
      "ɪlɛkʃən": 4851,
      "election": 4852,
      "investig": 4853,
      "asked": 4854,
      "æskt": 4855,
      "bank": 4856,
      "##ume": 4857,
      "occup": 4858,
      "transfer": 4859,
      "ɑkjəp": 4860,
      "##ibility": 4861,
      "pajl": 4862,
      "##ksək": 4863,
      "dɪn": 4864,
      "pɹɪvɛnt": 4865,
      "##ready": 4866,
      "except": 4867,
      "##stand": 4868,
      "##ʃəli": 4869,
      "fejm": 4870,
      "doct": 4871,
      "stɑp": 4872,
      "##ɛktɪd": 4873,
      "##ius": 4874,
      "53": 4875,
      "##ises": 4876,
      "##ownə": 4877,
      "hej": 4878,
      "majt": 4879,
      "streng": 4880,
      "ɪɡzɪst": 4881,
      "lɪvɪŋ": 4882,
      "##edy": 4883,
      "##ability": 4884,
      "mətɪɹiəl": 4885,
      "living": 4886,
      "##isl": 4887,
      "critical": 4888,
      "əpɹɑks": 4889,
      "approx": 4890,
      "skwɛɹ": 4891,
      "##ɹɛdi": 4892,
      "whose": 4893,
      "mex": 4894,
      "1987": 4895,
      "ps": 4896,
      "##lən": 4897,
      "commercial": 4898,
      "tʃæl": 4899,
      "hɑt": 4900,
      "sɛɹ": 4901,
      "flu": 4902,
      "##aker": 4903,
      "jukej": 4904,
      "ɹæŋ": 4905,
      "kɹɪtɪkəl": 4906,
      "forest": 4907,
      "dɪtɹ": 4908,
      "1988": 4909,
      "kɑntɹækt": 4910,
      "##juʃən": 4911,
      "ɪsp": 4912,
      "##ream": 4913,
      "study": 4914,
      "85": 4915,
      "already": 4916,
      "ɔlɹɛdi": 4917,
      "natural": 4918,
      "##ores": 4919,
      "complete": 4920,
      "klejmd": 4921,
      "claimed": 4922,
      "governor": 4923,
      "flajt": 4924,
      "dɪɡ": 4925,
      "tɹɪp": 4926,
      "score": 4927,
      "step": 4928,
      "norm": 4929,
      "nætʃɹəl": 4930,
      "chic": 4931,
      "tʃowz": 4932,
      "muse": 4933,
      "lay": 4934,
      "premi": 4935,
      "access": 4936,
      "##bju": 4937,
      "##round": 4938,
      "bey": 4939,
      "square": 4940,
      "enem": 4941,
      "##van": 4942,
      "sovi": 4943,
      "franc": 4944,
      "##airs": 4945,
      "fɹikw": 4946,
      "##æps": 4947,
      "##ɑɡow": 4948,
      "introduced": 4949,
      "ɪntɹədust": 4950,
      "frequ": 4951,
      "##fs": 4952,
      "bʌ": 4953,
      "whom": 4954,
      "sowvi": 4955,
      "pɹsənəl": 4956,
      "##onna": 4957,
      "##uce": 4958,
      "##jul": 4959,
      "juʒəwəli": 4960,
      "usually": 4961,
      "think": 4962,
      "narr": 4963,
      "##ɪkət": 4964,
      "##ga": 4965,
      "##ex": 4966,
      "##vɪŋ": 4967,
      "woman": 4968,
      "tɹænsp": 4969,
      "flight": 4970,
      "tæks": 4971,
      "wʊmən": 4972,
      "students": 4973,
      "studənts": 4974,
      "##ɔɡ": 4975,
      "mɪʃ": 4976,
      "mt": 4977,
      "kwɪkli": 4978,
      "quickly": 4979,
      "ajdiə": 4980,
      "minister": 4981,
      "idea": 4982,
      "plant": 4983,
      "luɪs": 4984,
      "pɑɹl": 4985,
      "limited": 4986,
      "lɪmətəd": 4987,
      "##æbɹ": 4988,
      "klajm": 4989,
      "ɑdi": 4990,
      "mən": 4991,
      "##ədʒən": 4992,
      "face": 4993,
      "sɪkjʊɹ": 4994,
      "##ɹejʃən": 4995,
      "θɪŋk": 4996,
      "gal": 4997,
      "##berg": 4998,
      "##awz": 4999,
      "trade": 5000,
      "##bæk": 5001,
      "education": 5002,
      "mic": 5003,
      "might": 5004,
      "ʌpɹ": 5005,
      "guard": 5006,
      "54": 5007,
      "##semb": 5008,
      "ɪfɛkts": 5009,
      "effects": 5010,
      "stɑɹz": 5011,
      "##ɛʃli": 5012,
      "##əsl": 5013,
      "muvmənt": 5014,
      "movement": 5015,
      "mɛksək": 5016,
      "##ʃu": 5017,
      "##hej": 5018,
      "ɹowmən": 5019,
      "ɔθɹ": 5020,
      "stars": 5021,
      "sɪtʃu": 5022,
      "##atory": 5023,
      "pɹɑb": 5024,
      "issue": 5025,
      "##lement": 5026,
      "react": 5027,
      "##onse": 5028,
      "certain": 5029,
      "##aught": 5030,
      "##ətut": 5031,
      "θiətɹ": 5032,
      "lat": 5033,
      "##bour": 5034,
      "lows": 5035,
      "sænd": 5036,
      "queen": 5037,
      "fɪf": 5038,
      "din": 5039,
      "sʌbdʒ": 5040,
      "fʌŋk": 5041,
      "commander": 5042,
      "##ajts": 5043,
      "95": 5044,
      "dɪstɹoj": 5045,
      "97": 5046,
      "your": 5047,
      "dejbju": 5048,
      "centre": 5049,
      "mɪnəstɹ": 5050,
      "##ɑnz": 5051,
      "department": 5052,
      "espec": 5053,
      "fɪfθ": 5054,
      "##itz": 5055,
      "arrived": 5056,
      "fifth": 5057,
      "56": 5058,
      "ɹajvd": 5059,
      "surface": 5060,
      "construct": 5061,
      "ɪkspɪɹiəns": 5062,
      "kəmændɹ": 5063,
      "hosp": 5064,
      "##juəl": 5065,
      "kwin": 5066,
      "1986": 5067,
      "##æpt": 5068,
      "hɑsp": 5069,
      "richard": 5070,
      "ɪspɛʃli": 5071,
      "especially": 5072,
      "sand": 5073,
      "stɹʌktʃɹ": 5074,
      "ɪmɹdʒ": 5075,
      "pun": 5076,
      "decision": 5077,
      "##ergy": 5078,
      "##æɡən": 5079,
      "britain": 5080,
      "sɹvəsəz": 5081,
      "know": 5082,
      "mɛm": 5083,
      "services": 5084,
      "rac": 5085,
      "voice": 5086,
      "##mbəl": 5087,
      "ɹajtɹ": 5088,
      "dɪpɑɹtmənt": 5089,
      "ɑd": 5090,
      "tɹejn": 5091,
      "tʃɛɹ": 5092,
      "##aint": 5093,
      "ɡɑt": 5094,
      "##uf": 5095,
      "pɹɛʃɹ": 5096,
      "sɛlf": 5097,
      "æktʃ": 5098,
      "##ults": 5099,
      "##oor": 5100,
      "##ədli": 5101,
      "teams": 5102,
      "operations": 5103,
      "village": 5104,
      "##owv": 5105,
      "timz": 5106,
      "vɪlədʒ": 5107,
      "parliam": 5108,
      "ɑpɹejʃənz": 5109,
      "##ɛɹow": 5110,
      "self": 5111,
      "meth": 5112,
      "ʃowz": 5113,
      "##ays": 5114,
      "pɹtʃ": 5115,
      "shows": 5116,
      "ven": 5117,
      "response": 5118,
      "ɪndəstɹi": 5119,
      "##anded": 5120,
      "museum": 5121,
      "fɛst": 5122,
      "##ecting": 5123,
      "heart": 5124,
      "box": 5125,
      "industry": 5126,
      "##ha": 5127,
      "gard": 5128,
      "larger": 5129,
      "lɑɹdʒɹ": 5130,
      "##ɛlow": 5131,
      "kejp": 5132,
      "fest": 5133,
      "walk": 5134,
      "lɛɡ": 5135,
      "snow": 5136,
      "##dən": 5137,
      "ɪsk": 5138,
      "kəmɹʃəl": 5139,
      "177": 5140,
      "writer": 5141,
      "ʃɛl": 5142,
      "lyric": 5143,
      "bɪkʌmɪŋ": 5144,
      "becoming": 5145,
      "ʌlt": 5146,
      "remaining": 5147,
      "ɹɪmejnɪŋ": 5148,
      "estimated": 5149,
      "##wʌn": 5150,
      "ɛstəmejtəd": 5151,
      "got": 5152,
      "latter": 5153,
      "sajəns": 5154,
      "science": 5155,
      "sejl": 5156,
      "##ənɪŋ": 5157,
      "##ajdz": 5158,
      "defeated": 5159,
      "dɪfitəd": 5160,
      "pɹæktəs": 5161,
      "##ətɪʃən": 5162,
      "##əlɑdʒɪkəl": 5163,
      "kæɹid": 5164,
      "spəsɪfɪk": 5165,
      "carried": 5166,
      "heav": 5167,
      "##hi": 5168,
      "##ɹdʒi": 5169,
      "parliament": 5170,
      "bɑks": 5171,
      "ɡɹi": 5172,
      "məd": 5173,
      "æksɛs": 5174,
      "dɔɹ": 5175,
      "oj": 5176,
      "mɛθ": 5177,
      "##kən": 5178,
      "##əmætɪk": 5179,
      "tʌnz": 5180,
      "network": 5181,
      "##wh": 5182,
      "discuss": 5183,
      "ɑnt": 5184,
      "##aries": 5185,
      "blʌd": 5186,
      "mr": 5187,
      "ran": 5188,
      "lie": 5189,
      "pressure": 5190,
      "blood": 5191,
      "æmb": 5192,
      "##fəli": 5193,
      "bæŋk": 5194,
      "horse": 5195,
      "sɹawnd": 5196,
      "surround": 5197,
      "kæm": 5198,
      "nɛtwɹk": 5199,
      "##ully": 5200,
      "sinz": 5201,
      "##ns": 5202,
      "scenes": 5203,
      "kh": 5204,
      "consider": 5205,
      "brief": 5206,
      "wing": 5207,
      "structure": 5208,
      "flag": 5209,
      "##ɛnti": 5210,
      "##ʃt": 5211,
      "leaving": 5212,
      "livɪŋ": 5213,
      "##ʌlts": 5214,
      "76": 5215,
      "mədʒ": 5216,
      "ɪnfluəns": 5217,
      "running": 5218,
      "sɹtən": 5219,
      "episodes": 5220,
      "ɛpəsowdz": 5221,
      "ɹʌnɪŋ": 5222,
      "plot": 5223,
      "##wor": 5224,
      "cm": 5225,
      "##iron": 5226,
      "##bɹz": 5227,
      "##ulf": 5228,
      "jew": 5229,
      "plɑt": 5230,
      "nejvəl": 5231,
      "changes": 5232,
      "tʃejndʒəz": 5233,
      "ce": 5234,
      "##ties": 5235,
      "virginia": 5236,
      "vɹdʒɪnjə": 5237,
      "complet": 5238,
      "jacks": 5239,
      "cand": 5240,
      "##bɹn": 5241,
      "##ɪɡən": 5242,
      "spɪɹ": 5243,
      "susp": 5244,
      "equip": 5245,
      "acqu": 5246,
      "##ror": 5247,
      "naval": 5248,
      "suggested": 5249,
      "səɡdʒɛstəd": 5250,
      "ɹajvəl": 5251,
      "##vin": 5252,
      "178": 5253,
      "ɛntɹd": 5254,
      "entered": 5255,
      "dom": 5256,
      "nɪɹli": 5257,
      "nearly": 5258,
      "##orial": 5259,
      "depression": 5260,
      "dɪpɹɛʃən": 5261,
      "məʃ": 5262,
      "ɡɹl": 5263,
      "##ɛɹəktɹ": 5264,
      "tʃæp": 5265,
      "##side": 5266,
      "##liən": 5267,
      "appointed": 5268,
      "əpojntəd": 5269,
      "dɑkjəm": 5270,
      "kwɔɹtɹ": 5271,
      "##enth": 5272,
      "wɪnɪŋ": 5273,
      "winning": 5274,
      "tɹæks": 5275,
      "date": 5276,
      "pul": 5277,
      "mɛs": 5278,
      "əpɹɑksəmətli": 5279,
      "approximately": 5280,
      "cru": 5281,
      "fail": 5282,
      "1939": 5283,
      "fəs": 5284,
      "chall": 5285,
      "twent": 5286,
      "burn": 5287,
      "sæm": 5288,
      "wɪt": 5289,
      "wɪŋ": 5290,
      "adapt": 5291,
      "fɛdɹəl": 5292,
      "##omm": 5293,
      "size": 5294,
      "wajld": 5295,
      "##əpɹ": 5296,
      "##əbɪlɪti": 5297,
      "leader": 5298,
      "##ɪʃənd": 5299,
      "language": 5300,
      "læŋɡwədʒ": 5301,
      "capital": 5302,
      "fant": 5303,
      "ʃɔɹtli": 5304,
      "61": 5305,
      "shortly": 5306,
      "##bət": 5307,
      "əkejʒən": 5308,
      "pɹajvət": 5309,
      "islands": 5310,
      "polic": 5311,
      "ajləndz": 5312,
      "establish": 5313,
      "federal": 5314,
      "wide": 5315,
      "##ken": 5316,
      "favor": 5317,
      "upper": 5318,
      "ɛmpajɹ": 5319,
      "##ɔɹiəl": 5320,
      "course": 5321,
      "##pe": 5322,
      "fajnəli": 5323,
      "ændʒəl": 5324,
      "today": 5325,
      "tədej": 5326,
      "finally": 5327,
      "empire": 5328,
      "shoot": 5329,
      "##lymp": 5330,
      "regiment": 5331,
      "jackson": 5332,
      "tracks": 5333,
      "ædm": 5334,
      "##əsən": 5335,
      "und": 5336,
      "screen": 5337,
      "##igan": 5338,
      "wit": 5339,
      "dʒæksən": 5340,
      "##ending": 5341,
      "ɛkən": 5342,
      "##ander": 5343,
      "66": 5344,
      "cann": 5345,
      "##change": 5346,
      "nuk": 5347,
      "##ky": 5348,
      "bɹid": 5349,
      "dʒɪm": 5350,
      "spɹ": 5351,
      "əmawnt": 5352,
      "amount": 5353,
      "dɪstɹojd": 5354,
      "influence": 5355,
      "destroyed": 5356,
      "dɪdʒ": 5357,
      "ɪnh": 5358,
      "proposed": 5359,
      "pɹəpowzd": 5360,
      "daughter": 5361,
      "dɔtɹ": 5362,
      "##anced": 5363,
      "lɪŋk": 5364,
      "1968": 5365,
      "kɹɪtɪs": 5366,
      "purch": 5367,
      "##ulated": 5368,
      "##ɑlɹ": 5369,
      "quarter": 5370,
      "mission": 5371,
      "mɪʃən": 5372,
      "girl": 5373,
      "matt": 5374,
      "olymp": 5375,
      "higher": 5376,
      "owlɪmp": 5377,
      "1985": 5378,
      "##əɡejd": 5379,
      "##ɪstəns": 5380,
      "manager": 5381,
      "pɹədusɹ": 5382,
      "producer": 5383,
      "spænɪʃ": 5384,
      "spanish": 5385,
      "bɹθ": 5386,
      "louis": 5387,
      "##ændɹ": 5388,
      "van": 5389,
      "kɹənt": 5390,
      "ʃɑɹ": 5391,
      "tɛkst": 5392,
      "experience": 5393,
      "lad": 5394,
      "##jəlejʃən": 5395,
      "##burg": 5396,
      "tal": 5397,
      "environ": 5398,
      "##uction": 5399,
      "1970": 5400,
      "subsequently": 5401,
      "sʌbsəkwəntli": 5402,
      "##iser": 5403,
      "provide": 5404,
      "##əfaj": 5405,
      "corps": 5406,
      "##vie": 5407,
      "##bn": 5408,
      "battles": 5409,
      "nature": 5410,
      "sæl": 5411,
      "##asc": 5412,
      "railway": 5413,
      "sut": 5414,
      "canc": 5415,
      "##ano": 5416,
      "##selves": 5417,
      "##sɛlvz": 5418,
      "##bow": 5419,
      "##mitted": 5420,
      "ɹejlwej": 5421,
      "lin": 5422,
      "ɹɛfɹəns": 5423,
      "##idents": 5424,
      "spir": 5425,
      "compared": 5426,
      "kəmpɛɹd": 5427,
      "diss": 5428,
      "breed": 5429,
      "##tr": 5430,
      "##inct": 5431,
      "pɹəfɛʃənəl": 5432,
      "brigade": 5433,
      "mɛɹid": 5434,
      "professional": 5435,
      "ɔltɹn": 5436,
      "complex": 5437,
      "altern": 5438,
      "##ɛsɪv": 5439,
      "intended": 5440,
      "##ging": 5441,
      "ɪntɛndəd": 5442,
      "##ɛndz": 5443,
      "ɪmidiətli": 5444,
      "immediately": 5445,
      "800": 5446,
      "##abor": 5447,
      "##ension": 5448,
      "dʒʌdʒ": 5449,
      "married": 5450,
      "##gar": 5451,
      "##ɑki": 5452,
      "bɹəɡejd": 5453,
      "nejtʃɹ": 5454,
      "democr": 5455,
      "cit": 5456,
      "iron": 5457,
      "private": 5458,
      "##inese": 5459,
      "##back": 5460,
      "ɹæn": 5461,
      "saf": 5462,
      "fans": 5463,
      "soviet": 5464,
      "cele": 5465,
      "supported": 5466,
      "səpɔɹtəd": 5467,
      "sajənt": 5468,
      "fænz": 5469,
      "sowviət": 5470,
      "dɑktɹ": 5471,
      "pict": 5472,
      "majnɹ": 5473,
      "sɹvaj": 5474,
      "kæns": 5475,
      "1984": 5476,
      "done": 5477,
      "agreed": 5478,
      "əɡɹid": 5479,
      "lis": 5480,
      "mæk": 5481,
      "stay": 5482,
      "57": 5483,
      "##ətud": 5484,
      "ɪnvajɹən": 5485,
      "dʒɹnəl": 5486,
      "journal": 5487,
      "stil": 5488,
      "ʃək": 5489,
      "intens": 5490,
      "##atives": 5491,
      "compan": 5492,
      "books": 5493,
      "##atively": 5494,
      "##alled": 5495,
      "entertain": 5496,
      "ɛntɹtejn": 5497,
      "##ique": 5498,
      "##ching": 5499,
      "##oms": 5500,
      "120": 5501,
      "fitʃɹ": 5502,
      "feature": 5503,
      "model": 5504,
      "##aging": 5505,
      "bord": 5506,
      "##ication": 5507,
      "edward": 5508,
      "increasing": 5509,
      "ɪnkɹisɪŋ": 5510,
      "##əməm": 5511,
      "əwɔɹdəd": 5512,
      "awarded": 5513,
      "ɑl": 5514,
      "weap": 5515,
      "mjuziəm": 5516,
      "display": 5517,
      "fɔɹwɹd": 5518,
      "impact": 5519,
      "tʌtʃ": 5520,
      "chicago": 5521,
      "initial": 5522,
      "ɛdwɹd": 5523,
      "chinese": 5524,
      "tʃajniz": 5525,
      "whether": 5526,
      "##agement": 5527,
      "hɛlpt": 5528,
      "helped": 5529,
      "##ria": 5530,
      "related": 5531,
      "##inow": 5532,
      "ʃəkɑɡow": 5533,
      "##imum": 5534,
      "jut": 5535,
      "plænd": 5536,
      "planned": 5537,
      "legisl": 5538,
      "mænədʒɹ": 5539,
      "##itɪd": 5540,
      "æləɡ": 5541,
      "imm": 5542,
      "card": 5543,
      "62": 5544,
      "bɹɪŋ": 5545,
      "ɔfəsɹ": 5546,
      "officer": 5547,
      "kɹiejt": 5548,
      "ɪmpɹuv": 5549,
      "ɹɪlejtɪd": 5550,
      "ɪmpækt": 5551,
      "##cy": 5552,
      "##oved": 5553,
      "soldiers": 5554,
      "sowldʒɹz": 5555,
      "bat": 5556,
      "##icles": 5557,
      "1967": 5558,
      "bʊks": 5559,
      "##əɡɹæf": 5560,
      "kɑnfɹəns": 5561,
      "bæd": 5562,
      "create": 5563,
      "bring": 5564,
      "mɹd": 5565,
      "##ɪtɹ": 5566,
      "##ands": 5567,
      "longer": 5568,
      "fair": 5569,
      "lɔŋɡɹ": 5570,
      "ɹɪpl": 5571,
      "unit": 5572,
      "here": 5573,
      "pæk": 5574,
      "fɑɹm": 5575,
      "fəsɪl": 5576,
      "penn": 5577,
      "bɛɹi": 5578,
      "bɪlbɔɹd": 5579,
      "##bɛɹi": 5580,
      "instr": 5581,
      "1980": 5582,
      "##aring": 5583,
      "rej": 5584,
      "##ari": 5585,
      "color": 5586,
      "##dawn": 5587,
      "jɛt": 5588,
      "cause": 5589,
      "kʌlɹ": 5590,
      "kæptʃɹd": 5591,
      "captured": 5592,
      "##ʃənt": 5593,
      "valley": 5594,
      "mom": 5595,
      "əɡɹi": 5596,
      "yet": 5597,
      "bæŋ": 5598,
      "bɪldɪŋz": 5599,
      "buildings": 5600,
      "fɛstəv": 5601,
      "dɪlɪ": 5602,
      "plans": 5603,
      "plænz": 5604,
      "mɛtɹ": 5605,
      "##nel": 5606,
      "forward": 5607,
      "##ɛnʃəl": 5608,
      "block": 5609,
      "temper": 5610,
      "mɑnt": 5611,
      "##thing": 5612,
      "##ejdiən": 5613,
      "ɛmploj": 5614,
      "spɹɪŋ": 5615,
      "##hem": 5616,
      "wɪntɹ": 5617,
      "##ipp": 5618,
      "tʃejndʒd": 5619,
      "changed": 5620,
      "ple": 5621,
      "##ny": 5622,
      "inters": 5623,
      "dʒɑnsən": 5624,
      "##ɹɹ": 5625,
      "##stown": 5626,
      "kənklud": 5627,
      "conclud": 5628,
      "##icted": 5629,
      "withd": 5630,
      "coach": 5631,
      "kɹɪstʃən": 5632,
      "associated": 5633,
      "əsowsiejtəd": 5634,
      "agree": 5635,
      "##sɹ": 5636,
      "friends": 5637,
      "sʌmθɪŋ": 5638,
      "fɹɛndz": 5639,
      "lajkli": 5640,
      "lɪbɹ": 5641,
      "##fɪɹ": 5642,
      "kore": 5643,
      "##ector": 5644,
      "ɹɛdʒəmənt": 5645,
      "subst": 5646,
      "something": 5647,
      "northwest": 5648,
      "58": 5649,
      "##owp": 5650,
      "officers": 5651,
      "ɔfəsɹz": 5652,
      "ɹɛm": 5653,
      "spring": 5654,
      "fejl": 5655,
      "##era": 5656,
      "lɔɹ": 5657,
      "əbzɹ": 5658,
      "əkw": 5659,
      "dejli": 5660,
      "dance": 5661,
      "tɛks": 5662,
      "ɹɪmejnz": 5663,
      "remains": 5664,
      "##down": 5665,
      "mostly": 5666,
      "mowstli": 5667,
      "ɪfɛkt": 5668,
      "tɑɹɡ": 5669,
      "winter": 5670,
      "##læntɪk": 5671,
      "pacific": 5672,
      "##ban": 5673,
      "##erial": 5674,
      "billboard": 5675,
      "74": 5676,
      "##ədənts": 5677,
      "##ʊɹd": 5678,
      "##lip": 5679,
      "rat": 5680,
      "archit": 5681,
      "kəmb": 5682,
      "themselves": 5683,
      "ðɛmsɛlvz": 5684,
      "johnson": 5685,
      "##oid": 5686,
      "sɪŋɡəlz": 5687,
      "standard": 5688,
      "singles": 5689,
      "stændɹd": 5690,
      "pəsɪfɪk": 5691,
      "##ʌndɹ": 5692,
      "##ena": 5693,
      "fell": 5694,
      "dɹæft": 5695,
      "lɛdʒəsl": 5696,
      "pɹt": 5697,
      "titʃ": 5698,
      "72": 5699,
      "countries": 5700,
      "kʌntɹiz": 5701,
      "ɪnɪʃəl": 5702,
      "##ləm": 5703,
      "sud": 5704,
      "mixed": 5705,
      "lɪɹɪks": 5706,
      "lyrics": 5707,
      "1983": 5708,
      "1969": 5709,
      "probably": 5710,
      "pɹɑbəbli": 5711,
      "exam": 5712,
      "wejlz": 5713,
      "hʌnt": 5714,
      "mɛtəl": 5715,
      "really": 5716,
      "dʒɑb": 5717,
      "pɪtʃ": 5718,
      "##riage": 5719,
      "##itting": 5720,
      "method": 5721,
      "1964": 5722,
      "##rd": 5723,
      "##ejvz": 5724,
      "sejlz": 5725,
      "##ole": 5726,
      "stej": 5727,
      "hero": 5728,
      "ɪkstɛndəd": 5729,
      "extended": 5730,
      "stim": 5731,
      "moving": 5732,
      "muvɪŋ": 5733,
      "vɹs": 5734,
      "progress": 5735,
      "ray": 5736,
      "numɹəs": 5737,
      "##uit": 5738,
      "numerous": 5739,
      "##jɹz": 5740,
      "financ": 5741,
      "dɪpl": 5742,
      "draw": 5743,
      "##ɪpʃən": 5744,
      "##oul": 5745,
      "ɹajv": 5746,
      "##erve": 5747,
      "##æts": 5748,
      "ɑɹkət": 5749,
      "1914": 5750,
      "##iəs": 5751,
      "ɪnfɹmejʃən": 5752,
      "##hʊd": 5753,
      "conserv": 5754,
      "##ɔɹm": 5755,
      "scot": 5756,
      "fowt": 5757,
      "##ʌɡ": 5758,
      "portray": 5759,
      "kɑpiz": 5760,
      "request": 5761,
      "copies": 5762,
      "always": 5763,
      "ɔlwejz": 5764,
      "mɑdəl": 5765,
      "ɹɪkwɛst": 5766,
      "mɔɹnɪŋ": 5767,
      "attract": 5768,
      "information": 5769,
      "deliver": 5770,
      "1918": 5771,
      "lowkejʃən": 5772,
      "script": 5773,
      "nation": 5774,
      "visit": 5775,
      "location": 5776,
      "fowkəs": 5777,
      "rid": 5778,
      "goals": 5779,
      "##lown": 5780,
      "lb": 5781,
      "oce": 5782,
      "ʃut": 5783,
      "dun": 5784,
      "##hood": 5785,
      "birth": 5786,
      "admir": 5787,
      "individual": 5788,
      "59": 5789,
      "dɹɔ": 5790,
      "kæpətəl": 5791,
      "1982": 5792,
      "1971": 5793,
      "##bis": 5794,
      "##ado": 5795,
      "##əmɛntəl": 5796,
      "jim": 5797,
      "distrib": 5798,
      "1966": 5799,
      "##ɪkəli": 5800,
      "tɹi": 5801,
      "howst": 5802,
      "focus": 5803,
      "1972": 5804,
      "ɛnɹdʒi": 5805,
      "ɪʃud": 5806,
      "issued": 5807,
      "ɹɛɹ": 5808,
      "##isions": 5809,
      "dɪfəkəlt": 5810,
      "pɹajmɛɹi": 5811,
      "##θi": 5812,
      "congress": 5813,
      "kɑŋɡɹəs": 5814,
      "mess": 5815,
      "1979": 5816,
      "bækɡɹawnd": 5817,
      "background": 5818,
      "stætəs": 5819,
      "leave": 5820,
      "energy": 5821,
      "status": 5822,
      "atlantic": 5823,
      "mɛnt": 5824,
      "includes": 5825,
      "ɪnkludz": 5826,
      "ɡɑɹ": 5827,
      "##ees": 5828,
      "junət": 5829,
      "ətlæntɪk": 5830,
      "##andon": 5831,
      "sʌfɹd": 5832,
      "suffered": 5833,
      "artist": 5834,
      "##vənu": 5835,
      "conference": 5836,
      "##olic": 5837,
      "##umd": 5838,
      "via": 5839,
      "kar": 5840,
      "singer": 5841,
      "sɪŋɹ": 5842,
      "kəntɛmp": 5843,
      "##əlajn": 5844,
      "vajə": 5845,
      "hospital": 5846,
      "traff": 5847,
      "pɹip": 5848,
      "##use": 5849,
      "male": 5850,
      "##fɹɪŋ": 5851,
      "99": 5852,
      "##ste": 5853,
      "1965": 5854,
      "##lowd": 5855,
      "klejm": 5856,
      "termin": 5857,
      "problems": 5858,
      "pɹɑbləmz": 5859,
      "kənsɪdɹ": 5860,
      "mɪɹ": 5861,
      "mik": 5862,
      "sar": 5863,
      "##əndz": 5864,
      "bɑnd": 5865,
      "flɔɹədə": 5866,
      "florida": 5867,
      "bene": 5868,
      "ælbəmz": 5869,
      "albums": 5870,
      "mitɪŋ": 5871,
      "meeting": 5872,
      "sejnt": 5873,
      "ɑt": 5874,
      "join": 5875,
      "likely": 5876,
      "dʒunjɹ": 5877,
      "kɹow": 5878,
      "1975": 5879,
      "edition": 5880,
      "##mɪtəd": 5881,
      "tɛɹɪt": 5882,
      "sir": 5883,
      "dəm": 5884,
      "double": 5885,
      "##uʒən": 5886,
      "increase": 5887,
      "sales": 5888,
      "carry": 5889,
      "china": 5890,
      "prec": 5891,
      "removed": 5892,
      "ɹimuvd": 5893,
      "assemb": 5894,
      "muvi": 5895,
      "əsɛmb": 5896,
      "approach": 5897,
      "tʃajnə": 5898,
      "ɹajz": 5899,
      "independent": 5900,
      "morn": 5901,
      "##ift": 5902,
      "ont": 5903,
      "celebr": 5904,
      "kənsɹn": 5905,
      "ɪndɪpɛndənt": 5906,
      "fɹid": 5907,
      "bond": 5908,
      "##bury": 5909,
      "movie": 5910,
      "##kə": 5911,
      "63": 5912,
      "dog": 5913,
      "nejtɪv": 5914,
      "##ze": 5915,
      "vih": 5916,
      "texas": 5917,
      "tɛksəs": 5918,
      "inspired": 5919,
      "wɹd": 5920,
      "ɪnspajɹd": 5921,
      "##vey": 5922,
      "##ously": 5923,
      "##venue": 5924,
      "1974": 5925,
      "ɹejzd": 5926,
      "fɔɹən": 5927,
      "kɹik": 5928,
      "##ɪkən": 5929,
      "ajɹn": 5930,
      "ɹɪtʃ": 5931,
      "##ites": 5932,
      "ɪɡzɛkjətɪv": 5933,
      "foreign": 5934,
      "##ɑni": 5935,
      "dɛn": 5936,
      "##ətʃɹ": 5937,
      "væli": 5938,
      "ma": 5939,
      "koj": 5940,
      "lɛn": 5941,
      "tɹmz": 5942,
      "ɹɛvəluʃən": 5943,
      "revolution": 5944,
      "terms": 5945,
      "primary": 5946,
      "rang": 5947,
      "nɔɹθist": 5948,
      "##etic": 5949,
      "creek": 5950,
      "majority": 5951,
      "mədʒɔɹəti": 5952,
      "73": 5953,
      "tʃæn": 5954,
      "##ental": 5955,
      "1973": 5956,
      "tʃæns": 5957,
      "hɑspɪtəl": 5958,
      "77": 5959,
      "θɪɹi": 5960,
      "minute": 5961,
      "ənn": 5962,
      "ice": 5963,
      "offered": 5964,
      "ɔfɹd": 5965,
      "kɑmbæt": 5966,
      "tɹænspɔɹt": 5967,
      "draft": 5968,
      "mɪnut": 5969,
      "ado": 5970,
      "veh": 5971,
      "consist": 5972,
      "bor": 5973,
      "lif": 5974,
      "pɹɑd": 5975,
      "##lim": 5976,
      "tejks": 5977,
      "##ʃəs": 5978,
      "əvojd": 5979,
      "mænj": 5980,
      "1976": 5981,
      "tons": 5982,
      "compos": 5983,
      "refl": 5984,
      "ast": 5985,
      "##aily": 5986,
      "kɑmplɛks": 5987,
      "##pɹajz": 5988,
      "kɛɹəktɹ": 5989,
      "##ejniən": 5990,
      "ɡowlz": 5991,
      "ətæks": 5992,
      "attacks": 5993,
      "stad": 5994,
      "ɹɑb": 5995,
      "ʃown": 5996,
      "##ətejʃən": 5997,
      "##flɪkt": 5998,
      "##nəl": 5999,
      "qual": 6000,
      "kowd": 6001,
      "makes": 6002,
      "patt": 6003,
      "bitʃ": 6004,
      "##rated": 6005,
      "fox": 6006,
      "flæɡ": 6007,
      "lɑt": 6008,
      "250": 6009,
      "##unt": 6010,
      "##inal": 6011,
      "dɹʌm": 6012,
      "ɪndəvɪdʒəwəl": 6013,
      "drum": 6014,
      "entertainment": 6015,
      "takes": 6016,
      "confir": 6017,
      "ɪntɹvju": 6018,
      "ɛntɹtejnmənt": 6019,
      "damaged": 6020,
      "dæmədʒd": 6021,
      "raised": 6022,
      "ɹɛn": 6023,
      "##lder": 6024,
      "oil": 6025,
      "##het": 6026,
      "composed": 6027,
      "kəmpowzd": 6028,
      "##ænɪk": 6029,
      "ranked": 6030,
      "ɹæŋkt": 6031,
      "stra": 6032,
      "environment": 6033,
      "ɑɹtəst": 6034,
      "canadian": 6035,
      "##ounds": 6036,
      "dɛp": 6037,
      "##ɑɹə": 6038,
      "kənejdiən": 6039,
      "lɛtɹ": 6040,
      "fɑks": 6041,
      "ca": 6042,
      "##nɑ": 6043,
      "train": 6044,
      "67": 6045,
      "##ajdəd": 6046,
      "##ɑps": 6047,
      "##osaur": 6048,
      "ath": 6049,
      "carol": 6050,
      "##isc": 6051,
      "##aches": 6052,
      "daily": 6053,
      "##ails": 6054,
      "əpɪɹz": 6055,
      "appears": 6056,
      "ɪnsajd": 6057,
      "ɛmb": 6058,
      "mɑɹkət": 6059,
      "fighting": 6060,
      "fajtɪŋ": 6061,
      "log": 6062,
      "hus": 6063,
      "mountain": 6064,
      "selected": 6065,
      "æfɹəkə": 6066,
      "africa": 6067,
      "səlɛktəd": 6068,
      "kɔɹəs": 6069,
      "pəz": 6070,
      "sɪstɹ": 6071,
      "##abit": 6072,
      "##haws": 6073,
      "ɹɪvild": 6074,
      "revealed": 6075,
      "cyclone": 6076,
      "sɪklown": 6077,
      "##kəm": 6078,
      "ɛp": 6079,
      "combat": 6080,
      "categ": 6081,
      "discovered": 6082,
      "dɪskʌvɹd": 6083,
      "ɹʌʃən": 6084,
      "metal": 6085,
      "##eral": 6086,
      "fid": 6087,
      "pɪɹ": 6088,
      "active": 6089,
      "##ɑtə": 6090,
      "russian": 6091,
      "concert": 6092,
      "wrest": 6093,
      "ign": 6094,
      "dɛməkɹ": 6095,
      "ram": 6096,
      "mɑɹtən": 6097,
      "inside": 6098,
      "confl": 6099,
      "cere": 6100,
      "martin": 6101,
      "morning": 6102,
      "##bb": 6103,
      "##ɪkts": 6104,
      "accomp": 6105,
      "twɛnti": 6106,
      "letter": 6107,
      "twenty": 6108,
      "##chester": 6109,
      "kəndɪʃənz": 6110,
      "conditions": 6111,
      "kent": 6112,
      "demon": 6113,
      "unable": 6114,
      "ənejbəl": 6115,
      "thir": 6116,
      "launched": 6117,
      "lɔntʃt": 6118,
      "ɑnɹ": 6119,
      "stɹajk": 6120,
      "sports": 6121,
      "ɡɹejtɹ": 6122,
      "səsp": 6123,
      "82": 6124,
      "##hl": 6125,
      "northeast": 6126,
      "##uries": 6127,
      "bɪlow": 6128,
      "greater": 6129,
      "swit": 6130,
      "##zi": 6131,
      "ocean": 6132,
      "mejks": 6133,
      "schol": 6134,
      "68": 6135,
      "96": 6136,
      "##umed": 6137,
      "deg": 6138,
      "gro": 6139,
      "ɹɪspɛktɪvli": 6140,
      "respectively": 6141,
      "pɹtɪkjəlɹ": 6142,
      "##list": 6143,
      "pejd": 6144,
      "nil": 6145,
      "era": 6146,
      "##gely": 6147,
      "sevent": 6148,
      "bɹn": 6149,
      "ɛɹə": 6150,
      "ɛndʒ": 6151,
      "##ænst": 6152,
      "##ya": 6153,
      "incor": 6154,
      "1946": 6155,
      "cab": 6156,
      "ɹajd": 6157,
      "whole": 6158,
      "mɪstɹ": 6159,
      "kɑt": 6160,
      "wa": 6161,
      "sched": 6162,
      "numbers": 6163,
      "##uth": 6164,
      "nʌmbɹz": 6165,
      "ɪʃuz": 6166,
      "issues": 6167,
      "nidəd": 6168,
      "needed": 6169,
      "1981": 6170,
      "##ɛɹiən": 6171,
      "smɔlɹ": 6172,
      "smaller": 6173,
      "ændʒəlɪs": 6174,
      "angeles": 6175,
      "sister": 6176,
      "slajt": 6177,
      "below": 6178,
      "lived": 6179,
      "lɪvd": 6180,
      "blɑk": 6181,
      "product": 6182,
      "advance": 6183,
      "##isk": 6184,
      "newsp": 6185,
      "##ɛɹəti": 6186,
      "yard": 6187,
      "touch": 6188,
      "jɑɹdz": 6189,
      "contains": 6190,
      "kəntejnz": 6191,
      "attempted": 6192,
      "ətɛmptəd": 6193,
      "##ɛdʒʊ": 6194,
      "ətækt": 6195,
      "attacked": 6196,
      "kind": 6197,
      "spɔɹts": 6198,
      "mɛɹɪdʒ": 6199,
      "##howld": 6200,
      "counter": 6201,
      "yards": 6202,
      "skɛdʒʊ": 6203,
      "traditional": 6204,
      "mæθ": 6205,
      "1917": 6206,
      "shown": 6207,
      "mæstɹ": 6208,
      "bed": 6209,
      "əkɹd": 6210,
      "occurred": 6211,
      "iii": 6212,
      "nuzp": 6213,
      "religious": 6214,
      "stivən": 6215,
      "##ɪɹɪŋ": 6216,
      "##ʃɪps": 6217,
      "##lor": 6218,
      "skɹɪpt": 6219,
      "rein": 6220,
      "contemp": 6221,
      "dar": 6222,
      "87": 6223,
      "ikw": 6224,
      "improve": 6225,
      "ojl": 6226,
      "##uals": 6227,
      "##kʌm": 6228,
      "tɹədɪʃənəl": 6229,
      "sɹtʃ": 6230,
      "silver": 6231,
      "ɡlow": 6232,
      "peace": 6233,
      "ajɪi": 6234,
      "160": 6235,
      "ring": 6236,
      "##æŋks": 6237,
      "fənæn": 6238,
      "princip": 6239,
      "nick": 6240,
      "##ɹnd": 6241,
      "kʌltʃɹ": 6242,
      "##ɛsɹ": 6243,
      "defeat": 6244,
      "slight": 6245,
      "##mph": 6246,
      "alle": 6247,
      "raid": 6248,
      "##ortun": 6249,
      "##hire": 6250,
      "##rect": 6251,
      "actor": 6252,
      "fʌn": 6253,
      "annual": 6254,
      "tourn": 6255,
      "##ette": 6256,
      "experi": 6257,
      "##uments": 6258,
      "bɹæntʃ": 6259,
      "ɪlɛktəd": 6260,
      "elected": 6261,
      "##dʒɛkts": 6262,
      "ænjuəl": 6263,
      "##æv": 6264,
      "700": 6265,
      "majnd": 6266,
      "vɛn": 6267,
      "##jus": 6268,
      "hung": 6269,
      "ɹəfɹd": 6270,
      "referred": 6271,
      "vɪ": 6272,
      "concept": 6273,
      "festival": 6274,
      "asp": 6275,
      "fɛstəvəl": 6276,
      "##vert": 6277,
      "fear": 6278,
      "əpl": 6279,
      "dow": 6280,
      "convent": 6281,
      "fɔɹəst": 6282,
      "ɹɪlɪdʒəs": 6283,
      "ɪmədʒ": 6284,
      "neigh": 6285,
      "##urs": 6286,
      "sɪd": 6287,
      "1948": 6288,
      "mind": 6289,
      "bab": 6290,
      "ɡɛst": 6291,
      "##rial": 6292,
      "##sw": 6293,
      "constant": 6294,
      "cham": 6295,
      "məʃin": 6296,
      "pɹɑv": 6297,
      "69": 6298,
      "1960": 6299,
      "##oud": 6300,
      "##lands": 6301,
      "ott": 6302,
      "pɹɛ": 6303,
      "##ii": 6304,
      "19th": 6305,
      "19tiejtʃ": 6306,
      "##ox": 6307,
      "skulz": 6308,
      "schools": 6309,
      "audience": 6310,
      "##ify": 6311,
      "ɑdiəns": 6312,
      "largely": 6313,
      "lɑɹdʒli": 6314,
      "resulted": 6315,
      "ɹɪzʌltɪd": 6316,
      "jose": 6317,
      "ros": 6318,
      "theme": 6319,
      "kʌvɹd": 6320,
      "purp": 6321,
      "bon": 6322,
      "cart": 6323,
      "ɹist": 6324,
      "sɛtəl": 6325,
      "assigned": 6326,
      "əsajnd": 6327,
      "covered": 6328,
      "sav": 6329,
      "ɹɪŋ": 6330,
      "vɪktɔɹ": 6331,
      "stɔɹiz": 6332,
      "pɹowd": 6333,
      "gam": 6334,
      "##reme": 6335,
      "91": 6336,
      "fast": 6337,
      "psy": 6338,
      "architect": 6339,
      "78": 6340,
      "prince": 6341,
      "listed": 6342,
      "lɪstəd": 6343,
      "variety": 6344,
      "vɹajəti": 6345,
      "guest": 6346,
      "italian": 6347,
      "səvɪɹ": 6348,
      "lɹn": 6349,
      "sɛks": 6350,
      "##ɪʃəp": 6351,
      "1978": 6352,
      "ha": 6353,
      "##uated": 6354,
      "##joy": 6355,
      "pair": 6356,
      "link": 6357,
      "ædmɪn": 6358,
      "ɡæs": 6359,
      "comput": 6360,
      "kəlɛkʃən": 6361,
      "collection": 6362,
      "kɑmpətɪʃən": 6363,
      "competition": 6364,
      "ash": 6365,
      "cath": 6366,
      "dɑɹ": 6367,
      "ɹnd": 6368,
      "##ilənd": 6369,
      "dʒaj": 6370,
      "##rie": 6371,
      "names": 6372,
      "rod": 6373,
      "earned": 6374,
      "mawntən": 6375,
      "indic": 6376,
      "##ejdəd": 6377,
      "ɡɹædʒu": 6378,
      "əkʌm": 6379,
      "recover": 6380,
      "tawɹ": 6381,
      "##ɑɹi": 6382,
      "expected": 6383,
      "kɑmɛntəd": 6384,
      "commented": 6385,
      "1915": 6386,
      "ɪkspɛktəd": 6387,
      "tɹæfɪk": 6388,
      "sɪlvɹ": 6389,
      "controvers": 6390,
      "##owled": 6391,
      "bəl": 6392,
      "mtv": 6393,
      "stadium": 6394,
      "kr": 6395,
      "##een": 6396,
      "text": 6397,
      "starting": 6398,
      "stɑɹtɪŋ": 6399,
      "subject": 6400,
      "##ta": 6401,
      "##ajnz": 6402,
      "θi": 6403,
      "closed": 6404,
      "##aped": 6405,
      "klowzd": 6406,
      "rapid": 6407,
      "##arters": 6408,
      "ɪtæljən": 6409,
      "ɑɹtʃ": 6410,
      "pɑɹləmənt": 6411,
      "attention": 6412,
      "##itude": 6413,
      "94": 6414,
      "francis": 6415,
      "nucle": 6416,
      "1950": 6417,
      "ətɛnʃən": 6418,
      "protest": 6419,
      "replace": 6420,
      "pick": 6421,
      "enter": 6422,
      "document": 6423,
      "question": 6424,
      "kəntɛmpɹɛɹi": 6425,
      "1977": 6426,
      "michigan": 6427,
      "mæd": 6428,
      "giving": 6429,
      "zeal": 6430,
      "ɡɪvɪŋ": 6431,
      "reform": 6432,
      "ɪstæblɪʃ": 6433,
      "81": 6434,
      "##gs": 6435,
      "##bc": 6436,
      "əbænd": 6437,
      "##ɛtn": 6438,
      "ɹəfjuzd": 6439,
      "refused": 6440,
      "legal": 6441,
      "eli": 6442,
      "98": 6443,
      "liɡəl": 6444,
      "mir": 6445,
      "##atest": 6446,
      "mɪʃɪɡən": 6447,
      "hɑl": 6448,
      "viet": 6449,
      "##ocks": 6450,
      "economic": 6451,
      "##ɪps": 6452,
      "continu": 6453,
      "ɛkənɑmɪk": 6454,
      "kɑɹt": 6455,
      "culture": 6456,
      "greatest": 6457,
      "ɡɹejtəst": 6458,
      "cust": 6459,
      "gil": 6460,
      "1963": 6461,
      "æbs": 6462,
      "waters": 6463,
      "##izing": 6464,
      "##ault": 6465,
      "pɹfɔɹmənsəz": 6466,
      "performances": 6467,
      "enjoy": 6468,
      "pɹpəs": 6469,
      "ɹɪst": 6470,
      "fæst": 6471,
      "wejt": 6472,
      "ɹɪpʌbl": 6473,
      "kəp": 6474,
      "ælən": 6475,
      "tower": 6476,
      "mædʒ": 6477,
      "magn": 6478,
      "electric": 6479,
      "əbɪləti": 6480,
      "ɹowdz": 6481,
      "##rian": 6482,
      "ability": 6483,
      "serious": 6484,
      "disapp": 6485,
      "ɔɹk": 6486,
      "ɹæŋk": 6487,
      "1916": 6488,
      "stories": 6489,
      "fɪləp": 6490,
      "æɡɹ": 6491,
      "71": 6492,
      "native": 6493,
      "##pid": 6494,
      "wales": 6495,
      "kætəɡ": 6496,
      "hund": 6497,
      "rate": 6498,
      "promin": 6499,
      "defense": 6500,
      "sɛpɹət": 6501,
      "##ɡn": 6502,
      "meant": 6503,
      "declared": 6504,
      "dɪklɛɹd": 6505,
      "sʌbdʒɪkt": 6506,
      "mæɡn": 6507,
      "##ka": 6508,
      "direction": 6509,
      "dʌtʃ": 6510,
      "matches": 6511,
      "mætʃəz": 6512,
      "pɹəmow": 6513,
      "things": 6514,
      "θɪŋz": 6515,
      "mæl": 6516,
      "vocals": 6517,
      "vowkəlz": 6518,
      "dəb": 6519,
      "æʃ": 6520,
      "##fən": 6521,
      "hʌndɹ": 6522,
      "89": 6523,
      "##bridge": 6524,
      "stan": 6525,
      "ædmɪnɪstɹ": 6526,
      "hundred": 6527,
      "æθl": 6528,
      "mention": 6529,
      "##wajd": 6530,
      "sɛkɹ": 6531,
      "nʌ": 6532,
      "məm": 6533,
      "ɹiɪn": 6534,
      "abandon": 6535,
      "lɛvəlz": 6536,
      "levels": 6537,
      "əkʌmpən": 6538,
      "stejdiəm": 6539,
      "1962": 6540,
      "1919": 6541,
      "sawθist": 6542,
      "##ca": 6543,
      "dʒows": 6544,
      "bawnd": 6545,
      "kɑnstət": 6546,
      "dʌbəlju": 6547,
      "##ɑmp": 6548,
      "##isher": 6549,
      "swe": 6550,
      "##bə": 6551,
      "words": 6552,
      "nɪɹbaj": 6553,
      "nearby": 6554,
      "tɛmpɹə": 6555,
      "wɹdz": 6556,
      "unli": 6557,
      "##ker": 6558,
      "bɹd": 6559,
      "chann": 6560,
      "spɛs": 6561,
      "vow": 6562,
      "##row": 6563,
      "ənlajk": 6564,
      "##ejpt": 6565,
      "nɛs": 6566,
      "##ajɹz": 6567,
      "kənfɹm": 6568,
      "produce": 6569,
      "pɹowdus": 6570,
      "marriage": 6571,
      "compl": 6572,
      "##ɪʃənt": 6573,
      "pɹiz": 6574,
      "88": 6575,
      "1938": 6576,
      "kajnd": 6577,
      "necess": 6578,
      "##yan": 6579,
      "feat": 6580,
      "##əfɹ": 6581,
      "##yr": 6582,
      "##ɪtejʃən": 6583,
      "doctor": 6584,
      "practice": 6585,
      "ʃowd": 6586,
      "##bəlz": 6587,
      "##ɪŋɡw": 6588,
      "constructed": 6589,
      "ajz": 6590,
      "kənstɹʌktəd": 6591,
      "die": 6592,
      "##idəd": 6593,
      "kenn": 6594,
      "##odies": 6595,
      "reception": 6596,
      "ɹɪsɛpʃən": 6597,
      "mech": 6598,
      "pɹɛmɪɹ": 6599,
      "tʃej": 6600,
      "emper": 6601,
      "tɹajd": 6602,
      "constitution": 6603,
      "ɪkspɛɹ": 6604,
      "##hold": 6605,
      "wear": 6606,
      "majl": 6607,
      "kɑnsɹt": 6608,
      "##inson": 6609,
      "fæntəsi": 6610,
      "vowt": 6611,
      "##mas": 6612,
      "ɹɪzɹv": 6613,
      "fantasy": 6614,
      "kʌst": 6615,
      "##jutɹ": 6616,
      "kɑɹl": 6617,
      "lot": 6618,
      "fill": 6619,
      "kæptʃɹ": 6620,
      "##ero": 6621,
      "##əkəlz": 6622,
      "##mæn": 6623,
      "##ona": 6624,
      "##ato": 6625,
      "ɡw": 6626,
      "zilənd": 6627,
      "hajli": 6628,
      "nɑts": 6629,
      "bɔɹ": 6630,
      "##road": 6631,
      "candid": 6632,
      "##pass": 6633,
      "nowts": 6634,
      "weather": 6635,
      "notes": 6636,
      "79": 6637,
      "##əfæk": 6638,
      "##ntʃɛstɹ": 6639,
      "sle": 6640,
      "bɹʌ": 6641,
      "##ejld": 6642,
      "nejmz": 6643,
      "separate": 6644,
      "minz": 6645,
      "vocal": 6646,
      "##ɑf": 6647,
      "##wide": 6648,
      "##essed": 6649,
      "highly": 6650,
      "##iff": 6651,
      "##əmowni": 6652,
      "means": 6653,
      "labor": 6654,
      "vowkəl": 6655,
      "eth": 6656,
      "gall": 6657,
      "ɔɹɡənəzejʃən": 6658,
      "ɹajtɹz": 6659,
      "writers": 6660,
      "##uten": 6661,
      "southeast": 6662,
      "farm": 6663,
      "owʃən": 6664,
      "oh": 6665,
      "overs": 6666,
      "nukli": 6667,
      "##ɹvejʃən": 6668,
      "bɪhej": 6669,
      "medical": 6670,
      "mɛdəkəl": 6671,
      "1st": 6672,
      "pɛɹəl": 6673,
      "175": 6674,
      "1stɹit": 6675,
      "controll": 6676,
      "bowt": 6677,
      "##gu": 6678,
      "zealand": 6679,
      "lɛt": 6680,
      "directly": 6681,
      "ess": 6682,
      "##pənz": 6683,
      "exhib": 6684,
      "executive": 6685,
      "majkɹ": 6686,
      "dɹɛktli": 6687,
      "əbz": 6688,
      "ultimately": 6689,
      "ʌltəmətli": 6690,
      "1956": 6691,
      "##əlɛs": 6692,
      "bɛd": 6693,
      "##ishop": 6694,
      "tʃæləndʒ": 6695,
      "##ingu": 6696,
      "æfɹəkən": 6697,
      "pɹajs": 6698,
      "##bit": 6699,
      "##acher": 6700,
      "presented": 6701,
      "pɹizɛntəd": 6702,
      "kɛm": 6703,
      "##ɪdʒd": 6704,
      "continue": 6705,
      "spot": 6706,
      "reduced": 6707,
      "ɹədust": 6708,
      "nejʃən": 6709,
      "effort": 6710,
      "ɛfɹt": 6711,
      "##well": 6712,
      "african": 6713,
      "ec": 6714,
      "mexico": 6715,
      "mɛksəkow": 6716,
      "bjut": 6717,
      "vɛs": 6718,
      "##itation": 6719,
      "##rey": 6720,
      "stɹʌ": 6721,
      "master": 6722,
      "dɹɛkʃən": 6723,
      "chem": 6724,
      "92": 6725,
      "##gl": 6726,
      "1936": 6727,
      "##ɪktəd": 6728,
      "howt": 6729,
      "admiral": 6730,
      "##ɹiən": 6731,
      "ɹɛkəm": 6732,
      "bound": 6733,
      "multiple": 6734,
      "stru": 6735,
      "kəntɹɪbjut": 6736,
      "sɛkʃu": 6737,
      "ædmɹəl": 6738,
      "93": 6739,
      "brad": 6740,
      "dyn": 6741,
      "fɪɡjɹ": 6742,
      "ænəməlz": 6743,
      "animals": 6744,
      "dism": 6745,
      "##oper": 6746,
      "vɑljum": 6747,
      "pɹəpowz": 6748,
      "houses": 6749,
      "efforts": 6750,
      "ɛfɹts": 6751,
      "hawsəz": 6752,
      "ɡej": 6753,
      "##əlejʃən": 6754,
      "##idʒ": 6755,
      "spitʃ": 6756,
      "lajbɹ": 6757,
      "dise": 6758,
      "##ibly": 6759,
      "source": 6760,
      "tried": 6761,
      "##æŋɡ": 6762,
      "##ires": 6763,
      "mechan": 6764,
      "chris": 6765,
      "##lət": 6766,
      "ɛkstɹ": 6767,
      "ədɑpt": 6768,
      "84": 6769,
      "obj": 6770,
      "ətɛndəd": 6771,
      "memorial": 6772,
      "attended": 6773,
      "##rical": 6774,
      "130": 6775,
      "studies": 6776,
      "accepted": 6777,
      "æksɛptɪd": 6778,
      "spɑt": 6779,
      "##fɔɹs": 6780,
      "stʌdiz": 6781,
      "stating": 6782,
      "stejtɪŋ": 6783,
      "1920": 6784,
      "kawntɹ": 6785,
      "libr": 6786,
      "financial": 6787,
      "dan": 6788,
      "positions": 6789,
      "pəzɪʃənz": 6790,
      "rule": 6791,
      "##band": 6792,
      "fənænʃəl": 6793,
      "##gian": 6794,
      "talk": 6795,
      "##ajp": 6796,
      "1961": 6797,
      "##ogue": 6798,
      "##nəmənt": 6799,
      "##fɛɹ": 6800,
      "trip": 6801,
      "sɛləbɹ": 6802,
      "ɪkstɹim": 6803,
      "yel": 6804,
      "specific": 6805,
      "hɪp": 6806,
      "20th": 6807,
      "20tiejtʃ": 6808,
      "madonna": 6809,
      "ɪnkɔɹ": 6810,
      "əkæd": 6811,
      "mədɑnə": 6812,
      "tʃojs": 6813,
      "##ɛɹiz": 6814,
      "##ɛntɪŋ": 6815,
      "thick": 6816,
      "prep": 6817,
      "ɪndək": 6818,
      "inch": 6819,
      "advent": 6820,
      "incorpor": 6821,
      "##əsəz": 6822,
      "bɪɡɪnz": 6823,
      "ɛndɪŋ": 6824,
      "ending": 6825,
      "begins": 6826,
      "seem": 6827,
      "recomm": 6828,
      "favour": 6829,
      "true": 6830,
      "1953": 6831,
      "symb": 6832,
      "lutɛn": 6833,
      "ww": 6834,
      "organization": 6835,
      "ɹizən": 6836,
      "ɹɛstɹ": 6837,
      "pilot": 6838,
      "gas": 6839,
      "traffic": 6840,
      "kɪd": 6841,
      "ɛnəmi": 6842,
      "##tun": 6843,
      "##rier": 6844,
      "theatre": 6845,
      "enemy": 6846,
      "sɛkɹətɛɹi": 6847,
      "##ɪkəlz": 6848,
      "kejsəz": 6849,
      "cases": 6850,
      "sides": 6851,
      "θɪk": 6852,
      "kilomet": 6853,
      "skɑtlənd": 6854,
      "scotland": 6855,
      "luc": 6856,
      "sejv": 6857,
      "##house": 6858,
      "##ented": 6859,
      "arab": 6860,
      "lieuten": 6861,
      "jones": 6862,
      "##tɹæk": 6863,
      "dʒownz": 6864,
      "##əkli": 6865,
      "ɡɹik": 6866,
      "od": 6867,
      "unc": 6868,
      "##owʃi": 6869,
      "##ejniə": 6870,
      "kowld": 6871,
      "drive": 6872,
      "mʌltəpəl": 6873,
      "ɹn": 6874,
      "##illery": 6875,
      "prepar": 6876,
      "wʊl": 6877,
      "##ersey": 6878,
      "dɪsm": 6879,
      "ɛɹpɔɹt": 6880,
      "airport": 6881,
      "ədʒ": 6882,
      "chair": 6883,
      "##ɛlv": 6884,
      "rough": 6885,
      "flajɪŋ": 6886,
      "flying": 6887,
      "##ɪlɹi": 6888,
      "saint": 6889,
      "##ners": 6890,
      "responsible": 6891,
      "ɹispɑnsəbəl": 6892,
      "##ejpɹ": 6893,
      "1930": 6894,
      "fɔɹmz": 6895,
      "mos": 6896,
      "managed": 6897,
      "mænədʒd": 6898,
      "wound": 6899,
      "skejl": 6900,
      "forms": 6901,
      "meaning": 6902,
      "ajdi": 6903,
      "ɪkspɹɛs": 6904,
      "path": 6905,
      "##mɪt": 6906,
      "##ʌŋɡ": 6907,
      "resulting": 6908,
      "ɹɪzʌltɪŋ": 6909,
      "pɹɪnt": 6910,
      "minɪŋ": 6911,
      "ɔɹɡənajzd": 6912,
      "1947": 6913,
      "fɔɹmejʃən": 6914,
      "formation": 6915,
      "voj": 6916,
      "##rick": 6917,
      "bown": 6918,
      "greek": 6919,
      "wund": 6920,
      "##mic": 6921,
      "kept": 6922,
      "kɛpt": 6923,
      "relie": 6924,
      "1958": 6925,
      "##ols": 6926,
      "86": 6927,
      "tournament": 6928,
      "skʌl": 6929,
      "ens": 6930,
      "tʊɹnəmənt": 6931,
      "pɹɑm": 6932,
      "##ligh": 6933,
      "##awndz": 6934,
      "dɹɑpt": 6935,
      "dropped": 6936,
      "##ɑɹkt": 6937,
      "showed": 6938,
      "academy": 6939,
      "əkædəmi": 6940,
      "##hæm": 6941,
      "soundtr": 6942,
      "ll": 6943,
      "repe": 6944,
      "##aks": 6945,
      "diam": 6946,
      "rose": 6947,
      "authority": 6948,
      "əθɔɹəti": 6949,
      "policy": 6950,
      "ts": 6951,
      "ɪkstɹ": 6952,
      "1957": 6953,
      "ɡɛɹ": 6954,
      "##ɑŋk": 6955,
      "quality": 6956,
      "ɛmpɹɹ": 6957,
      "kwɑləti": 6958,
      "simps": 6959,
      "hajl": 6960,
      "bob": 6961,
      "##urity": 6962,
      "prime": 6963,
      "pajlət": 6964,
      "kɔɹn": 6965,
      "kɛɹəlajn": 6966,
      "##the": 6967,
      "1937": 6968,
      "strugg": 6969,
      "##utions": 6970,
      "edge": 6971,
      "emperor": 6972,
      "səpl": 6973,
      "marsh": 6974,
      "pæl": 6975,
      "howtɛl": 6976,
      "##isation": 6977,
      "##ican": 6978,
      "exped": 6979,
      "artillery": 6980,
      "nɛɡ": 6981,
      "əpɑɹt": 6982,
      "apart": 6983,
      "combined": 6984,
      "kəmbajnd": 6985,
      "pɑləsi": 6986,
      "##ceeded": 6987,
      "anc": 6988,
      "boat": 6989,
      "acting": 6990,
      "æktɪŋ": 6991,
      "##nam": 6992,
      "majk": 6993,
      "lutɛnənt": 6994,
      "ɡɹu": 6995,
      "ded": 6996,
      "fawndəd": 6997,
      "founded": 6998,
      "secretary": 6999,
      "sæt": 7000,
      "ɛls": 7001,
      "continues": 7002,
      "kəntɪnjuz": 7003,
      "trial": 7004,
      "marked": 7005,
      "tɹajəl": 7006,
      "jusəz": 7007,
      "spirit": 7008,
      "##une": 7009,
      "ɪnvejʒən": 7010,
      "pæsənd": 7011,
      "inches": 7012,
      "ɪntʃəz": 7013,
      "kʌmɪŋ": 7014,
      "property": 7015,
      "pɹɑpɹti": 7016,
      "uses": 7017,
      "lieutenant": 7018,
      "ɑɹtɪlɹi": 7019,
      "determin": 7020,
      "sɪstəmz": 7021,
      "systems": 7022,
      "encount": 7023,
      "##iation": 7024,
      "mut": 7025,
      "##mark": 7026,
      "stæn": 7027,
      "subsequent": 7028,
      "sʌbsəkwənt": 7029,
      "110": 7030,
      "cry": 7031,
      "##cend": 7032,
      "kəlʌmb": 7033,
      "pɹɛd": 7034,
      "ɑɹtəsts": 7035,
      "artists": 7036,
      "propos": 7037,
      "contemporary": 7038,
      "chron": 7039,
      "dɪmænd": 7040,
      "ətɛmpts": 7041,
      "attempts": 7042,
      "##ʃejndʒ": 7043,
      "blow": 7044,
      "search": 7045,
      "æləɡz": 7046,
      "sɹvajv": 7047,
      "territory": 7048,
      "tɛɹɪtɔɹi": 7049,
      "##ətɪvz": 7050,
      "##mate": 7051,
      "1959": 7052,
      "contact": 7053,
      "zi": 7054,
      "dʒowsəf": 7055,
      "pətɹ": 7056,
      "sʌl": 7057,
      "steam": 7058,
      "##anes": 7059,
      "appar": 7060,
      "pɹf": 7061,
      "kəmpowz": 7062,
      "##jəmz": 7063,
      "##ɛlɹ": 7064,
      "kʌmpəniz": 7065,
      "companies": 7066,
      "potential": 7067,
      "dru": 7068,
      "administration": 7069,
      "ædmɪnɪstɹejʃən": 7070,
      "##ɛlə": 7071,
      "##ada": 7072,
      "presence": 7073,
      "pɹɛzəns": 7074,
      "metres": 7075,
      "ɹipʌbl": 7076,
      "mɛtɹz": 7077,
      "viewers": 7078,
      "planet": 7079,
      "vjuɹz": 7080,
      "coal": 7081,
      "howp": 7082,
      "əlawɪŋ": 7083,
      "allowing": 7084,
      "lɪn": 7085,
      "##ʃʊɹ": 7086,
      "thous": 7087,
      "ɹib": 7088,
      "θawz": 7089,
      "sajdz": 7090,
      "sixth": 7091,
      "sɪksθ": 7092,
      "studios": 7093,
      "ətɹækt": 7094,
      "studiowz": 7095,
      "##icip": 7096,
      "recent": 7097,
      "##mɑɹk": 7098,
      "1955": 7099,
      "##əsəs": 7100,
      "ɹisənt": 7101,
      "sæk": 7102,
      "##haj": 7103,
      "kəndʌktəd": 7104,
      "əfɪʃəlz": 7105,
      "officials": 7106,
      "conducted": 7107,
      "##əlti": 7108,
      "1954": 7109,
      "##anged": 7110,
      "##gypt": 7111,
      "##ping": 7112,
      "target": 7113,
      "fæn": 7114,
      "scale": 7115,
      "##ulations": 7116,
      "fɪnɪʃ": 7117,
      "##stændɪŋ": 7118,
      "williams": 7119,
      "##essor": 7120,
      "ətɛnd": 7121,
      "wɪljəmz": 7122,
      "obt": 7123,
      "##tow": 7124,
      "##ʌpt": 7125,
      "kɑnsən": 7126,
      "pejdʒ": 7127,
      "duk": 7128,
      "respond": 7129,
      "kɑntækt": 7130,
      "tin": 7131,
      "ɛnkɹ": 7132,
      "behav": 7133,
      "##thur": 7134,
      "distinct": 7135,
      "paris": 7136,
      "hyd": 7137,
      "##ɪkʃən": 7138,
      "mol": 7139,
      "mis": 7140,
      "mowt": 7141,
      "ɹɪspɑnd": 7142,
      "ɹɛkəɡnajzd": 7143,
      "kɑntɛnt": 7144,
      "yellow": 7145,
      "digital": 7146,
      "ɪkstɛnsɪv": 7147,
      "machine": 7148,
      "tɛmpəl": 7149,
      "defence": 7150,
      "pɹɪd": 7151,
      "contrast": 7152,
      "nʌn": 7153,
      "egypt": 7154,
      "##ojz": 7155,
      "headqu": 7156,
      "bɹænd": 7157,
      "dɪdʒətəl": 7158,
      "tɹænsfɹd": 7159,
      "transferred": 7160,
      "fat": 7161,
      "##standing": 7162,
      "##ætʃt": 7163,
      "parents": 7164,
      "pɛɹənts": 7165,
      "##arian": 7166,
      "ɪnvɛstəɡ": 7167,
      "scoring": 7168,
      "opportun": 7169,
      "skɔɹɪŋ": 7170,
      "ɑpɹtun": 7171,
      "bott": 7172,
      "hɹd": 7173,
      "##wɔ": 7174,
      "temple": 7175,
      "maximum": 7176,
      "pətɛnʃəl": 7177,
      "senior": 7178,
      "dɛmən": 7179,
      "hɛɹi": 7180,
      "cold": 7181,
      "coming": 7182,
      "job": 7183,
      "pikt": 7184,
      "tɹiz": 7185,
      "colour": 7186,
      "##lɹz": 7187,
      "mæksəməm": 7188,
      "əlajd": 7189,
      "fellow": 7190,
      "figure": 7191,
      "pɹəz": 7192,
      "allied": 7193,
      "corpor": 7194,
      "dɪstəns": 7195,
      "latin": 7196,
      "##ɑnəmi": 7197,
      "kændəd": 7198,
      "stephen": 7199,
      "les": 7200,
      "collabor": 7201,
      "##rom": 7202,
      "##owlt": 7203,
      "##pɹt": 7204,
      "beaut": 7205,
      "torped": 7206,
      "southwest": 7207,
      "##mond": 7208,
      "therefore": 7209,
      "primarily": 7210,
      "ðɛɹfɔɹ": 7211,
      "pɹajmɛɹəli": 7212,
      "##ɪzejʃən": 7213,
      "maw": 7214,
      "fɪlmɪŋ": 7215,
      "filming": 7216,
      "relatively": 7217,
      "ɹɛlətɪvli": 7218,
      "##owli": 7219,
      "ownd": 7220,
      "owned": 7221,
      "fitʃɹɪŋ": 7222,
      "featuring": 7223,
      "seg": 7224,
      "oxford": 7225,
      "theory": 7226,
      "sac": 7227,
      "##va": 7228,
      "peaked": 7229,
      "ɪnkɔɹpɹ": 7230,
      "tɔɹpid": 7231,
      "student": 7232,
      "dɪziz": 7233,
      "torpedo": 7234,
      "bɪkʌmz": 7235,
      "becomes": 7236,
      "sɹdʒ": 7237,
      "studənt": 7238,
      "dɑmən": 7239,
      "##ription": 7240,
      "##rain": 7241,
      "titled": 7242,
      "tajtəld": 7243,
      "dɑl": 7244,
      "remain": 7245,
      "ɹɪmejn": 7246,
      "##sənz": 7247,
      "awtɹ": 7248,
      "actually": 7249,
      "æktʃəwəli": 7250,
      "joseph": 7251,
      "ɪnfɔɹm": 7252,
      "dɛzɪɡn": 7253,
      "##iænə": 7254,
      "ɑksfɹd": 7255,
      "mɑɹkt": 7256,
      "piece": 7257,
      "ɪmpl": 7258,
      "dɛmənstɹ": 7259,
      "mort": 7260,
      "1952": 7261,
      "interp": 7262,
      "hers": 7263,
      "##owlz": 7264,
      "portion": 7265,
      "sɪtʃuejʃən": 7266,
      "arrest": 7267,
      "83": 7268,
      "pɹəs": 7269,
      "pɔɹʃən": 7270,
      "ɪskejp": 7271,
      "bɹæd": 7272,
      "bæɹ": 7273,
      "##olf": 7274,
      "battleship": 7275,
      "distance": 7276,
      "##ojt": 7277,
      "##oo": 7278,
      "kɛɹi": 7279,
      "kənkludəd": 7280,
      "concluded": 7281,
      "citiz": 7282,
      "ɛθ": 7283,
      "simp": 7284,
      "lejn": 7285,
      "mile": 7286,
      "##ɪʃəl": 7287,
      "withdr": 7288,
      "boston": 7289,
      "mob": 7290,
      "##teen": 7291,
      "sr": 7292,
      "ɹəfl": 7293,
      "##wə": 7294,
      "##vɹd": 7295,
      "##ket": 7296,
      "ton": 7297,
      "##urb": 7298,
      "ɹipʌblək": 7299,
      "dʒɹz": 7300,
      "spect": 7301,
      "##təmz": 7302,
      "harrison": 7303,
      "stɹɛŋkθ": 7304,
      "strength": 7305,
      "ɛksək": 7306,
      "bɔɹdɹ": 7307,
      "##aga": 7308,
      "write": 7309,
      "hɛɹɪsən": 7310,
      "əpil": 7311,
      "sɛlɪŋ": 7312,
      "##ɪtiz": 7313,
      "1933": 7314,
      "##bre": 7315,
      "sɹt": 7316,
      "et": 7317,
      "situation": 7318,
      "jeff": 7319,
      "broke": 7320,
      "pack": 7321,
      "manchester": 7322,
      "mæntʃɛstɹ": 7323,
      "bɑstən": 7324,
      "psych": 7325,
      "function": 7326,
      "æɹ": 7327,
      "observed": 7328,
      "əbzɹvd": 7329,
      "selling": 7330,
      "security": 7331,
      "##ograp": 7332,
      "physical": 7333,
      "alongside": 7334,
      "əlɔŋsajd": 7335,
      "sɪkjʊɹəti": 7336,
      "resist": 7337,
      "##stein": 7338,
      "dɪstɪŋkt": 7339,
      "swed": 7340,
      "##ita": 7341,
      "bæn": 7342,
      "invasion": 7343,
      "bell": 7344,
      "swid": 7345,
      "176": 7346,
      "hɪɹow": 7347,
      "ɑɹts": 7348,
      "ævənu": 7349,
      "hors": 7350,
      "plays": 7351,
      "paid": 7352,
      "æsp": 7353,
      "bass": 7354,
      "dɪvajdəd": 7355,
      "divided": 7356,
      "concent": 7357,
      "sɛkəndz": 7358,
      "seconds": 7359,
      "columb": 7360,
      "lætən": 7361,
      "calling": 7362,
      "kɔlɪŋ": 7363,
      "share": 7364,
      "sɪtiz": 7365,
      "rating": 7366,
      "cities": 7367,
      "transl": 7368,
      "ɹejtɪŋ": 7369,
      "dʒɛf": 7370,
      "slajtli": 7371,
      "slightly": 7372,
      "##ɑlə": 7373,
      "plejz": 7374,
      "viɛtn": 7375,
      "ɡlæs": 7376,
      "viɛtnɑm": 7377,
      "rot": 7378,
      "inh": 7379,
      "shell": 7380,
      "returning": 7381,
      "powerful": 7382,
      "ɹɪtɹnɪŋ": 7383,
      "border": 7384,
      "kɑnsɛpt": 7385,
      "##ications": 7386,
      "jersey": 7387,
      "pin": 7388,
      "results": 7389,
      "ɹɪzʌlts": 7390,
      "pɑlət": 7391,
      "nəɡ": 7392,
      "##ɑnow": 7393,
      "kɡ": 7394,
      "fift": 7395,
      "fɪft": 7396,
      "sɔt": 7397,
      "tree": 7398,
      "contest": 7399,
      "ɹɪb": 7400,
      "1910": 7401,
      "1935": 7402,
      "arts": 7403,
      "##writ": 7404,
      "hɪstɔɹiən": 7405,
      "historian": 7406,
      "kul": 7407,
      "fɪzɪkəl": 7408,
      "lee": 7409,
      "historical": 7410,
      "ɪnkawnt": 7411,
      "hɪstɔɹɪkəl": 7412,
      "1951": 7413,
      "fɹɛd": 7414,
      "##ɪdʒɪŋ": 7415,
      "1949": 7416,
      "##can": 7417,
      "ɑntu": 7418,
      "management": 7419,
      "mænədʒmənt": 7420,
      "kg": 7421,
      "ban": 7422,
      "rear": 7423,
      "onto": 7424,
      "imperial": 7425,
      "##rem": 7426,
      "##ɑdi": 7427,
      "vess": 7428,
      "sust": 7429,
      "suc": 7430,
      "driv": 7431,
      "sources": 7432,
      "sɔɹsəz": 7433,
      "kɹæʃ": 7434,
      "θɪŋ": 7435,
      "else": 7436,
      "plætfɔɹm": 7437,
      "tend": 7438,
      "ejnt": 7439,
      "nʌθɪŋ": 7440,
      "nothing": 7441,
      "##ɔɹiz": 7442,
      "influenced": 7443,
      "ɪnfluənst": 7444,
      "##umn": 7445,
      "conver": 7446,
      "##ɛndʒ": 7447,
      "actions": 7448,
      "freed": 7449,
      "birds": 7450,
      "beach": 7451,
      "ækʃənz": 7452,
      "tɹʌst": 7453,
      "ɪntɛl": 7454,
      "kæθl": 7455,
      "ire": 7456,
      "sa": 7457,
      "ɪnɪŋz": 7458,
      "æktɪvəti": 7459,
      "activity": 7460,
      "innings": 7461,
      "ɪmpɪɹiəl": 7462,
      "pɛns": 7463,
      "##ɪstɪks": 7464,
      "trust": 7465,
      "eye": 7466,
      "##wajl": 7467,
      "soundtrack": 7468,
      "medal": 7469,
      "sawndtɹæk": 7470,
      "tɹejl": 7471,
      "##iced": 7472,
      "səst": 7473,
      "kɹajm": 7474,
      "##bisi": 7475,
      "kli": 7476,
      "lowd": 7477,
      "##wɑ": 7478,
      "intel": 7479,
      "##kin": 7480,
      "residents": 7481,
      "ɹɛzədənts": 7482,
      "il": 7483,
      "ɪkwɪp": 7484,
      "comedy": 7485,
      "əfɛnsɪv": 7486,
      "athlet": 7487,
      "fan": 7488,
      "kɑmədi": 7489,
      "pɹəmowtəd": 7490,
      "promoted": 7491,
      "bbc": 7492,
      "##md": 7493,
      "designated": 7494,
      "dɛzɪɡnejtɪd": 7495,
      "poet": 7496,
      "pæsɪŋ": 7497,
      "##astic": 7498,
      "passing": 7499,
      "##anna": 7500,
      "##ɪbjətəd": 7501,
      "nɑmənejtəd": 7502,
      "nominated": 7503,
      "resc": 7504,
      "##bɹow": 7505,
      "tæl": 7506,
      "chap": 7507,
      "cricket": 7508,
      "crown": 7509,
      "ɑɹmz": 7510,
      "bibisi": 7511,
      "ɪmow": 7512,
      "##force": 7513,
      "appeal": 7514,
      "kəmplitli": 7515,
      "completely": 7516,
      "conflict": 7517,
      "bɹdz": 7518,
      "##ədɹ": 7519,
      "stɹejt": 7520,
      "tajd": 7521,
      "##tʃi": 7522,
      "##istics": 7523,
      "problem": 7524,
      "bɹajən": 7525,
      "croat": 7526,
      "ɹədus": 7527,
      "pawɹfəl": 7528,
      "lane": 7529,
      "mainly": 7530,
      "mejnli": 7531,
      "##ressed": 7532,
      "avenue": 7533,
      "stock": 7534,
      "paper": 7535,
      "struck": 7536,
      "ɹuts": 7537,
      "##gers": 7538,
      "trail": 7539,
      "sexual": 7540,
      "məmɔɹiəl": 7541,
      "arms": 7542,
      "##istry": 7543,
      "sought": 7544,
      "platform": 7545,
      "##ɪlə": 7546,
      "mɛdəl": 7547,
      "encour": 7548,
      "wejv": 7549,
      "##edd": 7550,
      "orche": 7551,
      "pɹɪnsəpəl": 7552,
      "wɔk": 7553,
      "pejpɹ": 7554,
      "webs": 7555,
      "sense": 7556,
      "sizənz": 7557,
      "seasons": 7558,
      "##za": 7559,
      "lejbəl": 7560,
      "##mɪŋ": 7561,
      "hɛv": 7562,
      "achieve": 7563,
      "cub": 7564,
      "scr": 7565,
      "mætɹ": 7566,
      "hʌzb": 7567,
      "##oti": 7568,
      "kəlæbɹ": 7569,
      "##ɛɹɪŋ": 7570,
      "feed": 7571,
      "kʌltʃɹəl": 7572,
      "fish": 7573,
      "##ros": 7574,
      "hands": 7575,
      "cultural": 7576,
      "kɑnsəntɹ": 7577,
      "##ldɹ": 7578,
      "charge": 7579,
      "##ami": 7580,
      "ɹitʃɪŋ": 7581,
      "reaching": 7582,
      "##aft": 7583,
      "##ʌvɹi": 7584,
      "##ills": 7585,
      "##ils": 7586,
      "hajd": 7587,
      "##ɑmən": 7588,
      "ɪtəli": 7589,
      "dʒɹzi": 7590,
      "1900": 7591,
      "ɡajd": 7592,
      "appl": 7593,
      "##ɪsəti": 7594,
      "##əsajzd": 7595,
      "##əbjuʃən": 7596,
      "bɛnəf": 7597,
      "ejntʃənt": 7598,
      "weapons": 7599,
      "wɛpənz": 7600,
      "ɹipɹ": 7601,
      "ɹitɹ": 7602,
      "##əvejʃən": 7603,
      "##æmən": 7604,
      "##inθ": 7605,
      "##has": 7606,
      "italy": 7607,
      "ancient": 7608,
      "ɹɪɹ": 7609,
      "howmz": 7610,
      "##olved": 7611,
      "nɔɹθwɛst": 7612,
      "electron": 7613,
      "americans": 7614,
      "əmɛɹəkənz": 7615,
      "dang": 7616,
      "fɛlow": 7617,
      "wajdli": 7618,
      "widely": 7619,
      "vajs": 7620,
      "##ba": 7621,
      "dʒən": 7622,
      "##acts": 7623,
      "##æstɪk": 7624,
      "image": 7625,
      "##əvɹ": 7626,
      "mowd": 7627,
      "##oman": 7628,
      "##while": 7629,
      "##ɪdʒɪz": 7630,
      "ɹin": 7631,
      "luk": 7632,
      "əlown": 7633,
      "bejsbɔl": 7634,
      "baseball": 7635,
      "plejn": 7636,
      "ɪntɹpɹ": 7637,
      "instrument": 7638,
      "bk": 7639,
      "alone": 7640,
      "ɛkspl": 7641,
      "emot": 7642,
      "##kju": 7643,
      "powət": 7644,
      "##kwɔɹtɹz": 7645,
      "##ɑlvd": 7646,
      "kaw": 7647,
      "appearances": 7648,
      "əpɪɹənsəz": 7649,
      "channel": 7650,
      "ownɹ": 7651,
      "barb": 7652,
      "confirmed": 7653,
      "kənfɹmd": 7654,
      "graph": 7655,
      "##owtə": 7656,
      "lɑk": 7657,
      "content": 7658,
      "defend": 7659,
      "ɹɪplejs": 7660,
      "sant": 7661,
      "##omy": 7662,
      "wars": 7663,
      "nɛsəs": 7664,
      "lajbɹɛɹi": 7665,
      "ɡejnd": 7666,
      "##əlɑs": 7667,
      "gained": 7668,
      "ɪkstʃejndʒ": 7669,
      "ædvɛntʃ": 7670,
      "##phy": 7671,
      "intellig": 7672,
      "##pul": 7673,
      "06": 7674,
      "ɪnstətut": 7675,
      "beyond": 7676,
      "fal": 7677,
      "jɛlow": 7678,
      "bɪɑnd": 7679,
      "ʌnd": 7680,
      "##ylvan": 7681,
      "tɔk": 7682,
      "sɛz": 7683,
      "dik": 7684,
      "pɹɪs": 7685,
      "##ænow": 7686,
      "choice": 7687,
      "ajɹlənd": 7688,
      "ireland": 7689,
      "##ɑdə": 7690,
      "owldɹ": 7691,
      "##ajzɹ": 7692,
      "steel": 7693,
      "lɪvɹ": 7694,
      "bɹʌðɹz": 7695,
      "brothers": 7696,
      "defin": 7697,
      "liver": 7698,
      "compar": 7699,
      "tʃænəl": 7700,
      "##adel": 7701,
      "older": 7702,
      "reign": 7703,
      "dʒojn": 7704,
      "##bon": 7705,
      "os": 7706,
      "##ples": 7707,
      "##ota": 7708,
      "proved": 7709,
      "pɹuvd": 7710,
      "##ənsən": 7711,
      "floor": 7712,
      "wɛbs": 7713,
      "pian": 7714,
      "library": 7715,
      "element": 7716,
      "##mony": 7717,
      "ɪntɛlədʒ": 7718,
      "analys": 7719,
      "tɑɹɡət": 7720,
      "kənsɹv": 7721,
      "hɛdkwɔɹtɹz": 7722,
      "headquarters": 7723,
      "explained": 7724,
      "ɪksplejnd": 7725,
      "ɔfɹ": 7726,
      "tum": 7727,
      "ɔst": 7728,
      "says": 7729,
      "owk": 7730,
      "offer": 7731,
      "ænθ": 7732,
      "ahead": 7733,
      "əhɛd": 7734,
      "stɑk": 7735,
      "mɪks": 7736,
      "hind": 7737,
      "ɑɹmɹ": 7738,
      "##wɑɹ": 7739,
      "##known": 7740,
      "##ədʒi": 7741,
      "pɛɹɪs": 7742,
      "sens": 7743,
      "pɑɹtnɹ": 7744,
      "expans": 7745,
      "mɑɹʃəl": 7746,
      "ɪfɛktɪv": 7747,
      "strip": 7748,
      "serve": 7749,
      "rainfall": 7750,
      "##ɛmɪk": 7751,
      "cell": 7752,
      "##əməs": 7753,
      "vɪktɔɹiə": 7754,
      "kʌmz": 7755,
      "kɑzɪŋ": 7756,
      "##ques": 7757,
      "causing": 7758,
      "##sen": 7759,
      "##ənəl": 7760,
      "versions": 7761,
      "speech": 7762,
      "vɹʒənz": 7763,
      "comes": 7764,
      "1913": 7765,
      "##ɪndʒ": 7766,
      "ɹejnfɔl": 7767,
      "##ɹowd": 7768,
      "send": 7769,
      "fiction": 7770,
      "##oration": 7771,
      "ɹɪvil": 7772,
      "fɪkʃən": 7773,
      "##ðəlɛs": 7774,
      "victoria": 7775,
      "dɑkjəmɛnt": 7776,
      "##ʊks": 7777,
      "dʒʌstəs": 7778,
      "oli": 7779,
      "1926": 7780,
      "hear": 7781,
      "suit": 7782,
      "##ɔɹətiz": 7783,
      "900": 7784,
      "##jəw": 7785,
      "ɔltɹ": 7786,
      "##æθ": 7787,
      "require": 7788,
      "sajkəl": 7789,
      "##acing": 7790,
      "1927": 7791,
      "##ɪljən": 7792,
      "ɪkspɹɛst": 7793,
      "expressed": 7794,
      "ɛsk": 7795,
      "catholic": 7796,
      "mɑɹdʒ": 7797,
      "əpɛɹ": 7798,
      "equipment": 7799,
      "ɪkwɪpmənt": 7800,
      "workers": 7801,
      "wɹkɹz": 7802,
      "ɑɹtəkəl": 7803,
      "sajts": 7804,
      "##ətən": 7805,
      "carl": 7806,
      "hotel": 7807,
      "roads": 7808,
      "nɛɡətɪv": 7809,
      "##mɔɹ": 7810,
      "reports": 7811,
      "ɹɪpɔɹts": 7812,
      "ɡɹowθ": 7813,
      "growth": 7814,
      "##hu": 7815,
      "pattern": 7816,
      "##əfajɪŋ": 7817,
      "article": 7818,
      "##əsajd": 7819,
      "ɛɹd": 7820,
      "1934": 7821,
      "eas": 7822,
      "ɹowlz": 7823,
      "##sɛt": 7824,
      "1921": 7825,
      "pɹɑmənənt": 7826,
      "prominent": 7827,
      "ɹɔ": 7828,
      "occasion": 7829,
      "##yer": 7830,
      "##tʃejndʒ": 7831,
      "hip": 7832,
      "offensive": 7833,
      "surpr": 7834,
      "advanced": 7835,
      "ədvænst": 7836,
      "experiment": 7837,
      "branch": 7838,
      "nejbɹ": 7839,
      "bʊl": 7840,
      "cert": 7841,
      "ɪksɛpt": 7842,
      "kwɛstʃən": 7843,
      "nl": 7844,
      "ɪntɹtʃejndʒ": 7845,
      "##essions": 7846,
      "kɑmpəzɪʃən": 7847,
      "row": 7848,
      "gross": 7849,
      "identified": 7850,
      "ajdɛntəfajd": 7851,
      "splɪt": 7852,
      "recon": 7853,
      "escape": 7854,
      "opin": 7855,
      "officially": 7856,
      "əfɪʃəli": 7857,
      "ɔn": 7858,
      "dɹɑmə": 7859,
      "drama": 7860,
      "capture": 7861,
      "husband": 7862,
      "stɹʌɡəl": 7863,
      "##roll": 7864,
      "ɑɹmd": 7865,
      "hʌzbənd": 7866,
      "##ufact": 7867,
      "sowlow": 7868,
      "##bjud": 7869,
      "wɹldwajd": 7870,
      "worldwide": 7871,
      "tʃɑɹts": 7872,
      "charts": 7873,
      "setting": 7874,
      "sɛtɪŋ": 7875,
      "armed": 7876,
      "aim": 7877,
      "##nə": 7878,
      "motor": 7879,
      "micro": 7880,
      "##ejɹ": 7881,
      "##erc": 7882,
      "dɪfɛnd": 7883,
      "soft": 7884,
      "kætəɡɔɹi": 7885,
      "vɔn": 7886,
      "manufact": 7887,
      "category": 7888,
      "##ighth": 7889,
      "dejndʒ": 7890,
      "bɪliv": 7891,
      "##icient": 7892,
      "tɛlz": 7893,
      "hɛvəli": 7894,
      "tells": 7895,
      "1912": 7896,
      "weight": 7897,
      "heavily": 7898,
      "pap": 7899,
      "dʒojnt": 7900,
      "##oe": 7901,
      "##ancy": 7902,
      "sɛnət": 7903,
      "##ɑli": 7904,
      "senate": 7905,
      "reserve": 7906,
      "matter": 7907,
      "surre": 7908,
      "kəmpjutɹ": 7909,
      "computer": 7910,
      "##don": 7911,
      "ri": 7912,
      "mænjəfæk": 7913,
      "justice": 7914,
      "æktɪvətiz": 7915,
      "represented": 7916,
      "ɹɛpɹəzɛntəd": 7917,
      "activities": 7918,
      "spread": 7919,
      "spɹɛd": 7920,
      "##jəlejtəd": 7921,
      "dani": 7922,
      "##iring": 7923,
      "08": 7924,
      "minwajl": 7925,
      "meanwhile": 7926,
      "mjun": 7927,
      "##ura": 7928,
      "pisəz": 7929,
      "pieces": 7930,
      "leaves": 7931,
      "##awts": 7932,
      "places": 7933,
      "plejsəz": 7934,
      "tɹitmənt": 7935,
      "treatment": 7936,
      "##zz": 7937,
      "##ece": 7938,
      "##jəmənt": 7939,
      "1932": 7940,
      "observ": 7941,
      "bæs": 7942,
      "vɪzət": 7943,
      "trees": 7944,
      "bɪʃəp": 7945,
      "doll": 7946,
      "actress": 7947,
      "æktɹəs": 7948,
      "klɑɹk": 7949,
      "leaders": 7950,
      "lidɹz": 7951,
      "fɪɹ": 7952,
      "avoid": 7953,
      "clar": 7954,
      "livz": 7955,
      "extra": 7956,
      "ɹl": 7957,
      "fajɹd": 7958,
      "tay": 7959,
      "fired": 7960,
      "##imate": 7961,
      "ski": 7962,
      "figures": 7963,
      "fɪɡjɹz": 7964,
      "##usɪv": 7965,
      "ɪndʒɹi": 7966,
      "hæm": 7967,
      "injury": 7968,
      "kɑnflɪkt": 7969,
      "believe": 7970,
      "why": 7971,
      "crowd": 7972,
      "unf": 7973,
      "##atures": 7974,
      "toward": 7975,
      "vælju": 7976,
      "lun": 7977,
      "##əsɔɹ": 7978,
      "stɹæt": 7979,
      "duke": 7980,
      "əɡɹimənt": 7981,
      "agreement": 7982,
      "mig": 7983,
      "ɪndʌst": 7984,
      "ɹif": 7985,
      "##ələ": 7986,
      "supply": 7987,
      "æləɡzændɹ": 7988,
      "ədɹ": 7989,
      "bɛ": 7990,
      "expedition": 7991,
      "dutch": 7992,
      "fejz": 7993,
      "##abeth": 7994,
      "##ylvania": 7995,
      "##where": 7996,
      "unknown": 7997,
      "lives": 7998,
      "ɛkspədɪʃən": 7999,
      "jer": 8000,
      "pɹejz": 8001,
      "##lia": 8002,
      "unlike": 8003,
      "##ule": 8004,
      "duɪŋ": 8005,
      "##əlɔɡ": 8006,
      "doing": 8007,
      "##ɛktʃɹ": 8008,
      "##ɑɡə": 8009,
      "hil": 8010,
      "sikɹət": 8011,
      "kɪlɑm": 8012,
      "anth": 8013,
      "casual": 8014,
      "eliz": 8015,
      "hɑli": 8016,
      "kɹawd": 8017,
      "kæʒəwəl": 8018,
      "ɡɹejd": 8019,
      "laid": 8020,
      "##icks": 8021,
      "data": 8022,
      "tam": 8023,
      "bart": 8024,
      "##ŋθ": 8025,
      "editor": 8026,
      "dejtə": 8027,
      "sport": 8028,
      "lajvz": 8029,
      "strike": 8030,
      "golden": 8031,
      "ənnown": 8032,
      "lʌ": 8033,
      "##ipl": 8034,
      "##æmi": 8035,
      "##stone": 8036,
      "spɔɹt": 8037,
      "illust": 8038,
      "fɪt": 8039,
      "##əliz": 8040,
      "consisted": 8041,
      "kənsɪstəd": 8042,
      "dream": 8043,
      "09": 8044,
      "##əwəlz": 8045,
      "convers": 8046,
      "dejbjud": 8047,
      "debuted": 8048,
      "sɛɹəmowni": 8049,
      "homer": 8050,
      "##əkət": 8051,
      "wɔlz": 8052,
      "lock": 8053,
      "##acity": 8054,
      "exec": 8055,
      "fɹænsɪs": 8056,
      "ɡaj": 8057,
      "1980s": 8058,
      "1980ɛs": 8059,
      "pæləs": 8060,
      "mænɹ": 8061,
      "walls": 8062,
      "lam": 8063,
      "interact": 8064,
      "##ads": 8065,
      "imag": 8066,
      "dɹim": 8067,
      "paj": 8068,
      "hændz": 8069,
      "ɡʌl": 8070,
      "sɛm": 8071,
      "1911": 8072,
      "pætɹn": 8073,
      "aired": 8074,
      "1929": 8075,
      "140": 8076,
      "argued": 8077,
      "hajdɹ": 8078,
      "negoti": 8079,
      "##ushed": 8080,
      "ɑɹɡjud": 8081,
      "kid": 8082,
      "mowtɹ": 8083,
      "hɑp": 8084,
      "tul": 8085,
      "kɹɪkət": 8086,
      "cant": 8087,
      "kəpæs": 8088,
      "##pool": 8089,
      "##ockey": 8090,
      "typically": 8091,
      "tɪpəkli": 8092,
      "sky": 8093,
      "kənæl": 8094,
      "##osen": 8095,
      "severe": 8096,
      "couple": 8097,
      "twajs": 8098,
      "mʊɹ": 8099,
      "albert": 8100,
      "georg": 8101,
      "watch": 8102,
      "lus": 8103,
      "howmɹ": 8104,
      "mawntəd": 8105,
      "mounted": 8106,
      "moment": 8107,
      "dʒud": 8108,
      "əpɪn": 8109,
      "pɑlɪʃ": 8110,
      "cine": 8111,
      "##emb": 8112,
      "reference": 8113,
      "twice": 8114,
      "klejmz": 8115,
      "claims": 8116,
      "bæsk": 8117,
      "hair": 8118,
      "murder": 8119,
      "ɑpəzɪʃən": 8120,
      "##rupt": 8121,
      "ənæləs": 8122,
      "affected": 8123,
      "əfɛktəd": 8124,
      "polish": 8125,
      "actors": 8126,
      "æktɹz": 8127,
      "tɹænzl": 8128,
      "1931": 8129,
      "lon": 8130,
      "stejʃənz": 8131,
      "fejst": 8132,
      "faced": 8133,
      "plænət": 8134,
      "animal": 8135,
      "stations": 8136,
      "##iles": 8137,
      "æns": 8138,
      "powers": 8139,
      "nations": 8140,
      "nejʃənz": 8141,
      "ælbɹt": 8142,
      "industrial": 8143,
      "ɪndʌstɹiəl": 8144,
      "##oty": 8145,
      "hæl": 8146,
      "store": 8147,
      "##elve": 8148,
      "opposition": 8149,
      "elimin": 8150,
      "1922": 8151,
      "wikli": 8152,
      "bʊʃ": 8153,
      "jon": 8154,
      "##əlɪŋ": 8155,
      "hɔɹsəz": 8156,
      "##ʌki": 8157,
      "mejntejnd": 8158,
      "sher": 8159,
      "kʌpəl": 8160,
      "maintained": 8161,
      "ænəməl": 8162,
      "technology": 8163,
      "trying": 8164,
      "ɹɛf": 8165,
      "tɹajɪŋ": 8166,
      "pawɹz": 8167,
      "pɹɑbləm": 8168,
      "tɛknɑlədʒi": 8169,
      "1970s": 8170,
      "1970ɛs": 8171,
      "value": 8172,
      "protection": 8173,
      "pɹətɛkʃən": 8174,
      "vɪzətəd": 8175,
      "visited": 8176,
      "ɪlɪmən": 8177,
      "horses": 8178,
      "ɹidʒ": 8179,
      "pɹɑf": 8180,
      "ɔɹdɹz": 8181,
      "orders": 8182,
      "##tʃuəl": 8183,
      "dur": 8184,
      "kɹɪtəsajzd": 8185,
      "glob": 8186,
      "criticized": 8187,
      "mænd": 8188,
      "tejlɹ": 8189,
      "kɛɹəlajnə": 8190,
      "lændɪŋ": 8191,
      "landing": 8192,
      "spowk": 8193,
      "əbdʒ": 8194,
      "##ʌkʃənz": 8195,
      "arrange": 8196,
      "kɑntɹæst": 8197,
      "accident": 8198,
      "səplaj": 8199,
      "tel": 8200,
      "delay": 8201,
      "entr": 8202,
      "fuel": 8203,
      "tech": 8204,
      "holly": 8205,
      "carolina": 8206,
      "1960s": 8207,
      "1960ɛs": 8208,
      "broken": 8209,
      "bɹowkən": 8210,
      "som": 8211,
      "sail": 8212,
      "##ɪɹow": 8213,
      "fully": 8214,
      "fʊli": 8215,
      "ɹɪn": 8216,
      "##dʒi": 8217,
      "dɹɑp": 8218,
      "resident": 8219,
      "bil": 8220,
      "gh": 8221,
      "ɹejz": 8222,
      "ɡɹowɪŋ": 8223,
      "growing": 8224,
      "##ears": 8225,
      "ɹɪsk": 8226,
      "label": 8227,
      "tʃowzən": 8228,
      "schedul": 8229,
      "##more": 8230,
      "chosen": 8231,
      "nowtəbəl": 8232,
      "sænt": 8233,
      "##əɡən": 8234,
      "##mann": 8235,
      "05": 8236,
      "##pton": 8237,
      "kɹt": 8238,
      "mɑs": 8239,
      "bʌdʒ": 8240,
      "notable": 8241,
      "##ælɪti": 8242,
      "mowʃən": 8243,
      "sikwəns": 8244,
      "motion": 8245,
      "twɛlv": 8246,
      "twelve": 8247,
      "honor": 8248,
      "sɪɹiəs": 8249,
      "##ym": 8250,
      "##lif": 8251,
      "cooper": 8252,
      "institute": 8253,
      "skɑtɪʃ": 8254,
      "scottish": 8255,
      "##əmət": 8256,
      "demonstr": 8257,
      "ɹɪd": 8258,
      "##eness": 8259,
      "poll": 8260,
      "##spɹ": 8261,
      "ɪkspæn": 8262,
      "lɪnd": 8263,
      "producers": 8264,
      "pɹədusɹz": 8265,
      "##ington": 8266,
      "fɹikwəntli": 8267,
      "frequently": 8268,
      "youth": 8269,
      "criticism": 8270,
      "sɛɡ": 8271,
      "##ɹut": 8272,
      "stɔɹil": 8273,
      "170": 8274,
      "səf": 8275,
      "dʌɡ": 8276,
      "inte": 8277,
      "##ploy": 8278,
      "sɛvənθ": 8279,
      "solo": 8280,
      "seventh": 8281,
      "adult": 8282,
      "mɹi": 8283,
      "##ɑkɹ": 8284,
      "##nəm": 8285,
      "ɪlɛktɹɪk": 8286,
      "bɑɹt": 8287,
      "fɹæntʃ": 8288,
      "ba": 8289,
      "table": 8290,
      "philos": 8291,
      "ədæpt": 8292,
      "wounded": 8293,
      "wundəd": 8294,
      "ɑɹθɹ": 8295,
      "joint": 8296,
      "##ɪlz": 8297,
      "##ʌŋkʃən": 8298,
      "mɛθəd": 8299,
      "penns": 8300,
      "##20": 8301,
      "dɹu": 8302,
      "turk": 8303,
      "looking": 8304,
      "accompan": 8305,
      "##awɹz": 8306,
      "##ejɡ": 8307,
      "tub": 8308,
      "condition": 8309,
      "kɑmɪk": 8310,
      "vice": 8311,
      "plane": 8312,
      "lʊkɪŋ": 8313,
      "benef": 8314,
      "newspaper": 8315,
      "##ici": 8316,
      "pɛnsəl": 8317,
      "oppos": 8318,
      "nuzpejpɹ": 8319,
      "sɹawndɪŋ": 8320,
      "surrounding": 8321,
      "ɹbən": 8322,
      "##vɹtɪd": 8323,
      "##ɹk": 8324,
      "bɪljən": 8325,
      "##vejn": 8326,
      "dɪɡɹi": 8327,
      "ɪndɪpɛndəns": 8328,
      "mʌz": 8329,
      "independence": 8330,
      "rhod": 8331,
      "opt": 8332,
      "degree": 8333,
      "ɑpɹejtəd": 8334,
      "operated": 8335,
      "pætɹ": 8336,
      "##agn": 8337,
      "mæt": 8338,
      "moon": 8339,
      "ɡowldən": 8340,
      "bɪs": 8341,
      "assembly": 8342,
      "bc": 8343,
      "nuclear": 8344,
      "billion": 8345,
      "republican": 8346,
      "ɹɪpʌblɪkən": 8347,
      "##ordin": 8348,
      "wɪk": 8349,
      "nukliɹ": 8350,
      "bʌs": 8351,
      "wɔtɹz": 8352,
      "comic": 8353,
      "urban": 8354,
      "juθ": 8355,
      "mɛʒɹ": 8356,
      "##wajz": 8357,
      "sɹvɪŋ": 8358,
      "serving": 8359,
      "caval": 8360,
      "chor": 8361,
      "lands": 8362,
      "grew": 8363,
      "dry": 8364,
      "##ayer": 8365,
      "kin": 8366,
      "creation": 8367,
      "kɹiejʃən": 8368,
      "sɪmpli": 8369,
      "simply": 8370,
      "##yle": 8371,
      "sɪtəz": 8372,
      "wɪlsən": 8373,
      "fɑlowz": 8374,
      "##ɪzəb": 8375,
      "pæθ": 8376,
      "follows": 8377,
      "lett": 8378,
      "##dʒd": 8379,
      "ɔltɹnətɪv": 8380,
      "əsɛmbli": 8381,
      "hat": 8382,
      "famous": 8383,
      "elev": 8384,
      "champion": 8385,
      "losing": 8386,
      "vote": 8387,
      "fejməs": 8388,
      "expansion": 8389,
      "nuli": 8390,
      "ɪləstɹ": 8391,
      "hɑɹbɹ": 8392,
      "luzɪŋ": 8393,
      "contained": 8394,
      "kəntejnd": 8395,
      "##aly": 8396,
      "habit": 8397,
      "##lam": 8398,
      "ɹænd": 8399,
      "ɹæm": 8400,
      "newly": 8401,
      "rival": 8402,
      "killing": 8403,
      "kɪlɪŋ": 8404,
      "lew": 8405,
      "1928": 8406,
      "incident": 8407,
      "passes": 8408,
      "pæsəz": 8409,
      "##ola": 8410,
      "hɹsɛlf": 8411,
      "herself": 8412,
      "##fɹt": 8413,
      "andrew": 8414,
      "##ifying": 8415,
      "weekly": 8416,
      "risk": 8417,
      "individuals": 8418,
      "ɪndəvɪdʒəwəlz": 8419,
      "object": 8420,
      "ends": 8421,
      "ɡejn": 8422,
      "ɛndz": 8423,
      "abb": 8424,
      "christmas": 8425,
      "kɹɪsməs": 8426,
      "##əsiz": 8427,
      "pɹɑɡɹ": 8428,
      "##hew": 8429,
      "bɑb": 8430,
      "##ucky": 8431,
      "nɔɹməl": 8432,
      "ʒɑn": 8433,
      "æpl": 8434,
      "##tw": 8435,
      "əpown": 8436,
      "##mɪʃən": 8437,
      "spin": 8438,
      "##ejpɹz": 8439,
      "oppon": 8440,
      "normal": 8441,
      "1925": 8442,
      "kɑntən": 8443,
      "agric": 8444,
      "##səlz": 8445,
      "skin": 8446,
      "##əsti": 8447,
      "ədʌlt": 8448,
      "##mission": 8449,
      "kæθlɪk": 8450,
      "heard": 8451,
      "##ajɹɪŋ": 8452,
      "honour": 8453,
      "perfect": 8454,
      "kævəl": 8455,
      "split": 8456,
      "nav": 8457,
      "homes": 8458,
      "##ivity": 8459,
      "##kh": 8460,
      "ɪnstɪt": 8461,
      "##ʃɪŋ": 8462,
      "fɹɛʃ": 8463,
      "kənsɛkjətɪv": 8464,
      "consecutive": 8465,
      "##mɛntəl": 8466,
      "##enger": 8467,
      "##ote": 8468,
      "pɹfəkt": 8469,
      "emphas": 8470,
      "wilson": 8471,
      "kəndɪʃən": 8472,
      "taylor": 8473,
      "crossing": 8474,
      "kɹɔsɪŋ": 8475,
      "##yth": 8476,
      "attrib": 8477,
      "jac": 8478,
      "kænɑt": 8479,
      "##itə": 8480,
      "measure": 8481,
      "cannot": 8482,
      "website": 8483,
      "wɛbsajt": 8484,
      "zown": 8485,
      "sʌbst": 8486,
      "volunt": 8487,
      "thing": 8488,
      "##ajtɪŋ": 8489,
      "evac": 8490,
      "supporting": 8491,
      "səpɔɹtɪŋ": 8492,
      "kəlʌmbiə": 8493,
      "##ɑkt": 8494,
      "cd": 8495,
      "consequ": 8496,
      "dɛməkɹætɪk": 8497,
      "əpowzd": 8498,
      "chose": 8499,
      "##fully": 8500,
      "fæ": 8501,
      "elizabeth": 8502,
      "##ajəns": 8503,
      "extr": 8504,
      "opposed": 8505,
      "perman": 8506,
      "ɡɹæf": 8507,
      "joe": 8508,
      "sequence": 8509,
      "##ickets": 8510,
      "1924": 8511,
      "##ographer": 8512,
      "nɛst": 8513,
      "orchest": 8514,
      "parall": 8515,
      "alexander": 8516,
      "ml": 8517,
      "##pow": 8518,
      "ɪvæk": 8519,
      "participated": 8520,
      "pɑɹtɪsəpejtəd": 8521,
      "kɹnəl": 8522,
      "##ojl": 8523,
      "historic": 8524,
      "wave": 8525,
      "##lows": 8526,
      "sɪnθ": 8527,
      "##bɹd": 8528,
      "##fti": 8529,
      "ɪlɪzəb": 8530,
      "kɑnsəkw": 8531,
      "kɑnv": 8532,
      "leadership": 8533,
      "rare": 8534,
      "adopted": 8535,
      "ədɑptəd": 8536,
      "pjʊɹ": 8537,
      "syn": 8538,
      "poly": 8539,
      "##resp": 8540,
      "lidɹʃɪp": 8541,
      "synt": 8542,
      "nut": 8543,
      "von": 8544,
      "eyes": 8545,
      "ʃɪɹ": 8546,
      "fresh": 8547,
      "ɪkspænʃən": 8548,
      "initi": 8549,
      "dɪsplej": 8550,
      "straight": 8551,
      "##gend": 8552,
      "##ɑdow": 8553,
      "capacity": 8554,
      "kəpæsəti": 8555,
      "tɹævəld": 8556,
      "əbændənd": 8557,
      "abandoned": 8558,
      "disease": 8559,
      "agricult": 8560,
      "ɡejt": 8561,
      "##ancing": 8562,
      "advant": 8563,
      "stændɪŋ": 8564,
      "standing": 8565,
      "rise": 8566,
      "fɪlmd": 8567,
      "kɹɪtɪk": 8568,
      "filmed": 8569,
      "fawndejʃən": 8570,
      "##iled": 8571,
      "tʃɛk": 8572,
      "famil": 8573,
      "plænts": 8574,
      "democratic": 8575,
      "##ədɔɹ": 8576,
      "07": 8577,
      "##isf": 8578,
      "visual": 8579,
      "##ɑtɪk": 8580,
      "themes": 8581,
      "θimz": 8582,
      "basis": 8583,
      "##wɪn": 8584,
      "junik": 8585,
      "##ɛndow": 8586,
      "bejsəs": 8587,
      "try": 8588,
      "negative": 8589,
      "##born": 8590,
      "##unz": 8591,
      "pennsylvania": 8592,
      "pɛnsəlvejn": 8593,
      "pɛnsəlvejnjə": 8594,
      "pɹəmowt": 8595,
      "ɹɛp": 8596,
      "budget": 8597,
      "plants": 8598,
      "deploy": 8599,
      "egg": 8600,
      "tɹnz": 8601,
      "ɪntɛnt": 8602,
      "##greg": 8603,
      "volume": 8604,
      "spr": 8605,
      "dɪfɛnsɪv": 8606,
      "rand": 8607,
      "arc": 8608,
      "1923": 8609,
      "sund": 8610,
      "kɑmjən": 8611,
      "kənkɹ": 8612,
      "failure": 8613,
      "fejljɹ": 8614,
      "##iəl": 8615,
      "thor": 8616,
      "##rid": 8617,
      "creating": 8618,
      "kɹiejtɪŋ": 8619,
      "##ɛktɹz": 8620,
      "fejvɹɪt": 8621,
      "challeng": 8622,
      "jump": 8623,
      "##owlə": 8624,
      "regarded": 8625,
      "ɹəɡɑɹdəd": 8626,
      "mike": 8627,
      "pɑsəbli": 8628,
      "hɪstɔɹɪk": 8629,
      "##isers": 8630,
      "kɹawn": 8631,
      "possibly": 8632,
      "tank": 8633,
      "conce": 8634,
      "tɹɛ": 8635,
      "subs": 8636,
      "##gal": 8637,
      "##nɪk": 8638,
      "sæmp": 8639,
      "tɹiti": 8640,
      "treaty": 8641,
      "harry": 8642,
      "irish": 8643,
      "fət": 8644,
      "##rane": 8645,
      "ajɹɪʃ": 8646,
      "bɑdiz": 8647,
      "clin": 8648,
      "bodies": 8649,
      "##ɑməd": 8650,
      "hæbət": 8651,
      "palace": 8652,
      "sɛkʃuəl": 8653,
      "mist": 8654,
      "##ʒənz": 8655,
      "distingu": 8656,
      "judge": 8657,
      "##ɑʒ": 8658,
      "dɪstɪŋɡw": 8659,
      "lady": 8660,
      "mɹdɹ": 8661,
      "trou": 8662,
      "girls": 8663,
      "spejn": 8664,
      "colonel": 8665,
      "foundation": 8666,
      "vɑlənt": 8667,
      "tɹʌ": 8668,
      "dɪklajn": 8669,
      "##ajzɪz": 8670,
      "##ɛti": 8671,
      "canal": 8672,
      "interchange": 8673,
      "mast": 8674,
      "domest": 8675,
      "æsk": 8676,
      "klɛɹ": 8677,
      "hajt": 8678,
      "##ko": 8679,
      "spain": 8680,
      "excl": 8681,
      "##wɪk": 8682,
      "ɡɹows": 8683,
      "##hɹ": 8684,
      "ideas": 8685,
      "ajdiəz": 8686,
      "hits": 8687,
      "kick": 8688,
      "##ɛvən": 8689,
      "legend": 8690,
      "pɪktʃɹ": 8691,
      "zone": 8692,
      "##isters": 8693,
      "bol": 8694,
      "retired": 8695,
      "dismiss": 8696,
      "advert": 8697,
      "ɹɪtajɹd": 8698,
      "wɪθdɹ": 8699,
      "##uses": 8700,
      "ridge": 8701,
      "horn": 8702,
      "surrender": 8703,
      "mud": 8704,
      "##ɔɹiənz": 8705,
      "fɹm": 8706,
      "extensive": 8707,
      "dəmɛst": 8708,
      "ɹejndʒd": 8709,
      "jow": 8710,
      "seat": 8711,
      "aid": 8712,
      "##azz": 8713,
      "ɹɛdɪŋ": 8714,
      "lap": 8715,
      "ɡɹlz": 8716,
      "hʌl": 8717,
      "jʌŋɡɹ": 8718,
      "hɑki": 8719,
      "younger": 8720,
      "##dy": 8721,
      "lic": 8722,
      "hockey": 8723,
      "kɑnstətuʃən": 8724,
      "scholars": 8725,
      "atm": 8726,
      "ɹejlɹowd": 8727,
      "tell": 8728,
      "##ejkɹ": 8729,
      "sul": 8730,
      "garden": 8731,
      "railroad": 8732,
      "basket": 8733,
      "bæskət": 8734,
      "fjuəl": 8735,
      "ædvænt": 8736,
      "wɔɹz": 8737,
      "lind": 8738,
      "01": 8739,
      "analysis": 8740,
      "ənæləsəs": 8741,
      "worth": 8742,
      "##mbɹɪdʒ": 8743,
      "classic": 8744,
      "##amm": 8745,
      "explos": 8746,
      "bishop": 8747,
      "dial": 8748,
      "##izes": 8749,
      "sʌnd": 8750,
      "##owb": 8751,
      "sie": 8752,
      "##liance": 8753,
      "opera": 8754,
      "##ɪtɪd": 8755,
      "franch": 8756,
      "ɑpɹə": 8757,
      "tawnz": 8758,
      "isra": 8759,
      "nəɡowʃi": 8760,
      "##lines": 8761,
      "sche": 8762,
      "assault": 8763,
      "əsɔlt": 8764,
      "chapt": 8765,
      "ɹɪpitɪd": 8766,
      "repeated": 8767,
      "vɹt": 8768,
      "cu": 8769,
      "ɪmpɹuvd": 8770,
      "improved": 8771,
      "merc": 8772,
      "ɡɑɹdən": 8773,
      "achieved": 8774,
      "ətʃivd": 8775,
      "drew": 8776,
      "1908": 8777,
      "bom": 8778,
      "roles": 8779,
      "lejdi": 8780,
      "ʌndɹt": 8781,
      "ændɹsən": 8782,
      "mah": 8783,
      "##rol": 8784,
      "##rich": 8785,
      "effective": 8786,
      "dɪvajs": 8787,
      "1909": 8788,
      "dɔɡ": 8789,
      "ɡɑmpl": 8790,
      "1990s": 8791,
      "1990ɛs": 8792,
      "1905": 8793,
      "bɹifli": 8794,
      "briefly": 8795,
      "core": 8796,
      "skɪn": 8797,
      "pɹɑmpt": 8798,
      "hay": 8799,
      "##onc": 8800,
      "glass": 8801,
      "##worth": 8802,
      "##anda": 8803,
      "mas": 8804,
      "gate": 8805,
      "simple": 8806,
      "ɹitɹit": 8807,
      "hope": 8808,
      "unsu": 8809,
      "fʌŋkʃən": 8810,
      "pɪn": 8811,
      "gameplay": 8812,
      "kɹəntli": 8813,
      "currently": 8814,
      "ɡɑmplej": 8815,
      "chamber": 8816,
      "ɪlɛvən": 8817,
      "ɡowz": 8818,
      "##owledge": 8819,
      "banks": 8820,
      "hawshowld": 8821,
      "household": 8822,
      "necessary": 8823,
      "nɛsəsɛɹi": 8824,
      "105": 8825,
      "kɹɑn": 8826,
      "θɹown": 8827,
      "vihɪkəlz": 8828,
      "vehicles": 8829,
      "nɪkəl": 8830,
      "ɡɹæntəd": 8831,
      "granted": 8832,
      "ɪkɑnəmi": 8833,
      "merch": 8834,
      "economy": 8835,
      "defensive": 8836,
      "æɹəb": 8837,
      "gather": 8838,
      "regional": 8839,
      "arthur": 8840,
      "mɹin": 8841,
      "sajəntɪfɪk": 8842,
      "purpose": 8843,
      "##ɛnə": 8844,
      "kætʃ": 8845,
      "125": 8846,
      "piano": 8847,
      "##uvəl": 8848,
      "ɹɪdʒɛktɪd": 8849,
      "piænow": 8850,
      "ɹidʒənəl": 8851,
      "rejected": 8852,
      "##əpɔɹ": 8853,
      "ejk": 8854,
      "citizens": 8855,
      "##bles": 8856,
      "flæt": 8857,
      "calc": 8858,
      "caught": 8859,
      "turns": 8860,
      "##hol": 8861,
      "mʌl": 8862,
      "##ejkən": 8863,
      "fame": 8864,
      "ped": 8865,
      "##oted": 8866,
      "organized": 8867,
      "recently": 8868,
      "ɹisəntli": 8869,
      "note": 8870,
      "braz": 8871,
      "##under": 8872,
      "ɹɑd": 8873,
      "kilometres": 8874,
      "kɪlɑmtɹz": 8875,
      "sell": 8876,
      "##cing": 8877,
      "kir": 8878,
      "bright": 8879,
      "lɛtɹz": 8880,
      "##och": 8881,
      "ætməs": 8882,
      "ɪkspændəd": 8883,
      "receive": 8884,
      "expanded": 8885,
      "lit": 8886,
      "sɛkəndɛɹi": 8887,
      "secondary": 8888,
      "ɪkskl": 8889,
      "province": 8890,
      "pɹɑvəns": 8891,
      "lown": 8892,
      "atmosp": 8893,
      "authorities": 8894,
      "əθɔɹətiz": 8895,
      "flʌdɪŋ": 8896,
      "flooding": 8897,
      "ɪnsədənt": 8898,
      "jr": 8899,
      "kəmɪʃənd": 8900,
      "commissioned": 8901,
      "03": 8902,
      "marine": 8903,
      "ɪlɪzəbəθ": 8904,
      "ɑpt": 8905,
      "##ji": 8906,
      "crim": 8907,
      "pɹowtɛst": 8908,
      "pɹəɡɹ": 8909,
      "skaj": 8910,
      "bɹif": 8911,
      "04": 8912,
      "##fɹɛnd": 8913,
      "164": 8914,
      "didn": 8915,
      "dɪdn": 8916,
      "online": 8917,
      "##akers": 8918,
      "roof": 8919,
      "ʌns": 8920,
      "bojz": 8921,
      "##fun": 8922,
      "##lusion": 8923,
      "types": 8924,
      "##əmɛntɹi": 8925,
      "ɔnlajn": 8926,
      "kel": 8927,
      "dʒɛɹ": 8928,
      "klæsɪk": 8929,
      "cavalry": 8930,
      "kævəlɹi": 8931,
      "undert": 8932,
      "1907": 8933,
      "ohio": 8934,
      "owhaj": 8935,
      "nɑk": 8936,
      "fæməliz": 8937,
      "families": 8938,
      "##stɹim": 8939,
      "səksɛsfəli": 8940,
      "successfully": 8941,
      "pɹfɔɹmɪŋ": 8942,
      "performing": 8943,
      "ble": 8944,
      "letters": 8945,
      "pejn": 8946,
      "fɹidəm": 8947,
      "determined": 8948,
      "freedom": 8949,
      "##ldʒ": 8950,
      "##arked": 8951,
      "lɪtɹətʃɹ": 8952,
      "divers": 8953,
      "fɔt": 8954,
      "dɪskɹajbz": 8955,
      "describes": 8956,
      "literature": 8957,
      "fought": 8958,
      "tajps": 8959,
      "##ɔks": 8960,
      "genus": 8961,
      "dʒinəs": 8962,
      "tail": 8963,
      "dɪtɹmənd": 8964,
      "165": 8965,
      "hɪnd": 8966,
      "narrow": 8967,
      "kɔŋ": 8968,
      "əsɪstənt": 8969,
      "ʃejp": 8970,
      "##water": 8971,
      "##ədɛlf": 8972,
      "assistant": 8973,
      "agent": 8974,
      "tʃejmbɹ": 8975,
      "picture": 8976,
      "unus": 8977,
      "sejfti": 8978,
      "safety": 8979,
      "ka": 8980,
      "##kins": 8981,
      "##oma": 8982,
      "##ading": 8983,
      "dram": 8984,
      "##adelph": 8985,
      "nutɹ": 8986,
      "mul": 8987,
      "soul": 8988,
      "sɛts": 8989,
      "##ənəs": 8990,
      "ækəd": 8991,
      "##hæps": 8992,
      "əpɡɹ": 8993,
      "upgr": 8994,
      "ejdʒənt": 8995,
      "goes": 8996,
      "custom": 8997,
      "sɪŋɪŋ": 8998,
      "singing": 8999,
      "prefer": 9000,
      "mɪlɹ": 9001,
      "##uate": 9002,
      "fɹiwej": 9003,
      "freeway": 9004,
      "plænɪŋ": 9005,
      "bʌdʒət": 9006,
      "acquired": 9007,
      "əkwajɹd": 9008,
      "ori": 9009,
      "fɪlədɛlf": 9010,
      "journey": 9011,
      "fu": 9012,
      "philadelph": 9013,
      "owhajow": 9014,
      "titles": 9015,
      "tajtəlz": 9016,
      "##tk": 9017,
      "vɪʒəwəl": 9018,
      "##ɛntʃəl": 9019,
      "suggests": 9020,
      "səɡdʒɛsts": 9021,
      "pən": 9022,
      "kɹɪtɪsɪzəm": 9023,
      "kɑmənli": 9024,
      "commonly": 9025,
      "bɛld": 9026,
      "##stream": 9027,
      "ɡɪvz": 9028,
      "gives": 9029,
      "planning": 9030,
      "bæŋks": 9031,
      "pɛɹəlɛl": 9032,
      "sajtəd": 9033,
      "##ʊɹəl": 9034,
      "centuries": 9035,
      "sɛntʃɹiz": 9036,
      "ɑɡ": 9037,
      "##ækʃənz": 9038,
      "ɹɑs": 9039,
      "səpɹim": 9040,
      "supreme": 9041,
      "kəmpɛɹ": 9042,
      "##jələ": 9043,
      "dʒɔɹdʒə": 9044,
      "bid": 9045,
      "##stin": 9046,
      "ron": 9047,
      "mɛnʃənd": 9048,
      "mentioned": 9049,
      "kʌstəm": 9050,
      "ɔɹi": 9051,
      "##illa": 9052,
      "sajk": 9053,
      "vac": 9054,
      "cambridge": 9055,
      "kejmbɹɪdʒ": 9056,
      "georgia": 9057,
      "shel": 9058,
      "hydro": 9059,
      "height": 9060,
      "deck": 9061,
      "kəntɹowld": 9062,
      "skɛdʒʊld": 9063,
      "controlled": 9064,
      "scheduled": 9065,
      "##tɹəs": 9066,
      "##iments": 9067,
      "##iana": 9068,
      "kəntejn": 9069,
      "revol": 9070,
      "contain": 9071,
      "ɹɑn": 9072,
      "##əfəkejʃənz": 9073,
      "##oln": 9074,
      "pɹowɡɹæmz": 9075,
      "##ələnd": 9076,
      "sets": 9077,
      "##ɹətɪv": 9078,
      "sɛʃən": 9079,
      "##inn": 9080,
      "pɪl": 9081,
      "ɛnl": 9082,
      "protect": 9083,
      "fɪlədɛlfiə": 9084,
      "myth": 9085,
      "philadelphia": 9086,
      "victim": 9087,
      "shooting": 9088,
      "ʃutɪŋ": 9089,
      "kənvɛnʃən": 9090,
      "paint": 9091,
      "kʊk": 9092,
      "spɪn": 9093,
      "alternative": 9094,
      "ɔθ": 9095,
      "convention": 9096,
      "##haps": 9097,
      "cool": 9098,
      "pɹɑɡɹɛs": 9099,
      "##ɔɹf": 9100,
      "##attle": 9101,
      "chance": 9102,
      "##æktɪv": 9103,
      "pɹtʃəs": 9104,
      "##wall": 9105,
      "##aver": 9106,
      "pɹhæps": 9107,
      "##umz": 9108,
      "perhaps": 9109,
      "regarding": 9110,
      "ɹəɡɑɹdɪŋ": 9111,
      "dɛns": 9112,
      "##han": 9113,
      "virt": 9114,
      "unique": 9115,
      "da": 9116,
      "##vəst": 9117,
      "tækt": 9118,
      "prote": 9119,
      "ɹiækʃən": 9120,
      "reaction": 9121,
      "##outs": 9122,
      "##ala": 9123,
      "##aven": 9124,
      "##bt": 9125,
      "##ɪɹiə": 9126,
      "ɹʌʃə": 9127,
      "fajndz": 9128,
      "finds": 9129,
      "principal": 9130,
      "dajm": 9131,
      "tejbəl": 9132,
      "æstɹ": 9133,
      "save": 9134,
      "witness": 9135,
      "ɪstejt": 9136,
      "russia": 9137,
      "##sn": 9138,
      "kɔɹiən": 9139,
      "withdraw": 9140,
      "submar": 9141,
      "##cest": 9142,
      "estate": 9143,
      "extrem": 9144,
      "jos": 9145,
      "integr": 9146,
      "hɔɹn": 9147,
      "facilities": 9148,
      "fəsɪlətiz": 9149,
      "ədmɪn": 9150,
      "amp": 9151,
      "specim": 9152,
      "sɛlz": 9153,
      "az": 9154,
      "##ux": 9155,
      "demand": 9156,
      "recru": 9157,
      "reading": 9158,
      "##ci": 9159,
      "tɔɹpidow": 9160,
      "korean": 9161,
      "gain": 9162,
      "stɛp": 9163,
      "bɹk": 9164,
      "tɹejnz": 9165,
      "##aud": 9166,
      "kəntejnɪŋ": 9167,
      "##həm": 9168,
      "##ejnt": 9169,
      "##inger": 9170,
      "##ʌʃən": 9171,
      "containing": 9172,
      "mɹt": 9173,
      "session": 9174,
      "##umes": 9175,
      "kit": 9176,
      "linc": 9177,
      "exchange": 9178,
      "##əɡɹæfɪk": 9179,
      "əkʌmpənid": 9180,
      "accompanied": 9181,
      "##ɪnəti": 9182,
      "rated": 9183,
      "ɹejtəd": 9184,
      "pɹajz": 9185,
      "arrival": 9186,
      "360": 9187,
      "pæt": 9188,
      "teach": 9189,
      "ənju": 9190,
      "scientific": 9191,
      "sʌbmɹ": 9192,
      "mouth": 9193,
      "nintend": 9194,
      "bowts": 9195,
      "kɑlən": 9196,
      "belong": 9197,
      "bɪlɔŋ": 9198,
      "fajtɹ": 9199,
      "tact": 9200,
      "price": 9201,
      "finish": 9202,
      "tʌtʃdawn": 9203,
      "touchdown": 9204,
      "crime": 9205,
      "fighter": 9206,
      "ceremony": 9207,
      "jenn": 9208,
      "ɹɛslɪŋ": 9209,
      "wrestling": 9210,
      "es": 9211,
      "boats": 9212,
      "fro": 9213,
      "sajl": 9214,
      "kwajt": 9215,
      "liverpool": 9216,
      "lɪvɹpul": 9217,
      "sæŋk": 9218,
      "##utation": 9219,
      "quite": 9220,
      "##wɔtɹ": 9221,
      "evening": 9222,
      "ivnɪŋ": 9223,
      "1906": 9224,
      "səlɛkʃən": 9225,
      "selection": 9226,
      "rules": 9227,
      "tæŋk": 9228,
      "nintendo": 9229,
      "##bd": 9230,
      "nɪnt": 9231,
      "skɑlɹ": 9232,
      "sɪmpəl": 9233,
      "hæn": 9234,
      "moder": 9235,
      "entirely": 9236,
      "ɪntajɹli": 9237,
      "nɪntɛndow": 9238,
      "##station": 9239,
      "trains": 9240,
      "mɔɹt": 9241,
      "sawθwɛst": 9242,
      "1904": 9243,
      "pɹətɛkt": 9244,
      "hɪts": 9245,
      "əns": 9246,
      "mand": 9247,
      "asia": 9248,
      "ɹulz": 9249,
      "columbia": 9250,
      "existing": 9251,
      "ɪɡzɪstɪŋ": 9252,
      "##agan": 9253,
      "kɑnstənt": 9254,
      "ejʒə": 9255,
      "mits": 9256,
      "##apped": 9257,
      "ɹistɹ": 9258,
      "nɛɹow": 9259,
      "##wɹθ": 9260,
      "dedicated": 9261,
      "dɛdəkejtəd": 9262,
      "ɪntɛnsəti": 9263,
      "intensity": 9264,
      "brid": 9265,
      "bɹəz": 9266,
      "kɑntɹəvɹs": 9267,
      "climb": 9268,
      "ændɹu": 9269,
      "firm": 9270,
      "contributed": 9271,
      "kəntɹɪbjutɪd": 9272,
      "locations": 9273,
      "lowkejʃənz": 9274,
      "##bu": 9275,
      "fash": 9276,
      "cloud": 9277,
      "kʌlt": 9278,
      "##əlajzd": 9279,
      "singap": 9280,
      "dʒuɪʃ": 9281,
      "##cel": 9282,
      "jewish": 9283,
      "brand": 9284,
      "pɹtʃəst": 9285,
      "purchased": 9286,
      "pʌblɪʃ": 9287,
      "dʒɛ": 9288,
      "kim": 9289,
      "bætɹi": 9290,
      "casualties": 9291,
      "kæʒəwəltiz": 9292,
      "##pɑnd": 9293,
      "provides": 9294,
      "pɹəvajdz": 9295,
      "windows": 9296,
      "##æmə": 9297,
      "##amin": 9298,
      "transform": 9299,
      "resemb": 9300,
      "whit": 9301,
      "grey": 9302,
      "laws": 9303,
      "ax": 9304,
      "##fə": 9305,
      "brazil": 9306,
      "campus": 9307,
      "tag": 9308,
      "heads": 9309,
      "kæmpəs": 9310,
      "battery": 9311,
      "læp": 9312,
      "wɪndowz": 9313,
      "kings": 9314,
      "##ds": 9315,
      "##jʊɹd": 9316,
      "##room": 9317,
      "bɹajt": 9318,
      "ɹɪzɪstəns": 9319,
      "fɹɡ": 9320,
      "resistance": 9321,
      "advantage": 9322,
      "page": 9323,
      "##oses": 9324,
      "##əfi": 9325,
      "carey": 9326,
      "remix": 9327,
      "occupied": 9328,
      "ɑkjəpajd": 9329,
      "##ulate": 9330,
      "əkl": 9331,
      "##inity": 9332,
      "##ajɹmənt": 9333,
      "tɹejs": 9334,
      "##ɪʃə": 9335,
      "boys": 9336,
      "ɡʌlf": 9337,
      "eighth": 9338,
      "kɑɹz": 9339,
      "pʌbləkejʃən": 9340,
      "publication": 9341,
      "ejtθ": 9342,
      "fɹænsɪskow": 9343,
      "sites": 9344,
      "francisco": 9345,
      "rub": 9346,
      "##wɔl": 9347,
      "##respond": 9348,
      "##ækts": 9349,
      "correspond": 9350,
      "howldɪŋ": 9351,
      "holding": 9352,
      "basketball": 9353,
      "bæskətbɔl": 9354,
      "singapore": 9355,
      "hms": 9356,
      "lɔz": 9357,
      "lincoln": 9358,
      "##ɹvd": 9359,
      "dʒɛnɹejʃən": 9360,
      "gib": 9361,
      "##əksɛs": 9362,
      "lɪŋkən": 9363,
      "115": 9364,
      "kɔɹnɹ": 9365,
      "ɹɪzɛmb": 9366,
      "hyp": 9367,
      "towns": 9368,
      "lt": 9369,
      "pa": 9370,
      "emerg": 9371,
      "θɹow": 9372,
      "gulf": 9373,
      "ɛdətɹ": 9374,
      "##ɛtʃ": 9375,
      "##ʌvɹd": 9376,
      "##ables": 9377,
      "bun": 9378,
      "pɪt": 9379,
      "dɹɔn": 9380,
      "kowstəl": 9381,
      "wejz": 9382,
      "gay": 9383,
      "kəmpit": 9384,
      "protected": 9385,
[...]
