{
  "version": "1.0",
  "truncation": null,
  "padding": null,
  "added_tokens": [
    {
      "id": 0,
      "content": "[UNK]",
      "single_word": false,
      "lstrip": false,
      "rstrip": false,
      "normalized": false,
      "special": true
    },
    {
      "id": 1,
      "content": "[CLS]",
      "single_word": false,
      "lstrip": false,
      "rstrip": false,
      "normalized": false,
      "special": true
    },
    {
      "id": 2,
      "content": "[SEP]",
      "single_word": false,
      "lstrip": false,
      "rstrip": false,
      "normalized": false,
      "special": true
    },
    {
      "id": 3,
      "content": "[PAD]",
      "single_word": false,
      "lstrip": false,
      "rstrip": false,
      "normalized": false,
      "special": true
    },
    {
      "id": 4,
      "content": "[MASK]",
      "single_word": false,
      "lstrip": false,
      "rstrip": false,
      "normalized": false,
      "special": true
    }
  ],
  "normalizer": null,
  "pre_tokenizer": {
    "type": "Whitespace"
  },
  "post_processor": {
    "type": "TemplateProcessing",
    "single": [
      {
        "SpecialToken": {
          "id": "[CLS]",
          "type_id": 0
        }
      },
      {
        "Sequence": {
          "id": "A",
          "type_id": 0
        }
      },
      {
        "SpecialToken": {
          "id": "[SEP]",
          "type_id": 0
        }
      }
    ],
    "pair": [
      {
        "SpecialToken": {
          "id": "[CLS]",
          "type_id": 0
        }
      },
      {
        "Sequence": {
          "id": "A",
          "type_id": 0
        }
      },
      {
        "SpecialToken": {
          "id": "[SEP]",
          "type_id": 0
        }
      },
      {
        "Sequence": {
          "id": "B",
          "type_id": 1
        }
      },
      {
        "SpecialToken": {
          "id": "[SEP]",
          "type_id": 1
        }
      }
    ],
    "special_tokens": {
      "[CLS]": {
        "id": "[CLS]",
        "ids": [
          1
        ],
        "tokens": [
          "[CLS]"
        ]
      },
      "[SEP]": {
        "id": "[SEP]",
        "ids": [
          2
        ],
        "tokens": [
          "[SEP]"
        ]
      }
    }
  },
  "decoder": null,
  "model": {
    "type": "BPE",
    "dropout": null,
    "unk_token": "[UNK]",
    "continuing_subword_prefix": null,
    "end_of_word_suffix": null,
    "fuse_unk": false,
    "byte_fallback": false,
    "ignore_merges": false,
    "vocab": {
      "[UNK]": 0,
      "[CLS]": 1,
      "[SEP]": 2,
      "[PAD]": 3,
      "[MASK]": 4,
      "=": 5,
      "@": 6,
      "A": 7,
      "D": 8,
      "E": 9,
      "I": 10,
      "N": 11,
      "O": 12,
      "S": 13,
      "T": 14,
      "U": 15,
      "V": 16,
      "Z": 17,
      "\\": 18,
      "a": 19,
      "b": 20,
      "d": 21,
      "e": 22,
      "f": 23,
      "g": 24,
      "h": 25,
      "i": 26,
      "j": 27,
      "k": 28,
      "l": 29,
      "m": 30,
      "n": 31,
      "o": 32,
      "p": 33,
      "r": 34,
      "s": 35,
      "t": 36,
      "u": 37,
      "v": 38,
      "w": 39,
      "z": 40,
      "{": 41,
      "aj": 42,
      "\\=": 43,
      "ej": 44,
      "nd": 45,
      "ow": 46,
      "IN": 47,
      "st": 48,
      "In": 49,
      "Or": 50,
      "En": 51,
      "aw": 52,
      "It": 53,
      "hI": 54,
      "li": 55,
      "Vv": 56,
      "ju": 57,
      "wA": 58,
      "hi": 59,
      "Er": 60,
      "nt": 61,
      "hr": 62,
      "Ar": 63,
      "wAz": 64,
      "dZ": 65,
      "Vt": 66,
      "tr": 67,
      "Si": 68,
      "maj": 69,
      "wI": 70,
      "hIz": 71,
      "Vm": 72,
      "ti": 73,
      "El": 74,
      "tS": 75,
      "Es": 76,
      "Ed": 77,
      "fr": 78,
      "fOr": 79,
      "Ud": 80,
      "pr": 81,
      "Ik": 82,
      "An": 83,
      "mi": 84,
      "Ol": 85,
      "Is": 86,
      "laj": 87,
      "ld": 88,
      "awt": 89,
      "vr": 90,
      "kt": 91,
      "Vn": 92,
      "Id": 93,
      "At": 94,
      "gr": 95,
      "wID": 96,
      "br": 97,
      "bi": 98,
      "wr": 99,
      "\\@": 100,
      "now": 101,
      "Iz": 102,
      "di": 103,
      "Em": 104,
      "bVt": 105,
      "kr": 106,
      "TIN": 107,
      "hIm": 108,
      "Et": 109,
      "wej": 110,
      "wi": 111,
      "tu": 112,
      "Il": 113,
      "Dr": 114,
      "si": 115,
      "ajt": 116,
      "du": 117,
      "wVn": 118,
      "Ir": 119,
      "dr": 120,
      "\\{": 121,
      "mej": 122,
      "Vp": 123,
      "If": 124,
      "str": 125,
      "ajd": 126,
      "DEr": 127,
      "sow": 128,
      "wVt": 129,
      "sp": 130,
      "bI": 131,
      "low": 132,
      "nAt": 133,
      "lej": 134,
      "Evr": 135,
      "sEd": 136,
      "Dej": 137,
      "ks": 138,
      "Vst": 139,
      "dId": 140,
      "DIs": 141,
      "kIN": 142,
      "awnd": 143,
      "pt": 144,
      "own": 145,
      "ns": 146,
      "wEn": 147,
      "gow": 148,
      "sVm": 149,
      "wUd": 150,
      "oj": 151,
      "ajz": 152,
      "kUd": 153,
      "taj": 154,
      "Tr": 155,
      "lU": 156,
      "ejt": 157,
      "lajk": 158,
      "Ek": 159,
      "Im": 160,
      "owld": 161,
      "nz": 162,
      "VDr": 163,
      "sk": 164,
      "ni": 165,
      "waj": 166,
      "Eni": 167,
      "Iv": 168,
      "Est": 169,
      "dZVst": 170,
      "End": 171,
      "awn": 172,
      "haw": 173,
      "Intu": 174,
      "bawt": 175,
      "bl": 176,
      "ejs": 177,
      "sej": 178,
      "tej": 179,
      "owz": 180,
      "mOr": 181,
      "DEn": 182,
      "kA": 183,
      "bIn": 184,
      "owvr": 185,
      "DEm": 186,
      "jOr": 187,
      "wAnt": 188,
      "tajm": 189,
      "ts": 190,
      "Ip": 191,
      "faj": 192,
      "fi": 193,
      "gEt": 194,
      "sr": 195,
      "lO": 196,
      "kej": 197,
      "lz": 198,
      "baj": 199,
      "mow": 200,
      "dawn": 201,
      "iz": 202,
      "lE": 203,
      "ndr": 204,
      "lIN": 205,
      "sEl": 206,
      "hEd": 207,
      "awr": 208,
      "gEn": 209,
      "Of": 210,
      "wEr": 211,
      "sajd": 212,
      "iv": 213,
      "hIr": 214,
      "Ur": 215,
      "kl": 216,
      "nu": 217,
      "pi": 218,
      "naw": 219,
      "nIN": 220,
      "VtS": 221,
      "pU": 222,
      "Ent": 223,
      "Ist": 224,
      "dej": 225,
      "kVm": 226,
      "zd": 227,
      "IS": 228,
      "hu": 229,
      "sElf": 230,
      "how": 231,
      "wOr": 232,
      "hEl": 233,
      "fl": 234,
      "um": 235,
      "ItS": 236,
      "Vndr": 237,
      "dz": 238,
      "vi": 239,
      "Ot": 240,
      "plej": 241,
      "hAr": 242,
      "Uk": 243,
      "Ap": 244,
      "Vs": 245,
      "dIs": 246,
      "bIfOr": 247,
      "bA": 248,
      "lON": 249,
      "ndZ": 250,
      "mz": 251,
      "gowIN": 252,
      "\\=@": 253,
      "wIl": 254,
      "wEl": 255,
      "Ekt": 256,
      "ft": 257,
      "mu": 258,
      "bIk": 259,
      "Ig": 260,
      "wO": 261,
      "ownli": 262,
      "VN": 263,
      "pej": 264,
      "md": 265,
      "ftr": 266,
      "lUkt": 267,
      "fejs": 268,
      "dOr": 269,
      "klow": 270,
      "TINk": 271,
      "lIt": 272,
      "ki": 273,
      "lr": 274,
      "ndz": 275,
      "gej": 276,
      "mp": 277,
      "tli": 278,
      "nid": 279,
      "haj": 280,
      "stIl": 281,
      "tIN": 282,
      "Ad": 283,
      "gl": 284,
      "tEl": 285,
      "itS": 286,
      "Ili": 287,
      "sVmTIN": 288,
      "nej": 289,
      "gAt": 290,
      "lEt": 291,
      "tejk": 292,
      "vd": 293,
      "Vnt": 294,
      "gUd": 295,
      "fEl": 296,
      "pAr": 297,
      "fju": 298,
      "nEvr": 299,
      "Oz": 300,
      "mr": 301,
      "najt": 302,
      "Ak": 303,
      "TOt": 304,
      "kOr": 305,
      "Vf": 306,
      "sE": 307,
      "mejd": 308,
      "skt": 309,
      "fA": 310,
      "tSr": 311,
      "sli": 312,
      "owp": 313,
      "lUk": 314,
      "Its": 315,
      "stAr": 316,
      "Am": 317,
      "nr": 318,
      "mowst": 319,
      "sm": 320,
      "Ab": 321,
      "mVtS": 322,
      "liv": 323,
      "smaj": 324,
      "bIkOz": 325,
      "saj": 326,
      "SUr": 327,
      "pl": 328,
      "bIg": 329,
      "mejk": 330,
      "Vd": 331,
      "Nk": 332,
      "ps": 333,
      "ojs": 334,
      "Ins": 335,
      "gIv": 336,
      "lu": 337,
      "bow": 338,
      "bIt": 339,
      "wItS": 340,
      "bAdi": 341,
      "spr": 342,
      "owk": 343,
      "lVv": 344,
      "nEk": 345,
      "Iksp": 346,
      "kOl": 347,
      "kAr": 348,
      "tO": 349,
      "nts": 350,
      "Istr": 351,
      "Al": 352,
      "Edi": 353,
      "Vg": 354,
      "fElt": 355,
      "id": 356,
      "kw": 357,
      "tSt": 358,
      "sl": 359,
      "tUk": 360,
      "owl": 361,
      "ejndZ": 362,
      "Vk": 363,
      "Sr": 364,
      "stEr": 365,
      "vEr": 366,
      "vojs": 367,
      "ET": 368,
      "pIN": 369,
      "su": 370,
      "lajt": 371,
      "ejS": 372,
      "it": 373,
      "mAr": 374,
      "St": 375,
      "vIN": 376,
      "dAr": 377,
      "jr": 378,
      "skr": 379,
      "gEnst": 380,
      "maw": 381,
      "hEr": 382,
      "Ept": 383,
      "SUd": 384,
      "sO": 385,
      "lajf": 386,
      "kEr": 387,
      "Dow": 388,
      "ejd": 389,
      "pip": 390,
      "wajl": 391,
      "lEft": 392,
      "kejm": 393,
      "fIN": 394,
      "pA": 395,
      "towld": 396,
      "IdZ": 397,
      "kAn": 398,
      "nVDr": 399,
      "nV": 400,
      "majnd": 401,
      "owt": 402,
      "sIN": 403,
      "nsr": 404,
      "fajn": 405,
      "tEn": 406,
      "ejn": 407,
      "Vb": 408,
      "ES": 409,
      "wU": 410,
      "wejz": 411,
      "EniTIN": 412,
      "bli": 413,
      "mowm": 414,
      "fajnd": 415,
      "biIN": 416,
      "Iks": 417,
      "sEn": 418,
      "ejk": 419,
      "nVTIN": 420,
      "hajnd": 421,
      "plejs": 422,
      "pEr": 423,
      "fil": 424,
      "ajIN": 425,
      "dow": 426,
      "bIhajnd": 427,
      "bE": 428,
      "wEnt": 429,
      "ajr": 430,
      "dowz": 431,
      "InVf": 432,
      "Intr": 433,
      "poj": 434,
      "jIr": 435,
      "owldr": 436,
      "sEt": 437,
      "bEd": 438,
      "EDr": 439,
      "fU": 440,
      "ON": 441,
      "haws": 442,
      "majt": 443,
      "sEk": 444,
      "sawnd": 445,
      "Vl": 446,
      "Iti": 447,
      "ul": 448,
      "ntr": 449,
      "TINz": 450,
      "ntIl": 451,
      "pli": 452,
      "Ikt": 453,
      "in": 454,
      "Apt": 455,
      "Ild": 456,
      "pOr": 457,
      "Ips": 458,
      "mejbi": 459,
      "Dowz": 460,
      "mIn": 461,
      "mEn": 462,
      "pUt": 463,
      "zIN": 464,
      "vz": 465,
      "Embr": 466,
      "On": 467,
      "Os": 468,
      "lUkIN": 469,
      "fINgr": 470,
      "win": 471,
      "pIr": 472,
      "nOr": 473,
      "jEs": 474,
      "wVns": 475,
      "bEr": 476,
      "howld": 477,
      "kli": 478,
      "owd": 479,
      "awd": 480,
      "jUr": 481,
      "pojnt": 482,
      "bIl": 483,
      "wIT": 484,
      "Olwejz": 485,
      "bowT": 486,
      "Olr": 487,
      "ntli": 488,
      "fawnd": 489,
      "Insajd": 490,
      "nEkst": 491,
      "gz": 492,
      "Vvr": 493,
      "mEr": 494,
      "Ind": 495,
      "kaj": 496,
      "hElp": 497,
      "howm": 498,
      "dZr": 499,
      "stej": 500,
      "Igz": 501,
      "Inst": 502,
      "hju": 503,
      "ajm": 504,
      "stUd": 505,
      "wITawt": 506,
      "fADr": 507,
      "mawT": 508,
      "ajv": 509,
      "wejt": 510,
      "fAr": 511,
      "sin": 512,
      "im": 513,
      "mVDr": 514,
      "kip": 515,
      "Ez": 516,
      "naj": 517,
      "kaw": 518,
      "nAd": 519,
      "wUm": 520,
      "kwI": 521,
      "sejm": 522,
      "Itr": 523,
      "gAr": 524,
      "Ev": 525,
      "ud": 526,
      "stAp": 527,
      "Ep": 528,
      "iTIN": 529,
      "Sowldr": 530,
      "sVmwVn": 531,
      "hImsElf": 532,
      "nli": 533,
      "Ift": 534,
      "fej": 535,
      "slow": 536,
      "bEtr": 537,
      "pUld": 538,
      "nIr": 539,
      "dI": 540,
      "owkej": 541,
      "tSIN": 542,
      "tId": 543,
      "bItwin": 544,
      "boj": 545,
      "simd": 546,
      "wOl": 547,
      "wInd": 548,
      "smajl": 549,
      "il": 550,
      "fOl": 551,
      "smOl": 552,
      "sIns": 553,
      "mIs": 554,
      "sOr": 555,
      "sn": 556,
      "ndIN": 557,
      "sVn": 558,
      "majsElf": 559,
      "lowd": 560,
      "gejv": 561,
      "dVn": 562,
      "Olmowst": 563,
      "Els": 564,
      "tSi": 565,
      "hej": 566,
      "blVd": 567,
      "stOr": 568,
      "mVst": 569,
      "Ant": 570,
      "kVvr": 571,
      "min": 572,
      "ImEmbr": 573,
      "Ef": 574,
      "duIN": 575,
      "lIps": 576,
      "downt": 577,
      "sAr": 578,
      "muv": 579,
      "gEDr": 580,
      "fajr": 581,
      "sIt": 582,
      "wOtr": 583,
      "wOkt": 584,
      "nIk": 585,
      "Sej": 586,
      "flOr": 587,
      "fit": 588,
      "wVndr": 589,
      "klows": 590,
      "Ipt": 591,
      "mEnt": 592,
      "nowt": 593,
      "bej": 594,
      "hEld": 595,
      "bAr": 596,
      "lAt": 597,
      "EstS": 598,
      "tVtS": 599,
      "tEr": 600,
      "dIdnt": 601,
      "hOr": 602,
      "lA": 603,
      "mEni": 604,
      "Diz": 605,
      "kajnd": 606,
      "zi": 607,
      "kIl": 608,
      "dZd": 609,
      "nA": 610,
      "klIr": 611,
      "tajmz": 612,
      "list": 613,
      "tejb": 614,
      "mVn": 615,
      "gAd": 616,
      "filIN": 617,
      "muvd": 618,
      "lajd": 619,
      "tSejndZ": 620,
      "juzd": 621,
      "kow": 622,
      "kwaj": 623,
      "sEz": 624,
      "tajr": 625,
      "kwEstS": 626,
      "sIm": 627,
      "jEt": 628,
      "dZi": 629,
      "ut": 630,
      "fown": 631,
      "daj": 632,
      "bOr": 633,
      "kVmIN": 634,
      "ajdi": 635,
      "nejm": 636,
      "tOk": 637,
      "ilaj": 638,
      "nst": 639,
      "gOn": 640,
      "howl": 641,
      "smajld": 642,
      "Vz": 643,
      "pIk": 644,
      "gEtIN": 645,
      "dip": 646,
      "VS": 647,
      "pawr": 648,
      "fIr": 649,
      "lEs": 650,
      "wIspr": 651,
      "lAr": 652,
      "dEd": 653,
      "Olsow": 654,
      "Inv": 655,
      "bIliv": 656,
      "EkS": 657,
      "sajl": 658,
      "kOld": 659,
      "tSEst": 660,
      "sw": 661,
      "pejn": 662,
      "Int": 663,
      "SUk": 664,
      "jus": 665,
      "lIs": 666,
      "mIN": 667,
      "kVp": 668,
      "EdZ": 669,
      "ajzd": 670,
      "wow": 671,
      "sEnt": 672,
      "tAp": 673,
      "sVd": 674,
      "sVtS": 675,
      "hjum": 676,
      "Eks": 677,
      "itSt": 678,
      "Enr": 679,
      "mEt": 680,
      "tajt": 681,
      "lOr": 682,
      "lown": 683,
      "dIz": 684,
      "wajt": 685,
      "lejtr": 686,
      "pAs": 687,
      "lajn": 688,
      "sIk": 689,
      "VNk": 690,
      "bEst": 691,
      "Endz": 692,
      "kIs": 693,
      "kAm": 694,
      "Inju": 695,
      "lajv": 696,
      "mIstr": 697,
      "ejtIN": 698,
      "skIn": 699,
      "vaj": 700,
      "mejkIN": 701,
      "fUl": 702,
      "bd": 703,
      "stApt": 704,
      "ik": 705,
      "ntInju": 706,
      "dejz": 707,
      "bIs": 708,
      "sun": 709,
      "powz": 710,
      "INz": 711,
      "lIv": 712,
      "kAt": 713,
      "EniwVn": 714,
      "tSEr": 715,
      "tejkIN": 716,
      "ejtId": 717,
      "wik": 718,
      "jut": 719,
      "mIst": 720,
      "up": 721,
      "mIl": 722,
      "iwVn": 723,
      "dIfr": 724,
      "ejb": 725,
      "blu": 726,
      "Entr": 727,
      "fIn": 728,
      "sA": 729,
      "SOr": 730,
      "ndZr": 731,
      "hOl": 732,
      "mAm": 733,
      "tOr": 734,
      "bAt": 735,
      "hA": 736,
      "nowz": 737,
      "kEpt": 738,
      "gaj": 739,
      "dZu": 740,
      "Isp": 741,
      "INk": 742,
      "ktli": 743,
      "ktS": 744,
      "jVN": 745,
      "sEns": 746,
      "bIsajd": 747,
      "dIN": 748,
      "mju": 749,
      "kwIkli": 750,
      "kId": 751,
      "IkspEkt": 752,
      "tIk": 753,
      "fajt": 754,
      "dli": 755,
      "lejt": 756,
      "slip": 757,
      "tEm": 758,
      "tEnS": 759,
      "EndZ": 760,
      "ejdZ": 761,
      "Sow": 762,
      "klowzd": 763,
      "slowli": 764,
      "Ivr": 765,
      "tSAr": 766,
      "dIf": 767,
      "ajl": 768,
      "ISt": 769,
      "pliz": 770,
      "Antu": 771,
      "TINkIN": 772,
      "gn": 773,
      "bU": 774,
      "majn": 775,
      "Ngr": 776,
      "bEl": 777,
      "Vkt": 778,
      "dEs": 779,
      "Vtr": 780,
      "ejm": 781,
      "tOkIN": 782,
      "bIz": 783,
      "iDr": 784,
      "tIr": 785,
      "sIr": 786,
      "wAtSt": 787,
      "hIt": 788,
      "lawd": 789,
      "mpli": 790,
      "dIstr": 791,
      "mId": 792,
      "dO": 793,
      "SIp": 794,
      "fIg": 795,
      "ejl": 796,
      "gejz": 797,
      "swi": 798,
      "Vmb": 799,
      "awtsajd": 800,
      "pis": 801,
      "SAt": 802,
      "Vdi": 803,
      "kVt": 804,
      "lOst": 805,
      "fIgjr": 806,
      "ptr": 807,
      "wOk": 808,
      "kejs": 809,
      "kowld": 810,
      "ir": 811,
      "wejtIN": 812,
      "howp": 813,
      "sIl": 814,
      "ajs": 815,
      "SIN": 816,
      "As": 817,
      "kS": 818,
      "tSaj": 819,
      "awz": 820,
      "IZ": 821,
      "Ens": 822,
      "Ng": 823,
      "bIld": 824,
      "blej": 825,
      "Vgd": 826,
      "gVn": 827,
      "sejf": 828,
      "dIsajd": 829,
      "InstEd": 830,
      "fajv": 831,
      "iT": 832,
      "uz": 833,
      "dET": 834,
      "lEgz": 835,
      "ojd": 836,
      "fUt": 837,
      "mIt": 838,
      "mpajr": 839,
      "sit": 840,
      "wIm": 841,
      "dZej": 842,
      "sEr": 843,
      "EntS": 844,
      "sowl": 845,
      "fEr": 846,
      "lUks": 847,
      "And": 848,
      "bz": 849,
      "fIl": 850,
      "Apr": 851,
      "wAtS": 852,
      "VnIN": 853,
      "dIm": 854,
      "uT": 855,
      "Zr": 856,
      "Vnd": 857,
      "dZoj": 858,
      "tIv": 859,
      "SIt": 860,
      "Ikst": 861,
      "ilajzd": 862,
      "gEs": 863,
      "dZEnt": 864,
      "mIr": 865,
      "Idr": 866,
      "spowk": 867,
      "Nks": 868,
      "wajd": 869,
      "skul": 870,
      "dIn": 871,
      "SAr": 872,
      "wVtEvr": 873,
      "sEvr": 874,
      "wIndow": 875,
      "kV": 876,
      "bejbi": 877,
      "mit": 878,
      "iD": 879,
      "tiz": 880,
      "hAt": 881,
      "howldIN": 882,
      "stEpt": 883,
      "bOl": 884,
      "EndIN": 885,
      "fAlow": 886,
      "dZow": 887,
      "nEr": 888,
      "dZIk": 889,
      "Ti": 890,
      "sIstr": 891,
      "bjut": 892,
      "lIft": 893,
      "nj": 894,
      "dIst": 895,
      "lind": 896,
      "Ofr": 897,
      "kwajt": 898,
      "sItIN": 899,
      "Abl": 900,
      "wAtSIN": 901,
      "Ost": 902,
      "dZAn": 903,
      "slaj": 904,
      "stE": 905,
      "jEl": 906,
      "Intajr": 907,
      "owS": 908,
      "lis": 909,
      "niz": 910,
      "SVt": 911,
      "hVnt": 912,
      "stEp": 913,
      "Iksplej": 914,
      "nown": 915,
      "lEd": 916,
      "bIkVm": 917,
      "sajt": 918,
      "stIk": 919,
      "mA": 920,
      "Emr": 921,
      "bUk": 922,
      "stown": 923,
      "fAlowd": 924,
      "Estr": 925,
      "SEr": 926,
      "klowsr": 927,
      "dZAb": 928,
      "nsi": 929,
      "ntInjud": 930,
      "muvIN": 931,
      "mEs": 932,
      "Iplajd": 933,
      "kVmfr": 934,
      "VSt": 935,
      "pejpr": 936,
      "Imej": 937,
      "nVm": 938,
      "sejS": 939,
      "Imi": 940,
      "dIl": 941,
      "sts": 942,
      "kejt": 943,
      "hejt": 944,
      "tSajld": 945,
      "najs": 946,
      "nsIdr": 947,
      "klowD": 948,
      "pUSt": 949,
      "Ikspr": 950,
      "hVN": 951,
      "Emp": 952,
      "klaj": 953,
      "is": 954,
      "lONgr": 955,
      "dZEst": 956,
      "juZ": 957,
      "stejt": 958,
      "lIn": 959,
      "dZVm": 960,
      "sejIN": 961,
      "nejS": 962,
      "mVnT": 963,
      "lejS": 964,
      "town": 965,
      "ajn": 966,
      "vej": 967,
      "swit": 968,
      "tawn": 969,
      "bIgIn": 970,
      "lIvIN": 971,
      "wIn": 972,
      "mVni": 973,
      "stIN": 974,
      "lajIN": 975,
      "tin": 976,
      "ejzd": 977,
      "smEl": 978,
      "kAnt": 979,
      "kItS": 980,
      "kn": 981,
      "wAznt": 982,
      "livIN": 983,
      "dAk": 984,
      "lVvd": 985,
      "fIld": 986,
      "mAn": 987,
      "ntS": 988,
      "bVv": 989,
      "mejl": 990,
      "fVn": 991,
      "lt": 992,
      "sIti": 993,
      "plE": 994,
      "vIz": 995,
      "gajz": 996,
      "powzd": 997,
      "stVm": 998,
      "Endr": 999,
      "dA": 1000,
      "skaj": 1001,
      "bIzn": 1002,
      "twEn": 1003,
      "mawnt": 1004,
      "lf": 1005,
      "dIsajdId": 1006,
      "INkt": 1007,
      "fajd": 1008,
      "sAft": 1009,
      "gd": 1010,
      "pAn": 1011,
      "dIv": 1012,
      "sEpt": 1013,
      "fowk": 1014,
      "hE": 1015,
      "Abvi": 1016,
      "pow": 1017,
      "tm": 1018,
      "nVmbr": 1019,
      "dIt": 1020,
      "lejdi": 1021,
      "Eniwej": 1022,
      "kju": 1023,
      "majk": 1024,
      "hajd": 1025,
      "kVlr": 1026,
      "siIN": 1027,
      "mEmr": 1028,
      "spEkt": 1029,
      "EdIN": 1030,
      "mplitli": 1031,
      "twEnti": 1032,
      "kowl": 1033,
      "pUl": 1034,
      "ejv": 1035,
      "sV": 1036,
      "skEr": 1037,
      "stEps": 1038,
      "bAks": 1039,
      "swA": 1040,
      "wOkIN": 1041,
      "sOf": 1042,
      "gIvIN": 1043,
      "wejst": 1044,
      "kejS": 1045,
      "owIN": 1046,
      "Eg": 1047,
      "kawnt": 1048,
      "sim": 1049,
      "lowr": 1050,
      "izi": 1051,
      "nowIN": 1052,
      "spAt": 1053,
      "wIS": 1054,
      "flE": 1055,
      "kIld": 1056,
      "pIktSr": 1057,
      "hVndr": 1058,
      "spik": 1059,
      "jun": 1060,
      "Imidi": 1061,
      "TIk": 1062,
      "dawt": 1063,
      "sti": 1064,
      "wIDIn": 1065,
      "pIkt": 1066,
      "zr": 1067,
      "fud": 1068,
      "Sawt": 1069,
      "sIks": 1070,
      "bIldIN": 1071,
      "tow": 1072,
      "VntS": 1073,
      "tiT": 1074,
      "Ans": 1075,
      "TO": 1076,
      "NkT": 1077,
      "tEkt": 1078,
      "zIS": 1079,
      "dejndZr": 1080,
      "noj": 1081,
      "ajzIN": 1082,
      "sikr": 1083,
      "skwi": 1084,
      "vju": 1085,
      "bejs": 1086,
      "Empti": 1087,
      "mejks": 1088,
      "dil": 1089,
      "kIst": 1090,
      "gowld": 1091,
      "TOts": 1092,
      "tSIld": 1093,
      "tVN": 1094,
      "kAnvr": 1095,
      "Idi": 1096,
      "tEk": 1097,
      "klowDz": 1098,
      "kUdnt": 1099,
      "wejk": 1100,
      "dEr": 1101,
      "hEvi": 1102,
      "lIk": 1103,
      "plejst": 1104,
      "luk": 1105,
      "bIli": 1106,
      "spi": 1107,
      "wajf": 1108,
      "sEntr": 1109,
      "mejS": 1110,
      "tA": 1111,
      "pAk": 1112,
      "fIS": 1113,
      "tElIN": 1114,
      "bIniT": 1115,
      "ImpOr": 1116,
      "if": 1117,
      "wEDr": 1118,
      "ejnd": 1119,
      "mInut": 1120,
      "IpIN": 1121,
      "dIk": 1122,
      "Ivi": 1123,
      "kAmp": 1124,
      "twI": 1125,
      "stVdi": 1126,
      "lin": 1127,
      "dUr": 1128,
      "IgnOr": 1129,
      "tSIldr": 1130,
      "hIs": 1131,
      "Impr": 1132,
      "fIt": 1133,
      "kAfi": 1134,
      "kwIk": 1135,
      "mtajmz": 1136,
      "bown": 1137,
      "lajz": 1138,
      "Ektr": 1139,
      "nVn": 1140,
      "tAm": 1141,
      "bs": 1142,
      "ImowS": 1143,
      "stup": 1144,
      "pAl": 1145,
      "spejs": 1146,
      "dEsk": 1147,
      "dejt": 1148,
      "tSik": 1149,
      "bit": 1150,
      "nuz": 1151,
      "slId": 1152,
      "sIst": 1153,
      "nv": 1154,
      "dVz": 1155,
      "pejS": 1156,
      "Efr": 1157,
      "lajts": 1158,
      "dajd": 1159,
      "vIZ": 1160,
      "sIz": 1161,
      "sElvz": 1162,
      "tSejndZd": 1163,
      "ejtS": 1164,
      "mIS": 1165,
      "lus": 1166,
      "law": 1167,
      "Imp": 1168,
      "dZEnr": 1169,
      "dEl": 1170,
      "lajkt": 1171,
      "hit": 1172,
      "kejp": 1173,
      "OlDow": 1174,
      "kawntr": 1175,
      "fInISt": 1176,
      "SIft": 1177,
      "mVnTs": 1178,
      "ItSu": 1179,
      "dmIt": 1180,
      "pO": 1181,
      "mEl": 1182,
      "nejt": 1183,
      "Infr": 1184,
      "pUlIN": 1185,
      "hawEvr": 1186,
      "klO": 1187,
      "EnimOr": 1188,
      "fjuzd": 1189,
      "owv": 1190,
      "sImpli": 1191,
      "bu": 1192,
      "kVmp": 1193,
      "nsIN": 1194,
      "dZEr": 1195,
      "mjuz": 1196,
      "IT": 1197,
      "tEmpt": 1198,
      "Eli": 1199,
      "bEn": 1200,
      "slajtli": 1201,
      "ejzi": 1202,
      "dv": 1203,
      "Aks": 1204,
      "ESli": 1205,
      "dZejk": 1206,
      "klEr": 1207,
      "dOtr": 1208,
      "dIsp": 1209,
      "bIkejm": 1210,
      "kAl": 1211,
      "IksEpt": 1212,
      "stVf": 1213,
      "owm": 1214,
      "sEv": 1215,
      "bEdr": 1216,
      "sINg": 1217,
      "Vmp": 1218,
      "SIz": 1219,
      "dInr": 1220,
      "Su": 1221,
      "klej": 1222,
      "sOftli": 1223,
      "Iksajt": 1224,
      "fIf": 1225,
      "tajni": 1226,
      "Igr": 1227,
      "sEks": 1228,
      "spEnt": 1229,
      "Imr": 1230,
      "sut": 1231,
      "tEst": 1232,
      "dZejs": 1233,
      "sawndz": 1234,
      "dim": 1235,
      "iIN": 1236,
      "jAr": 1237,
      "fIst": 1238,
      "mVtr": 1239,
      "sIv": 1240,
      "ejz": 1241,
      "sajn": 1242,
      "ksEpt": 1243,
      "tSEk": 1244,
      "dIp": 1245,
      "flej": 1246,
      "paj": 1247,
      "mitIN": 1248,
      "Akt": 1249,
      "wiks": 1250,
      "sVmhaw": 1251,
      "Egz": 1252,
      "SVv": 1253,
      "sImp": 1254,
      "wAnts": 1255,
      "Iksk": 1256,
      "fild": 1257,
      "gejt": 1258,
      "dZOr": 1259,
      "wUlf": 1260,
      "dejv": 1261,
      "kjUr": 1262,
      "hid": 1263,
      "hEz": 1264,
      "tVtSt": 1265,
      "sVmwEr": 1266,
      "sIkjUr": 1267,
      "ndi": 1268,
      "dEf": 1269,
      "tSojs": 1270,
      "lEv": 1271,
      "IntS": 1272,
      "wEst": 1273,
      "dZEntli": 1274,
      "EsIN": 1275,
      "kul": 1276,
      "kIdz": 1277,
      "lV": 1278,
      "lAkt": 1279,
      "IspESli": 1280,
      "wVnz": 1281,
      "spIt": 1282,
      "spIr": 1283,
      "SEl": 1284,
      "Inkr": 1285,
      "wEp": 1286,
      "IkspIr": 1287,
      "simz": 1288,
      "IntEn": 1289,
      "mowS": 1290,
      "lIp": 1291,
      "bIAnd": 1292,
      "dIr": 1293,
      "tSu": 1294,
      "wOlz": 1295,
      "imajnd": 1296,
      "minz": 1297,
      "fejvr": 1298,
      "wEt": 1299,
      "gA": 1300,
      "ejst": 1301,
      "mEnS": 1302,
      "mIsIz": 1303,
      "pOzd": 1304,
      "mown": 1305,
      "hjudZ": 1306,
      "dAktr": 1307,
      "sItSu": 1308,
      "itSr": 1309,
      "flow": 1310,
      "kVmz": 1311,
      "dZEkt": 1312,
      "wajld": 1313,
      "lEg": 1314,
      "gejm": 1315,
      "plEZr": 1316,
      "spAr": 1317,
      "Ib": 1318,
      "nti": 1319,
      "Emb": 1320,
      "lir": 1321,
      "SejkIN": 1322,
      "blow": 1323,
      "lIm": 1324,
      "smow": 1325,
      "VdZ": 1326,
      "mVs": 1327,
      "fowld": 1328,
      "imd": 1329,
      "sajz": 1330,
      "flu": 1331,
      "pAp": 1332,
      "gIl": 1333,
      "hVntr": 1334,
      "ININ": 1335,
      "tSIn": 1336,
      "lIst": 1337,
      "EndZoj": 1338,
      "sejv": 1339,
      "plejIN": 1340,
      "dZEn": 1341,
      "spt": 1342,
      "Vlt": 1343,
      "bIr": 1344,
      "siz": 1345,
      "smajlIN": 1346,
      "ejtr": 1347,
      "sItSuejS": 1348,
      "uv": 1349,
      "ajvd": 1350,
      "sAl": 1351,
      "tOl": 1352,
      "dIsk": 1353,
      "sVb": 1354,
      "dIS": 1355,
      "tSVk": 1356,
      "TIn": 1357,
      "hO": 1358,
      "bajt": 1359,
      "dEv": 1360,
      "vIl": 1361,
      "wIr": 1362,
      "IspA": 1363,
      "lajnd": 1364,
      "Af": 1365,
      "Tawz": 1366,
      "dZO": 1367,
      "ivnIN": 1368,
      "Vzb": 1369,
      "towt": 1370,
      "ist": 1371,
      "dOg": 1372,
      "spl": 1373,
      "bojz": 1374,
      "dEspr": 1375,
      "glEr": 1376,
      "kipIN": 1377,
      "sIn": 1378,
      "hVzb": 1379,
      "hUd": 1380,
      "tejst": 1381,
      "sIlvr": 1382,
      "mejn": 1383,
      "TEr": 1384,
      "mEd": 1385,
      "bIlow": 1386,
      "Sejk": 1387,
      "bADr": 1388,
      "lk": 1389,
      "skIN": 1390,
      "uf": 1391,
      "lejd": 1392,
      "juzIN": 1393,
      "glow": 1394,
      "tejks": 1395,
      "mVN": 1396,
      "pV": 1397,
      "itIN": 1398,
      "\\={": 1399,
      "pIn": 1400,
      "nun": 1401,
      "pejnt": 1402,
      "imIN": 1403,
      "pUS": 1404,
      "bUl": 1405,
      "tIl": 1406,
      "fVk": 1407,
      "ipEr": 1408,
      "dIzr": 1409,
      "mb": 1410,
      "luz": 1411,
      "SAp": 1412,
      "klin": 1413,
      "nojz": 1414,
      "slIpt": 1415,
      "ajbr": 1416,
      "dZEs": 1417,
      "pawnd": 1418,
      "tejS": 1419,
      "wajz": 1420,
      "lEtIN": 1421,
      "SEd": 1422,
      "Saj": 1423,
      "tAr": 1424,
      "bIN": 1425,
      "lIvd": 1426,
      "ojl": 1427,
      "umd": 1428,
      "mIljr": 1429,
      "dZVmpt": 1430,
      "imz": 1431,
      "dZuli": 1432,
      "dIzajr": 1433,
      "Iksplejn": 1434,
      "sks": 1435,
      "pIl": 1436,
      "sEnd": 1437,
      "skAr": 1438,
      "hEv": 1439,
      "sowldZr": 1440,
      "Sowd": 1441,
      "plejn": 1442,
      "lAk": 1443,
      "ejnIN": 1444,
      "lEpt": 1445,
      "tSiks": 1446,
      "smu": 1447,
      "nEt": 1448,
      "wIlIN": 1449,
      "mjuzIk": 1450,
      "howpIN": 1451,
      "twIst": 1452,
      "ilajz": 1453,
      "ejdi": 1454,
      "bItr": 1455,
      "howpt": 1456,
      "iDIN": 1457,
      "Sawr": 1458,
      "lajkli": 1459,
      "gowz": 1460,
      "Iktr": 1461,
      "snow": 1462,
      "ENkT": 1463,
      "DEmsElvz": 1464,
      "nEs": 1465,
      "gAn": 1466,
      "hId": 1467,
      "dZejmz": 1468,
      "NIN": 1469,
      "fjutSr": 1470,
      "mun": 1471,
      "Ekr": 1472,
      "kAnS": 1473,
      "gdZEst": 1474,
      "spES": 1475,
      "pOl": 1476,
      "smuD": 1477,
      "kIk": 1478,
      "kwin": 1479,
      "najf": 1480,
      "ItSr": 1481,
      "ilejS": 1482,
      "tejt": 1483,
      "dZA": 1484,
      "ksEs": 1485,
      "dIspajt": 1486,
      "TVm": 1487,
      "InvAl": 1488,
      "tOkt": 1489,
      "Ign": 1490,
      "slajd": 1491,
      "fV": 1492,
      "hV": 1493,
      "bIsajdz": 1494,
      "ejkIN": 1495,
      "kowt": 1496,
      "ownd": 1497,
      "kIn": 1498,
      "dAn": 1499,
      "tIkj": 1500,
      "Vntr": 1501,
      "lajvz": 1502,
      "lj": 1503,
      "stejd": 1504,
      "IspAnd": 1505,
      "fajtIN": 1506,
      "hVNgr": 1507,
      "gIN": 1508,
      "sVmr": 1509,
      "kAns": 1510,
      "hElpt": 1511,
      "dIskVvr": 1512,
      "VtIN": 1513,
      "SAk": 1514,
      "hajr": 1515,
      "nejk": 1516,
      "Imejnd": 1517,
      "lEkt": 1518,
      "uli": 1519,
      "tim": 1520,
      "kwajr": 1521,
      "dZinz": 1522,
      "gEts": 1523,
      "ItsElf": 1524,
      "wUdnt": 1525,
      "iejt": 1526,
      "bIgInIN": 1527,
      "swI": 1528,
      "klud": 1529,
      "nidz": 1530,
      "niDr": 1531,
      "pejl": 1532,
      "kAz": 1533,
      "gEst": 1534,
      "najn": 1535,
      "mIz": 1536,
      "ejsIN": 1537,
      "dEk": 1538,
      "hAspIt": 1539,
      "dZEstSr": 1540,
      "wIt": 1541,
      "kawtS": 1542,
      "pitr": 1543,
      "dejvId": 1544,
      "VkS": 1545,
      "EtSt": 1546,
      "nSIp": 1547,
      "vIkt": 1548,
      "mplit": 1549,
      "nAn": 1550,
      "Ipit": 1551,
      "kwr": 1552,
      "fOlIN": 1553,
      "fejd": 1554,
      "flES": 1555,
      "fInIS": 1556,
      "Iksplejnd": 1557,
      "ajvr": 1558,
      "stejS": 1559,
      "Nz": 1560,
      "fIz": 1561,
      "lEtr": 1562,
      "wElk": 1563,
      "fAlowIN": 1564,
      "jutr": 1565,
      "stil": 1566,
      "wAntIN": 1567,
      "mejt": 1568,
      "Vstr": 1569,
      "Old": 1570,
      "dZaj": 1571,
      "spaj": 1572,
      "vojd": 1573,
      "Eb": 1574,
      "wajn": 1575,
      "spEnd": 1576,
      "VSIN": 1577,
      "fjUr": 1578,
      "Olt": 1579,
      "bET": 1580,
      "pVtIN": 1581,
      "Etr": 1582,
      "ajvIN": 1583,
      "blAnd": 1584,
      "pOz": 1585,
      "lIz": 1586,
      "mEmbr": 1587,
      "Ilif": 1588,
      "stVk": 1589,
      "tIp": 1590,
      "umz": 1591,
      "zejn": 1592,
      "Ikr": 1593,
      "kVntr": 1594,
      "dVst": 1595,
      "owlIN": 1596,
      "IftIN": 1597,
      "mIsIN": 1598,
      "nsIz": 1599,
      "muvm": 1600,
      "Iskejp": 1601,
      "Vgz": 1602,
      "Ektli": 1603,
      "dIsIZ": 1604,
      "bIzi": 1605,
      "Az": 1606,
      "Ivli": 1607,
      "flawr": 1608,
      "baw": 1609,
      "gi": 1610,
      "klVb": 1611,
      "IfIk": 1612,
      "dVb": 1613,
      "kOlIN": 1614,
      "plejd": 1615,
      "bUks": 1616,
      "bAdiz": 1617,
      "pUr": 1618,
      "fowt": 1619,
      "awld": 1620,
      "hIps": 1621,
      "tun": 1622,
      "ku": 1623,
      "supr": 1624,
      "bEnt": 1625,
      "gOr": 1626,
      "twaj": 1627,
      "TOr": 1628,
      "dIskr": 1629,
      "lEts": 1630,
      "nfr": 1631,
      "tEnd": 1632,
      "INkIN": 1633,
      "pVl": 1634,
      "EtS": 1635,
      "IspAns": 1636,
      "nlEs": 1637,
      "pejdZ": 1638,
      "IspEkt": 1639,
      "mIstejk": 1640,
      "tejl": 1641,
      "bEt": 1642,
      "pVbl": 1643,
      "spid": 1644,
      "Epr": 1645,
      "lVki": 1646,
      "wISt": 1647,
      "swEt": 1648,
      "dZIN": 1649,
      "wowk": 1650,
      "spikIN": 1651,
      "hOlwej": 1652,
      "lEr": 1653,
      "Ikstr": 1654,
      "IvEntS": 1655,
      "Od": 1656,
      "bIlON": 1657,
      "wIndowz": 1658,
      "howtEl": 1659,
      "dItr": 1660,
      "Nkt": 1661,
      "gEr": 1662,
      "Vbd": 1663,
      "hAl": 1664,
      "lItr": 1665,
      "kAnf": 1666,
      "mpjutr": 1667,
      "Isk": 1668,
      "pEn": 1669,
      "nAl": 1670,
      "Ents": 1671,
      "dZiz": 1672,
      "slipIN": 1673,
      "kAmpl": 1674,
      "vIn": 1675,
      "kejn": 1676,
      "hEnr": 1677,
      "bju": 1678,
      "SIvr": 1679,
      "jEld": 1680,
      "Inklud": 1681,
      "owkt": 1682,
      "hEzIt": 1683,
      "lVk": 1684,
      "dVznt": 1685,
      "lEDr": 1686,
      "majlz": 1687,
      "tEmpr": 1688,
      "IfEkt": 1689,
      "IndZr": 1690,
      "lajnz": 1691,
      "pUSIN": 1692,
      "itSIN": 1693,
      "mIk": 1694,
      "smowk": 1695,
      "wejv": 1696,
      "nEl": 1697,
      "swAlowd": 1698,
      "klEn": 1699,
      "tSowz": 1700,
      "saw": 1701,
      "tVn": 1702,
      "ski": 1703,
      "kwOr": 1704,
      "fVni": 1705,
      "IntEns": 1706,
      "dnt": 1707,
      "wejvd": 1708,
      "ejlz": 1709,
      "fajndIN": 1710,
      "mAnstr": 1711,
      "wu": 1712,
      "fIk": 1713,
      "pAm": 1714,
      "fIzIk": 1715,
      "linIN": 1716,
      "smAr": 1717,
      "ful": 1718,
      "lVntS": 1719,
      "sajm": 1720,
      "owb": 1721,
      "ImpAs": 1722,
      "nfjuzd": 1723,
      "blINkt": 1724,
      "sId": 1725,
      "InsIst": 1726,
      "dZVdZ": 1727,
      "bawnd": 1728,
      "EnS": 1729,
      "filINz": 1730,
      "silIN": 1731,
      "Inf": 1732,
      "iSi": 1733,
      "liz": 1734,
      "sowfi": 1735,
      "EniwEr": 1736,
      "blr": 1737,
      "hEdz": 1738,
      "Anr": 1739,
      "ktIN": 1740,
      "lIli": 1741,
      "iow": 1742,
      "pINk": 1743,
      "klAk": 1744,
      "ktIv": 1745,
      "ImbEr": 1746,
      "tSejs": 1747,
      "tSIr": 1748,
      "kAnr": 1749,
      "fs": 1750,
      "InIN": 1751,
      "stiv": 1752,
      "nAk": 1753,
      "Suz": 1754,
      "lEk": 1755,
      "sajdz": 1756,
      "bowt": 1757,
      "ulz": 1758,
      "Instr": 1759,
      "mli": 1760,
      "lejk": 1761,
      "bEk": 1762,
      "bIlivd": 1763,
      "mbr": 1764,
      "filz": 1765,
      "bItS": 1766,
      "itr": 1767,
      "pajl": 1768,
      "owtSt": 1769,
      "sET": 1770,
      "SVvd": 1771,
      "gli": 1772,
      "IlEktr": 1773,
      "lowk": 1774,
      "awnst": 1775,
      "gju": 1776,
      "gIg": 1777,
      "spEl": 1778,
      "dZojn": 1779,
      "bownz": 1780,
      "ejndZr": 1781,
      "its": 1782,
      "IndZ": 1783,
      "flaj": 1784,
      "kAnst": 1785,
      "nEkt": 1786,
      "fOt": 1787,
      "dZIm": 1788,
      "IpitId": 1789,
      "Ikskjus": 1790,
      "wownt": 1791,
      "klajmd": 1792,
      "hVg": 1793,
      "ipOr": 1794,
      "InvEst": 1795,
      "sid": 1796,
      "mejzIN": 1797,
      "kst": 1798,
      "EtIk": 1799,
      "Sild": 1800,
      "hIl": 1801,
      "blVdi": 1802,
      "plejt": 1803,
      "stli": 1804,
      "ejnz": 1805,
      "tOst": 1806,
      "stEdi": 1807,
      "taw": 1808,
      "InvAlvd": 1809,
      "mjun": 1810,
      "pejd": 1811,
      "hVn": 1812,
      "ajf": 1813,
      "ikw": 1814,
      "nejb": 1815,
      "IzIst": 1816,
      "kAntr": 1817,
      "tajd": 1818,
      "nowbAdi": 1819,
      "stIf": 1820,
      "stVmb": 1821,
      "INgl": 1822,
      "lidr": 1823,
      "dZIn": 1824,
      "bitS": 1825,
      "kejZ": 1826,
      "tSEkt": 1827,
      "ajdIN": 1828,
      "Vmpt": 1829,
      "mowstli": 1830,
      "hIstr": 1831,
      "stu": 1832,
      "hEdIN": 1833,
      "kIlIN": 1834,
      "lajtli": 1835,
      "jElow": 1836,
      "sVfr": 1837,
      "mIlj": 1838,
      "awl": 1839,
      "fOlt": 1840,
      "gVst": 1841,
      "ApIN": 1842,
      "us": 1843,
      "kIkt": 1844,
      "ntIN": 1845,
      "hajdIN": 1846,
      "Esr": 1847,
      "dn": 1848,
      "spOr": 1849,
      "wUdz": 1850,
      "sawT": 1851,
      "luS": 1852,
      "twajs": 1853,
      "nT": 1854,
      "blejd": 1855,
      "kawns": 1856,
      "skwEr": 1857,
      "fUli": 1858,
      "wawnd": 1859,
      "lENkT": 1860,
      "lutli": 1861,
      "swVN": 1862,
      "stud": 1863,
      "Sejp": 1864,
      "dZown": 1865,
      "Ekstr": 1866,
      "bIlt": 1867,
      "stV": 1868,
      "ktr": 1869,
      "skwizd": 1870,
      "lowg": 1871,
      "stejdZ": 1872,
      "snOr": 1873,
      "sEpr": 1874,
      "Ekf": 1875,
      "ajtIN": 1876,
      "spIS": 1877,
      "ajli": 1878,
      "kO": 1879,
      "tEndr": 1880,
      "Vdr": 1881,
      "dZojnd": 1882,
      "Aps": 1883,
      "fimejl": 1884,
      "tir": 1885,
      "tEmp": 1886,
      "flajIN": 1887,
      "spAns": 1888,
      "fejnt": 1889,
      "IgzIst": 1890,
      "dZin": 1891,
      "IvEnt": 1892,
      "buts": 1893,
      "najts": 1894,
      "dEnt": 1895,
      "slajt": 1896,
      "kVst": 1897,
      "EZr": 1898,
      "bV": 1899,
      "Abr": 1900,
      "dZejmi": 1901,
      "livz": 1902,
      "hejv": 1903,
      "kU": 1904,
      "vajv": 1905,
      "kEl": 1906,
      "tEkst": 1907,
      "nIS": 1908,
      "klVtS": 1909,
      "EnsIv": 1910,
      "tajp": 1911,
      "gVvr": 1912,
      "wEdIN": 1913,
      "tajtli": 1914,
      "sIgn": 1915,
      "gejdZ": 1916,
      "wajpt": 1917,
      "ji": 1918,
      "kejd": 1919,
      "lejn": 1920,
      "fVkIN": 1921,
      "Ezr": 1922,
      "lusi": 1923,
      "bEli": 1924,
      "pul": 1925,
      "ajdEnt": 1926,
      "jul": 1927,
      "pIt": 1928,
      "Indid": 1929,
      "kEn": 1930,
      "klu": 1931,
      "gnajzd": 1932,
      "gIft": 1933,
      "tawr": 1934,
      "kj": 1935,
      "swEr": 1936,
      "ispAns": 1937,
      "wAndr": 1938,
      "lEks": 1939,
      "kejl": 1940,
      "gAdz": 1941,
      "kIsIN": 1942,
      "fitSr": 1943,
      "hVni": 1944,
      "pjUr": 1945,
      "IgzOst": 1946,
      "tud": 1947,
      "VpsEt": 1948,
      "vIktr": 1949,
      "dAm": 1950,
      "tEnt": 1951,
      "slEpt": 1952,
      "mil": 1953,
      "tVtSIN": 1954,
      "stVdid": 1955,
      "Sut": 1956,
      "InstINkt": 1957,
      "nf": 1958,
      "jEstr": 1959,
      "sEksi": 1960,
      "dIlIvr": 1961,
      "izir": 1962,
      "sON": 1963,
      "fIftin": 1964,
      "vejl": 1965,
      "ilist": 1966,
      "luzIN": 1967,
      "huz": 1968,
      "kAzd": 1969,
      "Ibr": 1970,
      "ows": 1971,
      "nejbr": 1972,
      "dipr": 1973,
      "tSuz": 1974,
      "SVdr": 1975,
      "klEntSt": 1976,
      "fejst": 1977,
      "igr": 1978,
      "bVk": 1979,
      "Oltr": 1980,
      "lOs": 1981,
      "TINks": 1982,
      "OIN": 1983,
      "itEnd": 1984,
      "nAkt": 1985,
      "majr": 1986,
      "kAlIdZ": 1987,
      "nfju": 1988,
      "tUr": 1989,
      "Isnt": 1990,
      "blajnd": 1991,
      "tIm": 1992,
      "wIlj": 1993,
      "vAl": 1994,
      "dajIN": 1995,
      "InfOr": 1996,
      "stejIN": 1997,
      "SOn": 1998,
      "wil": 1999,
      "klIN": 2000,
      "dV": 2001,
      "hEzItejtId": 2002,
      "IntEnd": 2003,
      "swej": 2004,
      "dZVmp": 2005,
      "dZIkt": 2006,
      "mud": 2007,
      "kOlz": 2008,
      "ESr": 2009,
      "Enti": 2010,
      "howli": 2011,
      "wINz": 2012,
      "sEndIN": 2013,
      "spVn": 2014,
      "Inz": 2015,
      "kts": 2016,
      "smajlz": 2017,
      "SAkt": 2018,
      "swItS": 2019,
      "plizd": 2020,
      "imuvd": 2021,
      "Ifr": 2022,
      "klowzIN": 2023,
      "nIp": 2024,
      "sVbdZIkt": 2025,
      "dIg": 2026,
      "slej": 2027,
      "pVblIk": 2028,
      "Egn": 2029,
      "spEr": 2030,
      "ntIk": 2031,
      "kiz": 2032,
      "swr": 2033,
      "bVs": 2034,
      "fejt": 2035,
      "Sin": 2036,
      "Ag": 2037,
      "nfOr": 2038,
      "dZEl": 2039,
      "smr": 2040,
      "SowIN": 2041,
      "vajd": 2042,
      "minIN": 2043,
      "pejs": 2044,
      "iwEr": 2045,
      "iDd": 2046,
      "mT": 2047,
      "vEl": 2048,
      "swOr": 2049,
      "sEntSr": 2050,
      "dItEkt": 2051,
      "ejndZd": 2052,
      "sejvd": 2053,
      "lfr": 2054,
      "gIvz": 2055,
      "ndIS": 2056,
      "Dejr": 2057,
      "AkIN": 2058,
      "pojntIN": 2059,
      "kUk": 2060,
      "nejtSr": 2061,
      "pejnf": 2062,
      "Iskej": 2063,
      "sf": 2064,
      "vejtr": 2065,
      "lidIN": 2066,
      "gajd": 2067,
      "kjut": 2068,
      "sVkt": 2069,
      "AZ": 2070,
      "klawd": 2071,
      "dIpAr": 2072,
      "sAb": 2073,
      "plEz": 2074,
      "hIp": 2075,
      "bojfr": 2076,
      "sINk": 2077,
      "dipli": 2078,
      "Idli": 2079,
      "owtS": 2080,
      "ejntS": 2081,
      "nstr": 2082,
      "lajbr": 2083,
      "VptId": 2084,
      "ntId": 2085,
      "hElpIN": 2086,
      "wIN": 2087,
      "powst": 2088,
      "Nkr": 2089,
      "ejli": 2090,
      "lm": 2091,
      "stS": 2092,
      "Inr": 2093,
      "mAd": 2094,
      "fIfti": 2095,
      "fow": 2096,
      "un": 2097,
      "dZejn": 2098,
      "sum": 2099,
      "gVt": 2100,
      "EmIli": 2101,
      "tnr": 2102,
      "AsEs": 2103,
      "nEkS": 2104,
      "ptSr": 2105,
      "AnIk": 2106,
      "Iplaj": 2107,
      "nejmz": 2108,
      "IkstS": 2109,
      "Indi": 2110,
      "bAs": 2111,
      "ejp": 2112,
      "wIntr": 2113,
      "flajt": 2114,
      "bjuti": 2115,
      "sIlk": 2116,
      "wajr": 2117,
      "Egj": 2118,
      "Sejm": 2119,
      "kAst": 2120,
      "tOt": 2121,
      "pUlz": 2122,
      "bowl": 2123,
      "hIk": 2124,
      "hilz": 2125,
      "sni": 2126,
      "tSejm": 2127,
      "ntIs": 2128,
      "wejvz": 2129,
      "Ists": 2130,
      "gnajz": 2131,
      "SIps": 2132,
      "hOk": 2133,
      "EsIv": 2134,
      "ikwajr": 2135,
      "Sown": 2136,
      "koj": 2137,
      "hVm": 2138,
      "tSejmbr": 2139,
      "juv": 2140,
      "Iksplowd": 2141,
      "kIlr": 2142,
      "fli": 2143,
      "ONr": 2144,
      "ejts": 2145,
      "pIz": 2146,
      "bElt": 2147,
      "kAk": 2148,
      "gejS": 2149,
      "tl": 2150,
      "Ilj": 2151,
      "klajm": 2152,
      "Tajz": 2153,
      "tSIl": 2154,
      "dIsgVst": 2155,
      "muvi": 2156,
      "plEnti": 2157,
      "kAmEnt": 2158,
      "mplej": 2159,
      "stowl": 2160,
      "splIt": 2161,
      "slajdIN": 2162,
      "awdz": 2163,
      "din": 2164,
      "Ngw": 2165,
      "slIp": 2166,
      "flIkr": 2167,
      "IkspEktIN": 2168,
      "fajl": 2169,
      "sEkS": 2170,
      "dVg": 2171,
      "jVNgr": 2172,
      "skVl": 2173,
      "ejmi": 2174,
      "Ipr": 2175,
      "fIks": 2176,
      "nejmd": 2177,
      "skAt": 2178,
      "bist": 2179,
      "kejv": 2180,
      "blejm": 2181,
      "ejks": 2182,
      "dEn": 2183,
      "tIps": 2184,
      "fIkst": 2185,
      "dAlr": 2186,
      "blAk": 2187,
      "Taj": 2188,
      "dItejlz": 2189,
      "kwA": 2190,
      "Iksajtm": 2191,
      "bIgr": 2192,
      "towni": 2193,
      "tIlt": 2194,
      "ApS": 2195,
      "tv": 2196,
      "wItn": 2197,
      "pVn": 2198,
      "nISt": 2199,
      "sEnsejS": 2200,
      "EstIN": 2201,
      "gIlt": 2202,
      "ejtf": 2203,
      "Ikspowz": 2204,
      "pVls": 2205,
      "nvIns": 2206,
      "kVz": 2207,
      "flIkt": 2208,
      "IstS": 2209,
      "sejfti": 2210,
      "mVmb": 2211,
      "zejS": 2212,
      "tSIk": 2213,
      "Ism": 2214,
      "ajst": 2215,
      "twEl": 2216,
      "dZul": 2217,
      "vejS": 2218,
      "sajk": 2219,
      "bVl": 2220,
      "Vpr": 2221,
      "ISm": 2222,
      "skIl": 2223,
      "VstId": 2224,
      "kajli": 2225,
      "pIzt": 2226,
      "Edr": 2227,
      "Ifts": 2228,
      "bIkVmIN": 2229,
      "Invajt": 2230,
      "Ets": 2231,
      "lAdZIk": 2232,
      "dust": 2233,
      "swEpt": 2234,
      "hU": 2235,
      "swAlow": 2236,
      "ikt": 2237,
      "vihIk": 2238,
      "fejld": 2239,
      "awtr": 2240,
      "hil": 2241,
      "mjuzd": 2242,
      "iSiejt": 2243,
      "hInt": 2244,
      "dZEsi": 2245,
      "stajl": 2246,
      "sEtIN": 2247,
      "hum": 2248,
      "mps": 2249,
      "ImAr": 2250,
      "owlIvi": 2251,
      "gVl": 2252,
      "snAr": 2253,
      "bVb": 2254,
      "nowwEr": 2255,
      "dVm": 2256,
      "tVkt": 2257,
      "flejmz": 2258,
      "owgr": 2259,
      "ilis": 2260,
      "dIskVs": 2261,
      "lVN": 2262,
      "smEld": 2263,
      "Dd": 2264,
      "tIs": 2265,
      "InkludIN": 2266,
      "vEn": 2267,
      "InsEs": 2268,
      "fEns": 2269,
      "ajnd": 2270,
      "miz": 2271,
      "twIn": 2272,
      "lti": 2273,
      "mejdZr": 2274,
      "IspAndId": 2275,
      "niT": 2276,
      "ajvi": 2277,
      "lVvli": 2278,
      "INli": 2279,
      "Vpt": 2280,
      "twElv": 2281,
      "IlIz": 2282,
      "zow": 2283,
      "kAlr": 2284,
      "wUl": 2285,
      "Empl": 2286,
      "dZulj": 2287,
      "Ts": 2288,
      "pAt": 2289,
      "pstEr": 2290,
      "skwA": 2291,
      "nawnst": 2292,
      "fejsIN": 2293,
      "ejld": 2294,
      "lut": 2295,
      "ItejS": 2296,
      "Imejn": 2297,
      "Akj": 2298,
      "VntSt": 2299,
      "wEnEvr": 2300,
      "skOr": 2301,
      "Elbow": 2302,
      "mV": 2303,
      "Ali": 2304,
      "IdIk": 2305,
      "ajdr": 2306,
      "Ests": 2307,
      "nkVmfr": 2308,
      "nAr": 2309,
      "ajb": 2310,
      "lajzd": 2311,
      "INglIS": 2312,
      "pojntm": 2313,
      "wAn": 2314,
      "IkwEst": 2315,
      "VbIN": 2316,
      "ifli": 2317,
      "najtmEr": 2318,
      "tV": 2319,
      "pAz": 2320,
      "ajk": 2321,
      "kAp": 2322,
      "Ikli": 2323,
      "EndZojd": 2324,
      "bzr": 2325,
      "Ilivd": 2326,
      "pin": 2327,
      "fejT": 2328,
      "stO": 2329,
      "ownr": 2330,
      "fid": 2331,
      "bId": 2332,
      "flr": 2333,
      "ntin": 2334,
      "blejk": 2335,
      "nejlz": 2336,
      "bOlz": 2337,
      "lEksi": 2338,
      "stApIN": 2339,
      "isr": 2340,
      "Eldr": 2341,
      "mpEr": 2342,
      "tElz": 2343,
      "pir": 2344,
      "lINk": 2345,
      "jA": 2346,
      "nfjuZ": 2347,
      "kIt": 2348,
      "Vgli": 2349,
      "Ekspl": 2350,
      "vIktOr": 2351,
      "dVl": 2352,
      "lINgr": 2353,
      "klAz": 2354,
      "hajt": 2355,
      "waw": 2356,
      "gowst": 2357,
      "sivd": 2358,
      "duti": 2359,
      "vajbr": 2360,
      "sOlt": 2361,
      "tEs": 2362,
      "awndz": 2363,
      "daw": 2364,
      "sejk": 2365,
      "bAnd": 2366,
      "nvInst": 2367,
      "loj": 2368,
      "titSr": 2369,
      "spajn": 2370,
      "fEkt": 2371,
      "lju": 2372,
      "ejdr": 2373,
      "dEp": 2374,
      "stEf": 2375,
      "AbdZEkt": 2376,
      "dZEf": 2377,
      "ivi": 2378,
      "twItS": 2379,
      "sumd": 2380,
      "ipr": 2381,
      "owlz": 2382,
      "howpf": 2383,
      "dZAS": 2384,
      "ikIN": 2385,
      "stejtm": 2386,
      "awndIN": 2387,
      "pawndIN": 2388,
      "dIfEns": 2389,
      "DIN": 2390,
      "pIkIN": 2391,
      "bEntS": 2392,
      "IntEnt": 2393,
      "ups": 2394,
      "klr": 2395,
      "mpt": 2396,
      "dIvEl": 2397,
      "flVd": 2398,
      "lAts": 2399,
      "paw": 2400,
      "Efju": 2401,
      "voj": 2402,
      "ownz": 2403,
      "wOks": 2404,
      "flEr": 2405,
      "spajr": 2406,
      "lig": 2407,
      "vIdZ": 2408,
      "IpOr": 2409,
      "suz": 2410,
      "wikEnd": 2411,
      "IlVkt": 2412,
      "fajIN": 2413,
      "hejld": 2414,
      "mIkst": 2415,
      "kwIn": 2416,
      "fEsr": 2417,
      "flIpt": 2418,
      "pm": 2419,
      "lEdZ": 2420,
      "IvEnts": 2421,
      "nAdz": 2422,
      "swIft": 2423,
      "Iksplow": 2424,
      "Ampt": 2425,
      "sIgr": 2426,
      "lVNz": 2427,
      "vajs": 2428,
      "EkIN": 2429,
      "Eti": 2430,
      "ejdiow": 2431,
      "fIsts": 2432,
      "TVndr": 2433,
      "tVf": 2434,
      "ntIdZ": 2435,
      "pS": 2436,
      "bitIN": 2437,
      "IntEl": 2438,
      "wAS": 2439,
      "ig": 2440,
      "bVtr": 2441,
      "nil": 2442,
      "ImOr": 2443,
      "Enkr": 2444,
      "hVgd": 2445,
      "istr": 2446,
      "lawdli": 2447,
      "owni": 2448,
      "lVvr": 2449,
      "mIzr": 2450,
      "lAn": 2451,
      "dZowk": 2452,
      "glOr": 2453,
      "bIldINz": 2454,
      "ndmVDr": 2455,
      "wASt": 2456,
      "owkIN": 2457,
      "bowlt": 2458,
      "Eskju": 2459,
      "ejzIN": 2460,
      "pItS": 2461,
      "lejmd": 2462,
      "klawdz": 2463,
      "pVntS": 2464,
      "tSejn": 2465,
      "sku": 2466,
      "dEst": 2467,
      "ejlIN": 2468,
      "hVvr": 2469,
      "ksEptId": 2470,
      "sVmbAdi": 2471,
      "sejn": 2472,
      "zm": 2473,
      "Di": 2474,
      "dItEktIv": 2475,
      "pApj": 2476,
      "klowDIN": 2477,
      "pu": 2478,
      "sIp": 2479,
      "tVgd": 2480,
      "bIlif": 2481,
      "Sejd": 2482,
      "lVnd": 2483,
      "NkS": 2484,
      "INks": 2485,
      "ndfADr": 2486,
      "mejs": 2487,
      "lIftIN": 2488,
      "fejl": 2489,
      "fIlIN": 2490,
      "nojd": 2491,
      "kEv": 2492,
      "lowkejS": 2493,
      "dawnstEr": 2494,
      "lEkS": 2495,
      "blaj": 2496,
      "ejpt": 2497,
      "tSO": 2498,
      "owzi": 2499,
      "ksi": 2500,
      "mElt": 2501,
      "gVnz": 2502,
      "stEpIN": 2503,
      "pejt": 2504,
      "tIpt": 2505,
      "plaj": 2506,
      "IkwI": 2507,
      "kAzIN": 2508,
      "EgzIt": 2509,
      "smOlr": 2510,
      "Iskejpt": 2511,
      "gIlti": 2512,
      "majndz": 2513,
      "hIst": 2514,
      "stVnd": 2515,
      "ldr": 2516,
      "pVz": 2517,
      "nVt": 2518,
      "bVntS": 2519,
      "wejtr": 2520,
      "nS": 2521,
      "fEkS": 2522,
      "TEtIk": 2523,
      "plVs": 2524,
      "spitS": 2525,
      "glVv": 2526,
      "huEvr": 2527,
      "pApt": 2528,
      "pAmz": 2529,
      "kAnd": 2530,
      "sowS": 2531,
      "muvz": 2532,
      "sowf": 2533,
      "dIlajt": 2534,
      "IdIkj": 2535,
      "dIgr": 2536,
      "awnIN": 2537,
      "EndZojIN": 2538,
      "lejdiz": 2539,
      "howldz": 2540,
      "lv": 2541,
      "ntiz": 2542,
      "bAb": 2543,
      "pojnts": 2544,
      "dVkt": 2545,
      "dZEt": 2546,
      "wiv": 2547,
      "bIgVn": 2548,
      "Ani": 2549,
      "nowts": 2550,
      "Akwr": 2551,
      "pIlow": 2552,
      "Vptli": 2553,
      "towz": 2554,
      "pEl": 2555,
      "lIkt": 2556,
      "bUS": 2557,
      "skwiz": 2558,
      "gIr": 2559,
      "izd": 2560,
      "gejbr": 2561,
      "dud": 2562,
      "ejmd": 2563,
      "mEZr": 2564,
      "flVtr": 2565,
      "mejnt": 2566,
      "dus": 2567,
      "bIhejv": 2568,
      "klowi": 2569,
      "uvd": 2570,
      "stownz": 2571,
      "SutIN": 2572,
      "nejtIN": 2573,
      "dEm": 2574,
      "klOT": 2575,
      "sEnst": 2576,
      "kAkt": 2577,
      "zdi": 2578,
      "Tdej": 2579,
      "dInaj": 2580,
      "pojz": 2581,
      "dOn": 2582,
      "fOlz": 2583,
      "VndZ": 2584,
      "lEn": 2585,
      "wIk": 2586,
      "knAl": 2587,
      "IkstEnd": 2588,
      "sajnz": 2589,
      "Emploj": 2590,
      "tSejndZIN": 2591,
      "sVnd": 2592,
      "sEkSu": 2593,
      "kowlt": 2594,
      "ejdz": 2595,
      "sIli": 2596,
      "vVl": 2597,
      "gj": 2598,
      "Ekowd": 2599,
      "knAlIdZ": 2600,
      "AdZEkt": 2601,
      "glowIN": 2602,
      "gejzd": 2603,
      "tSEkIN": 2604,
      "sVk": 2605,
      "powl": 2606,
      "nlajk": 2607,
      "dZEni": 2608,
      "lOjr": 2609,
      "Iftr": 2610,
      "sejl": 2611,
      "tVg": 2612,
      "Sejks": 2613,
      "lId": 2614,
      "dZun": 2615,
      "sVspEkt": 2616,
      "kejdZ": 2617,
      "kIm": 2618,
      "ImpejS": 2619,
      "sawndIN": 2620,
      "lajks": 2621,
      "dAgz": 2622,
      "fUtstEps": 2623,
      "spIN": 2624,
      "Endli": 2625,
      "sajnd": 2626,
      "sunr": 2627,
      "tEns": 2628,
      "fES": 2629,
      "umr": 2630,
      "fwej": 2631,
      "hAli": 2632,
      "tSif": 2633,
      "kVtIN": 2634,
      "klIf": 2635,
      "tSOkl": 2636,
      "biz": 2637,
      "nm": 2638,
      "Sit": 2639,
      "tIvli": 2640,
      "IntEntS": 2641,
      "Ekst": 2642,
      "InOr": 2643,
      "mitr": 2644,
      "wInst": 2645,
      "hm": 2646,
      "lVst": 2647,
      "OlIN": 2648,
      "kAnfr": 2649,
      "ID": 2650,
      "kowd": 2651,
      "Vnz": 2652,
      "sajzd": 2653,
      "uawt": 2654,
      "sIfIk": 2655,
      "hOlt": 2656,
      "InT": 2657,
      "tEkS": 2658,
      "pInj": 2659,
      "swEl": 2660,
      "pejIN": 2661,
      "tEks": 2662,
      "vIdi": 2663,
      "stin": 2664,
      "klOz": 2665,
      "ImejnIN": 2666,
      "fEd": 2667,
      "sfajd": 2668,
      "lOz": 2669,
      "kAps": 2670,
      "kAmpr": 2671,
      "mst": 2672,
      "dZE": 2673,
      "hElpl": 2674,
      "skEdZ": 2675,
      "sI": 2676,
      "Agr": 2677,
      "Adi": 2678,
      "lIkw": 2679,
      "VNkS": 2680,
      "klejm": 2681,
      "stIr": 2682,
      "ejIN": 2683,
      "ibAdi": 2684,
      "Sajn": 2685,
      "gejmz": 2686,
      "ISu": 2687,
      "gejl": 2688,
      "kOf": 2689,
      "Nd": 2690,
      "tIkli": 2691,
      "kVl": 2692,
      "hVntIN": 2693,
      "pEt": 2694,
      "pIst": 2695,
      "vIs": 2696,
      "sVnlajt": 2697,
      "simIN": 2698,
      "mVm": 2699,
      "dIsplej": 2700,
      "EgzIst": 2701,
      "dEkr": 2702,
      "Egr": 2703,
      "bIS": 2704,
      "dZows": 2705,
      "jud": 2706,
      "ntEr": 2707,
      "kAmb": 2708,
      "SIftr": 2709,
      "hItIN": 2710,
      "nIks": 2711,
      "sEnsIz": 2712,
      "Vpwr": 2713,
      "dmajr": 2714,
      "smIT": 2715,
      "kips": 2716,
      "kOS": 2717,
      "Iksklejmd": 2718,
      "wASIN": 2719,
      "VnIkspEkt": 2720,
      "titS": 2721,
      "pst": 2722,
      "nh": 2723,
      "dajnIN": 2724,
      "sajr": 2725,
      "Antej": 2726,
      "SIr": 2727,
      "lVvIN": 2728,
      "skEdZU": 2729,
      "wINk": 2730,
      "lInd": 2731,
      "dZAni": 2732,
      "ajvwej": 2733,
      "tVmb": 2734,
      "dejn": 2735,
      "bVm": 2736,
      "klowsli": 2737,
      "Sli": 2738,
      "hjumr": 2739,
      "lawdr": 2740,
      "sOl": 2741,
      "Nkf": 2742,
      "tinej": 2743,
      "mejlz": 2744,
      "nejT": 2745,
      "nkr": 2746,
      "bAm": 2747,
      "sVmwVt": 2748,
      "flIn": 2749,
      "mowni": 2750,
      "wIs": 2751,
      "tSIz": 2752,
      "iplejst": 2753,
      "kwIt": 2754,
      "skwr": 2755,
      "mEnd": 2756,
      "Tju": 2757,
      "Izr": 2758,
      "bIlIti": 2759,
      "kejk": 2760,
      "lajtnIN": 2761,
      "Dz": 2762,
      "gawn": 2763,
      "fElow": 2764,
      "slowd": 2765,
      "Dejd": 2766,
      "owg": 2767,
      "uZ": 2768,
      "Imps": 2769,
      "Av": 2770,
      "dejtIN": 2771,
      "dIpr": 2772,
      "mownd": 2773,
      "EskOr": 2774,
      "Sits": 2775,
      "spIl": 2776,
      "sVt": 2777,
      "flejm": 2778,
      "nAdIN": 2779,
      "kApi": 2780,
      "kwAl": 2781,
      "InvIz": 2782,
      "IksplOr": 2783,
      "vAr": 2784,
      "dAl": 2785,
      "majl": 2786,
      "vejg": 2787,
      "stejb": 2788,
      "Insejn": 2789,
      "umIN": 2790,
      "plejr": 2791,
      "lajs": 2792,
      "EpS": 2793,
      "kowlIn": 2794,
      "flowt": 2795,
      "tAd": 2796,
      "AtIk": 2797,
      "fejk": 2798,
      "kIdIN": 2799,
      "dZEnj": 2800,
      "dajm": 2801,
      "vIk": 2802,
      "Ensr": 2803,
      "toj": 2804,
      "vIns": 2805,
      "Inkawntr": 2806,
      "klIk": 2807,
      "fowtow": 2808,
      "VnkAnS": 2809,
      "stAps": 2810,
      "blidIN": 2811,
      "vejnz": 2812,
      "stVdiIN": 2813,
      "sEm": 2814,
      "diz": 2815,
      "Aki": 2816,
      "njuZ": 2817,
      "ItId": 2818,
      "dIfit": 2819,
      "pojntId": 2820,
      "klIn": 2821,
      "kEli": 2822,
      "dEzr": 2823,
      "hejz": 2824,
      "dIlIS": 2825,
      "IkstSejndZ": 2826,
      "lowkejt": 2827,
      "ldz": 2828,
      "mVd": 2829,
      "lVvz": 2830,
      "dZAr": 2831,
      "dIsr": 2832,
      "owtSIN": 2833,
      "imli": 2834,
      "VntId": 2835,
      "tIS": 2836,
      "gIdi": 2837,
      "lownli": 2838,
      "sES": 2839,
      "Esk": 2840,
      "mowtr": 2841,
      "ojst": 2842,
      "bVdi": 2843,
      "zAm": 2844,
      "Ikspowzd": 2845,
      "iAs": 2846,
      "vIS": 2847,
      "SVf": 2848,
      "wEd": 2849,
      "nAv": 2850,
      "midi": 2851,
      "slIpIN": 2852,
      "ili": 2853,
      "zin": 2854,
      "bawd": 2855,
      "kwej": 2856,
      "kp": 2857,
      "spEndIN": 2858,
      "ajts": 2859,
      "vIr": 2860,
      "dejm": 2861,
      "kEvIn": 2862,
      "AdZr": 2863,
      "IlEv": 2864,
      "tejlr": 2865,
      "NkIN": 2866,
      "dis": 2867,
      "klejmd": 2868,
      "InIS": 2869,
      "vIdiow": 2870,
      "lejr": 2871,
      "hAlow": 2872,
      "dIklEr": 2873,
      "bejt": 2874,
      "kgr": 2875,
      "lejtIN": 2876,
      "Sejn": 2877,
      "swIN": 2878,
      "bowz": 2879,
      "Elm": 2880,
      "vVlnr": 2881,
      "wIg": 2882,
      "nsfr": 2883,
      "TIr": 2884,
      "ksEsf": 2885,
      "mItS": 2886,
      "bIlONd": 2887,
      "dilIN": 2888,
      "dIsEnd": 2889,
      "SAts": 2890,
      "owpr": 2891,
      "lawIN": 2892,
      "ejpr": 2893,
      "glImps": 2894,
      "aws": 2895,
      "SajnIN": 2896,
      "IkspEnsIv": 2897,
      "dejEm": 2898,
      "wUlvz": 2899,
      "ilajzIN": 2900,
      "Edwr": 2901,
      "lI": 2902,
      "Enib": 2903,
      "IpS": 2904,
      "dIvajs": 2905,
      "SU": 2906,
      "ksEnt": 2907,
      "tINg": 2908,
      "lUr": 2909,
      "lIS": 2910,
      "dZud": 2911,
      "gEsts": 2912,
      "mIdnajt": 2913,
      "wISIN": 2914,
      "hElm": 2915,
      "hVd": 2916,
      "dIlIbr": 2917,
      "ejtin": 2918,
      "dZEm": 2919,
      "dl": 2920,
      "spInIN": 2921,
      "stIks": 2922,
      "dZajz": 2923,
      "dvajs": 2924,
      "kEt": 2925,
      "Ibz": 2926,
      "sVndej": 2927,
      "skwIn": 2928,
      "tSowkt": 2929,
      "TOtf": 2930,
      "kINz": 2931,
      "gwEn": 2932,
      "tizIN": 2933,
      "stejk": 2934,
      "VktSr": 2935,
      "wEb": 2936,
      "linz": 2937,
      "kowst": 2938,
      "dIgIN": 2939,
      "spajdr": 2940,
      "mejts": 2941,
      "bajk": 2942,
      "SApIN": 2943,
      "lIti": 2944,
      "kajl": 2945,
      "dVNk": 2946,
      "flIk": 2947,
      "stEl": 2948,
      "nl": 2949,
      "Ivild": 2950,
      "sVl": 2951,
      "pVp": 2952,
      "sowld": 2953,
      "SEltr": 2954,
      "pejntIN": 2955,
      "stejnd": 2956,
      "fejm": 2957,
      "nElt": 2958,
      "lejtli": 2959,
      "nVk": 2960,
      "pIti": 2961,
      "mVf": 2962,
      "mAdr": 2963,
      "Impl": 2964,
      "owtEst": 2965,
      "stAk": 2966,
      "ETs": 2967,
      "wajp": 2968,
      "fAg": 2969,
      "dIfEnd": 2970,
      "sIts": 2971,
      "sejvIN": 2972,
      "wundz": 2973,
      "mj": 2974,
      "dZejl": 2975,
      "skj": 2976,
      "ajtr": 2977,
      "dItejl": 2978,
      "flVSt": 2979,
      "tajlr": 2980,
      "OsIN": 2981,
      "Endl": 2982,
      "SawtIN": 2983,
      "bIhejvjr": 2984,
      "stejts": 2985,
      "nowp": 2986,
      "OTr": 2987,
      "lIr": 2988,
      "uzi": 2989,
      "IksplowZ": 2990,
      "ndwItS": 2991,
      "dE": 2992,
      "nAkIN": 2993,
      "wejvIN": 2994,
      "ejzr": 2995,
      "fEDr": 2996,
      "nit": 2997,
      "mjuzm": 2998,
      "IdZIN": 2999,
      "nIs": 3000,
      "pVntSt": 3001,
      "tSiz": 3002,
      "tajtr": 3003,
      "mAnt": 3004,
      "pit": 3005,
      "gu": 3006,
      "sowlz": 3007,
      "stVbr": 3008,
      "awtSt": 3009,
      "tizd": 3010,
      "howlz": 3011,
      "Sejpt": 3012,
      "Edz": 3013,
      "mIlk": 3014,
      "mAli": 3015,
      "Imejnz": 3016,
      "mEg": 3017,
      "sIkstin": 3018,
      "sININ": 3019,
      "Nki": 3020,
      "Anz": 3021,
      "dAntej": 3022,
      "sEts": 3023,
      "Ekspr": 3024,
      "plVndZ": 3025,
      "VstIN": 3026,
      "sfIr": 3027,
      "flowIN": 3028,
      "dIsbIlif": 3029,
      "sEpS": 3030,
      "gUdbaj": 3031,
      "kEndr": 3032,
      "SUgr": 3033,
      "fulIS": 3034,
      "tIn": 3035,
      "ntejS": 3036,
      "IvilIN": 3037,
      "flEkt": 3038,
      "pajd": 3039,
      "skA": 3040,
      "Ivil": 3041,
      "wINkt": 3042,
      "IzVlt": 3043,
      "bAbi": 3044,
      "mpr": 3045,
      "ItOr": 3046,
      "EtSIN": 3047,
      "nItSr": 3048,
      "sits": 3049,
      "SIftIN": 3050,
      "jEp": 3051,
      "wIpt": 3052,
      "IzVl": 3053,
      "tEmptIN": 3054,
      "luIs": 3055,
      "lows": 3056,
      "EntSr": 3057,
      "fu": 3058,
      "vajvd": 3059,
      "stVft": 3060,
      "bIgInz": 3061,
      "flEks": 3062,
      "zowi": 3063,
      "skIlz": 3064,
      "zAr": 3065,
      "glItr": 3066,
      "hUk": 3067,
      "klVtSt": 3068,
      "kVpt": 3069,
      "majkr": 3070,
      "sliv": 3071,
      "sIs": 3072,
      "imuv": 3073,
      "kAmli": 3074,
      "sVnz": 3075,
      "snejk": 3076,
      "dZEsIk": 3077,
      "gejts": 3078,
      "kIkIN": 3079,
      "plejsIN": 3080,
      "pUts": 3081,
      "lAbi": 3082,
      "lowp": 3083,
      "sajdwOk": 3084,
      "kowtS": 3085,
      "fVNkS": 3086,
      "ejvr": 3087,
      "duk": 3088,
      "blINk": 3089,
      "swejd": 3090,
      "mejkVp": 3091,
      "nuzpejpr": 3092,
      "hejst": 3093,
      "swithAr": 3094,
      "uts": 3095,
      "lejtId": 3096,
      "but": 3097,
      "Env": 3098,
      "klajmIN": 3099,
      "lAks": 3100,
      "lOg": 3101,
      "InTuzi": 3102,
      "nvi": 3103,
      "bejst": 3104,
      "fIts": 3105,
      "tIvz": 3106,
      "ejnr": 3107,
      "IkwIpm": 3108,
      "vm": 3109,
      "kawr": 3110,
      "ajdz": 3111,
      "sImb": 3112,
      "fUtbOl": 3113,
      "klowk": 3114,
      "flowtIN": 3115,
      "dZIl": 3116,
      "Ints": 3117,
      "ikOl": 3118,
      "hejl": 3119,
      "dEdli": 3120,
      "liow": 3121,
      "wund": 3122,
      "nAm": 3123,
      "lAs": 3124,
      "nidIN": 3125,
      "Ilum": 3126,
      "mVnd": 3127,
      "wImpr": 3128,
      "dZVmpIN": 3129,
      "stAn": 3130,
      "kIdn": 3131,
      "hEDr": 3132,
      "idZ": 3133,
      "flEkS": 3134,
      "jusl": 3135,
      "nik": 3136,
      "owmi": 3137,
      "Vnk": 3138,
      "lVg": 3139,
      "tbit": 3140,
      "Ekow": 3141,
      "owks": 3142,
      "dIkt": 3143,
      "IdZr": 3144,
      "lun": 3145,
      "dvEntSr": 3146,
      "ajbd": 3147,
      "sowsi": 3148,
      "bEg": 3149,
      "kwIvr": 3150,
      "kejtIN": 3151,
      "hIlz": 3152,
      "lVndZ": 3153,
      "bajtIN": 3154,
      "hElTi": 3155,
      "plajz": 3156,
      "bejsm": 3157,
      "wejd": 3158,
      "bEgd": 3159,
      "iejtIN": 3160,
      "Eksr": 3161,
      "VnIkspEktId": 3162,
      "snIf": 3163,
      "vejn": 3164,
      "OT": 3165,
      "kowk": 3166,
      "Eld": 3167,
      "SImr": 3168,
      "dAt": 3169,
      "Sowz": 3170,
      "gowl": 3171,
      "skawt": 3172,
      "VNg": 3173,
      "sVkIN": 3174,
      "IlIdZ": 3175,
      "bUlSIt": 3176,
      "Ink": 3177,
      "pejst": 3178,
      "dZowl": 3179,
      "tejp": 3180,
      "jElIN": 3181,
      "zEst": 3182,
      "dZejd": 3183,
      "gejb": 3184,
      "buT": 3185,
      "sEs": 3186,
      "ndfUl": 3187,
      "mpejn": 3188,
      "twIstIN": 3189,
      "lImz": 3190,
      "klIkt": 3191,
      "inz": 3192,
      "nnown": 3193,
      "ETl": 3194,
      "pajr": 3195,
      "spEnsr": 3196,
      "bzOr": 3197,
      "itEndIN": 3198,
      "dIskVS": 3199,
      "lejs": 3200,
      "zIr": 3201,
      "wIzr": 3202,
      "nvinj": 3203,
      "klinIN": 3204,
      "Idz": 3205,
      "swIftli": 3206,
      "dZImi": 3207,
      "pejtr": 3208,
      "pits": 3209,
      "wOkr": 3210,
      "mIks": 3211,
      "fEst": 3212,
      "mAnIk": 3213,
      "fowks": 3214,
      "Elbowz": 3215,
      "owli": 3216,
      "pawndId": 3217,
      "sajdwejz": 3218,
      "kINd": 3219,
      "ajsi": 3220,
      "wajpIN": 3221,
      "izIN": 3222,
      "dAkj": 3223,
      "klVN": 3224,
      "bOld": 3225,
      "sinjr": 3226,
      "ojr": 3227,
      "wEs": 3228,
      "kEm": 3229,
      "hilIN": 3230,
      "blowIN": 3231,
      "ndZi": 3232,
      "bejb": 3233,
      "hOnt": 3234,
      "ojn": 3235,
      "bVg": 3236,
      "gejn": 3237,
      "muviz": 3238,
      "dawtId": 3239,
      "swEtr": 3240,
      "IsEpS": 3241,
      "kajndz": 3242,
      "swININ": 3243,
      "jow": 3244,
      "mIstIr": 3245,
      "tEnst": 3246,
      "najzd": 3247,
      "lAkr": 3248,
      "bEgIN": 3249,
      "flVN": 3250,
      "hElT": 3251,
      "ih": 3252,
      "nSUr": 3253,
      "blAks": 3254,
      "bIts": 3255,
      "bVnd": 3256,
      "kAli": 3257,
      "mAt": 3258,
      "idAn": 3259,
      "fildz": 3260,
      "AidAn": 3261,
      "Izi": 3262,
      "tlIN": 3263,
      "Elr": 3264,
      "Imd": 3265,
      "wejkIN": 3266,
      "dowm": 3267,
      "ajp": 3268,
      "pik": 3269,
      "klVtSIN": 3270,
      "Ekj": 3271,
      "gO": 3272,
      "flIp": 3273,
      "spIld": 3274,
      "fjunr": 3275,
      "fajs": 3276,
      "mVg": 3277,
      "kjr": 3278,
      "spikr": 3279,
      "lIl": 3280,
      "ajzINli": 3281,
      "nIt": 3282,
      "mIni": 3283,
      "hUkt": 3284,
      "hEm": 3285,
      "ejf": 3286,
      "kAntEnts": 3287,
      "ls": 3288,
      "kejAs": 3289,
      "Sajni": 3290,
      "ejdIN": 3291,
      "gejnd": 3292,
      "IkspEr": 3293,
      "Adz": 3294,
      "vElv": 3295,
      "awndZ": 3296,
      "jusf": 3297,
      "owdz": 3298,
      "kwi": 3299,
      "kVf": 3300,
      "blINkIN": 3301,
      "pInd": 3302,
      "IdIT": 3303,
      "bin": 3304,
      "howst": 3305,
      "fEnd": 3306,
      "mVndi": 3307,
      "EnSUr": 3308,
      "klOd": 3309,
      "dIpt": 3310,
      "klind": 3311,
      "ajzr": 3312,
      "sowkt": 3313,
      "IkS": 3314,
      "Emf": 3315,
      "tojl": 3316,
      "hajwej": 3317,
      "wikn": 3318,
      "Sip": 3319,
      "isIN": 3320,
      "Influ": 3321,
      "tiejtS": 3322,
      "munlajt": 3323,
      "ISuz": 3324,
      "ntIr": 3325,
      "ojld": 3326,
      "nowb": 3327,
      "nEkl": 3328,
      "zIz": 3329,
      "fowtowz": 3330,
      "tajgr": 3331,
      "ntejnd": 3332,
      "DVs": 3333,
      "fAnd": 3334,
      "pju": 3335,
      "sIdni": 3336,
      "gIt": 3337,
      "spajt": 3338,
      "ivz": 3339,
      "EndSIp": 3340,
      "stur": 3341,
      "sik": 3342,
      "slVmpt": 3343,
      "dejmi": 3344,
      "swowl": 3345,
      "ngr": 3346,
      "skawld": 3347,
      "tEktIv": 3348,
      "mVlt": 3349,
      "pisf": 3350,
      "dEt": 3351,
      "nejl": 3352,
      "ejndZm": 3353,
      "uzd": 3354,
      "blEs": 3355,
      "nIkowl": 3356,
      "Alvd": 3357,
      "Vnr": 3358,
      "lOn": 3359,
      "ptAp": 3360,
      "majld": 3361,
      "Engej": 3362,
      "stIkIN": 3363,
      "ejnt": 3364,
      "Inkwajr": 3365,
      "sejfli": 3366,
      "juT": 3367,
      "owT": 3368,
      "twInz": 3369,
      "lidz": 3370,
      "stOl": 3371,
      "wEstr": 3372,
      "InvItejS": 3373,
      "wITdr": 3374,
      "lOnt": 3375,
      "hajli": 3376,
      "sVDr": 3377,
      "Istejt": 3378,
      "pVm": 3379,
      "ejlr": 3380,
      "stul": 3381,
      "flowd": 3382,
      "ISIN": 3383,
      "SElf": 3384,
      "iks": 3385,
      "ajtli": 3386,
      "junajt": 3387,
      "hejli": 3388,
      "dwOr": 3389,
      "lkj": 3390,
      "bejbiz": 3391,
      "ejsi": 3392,
      "spIn": 3393,
      "tSajldhUd": 3394,
      "dejzi": 3395,
      "fajtr": 3396,
      "mojst": 3397,
      "sOt": 3398,
      "iEl": 3399,
      "pEns": 3400,
      "blAkt": 3401,
      "lajtIN": 3402,
      "fIltr": 3403,
      "ml": 3404,
      "fOls": 3405,
      "tVb": 3406,
      "kwEn": 3407,
      "Siz": 3408,
      "Vks": 3409,
      "klEvr": 3410,
      "pVnISm": 3411,
      "swIm": 3412,
      "ksid": 3413,
      "nklu": 3414,
      "wElmIN": 3415,
      "stEd": 3416,
      "EdZd": 3417,
      "mEst": 3418,
      "Imowt": 3419,
      "sowd": 3420,
      "tjAr": 3421,
      "kAntEnt": 3422,
      "tejn": 3423,
      "lawndZ": 3424,
      "IkstSejndZd": 3425,
      "IdIkt": 3426,
      "nju": 3427,
      "mEks": 3428,
      "tEktIN": 3429,
      "plejf": 3430,
      "kAgow": 3431,
      "dZENks": 3432,
      "Nzaj": 3433,
      "ntInjuz": 3434,
      "kupr": 3435,
      "plejts": 3436,
      "awnz": 3437,
      "diow": 3438,
      "dZus": 3439,
      "Empr": 3440,
      "ntajn": 3441,
      "dZEstS": 3442,
      "bVz": 3443,
      "dVkS": 3444,
      "Nkli": 3445,
      "owbAt": 3446,
      "wajldli": 3447,
      "zEnt": 3448,
      "lejIN": 3449,
      "Efjus": 3450,
      "pikt": 3451,
      "nowtIs": 3452,
      "kAmplEks": 3453,
      "glVvz": 3454,
      "blown": 3455,
      "slejv": 3456,
      "dZojnIN": 3457,
      "bEnd": 3458,
      "nvr": 3459,
      "hild": 3460,
      "slIN": 3461,
      "tOs": 3462,
      "sElfIS": 3463,
      "ejndZli": 3464,
      "sps": 3465,
      "IpEr": 3466,
      "Ekshejld": 3467,
      "nowv": 3468,
      "tfOr": 3469,
      "smVg": 3470,
      "lImp": 3471,
      "vojdIN": 3472,
      "mejr": 3473,
      "mpIN": 3474,
      "hejtr": 3475,
      "ownIN": 3476,
      "kin": 3477,
      "bowld": 3478,
      "howmz": 3479,
      "hEk": 3480,
      "tejlz": 3481,
      "Aptr": 3482,
      "dejli": 3483,
      "ivEndZ": 3484,
      "lbr": 3485,
      "tSip": 3486,
      "InEv": 3487,
      "tEd": 3488,
      "tOlr": 3489,
      "hElIk": 3490,
      "mIT": 3491,
      "IksEpS": 3492,
      "tinejdZr": 3493,
      "stEfAn": 3494,
      "SUdnt": 3495,
      "pIg": 3496,
      "EndjUr": 3497,
      "pawndz": 3498,
      "tuT": 3499,
      "dIfaj": 3500,
      "dvr": 3501,
      "dIvOr": 3502,
      "swItSt": 3503,
      "EtSr": 3504,
      "fVmb": 3505,
      "IntIr": 3506,
      "nAstr": 3507,
      "tSUr": 3508,
      "nIpj": 3509,
      "mpi": 3510,
      "Epj": 3511,
      "flajz": 3512,
      "zES": 3513,
      "kUkIN": 3514,
      "ptIv": 3515,
      "mAl": 3516,
      "IlejtId": 3517,
      "skEdZUl": 3518,
      "howps": 3519,
      "majnr": 3520,
      "wild": 3521,
      "AbIN": 3522,
      "skwizIN": 3523,
      "vin": 3524,
      "kawntIN": 3525,
      "Sejmd": 3526,
      "gejtr": 3527,
      "slajs": 3528,
      "Vbr": 3529,
      "Vsti": 3530,
      "gAs": 3531,
      "Imz": 3532,
      "bawnst": 3533,
      "dZIndZr": 3534,
      "nIkt": 3535,
      "nIst": 3536,
      "awtfIt": 3537,
      "tOsIN": 3538,
      "idi": 3539,
      "VntSIN": 3540,
      "blIs": 3541,
      "gItAr": 3542,
      "bajnd": 3543,
      "hElIkAptr": 3544,
      "Ilaj": 3545,
      "lp": 3546,
      "smElz": 3547,
      "tIks": 3548,
      "IwOr": 3549,
      "Slajt": 3550,
      "nIti": 3551,
      "fajndz": 3552,
      "snej": 3553,
      "sikIN": 3554,
      "nspOr": 3555,
      "gdZEstS": 3556,
      "suts": 3557,
      "snIr": 3558,
      "IgAr": 3559,
      "fivr": 3560,
      "mik": 3561,
      "sAks": 3562,
      "lajtr": 3563,
      "nawns": 3564,
      "dmr": 3565,
      "sVmdej": 3566,
      "ubi": 3567,
      "swImIN": 3568,
      "fidIN": 3569,
      "vejt": 3570,
      "mAk": 3571,
      "towbi": 3572,
      "mVNk": 3573,
      "SVvIN": 3574,
      "lip": 3575,
      "INg": 3576,
      "kInd": 3577,
      "twr": 3578,
      "Alv": 3579,
      "hAst": 3580,
      "dZVdZm": 3581,
      "lejl": 3582,
      "plid": 3583,
      "hIts": 3584,
      "blVS": 3585,
      "faw": 3586,
      "pAndr": 3587,
      "plajd": 3588,
      "ksIN": 3589,
      "wejvr": 3590,
      "pawdr": 3591,
      "ini": 3592,
      "tAn": 3593,
      "majti": 3594,
      "lejbr": 3595,
      "kipr": 3596,
      "sutkejs": 3597,
      "gAdd": 3598,
      "dIspEr": 3599,
      "IntEntli": 3600,
      "stA": 3601,
      "slIk": 3602,
      "lINz": 3603,
      "wIldr": 3604,
      "fIlm": 3605,
      "vEntSr": 3606,
      "flVS": 3607,
      "dZejz": 3608,
      "sIksti": 3609,
      "fajlz": 3610,
      "lajftajm": 3611,
      "bAn": 3612,
      "slEndr": 3613,
      "wAr": 3614,
      "pown": 3615,
      "dajn": 3616,
      "wIns": 3617,
      "dVsti": 3618,
      "dVlt": 3619,
      "glowd": 3620,
      "siv": 3621,
      "sINkIN": 3622,
      "flEd": 3623,
      "spiSiz": 3624,
      "kVts": 3625,
      "down": 3626,
      "vl": 3627,
      "Ingr": 3628,
      "Sejki": 3629,
      "ItIS": 3630,
      "mVl": 3631,
      "snVg": 3632,
      "fownz": 3633,
      "milj": 3634,
      "nINz": 3635,
      "dIzajn": 3636,
      "blIvi": 3637,
      "wIski": 3638,
      "dIzajnd": 3639,
      "dZIz": 3640,
      "sowbr": 3641,
      "dElt": 3642,
      "nkluZ": 3643,
      "VNks": 3644,
      "IzVlts": 3645,
      "lEm": 3646,
      "IdZIz": 3647,
      "Istin": 3648,
      "nn": 3649,
      "vejkejS": 3650,
      "twItSt": 3651,
      "gm": 3652,
      "snik": 3653,
      "plAt": 3654,
      "lb": 3655,
      "sEkr": 3656,
      "dZowkIN": 3657,
      "vAlju": 3658,
      "stim": 3659,
      "dZAbz": 3660,
      "mIlr": 3661,
      "spEktr": 3662,
      "kjul": 3663,
      "sajnm": 3664,
      "dIziz": 3665,
      "sil": 3666,
      "mowt": 3667,
      "ivd": 3668,
      "dajr": 3669,
      "Adr": 3670,
      "snIft": 3671,
      "Ii": 3672,
      "lIbr": 3673,
      "klIt": 3674,
      "mjut": 3675,
      "mET": 3676,
      "sVnSajn": 3677,
      "spu": 3678,
      "blejdz": 3679,
      "kowIns": 3680,
      "dejtId": 3681,
      "kVps": 3682,
      "nO": 3683,
      "pEni": 3684,
      "skwIntId": 3685,
      "utin": 3686,
      "lVmp": 3687,
      "tEknIk": 3688,
      "Vfli": 3689,
      "uvIN": 3690,
      "ejni": 3691,
      "Inhejld": 3692,
      "tSejsIN": 3693,
      "EktId": 3694,
      "lejsi": 3695,
      "tub": 3696,
      "EngejdZ": 3697,
      "IkOld": 3698,
      "nVts": 3699,
      "smowkIN": 3700,
      "sOs": 3701,
      "Adli": 3702,
      "dIpEnd": 3703,
      "pajn": 3704,
      "towst": 3705,
      "mejkr": 3706,
      "VdZd": 3707,
      "bIlivIN": 3708,
      "SElvz": 3709,
      "ejZ": 3710,
      "vow": 3711,
      "vEs": 3712,
      "Afaj": 3713,
      "mOl": 3714,
      "tEstIN": 3715,
      "kVltSr": 3716,
      "bAd": 3717,
      "ndsk": 3718,
      "dejl": 3719,
      "uu": 3720,
      "nlAkt": 3721,
      "vEdZ": 3722,
      "ln": 3723,
      "EngejdZd": 3724,
      "ajvz": 3725,
      "tSejnz": 3726,
      "Adow": 3727,
      "ItSt": 3728,
      "towl": 3729,
      "EdZIstr": 3730,
      "bim": 3731,
      "EntSt": 3732,
      "tAmi": 3733,
      "hjumIli": 3734,
      "dVv": 3735,
      "lONsajd": 3736,
      "sejvr": 3737,
      "sawr": 3738,
      "Sawts": 3739,
      "gnIfIk": 3740,
      "lEktSr": 3741,
      "idr": 3742,
      "ntInjuIN": 3743,
      "supIr": 3744,
      "tEdi": 3745,
      "owsr": 3746,
      "fiown": 3747,
      "Okwr": 3748,
      "ntejn": 3749,
      "simINli": 3750,
      "kawnts": 3751,
      "AfajEl": 3752,
      "fejdIN": 3753,
      "vejgli": 3754,
      "lVm": 3755,
      "Isaj": 3756,
      "tut": 3757,
      "mjul": 3758,
      "lejb": 3759,
      "nutr": 3760,
      "stIkli": 3761,
      "ejdId": 3762,
      "ww": 3763,
      "sumIN": 3764,
      "ktIk": 3765,
      "stilIN": 3766,
      "itm": 3767,
      "vIvi": 3768,
      "IluZ": 3769,
      "spAts": 3770,
      "tVgIN": 3771,
      "dZVNg": 3772,
      "ImId": 3773,
      "lIzi": 3774,
      "uIN": 3775,
      "IntImId": 3776,
      "majndr": 3777,
      "sejlz": 3778,
      "bejsIkli": 3779,
      "sElz": 3780,
      "awtS": 3781,
      "dZunjr": 3782,
      "dwEl": 3783,
      "InstINktIvli": 3784,
      "dejts": 3785,
      "dIdZ": 3786,
      "nsfOr": 3787,
      "mejzd": 3788,
      "gejzIN": 3789,
      "kUS": 3790,
      "pAst": 3791,
      "ejsf": 3792,
      "TVd": 3793,
      "Estl": 3794,
      "lEst": 3795,
      "iejS": 3796,
      "dawnwr": 3797,
      "kejsi": 3798,
      "slIt": 3799,
      "IntId": 3800,
      "nowtIsIN": 3801,
      "lajl": 3802,
      "tSIp": 3803,
      "bajIN": 3804,
      "sVmtajm": 3805,
      "lutEn": 3806,
      "gAl": 3807,
      "nIki": 3808,
      "gjuIN": 3809,
      "dejlajt": 3810,
      "powkt": 3811,
      "bEndZ": 3812,
      "Enitajm": 3813,
      "lmIn": 3814,
      "kejtId": 3815,
      "stajf": 3816,
      "dm": 3817,
      "dZowzi": 3818,
      "IksajtIN": 3819,
      "stejn": 3820,
      "suDIN": 3821,
      "gUdn": 3822,
      "flIntSt": 3823,
      "ndpA": 3824,
      "wISIz": 3825,
      "sIpt": 3826,
      "ajkIN": 3827,
      "ElIk": 3828,
      "Vbz": 3829,
      "ajlIdz": 3830,
      "stOkt": 3831,
      "awndINz": 3832,
      "fowldIN": 3833,
      "sVv": 3834,
      "Itajr": 3835,
      "mownz": 3836,
      "sAZ": 3837,
      "wejn": 3838,
      "dZEfr": 3839,
      "kwejnt": 3840,
      "uS": 3841,
      "nowl": 3842,
      "gowsts": 3843,
      "sajdIN": 3844,
      "hApt": 3845,
      "InspEkt": 3846,
      "kEnzi": 3847,
      "blVSt": 3848,
      "blAkIN": 3849,
      "bdZEkt": 3850,
      "Isi": 3851,
      "tEknAl": 3852,
      "mpowz": 3853,
      "IzEnt": 3854,
      "mejz": 3855,
      "nAb": 3856,
      "sild": 3857,
      "izEnt": 3858,
      "bAst": 3859,
      "kowdi": 3860,
      "dVmpt": 3861,
      "ejdZId": 3862,
      "nitli": 3863,
      "Oft": 3864,
      "lVndZd": 3865,
      "stow": 3866,
      "nuvr": 3867,
      "nsumd": 3868,
      "kajr": 3869,
      "wElmd": 3870,
      "dIzaj": 3871,
      "pejntr": 3872,
      "spajk": 3873,
      "Odr": 3874,
      "kVv": 3875,
      "imajndr": 3876,
      "vEndZ": 3877,
      "nizi": 3878,
      "blejz": 3879,
      "mVNst": 3880,
      "dEpTs": 3881,
      "nk": 3882,
      "Insr": 3883,
      "Isajsli": 3884,
      "lup": 3885,
      "zik": 3886,
      "kVlEkt": 3887,
      "kAmpawnd": 3888,
      "Itiz": 3889,
      "fejljr": 3890,
      "tSejst": 3891,
      "vajr": 3892,
      "pVNk": 3893,
      "lajnIN": 3894,
      "mISEl": 3895,
      "nowEl": 3896,
      "mIdst": 3897,
      "Inklaj": 3898,
      "mjuzi": 3899,
      "pItSt": 3900,
      "ElIs": 3901,
      "tAlr": 3902,
      "wASINt": 3903,
      "Itli": 3904,
      "bowldr": 3905,
      "hOld": 3906,
      "nAks": 3907,
      "dawnt": 3908,
      "sOft": 3909,
      "pAlISt": 3910,
      "pIks": 3911,
      "pil": 3912,
      "mf": 3913,
      "lajzIN": 3914,
      "ajdZ": 3915,
      "hAn": 3916,
      "sowp": 3917,
      "hEdejk": 3918,
      "Empajr": 3919,
      "fISIN": 3920,
      "fEn": 3921,
      "skowp": 3922,
      "fEm": 3923,
      "owst": 3924,
      "gVm": 3925,
      "hIstEr": 3926,
      "Inh": 3927,
      "gjud": 3928,
      "gIfts": 3929,
      "IstIk": 3930,
      "dVmp": 3931,
      "ejps": 3932,
      "kOft": 3933,
      "lidZ": 3934,
      "pEpr": 3935,
      "sElr": 3936,
      "bejsIk": 3937,
      "nIz": 3938,
      "fjuzIN": 3939,
      "pejsIN": 3940,
      "ejdZIN": 3941,
      "imajndIN": 3942,
      "wikli": 3943,
      "kAmr": 3944,
      "glIs": 3945,
      "mIsti": 3946,
      "mawDz": 3947,
      "Nr": 3948,
      "sizd": 3949,
      "nojIN": 3950,
      "lIkIN": 3951,
      "fbi": 3952,
      "bejsbOl": 3953,
      "mejg": 3954,
      "dZip": 3955,
      "vowt": 3956,
      "ndId": 3957,
      "mVskj": 3958,
      "swipIN": 3959,
      "ip": 3960,
      "lowz": 3961,
      "vajt": 3962,
      "sVNk": 3963,
      "tejtIN": 3964,
      "IlEnt": 3965,
      "Vnpr": 3966,
      "twINk": 3967,
      "fAks": 3968,
      "plejnz": 3969,
      "jO": 3970,
      "wilz": 3971,
      "Ih": 3972,
      "lAkIN": 3973,
      "sEntS": 3974,
      "kwEns": 3975,
      "nbr": 3976,
      "blA": 3977,
      "blEr": 3978,
      "IkVvr": 3979,
      "skwAd": 3980,
      "titSIN": 3981,
      "Alvz": 3982,
      "juz": 3983,
      "tul": 3984,
      "sajkIk": 3985,
      "Endi": 3986,
      "gEsIN": 3987,
      "Iki": 3988,
      "ejvd": 3989,
      "owzIz": 3990,
      "slIm": 3991,
      "sir": 3992,
      "pkIn": 3993,
      "bVks": 3994,
      "maws": 3995,
      "lil": 3996,
      "nojzIz": 3997,
      "mO": 3998,
      "dVk": 3999,
      "nejowmi": 4000,
      "luiz": 4001,
      "fawl": 4002,
      "pIs": 4003,
      "tVkr": 4004,
      "InsVl": 4005,
      "dIkl": 4006,
      "ejg": 4007,
      "InfEkt": 4008,
      "lONIN": 4009,
      "vIv": 4010,
      "dajs": 4011,
      "sVni": 4012,
      "bIkVmz": 4013,
      "vEst": 4014,
      "sIlvi": 4015,
      "skIni": 4016,
      "IzEmb": 4017,
      "mowld": 4018,
      "bj": 4019,
      "ejkr": 4020,
      "hows": 4021,
      "fItIN": 4022,
      "InstINkts": 4023,
      "dIsmIs": 4024,
      "tSEl": 4025,
      "awzr": 4026,
      "dIstINkt": 4027,
      "dZowi": 4028,
      "dImitr": 4029,
      "pilIN": 4030,
      "spiks": 4031,
      "pajp": 4032,
      "nVdZd": 4033,
      "wajdr": 4034,
      "spEd": 4035,
      "Emi": 4036,
      "kowm": 4037,
      "vOr": 4038,
      "vAm": 4039,
      "sONz": 4040,
      "owti": 4041,
      "slajst": 4042,
      "dIzi": 4043,
      "gus": 4044,
      "awzd": 4045,
      "smIr": 4046,
      "nIm": 4047,
      "fIfT": 4048,
      "blaws": 4049,
      "dEks": 4050,
      "isOr": 4051,
      "pAnd": 4052,
      "hVgIN": 4053,
      "mUr": 4054,
      "nAnsEns": 4055,
      "dZownz": 4056,
      "dawntawn": 4057,
      "sajts": 4058,
      "biINz": 4059,
      "spun": 4060,
      "wIzd": 4061,
      "nEst": 4062,
      "igow": 4063,
      "mejni": 4064,
      "klIp": 4065,
      "sejnt": 4066,
      "sItiz": 4067,
      "TVmz": 4068,
      "pEnt": 4069,
      "nIb": 4070,
      "zEs": 4071,
      "lOndr": 4072,
      "Abd": 4073,
      "Andr": 4074,
      "dmIn": 4075,
      "wIp": 4076,
      "glimIN": 4077,
      "swip": 4078,
      "pejvm": 4079,
      "glej": 4080,
      "ISi": 4081,
      "bejk": 4082,
      "ejdZd": 4083,
      "stip": 4084,
      "zAmbi": 4085,
      "hIstOr": 4086,
      "nowtbUk": 4087,
      "pild": 4088,
      "pIlowz": 4089,
      "bEndIN": 4090,
      "bVn": 4091,
      "Inklajnd": 4092,
      "kAf": 4093,
      "tajz": 4094,
      "udr": 4095,
      "bIlz": 4096,
      "IdZd": 4097,
      "lajr": 4098,
      "najvz": 4099,
      "lOntSt": 4100,
      "klVstr": 4101,
      "nplEz": 4102,
      "dApt": 4103,
      "lIfts": 4104,
      "nejvi": 4105,
      "fInISIN": 4106,
      "powzIN": 4107,
      "dZIt": 4108,
      "dZASu": 4109,
      "skajl": 4110,
      "DEl": 4111,
      "ipi": 4112,
      "vIgr": 4113,
      "mbj": 4114,
      "sup": 4115,
      "dIvawr": 4116,
      "tawnz": 4117,
      "hVt": 4118,
      "mejntejn": 4119,
      "nOz": 4120,
      "owdr": 4121,
      "bowts": 4122,
      "lejzi": 4123,
      "nuli": 4124,
      "tSud": 4125,
      "wElT": 4126,
      "dIsOr": 4127,
      "sAm": 4128,
      "smuDd": 4129,
      "tSit": 4130,
      "blVnt": 4131,
      "pIntSt": 4132,
      "zown": 4133,
      "plidIN": 4134,
      "tApIk": 4135,
      "nowS": 4136,
      "lAdZ": 4137,
      "lVS": 4138,
      "InSUr": 4139,
      "owtr": 4140,
      "lejm": 4141,
      "imejl": 4142,
      "fId": 4143,
      "bawnsIN": 4144,
      "nsIst": 4145,
      "kawnti": 4146,
      "dajvr": 4147,
      "smuDli": 4148,
      "IksplejnIN": 4149,
      "dZVdZIN": 4150,
      "itOr": 4151,
      "kojn": 4152,
      "IfEkts": 4153,
      "EtId": 4154,
      "bAksr": 4155,
      "Insajdz": 4156,
      "vAljum": 4157,
      "kAlIn": 4158,
      "zAmbiz": 4159,
      "mINg": 4160,
      "owZr": 4161,
      "tIf": 4162,
      "vA": 4163,
      "hEktr": 4164,
      "ndskejp": 4165,
      "skajlr": 4166,
      "hElpf": 4167,
      "dEkejdz": 4168,
      "tAps": 4169,
      "slivz": 4170,
      "gVnr": 4171,
      "bElgr": 4172,
      "bEki": 4173,
      "kOli": 4174,
      "sIlIti": 4175,
      "kIr": 4176,
      "plVm": 4177,
      "nIn": 4178,
      "fawnt": 4179,
      "sElIN": 4180,
      "plVndZd": 4181,
      "dZEtIk": 4182,
      "kVfs": 4183,
      "slIpr": 4184,
      "tSuEr": 4185,
      "sVngl": 4186,
      "Inwr": 4187,
      "Envi": 4188,
      "Sejdz": 4189,
      "wejts": 4190,
      "spIlIN": 4191,
      "sajIN": 4192,
      "Ostr": 4193,
      "bIlj": 4194,
      "bidi": 4195,
      "Iplajz": 4196,
      "stVnIN": 4197,
      "Om": 4198,
      "skejl": 4199,
      "bIdZ": 4200,
      "ElajdZ": 4201,
      "pEnd": 4202,
      "ejT": 4203,
      "mIstejks": 4204,
      "IfIn": 4205,
      "SAtgVn": 4206,
      "lajdId": 4207,
      "klININ": 4208,
      "Vnb": 4209,
      "wInIN": 4210,
      "tSajniz": 4211,
      "owps": 4212,
      "lum": 4213,
      "hElps": 4214,
      "skAlr": 4215,
      "junik": 4216,
      "IpEnd": 4217,
      "pVf": 4218,
      "uAlvz": 4219,
      "pajld": 4220,
      "dAni": 4221,
      "dIskVst": 4222,
      "kApr": 4223,
      "VktIv": 4224,
      "skawl": 4225,
      "fojr": 4226,
      "sVbst": 4227,
      "ejpIN": 4228,
      "bists": 4229,
      "luTr": 4230,
      "najntin": 4231,
      "kejks": 4232,
      "wAb": 4233,
      "stowv": 4234,
      "AdIn": 4235,
      "kAb": 4236,
      "nilIN": 4237,
      "pVmp": 4238,
      "owbej": 4239,
      "bEdz": 4240,
      "IndIpEnd": 4241,
      "bAdigAr": 4242,
      "bIlVv": 4243,
      "Ilig": 4244,
      "tSowkIN": 4245,
      "lejst": 4246,
      "Imli": 4247,
      "tSajn": 4248,
      "Invajr": 4249,
      "tulz": 4250,
      "howpl": 4251,
      "lOtr": 4252,
      "ktId": 4253,
      "owfajl": 4254,
      "ajmz": 4255,
      "skEl": 4256,
      "nklud": 4257,
      "hivd": 4258,
      "EkowIN": 4259,
      "wajndIN": 4260,
      "klVm": 4261,
      "vejk": 4262,
      "bVdZ": 4263,
      "iSiejtId": 4264,
      "dETs": 4265,
      "IlIm": 4266,
      "sIdi": 4267,
      "bIlVvd": 4268,
      "INt": 4269,
      "mEk": 4270,
      "tSm": 4271,
      "gowSi": 4272,
      "lif": 4273,
      "IntEr": 4274,
      "blejzIN": 4275,
      "IzOr": 4276,
      "slown": 4277,
      "mIm": 4278,
      "ItIk": 4279,
      "Eksp": 4280,
      "InhEr": 4281,
      "majz": 4282,
      "tEsts": 4283,
      "dZUr": 4284,
      "studiow": 4285,
      "blowz": 4286,
      "nIl": 4287,
      "wajnd": 4288,
      "gAbl": 4289,
      "kejtr": 4290,
      "pEd": 4291,
      "@@": 4292,
      "spEkj": 4293,
      "IfIS": 4294,
      "IgzOstS": 4295,
      "sejfr": 4296,
      "bajts": 4297,
      "AtIN": 4298,
      "kowApr": 4299,
      "ntejnr": 4300,
      "dZulz": 4301,
      "IntIN": 4302,
      "AspEkt": 4303,
      "dIkS": 4304,
      "slajdz": 4305,
      "kowInsId": 4306,
      "kAS": 4307,
      "gIld": 4308,
      "dImEnS": 4309,
      "ANk": 4310,
      "kjAr": 4311,
      "udIN": 4312,
      "hVmIN": 4313,
      "pawt": 4314,
      "pIlz": 4315,
      "slVm": 4316,
      "nEg": 4317,
      "sVpr": 4318,
      "vIlj": 4319,
      "sAk": 4320,
      "bits": 4321,
      "wE": 4322,
      "mEsi": 4323,
      "stVN": 4324,
      "dZVNk": 4325,
      "kjuzd": 4326,
      "swEti": 4327,
      "bsk": 4328,
      "lEvr": 4329,
      "mowd": 4330,
      "nejtId": 4331,
      "nEtwr": 4332,
      "vejs": 4333,
      "junj": 4334,
      "hVl": 4335,
      "jnEl": 4336,
      "nEd": 4337,
      "ksElr": 4338,
      "sojl": 4339,
      "ilisIN": 4340,
      "Ilr": 4341,
      "bAni": 4342,
      "pAlow": 4343,
      "hAp": 4344,
      "sejlr": 4345,
      "fOltr": 4346,
      "Onlajn": 4347,
      "mejdZ": 4348,
      "VpS": 4349,
      "dIskVsIN": 4350,
      "towm": 4351,
      "ISli": 4352,
      "fejntli": 4353,
      "fowldz": 4354,
      "VlS": 4355,
      "vEnt": 4356,
      "VSr": 4357,
      "tEmpts": 4358,
      "ub": 4359,
      "IstOr": 4360,
      "InvajtIN": 4361,
      "slowp": 4362,
      "nejtIv": 4363,
      "tSIm": 4364,
      "sVks": 4365,
      "slOtr": 4366,
      "gnIf": 4367,
      "ntajm": 4368,
      "ktSr": 4369,
      "mowb": 4370,
      "mEnts": 4371,
      "kUkiz": 4372,
      "kejtlIn": 4373,
      "sEmi": 4374,
      "tAk": 4375,
      "tuz": 4376,
      "Indr": 4377,
      "nAdi": 4378,
      "hVntSt": 4379,
      "mEnju": 4380,
      "tVk": 4381,
      "bsr": 4382,
      "skIpt": 4383,
      "NktSuEr": 4384,
      "IbEl": 4385,
      "TVmp": 4386,
      "fIkS": 4387,
      "sAbIN": 4388,
      "najzIN": 4389,
      "Sinz": 4390,
      "mIkstSr": 4391,
      "dajz": 4392,
      "owbz": 4393,
      "dajnr": 4394,
      "fin": 4395,
      "mplejnd": 4396,
      "gVs": 4397,
      "tSIps": 4398,
      "dAks": 4399,
      "zejv": 4400,
      "dIsmIst": 4401,
      "dZinj": 4402,
      "bIwIldr": 4403,
      "zejvjr": 4404,
      "bskjUr": 4405,
      "glowb": 4406,
      "blajndIN": 4407,
      "lAv": 4408,
      "awns": 4409,
      "owdi": 4410,
      "sAn": 4411,
      "dZuliEt": 4412,
      "splIntr": 4413,
      "hilr": 4414,
      "owbr": 4415,
      "EnfOr": 4416,
      "tAvi": 4417,
      "sEmb": 4418,
      "finIks": 4419,
      "owniow": 4420,
      "dawts": 4421,
      "swEtIN": 4422,
      "pIlr": 4423,
      "IndVl": 4424,
      "imuvIN": 4425,
      "slejvz": 4426,
      "fjuz": 4427,
      "Atow": 4428,
      "ejti": 4429,
      "wIlINli": 4430,
      "ntowniow": 4431,
      "wid": 4432,
      "mVstr": 4433,
      "hejd": 4434,
      "glajd": 4435,
      "awlz": 4436,
      "tig": 4437,
      "Uks": 4438,
      "fVnd": 4439,
      "klAr": 4440,
      "livaj": 4441,
      "nIkow": 4442,
      "mEtr": 4443,
      "slVN": 4444,
      "gojn": 4445,
      "skow": 4446,
      "bIT": 4447,
      "fAstr": 4448,
      "ajkr": 4449,
      "flIpIN": 4450,
      "sAlv": 4451,
      "Sejps": 4452,
      "VptIN": 4453,
      "ksit": 4454,
      "izAlv": 4455,
      "Ignr": 4456,
      "sVnsEt": 4457,
      "pajpr": 4458,
      "nbEr": 4459,
      "sEnsIN": 4460,
      "blEnd": 4461,
      "Evi": 4462,
      "EN": 4463,
      "minwajl": 4464,
      "fowldr": 4465,
      "IsEnS": 4466,
      "mjuzIN": 4467,
      "bVd": 4468,
      "klowzIz": 4469,
      "mbajnd": 4470,
      "tajl": 4471,
      "kjuS": 4472,
      "kAnsEpt": 4473,
      "dEnIs": 4474,
      "sejdZ": 4475,
      "ipIN": 4476,
      "swAlowIN": 4477,
      "spEktIv": 4478,
      "liS": 4479,
      "bEni": 4480,
      "lEni": 4481,
      "pIdZ": 4482,
      "dOlt": 4483,
      "dIfEnsIv": 4484,
      "hajdr": 4485,
      "IndZd": 4486,
      "lowdIN": 4487,
      "kAki": 4488,
      "ONli": 4489,
      "IlIN": 4490,
      "hIndZ": 4491,
      "fIlTi": 4492,
      "spElz": 4493,
      "kowv": 4494,
      "stIld": 4495,
      "Tl": 4496,
      "nEdr": 4497,
      "Sejv": 4498,
      "owsid": 4499,
      "dEpj": 4500,
      "ntOr": 4501,
      "tEndIN": 4502,
      "ejlj": 4503,
      "pOzIN": 4504,
      "slA": 4505,
      "nlajkli": 4506,
      "kAlAdIn": 4507,
      "sEld": 4508,
      "filIks": 4509,
      "lVgZr": 4510,
      "tSEs": 4511,
      "mAmi": 4512,
      "snIkr": 4513,
      "bVmpt": 4514,
      "EktIN": 4515,
      "hIlt": 4516,
      "ksEptIN": 4517,
      "sejkr": 4518,
      "kejb": 4519,
      "bIhej": 4520,
      "kwIz": 4521,
      "nOzi": 4522,
      "awtwr": 4523,
      "vOn": 4524,
      "dEvIn": 4525,
      "iIs": 4526,
      "ntEnt": 4527,
      "townz": 4528,
      "lONd": 4529,
      "nTr": 4530,
      "iEnt": 4531,
      "nsEstr": 4532,
      "kAmEnts": 4533,
      "flIntS": 4534,
      "nsIs": 4535,
      "SVtIN": 4536,
      "ejmIN": 4537,
      "nejv": 4538,
      "pEtr": 4539,
      "staj": 4540,
      "Inspajr": 4541,
      "vjuz": 4542,
      "bik": 4543,
      "nzi": 4544,
      "slr": 4545,
      "ejvi": 4546,
      "mitINz": 4547,
      "nSIps": 4548,
      "hOlz": 4549,
      "dInajd": 4550,
      "wejl": 4551,
      "slIn": 4552,
      "sInEr": 4553,
      "dItS": 4554,
      "Ekl": 4555,
      "kawboj": 4556,
      "gejtId": 4557,
      "mIli": 4558,
      "skupt": 4559,
      "tOks": 4560,
      "tuzdi": 4561,
      "ejvIN": 4562,
      "sAbz": 4563,
      "gVts": 4564,
      "skIp": 4565,
      "Abi": 4566,
      "fimejlz": 4567,
      "IpitIdli": 4568,
      "nsiz": 4569,
      "smElIN": 4570,
      "bVzIN": 4571,
      "bElz": 4572,
      "dEz": 4573,
      "tiow": 4574,
      "Showl": 4575,
      "Vmz": 4576,
      "sIlki": 4577,
      "vowk": 4578,
      "powstr": 4579,
      "idz": 4580,
      "iplejs": 4581,
      "AbdZEkts": 4582,
      "bVzd": 4583,
      "dIsgVstIN": 4584,
      "VndEd": 4585,
      "lINkt": 4586,
      "dVlts": 4587,
      "luis": 4588,
      "howz": 4589,
      "mEz": 4590,
      "dejzd": 4591,
      "slipi": 4592,
      "sOjr": 4593,
      "tejni": 4594,
      "tSowk": 4595,
      "tajps": 4596,
      "tSuIN": 4597,
      "numr": 4598,
      "imajndz": 4599,
      "IfEktIv": 4600,
      "mowtEl": 4601,
      "dutiz": 4602,
      "ndZElIk": 4603,
      "bO": 4604,
      "nVz": 4605,
      "skOft": 4606,
      "vajvr": 4607,
      "Vpsajd": 4608,
      "ndOr": 4609,
      "wIndz": 4610,
      "sAd": 4611,
      "stIki": 4612,
      "zEl": 4613,
      "skowld": 4614,
      "fIlIp": 4615,
      "gnIS": 4616,
      "vowl": 4617,
      "vEdZt": 4618,
      "tum": 4619,
      "bjus": 4620,
      "mawDd": 4621,
      "kVd": 4622,
      "howmwr": 4623,
      "bVmp": 4624,
      "ElswEr": 4625,
      "InsEkt": 4626,
      "dows": 4627,
      "ng": 4628,
      "Vnf": 4629,
      "Iplej": 4630,
      "nud": 4631,
      "dIgn": 4632,
      "dIsgajz": 4633,
      "hAb": 4634,
      "nfES": 4635,
      "gejpIN": 4636,
      "awdli": 4637,
      "lajkIN": 4638,
      "kawntl": 4639,
      "dnA": 4640,
      "SAkIN": 4641,
      "dEns": 4642,
      "sIbl": 4643,
      "imi": 4644,
      "blAs": 4645,
      "wItni": 4646,
      "Vsts": 4647,
      "stAmpt": 4648,
      "nvInsIN": 4649,
      "pVd": 4650,
      "kil": 4651,
      "tSIli": 4652,
      "pVmpIN": 4653,
      "ajdEntIk": 4654,
      "kAmd": 4655,
      "wElTi": 4656,
      "IzIstId": 4657,
      "pjup": 4658,
      "dajv": 4659,
      "sAfi": 4660,
      "nfEst": 4661,
      "dIpEndz": 4662,
      "bimd": 4663,
      "awtstr": 4664,
      "ivju": 4665,
      "dZojnt": 4666,
      "ojIN": 4667,
      "bEdsajd": 4668,
      "IndEks": 4669,
      "pVpi": 4670,
      "Vps": 4671,
      "Nli": 4672,
      "Ilajz": 4673,
      "idli": 4674,
      "pejntINz": 4675,
      "EkspEkt": 4676,
      "klIpt": 4677,
      "SIfts": 4678,
      "ajOr": 4679,
      "sownj": 4680,
      "tajmIN": 4681,
      "EkspEktejS": 4682,
      "lEktIN": 4683,
      "stejz": 4684,
      "tSuzIN": 4685,
      "kjuljr": 4686,
      "fjum": 4687,
      "glEn": 4688,
      "klEntS": 4689,
      "wOltr": 4690,
      "SAps": 4691,
      "dIskAr": 4692,
      "najnti": 4693,
      "skId": 4694,
      "mintajm": 4695,
      "mEntr": 4696,
      "nw": 4697,
      "pAstSr": 4698,
      "dZAm": 4699,
      "bimz": 4700,
      "ejgow": 4701,
      "fEdr": 4702,
      "hVski": 4703,
      "skEpt": 4704,
      "stEntS": 4705,
      "stejsi": 4706,
      "ntSEsk": 4707,
      "gVlpt": 4708,
      "lOntS": 4709,
      "dIlej": 4710,
      "mpAr": 4711,
      "dImp": 4712,
      "Dejv": 4713,
      "pE": 4714,
      "sIfIkli": 4715,
      "fAlowz": 4716,
      "ltejni": 4717,
      "pejnd": 4718,
      "Ast": 4719,
      "ust": 4720,
      "liT": 4721,
      "uld": 4722,
      "dZVmps": 4723,
      "hip": 4724,
      "wEnzdi": 4725,
      "dZajzd": 4726,
      "pejm": 4727,
      "nEfju": 4728,
      "fejlIN": 4729,
      "wejstIN": 4730,
      "bajr": 4731,
      "ejkt": 4732,
      "mIstIk": 4733,
      "lEnz": 4734,
      "dVtS": 4735,
      "mplejn": 4736,
      "najtst": 4737,
      "stVb": 4738,
      "mVdi": 4739,
      "hEn": 4740,
      "ajndIN": 4741,
      "tni": 4742,
      "switi": 4743,
      "bum": 4744,
      "mEntId": 4745,
      "kUkt": 4746,
      "tejnd": 4747,
      "Emplojiz": 4748,
      "gejpt": 4749,
      "bVf": 4750,
      "howml": 4751,
      "gejtIN": 4752,
      "dIskVmfr": 4753,
      "wIlow": 4754,
      "vAd": 4755,
      "kowts": 4756,
      "snikIN": 4757,
      "lIkr": 4758,
      "knAlIdZd": 4759,
      "fist": 4760,
      "pApIN": 4761,
      "IkwEstId": 4762,
      "hejts": 4763,
      "dIvajd": 4764,
      "kANgr": 4765,
      "kulr": 4766,
      "stVdiz": 4767,
      "tIsju": 4768,
      "mVz": 4769,
      "plOz": 4770,
      "sIndr": 4771,
      "dOs": 4772,
      "upr": 4773,
      "klEntSIN": 4774,
      "piz": 4775,
      "bajb": 4776,
      "mEltIN": 4777,
      "sajdId": 4778,
      "wAnd": 4779,
      "kwIl": 4780,
      "wEld": 4781,
      "Iskr": 4782,
      "siEn": 4783,
      "Ilit": 4784,
      "VgIN": 4785,
      "diejgow": 4786,
      "owlr": 4787,
      "vOlt": 4788,
      "OS": 4789,
      "upt": 4790,
      "nfowld": 4791,
      "bIlivz": 4792,
      "nis": 4793,
      "dEpT": 4794,
      "fawndejS": 4795,
      "IskejpIN": 4796,
      "ejgr": 4797,
      "flIN": 4798,
      "mIstS": 4799,
      "fajts": 4800,
      "dZowkt": 4801,
      "kowp": 4802,
      "pVnIS": 4803,
      "hajpr": 4804,
      "jOn": 4805,
      "Ebj": 4806,
      "hVft": 4807,
      "owbejd": 4808,
      "tinejdZ": 4809,
      "kwEst": 4810,
      "swejIN": 4811,
      "blEsId": 4812,
      "fEtS": 4813,
      "mejzm": 4814,
      "dZowks": 4815,
      "minr": 4816,
      "powkIN": 4817,
      "fejz": 4818,
      "ojz": 4819,
      "ndu": 4820,
      "ESowld": 4821,
      "Iksplejnz": 4822,
      "tsi": 4823,
      "ajmEr": 4824,
      "mownIN": 4825,
      "sEnsr": 4826,
      "uzIN": 4827,
      "kup": 4828,
      "nsin": 4829,
      "slIps": 4830,
      "mOs": 4831,
      "kowOr": 4832,
      "mowz": 4833,
      "flV": 4834,
      "AT": 4835,
      "stVtr": 4836,
      "nkVm": 4837,
      "Abzr": 4838,
      "bejkr": 4839,
      "lAm": 4840,
      "Tiow": 4841,
      "hEdlajts": 4842,
      "nkVmft": 4843,
      "Izum": 4844,
      "kajndn": 4845,
      "Elf": 4846,
      "fVkt": 4847,
      "dVf": 4848,
      "plejg": 4849,
      "sus": 4850,
      "kAnsowl": 4851,
      "Izumd": 4852,
      "plejz": 4853,
      "stItS": 4854,
      "iu": 4855,
      "Isajs": 4856,
      "ltiz": 4857,
      "dowd": 4858,
      "nsEt": 4859,
      "glImr": 4860,
      "lud": 4861,
      "tAgr": 4862,
      "milz": 4863,
      "hVf": 4864,
      "ajdId": 4865,
      "wowv": 4866,
      "lism": 4867,
      "kVbr": 4868,
      "hIdi": 4869,
      "flit": 4870,
      "snt": 4871,
      "stejtIN": 4872,
      "Ati": 4873,
      "jElz": 4874,
      "nawnsm": 4875,
      "lOft": 4876,
      "OsIz": 4877,
      "mInIN": 4878,
      "Ilejn": 4879,
      "wIndSild": 4880,
      "gUdz": 4881,
      "kEnt": 4882,
      "tAl": 4883,
      "dIsplejd": 4884,
      "vejd": 4885,
      "bIlONz": 4886,
      "bVmps": 4887,
      "lEN": 4888,
      "niv": 4889,
      "wAl": 4890,
      "slowIN": 4891,
      "zIpr": 4892,
      "fIlz": 4893,
      "igd": 4894,
      "VSIz": 4895,
      "mAkIN": 4896,
      "plVkt": 4897,
      "lajfl": 4898,
      "isi": 4899,
      "wAd": 4900,
      "dZowlt": 4901,
      "ii": 4902,
      "nsild": 4903,
      "Ngj": 4904,
      "sivIN": 4905,
      "howlstr": 4906,
      "piEr": 4907,
      "awts": 4908,
      "ejsl": 4909,
      "spVtr": 4910,
      "dZAns": 4911,
      "klejmIN": 4912,
      "InfEkS": 4913,
      "nAts": 4914,
      "vaw": 4915,
      "kAfIN": 4916,
      "kOfIn": 4917,
      "sist": 4918,
      "switli": 4919,
      "fiz": 4920,
      "sAf": 4921,
      "slik": 4922,
      "Enh": 4923,
      "tbr": 4924,
      "EngejdZm": 4925,
      "IspEktId": 4926,
      "flejvr": 4927,
      "liAn": 4928,
      "Tif": 4929,
      "IkspowzIN": 4930,
      "kajndli": 4931,
      "sajdr": 4932,
      "tejstIN": 4933,
      "IkspEns": 4934,
      "najsli": 4935,
      "tEmtejS": 4936,
      "nVnD": 4937,
      "lT": 4938,
      "nejd": 4939,
      "NklIn": 4940,
      "tojz": 4941,
      "fISr": 4942,
      "ItIN": 4943,
      "Olz": 4944,
      "kEnd": 4945,
      "nEtIk": 4946,
      "hVds": 4947,
      "bejl": 4948,
      "lejni": 4949,
      "pIknIk": 4950,
      "hEdkwOr": 4951,
      "nows": 4952,
      "sivr": 4953,
      "lEktIv": 4954,
      "mEstr": 4955,
      "skutId": 4956,
      "fIdZ": 4957,
      "Aksi": 4958,
      "kojnz": 4959,
      "tejnm": 4960,
      "awtlajn": 4961,
      "skV": 4962,
      "ftId": 4963,
      "kir": 4964,
      "awndId": 4965,
      "klInIk": 4966,
      "dIvajn": 4967,
      "mejtId": 4968,
      "awlIN": 4969,
      "jur": 4970,
      "pVlsIN": 4971,
      "dZOz": 4972,
      "mAb": 4973,
      "Ignajt": 4974,
      "Akr": 4975,
      "nEv": 4976,
      "{@": 4977,
      "dZEnd": 4978,
      "owdus": 4979,
      "mE": 4980,
      "suD": 4981,
      "Anti": 4982,
      "hivIN": 4983,
      "bVtlr": 4984,
      "swajpt": 4985,
      "skEtS": 4986,
      "IksplowsIv": 4987,
      "tSOr": 4988,
      "IndIfr": 4989,
      "nbVt": 4990,
      "Embl": 4991,
      "lIks": 4992,
      "bawndr": 4993,
      "jVNg": 4994,
      "sidZr": 4995,
      "dilr": 4996,
      "IspEktf": 4997,
      "VnmIstejk": 4998,
      "mpl": 4999,
      "uTl": 5000,
      "nsIr": 5001,
      "Eziow": 5002,
      "umejt": 5003,
      "Edf": 5004,
      "skwild": 5005,
      "nfEr": 5006,
      "dik": 5007,
      "owbidi": 5008,
      "Edgr": 5009,
      "howldr": 5010,
      "pVmpt": 5011,
      "lIdi": 5012,
      "ImowSn": 5013,
      "Emn": 5014,
      "lejzr": 5015,
      "Amptli": 5016,
      "gVtr": 5017,
      "dojl": 5018,
      "bVlk": 5019,
      "ivIN": 5020,
      "lEksIs": 5021,
      "kVpIN": 5022,
      "tejnIN": 5023,
      "dZEkS": 5024,
      "Swr": 5025,
      "dvajzd": 5026,
      "swEld": 5027,
      "hVS": 5028,
      "powk": 5029,
      "iejtIv": 5030,
      "wajvz": 5031,
      "kAmplISt": 5032,
      "majldli": 5033,
      "blISt": 5034,
      "ONg": 5035,
      "fVkr": 5036,
      "kAnsr": 5037,
      "hAg": 5038,
      "bdowm": 5039,
      "ntIsts": 5040,
      "timz": 5041,
      "blejmd": 5042,
      "Tist": 5043,
      "hVSt": 5044,
      "InISi": 5045,
      "pVntSIN": 5046,
      "bElowd": 5047,
      "gowt": 5048,
      "powkr": 5049,
      "owts": 5050,
      "smowldr": 5051,
      "ulr": 5052,
      "bajndIN": 5053,
      "kjub": 5054,
      "kejvz": 5055,
      "Vktr": 5056,
      "ejaj": 5057,
      "EtIN": 5058,
      "bIh": 5059,
      "dZulaj": 5060,
      "kIlz": 5061,
      "Sildz": 5062,
      "mEsIN": 5063,
      "glimd": 5064,
      "dusIN": 5065,
      "mpowzd": 5066,
      "pVb": 5067,
      "pejnz": 5068,
      "ifkejs": 5069,
      "IngVl": 5070,
      "hawr": 5071,
      "Anow": 5072,
      "sAbd": 5073,
      "kEni": 5074,
      "dZIst": 5075,
      "dIvIZ": 5076,
      "dIminr": 5077,
      "Imjun": 5078,
      "stOkIN": 5079,
      "ImpIr": 5080,
      "jOnd": 5081,
      "iInfOr": 5082,
      "km": 5083,
      "hejtIN": 5084,
      "kowlbi": 5085,
      "bjUr": 5086,
      "mili": 5087,
      "stimIN": 5088,
      "glu": 5089,
      "bun": 5090,
      "Ivl": 5091,
      "glum": 5092,
      "sVnr": 5093,
      "klOdi": 5094,
      "awdi": 5095,
      "owfawnd": 5096,
      "powt": 5097,
      "sIpIN": 5098,
      "dVndZ": 5099,
      "wipIN": 5100,
      "tSej": 5101,
      "mEzmr": 5102,
      "sowkIN": 5103,
      "mIkejl": 5104,
      "Ekskw": 5105,
      "mojstSr": 5106,
      "AtS": 5107,
      "dEni": 5108,
      "Invejd": 5109,
      "fVzi": 5110,
      "Igejn": 5111,
      "mejnli": 5112,
      "vajpr": 5113,
      "ksajd": 5114,
      "skIm": 5115,
      "snejks": 5116,
      "mItm": 5117,
      "fts": 5118,
      "gAlf": 5119,
      "glim": 5120,
      "uTf": 5121,
      "Empt": 5122,
      "tVkIN": 5123,
      "nnEs": 5124,
      "litow": 5125,
      "kown": 5126,
      "sIksT": 5127,
      "glInt": 5128,
      "IntSt": 5129,
      "Vts": 5130,
      "nejp": 5131,
      "pVnISt": 5132,
      "ajks": 5133,
      "swIv": 5134,
      "sOntr": 5135,
      "sEndz": 5136,
      "zum": 5137,
      "sVmplejs": 5138,
      "fni": 5139,
      "zus": 5140,
      "ndlIN": 5141,
      "nkajnd": 5142,
      "pejld": 5143,
      "lIzejS": 5144,
      "mInj": 5145,
      "pEti": 5146,
      "kAndZr": 5147,
      "kejdi": 5148,
      "IgzAtIk": 5149,
      "NgwIS": 5150,
      "dIzajnr": 5151,
      "lImow": 5152,
      "sIkn": 5153,
      "skEdZUld": 5154,
      "dIspowz": 5155,
      "IkstEnt": 5156,
      "lipIN": 5157,
      "Enzi": 5158,
      "pIkVp": 5159,
      "ObEr": 5160,
      "snVk": 5161,
      "nfEs": 5162,
      "mplejnIN": 5163,
      "bejn": 5164,
      "hEvir": 5165,
      "fO": 5166,
      "blid": 5167,
      "pawtS": 5168,
      "bejts": 5169,
      "zEsIv": 5170,
      "Abst": 5171,
      "tEktr": 5172,
      "fajld": 5173,
      "nAnS": 5174,
      "iflEks": 5175,
      "IntEnS": 5176,
      "lEnd": 5177,
      "dAdZ": 5178,
      "kInz": 5179,
      "blEsIN": 5180,
      "Tli": 5181,
      "nwIlIN": 5182,
      "vajnz": 5183,
      "pIntS": 5184,
      "sAmbr": 5185,
      "mejntejnd": 5186,
      "sinz": 5187,
      "mbIS": 5188,
      "tSVNk": 5189,
      "mowmEnt": 5190,
      "lowl": 5191,
      "sEnts": 5192,
      "kANkr": 5193,
      "InvEnt": 5194,
      "kAstum": 5195,
      "lIstIk": 5196,
      "hItS": 5197,
      "zinz": 5198,
      "tAnj": 5199,
      "flEkst": 5200,
      "stEm": 5201,
      "wIlst": 5202,
      "bEndZi": 5203,
      "SEpr": 5204,
      "slowr": 5205,
      "glawr": 5206,
      "ajbz": 5207,
      "vajn": 5208,
      "kbr": 5209,
      "nspIr": 5210,
      "bVstId": 5211,
      "nfjuzIN": 5212,
      "kUki": 5213,
      "Emploji": 5214,
      "mpowZr": 5215,
      "blEd": 5216,
      "sinow": 5217,
      "Ald": 5218,
      "sis": 5219,
      "lumd": 5220,
      "sowlr": 5221,
      "sikw": 5222,
      "wejstb": 5223,
      "Vnts": 5224,
      "tSiv": 5225,
      "wIli": 5226,
      "klejmz": 5227,
      "tSitIN": 5228,
      "dZiow": 5229,
      "powlgAr": 5230,
      "fVs": 5231,
      "kwowt": 5232,
      "nUr": 5233,
      "Enaj": 5234,
      "twItSIN": 5235,
      "sIgAr": 5236,
      "nzlejt": 5237,
      "hajn": 5238,
      "hVmb": 5239,
      "Elvz": 5240,
      "ndawt": 5241,
      "InspEktr": 5242,
      "pajlz": 5243,
      "hVs": 5244,
      "kAmIN": 5245,
      "swAmp": 5246,
      "sIvli": 5247,
      "lajm": 5248,
      "sINr": 5249,
      "IdZm": 5250,
      "IntAks": 5251,
      "EdhEd": 5252,
      "wIgg": 5253,
      "mIti": 5254,
      "mits": 5255,
      "klVbz": 5256,
      "ImAs": 5257,
      "gdZEstIN": 5258,
      "tbOl": 5259,
      "sejld": 5260,
      "ndIdZ": 5261,
      "wINklr": 5262,
      "dawtf": 5263,
      "IkskjusIz": 5264,
      "IpitIN": 5265,
      "mjutId": 5266,
      "dowi": 5267,
      "nkVvr": 5268,
      "glud": 5269,
      "kImbr": 5270,
      "awtkVm": 5271,
      "SVtr": 5272,
      "wIDr": 5273,
      "Suts": 5274,
      "fejTf": 5275,
      "dZInj": 5276,
      "ntIst": 5277,
      "nINli": 5278,
      "wIls": 5279,
      "tIkt": 5280,
      "spitSl": 5281,
      "bejtId": 5282,
      "nvIkS": 5283,
      "tejtowz": 5284,
      "hEdZ": 5285,
      "awtbr": 5286,
      "gOnt": 5287,
      "stAnISm": 5288,
      "kAmplIS": 5289,
      "ejtli": 5290,
      "Aktowbr": 5291,
      "nsVlt": 5292,
      "Ngow": 5293,
      "bVgz": 5294,
      "lIbi": 5295,
      "hawshowld": 5296,
      "pikIN": 5297,
      "blVSIN": 5298,
      "kiT": 5299,
      "IdZEktId": 5300,
      "Daj": 5301,
      "Ini": 5302,
      "Isti": 5303,
      "kowldli": 5304,
      "nsIskow": 5305,
      "ists": 5306,
      "hawl": 5307,
      "vEt": 5308,
      "pEg": 5309,
      "hawld": 5310,
      "Sejvd": 5311,
      "swINz": 5312,
      "dImli": 5313,
      "InvAlv": 5314,
      "Izajnd": 5315,
      "hVmd": 5316,
      "ndzi": 5317,
      "dEkejd": 5318,
      "ikow": 5319,
      "sowEvr": 5320,
      "mVNki": 5321,
      "wEpt": 5322,
      "dIvowt": 5323,
      "bst": 5324,
      "Iln": 5325,
      "vjud": 5326,
      "ejow": 5327,
      "kVlt": 5328,
      "nowtIN": 5329,
      "flApt": 5330,
      "dImEtr": 5331,
      "awtdOr": 5332,
      "flEtSr": 5333,
      "iSiejS": 5334,
      "ndpEr": 5335,
      "EdZi": 5336,
      "sIblINz": 5337,
      "hAtr": 5338,
      "bOlr": 5339,
      "tSEks": 5340,
      "pAli": 5341,
      "AnIks": 5342,
      "bif": 5343,
      "wIst": 5344,
      "ntVtS": 5345,
      "lInr": 5346,
      "nb": 5347,
      "ajown": 5348,
      "bawts": 5349,
      "glO": 5350,
      "tIltIN": 5351,
      "IspAndIN": 5352,
      "Eskjud": 5353,
      "kAnflIkt": 5354,
      "lONg": 5355,
      "silj": 5356,
      "uft": 5357,
      "TAn": 5358,
      "bojlIN": 5359,
      "sown": 5360,
      "lEbr": 5361,
      "zu": 5362,
      "bVst": 5363,
      "dIpEndIN": 5364,
      "hAlr": 5365,
      "binz": 5366,
      "bjuS": 5367,
      "Vmf": 5368,
      "tajpt": 5369,
      "klIkIN": 5370,
      "SVflIN": 5371,
      "najl": 5372,
      "nut": 5373,
      "hajmi": 5374,
      "Nkow": 5375,
      "dVsk": 5376,
      "Astr": 5377,
      "blVf": 5378,
      "lIndzi": 5379,
      "ajDIN": 5380,
      "ndEr": 5381,
      "IndVldZ": 5382,
      "ntIfIk": 5383,
      "dInajIN": 5384,
      "Iskt": 5385,
      "sajkow": 5386,
      "hawlIN": 5387,
      "stejks": 5388,
      "glajdId": 5389,
      "fIksIN": 5390,
      "kAks": 5391,
      "Eft": 5392,
      "wIpIN": 5393,
      "bVNk": 5394,
      "swElIN": 5395,
      "wVtsowEvr": 5396,
      "owkr": 5397,
      "lejz": 5398,
      "ihEnd": 5399,
      "bUli": 5400,
      "Emptid": 5401,
      "SO": 5402,
      "bEvr": 5403,
      "bsEst": 5404,
      "twajlajt": 5405,
      "nvej": 5406,
      "ms": 5407,
      "hAvi": 5408,
      "flIkIN": 5409,
      "isINli": 5410,
      "pAps": 5411,
      "skajz": 5412,
      "bajz": 5413,
      "kIts": 5414,
      "lEl": 5415,
      "tSikbownz": 5416,
      "gVlp": 5417,
      "ndow": 5418,
      "fEbj": 5419,
      "ejIs": 5420,
      "ImEns": 5421,
      "sVf": 5422,
      "imr": 5423,
      "fElowz": 5424,
      "kwIr": 5425,
      "towd": 5426,
      "luzr": 5427,
      "nsumIN": 5428,
      "INr": 5429,
      "bejli": 5430,
      "kwIkr": 5431,
      "vir": 5432,
      "Uki": 5433,
      "EntIs": 5434,
      "tSIf": 5435,
      "owmIN": 5436,
      "VnIkspEktIdli": 5437,
      "Ants": 5438,
      "tunIk": 5439,
      "mawnd": 5440,
      "sur": 5441,
      "hAm": 5442,
      "vIni": 5443,
      "ejvz": 5444,
      "wIDdr": 5445,
      "tSajmd": 5446,
      "ejdAr": 5447,
      "IbElj": 5448,
      "Daw": 5449,
      "stupId": 5450,
      "Iksklus": 5451,
      "majzd": 5452,
      "dZVstIN": 5453,
      "suzi": 5454,
      "mVlti": 5455,
      "gIvn": 5456,
      "mjutS": 5457,
      "wIdow": 5458,
      "lIpstIk": 5459,
      "kowhIr": 5460,
      "AtId": 5461,
      "stAnISt": 5462,
      "spojld": 5463,
      "mejkSIft": 5464,
      "ndawtIdli": 5465,
      "sVmpS": 5466,
      "pUsi": 5467,
      "tVNz": 5468,
      "dZini": 5469,
      "jVp": 5470,
      "tejsts": 5471,
      "ntik": 5472,
      "tinz": 5473,
      "ndEm": 5474,
      "spEs": 5475,
      "nIkowlaj": 5476,
      "nEktIN": 5477,
      "ejmz": 5478,
      "bejDd": 5479,
      "pInIN": 5480,
      "hVgz": 5481,
      "vawd": 5482,
      "mejtIN": 5483,
      "sAftr": 5484,
      "dZAgd": 5485,
      "spEktIN": 5486,
      "vajmz": 5487,
      "stININ": 5488,
      "stIfli": 5489,
      "fEt": 5490,
      "sEps": 5491,
      "sIdVktIv": 5492,
      "zEv": 5493,
      "smVDr": 5494,
      "nIdZIN": 5495,
      "jejl": 5496,
      "InkwIz": 5497,
      "kluz": 5498,
      "flitIN": 5499,
      "ItSi": 5500,
      "bUtSr": 5501,
      "ajsl": 5502,
      "najz": 5503,
      "blejzd": 5504,
      "ElIN": 5505,
      "snaj": 5506,
      "ejbr": 5507,
      "tund": 5508,
      "blV": 5509,
      "hUdId": 5510,
      "TAl": 5511,
      "hEns": 5512,
      "sejlIN": 5513,
      "lojd": 5514,
      "ejndZIN": 5515,
      "hAliwUd": 5516,
      "kwinz": 5517,
      "klowZr": 5518,
      "tImbr": 5519,
      "dZIkts": 5520,
      "sVbdZIkts": 5521,
      "SIti": 5522,
      "klEm": 5523,
      "klInt": 5524,
      "pejsIz": 5525,
      "smowki": 5526,
      "bEs": 5527,
      "wIts": 5528,
      "fAlowr": 5529,
      "tn": 5530,
      "wEndi": 5531,
      "TVmpIN": 5532,
      "gul": 5533,
      "ejvli": 5534,
      "SElbi": 5535,
      "skulz": 5536,
      "pojzd": 5537,
      "nskr": 5538,
      "bejDIN": 5539,
      "hIsIN": 5540,
      "Vns": 5541,
      "pojntl": 5542,
      "IkstIr": 5543,
      "vjuIN": 5544,
      "slVt": 5545,
      "swEtSr": 5546,
      "sImown": 5547,
      "hAviEr": 5548,
      "hajbr": 5549,
      "Enz": 5550,
      "wIld": 5551,
      "fowl": 5552,
      "ulIN": 5553,
      "dur": 5554,
      "nOti": 5555,
      "nIg": 5556,
      "pIv": 5557,
      "idIN": 5558,
      "sEptEmbr": 5559,
      "SIn": 5560,
      "hud": 5561,
      "ntejnIN": 5562,
      "mEdow": 5563,
      "skIld": 5564,
      "hawnd": 5565,
      "ajVmf": 5566,
      "uzr": 5567,
      "kjuzIN": 5568,
      "blajndli": 5569,
      "nEks": 5570,
      "lEsr": 5571,
      "spEkS": 5572,
      "sowlow": 5573,
      "kElsi": 5574,
      "sElEn": 5575,
      "tEksts": 5576,
      "pVlsd": 5577,
      "igejnd": 5578,
      "sIg": 5579,
      "sEtr": 5580,
      "Insajt": 5581,
      "tEnts": 5582,
      "Igd": 5583,
      "Igzr": 5584,
      "ApIk": 5585,
      "kApir": 5586,
      "dIfajnd": 5587,
      "lEsli": 5588,
      "nukli": 5589,
      "dIsmej": 5590,
      "ndwItSIz": 5591,
      "lIdz": 5592,
      "VntIN": 5593,
      "dum": 5594,
      "AdIk": 5595,
      "bEti": 5596,
      "vajdIN": 5597,
      "slVg": 5598,
      "fIli": 5599,
      "dIdn": 5600,
      "blajndId": 5601,
      "flejmIN": 5602,
      "skim": 5603,
      "dOnd": 5604,
      "kIks": 5605,
      "lumIN": 5606,
      "lAtr": 5607,
      "piEm": 5608,
      "gejnIN": 5609,
      "kAmIk": 5610,
      "bojl": 5611,
      "tAks": 5612,
      "sIndi": 5613,
      "IgzEkj": 5614,
      "Ikskr": 5615,
      "mAtejow": 5616,
      "ajdil": 5617,
      "dIsEnt": 5618,
      "TIs": 5619,
      "hON": 5620,
      "switn": 5621,
      "bawz": 5622,
      "Odk": 5623,
      "dmIS": 5624,
      "InvEstm": 5625,
      "Oskr": 5626,
      "mjUr": 5627,
      "pdejt": 5628,
      "kwAnt": 5629,
      "vajzr": 5630,
      "TVmpt": 5631,
      "tajzd": 5632,
      "lajzIz": 5633,
      "dZowltId": 5634,
      "bmIt": 5635,
      "ild": 5636,
      "bidz": 5637,
      "mawnts": 5638,
      "SiT": 5639,
      "plVmp": 5640,
      "lik": 5641,
      "hawski": 5642,
      "suIN": 5643,
      "powstId": 5644,
      "pitS": 5645,
      "stejl": 5646,
      "Emptin": 5647,
      "lkr": 5648,
      "kibOr": 5649,
      "Ekowz": 5650,
      "iAkj": 5651,
      "snikr": 5652,
      "imow": 5653,
      "nspowk": 5654,
      "skwIntIN": 5655,
      "bVlb": 5656,
      "gUdnajt": 5657,
      "gVnfajr": 5658,
      "skejlz": 5659,
      "Ats": 5660,
      "dejvi": 5661,
      "Nkw": 5662,
      "sImr": 5663,
      "twEntiz": 5664,
      "tApt": 5665,
      "skAtS": 5666,
      "bimIN": 5667,
      "VtId": 5668,
      "tIts": 5669,
      "skwikt": 5670,
      "mawTfUl": 5671,
      "ndZIN": 5672,
      "InvejZ": 5673,
      "InfjUr": 5674,
      "ajld": 5675,
      "nvEnS": 5676,
      "ntEmpt": 5677,
      "sud": 5678,
      "InkAr": 5679,
      "plejnli": 5680,
      "njuEr": 5681,
      "bojld": 5682,
      "dZEd": 5683,
      "pEb": 5684,
      "sfaj": 5685,
      "sejdiz": 5686,
      "tEg": 5687,
      "wElz": 5688,
      "nIdZ": 5689,
      "pAlIS": 5690,
      "kili": 5691,
      "Ibj": 5692,
      "dVgl": 5693,
      "widz": 5694,
      "sOftn": 5695,
      "dAdZd": 5696,
      "nAtId": 5697,
      "fIstId": 5698,
      "blIstr": 5699,
      "bawns": 5700,
      "Iski": 5701,
      "dowhVntr": 5702,
      "kAnv": 5703,
      "ifr": 5704,
      "tSVklIN": 5705,
      "izAlvd": 5706,
      "ndO": 5707,
      "kjuz": 5708,
      "ajpt": 5709,
      "bUtS": 5710,
      "vAdk": 5711,
      "plApt": 5712,
      "bkAnS": 5713,
      "ESm": 5714,
      "bowIN": 5715,
      "wASr": 5716,
      "ajfr": 5717,
      "dawnr": 5718,
      "skInd": 5719,
      "sd": 5720,
      "IndVstr": 5721,
      "jild": 5722,
      "bowlts": 5723,
      "SEf": 5724,
      "kAntEst": 5725,
      "unEt": 5726,
      "Avi": 5727,
      "kAsts": 5728,
      "wIstf": 5729,
      "nATIn": 5730,
      "tIsfajIN": 5731,
      "vIki": 5732,
      "gIs": 5733,
      "zumd": 5734,
      "slIvr": 5735,
      "bIlONINz": 5736,
      "sVp": 5737,
      "nowvEmbr": 5738,
      "kAlInz": 5739,
      "pVblISt": 5740,
      "IsIz": 5741,
      "bAbd": 5742,
      "lVmbr": 5743,
      "mejtr": 5744,
      "kiAr": 5745,
      "powsts": 5746,
      "Imbr": 5747,
      "dInis": 5748,
      "spAn": 5749,
      "mejsi": 5750,
      "bejkt": 5751,
      "fjur": 5752,
      "tit": 5753,
      "ejdiejt": 5754,
      "spItIN": 5755,
      "dIspr": 5756,
      "kAligz": 5757,
      "wivIN": 5758,
      "skawlIN": 5759,
      "bIf": 5760,
      "fowm": 5761,
      "sEktr": 5762,
      "kAd": 5763,
      "InspEkS": 5764,
      "sidz": 5765,
      "Ipi": 5766,
      "snIfIN": 5767,
      "fulz": 5768,
      "dIstINg": 5769,
      "nvVl": 5770,
      "wId": 5771,
      "np": 5772,
      "blik": 5773,
      "hjumIliejS": 5774,
      "did": 5775,
      "tINk": 5776,
      "mAmz": 5777,
      "gaw": 5778,
      "flVdIN": 5779,
      "powS": 5780,
      "pojntIdli": 5781,
      "NksgIvIN": 5782,
      "kAndow": 5783,
      "bVdiz": 5784,
      "bAl": 5785,
      "mowtIv": 5786,
      "dZm": 5787,
      "nAkj": 5788,
      "gajdIN": 5789,
      "howlt": 5790,
      "pInz": 5791,
      "wInsIN": 5792,
      "vajvIN": 5793,
      "dIstOr": 5794,
      "glejzd": 5795,
      "nuklir": 5796,
      "flEktIN": 5797,
      "mpEld": 5798,
      "Isks": 5799,
      "knAb": 5800,
      "stINk": 5801,
      "IfEktIvli": 5802,
      "tSejnd": 5803,
      "Ilejt": 5804,
      "nikow": 5805,
      "lui": 5806,
      "EnvEl": 5807,
      "lOd": 5808,
      "bIkini": 5809,
      "flut": 5810,
      "vAn": 5811,
      "mid": 5812,
      "ilIN": 5813,
      "Enzow": 5814,
      "sAli": 5815,
      "jej": 5816,
      "fajbr": 5817,
      "skImd": 5818,
      "lEpr": 5819,
      "owr": 5820,
      "nAtS": 5821,
      "ElIn": 5822,
      "VNkr": 5823,
      "Ilajn": 5824,
      "Emplojd": 5825,
      "stOkr": 5826,
      "dIsEmbr": 5827,
      "hOntIN": 5828,
      "pejtIN": 5829,
      "kVnIN": 5830,
      "dZuejtId": 5831,
      "dZVg": 5832,
      "IklIN": 5833,
      "slajsIN": 5834,
      "nIknejm": 5835,
      "zEn": 5836,
      "Ilz": 5837,
      "sIf": 5838,
      "www": 5839,
      "dowl": 5840,
      "ndlr": 5841,
      "VslIN": 5842,
      "wOkwej": 5843,
      "nspEr": 5844,
      "dZudi": 5845,
      "Ikow": 5846,
      "IntImIdejtIN": 5847,
      "bEdId": 5848,
      "dZEktId": 5849,
      "ajtn": 5850,
      "ojt": 5851,
      "ISud": 5852,
      "dZIp": 5853,
      "glOsi": 5854,
      "fejS": 5855,
      "IkstEndIN": 5856,
      "buz": 5857,
      "sAdi": 5858,
      "bVldZIN": 5859,
      "EgOr": 5860,
      "nfajd": 5861,
      "hejzi": 5862,
      "tSEstr": 5863,
      "awtSIN": 5864,
      "sItr": 5865,
      "kojld": 5866,
      "smowkt": 5867,
      "bIdIN": 5868,
      "sipt": 5869,
      "bejtIN": 5870,
      "nsil": 5871,
      "knAlIdZm": 5872,
      "slINr": 5873,
      "hawz": 5874,
      "pajps": 5875,
      "VmIN": 5876,
      "flown": 5877,
      "skw": 5878,
      "zIpt": 5879,
      "dZIg": 5880,
      "owtEkt": 5881,
      "EntSIN": 5882,
      "fibi": 5883,
      "nsEr": 5884,
      "wInr": 5885,
      "wEsli": 5886,
      "IksplowdIN": 5887,
      "lOgz": 5888,
      "kInkejd": 5889,
      "lowni": 5890,
      "klejv": 5891,
      "spajs": 5892,
      "sVkr": 5893,
      "dajvIN": 5894,
      "sajkAl": 5895,
      "dZuejS": 5896,
      "nEktId": 5897,
      "unz": 5898,
      "sejt": 5899,
      "bsES": 5900,
      "hEndr": 5901,
      "IgzIsts": 5902,
      "sImpl": 5903,
      "ajlz": 5904,
      "InsEkts": 5905,
      "dIsgr": 5906,
      "najiv": 5907,
      "ejnbow": 5908,
      "gAg": 5909,
      "sajzIN": 5910,
      "lINks": 5911,
      "IzEmbl": 5912,
      "bAmz": 5913,
      "mtSEr": 5914,
      "dmItIN": 5915,
      "gV": 5916,
      "Vmi": 5917,
      "mIki": 5918,
      "glEkt": 5919,
      "kowzi": 5920,
      "vu": 5921,
      "hIndZIz": 5922,
      "pApi": 5923,
      "gnejS": 5924,
      "spidIN": 5925,
      "dIsajdz": 5926,
      "minINf": 5927,
      "IdZEkS": 5928,
      "flIktId": 5929,
      "viv": 5930,
      "pVft": 5931,
      "dIpIN": 5932,
      "tajdi": 5933,
      "dejS": 5934,
      "sEfr": 5935,
      "mjuzIS": 5936,
      "bajsEps": 5937,
      "lownlin": 5938,
      "piks": 5939,
      "pejz": 5940,
      "slajDr": 5941,
      "skwik": 5942,
      "spejd": 5943,
      "wiltSEr": 5944,
      "ElvIs": 5945,
      "skAtl": 5946,
      "kowldr": 5947,
      "mVsk": 5948,
      "tajlz": 5949,
      "dItejld": 5950,
      "owf": 5951,
      "izr": 5952,
      "mInt": 5953,
      "mIsts": 5954,
      "splItIN": 5955,
      "suDd": 5956,
      "Ilu": 5957,
      "bstr": 5958,
      "twIsts": 5959,
      "fliIN": 5960,
      "sInIstr": 5961,
      "Inhejl": 5962,
      "dumd": 5963,
      "wiz": 5964,
      "ejns": 5965,
      "SElz": 5966,
      "wajps": 5967,
      "Ivz": 5968,
      "mejdz": 5969,
      "nlAk": 5970,
      "flVstr": 5971,
      "tIkIN": 5972,
      "glajdIN": 5973,
      "Sil": 5974,
      "EnvIZ": 5975,
      "sEntId": 5976,
      "bud": 5977,
      "gVnslINr": 5978,
      "kawt": 5979,
      "wEdZ": 5980,
      "lowb": 5981,
      "pulz": 5982,
      "niAn": 5983,
      "siEr": 5984,
      "dEnvr": 5985,
      "klVmzi": 5986,
      "nowm": 5987,
      "lusli": 5988,
      "kApiz": 5989,
      "fawndId": 5990,
      "Tidr": 5991,
      "owtSIz": 5992,
      "IntEnsli": 5993,
      "sAkr": 5994,
      "isajd": 5995,
      "Vltr": 5996,
      "bIsk": 5997,
      "lAdZd": 5998,
      "Tim": 5999,
      "powp": 6000,
      "flVfi": 6001,
      "sawTist": 6002,
      "nus": 6003,
      "majndl": 6004,
      "kAktejl": 6005,
      "sVmT": 6006,
      "nhr": 6007,
      "dZVdZd": 6008,
      "lAnz": 6009,
      "lIvr": 6010,
      "wikr": 6011,
      "sIb": 6012,
      "AkS": 6013,
      "kVmr": 6014,
      "vIst": 6015,
      "ntVtSt": 6016,
      "hojst": 6017,
      "vajowl": 6018,
      "ksiz": 6019,
      "nojzi": 6020,
      "junIk": 6021,
      "dIfEndIN": 6022,
      "flejks": 6023,
      "Iskli": 6024,
      "IgnIS": 6025,
      "iki": 6026,
      "flOl": 6027,
      "slVmbr": 6028,
      "kOldr": 6029,
      "hejdiz": 6030,
      "zIp": 6031,
      "fVkIn": 6032,
      "dAts": 6033,
      "nsEnt": 6034,
      "blum": 6035,
      "junIkOr": 6036,
      "tVnz": 6037,
      "gnEtIk": 6038,
      "stejnz": 6039,
      "bowlz": 6040,
      "splEnd": 6041,
      "ejr": 6042,
      "dawnd": 6043,
      "sowsiejt": 6044,
      "IlEkt": 6045,
      "pEnIs": 6046,
      "dbOr": 6047,
      "skwil": 6048,
      "bdZEkS": 6049,
      "spA": 6050,
      "IkstINg": 6051,
      "tSajldIS": 6052,
      "iowz": 6053,
      "tSVNks": 6054,
      "ntOn": 6055,
      "vajl": 6056,
      "fejsbUk": 6057,
      "tutr": 6058,
      "kOst": 6059,
      "IlEntlIs": 6060,
      "klOIN": 6061,
      "pAts": 6062,
      "AmAr": 6063,
      "mawntId": 6064,
      "IvOl": 6065,
      "IkejtIN": 6066,
      "stIln": 6067,
      "spajkt": 6068,
      "lIzr": 6069,
      "Infow": 6070,
      "Abz": 6071,
      "Iksh": 6072,
      "AksIm": 6073,
      "plajIN": 6074,
      "kOlr": 6075,
      "Vki": 6076,
      "Emplojr": 6077,
      "tw": 6078,
      "Vmd": 6079,
      "ajdli": 6080,
      "kit": 6081,
      "divi": 6082,
      "smuDIN": 6083,
      "glVvd": 6084,
      "Edj": 6085,
      "dEkstr": 6086,
      "tSAk": 6087,
      "fUtIN": 6088,
      "lfild": 6089,
      "tubz": 6090,
      "kIti": 6091,
      "klinr": 6092,
      "dZajg": 6093,
      "hVnimun": 6094,
      "stAkIN": 6095,
      "IvAl": 6096,
      "ejdiejtIN": 6097,
      "lajnr": 6098,
      "stIm": 6099,
      "tImr": 6100,
      "gowstli": 6101,
      "dIks": 6102,
      "pEnthaws": 6103,
      "ndli": 6104,
      "bowdow": 6105,
      "dEli": 6106,
      "ItIv": 6107,
      "hItSt": 6108,
      "Elz": 6109,
      "Vnj": 6110,
      "fuld": 6111,
      "dZEli": 6112,
      "IvEntId": 6113,
      "hitIN": 6114,
      "klIfs": 6115,
      "bAndz": 6116,
      "dvajz": 6117,
      "EdId": 6118,
      "kejti": 6119,
      "udi": 6120,
      "kun": 6121,
      "ajtS": 6122,
      "IspAndz": 6123,
      "nkejks": 6124,
      "snu": 6125,
      "idej": 6126,
      "spajks": 6127,
      "Iktli": 6128,
      "nspr": 6129,
      "niS": 6130,
      "Edm": 6131,
      "hajts": 6132,
      "mIksIN": 6133,
      "spEk": 6134,
      "ndb": 6135,
      "AdZEkts": 6136,
      "Tivz": 6137,
      "lOt": 6138,
      "awtsajdr": 6139,
      "pVntSIz": 6140,
      "TIkr": 6141,
      "dk": 6142,
      "mw": 6143,
      "wEbsajt": 6144,
      "kAkpIt": 6145,
      "klVtr": 6146,
      "sAlvd": 6147,
      "sOlti": 6148,
      "owbAts": 6149,
      "wEtn": 6150,
      "tajIN": 6151,
      "zAn": 6152,
      "kawz": 6153,
      "nIkjr": 6154,
      "mplejtId": 6155,
      "mzi": 6156,
      "uvz": 6157,
      "Esp": 6158,
      "IngVlft": 6159,
      "nI": 6160,
      "dIstejst": 6161,
      "izIz": 6162,
      "sInsIr": 6163,
      "owbd": 6164,
      "tSow": 6165,
      "ht": 6166,
      "EmbEdId": 6167,
      "dIkr": 6168,
      "SildId": 6169,
      "Vbi": 6170,
      "awtskr": 6171,
      "ndVn": 6172,
      "wajdli": 6173,
      "SiDd": 6174,
      "tSwej": 6175,
      "hejlIN": 6176,
      "vejtId": 6177,
      "kVtr": 6178,
      "hawskipr": 6179,
      "tAS": 6180,
      "pVNktSu": 6181,
      "kwejk": 6182,
      "Vsk": 6183,
      "blejt": 6184,
      "tSAp": 6185,
      "dIzAlvd": 6186,
      "IhEnS": 6187,
      "ENT": 6188,
      "dubi": 6189,
      "dZAs": 6190,
      "wOntId": 6191,
      "tSiow": 6192,
      "hUvz": 6193,
      "hIg": 6194,
      "dIsAr": 6195,
      "blajdZd": 6196,
      "VNki": 6197,
      "slejvr": 6198,
      "spajd": 6199,
      "vEntS": 6200,
      "ETtejkIN": 6201,
      "bumd": 6202,
      "mn": 6203,
      "dIslajk": 6204,
      "nsidId": 6205,
      "sIkli": 6206,
      "fISt": 6207,
      "glImp": 6208,
      "wejtId": 6209,
      "mplejtIN": 6210,
      "stupIdIti": 6211,
      "pItSr": 6212,
      "IndIgn": 6213,
      "hOlwejz": 6214,
      "dEstInd": 6215,
      "sejbr": 6216,
      "upIN": 6217,
      "wejIN": 6218,
      "fVndz": 6219,
      "pApkOr": 6220,
      "klowDd": 6221,
      "Inud": 6222,
      "Enklowzd": 6223,
      "bowni": 6224,
      "tIntId": 6225,
      "stImj": 6226,
      "glImpst": 6227,
      "nwOntId": 6228,
      "Ikskjuzd": 6229,
      "Espr": 6230,
      "Afli": 6231,
      "sipIN": 6232,
      "kAdow": 6233,
      "wejks": 6234,
      "dElfi": 6235,
      "sInz": 6236,
      "EslIN": 6237,
      "nzIS": 6238,
      "AS": 6239,
      "ajtf": 6240,
      "IkAn": 6241,
      "InvAlvm": 6242,
      "dZOslIn": 6243,
      "ejsIz": 6244,
      "hAstIdZ": 6245,
      "TlEt": 6246,
      "sU": 6247,
      "awtIN": 6248,
      "spajIN": 6249,
      "snejkt": 6250,
      "dIsEndIN": 6251,
      "wajnIN": 6252,
      "mows": 6253,
      "gw": 6254,
      "wIslIN": 6255,
      "mpVlS": 6256,
      "kjum": 6257,
      "IDmIk": 6258,
      "nnowt": 6259,
      "lIlIT": 6260,
      "dZVmb": 6261,
      "Amp": 6262,
      "dElej": 6263,
      "tOntIN": 6264,
      "sajnIN": 6265,
      "lajfstajl": 6266,
      "bdud": 6267,
      "ojdz": 6268,
      "gnIs": 6269,
      "wikEndz": 6270,
      "swIg": 6271,
      "nnowtIst": 6272,
      "wEbz": 6273,
      "kAlt": 6274,
      "nIkIr": 6275,
      "mVSr": 6276,
      "duv": 6277,
      "kwIts": 6278,
      "Sutr": 6279,
      "pVkr": 6280,
      "fEnsIv": 6281,
      "Inskr": 6282,
      "lVks": 6283,
      "skVlptSr": 6284,
      "IkOr": 6285,
      "hjugow": 6286,
      "fg": 6287,
      "hEdbOr": 6288,
      "IlIs": 6289,
      "hawzd": 6290,
      "kajowti": 6291,
      "ejnsli": 6292,
      "tSIlz": 6293,
      "lEnr": 6294,
      "bawnti": 6295,
      "skItr": 6296,
      "ikOS": 6297,
      "sEsm": 6298,
      "lIsts": 6299,
      "tejtId": 6300,
      "splejd": 6301,
      "InsVltId": 6302,
      "ItuS": 6303,
      "kwEnt": 6304,
      "Enlajt": 6305,
      "twIndZ": 6306,
      "ftIN": 6307,
      "Ibju": 6308,
      "hAv": 6309,
      "bEntSIz": 6310,
      "nowzIz": 6311,
      "bVmpIN": 6312,
      "nstEdi": 6313,
      "dvajzr": 6314,
      "Agow": 6315,
      "imowtli": 6316,
      "dZIS": 6317,
      "IlisIz": 6318,
      "IgzIlr": 6319,
      "hEdId": 6320,
      "Imejndr": 6321,
      "gnr": 6322,
      "spajz": 6323,
      "powlz": 6324,
      "blISm": 6325,
      "InsIg": 6326,
      "nIstr": 6327,
      "IskIN": 6328,
      "EpIk": 6329,
      "bsajdId": 6330,
      "psIN": 6331,
      "bajl": 6332,
      "dZIni": 6333,
      "wAt": 6334,
      "klejt": 6335,
      "najtgawn": 6336,
      "fUtpr": 6337,
      "fjut": 6338,
      "ownIn": 6339,
      "pIts": 6340,
      "IlEkS": 6341,
      "mbUS": 6342,
      "blajndz": 6343,
      "dEmIk": 6344,
      "IzEntm": 6345,
      "VkIN": 6346,
      "swajp": 6347,
      "stVfIN": 6348,
      "dEbi": 6349,
      "iIt": 6350,
      "Ai": 6351,
      "nspajr": 6352,
      "wip": 6353,
      "fajz": 6354,
      "ndVkt": 6355,
      "Ansej": 6356,
      "skejt": 6357,
      "fajlIN": 6358,
      "bajs": 6359,
      "flAk": 6360,
      "dejdr": 6361,
      "fUtIdZ": 6362,
      "plEkst": 6363,
      "Apl": 6364,
      "pEk": 6365,
      "IkwIv": 6366,
      "skwizIz": 6367,
      "kAv": 6368,
      "sIdus": 6369,
      "VpkVmIN": 6370,
      "InspEktId": 6371,
      "Tt": 6372,
      "pajnz": 6373,
      "ndsVn": 6374,
      "dImd": 6375,
      "pEld": 6376,
      "Tir": 6377,
      "vEtr": 6378,
      "nlowd": 6379,
      "plVS": 6380,
      "spIk": 6381,
      "nsum": 6382,
      "ndkVfs": 6383,
      "sidi": 6384,
      "blajndfowld": 6385,
      "slejr": 6386,
      "hOlIN": 6387,
      "IkwIpt": 6388,
      "bVstr": 6389,
      "pAd": 6390,
      "gnajzIN": 6391,
      "EsIvli": 6392,
      "bowd": 6393,
      "sItSuejtId": 6394,
      "itSIz": 6395,
      "mstr": 6396,
      "lawz": 6397,
      "giz": 6398,
      "ajzIz": 6399,
      "sInklEr": 6400,
      "dIsdejn": 6401,
      "InkVm": 6402,
      "IksklusIv": 6403,
      "ejsr": 6404,
      "dIzajnz": 6405,
      "bubz": 6406,
      "plVndZIN": 6407,
      "ejvjAr": 6408,
      "slejd": 6409,
      "vIlIdZr": 6410,
      "SildIN": 6411,
      "snajpr": 6412,
      "InstOld": 6413,
      "kVft": 6414,
      "skup": 6415,
      "ndOtr": 6416,
      "iunj": 6417,
      "gowSiejt": 6418,
      "IntEndIN": 6419,
      "ImpEndIN": 6420,
      "tajzIN": 6421,
      "dIpl": 6422,
      "kUld": 6423,
      "sowk": 6424,
      "hajk": 6425,
      "wInz": 6426,
      "ivnINz": 6427,
      "sEmbli": 6428,
      "kuli": 6429,
      "awzIN": 6430,
      "skVlpt": 6431,
      "ojdr": 6432,
      "Ibjut": 6433,
      "mEli": 6434,
      "VktId": 6435,
      "fiAnsej": 6436,
      "nsm": 6437,
      "tIdli": 6438,
      "lowm": 6439,
      "Agz": 6440,
      "gVnSAt": 6441,
      "Emt": 6442,
      "mAkt": 6443,
      "tSElsi": 6444,
      "sOltId": 6445,
      "kejli": 6446,
      "IdIktId": 6447,
      "tini": 6448,
      "mplaj": 6449,
      "hIlEr": 6450,
      "hUks": 6451,
      "twajnd": 6452,
      "stElT": 6453,
      "sfOlt": 6454,
      "twi": 6455,
      "simi": 6456,
      "sImpt": 6457,
      "stItSIz": 6458,
      "nIpt": 6459,
      "Imowb": 6460,
      "wejld": 6461,
      "sInTi": 6462,
      "wajts": 6463,
      "biANk": 6464,
      "tIld": 6465,
      "dIlajtf": 6466,
      "stowni": 6467,
      "Ikshejl": 6468,
      "Alz": 6469,
      "InhejlIN": 6470,
      "INkr": 6471,
      "stejdi": 6472,
      "mowvIN": 6473,
      "blIsf": 6474,
      "dmInIstr": 6475,
      "stajn": 6476,
      "sINks": 6477,
      "stId": 6478,
      "bil": 6479,
      "tejkr": 6480,
      "slAt": 6481,
      "wEdZd": 6482,
      "bAbIN": 6483,
      "dVkIN": 6484,
      "dZAg": 6485,
      "tIpIN": 6486,
      "EbUk": 6487,
      "InvAlvIN": 6488,
      "Entajt": 6489,
      "stEdid": 6490,
      "dIkj": 6491,
      "nejld": 6492,
      "Izown": 6493,
      "glIntId": 6494,
      "stowd": 6495,
      "mejzINli": 6496,
      "dZAk": 6497,
      "dZIlj": 6498,
      "uSi": 6499,
      "Odli": 6500,
      "dZejm": 6501,
      "sowfr": 6502,
      "plVg": 6503,
      "tejtow": 6504,
      "udli": 6505,
      "bajkr": 6506,
      "tVks": 6507,
      "ITd": 6508,
      "hajl": 6509,
      "tSIlIN": 6510,
      "dajdZEst": 6511,
      "ejmr": 6512,
      "ktIks": 6513,
      "kIndr": 6514,
      "Obr": 6515,
      "tSA": 6516,
      "hiT": 6517,
      "dZwej": 6518,
      "mpEt": 6519,
      "wINks": 6520,
      "IkIN": 6521,
      "hEdi": 6522,
      "ojlIN": 6523,
      "wITst": 6524,
      "gAbr": 6525,
      "mplejnt": 6526,
      "EfjudZ": 6527,
      "nmowvIN": 6528,
      "kdAn": 6529,
      "nAkS": 6530,
      "IzEntIN": 6531,
      "AdId": 6532,
      "gps": 6533,
      "ipVbl": 6534,
      "flajts": 6535,
      "kwInl": 6536,
      "kwEntIn": 6537,
      "sVmownz": 6538,
      "fajst": 6539,
      "Osbow": 6540,
      "fIntS": 6541,
      "tSivd": 6542,
      "EndZojm": 6543,
      "dZAnz": 6544,
      "fIlIs": 6545,
      "tajpIN": 6546,
      "flajr": 6547,
      "nEf": 6548,
      "nISIN": 6549,
      "IdZu": 6550,
      "blINks": 6551,
      "mVk": 6552,
      "bUkt": 6553,
      "hApIN": 6554,
      "dZli": 6555,
      "dIsInt": 6556,
      "pEz": 6557,
      "lEktr": 6558,
      "wOld": 6559,
      "slivd": 6560,
      "ojlz": 6561,
      "mpu": 6562,
      "lEftowvr": 6563,
      "gZr": 6564,
      "uInIN": 6565,
      "IptIk": 6566,
      "lAthEr": 6567,
      "Sajli": 6568,
      "dajt": 6569,
      "bejZ": 6570,
      "kElr": 6571,
      "powni": 6572,
      "sUki": 6573,
      "kVnd": 6574,
      "tIt": 6575,
      "buti": 6576,
      "owmd": 6577,
      "EtSId": 6578,
      "dlIN": 6579,
      "nEls": 6580,
      "najsr": 6581,
      "Iliv": 6582,
      "nsiv": 6583,
      "AdZ": 6584,
      "tejpt": 6585,
      "mhaws": 6586,
      "sowsiejS": 6587,
      "htp": 6588,
      "pVNktSr": 6589,
      "Elow": 6590,
      "dZAgIN": 6591,
      "tEkstSr": 6592,
      "IplejsIN": 6593,
      "jElpt": 6594,
      "kjumj": 6595,
      "blVdid": 6596,
      "wejvi": 6597,
      "dEnS": 6598,
      "zOr": 6599,
      "iDz": 6600,
      "tIst": 6601,
      "dAdZIN": 6602,
      "ImpVl": 6603,
      "Egl": 6604,
      "mOnti": 6605,
      "EsIz": 6606,
      "miv": 6607,
      "skIpIN": 6608,
      "IgnajtId": 6609,
      "blVdId": 6610,
      "nowINli": 6611,
      "mojl": 6612,
      "Vpts": 6613,
      "Enihaw": 6614,
      "mIlt": 6615,
      "bEks": 6616,
      "wOlt": 6617,
      "lAp": 6618,
      "tIstIk": 6619,
      "Sh": 6620,
      "Inaj": 6621,
      "ImpEr": 6622,
      "sowlli": 6623,
      "mbi": 6624,
      "owbIN": 6625,
      "Inkejp": 6626,
      "tImi": 6627,
      "pVfi": 6628,
      "skInz": 6629,
      "vawz": 6630,
      "ind": 6631,
      "tf": 6632,
      "itajr": 6633,
      "lowdId": 6634,
      "ilIv": 6635,
      "wAlski": 6636,
      "klIks": 6637,
      "tEktSr": 6638,
      "Inspr": 6639,
      "mejb": 6640,
      "tEkstIN": 6641,
      "vIg": 6642,
      "nzIpt": 6643,
      "nfajnd": 6644,
      "klawdi": 6645,
      "sVspEkts": 6646,
      "bluz": 6647,
      "fajnz": 6648,
      "fUlfIl": 6649,
      "najdZ": 6650,
      "gwAr": 6651,
      "mowtIvz": 6652,
      "Implajd": 6653,
      "towk": 6654,
      "nejts": 6655,
      "InsEns": 6656,
      "wINd": 6657,
      "kojl": 6658,
      "TlIk": 6659,
      "bAk": 6660,
      "spInz": 6661,
      "nliSt": 6662,
      "bajow": 6663,
      "dIklajnd": 6664,
      "stupIdli": 6665,
      "blejn": 6666,
      "Iplejsm": 6667,
      "slu": 6668,
      "IvAlvr": 6669,
      "tSApr": 6670,
      "dIstSAr": 6671,
      "slApi": 6672,
      "tEknIS": 6673,
      "bdZEktIv": 6674,
      "IndZEkt": 6675,
      "wAtSf": 6676,
      "dIsejb": 6677,
      "iOr": 6678,
      "ndejn": 6679,
      "hiv": 6680,
      "mEntOr": 6681,
      "hawzIN": 6682,
      "bajn": 6683,
      "hVntS": 6684,
      "flAZ": 6685,
      "mItIN": 6686,
      "puld": 6687,
      "bVNkr": 6688,
      "stili": 6689,
      "TlEtIk": 6690,
      "Invowl": 6691,
      "tejm": 6692,
      "pEtSu": 6693,
      "Ofs": 6694,
      "InvowlVntr": 6695,
      "Ihr": 6696,
      "hajkIN": 6697,
      "dIspajzd": 6698,
      "sINz": 6699,
      "nhAr": 6700,
      "blIS": 6701,
      "SipISli": 6702,
      "skawr": 6703,
      "hUkIN": 6704,
      "fejn": 6705,
      "bowst": 6706,
      "dIvowS": 6707,
      "IndOr": 6708,
      "spojl": 6709,
      "Enejb": 6710,
      "Akow": 6711,
      "kjubIk": 6712,
      "fIzIks": 6713,
      "mAnj": 6714,
      "dZIli": 6715,
      "ivzdr": 6716,
      "dun": 6717,
      "iownz": 6718,
      "ntm": 6719,
      "IkstEnsIv": 6720,
      "mES": 6721,
      "dINli": 6722,
      "minINl": 6723,
      "dSIp": 6724,
      "tIdZ": 6725,
      "dItEktIvz": 6726,
      "ejnts": 6727,
      "kh": 6728,
      "sb": 6729,
      "IntAksIkejtIN": 6730,
      "tINd": 6731,
      "gojl": 6732,
      "skwAtId": 6733,
      "ndAr": 6734,
      "titr": 6735,
      "flO": 6736,
      "ifs": 6737,
      "jAt": 6738,
      "isIZ": 6739,
      "pajk": 6740,
      "wejlIN": 6741,
      "dEft": 6742,
      "fti": 6743,
      "Igzu": 6744,
      "ksES": 6745,
      "owkl": 6746,
      "tejntId": 6747,
      "dEklr": 6748,
      "sIsi": 6749,
      "IkspowZr": 6750,
      "VndInaj": 6751,
      "gAS": 6752,
      "Ildr": 6753,
      "dowmejni": 6754,
      "dowmejnikow": 6755,
      "Epl": 6756,
      "tOntId": 6757,
      "pIp": 6758,
      "tEDr": 6759,
      "niEl": 6760,
      "mplEkS": 6761,
      "IntImIdejtId": 6762,
      "ltr": 6763,
      "sVndr": 6764,
      "awndr": 6765,
      "kuld": 6766,
      "kwIlt": 6767,
      "tOsIz": 6768,
      "plz": 6769,
      "sIklu": 6770,
      "sVbs": 6771,
      "bAg": 6772,
      "VdZINli": 6773,
      "btr": 6774,
      "wajzr": 6775,
      "fejb": 6776,
      "bawnsr": 6777,
      "IkOlIN": 6778,
      "bVldZ": 6779,
      "dIfEnsIvli": 6780,
      "sinr": 6781,
      "lejT": 6782,
      "gAT": 6783,
      "IkstEnS": 6784,
      "dZIpsi": 6785,
      "nidi": 6786,
      "bukej": 6787,
      "dAlf": 6788,
      "nAnd": 6789,
      "bVdz": 6790,
      "dZVd": 6791,
      "gejd": 6792,
      "majgr": 6793,
      "swAlowz": 6794,
      "tz": 6795,
      "nsajd": 6796,
      "dVstId": 6797,
      "tEknik": 6798,
      "dIsajfr": 6799,
      "dZEpr": 6800,
      "ajpAd": 6801,
      "dwUd": 6802,
      "stVmp": 6803,
      "gOz": 6804,
      "sImj": 6805,
      "iEntId": 6806,
      "uSiejtIN": 6807,
      "Iwej": 6808,
      "Sowld": 6809,
      "fownd": 6810,
      "bajAl": 6811,
      "tejnli": 6812,
      "munz": 6813,
      "ulti": 6814,
      "kowmd": 6815,
      "blVntli": 6816,
      "Sinr": 6817,
      "vIdZd": 6818,
      "nAmIk": 6819,
      "dZEtIkli": 6820,
      "hIndr": 6821,
      "dZajzIN": 6822,
      "vejpr": 6823,
      "gOl": 6824,
      "flejlIN": 6825,
      "swupt": 6826,
      "TON": 6827,
      "ipVl": 6828,
      "mowlt": 6829,
      "slejt": 6830,
      "dIlejd": 6831,
      "vIZw": 6832,
      "IndZi": 6833,
      "skawts": 6834,
      "juzr": 6835,
      "spejS": 6836,
      "tSEsts": 6837,
      "ajbIN": 6838,
      "flUr": 6839,
      "stAf": 6840,
      "skVf": 6841,
      "mIljEr": 6842,
      "bVkt": 6843,
      "dilz": 6844,
      "lImpt": 6845,
      "und": 6846,
      "plVgd": 6847,
      "owtEsts": 6848,
      "mawntIN": 6849,
      "tIklIN": 6850,
      "kulIN": 6851,
      "tj": 6852,
      "idZEkt": 6853,
      "IdZin": 6854,
      "blAg": 6855,
      "lvejS": 6856,
      "iejtr": 6857,
      "hEdl": 6858,
      "powdi": 6859,
      "glIntIN": 6860,
      "tAdlr": 6861,
      "sEnsl": 6862,
      "gowlz": 6863,
      "stowIk": 6864,
      "lkowv": 6865,
      "mejld": 6866,
      "jowg": 6867,
      "InfIltr": 6868,
      "tajld": 6869,
      "nOt": 6870,
      "dIsEpS": 6871,
      "bIhowld": 6872,
      "lowdz": 6873,
      "Vflaj": 6874,
      "towmAs": 6875,
      "townd": 6876,
      "Inklu": 6877,
      "dZuIS": 6878,
      "lst": 6879,
      "Olbi": 6880,
      "nukVmr": 6881,
      "bAnfajr": 6882,
      "mEm": 6883,
      "tVgz": 6884,
      "skwAt": 6885,
      "stIS": 6886,
      "InstItuS": 6887,
      "bEns": 6888,
      "gejp": 6889,
      "IzIstIN": 6890,
      "Edw": 6891,
      "bowlIN": 6892,
      "ntiAgow": 6893,
      "howtElz": 6894,
      "wIf": 6895,
      "mAs": 6896,
      "howzej": 6897,
      "dZEstIk": 6898,
      "ksEsr": 6899,
      "kwEl": 6900,
      "IdZIpS": 6901,
      "dImIn": 6902,
      "mEdIks": 6903,
      "bumIN": 6904,
      "sOsr": 6905,
      "igIN": 6906,
      "bVlki": 6907,
      "stAkt": 6908,
      "flIps": 6909,
      "bajks": 6910,
      "ntid": 6911,
      "stejZ": 6912,
      "dAlz": 6913,
      "likIN": 6914,
      "towlIvr": 6915,
      "tElr": 6916,
      "nowtOr": 6917,
      "dISEv": 6918,
      "skVlz": 6919,
      "dZENk": 6920,
      "lajtId": 6921,
      "plAz": 6922,
      "ejdiejS": 6923,
      "wejZ": 6924,
      "IdEnt": 6925,
      "ikojld": 6926,
      "gdZEsts": 6927,
      "lupt": 6928,
      "lizr": 6929,
      "IkwejZ": 6930,
      "kVnt": 6931,
      "kejst": 6932,
      "skwajr": 6933,
      "likt": 6934,
      "Oni": 6935,
      "bip": 6936,
      "SIpt": 6937,
      "tIlts": 6938,
      "hAlIk": 6939,
      "ajzej": 6940,
      "ntSt": 6941,
      "nawnsIN": 6942,
      "INktli": 6943,
      "dVnow": 6944,
      "mEdIk": 6945,
      "wit": 6946,
      "wOlts": 6947,
      "ajps": 6948,
      "tEnT": 6949,
      "gAblIn": 6950,
      "ajtId": 6951,
      "InsVltIN": 6952,
      "owklejmd": 6953,
      "SejpSIftr": 6954,
      "gug": 6955,
      "pAnt": 6956,
      "pVmps": 6957,
      "TAr": 6958,
      "spAntej": 6959,
      "spAntejni": 6960,
      "bVntSt": 6961,
      "ejtIv": 6962,
      "bEndz": 6963,
      "dug": 6964,
      "ntl": 6965,
      "twA": 6966,
      "swItSIN": 6967,
      "pIgz": 6968,
      "EntSm": 6969,
      "Ibi": 6970,
      "Ami": 6971,
      "lAd": 6972,
      "vAlkej": 6973,
      "kEs": 6974,
      "pn": 6975,
      "stAmpIN": 6976,
      "nwr": 6977,
      "SipIS": 6978,
      "mInIs": 6979,
      "mAntgVm": 6980,
      "fAgi": 6981,
      "skVt": 6982,
      "OlbiIt": 6983,
      "bmr": 6984,
      "nEfIl": 6985,
      "dowmejn": 6986,
      "kswEl": 6987,
      "hejsti": 6988,
      "mejntejnIN": 6989,
      "sfIN": 6990,
      "vejtIN": 6991,
      "dawuS": 6992,
      "Vnwej": 6993,
      "vIkr": 6994,
      "hVsk": 6995,
      "bEtIN": 6996,
      "dIvojd": 6997,
      "dImAnIk": 6998,
      "tjUr": 6999,
      "wum": 7000,
      "Ofspr": 7001,
      "dEntS": 7002,
      "pOn": 7003,
      "mIsIv": 7004,
      "EpId": 7005,
      "bjuzd": 7006,
      "hIlsajd": 7007,
      "dZInIti": 7008,
      "wejlz": 7009,
      "ImpowzIN": 7010,
      "kAnfajnz": 7011,
      "Tjuz": 7012,
      "Tow": 7013,
      "bIkju": 7014,
      "fowlIdZ": 7015,
      "mAnAr": 7016,
      "jEz": 7017,
      "bIlifs": 7018,
      "sIdVkS": 7019,
      "mAp": 7020,
      "dIzin": 7021,
      "bsIdi": 7022,
      "stEpfADr": 7023,
      "hjuz": 7024,
      "swAn": 7025,
      "glumi": 7026,
      "spVndZ": 7027,
      "dVmpstr": 7028,
      "liwej": 7029,
      "hAsp": 7030,
      "majs": 7031,
      "nejtr": 7032,
      "ejtT": 7033,
      "tAnIk": 7034,
      "TEft": 7035,
      "glr": 7036,
      "bejkIN": 7037,
      "ksIz": 7038,
      "fojl": 7039,
      "uvm": 7040,
      "owtEktIvli": 7041,
      "EnkVmp": 7042,
      "Igm": 7043,
      "nVdZ": 7044,
      "gowSiejS": 7045,
      "lAb": 7046,
      "ElIS": 7047,
      "sEfown": 7048,
      "spAtlajt": 7049,
      "kstr": 7050,
      "tuS": 7051,
      "spEktejtr": 7052,
      "inow": 7053,
      "flAps": 7054,
      "mini": 7055,
      "dIstINktli": 7056,
      "nstejb": 7057,
      "bVmpr": 7058,
      "ds": 7059,
      "AptId": 7060,
      "wajzli": 7061,
      "tidZIk": 7062,
      "slIts": 7063,
      "fUlfIld": 7064,
      "dwInd": 7065,
      "vOl": 7066,
      "mowl": 7067,
      "smVdZ": 7068,
      "hOks": 7069,
      "klIpbOr": 7070,
      "jutIl": 7071,
      "SVts": 7072,
      "lENT": 7073,
      "dVks": 7074,
      "hAstIl": 7075,
      "awdId": 7076,
      "INkS": 7077,
      "ZAk": 7078,
      "dIlIr": 7079,
      "majlow": 7080,
      "bmIS": 7081,
      "dEvlIn": 7082,
      "pd": 7083,
      "klowkt": 7084,
      "pAtr": 7085,
      "dju": 7086,
      "stawt": 7087,
      "hUdi": 7088,
      "EntIN": 7089,
      "lsajd": 7090,
      "wAtSr": 7091,
      "ntEntm": 7092,
      "stSr": 7093,
      "stajflIN": 7094,
      "Vmpi": 7095,
      "sajki": 7096,
      "hEf": 7097,
      "ESIN": 7098,
      "plejgr": 7099,
      "mIddej": 7100,
      "nkAli": 7101,
      "sIdh": 7102,
      "mVgz": 7103,
      "pOld": 7104,
      "wAts": 7105,
      "fib": 7106,
      "ItSIN": 7107,
      "pejtId": 7108,
      "wejdZ": 7109,
      "wuS": 7110,
      "Ikwajr": 7111,
      "lEnt": 7112,
      "SbOr": 7113,
      "VmIgd": 7114,
      "sitIN": 7115,
      "dIktejt": 7116,
      "lvr": 7117,
      "bajsIk": 7118,
      "llajt": 7119,
      "EmbAr": 7120,
      "mpfajr": 7121,
      "ntejdZ": 7122,
      "IsIpi": 7123,
      "wAftId": 7124,
      "nstajn": 7125,
      "SVvz": 7126,
      "gEti": 7127,
      "Vnkr": 7128,
      "sInIk": 7129,
      "lajkwajz": 7130,
      "awtlajnd": 7131,
      "nslus": 7132,
      "EdIS": 7133,
      "mEstIk": 7134,
      "mIsi": 7135,
      "TInd": 7136,
      "sEmbl": 7137,
      "pawtId": 7138,
      "stOlz": 7139,
      "Impi": 7140,
      "powlr": 7141,
      "snowi": 7142,
      "kdr": 7143,
      "fAl": 7144,
      "sAZIN": 7145,
      "dEpt": 7146,
      "gIn": 7147,
      "dZowdi": 7148,
      "sVbwej": 7149,
      "kAlig": 7150,
      "dZINg": 7151,
      "fejnd": 7152,
      "wIlz": 7153,
      "vInt": 7154,
      "mIg": 7155,
      "ntajd": 7156,
      "Inhjum": 7157,
      "glOs": 7158,
      "awtfIts": 7159,
      "lowki": 7160,
      "dVmfawndId": 7161,
      "ITi": 7162,
      "lUkIn": 7163,
      "TIkli": 7164,
      "InkVmIN": 7165,
      "lENkTs": 7166,
      "bVni": 7167,
      "dimd": 7168,
      "ImIt": 7169,
      "lEvEt": 7170,
      "fInISIz": 7171,
      "lEksej": 7172,
      "kowtIN": 7173,
      "fEtSt": 7174,
      "skVlptId": 7175,
      "jAn": 7176,
      "lajvli": 7177,
      "EndId": 7178,
      "itow": 7179,
      "VNkt": 7180,
      "ejkow": 7181,
      "siTIN": 7182,
      "nzlejS": 7183,
      "nidl": 7184,
      "gVnd": 7185,
      "sOftwEr": 7186,
      "SEli": 7187,
      "lVvINli": 7188,
      "dIflEkt": 7189,
      "mIdiv": 7190,
      "dIsplejIN": 7191,
      "vojst": 7192,
      "sowsiIts": 7193,
      "hInts": 7194,
      "klajmz": 7195,
      "kawtSIz": 7196,
      "fejts": 7197,
      "dZEndr": 7198,
      "Imb": 7199,
      "IvVlS": 7200,
      "lid": 7201,
      "lEstr": 7202,
      "Edn": 7203,
      "jOnIN": 7204,
      "bIhejvd": 7205,
      "nsid": 7206,
      "pAzItId": 7207,
      "bEv": 7208,
      "ajbOlz": 7209,
      "fIni": 7210,
      "Iksi": 7211,
      "gEtIn": 7212,
      "flEksIN": 7213,
      "smejts": 7214,
      "gajzd": 7215,
      "dImajz": 7216,
      "pVblIS": 7217,
      "SA": 7218,
      "Tejn": 7219,
      "plawd": 7220,
      "EndejndZr": 7221,
      "sIzr": 7222,
      "tSIks": 7223,
      "AsEsIN": 7224,
      "fejdz": 7225,
      "hajdz": 7226,
      "AsIk": 7227,
      "howmkVmIN": 7228,
      "niIN": 7229,
      "nkVS": 7230,
      "iAr": 7231,
      "Esej": 7232,
      "kAmi": 7233,
      "tAmps": 7234,
      "owmiow": 7235,
      "Izli": 7236,
      "lEktSu": 7237,
      "plaw": 7238,
      "wejdZr": 7239,
      "dZuz": 7240,
      "hUdz": 7241,
      "kAtIk": 7242,
      "mpElIN": 7243,
      "bid": 7244,
      "bVldZd": 7245,
      "InvejdIN": 7246,
      "swits": 7247,
      "utId": 7248,
      "fjumz": 7249,
      "IndIs": 7250,
      "plVk": 7251,
      "pINki": 7252,
      "zEr": 7253,
      "ufs": 7254,
      "puk": 7255,
      "pejstr": 7256,
      "InspEktIN": 7257,
      "gVSt": 7258,
      "TVgz": 7259,
      "klawn": 7260,
      "dZVtIN": 7261,
      "AbnAkS": 7262,
      "IndEvr": 7263,
      "dEsks": 7264,
      "kUldv": 7265,
      "ejndZIst": 7266,
      "plAtIN": 7267,
      "lajfmejt": 7268,
      "kowldn": 7269,
      "dmAn": 7270,
      "pEts": 7271,
      "tIptowz": 7272,
      "ndZIz": 7273,
      "hejlow": 7274,
      "nVdZIN": 7275,
      "Nowvr": 7276,
      "bEldIn": 7277,
      "lusInd": 7278,
      "dZusi": 7279,
      "gawnz": 7280,
      "IndIg": 7281,
      "tSIdr": 7282,
      "gAblInz": 7283,
      "sejtId": 7284,
      "kejdZIz": 7285,
      "majnz": 7286,
      "sEsIN": 7287,
      "Alf": 7288,
      "bUkkejs": 7289,
      "dZAgr": 7290,
      "mplejt": 7291,
      "majki": 7292,
      "sAZd": 7293,
      "hjumIliejtId": 7294,
      "pEs": 7295,
      "mimi": 7296,
      "bIlONIN": 7297,
      "skImIN": 7298,
      "dIfajn": 7299,
      "wINkIN": 7300,
      "dIsmawntId": 7301,
      "mplejnts": 7302,
      "Ifs": 7303,
      "IkwEsts": 7304,
      "iEt": 7305,
      "fEstIv": 7306,
      "thaws": 7307,
      "didz": 7308,
      "InsVlts": 7309,
      "sidr": 7310,
      "IgzIstIN": 7311,
      "sVltr": 7312,
      "OltEr": 7313,
      "gufi": 7314,
      "Agi": 7315,
      "twItr": 7316,
      "IIn": 7317,
      "Elvi": 7318,
      "kowdz": 7319,
      "Enk": 7320,
      "dOntl": 7321,
      "sajtIN": 7322,
      "ajmi": 7323,
      "skAtIS": 7324,
      "bajd": 7325,
      "wajldr": 7326,
      "nfInISt": 7327,
      "bEdIN": 7328,
      "mejp": 7329,
      "tis": 7330,
      "najtfOl": 7331,
      "bIznIs": 7332,
      "spir": 7333,
      "kOni": 7334,
      "nEz": 7335,
      "kowlz": 7336,
      "gAz": 7337,
      "lONbow": 7338,
      "lawndZIN": 7339,
      "vAnjOn": 7340,
      "vIggow": 7341,
      "Sl": 7342,
      "ldli": 7343,
      "Twej": 7344,
      "lawzi": 7345,
      "EndZi": 7346,
      "gVlf": 7347,
      "bAlIk": 7348,
      "blejmIN": 7349,
      "OINz": 7350,
      "lfi": 7351,
      "tajmr": 7352,
      "ips": 7353,
      "wElIN": 7354,
      "bajp": 7355,
      "hEft": 7356,
      "vElt": 7357,
      "tejld": 7358,
      "InsIgnj": 7359,
      "lVl": 7360,
      "owlf": 7361,
      "dZEts": 7362,
      "Izm": 7363,
      "Intejk": 7364,
      "dIkOr": 7365,
      "nOf": 7366,
      "vajb": 7367,
      "TInr": 7368,
      "InsIgnjIfIk": 7369,
      "ifIN": 7370,
      "wIskr": 7371,
      "pIksi": 7372,
      "judZin": 7373,
      "bejd": 7374,
      "utIN": 7375,
      "kAld": 7376,
      "livr": 7377,
      "btejn": 7378,
      "kowstr": 7379,
      "lsi": 7380,
      "hejs": 7381,
      "lunz": 7382,
      "flIks": 7383,
      "EdZIN": 7384,
      "nowtp": 7385,
      "Enkejst": 7386,
      "him": 7387,
      "snIs": 7388,
      "spEkts": 7389,
      "fjuZ": 7390,
      "Eniwejz": 7391,
      "stupt": 7392,
      "Oli": 7393,
      "Ipits": 7394,
      "klajd": 7395,
      "fIftiz": 7396,
      "sidZ": 7397,
      "sejvjr": 7398,
      "hajdi": 7399,
      "lIstEr": 7400,
      "mAntgVmr": 7401,
      "mpit": 7402,
      "howmmejd": 7403,
      "kows": 7404,
      "tVli": 7405,
      "lowTIN": 7406,
      "bUkstOr": 7407,
      "ONz": 7408,
      "blumd": 7409,
      "kejAtIk": 7410,
      "Otow": 7411,
      "viEt": 7412,
      "dutif": 7413,
      "bidId": 7414,
      "najtli": 7415,
      "uftAp": 7416,
      "dZub": 7417,
      "hawndz": 7418,
      "Indust": 7419,
      "pEnz": 7420,
      "hItlr": 7421,
      "dVktIv": 7422,
      "sVbr": 7423,
      "bVts": 7424,
      "stEdiIN": 7425,
      "dZojnts": 7426,
      "pIntSIN": 7427,
      "mIstejkIN": 7428,
      "fajnr": 7429,
      "dAnd": 7430,
      "wIkId": 7431,
      "wIkIdli": 7432,
      "lowgow": 7433,
      "klowsnIs": 7434,
      "sInd": 7435,
      "klul": 7436,
      "blt": 7437,
      "bAdid": 7438,
      "Osti": 7439,
      "mVt": 7440,
      "dwElIN": 7441,
      "kwow": 7442,
      "tIni": 7443,
      "slejn": 7444,
      "flItId": 7445,
      "mIsIsIpi": 7446,
      "ImIN": 7447,
      "blitSr": 7448,
      "vOs": 7449,
      "gmAr": 7450,
      "kIp": 7451,
      "hOltIN": 7452,
      "flININ": 7453,
      "Tkwejk": 7454,
      "tVt": 7455,
      "sowvi": 7456,
      "mejzi": 7457,
      "ETi": 7458,
      "spEld": 7459,
      "nejdow": 7460,
      "dIgz": 7461,
      "mbl": 7462,
      "pjutr": 7463,
      "tSApt": 7464,
      "itli": 7465,
      "Iskejps": 7466,
      "Etf": 7467,
      "pajnt": 7468,
      "IndIskr": 7469,
      "Emplojm": 7470,
      "najtIN": 7471,
      "gajdz": 7472,
      "pAzIt": 7473,
      "dVmpIN": 7474,
      "IbIt": 7475,
      "fOs": 7476,
      "kVr": 7477,
      "mEntIN": 7478,
      "TVmd": 7479,
      "IzVltId": 7480,
      "Ensl": 7481,
      "mpIr": 7482,
      "mIlIN": 7483,
      "sIkludId": 7484,
      "hIpn": 7485,
      "gown": 7486,
      "lUkr": 7487,
      "kmejl": 7488,
      "ur": 7489,
      "ImplOr": 7490,
      "ejkdawn": 7491,
      "OnkVmIN": 7492,
      "tAksIk": 7493,
      "pAmr": 7494,
      "dEzIgn": 7495,
      "mejfEr": 7496,
      "SIpm": 7497,
      "InsIstIN": 7498,
      "vIntIdZ": 7499,
      "fulIN": 7500,
      "IntuIS": 7501,
      "kowltr": 7502,
      "swEts": 7503,
      "mOT": 7504,
      "majnIN": 7505,
      "EgzIts": 7506,
      "stAkINz": 7507,
      "pajpt": 7508,
      "owhaj": 7509,
      "nubOr": 7510,
      "nIkIN": 7511,
      "Elbowd": 7512,
      "kliv": 7513,
      "kSIm": 7514,
      "klOr": 7515,
      "blVdSAt": 7516,
      "lInz": 7517,
      "bojIS": 7518,
      "ntSIldr": 7519,
      "ihEnS": 7520,
      "plejgd": 7521,
      "itEns": 7522,
      "mIdZ": 7523,
      "niks": 7524,
      "dIsist": 7525,
      "tAli": 7526,
      "bImjuzd": 7527,
      "kwEr": 7528,
      "dwEr": 7529,
      "ejml": 7530,
      "dAli": 7531,
      "ipej": 7532,
      "mEntSIr": 7533,
      "dEstr": 7534,
      "ndm": 7535,
      "mVNks": 7536,
      "InsIsts": 7537,
      "sth": 7538,
      "stOk": 7539,
      "skVm": 7540,
      "ilz": 7541,
      "zUr": 7542,
      "slIkt": 7543,
      "lajthaws": 7544,
      "vEndr": 7545,
      "hAki": 7546,
      "bmw": 7547,
      "fejntId": 7548,
      "hjumIliejtIN": 7549,
      "InflIktId": 7550,
      "nufawnd": 7551,
      "nejbOr": 7552,
      "kAnsOr": 7553,
      "mVsti": 7554,
      "Ivu": 7555,
      "pVnISIN": 7556,
      "EksEs": 7557,
      "Onwr": 7558,
      "INgr": 7559,
      "fliz": 7560,
      "tEt": 7561,
      "IvEntIN": 7562,
      "mElow": 7563,
      "Itd": 7564,
      "Atr": 7565,
      "flIm": 7566,
      "IgzOstIN": 7567,
      "miti": 7568,
      "gowts": 7569,
      "Inkludz": 7570,
      "dZVstm": 7571,
      "owpIN": 7572,
      "stejnl": 7573,
      "vAlkejnow": 7574,
      "dZajn": 7575,
      "mIlki": 7576,
      "butId": 7577,
      "spejn": 7578,
      "lulu": 7579,
      "splAtr": 7580,
      "lAnZr": 7581,
      "nIdZIz": 7582,
      "wejwr": 7583,
      "hIpnAt": 7584,
      "dEzIgnejtId": 7585,
      "sIft": 7586,
      "pejvd": 7587,
      "jElp": 7588,
      "plEdZ": 7589,
      "Elmz": 7590,
      "iwej": 7591,
      "mejtow": 7592,
      "sfINks": 7593,
      "hjust": 7594,
      "lAdZIkli": 7595,
      "twIgz": 7596,
      "sEzr": 7597,
      "bn": 7598,
      "bmIsIv": 7599,
      "juTf": 7600,
      "sitblt": 7601,
      "awtnVmbr": 7602,
      "wIps": 7603,
      "lAntli": 7604,
      "dIsplEZr": 7605,
      "kejdZd": 7606,
      "bElts": 7607,
      "nwElk": 7608,
      "lENTi": 7609,
      "knAlIdZIN": 7610,
      "tAZ": 7611,
      "Ok": 7612,
      "spajsi": 7613,
      "Tiz": 7614,
      "spAnsr": 7615,
      "nSi": 7616,
      "pAvr": 7617,
      "nVTINn": 7618,
      "plizIN": 7619,
      "gnIn": 7620,
      "lImpIN": 7621,
      "nir": 7622,
      "tEntS": 7623,
      "bIkr": 7624,
      "nhUd": 7625,
      "mIdEr": 7626,
      "lips": 7627,
      "owhajow": 7628,
      "bhIr": 7629,
      "lVvmejkIN": 7630,
      "lAti": 7631,
      "glImpsIz": 7632,
      "niowl": 7633,
      "mplajd": 7634,
      "gigul": 7635,
      "vejIN": 7636,
      "Entwajnd": 7637,
      "spidz": 7638,
      "bipt": 7639,
      "hVb": 7640,
      "EtsEtr": 7641,
      "nnr": 7642,
      "twIg": 7643,
      "Sejkspir": 7644,
      "VnkEr": 7645,
      "Imuv": 7646,
      "owzwUd": 7647,
      "dajvd": 7648,
      "nEfr": 7649,
      "ajow": 7650,
      "stiz": 7651,
      "bInz": 7652,
      "zIl": 7653,
      "dowzd": 7654,
      "IksplowsIvz": 7655,
      "vAli": 7656,
      "kVmIn": 7657,
      "wildIN": 7658,
      "dVstIN": 7659,
      "IDr": 7660,
      "tajtn": 7661,
      "fejzd": 7662,
      "fInli": 7663,
      "bOlt": 7664,
      "kiow": 7665,
      "awdIN": 7666,
      "sili": 7667,
      "kSAp": 7668,
      "tuTbr": 7669,
      "svEn": 7670,
      "mInr": 7671,
      "lowli": 7672,
      "ajmd": 7673,
      "flInt": 7674,
      "pAT": 7675,
      "Vfr": 7676,
      "owpi": 7677,
      "stOlIN": 7678,
      "snEr": 7679,
      "Tin": 7680,
      "lups": 7681,
      "Ekw": 7682,
      "bAksIN": 7683,
      "Vstwr": 7684,
      "sEnS": 7685,
      "ntIks": 7686,
      "mblr": 7687,
      "dZEb": 7688,
      "skju": 7689,
      "tinT": 7690,
      "flIntSIN": 7691,
      "sUt": 7692,
      "tejps": 7693,
      "powlow": 7694,
      "IsEl": 7695,
      "IntSIN": 7696,
      "sumi": 7697,
      "SejdId": 7698,
      "IndIgnejS": 7699,
      "uTs": 7700,
      "flejmd": 7701,
      "dEts": 7702,
      "lejnz": 7703,
      "lajtn": 7704,
      "kAdowgAn": 7705,
      "tEmplr": 7706,
      "slajmi": 7707,
      "hjumOr": 7708,
      "nur": 7709,
      "Ons": 7710,
      "mejlbAks": 7711,
      "SImi": 7712,
      "skut": 7713,
      "slips": 7714,
      "dIluZ": 7715,
      "dIklajn": 7716,
      "lajzr": 7717,
      "sawndl": 7718,
      "usIN": 7719,
      "hIld": 7720,
      "tidi": 7721,
      "flImzi": 7722,
      "OnslOt": 7723,
      "wEnd": 7724,
      "IkspEld": 7725,
      "InswInd": 7726,
      "AndIvu": 7727,
      "pajz": 7728,
      "fIkt": 7729,
      "SIpIN": 7730,
      "stAmp": 7731,
      "bVggr": 7732,
      "ksp": 7733,
      "migr": 7734,
      "sejd": 7735,
      "tSajdId": 7736,
      "tSikbown": 7737,
      "nowzi": 7738,
      "sajkAtIk": 7739,
      "kid": 7740,
      "fIlT": 7741,
      "Og": 7742,
      "TVddId": 7743,
      "pEp": 7744,
      "Tejr": 7745,
      "bejD": 7746,
      "ldZ": 7747,
      "owAk": 7748,
      "nsivd": 7749,
      "ndlOr": 7750,
      "nVmn": 7751,
      "flIktIN": 7752,
      "mblIN": 7753,
      "wIz": 7754,
      "IspAnsIz": 7755,
      "tSImni": 7756,
      "nin": 7757,
      "lAnt": 7758,
      "ntSi": 7759,
      "IgzIbIt": 7760,
      "bIhejvir": 7761,
      "VdIkt": 7762,
      "vojsmejl": 7763,
      "bVzr": 7764,
      "downVts": 7765,
      "SejvIN": 7766,
      "owzmEr": 7767,
      "VmpS": 7768,
      "kIS": 7769,
      "ndZIlajn": 7770,
      "ndIs": 7771,
      "stINkIN": 7772,
      "ejsIv": 7773,
      "kAstumz": 7774,
      "Endow": 7775,
      "swIs": 7776,
      "vAljumz": 7777,
      "nIkowlow": 7778,
      "wIdT": 7779,
      "nmAr": 7780,
      "hajp": 7781,
      "dZEktr": 7782,
      "Vntu": 7783,
      "mudi": 7784,
      "fEktIN": 7785,
      "sutkejsIz": 7786,
      "ojstr": 7787,
      "pojnti": 7788,
      "swips": 7789,
      "fudz": 7790,
      "kowkst": 7791,
      "vId": 7792,
      "spju": 7793,
      "dZVtId": 7794,
      "itINz": 7795,
      "stVnt": 7796,
      "dEbr": 7797,
      "smVgli": 7798,
      "wINki": 7799,
      "tSejkow": 7800,
      "luizi": 7801,
      "mVmi": 7802,
      "kejts": 7803,
      "fEktId": 7804,
      "kwojz": 7805,
      "dIsmIsIvli": 7806,
      "ojli": 7807,
      "sAvr": 7808,
      "downejt": 7809,
      "dIlit": 7810,
      "nEklajn": 7811,
      "Egzajl": 7812,
      "kAmplISm": 7813,
      "glif": 7814,
      "bdVktId": 7815,
      "dItEktr": 7816,
      "EpIdejS": 7817,
      "ljud": 7818,
      "Enzid": 7819,
      "owfi": 7820,
      "mIts": 7821,
      "gejtwej": 7822,
      "dZInz": 7823,
      "skwInt": 7824,
      "dZAli": 7825,
      "spuk": 7826,
      "fUtm": 7827,
      "nsfIkst": 7828,
      "owlAf": 7829,
      "ndejS": 7830,
      "vejsr": 7831,
      "pEst": 7832,
      "bowldli": 7833,
      "spAtIN": 7834,
      "tEntIv": 7835,
      "nItIN": 7836,
      "unow": 7837,
      "hajv": 7838,
      "kd": 7839,
      "spAnd": 7840,
      "mEdz": 7841,
      "lgr": 7842,
      "lUkawt": 7843,
      "Entaj": 7844,
      "ZIsEl": 7845,
      "SAks": 7846,
      "stAnISIN": 7847,
      "kOz": 7848,
      "sINgj": 7849,
      "dIflejtId": 7850,
      "najnT": 7851,
      "hitr": 7852,
      "tSIt": 7853,
      "kowmz": 7854,
      "sINli": 7855,
      "sowIN": 7856,
      "tIsjuz": 7857,
      "dZowz": 7858,
      "wAf": 7859,
      "lejawt": 7860,
      "Absin": 7861,
      "bowbow": 7862,
      "swAtId": 7863,
      "nduIN": 7864,
      "klowz": 7865,
      "nOIN": 7866,
      "sEtVp": 7867,
      "dIlEm": 7868,
      "sizr": 7869,
      "dIsajs": 7870,
      "ndSejk": 7871,
      "VbIS": 7872,
      "kApid": 7873,
      "klajn": 7874,
      "blowk": 7875,
      "najtINgejl": 7876,
      "Olmajti": 7877,
      "pVfIN": 7878,
      "hoj": 7879,
      "Oldr": 7880,
      "tImId": 7881,
      "spuki": 7882,
      "lowdIk": 7883,
      "wlowdIk": 7884,
      "Vmr": 7885,
      "lInt": 7886,
      "tSEsnVt": 7887,
      "bIlowIN": 7888,
      "skwilIN": 7889,
      "nEm": 7890,
      "gzIst": 7891,
      "gEm": 7892,
      "kEmIk": 7893,
      "iAdIk": 7894,
      "ntSIz": 7895,
      "stejkIN": 7896,
      "stejnIN": 7897,
      "EntajsIN": 7898,
      "dZItr": 7899,
      "klowks": 7900,
      "Amk": 7901,
      "powli": 7902,
      "dIstINktIv": 7903,
      "plejsm": 7904,
      "dEb": 7905,
      "ImEn": 7906,
      "dZuv": 7907,
      "bOlIN": 7908,
      "lejts": 7909,
      "INklIN": 7910,
      "bVkIN": 7911,
      "nsmIS": 7912,
      "fUlr": 7913,
      "bEtsi": 7914,
      "hIpnAtIk": 7915,
      "ttSr": 7916,
      "wejdId": 7917,
      "tSIpt": 7918,
      "Eksk": 7919,
      "gun": 7920,
      "lIpt": 7921,
      "hEdr": 7922,
      "bAndIN": 7923,
      "tEkniks": 7924,
      "IspEktIv": 7925,
      "Sowldv": 7926,
      "gUdbajz": 7927,
      "ndEmd": 7928,
      "ImEnsli": 7929,
      "sIps": 7930,
      "inr": 7931,
      "dZejmIs": 7932,
      "fIlmz": 7933,
      "silINz": 7934,
      "tAlejT": 7935,
      "spEndz": 7936,
      "IkspEkts": 7937,
      "wejstl": 7938,
      "wAzn": 7939,
      "ktIr": 7940,
      "nejdi": 7941,
      "Vfi": 7942,
      "dIfEndr": 7943,
      "tojd": 7944,
      "AlAn": 7945,
      "dZVdZIz": 7946,
      "kAs": 7947,
      "Sejdi": 7948,
      "tejts": 7949,
      "IlEntl": 7950,
      "tunz": 7951,
      "dIsgajzd": 7952,
      "pVmpkIn": 7953,
      "ktAp": 7954,
      "TINkIn": 7955,
      "blVdlajn": 7956,
      "ENk": 7957,
      "hApr": 7958,
      "dIskawnt": 7959,
      "bOsi": 7960,
      "mVzl": 7961,
      "tajs": 7962,
      "bUSi": 7963,
      "gIli": 7964,
      "hUkr": 7965,
      "kUr": 7966,
      "VdZIN": 7967,
      "Sajnd": 7968,
      "lIts": 7969,
      "ownow": 7970,
      "Api": 7971,
      "Tlin": 7972,
      "vIt": 7973,
      "INki": 7974,
      "tSApIN": 7975,
      "AdIN": 7976,
      "fIkstSr": 7977,
      "dEftli": 7978,
      "wIni": 7979,
      "gIlbr": 7980,
      "tejsti": 7981,
      "dImInISt": 7982,
      "nblINkIN": 7983,
      "hAbi": 7984,
      "hejtf": 7985,
      "Enkwajr": 7986,
      "ntejnz": 7987,
      "bilz": 7988,
      "Toj": 7989,
      "flVSIN": 7990,
      "SlIn": 7991,
      "gnow": 7992,
      "wIsps": 7993,
      "bowdIN": 7994,
      "ImpEn": 7995,
      "VktIN": 7996,
      "Alr": 7997,
      "ksEntId": 7998,
      "dImInIS": 7999,
      "dEvlIS": 8000,
      "fOks": 8001,
      "InAr": 8002,
      "uuuu": 8003,
      "lVstr": 8004,
      "skOl": 8005,
      "vIdiowz": 8006,
      "awtkr": 8007,
      "stupr": 8008,
      "Ikts": 8009,
      "bEgr": 8010,
      "owpd": 8011,
      "ntow": 8012,
      "mpown": 8013,
      "fjudZ": 8014,
      "lVd": 8015,
      "dIsmIsIN": 8016,
      "IlIk": 8017,
      "dIslajkt": 8018,
      "pajlIN": 8019,
      "inIN": 8020,
      "ajkAn": 8021,
      "dZajlz": 8022,
      "lApsajdId": 8023,
      "sIgnIfIk": 8024,
      "vajzd": 8025,
      "stulz": 8026,
      "InvIns": 8027,
      "dIsmIsIv": 8028,
      "EdIts": 8029,
      "IzVltIN": 8030,
      "Eksplr": 8031,
      "fidz": 8032,
      "psEtIN": 8033,
      "sniki": 8034,
      "tEli": 8035,
      "InvAlvz": 8036,
      "Asow": 8037,
      "II": 8038,
      "gI": 8039,
      "bUz": 8040,
      "dAnIk": 8041,
      "nfowk": 8042,
      "Ekts": 8043,
      "bjuk": 8044,
      "mus": 8045,
      "wElfEr": 8046,
      "tSImIl": 8047,
      "kowkow": 8048,
      "hEdfownz": 8049,
      "mIgEl": 8050,
      "IgOr": 8051,
      "ImpVlsIv": 8052,
      "lVntStajm": 8053,
      "ntIndZ": 8054,
      "Edid": 8055,
      "bUld": 8056,
      "tOnt": 8057,
      "sejbIn": 8058,
      "ImpEk": 8059,
      "gAb": 8060,
      "IkejtId": 8061,
      "mAnwEl": 8062,
      "lIni": 8063,
      "Eis": 8064,
      "pVk": 8065,
      "Antr": 8066,
      "ownows": 8067,
      "glAk": 8068,
      "EgzItIN": 8069,
      "owlAg": 8070,
      "vejld": 8071,
      "umejts": 8072,
      "blumIN": 8073,
      "mir": 8074,
      "owlImp": 8075,
      "EngejdZIN": 8076,
      "IlusIv": 8077,
      "bawr": 8078,
      "EnlIst": 8079,
      "nsejS": 8080,
      "wIkr": 8081,
      "dIskOr": 8082,
      "bawndz": 8083,
      "sejvINz": 8084,
      "pVblIkli": 8085,
      "dIps": 8086,
      "spEns": 8087,
      "hownd": 8088,
      "dajlejt": 8089,
      "dmItIdli": 8090,
      "lOgd": 8091,
      "INd": 8092,
      "ib": 8093,
      "pEgi": 8094,
      "tINkr": 8095,
      "pAmp": 8096,
      "IhEnsIv": 8097,
      "gOntl": 8098,
      "fEndIN": 8099,
      "kowvr": 8100,
      "blVdlVst": 8101,
      "VmIdZIN": 8102,
      "pInpojnt": 8103,
      "pejk": 8104,
      "zaj": 8105,
      "klVmp": 8106,
      "sidow": 8107,
      "InsInju": 8108,
      "lEkts": 8109,
      "iowp": 8110,
      "nIndZ": 8111,
      "kajlr": 8112,
      "tuts": 8113,
      "fjumd": 8114,
      "ispEktIN": 8115,
      "iSiejtIv": 8116,
      "AsEst": 8117,
      "bAmbAr": 8118,
      "Akl": 8119,
      "fajsIz": 8120,
      "bAld": 8121,
      "IktIN": 8122,
      "InfIn": 8123,
      "tbits": 8124,
      "tEnsIN": 8125,
      "IkstSejndZIN": 8126,
      "ktIvli": 8127,
      "tiIN": 8128,
      "pejb": 8129,
      "bust": 8130,
      "dusr": 8131,
      "glaj": 8132,
      "glEnd": 8133,
      "sEptr": 8134,
      "fAs": 8135,
      "nfjuz": 8136,
      "nbi": 8137,
      "zbi": 8138,
      "siow": 8139,
      "stVd": 8140,
      "sajdwOks": 8141,
      "kAntEkst": 8142,
      "lismIn": 8143,
      "mAskow": 8144,
      "AnIkli": 8145,
      "nfowldIN": 8146,
      "tSVbi": 8147,
      "VndIs": 8148,
      "dIsplejz": 8149,
      "InkowhIr": 8150,
      "lVmbi": 8151,
      "dIsEpt": 8152,
      "TwOr": 8153,
      "ngAr": 8154,
      "kUdn": 8155,
      "lItiz": 8156,
      "kstejdZ": 8157,
      "gVnSAts": 8158,
      "iti": 8159,
      "pawns": 8160,
      "lEndIl": 8161,
      "glVm": 8162,
      "EmpS": 8163,
      "spukt": 8164,
      "dZojnz": 8165,
      "TwEst": 8166,
      "wIlpawr": 8167,
      "fEndr": 8168,
      "siZr": 8169,
      "snVf": 8170,
      "ElIg": 8171,
      "fAt": 8172,
      "tejpr": 8173,
      "judZ": 8174,
      "IvAlvd": 8175,
      "IlejS": 8176,
      "Endir": 8177,
      "tOn": 8178,
      "Idstr": 8179,
      "IlON": 8180,
      "Egwin": 8181,
      "lItIk": 8182,
      "dejtajm": 8183,
      "mEmf": 8184,
      "Sejz": 8185,
      "bk": 8186,
      "nejml": 8187,
      "mAks": 8188,
      "Istow": 8189,
      "owtEsk": 8190,
      "ibIld": 8191,
      "sawndli": 8192,
      "bIgInINz": 8193,
      "td": 8194,
      "stejp": 8195,
      "dIspajz": 8196,
      "dawnz": 8197,
      "zil": 8198,
      "mEnz": 8199,
      "studi": 8200,
      "downr": 8201,
      "fEdz": 8202,
      "mAkr": 8203,
      "pElv": 8204,
      "kVS": 8205,
      "ntEnd": 8206,
      "ntIdZIz": 8207,
      "wivr": 8208,
      "SE": 8209,
      "kbEr": 8210,
      "nawnsIz": 8211,
      "bejg": 8212,
      "hEkejt": 8213,
      "spejst": 8214,
      "dIstINgwIS": 8215,
      "nspIk": 8216,
      "Ipts": 8217,
      "pulIN": 8218,
      "nspIkju": 8219,
      "Aksfr": 8220,
      "vAdow": 8221,
      "kowks": 8222,
      "nEli": 8223,
      "blejzr": 8224,
      "TEtr": 8225,
      "kEndZi": 8226,
      "Enst": 8227,
      "ltow": 8228,
      "sInf": 8229,
      "buTs": 8230,
      "til": 8231,
      "gIldId": 8232,
      "downVt": 8233,
      "nejdz": 8234,
      "Akiv": 8235,
      "wOlpejpr": 8236,
      "mVNkiz": 8237,
      "TkVmIN": 8238,
      "zAl": 8239,
      "InvEnS": 8240,
      "flowz": 8241,
      "skupIN": 8242,
      "mojr": 8243,
      "Sik": 8244,
      "AngowIN": 8245,
      "wEltS": 8246,
      "Aul": 8247,
      "ajsIN": 8248,
      "dETli": 8249,
      "lInEt": 8250,
      "mejdZIz": 8251,
      "AsIkjutr": 8252,
      "tIz": 8253,
      "dEnts": 8254,
      "owtejtId": 8255,
      "dupl": 8256,
      "fejkt": 8257,
      "InkAmp": 8258,
      "slajm": 8259,
      "bejsIks": 8260,
      "sejIn": 8261,
      "kjutli": 8262,
      "bnOr": 8263,
      "wOki": 8264,
      "tIptowd": 8265,
      "ajnz": 8266,
      "wIskt": 8267,
      "tEndz": 8268,
      "bVlbz": 8269,
      "kwIntOn": 8270,
      "hIb": 8271,
      "dEzm": 8272,
      "majtS": 8273,
      "kAtr": 8274,
      "sip": 8275,
      "sImi": 8276,
      "ntSEz": 8277,
      "pVpiz": 8278,
      "SOl": 8279,
      "wIsk": 8280,
      "Apsi": 8281,
      "hVlkIN": 8282,
      "Iklajnr": 8283,
      "ITIr": 8284,
      "pVfs": 8285,
      "lIZ": 8286,
      "livi": 8287,
      "mInik": 8288,
      "dZejms": 8289,
      "pImp": 8290,
      "klOstr": 8291,
      "slVmp": 8292,
      "lImpli": 8293,
      "bEdtajm": 8294,
      "hawlz": 8295,
      "lOntSIN": 8296,
      "ejtfOr": 8297,
      "fIdlIN": 8298,
      "isEt": 8299,
      "dOmInik": 8300,
      "dZowlin": 8301,
      "nTIs": 8302,
      "IlEntId": 8303,
      "plEks": 8304,
      "kElsir": 8305,
      "lIvi": 8306,
      "ejtinT": 8307,
      "slowps": 8308,
      "pId": 8309,
      "dawnhIl": 8310,
      "kejvd": 8311,
      "pVNktSuejtId": 8312,
      "mudz": 8313,
      "dIspjut": 8314,
      "nsIv": 8315,
      "kEtS": 8316,
      "iunajt": 8317,
      "nISINz": 8318,
      "vVltSr": 8319,
      "bIhejvIN": 8320,
      "vjur": 8321,
      "InstINktIv": 8322,
      "nVmIN": 8323,
      "tSEn": 8324,
      "majlOr": 8325,
      "dIvVl": 8326,
      "nojr": 8327,
      "btejnd": 8328,
      "ejbi": 8329,
      "hajm": 8330,
      "fawndr": 8331,
      "bEts": 8332,
      "snikt": 8333,
      "tajts": 8334,
      "IspEkts": 8335,
      "dVd": 8336,
      "IndIst": 8337,
      "igoj": 8338,
      "glz": 8339,
      "towlnEdr": 8340,
      "smEli": 8341,
      "dISwASr": 8342,
      "tIndZ": 8343,
      "bIldr": 8344,
      "hEks": 8345,
      "stItSt": 8346,
      "mIlz": 8347,
      "lAbstr": 8348,
      "EskjuIN": 8349,
      "gejnz": 8350,
      "mowbil": 8351,
      "najki": 8352,
      "kAntUr": 8353,
      "uvINli": 8354,
      "owsidINz": 8355,
      "hVNk": 8356,
      "ndiz": 8357,
      "NglIN": 8358,
      "stOld": 8359,
      "lowf": 8360,
      "nsA": 8361,
      "kejkt": 8362,
      "mowk": 8363,
      "Antow": 8364,
      "sIdust": 8365,
      "blitSt": 8366,
      "NgAr": 8367,
      "lwInd": 8368,
      "nItS": 8369,
      "sEndr": 8370,
      "siDd": 8371,
      "hajkt": 8372,
      "TInIN": 8373,
      "kINzli": 8374,
      "snV": 8375,
      "Olajn": 8376,
      "flAp": 8377,
      "ligz": 8378,
      "plVkIN": 8379,
      "vejkejt": 8380,
      "sVpl": 8381,
      "IpIt": 8382,
      "luf": 8383,
      "tIlr": 8384,
      "sowm": 8385,
      "Tbr": 8386,
      "bVgd": 8387,
      "lvIn": 8388,
      "sElajn": 8389,
      "wElm": 8390,
      "skEptIk": 8391,
      "tOf": 8392,
      "wItSEvr": 8393,
      "fIksejtId": 8394,
      "plOd": 8395,
      "zAnt": 8396,
      "sjr": 8397,
      "dZejni": 8398,
      "dIziIN": 8399,
      "switr": 8400,
      "pgr": 8401,
      "majkow": 8402,
      "bAmIN": 8403,
      "psIz": 8404,
      "ejkVp": 8405,
      "nliS": 8406,
      "owls": 8407,
      "downejS": 8408,
      "InIkspIr": 8409,
      "tOni": 8410,
      "sAgi": 8411,
      "Adiow": 8412,
      "mIndi": 8413,
      "ImpAr": 8414,
      "IntImIdejt": 8415,
      "pajksi": 8416,
      "owvOr": 8417,
      "silz": 8418,
      "ilIz": 8419,
      "nsES": 8420,
      "tAmz": 8421,
      "hAns": 8422,
      "dZojf": 8423,
      "lint": 8424,
      "kIf": 8425,
      "hjumId": 8426,
      "Ilajd": 8427,
      "lIg": 8428,
      "ajIi": 8429,
      "dIsbIlivIN": 8430,
      "lejks": 8431,
      "pejg": 8432,
      "Aspr": 8433,
      "sIkstiz": 8434,
      "tEltejl": 8435,
      "nUk": 8436,
      "IklIps": 8437,
      "tojIN": 8438,
      "bdu": 8439,
      "bElow": 8440,
      "Sb": 8441,
      "dIndZi": 8442,
      "tSizi": 8443,
      "EndINz": 8444,
      "mISIg": 8445,
      "hOntSIz": 8446,
      "mawndz": 8447,
      "ksEntS": 8448,
      "dEluZ": 8449,
      "mejnl": 8450,
      "pVt": 8451,
      "Vptr": 8452,
      "dIstIk": 8453,
      "Ij": 8454,
      "kVb": 8455,
      "plum": 8456,
      "pkInz": 8457,
      "Imstown": 8458,
      "dIsIntr": 8459,
      "bEkr": 8460,
      "kAldAr": 8461,
      "fAndli": 8462,
      "Inkl": 8463,
      "VnIm": 8464,
      "blajD": 8465,
      "switp": 8466,
      "Siv": 8467,
      "klIps": 8468,
      "ejnIr": 8469,
      "kowud": 8470,
      "tju": 8471,
      "tVm": 8472,
      "hIndZd": 8473,
      "stVn": 8474,
      "fint": 8475,
      "Str": 8476,
      "nilz": 8477,
      "inIs": 8478,
      "tApIks": 8479,
      "fVndIN": 8480,
      "stajld": 8481,
      "dZEmz": 8482,
      "zmIn": 8483,
      "tSaw": 8484,
      "lIvId": 8485,
      "IdZi": 8486,
      "IkstINgwISt": 8487,
      "gh": 8488,
      "pEtS": 8489,
      "slejtr": 8490,
      "kIlt": 8491,
      "dui": 8492,
      "sVbmr": 8493,
      "kowksIN": 8494,
      "gp": 8495,
      "hEs": 8496,
      "IdEmpS": 8497,
      "nAg": 8498,
      "ifowk": 8499,
      "sAtow": 8500,
      "dejni": 8501,
      "fIlmIN": 8502,
      "spIts": 8503,
      "sejzd": 8504,
      "swAt": 8505,
      "skAts": 8506,
      "nAp": 8507,
      "vIks": 8508,
      "fajnli": 8509,
      "stAki": 8510,
      "Sowl": 8511,
      "hVtS": 8512,
      "lIndi": 8513,
      "skejp": 8514,
      "dIfOr": 8515,
      "majndIdli": 8516,
      "TVg": 8517,
      "fjumIN": 8518,
      "zIn": 8519,
      "skwAdr": 8520,
      "mIdwej": 8521,
      "bVsIz": 8522,
      "kowz": 8523,
      "izn": 8524,
      "pVndZ": 8525,
      "wIndId": 8526,
      "ihr": 8527,
      "wIti": 8528,
      "sVndawn": 8529,
      "Agowz": 8530,
      "sAnIk": 8531,
      "nkA": 8532,
      "Iksklej": 8533,
      "wUdId": 8534,
      "dZEns": 8535,
      "klown": 8536,
      "kwizi": 8537,
      "ksin": 8538,
      "iejts": 8539,
      "njuzd": 8540,
      "fejlz": 8541,
      "IndZEkS": 8542,
      "mbow": 8543,
      "wIndaws": 8544,
      "sIpi": 8545,
      "tIli": 8546,
      "lowS": 8547,
      "kANk": 8548,
      "dIstINgwISt": 8549,
      "dZOlajn": 8550,
      "nsejt": 8551,
      "dZowvi": 8552,
      "IntEgr": 8553,
      "awtk": 8554,
      "sizIN": 8555,
      "bUkSElf": 8556,
      "tAmIk": 8557,
      "slEdZ": 8558,
      "Emj": 8559,
      "kAkIN": 8560,
      "tSui": 8561,
      "AlvIN": 8562,
      "ImplajIN": 8563,
      "ikIn": 8564,
      "klajv": 8565,
      "Isr": 8566,
      "sAt": 8567,
      "sAv": 8568,
      "ntSow": 8569,
      "hElpr": 8570,
      "dItEnS": 8571,
      "zAk": 8572,
      "tVfr": 8573,
      "tVmi": 8574,
      "Esow": 8575,
      "Inklajn": 8576,
      "Osr": 8577,
      "awtl": 8578,
      "Envid": 8579,
      "dvd": 8580,
      "lawndZd": 8581,
      "kIfajr": 8582,
      "snAt": 8583,
      "tINli": 8584,
      "kUks": 8585,
      "stOks": 8586,
      "nkAm": 8587,
      "sVnbr": 8588,
      "sIbIl": 8589,
      "nIpIN": 8590,
      "tSEt": 8591,
      "sAfmOr": 8592,
      "mAdi": 8593,
      "hEdlajn": 8594,
      "kAbwEbz": 8595,
      "owIk": 8596,
      "stAt": 8597,
      "lajD": 8598,
      "fjusli": 8599,
      "OnlUkr": 8600,
      "klVms": 8601,
      "InhIr": 8602,
      "Itejn": 8603,
      "snawt": 8604,
      "fInz": 8605,
      "IfOr": 8606,
      "kVmd": 8607,
      "bUkSElvz": 8608,
      "sEptIv": 8609,
      "owgz": 8610,
      "iEn": 8611,
      "jOl": 8612,
      "ljuz": 8613,
      "dIfEnsl": 8614,
      "ajfown": 8615,
      "nstEd": 8616,
      "sAfIk": 8617,
      "blIzr": 8618,
      "Amj": 8619,
      "slawtSt": 8620,
      "Olf": 8621,
      "ejnj": 8622,
      "sEntOr": 8623,
      "mEtIs": 8624,
      "EstId": 8625,
      "plejnt": 8626,
      "stIkr": 8627,
      "TAt": 8628,
      "uIt": 8629,
      "bitr": 8630,
      "kVmfi": 8631,
      "find": 8632,
      "IndEf": 8633,
      "nsilIN": 8634,
      "wASIz": 8635,
      "mITs": 8636,
      "liown": 8637,
      "dusIz": 8638,
      "ltAp": 8639,
      "InfEst": 8640,
      "IfIks": 8641,
      "InvEl": 8642,
      "kVTbr": 8643,
      "lvejnj": 8644,
      "ilejd": 8645,
      "ejslIts": 8646,
      "dajl": 8647,
      "hVts": 8648,
      "ivr": 8649,
      "tSEkr": 8650,
      "snejkIN": 8651,
      "ntaj": 8652,
      "tSajldz": 8653,
      "whu": 8654,
      "EfjudZiz": 8655,
      "flOz": 8656,
      "dZVNkS": 8657,
      "stVfi": 8658,
      "tSivm": 8659,
      "fEkts": 8660,
      "vudu": 8661,
      "Inejt": 8662,
      "Iksplowdz": 8663,
      "hajlajtId": 8664,
      "kwEntS": 8665,
      "dItSt": 8666,
      "luks": 8667,
      "vejz": 8668,
      "flejld": 8669,
      "slVgIS": 8670,
      "\\{@": 8671,
      "Vtmowst": 8672,
      "InpUt": 8673,
      "milowz": 8674,
      "Ukl": 8675,
      "dZuliow": 8676,
      "sAns": 8677,
      "uti": 8678,
      "Itejnd": 8679,
      "vajkIN": 8680,
      "lEvIt": 8681,
      "gIm": 8682,
      "Slajts": 8683,
      "blEndIN": 8684,
      "wAlow": 8685,
      "dilINz": 8686,
      "kjulIt": 8687,
      "IkEr": 8688,
      "tOlIst": 8689,
      "nTINk": 8690,
      "ElsIz": 8691,
      "itejl": 8692,
      "Amb": 8693,
      "hIsIz": 8694,
      "izin": 8695,
      "bdVkS": 8696,
      "mejtowz": 8697,
      "dZowni": 8698,
      "gunz": 8699,
      "tajmd": 8700,
      "fItS": 8701,
      "tVksidow": 8702,
      "SIv": 8703,
      "IlEk": 8704,
      "Invejdr": 8705,
      "dVmi": 8706,
      "imuvz": 8707,
      "EnsIvli": 8708,
      "tVl": 8709,
      "nsejn": 8710,
      "skejd": 8711,
      "sejnts": 8712,
      "mVstv": 8713,
      "nsejnli": 8714,
      "duli": 8715,
      "nEDr": 8716,
      "wivd": 8717,
      "Ezm": 8718,
      "skajwr": 8719,
      "fejkIN": 8720,
      "tSajmz": 8721,
      "dIzm": 8722,
      "glin": 8723,
      "vitow": 8724,
      "EmIt": 8725,
      "AzlIn": 8726,
      "filajn": 8727,
      "VltIN": 8728,
      "dIzAlv": 8729,
      "dZuliEn": 8730,
      "IlONgejt": 8731,
      "uk": 8732,
      "ploj": 8733,
      "kVbz": 8734,
      "Ikaw": 8735,
      "nsEl": 8736,
      "sVli": 8737,
      "pawtIN": 8738,
      "sIblIN": 8739,
      "Inu": 8740,
      "ntVki": 8741,
      "mIld": 8742,
      "zUk": 8743,
      "IsEndIN": 8744,
      "pawnst": 8745,
      "Isli": 8746,
      "kajt": 8747,
      "kON": 8748,
      "najsIst": 8749,
      "tejtIv": 8750,
      "EtSi": 8751,
      "wajowmIN": 8752,
      "kAndIsEndIN": 8753,
      "tEkn": 8754,
      "dZir": 8755,
      "fAli": 8756,
      "pEnsIv": 8757,
      "gajl": 8758,
      "lIstIN": 8759,
      "hVNkr": 8760,
      "stVdId": 8761,
      "mpsajt": 8762,
      "tEz": 8763,
      "skajlajn": 8764,
      "kAkr": 8765,
      "fEstr": 8766,
      "gwEnvl": 8767,
      "ptIS": 8768,
      "fIlIps": 8769,
      "nwUd": 8770,
      "nIkl": 8771,
      "jIn": 8772,
      "dzm": 8773,
      "AN": 8774,
      "klOgd": 8775,
      "stElr": 8776,
      "sEptIk": 8777,
      "mISr": 8778,
      "mAfi": 8779,
      "InsIk": 8780,
      "idIkS": 8781,
      "wildId": 8782,
      "lit": 8783,
      "iplejd": 8784,
      "hajlajts": 8785,
      "mImIkt": 8786,
      "kajvz": 8787,
      "sEst": 8788,
      "EntIk": 8789,
      "nild": 8790,
      "IzajdId": 8791,
      "kwIpt": 8792,
      "ndAlf": 8793,
      "nunz": 8794,
      "lVs": 8795,
      "gowd": 8796,
      "kuln": 8797,
      "AntUr": 8798,
      "OtApsi": 8799,
      "bEdtSejmbr": 8800,
      "Ivajv": 8801,
      "mVnTli": 8802,
      "tIptow": 8803,
      "ifIl": 8804,
      "fidZi": 8805,
      "ilj": 8806,
      "ajsajt": 8807,
      "AtSi": 8808,
      "TiAn": 8809,
      "InIt": 8810,
      "dItUr": 8811,
      "owtejtIN": 8812,
      "Sejml": 8813,
      "fEld": 8814,
      "pAmd": 8815,
      "fUtfOlz": 8816,
      "IdiAtIk": 8817,
      "IpEnt": 8818,
      "bIlejt": 8819,
      "swajpIN": 8820,
      "liejz": 8821,
      "gATIk": 8822,
      "wizd": 8823,
      "ifEst": 8824,
      "lEksz": 8825,
      "kbOr": 8826,
      "wizIN": 8827,
      "dIsIn": 8828,
      "zIgz": 8829,
      "hOli": 8830,
      "vInd": 8831,
      "hVmr": 8832,
      "spEks": 8833,
      "lINkIN": 8834,
      "nAnstAp": 8835,
      "IlINkwI": 8836,
      "NdZ": 8837,
      "gVSIN": 8838,
      "vItS": 8839,
      "IksEsIv": 8840,
      "plajr": 8841,
      "kVmbr": 8842,
      "tejtr": 8843,
      "sejlzm": 8844,
      "jowhAn": 8845,
      "awtlEt": 8846,
      "kwAdr": 8847,
      "ksplIs": 8848,
      "SIpr": 8849,
      "nOst": 8850,
      "suDINli": 8851,
      "waji": 8852,
      "ETr": 8853,
      "hejn": 8854,
      "nowli": 8855,
      "EndZojz": 8856,
      "blVndr": 8857,
      "tEkstbUk": 8858,
      "hIgInz": 8859,
      "Twajl": 8860,
      "vowkt": 8861,
      "bIfr": 8862,
      "dIsajp": 8863,
      "bipIN": 8864,
      "dejnti": 8865,
      "bVNg": 8866,
      "pUd": 8867,
      "spInd": 8868,
      "kEmpt": 8869,
      "swO": 8870,
      "ivjud": 8871,
      "mplitIN": 8872,
      "Sajnz": 8873,
      "ESt": 8874,
      "nAbi": 8875,
      "InvEstr": 8876,
      "Vkr": 8877,
      "vows": 8878,
      "IndIv": 8879,
      "nwejvr": 8880,
      "owdow": 8881,
      "tSajm": 8882,
      "owtin": 8883,
      "wAtr": 8884,
      "dItIr": 8885,
      "blItr": 8886,
      "nEtIks": 8887,
      "zv": 8888,
      "ElISt": 8889,
      "kwInsi": 8890,
      "IndIsIZ": 8891,
      "viow": 8892,
      "klA": 8893,
      "ndIdli": 8894,
      "Ikj": 8895,
      "bOldIN": 8896,
      "dZowkr": 8897,
      "mAni": 8898,
      "wIlINn": 8899,
      "bEntli": 8900,
      "Apj": 8901,
      "dT": 8902,
      "ustr": 8903,
      "lowps": 8904,
      "timmejts": 8905,
      "Esf": 8906,
      "nejtIvz": 8907,
      "isIz": 8908,
      "TEntIk": 8909,
      "blIk": 8910,
      "blVstr": 8911,
      "stajlz": 8912,
      "Afr": 8913,
      "npr": 8914,
      "owkjUr": 8915,
      "mEld": 8916,
      "dANki": 8917,
      "hOti": 8918,
      "Odwej": 8919,
      "kVs": 8920,
      "skowfild": 8921,
      "skejdIN": 8922,
      "najtklVb": 8923,
      "hejstINz": 8924,
      "Igzubr": 8925,
      "dApS": 8926,
      "kejz": 8927,
      "dIsplizd": 8928,
      "mItId": 8929,
      "ElISIN": 8930,
      "Isit": 8931,
      "sVlfr": 8932,
      "nowzd": 8933,
      "wIlf": 8934,
      "viEtnAm": 8935,
      "iIntr": 8936,
      "nEgl": 8937,
      "ndgVn": 8938,
      "lbi": 8939,
      "dunz": 8940,
      "nAtsi": 8941,
      "pid": 8942,
      "itowz": 8943,
      "powlstr": 8944,
      "skVft": 8945,
      "ifIld": 8946,
      "skejdId": 8947,
      "IvIr": 8948,
      "sVN": 8949,
      "hEdejks": 8950,
      "dZownzi": 8951,
      "hEtr": 8952,
      "ibOr": 8953,
      "tfElt": 8954,
      "Amr": 8955,
      "dZVmpr": 8956,
      "ndmAr": 8957,
      "pilz": 8958,
      "dowzIN": 8959,
      "mIlIz": 8960,
      "mpitIN": 8961,
      "isajk": 8962,
      "zEf": 8963,
      "mpliS": 8964,
      "tI": 8965,
      "pIlgr": 8966,
      "ntIdowt": 8967,
      "Sk": 8968,
      "nflIktId": 8969,
      "kwAd": 8970,
      "ilIvIN": 8971,
      "fVNk": 8972,
      "Enslej": 8973,
      "Anj": 8974,
      "skaw": 8975,
      "Invr": 8976,
      "ksIm": 8977,
      "nsVltIN": 8978,
      "mEdtSi": 8979,
      "lIsm": 8980,
      "umi": 8981,
      "blAmk": 8982,
      "liejzAn": 8983,
      "blAmkvIst": 8984,
      "huf": 8985,
      "tajn": 8986,
      "mEdowz": 8987,
      "smEdr": 8988,
      "lIstr": 8989,
      "Vnizin": 8990,
      "vajz": 8991,
      "TIkIt": 8992,
      "lEti": 8993,
      "kInItS": 8994,
      "owbi": 8995,
      "owSUr": 8996,
      "mEntejS": 8997,
      "hEdsEt": 8998,
      "Insud": 8999,
      "gVlpIN": 9000,
      "Afin": 9001,
      "pAdz": 9002,
      "mImbr": 9003,
      "ejajTs": 9004,
      "owzr": 9005,
      "hElr": 9006,
      "fowbIk": 9007,
      "nsIli": 9008,
      "NgwISt": 9009,
      "nskej": 9010,
      "lEdZr": 9011,
      "Itir": 9012,
      "ShAr": 9013,
      "kIdow": 9014,
      "gik": 9015,
      "nlVki": 9016,
      "howmtawn": 9017,
      "hown": 9018,
      "najttajm": 9019,
      "Inflejt": 9020,
      "mIsfOr": 9021,
      "gVlps": 9022,
      "mnejS": 9023,
      "owvz": 9024,
      "nowd": 9025,
      "kowwr": 9026,
      "IsIl": 9027,
      "Ekskl": 9028,
      "mejlIN": 9029,
      "kIstr": 9030,
      "pINz": 9031,
      "sawTwEst": 9032,
      "EnTr": 9033,
      "nAnk": 9034,
      "spajki": 9035,
      "mEhi": 9036,
      "owldz": 9037,
      "skAn": 9038,
      "dIspowzd": 9039,
      "mbU": 9040,
      "nmEnt": 9041,
      "flVf": 9042,
      "nstAp": 9043,
      "TEt": 9044,
      "IsidIN": 9045,
      "tEkts": 9046,
      "bETi": 9047,
      "ptIvz": 9048,
      "kiEv": 9049,
      "idIT": 9050,
      "kINki": 9051,
      "howsts": 9052,
      "fejnIN": 9053,
      "nsEpS": 9054,
      "vIdZli": 9055,
      "gIbr": 9056,
      "nOd": 9057,
      "skawtIN": 9058,
      "InkOr": 9059,
      "kejdr": 9060,
      "fAnt": 9061,
      "nfEdr": 9062,
      "sINkr": 9063,
      "sEti": 9064,
      "swOmpt": 9065,
      "ksejS": 9066,
      "sImf": 9067,
      "Ezd": 9068,
      "ilej": 9069,
      "Inmejts": 9070,
      "kAmj": 9071,
      "ildIN": 9072,
      "snupIN": 9073,
      "ntowni": 9074,
      "IstIn": 9075,
      "smVdZd": 9076,
      "njildIN": 9077,
      "hEfti": 9078,
      "skowldIN": 9079,
      "mANg": 9080,
      "likow": 9081,
      "kejNg": 9082,
      "sINdZd": 9083,
      "swup": 9084,
      "sOlts": 9085,
      "vInjr": 9086,
      "spaws": 9087,
      "klINk": 9088,
      "swejZ": 9089,
      "nwIn": 9090,
      "lEZr": 9091,
      "dZk": 9092,
      "ejtSaj": 9093,
      "IplajIN": 9094,
      "dVld": 9095,
      "ejtSajvi": 9096,
      "bIlowd": 9097,
      "Inl": 9098,
      "skejtIN": 9099,
      "wASklOT": 9100,
      "pES": 9101,
      "wOnt": 9102,
      "pOlin": 9103,
      "AhA": 9104,
      "vINz": 9105,
      "stild": 9106,
      "nvIkt": 9107,
      "stajlIS": 9108,
      "Eksplojt": 9109,
      "dZup": 9110,
      "sojld": 9111,
      "IsIpr": 9112,
      "pVlsIz": 9113,
      "gpaj": 9114,
      "kowli": 9115,
      "dajpr": 9116,
      "Sejmf": 9117,
      "najnz": 9118,
      "IbjutId": 9119,
      "idZEnr": 9120,
      "owdiow": 9121,
      "mejhEm": 9122,
      "nskejDd": 9123,
      "dawr": 9124,
      "jU": 9125,
      "TEm": 9126,
      "InfIr": 9127,
      "Istim": 9128,
      "ndIn": 9129,
      "juni": 9130,
      "hejg": 9131,
      "dIfajd": 9132,
      "stAnIS": 9133,
      "tVs": 9134,
      "ldwajd": 9135,
      "tEktId": 9136,
      "bEnz": 9137,
      "dIplowm": 9138,
      "tVtSi": 9139,
      "mEndz": 9140,
      "mIsk": 9141,
      "fUlfIlIN": 9142,
      "lowkejtIN": 9143,
      "skwAtIN": 9144,
      "owejs": 9145,
      "sinjOr": 9146,
      "AdZIk": 9147,
      "bIdr": 9148,
      "ndf": 9149,
      "dawtIN": 9150,
      "skwASt": 9151,
      "nVnz": 9152,
      "EktIv": 9153,
      "klft": 9154,
      "kEnIT": 9155,
      "nIslAv": 9156,
      "InISiejt": 9157,
      "Aniz": 9158,
      "hElh": 9159,
      "klEntSIz": 9160,
      "slowz": 9161,
      "dZEntr": 9162,
      "sIlv": 9163,
      "nvVlsd": 9164,
      "pud": 9165,
      "dmIts": 9166,
      "ilajIN": 9167,
      "flawndr": 9168,
      "sowlf": 9169,
      "kOfs": 9170,
      "Amptu": 9171,
      "kAmow": 9172,
      "Ikspajr": 9173,
      "IkstEndz": 9174,
      "hAtli": 9175,
      "pVblISr": 9176,
      "iowni": 9177,
      "bajndr": 9178,
      "dIpIkt": 9179,
      "skIlf": 9180,
      "sajdEl": 9181,
      "najtr": 9182,
      "bVmb": 9183,
      "jub": 9184,
      "uftAps": 9185,
      "zbEr": 9186,
      "sowz": 9187,
      "lowD": 9188,
      "hOTOr": 9189,
      "fajnm": 9190,
      "skIdIN": 9191,
      "kAlIN": 9192,
      "skajskr": 9193,
      "ptIvejtId": 9194,
      "VT": 9195,
      "ntibi": 9196,
      "sajdElON": 9197,
      "ajlin": 9198,
      "VnImpr": 9199,
      "EndOr": 9200,
      "kVlpr": 9201,
      "sIgm": 9202,
      "Twr": 9203,
      "hEmp": 9204,
      "majks": 9205,
      "majzIN": 9206,
      "gVtId": 9207,
      "Evd": 9208,
      "pk": 9209,
      "zEnts": 9210,
      "nejmIN": 9211,
      "fulISn": 9212,
      "nkl": 9213,
      "flApIN": 9214,
      "slipr": 9215,
      "nawnsr": 9216,
      "lEgINz": 9217,
      "lImItejS": 9218,
      "nkEmpt": 9219,
      "bibi": 9220,
      "EdiIN": 9221,
      "wejtl": 9222,
      "spawt": 9223,
      "wIspi": 9224,
      "pojntr": 9225,
      "AbEl": 9226,
      "sEnsIt": 9227,
      "hAnd": 9228,
      "dZajr": 9229,
      "wajfs": 9230,
      "kAmjun": 9231,
      "spIs": 9232,
      "mVski": 9233,
      "miejtId": 9234,
      "bINgow": 9235,
      "EdINz": 9236,
      "gOkIN": 9237,
      "vind": 9238,
      "fIstf": 9239,
      "ItwInd": 9240,
      "stSIn": 9241,
      "IgejnIN": 9242,
      "gVnm": 9243,
      "nsmItr": 9244,
      "wIsp": 9245,
      "nsmItId": 9246,
      "Ivowl": 9247,
      "bAmr": 9248,
      "inIS": 9249,
      "wIndi": 9250,
      "wUdn": 9251,
      "nVmbli": 9252,
      "Espi": 9253,
      "slipl": 9254,
      "sajD": 9255,
      "bawndIN": 9256,
      "sVmTINz": 9257,
      "smIt": 9258,
      "tVmblr": 9259,
      "bVtId": 9260,
      "wejnIN": 9261,
      "fejsdawn": 9262,
      "mAtr": 9263,
      "klEnzIN": 9264,
      "dVli": 9265,
      "sVndejz": 9266,
      "Impejld": 9267,
      "howmr": 9268,
      "kIz": 9269,
      "IflEkS": 9270,
      "skejld": 9271,
      "sElfl": 9272,
      "sajfr": 9273,
      "IvIti": 9274,
      "ivEnt": 9275,
      "nvejd": 9276,
      "jE": 9277,
      "stejkt": 9278,
      "gowti": 9279,
      "dawtl": 9280,
      "nEts": 9281,
      "klVmps": 9282,
      "mIsplejst": 9283,
      "Esli": 9284,
      "Vpbr": 9285,
      "fiti": 9286,
      "spjuIN": 9287,
      "gEnt": 9288,
      "pEtIN": 9289,
      "Itsi": 9290,
      "bejbisItr": 9291,
      "hAps": 9292,
      "nejz": 9293,
      "stownd": 9294,
      "uEtId": 9295,
      "sVlt": 9296,
      "ajpi": 9297,
      "mplejS": 9298,
      "stivi": 9299,
      "mAsk": 9300,
      "blVdSEd": 9301,
      "dIlEkt": 9302,
      "awni": 9303,
      "jufOr": 9304,
      "pVlsejtIN": 9305,
      "kVmINz": 9306,
      "Alej": 9307,
      "Sm": 9308,
      "itlajts": 9309,
      "sAlvIN": 9310,
      "mIsm": 9311,
      "INi": 9312,
      "nowbIl": 9313,
      "dImr": 9314,
      "VtSIz": 9315,
      "ONd": 9316,
      "inhaws": 9317,
      "nvIl": 9318,
      "bawnsIz": 9319,
      "TAdIk": 9320,
      "sIkstinT": 9321,
      "awli": 9322,
      "blIr": 9323,
      "IndZVst": 9324,
      "dowlf": 9325,
      "bjOr": 9326,
      "nkEr": 9327,
      "pIksiz": 9328,
      "zIpIN": 9329,
      "owtejS": 9330,
      "owpejk": 9331,
      "owvIN": 9332,
      "bIlINz": 9333,
      "kowr": 9334,
      "bsajd": 9335,
      "pVblISIN": 9336,
      "kiAl": 9337,
      "vEnju": 9338,
      "AspEr": 9339,
      "pElz": 9340,
      "pUdIN": 9341,
      "dIzni": 9342,
      "swejsIv": 9343,
      "nIkr": 9344,
      "tEstAstr": 9345,
      "flVdz": 9346,
      "dmAnISt": 9347,
      "kfr": 9348,
      "wup": 9349,
      "wajnz": 9350,
      "pup": 9351,
      "bowg": 9352,
      "InflIkt": 9353,
      "InsIdEnt": 9354,
      "IkspEnd": 9355,
      "hElz": 9356,
      "lajklihUd": 9357,
      "piif": 9358,
      "lowkejtId": 9359,
      "fowz": 9360,
      "plVndr": 9361,
      "SejpIN": 9362,
      "jAndr": 9363,
      "Ebr": 9364,
      "awzi": 9365,
      "sutr": 9366,
      "IbIlIti": 9367,
      "mIdsEkS": 9368,
      "jukej": 9369,
      "owniz": 9370,
      "dzmIn": 9371,
      "ndmejd": 9372,
      "Ibk": 9373,
      "dowp": 9374,
      "pVlp": 9375,
      "jVNstr": 9376,
      "pdejts": 9377,
      "hElIS": 9378,
      "mAg": 9379,
      "blowtId": 9380,
      "tSEvi": 9381,
      "blVdstr": 9382,
      "dOgi": 9383,
      "mbVst": 9384,
      "fulISli": 9385,
      "IlIn": 9386,
      "ejndr": 9387,
      "Infjuzd": 9388,
      "fajndINz": 9389,
      "nlAkIN": 9390,
      "wAftIN": 9391,
      "Elg": 9392,
      "lVmpi": 9393,
      "bEIr": 9394,
      "flESi": 9395,
      "dVktIvli": 9396,
      "ntSr": 9397,
      "ajtINz": 9398,
      "mIstIks": 9399,
      "fVdZ": 9400,
      "slowpIN": 9401,
      "gAnd": 9402,
      "lkow": 9403,
      "Istejts": 9404,
      "lukr": 9405,
      "IntEst": 9406,
      "gUdi": 9407,
      "bdZEktId": 9408,
      "ejzir": 9409,
      "skwiki": 9410,
      "dejvIdz": 9411,
      "tSElow": 9412,
      "nhUkt": 9413,
      "nEvIl": 9414,
      "ejtINli": 9415,
      "spejsSIp": 9416,
      "pItSIN": 9417,
      "ejdmAr": 9418,
      "nkAkS": 9419,
      "kVpkejk": 9420,
      "InkwIzItIv": 9421,
      "wilr": 9422,
      "klAt": 9423,
      "hAdZ": 9424,
      "nAmi": 9425,
      "stimi": 9426,
      "owvAk": 9427,
      "dIploj": 9428,
      "sIftId": 9429,
      "pdOr": 9430,
      "kwItsIkli": 9431,
      "sajdstEpt": 9432,
      "IstIkli": 9433,
      "kIlIr": 9434,
      "IndIvIdZu": 9435,
      "Sowfr": 9436,
      "bEvir": 9437,
      "fejsl": 9438,
      "mInhow": 9439,
      "kAnz": 9440,
      "AnsIz": 9441,
      "EskAt": 9442,
      "IksEntr": 9443,
      "nIkejmi": 9444,
      "nIkejmidz": 9445,
      "AbIn": 9446,
      "blEsINz": 9447,
      "suv": 9448,
      "dElIk": 9449,
      "skwikIN": 9450,
      "flowts": 9451,
      "hIks": 9452,
      "bItSi": 9453,
      "Sowltow": 9454,
      "tunIN": 9455,
      "spEnS": 9456,
      "idZojnd": 9457,
      "hEdlajnz": 9458,
      "dIsks": 9459,
      "smITi": 9460,
      "kjubz": 9461,
      "mVS": 9462,
      "nspik": 9463,
      "sejfgAr": 9464,
      "ndiwr": 9465,
      "ilIzIN": 9466,
      "tikVp": 9467,
      "mikli": 9468,
      "slVNk": 9469,
      "dEdp": 9470,
      "ktIdli": 9471,
      "fidr": 9472,
      "lOnz": 9473,
      "kejIN": 9474,
      "mEnjuz": 9475,
      "tSw": 9476,
      "wItli": 9477,
      "dhIr": 9478,
      "Elsi": 9479,
      "SEdIN": 9480,
      "ivjuz": 9481,
      "hejvIn": 9482,
      "stawndId": 9483,
      "Nkiz": 9484,
      "wItSkr": 9485,
      "hawd": 9486,
      "lowDd": 9487,
      "spIsIfIks": 9488,
      "smIn": 9489,
      "dZIgg": 9490,
      "usow": 9491,
      "wEnk": 9492,
      "viajpi": 9493,
      "kVdlIN": 9494,
      "sImplIs": 9495,
      "iItr": 9496,
      "kEnr": 9497,
      "stEdf": 9498,
      "mpejdZ": 9499,
      "lEstS": 9500,
      "sEgm": 9501,
      "sidIN": 9502,
      "pEks": 9503,
      "klItr": 9504,
      "hAk": 9505,
      "bEliz": 9506,
      "mINli": 9507,
      "nflIktIN": 9508,
      "nImb": 9509,
      "Alow": 9510,
      "mojs": 9511,
      "kejnajn": 9512,
      "hOltr": 9513,
      "niow": 9514,
      "dIstINkS": 9515,
      "Eh": 9516,
      "ntEmpr": 9517,
      "fowli": 9518,
      "ljuejS": 9519,
      "nEktr": 9520,
      "nIgowSi": 9521,
      "tk": 9522,
      "wilIN": 9523,
      "EplIk": 9524,
      "nim": 9525,
      "skwilz": 9526,
      "kANkwEst": 9527,
      "fEnr": 9528,
      "sajkowp": 9529,
      "EnklowZr": 9530,
      "snVgli": 9531,
      "lfVNkS": 9532,
      "zEm": 9533,
      "powstkAr": 9534,
      "sIftIN": 9535,
      "TIkn": 9536,
      "tIgr": 9537,
      "Inkipr": 9538,
      "ndkVft": 9539,
      "owmejni": 9540,
      "snIp": 9541,
      "slEd": 9542,
      "fOlts": 9543,
      "dEdlajn": 9544,
      "fjutIl": 9545,
      "nstAnt": 9546,
      "nAndIskr": 9547,
      "skOldIN": 9548,
      "dZEstr": 9549,
      "Adni": 9550,
      "fUr": 9551,
      "isawndIN": 9552,
      "gUr": 9553,
      "kVli": 9554,
      "EnIgm": 9555,
      "vil": 9556,
      "dZejks": 9557,
      "isEs": 9558,
      "SEti": 9559,
      "ajsow": 9560,
      "ksz": 9561,
      "humEvr": 9562,
      "ipl": 9563,
      "ltS": 9564,
      "dIbr": 9565,
      "IntAlr": 9566,
      "bluIS": 9567,
      "dImjUr": 9568,
      "bajdIN": 9569,
      "EmptiIN": 9570,
      "pOli": 9571,
      "ItIsIz": 9572,
      "wUdl": 9573,
      "pejnkIlr": 9574,
      "VnIn": 9575,
      "lajdIN": 9576,
      "IzIdZu": 9577,
      "kAldr": 9578,
      "twIt": 9579,
      "hAlowd": 9580,
      "dImAl": 9581,
      "hVmp": 9582,
      "fajsti": 9583,
      "blajdZ": 9584,
      "sUr": 9585,
      "bIzid": 9586,
      "udId": 9587,
      "mIniv": 9588,
      "nhowli": 9589,
      "Vndawn": 9590,
      "IgzIb": 9591,
      "InstOl": 9592,
      "lAsIN": 9593,
      "IbkIdZ": 9594,
      "jowk": 9595,
      "vajdz": 9596,
      "kOs": 9597,
      "vENk": 9598,
      "EntId": 9599,
      "slIDr": 9600,
      "tzejdr": 9601,
      "dAnt": 9602,
      "tejkIn": 9603,
      "kowpIN": 9604,
      "owfawndli": 9605,
      "Showlz": 9606,
      "IptId": 9607,
      "stimd": 9608,
      "bVgIN": 9609,
      "ntAr": 9610,
      "owlImpi": 9611,
      "bUlz": 9612,
      "lojtr": 9613,
      "piifowl": 9614,
      "stajzd": 9615,
      "wOlnVt": 9616,
      "tows": 9617,
      "nImpOr": 9618,
      "Elv": 9619,
      "kAnvoj": 9620,
      "fowbi": 9621,
      "dVN": 9622,
      "tajzr": 9623,
      "zbr": 9624,
      "litS": 9625,
      "dIsivd": 9626,
      "fUtId": 9627,
      "bVfr": 9628,
      "VnIntEl": 9629,
      "Izajn": 9630,
      "mAntr": 9631,
      "wInEgl": 9632,
      "flEdZ": 9633,
      "mAtow": 9634,
      "fAndn": 9635,
      "vEntSu": 9636,
      "nsajl": 9637,
      "bowdiz": 9638,
      "slVmpIN": 9639,
      "iklejm": 9640,
      "lIdId": 9641,
      "bAts": 9642,
[...]
