{
  "version": "1.0",
  "truncation": null,
  "padding": null,
  "added_tokens": [
    {
      "id": 0,
      "content": "[UNK]",
      "single_word": false,
      "lstrip": false,
      "rstrip": false,
      "normalized": false,
      "special": true
    },
    {
      "id": 1,
      "content": "[CLS]",
      "single_word": false,
      "lstrip": false,
      "rstrip": false,
      "normalized": false,
      "special": true
    },
    {
      "id": 2,
      "content": "[SEP]",
      "single_word": false,
      "lstrip": false,
      "rstrip": false,
      "normalized": false,
      "special": true
    },
    {
      "id": 3,
      "content": "[PAD]",
      "single_word": false,
      "lstrip": false,
      "rstrip": false,
      "normalized": false,
      "special": true
    },
    {
      "id": 4,
      "content": "[MASK]",
      "single_word": false,
      "lstrip": false,
      "rstrip": false,
      "normalized": false,
      "special": true
    }
  ],
  "normalizer": null,
  "pre_tokenizer": {
    "type": "Whitespace"
  },
  "post_processor": {
    "type": "TemplateProcessing",
    "single": [
      {
        "SpecialToken": {
          "id": "[CLS]",
          "type_id": 0
        }
      },
      {
        "Sequence": {
          "id": "A",
          "type_id": 0
        }
      },
      {
        "SpecialToken": {
          "id": "[SEP]",
          "type_id": 0
        }
      }
    ],
    "pair": [
      {
        "SpecialToken": {
          "id": "[CLS]",
          "type_id": 0
        }
      },
      {
        "Sequence": {
          "id": "A",
          "type_id": 0
        }
      },
      {
        "SpecialToken": {
          "id": "[SEP]",
          "type_id": 0
        }
      },
      {
        "Sequence": {
          "id": "B",
          "type_id": 1
        }
      },
      {
        "SpecialToken": {
          "id": "[SEP]",
          "type_id": 1
        }
      }
    ],
    "special_tokens": {
      "[CLS]": {
        "id": "[CLS]",
        "ids": [
          1
        ],
        "tokens": [
          "[CLS]"
        ]
      },
      "[SEP]": {
        "id": "[SEP]",
        "ids": [
          2
        ],
        "tokens": [
          "[SEP]"
        ]
      }
    }
  },
  "decoder": null,
  "model": {
    "type": "BPE",
    "dropout": null,
    "unk_token": "[UNK]",
    "continuing_subword_prefix": null,
    "end_of_word_suffix": null,
    "fuse_unk": false,
    "byte_fallback": false,
    "ignore_merges": false,
    "vocab": {
      "[UNK]": 0,
      "[CLS]": 1,
      "[SEP]": 2,
      "[PAD]": 3,
      "[MASK]": 4,
      "=": 5,
      "@": 6,
      "A": 7,
      "D": 8,
      "E": 9,
      "I": 10,
      "N": 11,
      "O": 12,
      "S": 13,
      "T": 14,
      "U": 15,
      "V": 16,
      "Z": 17,
      "\\": 18,
      "a": 19,
      "b": 20,
      "d": 21,
      "e": 22,
      "f": 23,
      "g": 24,
      "h": 25,
      "i": 26,
      "j": 27,
      "k": 28,
      "l": 29,
      "m": 30,
      "n": 31,
      "o": 32,
      "p": 33,
      "r": 34,
      "s": 35,
      "t": 36,
      "u": 37,
      "v": 38,
      "w": 39,
      "z": 40,
      "{": 41,
      "\\=": 42,
      "ej": 43,
      "aj": 44,
      "ow": 45,
      "nd": 46,
      "st": 47,
      "In": 48,
      "Or": 49,
      "Vv": 50,
      "IN": 51,
      "nt": 52,
      "dZ": 53,
      "tr": 54,
      "tS": 55,
      "Ar": 56,
      "\\@": 57,
      "Iz": 58,
      "Er": 59,
      "Ik": 60,
      "pr": 61,
      "li": 62,
      "aw": 63,
      "ju": 64,
      "It": 65,
      "fr": 66,
      "An": 67,
      "En": 68,
      "wA": 69,
      "fOr": 70,
      "br": 71,
      "Il": 72,
      "wI": 73,
      "sE": 74,
      "wAz": 75,
      "ti": 76,
      "Vm": 77,
      "Es": 78,
      "dI": 79,
      "kr": 80,
      "str": 81,
      "Ol": 82,
      "ejt": 83,
      "ns": 84,
      "Ek": 85,
      "gr": 86,
      "El": 87,
      "Ir": 88,
      "nz": 89,
      "vr": 90,
      "hi": 91,
      "\\{": 92,
      "ejS": 93,
      "di": 94,
      "si": 95,
      "dr": 96,
      "laj": 97,
      "Is": 98,
      "IS": 99,
      "wID": 100,
      "baj": 101,
      "Em": 102,
      "wr": 103,
      "Im": 104,
      "lej": 105,
      "sp": 106,
      "sk": 107,
      "ts": 108,
      "bi": 109,
      "hIz": 110,
      "owl": 111,
      "kA": 112,
      "Vn": 113,
      "Iv": 114,
      "\\=@": 115,
      "Ent": 116,
      "ajt": 117,
      "ks": 118,
      "ni": 119,
      "hr": 120,
      "mej": 121,
      "sow": 122,
      "low": 123,
      "now": 124,
      "Ist": 125,
      "Si": 126,
      "pi": 127,
      "mi": 128,
      "sr": 129,
      "Dr": 130,
      "Ed": 131,
      "At": 132,
      "ejm": 133,
      "kt": 134,
      "lz": 135,
      "Vt": 136,
      "Id": 137,
      "tu": 138,
      "kl": 139,
      "oj": 140,
      "Ud": 141,
      "iz": 142,
      "maj": 143,
      "ajd": 144,
      "ld": 145,
      "bl": 146,
      "awt": 147,
      "Est": 148,
      "Ur": 149,
      "plej": 150,
      "Al": 151,
      "jun": 152,
      "Ip": 153,
      "tSr": 154,
      "End": 155,
      "Et": 156,
      "mz": 157,
      "Tr": 158,
      "DEr": 159,
      "nu": 160,
      "wi": 161,
      "fi": 162,
      "awnd": 163,
      "taj": 164,
      "own": 165,
      "pAr": 166,
      "mp": 167,
      "du": 168,
      "lr": 169,
      "bI": 170,
      "wej": 171,
      "wVn": 172,
      "ntr": 173,
      "pt": 174,
      "VDr": 175,
      "mr": 176,
      "dz": 177,
      "owz": 178,
      "bVt": 179,
      "faj": 180,
      "mEr": 181,
      "IdZ": 182,
      "juz": 183,
      "ndr": 184,
      "ON": 185,
      "DIs": 186,
      "mow": 187,
      "wOr": 188,
      "If": 189,
      "waj": 190,
      "kow": 191,
      "Ekt": 192,
      "nts": 193,
      "kOr": 194,
      "ejs": 195,
      "saj": 196,
      "Vp": 197,
      "Ap": 198,
      "Ak": 199,
      "nAt": 200,
      "wItS": 201,
      "vi": 202,
      "kIN": 203,
      "Am": 204,
      "Ind": 205,
      "mAr": 206,
      "ejn": 207,
      "haw": 208,
      "Olsow": 209,
      "dIN": 210,
      "Iks": 211,
      "lE": 212,
      "hIm": 213,
      "hu": 214,
      "lIN": 215,
      "Dej": 216,
      "dZr": 217,
      "dej": 218,
      "mOr": 219,
      "wEr": 220,
      "haj": 221,
      "pl": 222,
      "awn": 223,
      "Vl": 224,
      "Its": 225,
      "pOr": 226,
      "Evr": 227,
      "ajz": 228,
      "sVm": 229,
      "Intr": 230,
      "fIl": 231,
      "lu": 232,
      "dZi": 233,
      "Embr": 234,
      "bIl": 235,
      "vd": 236,
      "Ig": 237,
      "stejt": 238,
      "sV": 239,
      "ndZ": 240,
      "ftr": 241,
      "Of": 242,
      "wUd": 243,
      "Efr": 244,
      "nr": 245,
      "ejl": 246,
      "dZu": 247,
      "gow": 248,
      "kS": 249,
      "jIr": 250,
      "Vst": 251,
      "owvr": 252,
      "owld": 253,
      "bIn": 254,
      "Eni": 255,
      "Ez": 256,
      "TIN": 257,
      "bOr": 258,
      "nsIz": 259,
      "nOr": 260,
      "wEn": 261,
      "kVm": 262,
      "Sr": 263,
      "tajm": 264,
      "bIk": 265,
      "ki": 266,
      "owt": 267,
      "ajr": 268,
      "kaw": 269,
      "mA": 270,
      "VN": 271,
      "fA": 272,
      "Ins": 273,
      "Iti": 274,
      "dId": 275,
      "it": 276,
      "sIN": 277,
      "ejtS": 278,
      "tej": 279,
      "Intu": 280,
      "bA": 281,
      "gl": 282,
      "Uk": 283,
      "kAn": 284,
      "bOl": 285,
      "ud": 286,
      "pip": 287,
      "kw": 288,
      "Vndr": 289,
      "kAr": 290,
      "fl": 291,
      "ul": 292,
      "awr": 293,
      "vI": 294,
      "SIp": 295,
      "nIN": 296,
      "fU": 297,
      "wIl": 298,
      "iv": 299,
      "hEl": 300,
      "how": 301,
      "mIn": 302,
      "lajn": 303,
      "dE": 304,
      "Istr": 305,
      "Vvr": 306,
      "kej": 307,
      "Vbl": 308,
      "mu": 309,
      "wEl": 310,
      "sEnt": 311,
      "bawt": 312,
      "dIs": 313,
      "lA": 314,
      "in": 315,
      "lO": 316,
      "Ikt": 317,
      "wVt": 318,
      "Enr": 319,
      "su": 320,
      "sEl": 321,
      "ejdZ": 322,
      "kAm": 323,
      "Eks": 324,
      "Inkl": 325,
      "lajk": 326,
      "ft": 327,
      "sej": 328,
      "gEn": 329,
      "sEd": 330,
      "Vb": 331,
      "tiejtS": 332,
      "lON": 333,
      "DEn": 334,
      "mjuz": 335,
      "ajn": 336,
      "jOr": 337,
      "Ens": 338,
      "tIN": 339,
      "bow": 340,
      "nejm": 341,
      "pVbl": 342,
      "kejS": 343,
      "kV": 344,
      "jr": 345,
      "hAr": 346,
      "pIr": 347,
      "ES": 348,
      "md": 349,
      "stAr": 350,
      "mowst": 351,
      "Nk": 352,
      "plejr": 353,
      "nej": 354,
      "Ad": 355,
      "ps": 356,
      "siz": 357,
      "Vs": 358,
      "DEm": 359,
      "bej": 360,
      "EdZ": 361,
      "awT": 362,
      "kUd": 363,
      "tIv": 364,
      "owk": 365,
      "ajl": 366,
      "sEk": 367,
      "ejndZ": 368,
      "ndz": 369,
      "bIg": 370,
      "ownli": 371,
      "nti": 372,
      "tEl": 373,
      "pA": 374,
      "dUr": 375,
      "sm": 376,
      "dZVst": 377,
      "hEd": 378,
      "tbOl": 379,
      "pej": 380,
      "EkS": 381,
      "id": 382,
      "sEntr": 383,
      "Ts": 384,
      "dIstr": 385,
      "bIt": 386,
      "jUr": 387,
      "gejm": 388,
      "tEr": 389,
      "lIst": 390,
      "skul": 391,
      "owp": 392,
      "Apr": 393,
      "ISt": 394,
      "lejS": 395,
      "vIZ": 396,
      "vIN": 397,
      "lIt": 398,
      "mIl": 399,
      "haws": 400,
      "win": 401,
      "wE": 402,
      "itS": 403,
      "Ot": 404,
      "Iksp": 405,
      "fawnd": 406,
      "wO": 407,
      "tiz": 408,
      "pEr": 409,
      "junajt": 410,
      "Ng": 411,
      "sIr": 412,
      "zd": 413,
      "Ikstr": 414,
      "mejd": 415,
      "Ag": 416,
      "sawT": 417,
      "dIv": 418,
      "vEr": 419,
      "ejtId": 420,
      "Ti": 421,
      "ejd": 422,
      "lowk": 423,
      "dIS": 424,
      "bIfOr": 425,
      "mEmbr": 426,
      "naw": 427,
      "Ektr": 428,
      "Itr": 429,
      "kEr": 430,
      "Inv": 431,
      "Av": 432,
      "dawn": 433,
      "sIti": 434,
      "kAl": 435,
      "poj": 436,
      "lig": 437,
      "EntS": 438,
      "Ab": 439,
      "lejtr": 440,
      "fajn": 441,
      "fUtbOl": 442,
      "wajl": 443,
      "plejs": 444,
      "sajd": 445,
      "juzd": 446,
      "pow": 447,
      "kOl": 448,
      "ntS": 449,
      "ajs": 450,
      "dZAn": 451,
      "bItwin": 452,
      "Igz": 453,
      "wIn": 454,
      "VtS": 455,
      "sEpt": 456,
      "lb": 457,
      "vz": 458,
      "fAlow": 459,
      "nIr": 460,
      "dZEnr": 461,
      "pAl": 462,
      "vIl": 463,
      "owd": 464,
      "lajf": 465,
      "stejts": 466,
      "fIlm": 467,
      "lINks": 468,
      "tEk": 469,
      "sElf": 470,
      "pAp": 471,
      "tli": 472,
      "Vk": 473,
      "tIk": 474,
      "sIst": 475,
      "daj": 476,
      "mEnt": 477,
      "sts": 478,
      "mpi": 479,
      "Ev": 480,
      "sEt": 481,
      "sEntSr": 482,
      "Int": 483,
      "bju": 484,
      "fju": 485,
      "Eg": 486,
      "wEst": 487,
      "ItS": 488,
      "Vnd": 489,
      "zi": 490,
      "mjuzIk": 491,
      "kVmp": 492,
      "Ili": 493,
      "diow": 494,
      "dIz": 495,
      "Inst": 496,
      "mjun": 497,
      "nIk": 498,
      "hIr": 499,
      "klow": 500,
      "nown": 501,
      "ejtIN": 502,
      "EnS": 503,
      "Imp": 504,
      "sEm": 505,
      "fE": 506,
      "tim": 507,
      "lAr": 508,
      "gVvr": 509,
      "sEs": 510,
      "INgl": 511,
      "ik": 512,
      "pU": 513,
      "biIN": 514,
      "gEt": 515,
      "fIS": 516,
      "nj": 517,
      "Inklu": 518,
      "stOr": 519,
      "lIv": 520,
      "ili": 521,
      "bAr": 522,
      "sON": 523,
      "wAnt": 524,
      "im": 525,
      "niz": 526,
      "up": 527,
      "Ivr": 528,
      "ist": 529,
      "sVtS": 530,
      "gEnst": 531,
      "tSAr": 532,
      "gAr": 533,
      "Oz": 534,
      "lejt": 535,
      "nju": 536,
      "ntli": 537,
      "hIstr": 538,
      "ajv": 539,
      "dZun": 540,
      "mIS": 541,
      "Os": 542,
      "bowT": 543,
      "Ep": 544,
      "kawnti": 545,
      "wIm": 546,
      "VkS": 547,
      "dOr": 548,
      "pApj": 549,
      "um": 550,
      "mEni": 551,
      "owm": 552,
      "ktr": 553,
      "tSi": 554,
      "Ostr": 555,
      "Indi": 556,
      "naj": 557,
      "Etr": 558,
      "hEr": 559,
      "gIv": 560,
      "ntIl": 561,
      "howm": 562,
      "mEd": 563,
      "Diz": 564,
      "spi": 565,
      "tejk": 566,
      "Vmbr": 567,
      "jus": 568,
      "sIns": 569,
      "Ikst": 570,
      "tow": 571,
      "sOr": 572,
      "sajt": 573,
      "pojnt": 574,
      "VS": 575,
      "bli": 576,
      "bEr": 577,
      "lajt": 578,
      "hju": 579,
      "Aks": 580,
      "dejt": 581,
      "Vg": 582,
      "fej": 583,
      "tawn": 584,
      "sli": 585,
      "nejS": 586,
      "Dow": 587,
      "gej": 588,
      "Akt": 589,
      "skr": 590,
      "Ekr": 591,
      "bIkejm": 592,
      "nVmbr": 593,
      "dIvEl": 594,
      "lU": 595,
      "vaj": 596,
      "kAmp": 597,
      "Ef": 598,
      "stejS": 599,
      "howl": 600,
      "bj": 601,
      "spr": 602,
      "ut": 603,
      "stIl": 604,
      "lEft": 605,
      "tOr": 606,
      "klVb": 607,
      "Vlt": 608,
      "nSIp": 609,
      "sin": 610,
      "On": 611,
      "sVb": 612,
      "fEl": 613,
      "bejs": 614,
      "fild": 615,
      "dZOr": 616,
      "INz": 617,
      "awnt": 618,
      "InkludIN": 619,
      "bIldIN": 620,
      "EndZ": 621,
      "najt": 622,
      "nsr": 623,
      "hA": 624,
      "sIm": 625,
      "lIvIN": 626,
      "zr": 627,
      "nEt": 628,
      "bIkOz": 629,
      "Entr": 630,
      "mEn": 631,
      "dow": 632,
      "ejtr": 633,
      "mejn": 634,
      "sIl": 635,
      "nowv": 636,
      "idZ": 637,
      "mId": 638,
      "tEm": 639,
      "stV": 640,
      "Inklud": 641,
      "sowsi": 642,
      "dIf": 643,
      "sVn": 644,
      "wOtr": 645,
      "mIs": 646,
      "voj": 647,
      "kVp": 648,
      "mejl": 649,
      "fIlmz": 650,
      "sINg": 651,
      "tUk": 652,
      "sejm": 653,
      "iejt": 654,
      "fAr": 655,
      "ejlj": 656,
      "bEl": 657,
      "sIk": 658,
      "owbr": 659,
      "kOld": 660,
      "tajt": 661,
      "bU": 662,
      "gUd": 663,
      "sIz": 664,
      "nowt": 665,
      "dZow": 666,
      "wEnt": 667,
      "fIn": 668,
      "bEst": 669,
      "ItIS": 670,
      "Epr": 671,
      "lIn": 672,
      "zIS": 673,
      "tUr": 674,
      "hawEvr": 675,
      "kAlIdZ": 676,
      "ajb": 677,
      "ajzd": 678,
      "gn": 679,
      "dIsk": 680,
      "SOr": 681,
      "ejpr": 682,
      "IstOr": 683,
      "tIS": 684,
      "nst": 685,
      "sEvr": 686,
      "kIl": 687,
      "owgr": 688,
      "tEn": 689,
      "tId": 690,
      "sEptEmbr": 691,
      "is": 692,
      "fAlowIN": 693,
      "kju": 694,
      "nEr": 695,
      "dIskr": 696,
      "fejs": 697,
      "Vf": 698,
      "Agr": 699,
      "mAn": 700,
      "IfIk": 701,
      "spOr": 702,
      "lEd": 703,
      "kVlr": 704,
      "nEk": 705,
      "pawr": 706,
      "gejmz": 707,
      "lOr": 708,
      "nsi": 709,
      "dZoj": 710,
      "Aktowbr": 711,
      "ntIn": 712,
      "mawnt": 713,
      "wOl": 714,
      "Zr": 715,
      "mejk": 716,
      "nid": 717,
      "IvEnt": 718,
      "bejst": 719,
      "mVn": 720,
      "tm": 721,
      "nVDr": 722,
      "smOl": 723,
      "dv": 724,
      "plejd": 725,
      "uz": 726,
      "njuEr": 727,
      "Ii": 728,
      "fEr": 729,
      "ejk": 730,
      "bAdi": 731,
      "Iktr": 732,
      "lEt": 733,
      "ilist": 734,
      "ndIN": 735,
      "tajmz": 736,
      "Sow": 737,
      "dZIk": 738,
      "gowIN": 739,
      "Vnt": 740,
      "mVtS": 741,
      "tAp": 742,
      "ir": 743,
      "lVv": 744,
      "kejm": 745,
      "dZulaj": 746,
      "lIs": 747,
      "INglIS": 748,
      "nowvEmbr": 749,
      "dEm": 750,
      "hEld": 751,
      "tSejndZ": 752,
      "hOr": 753,
      "ET": 754,
      "wU": 755,
      "nejt": 756,
      "il": 757,
      "fitSr": 758,
      "nEvr": 759,
      "wajr": 760,
      "Ant": 761,
      "dIsEm": 762,
      "stVdi": 763,
      "kli": 764,
      "pIN": 765,
      "nAm": 766,
      "dIk": 767,
      "kVntr": 768,
      "hIstOr": 769,
      "lj": 770,
      "kVl": 771,
      "Isp": 772,
      "dEnt": 773,
      "sowl": 774,
      "fajr": 775,
      "ktIv": 776,
      "bUk": 777,
      "dIsEmbr": 778,
      "pVblIk": 779,
      "mpli": 780,
      "hej": 781,
      "ksEs": 782,
      "law": 783,
      "dAr": 784,
      "lEs": 785,
      "mIN": 786,
      "dIfr": 787,
      "dust": 788,
      "fIk": 789,
      "zIN": 790,
      "mejS": 791,
      "sA": 792,
      "Edi": 793,
      "fADr": 794,
      "wajt": 795,
      "nA": 796,
      "dEl": 797,
      "gAt": 798,
      "kVvr": 799,
      "dZd": 800,
      "Ans": 801,
      "sIt": 802,
      "dAk": 803,
      "bIz": 804,
      "ajm": 805,
      "flOr": 806,
      "muv": 807,
      "fEbj": 808,
      "sIv": 809,
      "ku": 810,
      "ejnd": 811,
      "pm": 812,
      "Dowz": 813,
      "tSaj": 814,
      "nejmd": 815,
      "boj": 816,
      "nstr": 817,
      "Inf": 818,
      "ntInju": 819,
      "lVm": 820,
      "dIsp": 821,
      "tSIl": 822,
      "Od": 823,
      "ejts": 824,
      "ejnIN": 825,
      "ajtr": 826,
      "fOl": 827,
      "jVN": 828,
      "bIkVm": 829,
      "Vd": 830,
      "muvd": 831,
      "dVkS": 832,
      "wIT": 833,
      "sO": 834,
      "EDr": 835,
      "sIn": 836,
      "blISt": 837,
      "Estr": 838,
      "dET": 839,
      "stajl": 840,
      "dIvIZ": 841,
      "wejz": 842,
      "nAn": 843,
      "Apt": 844,
      "lju": 845,
      "fajv": 846,
      "midi": 847,
      "dVb": 848,
      "lI": 849,
      "dZej": 850,
      "dejv": 851,
      "sIks": 852,
      "IlEkS": 853,
      "Ngw": 854,
      "bIlt": 855,
      "wV": 856,
      "kAntr": 857,
      "EktIv": 858,
      "stej": 859,
      "iow": 860,
      "wIlj": 861,
      "As": 862,
      "ajnd": 863,
      "gz": 864,
      "lowkejt": 865,
      "sVmr": 866,
      "hjum": 867,
      "sl": 868,
      "fajd": 869,
      "vajd": 870,
      "tO": 871,
      "tAm": 872,
      "mejdZr": 873,
      "tSEr": 874,
      "kejs": 875,
      "dajd": 876,
      "kawns": 877,
      "TINk": 878,
      "skOr": 879,
      "mEt": 880,
      "nEkst": 881,
      "ski": 882,
      "IlEktr": 883,
      "TOt": 884,
      "lVnd": 885,
      "Idr": 886,
      "bIli": 887,
      "zEnt": 888,
      "lajv": 889,
      "mVN": 890,
      "skt": 891,
      "zejS": 892,
      "Endr": 893,
      "ejnz": 894,
      "lEv": 895,
      "mIt": 896,
      "kVltSr": 897,
      "tSIldr": 898,
      "tSu": 899,
      "hOl": 900,
      "tSt": 901,
      "fit": 902,
      "sowsiejS": 903,
      "sawnd": 904,
      "Anr": 905,
      "sVmTIN": 906,
      "nuz": 907,
      "AdZ": 908,
      "Siz": 909,
      "dIpAr": 910,
      "powz": 911,
      "mAd": 912,
      "isr": 913,
      "wEb": 914,
      "Ib": 915,
      "stIN": 916,
      "wIDIn": 917,
      "SUr": 918,
      "lUkt": 919,
      "kowl": 920,
      "\\={": 921,
      "spiSiz": 922,
      "kAnt": 923,
      "bIzn": 924,
      "dO": 925,
      "supr": 926,
      "stud": 927,
      "sivd": 928,
      "lIm": 929,
      "pVblISt": 930,
      "pIk": 931,
      "kwA": 932,
      "mVDr": 933,
      "tajr": 934,
      "wEstr": 935,
      "hIl": 936,
      "powst": 937,
      "dowz": 938,
      "klej": 939,
      "sEkS": 940,
      "Abr": 941,
      "fajnd": 942,
      "gowld": 943,
      "wITawt": 944,
      "liz": 945,
      "nAl": 946,
      "nsIdr": 947,
      "SUd": 948,
      "Inz": 949,
      "nAv": 950,
      "vju": 951,
      "Vz": 952,
      "lUk": 953,
      "fUl": 954,
      "wajd": 955,
      "sEns": 956,
      "spES": 957,
      "lIk": 958,
      "Izr": 959,
      "bIS": 960,
      "dAn": 961,
      "ojd": 962,
      "junj": 963,
      "slow": 964,
      "sEr": 965,
      "Inkr": 966,
      "IT": 967,
      "kejt": 968,
      "spejs": 969,
      "owlImp": 970,
      "wVns": 971,
      "vojs": 972,
      "lis": 973,
      "ejmz": 974,
      "wik": 975,
      "stEr": 976,
      "nli": 977,
      "stu": 978,
      "sowS": 979,
      "mplit": 980,
      "wInd": 981,
      "OlDow": 982,
      "fES": 983,
      "lt": 984,
      "Vkt": 985,
      "dejz": 986,
      "ajbd": 987,
      "majk": 988,
      "pUt": 989,
      "gA": 990,
      "Infr": 991,
      "ulz": 992,
      "tSIN": 993,
      "gEDr": 994,
      "skAt": 995,
      "luS": 996,
      "fUtbOlr": 997,
      "gowl": 998,
      "Ekts": 999,
      "owni": 1000,
      "Ists": 1001,
      "pAs": 1002,
      "Endz": 1003,
      "dZin": 1004,
      "mIlj": 1005,
      "powl": 1006,
      "Impr": 1007,
      "dIl": 1008,
      "wejt": 1009,
      "INt": 1010,
      "lidr": 1011,
      "swi": 1012,
      "ejb": 1013,
      "tin": 1014,
      "hajnd": 1015,
      "istr": 1016,
      "Eksp": 1017,
      "sEv": 1018,
      "pejpr": 1019,
      "sEn": 1020,
      "towt": 1021,
      "fEdr": 1022,
      "VktSr": 1023,
      "Ngr": 1024,
      "tEst": 1025,
      "lajz": 1026,
      "bz": 1027,
      "pOl": 1028,
      "vIdiow": 1029,
      "ipOr": 1030,
      "tIs": 1031,
      "sEp": 1032,
      "vIz": 1033,
      "bu": 1034,
      "dIn": 1035,
      "ows": 1036,
      "vAl": 1037,
      "Egj": 1038,
      "Ofr": 1039,
      "Ips": 1040,
      "nIS": 1041,
      "dETs": 1042,
      "ivi": 1043,
      "ajdi": 1044,
      "hImsElf": 1045,
      "owldr": 1046,
      "dIt": 1047,
      "plejst": 1048,
      "bIhajnd": 1049,
      "kwOr": 1050,
      "tIr": 1051,
      "pis": 1052,
      "bAt": 1053,
      "hElp": 1054,
      "ImpOr": 1055,
      "dEd": 1056,
      "lOst": 1057,
      "Eli": 1058,
      "lown": 1059,
      "ejZ": 1060,
      "fElt": 1061,
      "wUm": 1062,
      "ups": 1063,
      "nv": 1064,
      "dZejmz": 1065,
      "SEr": 1066,
      "smaj": 1067,
      "fil": 1068,
      "juzIN": 1069,
      "tA": 1070,
      "blIS": 1071,
      "sAr": 1072,
      "Aki": 1073,
      "ejdiow": 1074,
      "mejkIN": 1075,
      "dmIn": 1076,
      "St": 1077,
      "gOr": 1078,
      "bg": 1079,
      "mjuzi": 1080,
      "awnst": 1081,
      "InIS": 1082,
      "kawnt": 1083,
      "lEdZ": 1084,
      "tv": 1085,
      "sONz": 1086,
      "ajtIN": 1087,
      "vejS": 1088,
      "stejdZ": 1089,
      "bEn": 1090,
      "tEnd": 1091,
      "dZIn": 1092,
      "fEst": 1093,
      "mEl": 1094,
      "mAdr": 1095,
      "Ift": 1096,
      "blu": 1097,
      "lajd": 1098,
      "nV": 1099,
      "kwAl": 1100,
      "paj": 1101,
      "awts": 1102,
      "vow": 1103,
      "gejv": 1104,
      "bgkVlr": 1105,
      "mVst": 1106,
      "ejz": 1107,
      "fk": 1108,
      "nS": 1109,
      "Ani": 1110,
      "fowk": 1111,
      "ItSu": 1112,
      "dejvId": 1113,
      "min": 1114,
      "mIr": 1115,
      "mju": 1116,
      "tut": 1117,
      "lEkt": 1118,
      "lEkS": 1119,
      "towld": 1120,
      "ItSr": 1121,
      "Ost": 1122,
      "lejk": 1123,
      "Ign": 1124,
      "gAd": 1125,
      "lEr": 1126,
      "lk": 1127,
      "nawnst": 1128,
      "majnd": 1129,
      "stown": 1130,
      "if": 1131,
      "sajnd": 1132,
      "klows": 1133,
      "ntInjud": 1134,
      "InvAl": 1135,
      "kts": 1136,
      "bV": 1137,
      "Abl": 1138,
      "tejS": 1139,
      "pAn": 1140,
      "Emp": 1141,
      "kowtS": 1142,
      "lItr": 1143,
      "majt": 1144,
      "nejdi": 1145,
      "lajzd": 1146,
      "pitr": 1147,
      "ejlwej": 1148,
      "wAn": 1149,
      "kwEst": 1150,
      "fIN": 1151,
      "stAp": 1152,
      "lAdZIk": 1153,
      "ajts": 1154,
      "lm": 1155,
      "dVn": 1156,
      "bUks": 1157,
      "fIr": 1158,
      "kAnst": 1159,
      "kAt": 1160,
      "ilejS": 1161,
      "nEl": 1162,
      "Vnz": 1163,
      "jAr": 1164,
      "Ept": 1165,
      "Olr": 1166,
      "sIfIk": 1167,
      "gIt": 1168,
      "lv": 1169,
      "Sej": 1170,
      "IpEnd": 1171,
      "IzVl": 1172,
      "InVf": 1173,
      "wAS": 1174,
      "IndIpEnd": 1175,
      "owv": 1176,
      "mb": 1177,
      "VNkS": 1178,
      "sn": 1179,
      "mEtr": 1180,
      "lf": 1181,
      "Ikli": 1182,
      "vejl": 1183,
      "Emr": 1184,
      "gejS": 1185,
      "Ipi": 1186,
      "And": 1187,
      "tl": 1188,
      "fIg": 1189,
      "mIstr": 1190,
      "nT": 1191,
      "klIr": 1192,
      "ajmEr": 1193,
      "IvEnts": 1194,
      "OTr": 1195,
      "tSif": 1196,
      "vIdZ": 1197,
      "dOtr": 1198,
      "hajr": 1199,
      "Olmowst": 1200,
      "Nks": 1201,
      "sVDr": 1202,
      "IzVlt": 1203,
      "mjunIs": 1204,
      "bAks": 1205,
      "wajf": 1206,
      "hElT": 1207,
      "INk": 1208,
      "Ipt": 1209,
      "TOr": 1210,
      "hIt": 1211,
      "ndZr": 1212,
      "bEtr": 1213,
      "VNk": 1214,
      "owS": 1215,
      "tAr": 1216,
      "dli": 1217,
      "lows": 1218,
      "tSajld": 1219,
      "Insajd": 1220,
      "AdZEkt": 1221,
      "fIz": 1222,
      "Olwejz": 1223,
      "ndi": 1224,
      "dZojnd": 1225,
      "mIst": 1226,
      "list": 1227,
      "fIgjr": 1228,
      "tEnS": 1229,
      "klaj": 1230,
      "dIm": 1231,
      "mowm": 1232,
      "InvEst": 1233,
      "EndIN": 1234,
      "TINz": 1235,
      "kgr": 1236,
      "tajp": 1237,
      "lIz": 1238,
      "uv": 1239,
      "IlEkt": 1240,
      "Ikspr": 1241,
      "sajz": 1242,
      "EnsIv": 1243,
      "mAnt": 1244,
      "dIzajn": 1245,
      "Af": 1246,
      "ajdEnt": 1247,
      "sIkjUr": 1248,
      "kINd": 1249,
      "nowts": 1250,
      "howld": 1251,
      "EdIN": 1252,
      "Az": 1253,
      "stIk": 1254,
      "ii": 1255,
      "spIt": 1256,
      "sti": 1257,
      "Alr": 1258,
      "ikw": 1259,
      "mEks": 1260,
      "sun": 1261,
      "gIl": 1262,
      "bk": 1263,
      "nVTIN": 1264,
      "SAr": 1265,
      "tSajn": 1266,
      "Esr": 1267,
      "kaj": 1268,
      "bIldINz": 1269,
      "bIgIn": 1270,
      "hE": 1271,
      "sAl": 1272,
      "tEkst": 1273,
      "dZEst": 1274,
      "gItAr": 1275,
      "lti": 1276,
      "timz": 1277,
      "dejbju": 1278,
      "mpowz": 1279,
      "vIkt": 1280,
      "bowl": 1281,
      "wEbsajt": 1282,
      "itSt": 1283,
      "lVmnaj": 1284,
      "ajIN": 1285,
      "fown": 1286,
      "kowst": 1287,
      "vowk": 1288,
      "stiv": 1289,
      "ilis": 1290,
      "plejIN": 1291,
      "tIvz": 1292,
      "blISm": 1293,
      "noj": 1294,
      "kAz": 1295,
      "powzd": 1296,
      "tIkj": 1297,
      "hEnr": 1298,
      "tIl": 1299,
      "sINr": 1300,
      "Imi": 1301,
      "wIt": 1302,
      "tejb": 1303,
      "nEtwr": 1304,
      "nm": 1305,
      "skulz": 1306,
      "vej": 1307,
      "gEr": 1308,
      "mEntr": 1309,
      "sinjr": 1310,
      "Su": 1311,
      "sI": 1312,
      "dip": 1313,
      "EniTIN": 1314,
      "pojnts": 1315,
      "tEks": 1316,
      "ojl": 1317,
      "bEd": 1318,
      "sEpS": 1319,
      "dZunjr": 1320,
      "lAt": 1321,
      "gu": 1322,
      "Empr": 1323,
      "lUkIN": 1324,
      "kip": 1325,
      "kwEstS": 1326,
      "Imr": 1327,
      "mE": 1328,
      "Oltr": 1329,
      "kAmpl": 1330,
      "sIstr": 1331,
      "Ali": 1332,
      "InstEd": 1333,
      "kVmIN": 1334,
      "hAspIt": 1335,
      "kIld": 1336,
      "tejkIN": 1337,
      "ksi": 1338,
      "kejp": 1339,
      "klowzd": 1340,
      "sImp": 1341,
      "wInr": 1342,
      "sajk": 1343,
      "kAnfr": 1344,
      "wASINt": 1345,
      "blVd": 1346,
      "Empl": 1347,
      "flaj": 1348,
      "iDr": 1349,
      "tEmp": 1350,
      "pejnt": 1351,
      "nSIps": 1352,
      "Ekj": 1353,
      "juZ": 1354,
      "wIN": 1355,
      "IpS": 1356,
      "muvm": 1357,
      "lajbr": 1358,
      "kVt": 1359,
      "ejv": 1360,
      "IstS": 1361,
      "fAlowd": 1362,
      "mIk": 1363,
      "sowd": 1364,
      "Vmp": 1365,
      "lowr": 1366,
      "lin": 1367,
      "jukej": 1368,
      "tEkt": 1369,
      "dEk": 1370,
      "Instr": 1371,
      "dIst": 1372,
      "pejS": 1373,
      "gejt": 1374,
      "hUd": 1375,
      "mejt": 1376,
      "tVtS": 1377,
      "Anz": 1378,
      "Ivi": 1379,
      "dZV": 1380,
      "kj": 1381,
      "liv": 1382,
      "SIps": 1383,
      "dIskVvr": 1384,
      "dA": 1385,
      "AsEs": 1386,
      "dEn": 1387,
      "ksEsf": 1388,
      "SAt": 1389,
      "dAkj": 1390,
      "dIgr": 1391,
      "nIz": 1392,
      "bd": 1393,
      "sit": 1394,
      "fimejl": 1395,
      "Intajr": 1396,
      "IlIdZ": 1397,
      "mIti": 1398,
      "IzVlts": 1399,
      "kEn": 1400,
      "tEknAl": 1401,
      "skwA": 1402,
      "lajnz": 1403,
      "dZm": 1404,
      "ikwajr": 1405,
      "VnIN": 1406,
      "lIbr": 1407,
      "awtsajd": 1408,
      "ejni": 1409,
      "stUd": 1410,
      "ptSr": 1411,
      "awd": 1412,
      "nfr": 1413,
      "Influ": 1414,
      "ptr": 1415,
      "dZEn": 1416,
      "sId": 1417,
      "dIfit": 1418,
      "fInISt": 1419,
      "lIsts": 1420,
      "ivju": 1421,
      "bit": 1422,
      "gVn": 1423,
      "Olt": 1424,
      "mV": 1425,
      "kAns": 1426,
      "dIsaj": 1427,
      "vIktr": 1428,
      "vEn": 1429,
      "IkspIr": 1430,
      "nsfr": 1431,
      "lOntS": 1432,
      "dIp": 1433,
      "mET": 1434,
      "fEsr": 1435,
      "ownr": 1436,
      "IZ": 1437,
      "ipVbl": 1438,
      "lawd": 1439,
      "NkT": 1440,
      "mAl": 1441,
      "mVnTs": 1442,
      "ajzIN": 1443,
      "dAktr": 1444,
      "bVv": 1445,
      "zin": 1446,
      "sejf": 1447,
      "fIt": 1448,
      "lejb": 1449,
      "fIf": 1450,
      "luIs": 1451,
      "hAl": 1452,
      "fINgr": 1453,
      "dItr": 1454,
      "owlImpIks": 1455,
      "jEs": 1456,
      "AnIk": 1457,
      "fUt": 1458,
      "fejm": 1459,
      "ktS": 1460,
      "lejd": 1461,
      "lowkejS": 1462,
      "bIs": 1463,
      "tSajniz": 1464,
      "bE": 1465,
      "ejzd": 1466,
      "zIl": 1467,
      "lEtr": 1468,
      "Odk": 1469,
      "dIspajt": 1470,
      "jutr": 1471,
      "smIT": 1472,
      "sEpr": 1473,
      "sajl": 1474,
      "fud": 1475,
      "dusr": 1476,
      "lOs": 1477,
      "vIn": 1478,
      "tEmpt": 1479,
      "sVmwVn": 1480,
      "Egz": 1481,
      "jEt": 1482,
      "nbr": 1483,
      "fVNkS": 1484,
      "kwajr": 1485,
      "najn": 1486,
      "EmIr": 1487,
      "sejnt": 1488,
      "mawT": 1489,
      "bjuS": 1490,
      "flow": 1491,
      "fowt": 1492,
      "Itu": 1493,
      "zil": 1494,
      "pEn": 1495,
      "fInIS": 1496,
      "wEDr": 1497,
      "wIk": 1498,
      "gi": 1499,
      "hV": 1500,
      "glow": 1501,
      "Ets": 1502,
      "fIkS": 1503,
      "Els": 1504,
      "dZEr": 1505,
      "mowS": 1506,
      "stVdiz": 1507,
      "mEmr": 1508,
      "tIst": 1509,
      "fVnd": 1510,
      "tIp": 1511,
      "iTIN": 1512,
      "nAd": 1513,
      "mowt": 1514,
      "tnr": 1515,
      "lidIN": 1516,
      "pejdZ": 1517,
      "Isk": 1518,
      "kajnd": 1519,
      "gaj": 1520,
      "IvEntS": 1521,
      "fejvr": 1522,
      "iejS": 1523,
      "mbr": 1524,
      "Anow": 1525,
      "ntin": 1526,
      "tEmpr": 1527,
      "mVni": 1528,
      "mejbi": 1529,
      "tIks": 1530,
      "dEz": 1531,
      "tSEk": 1532,
      "sIgn": 1533,
      "pAz": 1534,
      "ndIS": 1535,
      "vowt": 1536,
      "dIfEns": 1537,
      "fs": 1538,
      "lAs": 1539,
      "kId": 1540,
      "ajvd": 1541,
      "sowld": 1542,
      "IndZr": 1543,
      "pIn": 1544,
      "skow": 1545,
      "ItIk": 1546,
      "kANgr": 1547,
      "dajn": 1548,
      "fjutSr": 1549,
      "us": 1550,
      "uawt": 1551,
      "ww": 1552,
      "TIr": 1553,
      "jow": 1554,
      "mpejn": 1555,
      "Vstr": 1556,
      "mit": 1557,
      "gdZEst": 1558,
      "kIn": 1559,
      "fajt": 1560,
      "hAt": 1561,
      "dIsajdId": 1562,
      "bejsbOl": 1563,
      "Imejnd": 1564,
      "bjut": 1565,
      "awz": 1566,
      "spIr": 1567,
      "awnz": 1568,
      "hO": 1569,
      "Akj": 1570,
      "Invajr": 1571,
      "tun": 1572,
      "bEk": 1573,
      "IlejtId": 1574,
      "duIN": 1575,
      "nf": 1576,
      "IkspEkt": 1577,
      "mEs": 1578,
      "hEvi": 1579,
      "bawnd": 1580,
      "sEz": 1581,
      "TlIk": 1582,
      "pVblIS": 1583,
      "mps": 1584,
      "kawntr": 1585,
      "sIlvr": 1586,
      "wajld": 1587,
      "lejdi": 1588,
      "lAk": 1589,
      "sowvi": 1590,
      "owlz": 1591,
      "nAr": 1592,
      "ownd": 1593,
      "dEr": 1594,
      "Elow": 1595,
      "howst": 1596,
      "dIsIZ": 1597,
      "IkwI": 1598,
      "najzd": 1599,
      "wAr": 1600,
      "sOf": 1601,
      "sVbs": 1602,
      "lir": 1603,
      "dZAb": 1604,
      "dIzajnd": 1605,
      "nowz": 1606,
      "fajl": 1607,
      "kIst": 1608,
      "lbr": 1609,
      "mitIN": 1610,
      "Sowz": 1611,
      "lAm": 1612,
      "Sowldr": 1613,
      "studiow": 1614,
      "fow": 1615,
      "dEp": 1616,
      "ejtIv": 1617,
      "dZIm": 1618,
      "sItSu": 1619,
      "ajk": 1620,
      "dIstIN": 1621,
      "ntIk": 1622,
      "ksEpt": 1623,
      "mjuzIS": 1624,
      "ImEmbr": 1625,
      "mtajmz": 1626,
      "kwin": 1627,
      "wVndr": 1628,
      "hIk": 1629,
      "majn": 1630,
      "ajdz": 1631,
      "Inkludz": 1632,
      "dZows": 1633,
      "nAmIk": 1634,
      "nejvi": 1635,
      "owIN": 1636,
      "dZiz": 1637,
      "ig": 1638,
      "mVnT": 1639,
      "dus": 1640,
      "sEkr": 1641,
      "sEmbli": 1642,
      "dZInj": 1643,
      "lEk": 1644,
      "owlImpIk": 1645,
      "InvAlvd": 1646,
      "kAnsr": 1647,
      "mIsIN": 1648,
      "dVtS": 1649,
      "pIktSr": 1650,
      "mejnt": 1651,
      "tOk": 1652,
      "mVl": 1653,
      "bajAgr": 1654,
      "ajvr": 1655,
      "tejn": 1656,
      "Nkr": 1657,
      "sES": 1658,
      "pUld": 1659,
      "pEns": 1660,
      "EdZIstr": 1661,
      "Ikr": 1662,
      "lejn": 1663,
      "skwEr": 1664,
      "kAgow": 1665,
      "un": 1666,
      "kIs": 1667,
      "mejlz": 1668,
      "lVmbi": 1669,
      "bIgInIN": 1670,
      "wIntr": 1671,
      "nsIst": 1672,
      "wInIN": 1673,
      "nejtIv": 1674,
      "Edwr": 1675,
      "ktSr": 1676,
      "owb": 1677,
      "fawndejS": 1678,
      "tSejndZd": 1679,
      "ESli": 1680,
      "dZVdZ": 1681,
      "lV": 1682,
      "IgzEkj": 1683,
      "filIN": 1684,
      "dIdZ": 1685,
      "mpjutr": 1686,
      "mj": 1687,
      "ejdz": 1688,
      "mEnS": 1689,
      "SEl": 1690,
      "kIt": 1691,
      "gejdZ": 1692,
      "Emploj": 1693,
      "izi": 1694,
      "simd": 1695,
      "mVlt": 1696,
      "isp": 1697,
      "mejni": 1698,
      "IndZ": 1699,
      "nejmz": 1700,
      "bIlow": 1701,
      "nsIN": 1702,
      "plaj": 1703,
      "lit": 1704,
      "sowldZr": 1705,
      "ItuS": 1706,
      "twEnt": 1707,
      "vIktOr": 1708,
      "mEZr": 1709,
      "dV": 1710,
      "spid": 1711,
      "zu": 1712,
      "pUr": 1713,
      "uvd": 1714,
      "IspESli": 1715,
      "kwIkli": 1716,
      "Empajr": 1717,
      "owkej": 1718,
      "sikr": 1719,
      "Imidi": 1720,
      "iplejst": 1721,
      "IgzIst": 1722,
      "lIvd": 1723,
      "howt": 1724,
      "slaj": 1725,
      "nspOr": 1726,
      "sVfr": 1727,
      "mpEr": 1728,
      "IpOr": 1729,
      "gEtIN": 1730,
      "kAst": 1731,
      "ejsIN": 1732,
      "awndz": 1733,
      "Aps": 1734,
      "gnIfIk": 1735,
      "gOn": 1736,
      "lEg": 1737,
      "vAr": 1738,
      "bIlIti": 1739,
      "klEr": 1740,
      "mejr": 1741,
      "ispAns": 1742,
      "kEm": 1743,
      "swI": 1744,
      "gm": 1745,
      "lIps": 1746,
      "muvIN": 1747,
      "nEs": 1748,
      "huz": 1749,
      "DVs": 1750,
      "pejn": 1751,
      "hAki": 1752,
      "lONgr": 1753,
      "pejt": 1754,
      "pik": 1755,
      "skIn": 1756,
      "twEnti": 1757,
      "minz": 1758,
      "mowtr": 1759,
      "stAk": 1760,
      "kowd": 1761,
      "Idi": 1762,
      "juT": 1763,
      "bs": 1764,
      "tEktSr": 1765,
      "wejlz": 1766,
      "majkr": 1767,
      "stEp": 1768,
      "InkVm": 1769,
      "majnr": 1770,
      "sut": 1771,
      "sEks": 1772,
      "dil": 1773,
      "livIN": 1774,
      "spEnt": 1775,
      "sVd": 1776,
      "Vgbi": 1777,
      "ISu": 1778,
      "Vzb": 1779,
      "plejz": 1780,
      "kEpt": 1781,
      "pIt": 1782,
      "EN": 1783,
      "skAlr": 1784,
      "smajl": 1785,
      "EntSr": 1786,
      "Ekspejtr": 1787,
      "gju": 1788,
      "glowb": 1789,
      "tIm": 1790,
      "dEs": 1791,
      "bitS": 1792,
      "dAm": 1793,
      "Itajr": 1794,
      "bIliv": 1795,
      "dmInIstr": 1796,
      "nEkt": 1797,
      "Ibj": 1798,
      "majsElf": 1799,
      "mEnd": 1800,
      "kwi": 1801,
      "ItOr": 1802,
      "ejli": 1803,
      "InstItuS": 1804,
      "nuzpejpr": 1805,
      "kn": 1806,
      "vAlju": 1807,
      "howldIN": 1808,
      "slej": 1809,
      "lowd": 1810,
      "vihIk": 1811,
      "kowld": 1812,
      "titSr": 1813,
      "Insp": 1814,
      "dZaj": 1815,
      "howldz": 1816,
      "bojz": 1817,
      "ajdr": 1818,
      "lIr": 1819,
      "hVN": 1820,
      "wejtIN": 1821,
      "fElow": 1822,
      "hVzb": 1823,
      "sEmi": 1824,
      "howtEl": 1825,
      "lEn": 1826,
      "dEv": 1827,
      "ItsElf": 1828,
      "AtS": 1829,
      "lINk": 1830,
      "kVst": 1831,
      "Adi": 1832,
      "luk": 1833,
      "dIr": 1834,
      "spip": 1835,
      "skaj": 1836,
      "bAb": 1837,
      "didi": 1838,
      "lajnd": 1839,
      "nIs": 1840,
      "ejmd": 1841,
      "owtS": 1842,
      "lIS": 1843,
      "Eb": 1844,
      "ejnj": 1845,
      "blAk": 1846,
      "sejIN": 1847,
      "IpVbl": 1848,
      "nk": 1849,
      "gajd": 1850,
      "din": 1851,
      "nsIs": 1852,
      "InkOr": 1853,
      "wOkt": 1854,
      "zow": 1855,
      "Vpr": 1856,
      "lvejnj": 1857,
      "wu": 1858,
      "mAm": 1859,
      "nejbr": 1860,
      "ktIN": 1861,
      "Impl": 1862,
      "sejS": 1863,
      "spowk": 1864,
      "bAm": 1865,
      "sElvz": 1866,
      "mIkst": 1867,
      "ajzr": 1868,
      "wiks": 1869,
      "wOk": 1870,
      "tawr": 1871,
      "Eld": 1872,
      "wow": 1873,
      "mejks": 1874,
      "pul": 1875,
      "hajdr": 1876,
      "klIn": 1877,
      "sEnd": 1878,
      "wIS": 1879,
      "bzr": 1880,
      "Iksk": 1881,
      "ejntS": 1882,
      "flu": 1883,
      "wAtS": 1884,
      "lENkT": 1885,
      "muvi": 1886,
      "howp": 1887,
      "IpVblIk": 1888,
      "dEf": 1889,
      "downt": 1890,
      "kowt": 1891,
      "flawr": 1892,
      "km": 1893,
      "Inh": 1894,
      "TIk": 1895,
      "Nkt": 1896,
      "spejn": 1897,
      "Antu": 1898,
      "hVndr": 1899,
      "tejks": 1900,
      "hum": 1901,
      "fIzIk": 1902,
      "lajs": 1903,
      "mUr": 1904,
      "plejn": 1905,
      "spEkt": 1906,
      "stApt": 1907,
      "gd": 1908,
      "ejlr": 1909,
      "uT": 1910,
      "skVl": 1911,
      "kAmb": 1912,
      "gowz": 1913,
      "stejdi": 1914,
      "dZuIS": 1915,
      "TlEt": 1916,
      "ejp": 1917,
      "Vmb": 1918,
      "EdZU": 1919,
      "gIvIN": 1920,
      "pajl": 1921,
      "sid": 1922,
      "fIli": 1923,
      "fu": 1924,
      "lOntSt": 1925,
      "skAtIS": 1926,
      "Ini": 1927,
      "hAn": 1928,
      "bown": 1929,
      "skEdZU": 1930,
      "kApi": 1931,
      "bIr": 1932,
      "dZIr": 1933,
      "nejtSr": 1934,
      "mO": 1935,
      "fawndr": 1936,
      "sajn": 1937,
      "Onlajn": 1938,
      "ojs": 1939,
      "Edr": 1940,
      "ISuz": 1941,
      "Vnr": 1942,
      "uf": 1943,
      "ItId": 1944,
      "bUl": 1945,
      "hajd": 1946,
      "IspAns": 1947,
      "kejn": 1948,
      "mpowzr": 1949,
      "kejZ": 1950,
      "Ifr": 1951,
      "lajkli": 1952,
      "sItiz": 1953,
      "IkAn": 1954,
      "mIks": 1955,
      "Adow": 1956,
      "flajt": 1957,
      "bVs": 1958,
      "gEst": 1959,
      "nvr": 1960,
      "loj": 1961,
      "ejdi": 1962,
      "dejts": 1963,
      "bejbi": 1964,
      "Sajr": 1965,
      "klajm": 1966,
      "hAm": 1967,
      "sowsiejt": 1968,
      "nik": 1969,
      "hajwej": 1970,
      "dZejs": 1971,
      "kAmplEks": 1972,
      "Ektli": 1973,
      "Ikts": 1974,
      "ndEr": 1975,
      "pIl": 1976,
      "IkstEnd": 1977,
      "wEp": 1978,
      "gowlz": 1979,
      "iwVn": 1980,
      "wejk": 1981,
      "stVdid": 1982,
      "bowt": 1983,
      "tSEst": 1984,
      "jukr": 1985,
      "tSowz": 1986,
      "kwaj": 1987,
      "kVmz": 1988,
      "vajs": 1989,
      "gAl": 1990,
      "EtS": 1991,
      "dIdnt": 1992,
      "owhaj": 1993,
      "SA": 1994,
      "sajts": 1995,
      "ESr": 1996,
      "sajm": 1997,
      "EniwVn": 1998,
      "ejlz": 1999,
      "kAzd": 2000,
      "stil": 2001,
      "jut": 2002,
      "minIN": 2003,
      "sejl": 2004,
      "sim": 2005,
      "tuS": 2006,
      "mowstli": 2007,
      "lOg": 2008,
      "ejndZr": 2009,
      "numr": 2010,
      "owhajow": 2011,
      "ajIi": 2012,
      "spAt": 2013,
      "bIkVmIN": 2014,
      "nejv": 2015,
      "pAlIS": 2016,
      "nkl": 2017,
      "swit": 2018,
      "dZEnt": 2019,
      "ktli": 2020,
      "Sown": 2021,
      "Eps": 2022,
      "kjUr": 2023,
      "mISIg": 2024,
      "lajvz": 2025,
      "dIlIvr": 2026,
      "jA": 2027,
      "EktIvli": 2028,
      "DEmsElvz": 2029,
      "klejmd": 2030,
      "dIpl": 2031,
      "pejntr": 2032,
      "skAtl": 2033,
      "kINz": 2034,
      "vOn": 2035,
      "hElpt": 2036,
      "wajz": 2037,
      "dIzaj": 2038,
      "bIlON": 2039,
      "kON": 2040,
      "IntEnd": 2041,
      "kO": 2042,
      "dEntS": 2043,
      "pEl": 2044,
      "mpr": 2045,
      "ItejS": 2046,
      "dZUr": 2047,
      "bAl": 2048,
      "sw": 2049,
      "koj": 2050,
      "wUlf": 2051,
      "bAst": 2052,
      "plAt": 2053,
      "klVbz": 2054,
      "dZownz": 2055,
      "mpt": 2056,
      "lAn": 2057,
      "hit": 2058,
      "tfOr": 2059,
      "hON": 2060,
      "fif": 2061,
      "sEst": 2062,
      "fIks": 2063,
      "Esej": 2064,
      "IkstS": 2065,
      "tawnSIp": 2066,
      "tSiv": 2067,
      "Vpt": 2068,
      "dIvajs": 2069,
      "lEgz": 2070,
      "iIN": 2071,
      "InfOr": 2072,
      "slip": 2073,
      "lAv": 2074,
      "ji": 2075,
      "Sin": 2076,
      "hejv": 2077,
      "tud": 2078,
      "dZIkt": 2079,
      "tspip": 2080,
      "wIspr": 2081,
      "IkstSejndZ": 2082,
      "EtIk": 2083,
      "ntejnz": 2084,
      "nVn": 2085,
      "fV": 2086,
      "ls": 2087,
      "dIsplej": 2088,
      "EngejdZ": 2089,
      "sks": 2090,
      "tSejm": 2091,
      "owdz": 2092,
      "smajld": 2093,
      "nIt": 2094,
      "bAk": 2095,
      "skwAdr": 2096,
      "spAr": 2097,
      "mInut": 2098,
      "liow": 2099,
      "kAlr": 2100,
      "dejli": 2101,
      "uts": 2102,
      "majlz": 2103,
      "sIdni": 2104,
      "vIr": 2105,
      "sud": 2106,
      "dEpj": 2107,
      "bIlivd": 2108,
      "pu": 2109,
      "swA": 2110,
      "tawnz": 2111,
      "dEmIk": 2112,
      "fIfT": 2113,
      "sItSuejS": 2114,
      "tSus": 2115,
      "diowz": 2116,
      "ndow": 2117,
      "IksEpt": 2118,
      "ntEmpr": 2119,
      "hEv": 2120,
      "IntEl": 2121,
      "dIziz": 2122,
      "SVt": 2123,
      "IfEkt": 2124,
      "kwajt": 2125,
      "pejtr": 2126,
      "dZA": 2127,
      "Old": 2128,
      "SAp": 2129,
      "vl": 2130,
      "sidi": 2131,
      "owT": 2132,
      "duk": 2133,
      "sVbdZIkt": 2134,
      "skAr": 2135,
      "fajIN": 2136,
      "dZAns": 2137,
      "ejvi": 2138,
      "baw": 2139,
      "lowni": 2140,
      "SUk": 2141,
      "Emb": 2142,
      "TINkIN": 2143,
      "EmIk": 2144,
      "tSojs": 2145,
      "fajtIN": 2146,
      "lajts": 2147,
      "tSejmbr": 2148,
      "mplitli": 2149,
      "mVlti": 2150,
      "ApIk": 2151,
      "sEts": 2152,
      "lIft": 2153,
      "gnajzd": 2154,
      "majr": 2155,
      "Igr": 2156,
      "IlIm": 2157,
      "IndVstr": 2158,
      "nAk": 2159,
      "nvEnS": 2160,
      "bIld": 2161,
      "IsEpS": 2162,
      "Imejnz": 2163,
      "nsiz": 2164,
      "jur": 2165,
      "TEr": 2166,
      "vAljum": 2167,
      "EsIv": 2168,
      "fejld": 2169,
      "stow": 2170,
      "bEldZ": 2171,
      "ntIr": 2172,
      "wIndow": 2173,
      "Aksfr": 2174,
      "klowD": 2175,
      "ipEr": 2176,
      "AbdZ": 2177,
      "dk": 2178,
      "bibi": 2179,
      "miz": 2180,
      "Tawz": 2181,
      "ndId": 2182,
      "isOr": 2183,
      "sOft": 2184,
      "dZIN": 2185,
      "tAgr": 2186,
      "bejt": 2187,
      "mowni": 2188,
      "sEsr": 2189,
      "nsIskow": 2190,
      "IlIz": 2191,
      "sOlt": 2192,
      "ejdr": 2193,
      "slowli": 2194,
      "nh": 2195,
      "itr": 2196,
      "IsIpi": 2197,
      "iT": 2198,
      "izEnt": 2199,
      "fEkt": 2200,
      "vEl": 2201,
      "dejndZr": 2202,
      "ktIk": 2203,
      "dIsEnt": 2204,
      "isIN": 2205,
      "lEm": 2206,
      "jElow": 2207,
      "klr": 2208,
      "bIAnd": 2209,
      "tEknIk": 2210,
      "sowdz": 2211,
      "twaj": 2212,
      "tp": 2213,
      "Inr": 2214,
      "hVnt": 2215,
      "lutEn": 2216,
      "dIklEr": 2217,
      "Eti": 2218,
      "fVn": 2219,
      "kAnvr": 2220,
      "IdZIN": 2221,
      "dZejk": 2222,
      "iii": 2223,
      "sAkr": 2224,
      "tOkIN": 2225,
      "ajf": 2226,
      "sIs": 2227,
      "towni": 2228,
      "vA": 2229,
      "itm": 2230,
      "Ibju": 2231,
      "tIvli": 2232,
      "IkspEr": 2233,
      "fajtr": 2234,
      "ajvIN": 2235,
      "lInd": 2236,
      "kAk": 2237,
      "sikw": 2238,
      "IdZIz": 2239,
      "tejnm": 2240,
      "kAntEnt": 2241,
      "IzIst": 2242,
      "Ekstr": 2243,
      "skIl": 2244,
      "tVn": 2245,
      "Ipr": 2246,
      "ntejS": 2247,
      "ApS": 2248,
      "ipr": 2249,
      "IntS": 2250,
      "pAk": 2251,
      "plajd": 2252,
      "mpitId": 2253,
      "ImejnIN": 2254,
      "owkl": 2255,
      "nTr": 2256,
      "owfajl": 2257,
      "sowlow": 2258,
      "sVnd": 2259,
      "howli": 2260,
      "blej": 2261,
      "mpowzd": 2262,
      "awndIN": 2263,
      "fIld": 2264,
      "ikow": 2265,
      "kIm": 2266,
      "swidIS": 2267,
      "klAr": 2268,
      "dZuli": 2269,
      "Iksplej": 2270,
      "plE": 2271,
      "sEkSu": 2272,
      "sajdz": 2273,
      "lItiz": 2274,
      "lOjr": 2275,
      "snow": 2276,
      "sf": 2277,
      "zm": 2278,
      "mejkr": 2279,
      "tajps": 2280,
      "sImpli": 2281,
      "nIks": 2282,
      "bAn": 2283,
      "maw": 2284,
      "dOg": 2285,
      "pliz": 2286,
      "wIndowz": 2287,
      "mun": 2288,
      "ndVkt": 2289,
      "owmejni": 2290,
      "bibisi": 2291,
      "gw": 2292,
      "dejn": 2293,
      "tejl": 2294,
      "vEs": 2295,
      "sOftwEr": 2296,
      "mInIs": 2297,
      "bIbli": 2298,
      "pju": 2299,
      "gEs": 2300,
      "dm": 2301,
      "lfr": 2302,
      "sajzd": 2303,
      "wAtSt": 2304,
      "dIvajd": 2305,
      "majl": 2306,
      "vojd": 2307,
      "ID": 2308,
      "town": 2309,
      "juzr": 2310,
      "kwinz": 2311,
      "ISud": 2312,
      "fm": 2313,
      "hVNgr": 2314,
      "idr": 2315,
      "nEkS": 2316,
      "wInz": 2317,
      "nstItSu": 2318,
      "Atow": 2319,
      "gV": 2320,
      "mbaj": 2321,
      "dApt": 2322,
      "tir": 2323,
      "nukli": 2324,
      "kIk": 2325,
      "vOl": 2326,
      "kAmj": 2327,
      "dvr": 2328,
      "Ibr": 2329,
      "kowv": 2330,
      "tejlr": 2331,
      "mown": 2332,
      "flej": 2333,
      "gAn": 2334,
      "mitr": 2335,
      "AdZr": 2336,
      "wISt": 2337,
      "wejv": 2338,
      "tEkS": 2339,
      "Istejt": 2340,
      "flIkt": 2341,
      "mVz": 2342,
      "IkwEst": 2343,
      "EktId": 2344,
      "lp": 2345,
      "lUks": 2346,
      "Vmz": 2347,
      "luz": 2348,
      "hIp": 2349,
      "livz": 2350,
      "ntIfIk": 2351,
      "Egr": 2352,
      "splIt": 2353,
      "Ngow": 2354,
      "dZojn": 2355,
      "pejd": 2356,
      "ilajzd": 2357,
      "twI": 2358,
      "sawTist": 2359,
      "viEt": 2360,
      "mejnli": 2361,
      "zown": 2362,
      "wejst": 2363,
      "nUr": 2364,
      "imuvd": 2365,
      "sejfti": 2366,
      "Sowd": 2367,
      "paw": 2368,
      "nnown": 2369,
      "Antow": 2370,
      "mpajr": 2371,
      "tejt": 2372,
      "slejt": 2373,
      "lejbr": 2374,
      "stur": 2375,
      "pin": 2376,
      "vin": 2377,
      "vowl": 2378,
      "kIS": 2379,
      "nil": 2380,
      "kul": 2381,
      "bud": 2382,
      "mIni": 2383,
      "hVntr": 2384,
      "spEs": 2385,
      "fejz": 2386,
      "pUS": 2387,
      "dElfi": 2388,
      "EsIN": 2389,
      "lInir": 2390,
      "dIkS": 2391,
      "sVnz": 2392,
      "dmIt": 2393,
      "stajn": 2394,
      "sejv": 2395,
      "dZEs": 2396,
      "nkr": 2397,
      "EntIN": 2398,
      "owli": 2399,
      "tIstIks": 2400,
      "kVmfr": 2401,
      "wOlz": 2402,
      "Iksklu": 2403,
      "nEDr": 2404,
      "wElT": 2405,
      "kjut": 2406,
      "AntEr": 2407,
      "mIsIz": 2408,
      "dEns": 2409,
      "najs": 2410,
      "IfEkts": 2411,
      "zUr": 2412,
      "pItS": 2413,
      "umz": 2414,
      "dINz": 2415,
      "fejl": 2416,
      "lONsajd": 2417,
      "pV": 2418,
      "flit": 2419,
      "dZiAgr": 2420,
      "vajdz": 2421,
      "klowsr": 2422,
      "ImowS": 2423,
      "AdZEkts": 2424,
      "tajd": 2425,
      "sItIN": 2426,
      "kItS": 2427,
      "slajtli": 2428,
      "Enkr": 2429,
      "lIti": 2430,
      "dZuejtId": 2431,
      "blow": 2432,
      "lus": 2433,
      "wIsk": 2434,
      "wajn": 2435,
      "nIm": 2436,
      "dusIN": 2437,
      "IspA": 2438,
      "Ibi": 2439,
      "down": 2440,
      "sejlz": 2441,
      "sEtIN": 2442,
      "flajIN": 2443,
      "stEps": 2444,
      "IkwIpm": 2445,
      "bIbliAgr": 2446,
      "fildz": 2447,
      "kejmbr": 2448,
      "nsIsts": 2449,
      "its": 2450,
      "Ivild": 2451,
      "najts": 2452,
      "dejl": 2453,
      "fAks": 2454,
      "gejz": 2455,
      "siIN": 2456,
      "bEt": 2457,
      "ajbz": 2458,
      "hawzIN": 2459,
      "bdZ": 2460,
      "bUS": 2461,
      "juEsej": 2462,
      "dES": 2463,
      "nmEnt": 2464,
      "NkIN": 2465,
      "mowb": 2466,
      "mVzl": 2467,
      "SU": 2468,
      "Ekst": 2469,
      "smOlr": 2470,
      "lg": 2471,
      "IkS": 2472,
      "dZojnt": 2473,
      "wIls": 2474,
      "tOl": 2475,
      "dAl": 2476,
      "twajs": 2477,
      "mEk": 2478,
      "pIkt": 2479,
      "bId": 2480,
      "pUl": 2481,
      "owniZ": 2482,
      "gejd": 2483,
      "dEkr": 2484,
      "klejm": 2485,
      "Eskju": 2486,
      "dvEntSr": 2487,
      "jVNgr": 2488,
      "owlIN": 2489,
      "imz": 2490,
      "dIzajr": 2491,
      "mInIsowt": 2492,
      "lajIN": 2493,
      "fOlz": 2494,
      "howldr": 2495,
      "pVblISIN": 2496,
      "spik": 2497,
      "wIskAns": 2498,
      "IksplOr": 2499,
      "pO": 2500,
      "Ezr": 2501,
      "pli": 2502,
      "Ats": 2503,
      "sAft": 2504,
      "twEl": 2505,
      "hajli": 2506,
      "Og": 2507,
      "tk": 2508,
      "spAn": 2509,
      "inejmd": 2510,
      "Efju": 2511,
      "bVk": 2512,
      "skejl": 2513,
      "dEzIgn": 2514,
      "gejnd": 2515,
      "Inspajr": 2516,
      "dZVm": 2517,
      "lIp": 2518,
      "ivnIN": 2519,
      "ml": 2520,
      "ivjuz": 2521,
      "staj": 2522,
      "IkOr": 2523,
      "SIft": 2524,
      "wIr": 2525,
      "tOt": 2526,
      "ImpIr": 2527,
      "ldz": 2528,
      "sits": 2529,
      "ksEptId": 2530,
      "dn": 2531,
      "Ism": 2532,
      "wAtSIN": 2533,
      "lIf": 2534,
      "hEdkwOr": 2535,
      "mpEt": 2536,
      "gIr": 2537,
      "spEnd": 2538,
      "wil": 2539,
      "mowz": 2540,
      "tSuz": 2541,
      "kjr": 2542,
      "sONr": 2543,
      "Vktr": 2544,
      "tn": 2545,
      "VSt": 2546,
      "gVl": 2547,
      "fb": 2548,
      "stejtm": 2549,
      "kjub": 2550,
      "lIstIN": 2551,
      "hIlz": 2552,
      "dEzIgnejtId": 2553,
      "wVtEvr": 2554,
      "iEnt": 2555,
      "vIs": 2556,
      "pajr": 2557,
      "stEpt": 2558,
      "dZIst": 2559,
      "mEst": 2560,
      "pejntIN": 2561,
      "pk": 2562,
      "nspr": 2563,
      "wOkIN": 2564,
      "luzIN": 2565,
      "iD": 2566,
      "Vgd": 2567,
      "hejt": 2568,
      "ItIs": 2569,
      "swid": 2570,
      "widZ": 2571,
      "Ilr": 2572,
      "tIstIk": 2573,
      "smow": 2574,
      "nEtIk": 2575,
      "mbajnd": 2576,
      "uZ": 2577,
      "swItS": 2578,
      "pUSt": 2579,
      "lOz": 2580,
      "pown": 2581,
      "bAdiz": 2582,
      "vjuz": 2583,
      "Vmr": 2584,
      "ntejn": 2585,
      "ItIks": 2586,
      "giz": 2587,
      "bItr": 2588,
      "kAnr": 2589,
      "bIkVmz": 2590,
      "ajst": 2591,
      "owpr": 2592,
      "nidz": 2593,
      "mini": 2594,
      "Saj": 2595,
      "awtr": 2596,
      "tsu": 2597,
      "skwAd": 2598,
      "mAnj": 2599,
      "sElz": 2600,
      "IndowniZ": 2601,
      "wEt": 2602,
      "lEks": 2603,
      "ksid": 2604,
      "wikli": 2605,
      "mIlr": 2606,
      "fUli": 2607,
      "spitS": 2608,
      "ntEr": 2609,
      "sAn": 2610,
      "Imejn": 2611,
      "Vgz": 2612,
      "owdus": 2613,
      "Nkow": 2614,
      "tSIk": 2615,
      "fjuzd": 2616,
      "skEr": 2617,
      "simz": 2618,
      "Indr": 2619,
      "wVnz": 2620,
      "slejtIv": 2621,
      "hAp": 2622,
      "kAmpr": 2623,
      "siv": 2624,
      "lejZ": 2625,
      "vIk": 2626,
      "fimejlz": 2627,
      "kAmIks": 2628,
      "pjUr": 2629,
      "Ests": 2630,
      "lejbawr": 2631,
      "wejl": 2632,
      "nzlejS": 2633,
      "hawr": 2634,
      "gIvz": 2635,
      "dajvr": 2636,
      "dIstINg": 2637,
      "Tim": 2638,
      "kOlz": 2639,
      "Emf": 2640,
      "Iskejp": 2641,
      "kAnsEpt": 2642,
      "tejnd": 2643,
      "diz": 2644,
      "sVbst": 2645,
      "tSIn": 2646,
      "fAlowz": 2647,
      "gajz": 2648,
      "nejb": 2649,
      "howstId": 2650,
      "lidz": 2651,
      "hajt": 2652,
      "IfEktIv": 2653,
      "SIz": 2654,
      "sImb": 2655,
      "wOltr": 2656,
      "kAmEnt": 2657,
      "bejsIk": 2658,
      "lut": 2659,
      "kEl": 2660,
      "SIt": 2661,
      "umr": 2662,
      "pEtr": 2663,
      "itSIN": 2664,
      "tIn": 2665,
      "Esk": 2666,
      "kIlIN": 2667,
      "tSIli": 2668,
      "ININ": 2669,
      "kAv": 2670,
      "hAli": 2671,
      "daw": 2672,
      "vowts": 2673,
      "IkstEnsIv": 2674,
      "ajdIN": 2675,
      "sEktr": 2676,
      "fejT": 2677,
      "wINz": 2678,
      "tElz": 2679,
      "tVN": 2680,
      "VltSr": 2681,
      "zaj": 2682,
      "dvajzr": 2683,
      "dIpr": 2684,
      "mVs": 2685,
      "bIlj": 2686,
      "ejg": 2687,
      "titSIN": 2688,
      "tub": 2689,
      "spAnsr": 2690,
      "kwIk": 2691,
      "Iplej": 2692,
      "fOt": 2693,
      "kiow": 2694,
      "tajgr": 2695,
      "mItS": 2696,
      "bVnd": 2697,
      "ENkT": 2698,
      "www": 2699,
      "inz": 2700,
      "bjUr": 2701,
      "nsm": 2702,
      "hEdz": 2703,
      "dZAni": 2704,
      "wejS": 2705,
      "bIhejv": 2706,
      "ejkIN": 2707,
      "sIksT": 2708,
      "mejs": 2709,
      "mbIg": 2710,
      "ejst": 2711,
      "howmz": 2712,
      "hawshowldz": 2713,
      "nEg": 2714,
      "dZli": 2715,
      "IpEr": 2716,
      "spikIN": 2717,
      "Sejk": 2718,
      "bIgInz": 2719,
      "vItS": 2720,
      "pajd": 2721,
      "ejld": 2722,
      "dZEfr": 2723,
      "kowp": 2724,
      "dVl": 2725,
      "pinz": 2726,
      "gEts": 2727,
      "kOst": 2728,
      "suz": 2729,
      "lVvd": 2730,
      "spikr": 2731,
      "kp": 2732,
      "vIlj": 2733,
      "EslIN": 2734,
      "Eldr": 2735,
      "kAfi": 2736,
      "klin": 2737,
      "lawz": 2738,
      "vajv": 2739,
      "nuklir": 2740,
      "Astr": 2741,
      "Andr": 2742,
      "fISr": 2743,
      "InsEs": 2744,
      "fIkst": 2745,
      "gVnz": 2746,
      "wId": 2747,
      "Ekspr": 2748,
      "IntEns": 2749,
      "kU": 2750,
      "ltiz": 2751,
      "dAks": 2752,
      "mf": 2753,
      "IdZd": 2754,
      "gli": 2755,
      "zIlj": 2756,
      "bIsajd": 2757,
      "mOl": 2758,
      "lidZ": 2759,
      "nl": 2760,
      "lEktSr": 2761,
      "nejtIN": 2762,
      "fIts": 2763,
      "tAks": 2764,
      "Eksr": 2765,
      "iejtIN": 2766,
      "IspEktIvli": 2767,
      "kUk": 2768,
      "sEtr": 2769,
      "sVl": 2770,
      "Abvi": 2771,
      "zAr": 2772,
      "niow": 2773,
      "IntIr": 2774,
      "dVlt": 2775,
      "Iplajd": 2776,
      "lIvr": 2777,
      "mAt": 2778,
      "mIz": 2779,
      "fejst": 2780,
      "Izown": 2781,
      "Empti": 2782,
      "plejt": 2783,
      "Vki": 2784,
      "kowtSIz": 2785,
      "nuli": 2786,
      "Tli": 2787,
      "nutr": 2788,
      "bt": 2789,
      "Sejp": 2790,
      "tIlr": 2791,
      "SAk": 2792,
      "sInT": 2793,
      "dZE": 2794,
      "Ots": 2795,
      "kAnS": 2796,
      "dEt": 2797,
      "dim": 2798,
      "TlEtIks": 2799,
      "kejtr": 2800,
      "itSr": 2801,
      "IstIk": 2802,
      "swIm": 2803,
      "IzEntIN": 2804,
      "kOlIN": 2805,
      "Alvd": 2806,
      "ojt": 2807,
      "OT": 2808,
      "stejd": 2809,
      "spEl": 2810,
      "pAm": 2811,
      "dmr": 2812,
      "AZ": 2813,
      "gnIS": 2814,
      "nejk": 2815,
      "sEkj": 2816,
      "tAl": 2817,
      "dZejn": 2818,
      "bAz": 2819,
      "wajdli": 2820,
      "ejndZd": 2821,
      "mAskow": 2822,
      "pVblISr": 2823,
      "sIlIti": 2824,
      "hId": 2825,
      "Isi": 2826,
      "Oft": 2827,
      "dididi": 2828,
      "dawt": 2829,
      "sVndej": 2830,
      "sawndz": 2831,
      "Edz": 2832,
      "SIr": 2833,
      "swIs": 2834,
      "nun": 2835,
      "fEm": 2836,
      "pVl": 2837,
      "hajm": 2838,
      "dVz": 2839,
      "dZuz": 2840,
      "TwEst": 2841,
      "kAnf": 2842,
      "Sut": 2843,
      "kowOr": 2844,
      "dIfEnd": 2845,
      "skowp": 2846,
      "powp": 2847,
      "bAs": 2848,
      "kIdz": 2849,
      "Ikj": 2850,
      "bIhejvjr": 2851,
      "wOkr": 2852,
      "nzlejt": 2853,
      "vajr": 2854,
      "tAk": 2855,
      "tSEs": 2856,
      "tiT": 2857,
      "lind": 2858,
      "ntInjuz": 2859,
      "wAnts": 2860,
      "NgEr": 2861,
      "mElbr": 2862,
      "lawIN": 2863,
      "spIn": 2864,
      "mEg": 2865,
      "tSUr": 2866,
      "ntEst": 2867,
      "ngr": 2868,
      "bawndr": 2869,
      "studiowz": 2870,
      "bIN": 2871,
      "InvEstm": 2872,
      "twElv": 2873,
      "sElr": 2874,
      "IfOr": 2875,
      "kwinzl": 2876,
      "Adr": 2877,
      "dIfajnd": 2878,
      "wItn": 2879,
      "nowIN": 2880,
      "mpown": 2881,
      "klejmz": 2882,
      "nows": 2883,
      "VNkt": 2884,
      "dItejlz": 2885,
      "kin": 2886,
      "mjul": 2887,
      "itIN": 2888,
      "lgEr": 2889,
      "ejzi": 2890,
      "kb": 2891,
      "Ilif": 2892,
      "tElIN": 2893,
      "ejdIN": 2894,
      "wAl": 2895,
      "Invajt": 2896,
      "htp": 2897,
      "ih": 2898,
      "aws": 2899,
      "junik": 2900,
      "kEv": 2901,
      "zIr": 2902,
      "IgnOr": 2903,
      "dEst": 2904,
      "dZowz": 2905,
      "vajdIN": 2906,
      "tV": 2907,
      "nIl": 2908,
      "ejkr": 2909,
      "spejsAtS": 2910,
      "kwej": 2911,
      "stim": 2912,
      "hjudZ": 2913,
      "kipIN": 2914,
      "IzVltId": 2915,
      "ntVki": 2916,
      "IgzIstIN": 2917,
      "EndZoj": 2918,
      "Enz": 2919,
      "kAmIk": 2920,
      "vejt": 2921,
      "dZEf": 2922,
      "IspEkt": 2923,
      "dIzajnr": 2924,
      "Ast": 2925,
      "gejl": 2926,
      "plejOf": 2927,
      "Tlits": 2928,
      "iti": 2929,
      "viEtnAm": 2930,
      "stVm": 2931,
      "SutIN": 2932,
      "ntowni": 2933,
      "wUl": 2934,
      "fejt": 2935,
      "owejS": 2936,
      "IzVltIN": 2937,
      "kAnflIkt": 2938,
      "kajv": 2939,
      "fildr": 2940,
      "tajl": 2941,
      "EZr": 2942,
      "pIts": 2943,
      "nlajk": 2944,
      "EtsEtr": 2945,
      "najdZIr": 2946,
      "TIn": 2947,
      "Ekw": 2948,
      "lgr": 2949,
      "Edm": 2950,
      "ur": 2951,
      "gejn": 2952,
      "tSejn": 2953,
      "ejsi": 2954,
      "bIlbOr": 2955,
      "majgr": 2956,
      "dZEndr": 2957,
      "vInS": 2958,
      "ejdZId": 2959,
      "kowApr": 2960,
      "mAnstr": 2961,
      "fAs": 2962,
      "inow": 2963,
      "hElm": 2964,
      "wejn": 2965,
      "kEli": 2966,
      "dejnIS": 2967,
      "nowb": 2968,
      "wItsr": 2969,
      "fejljr": 2970,
      "skw": 2971,
      "Tidr": 2972,
      "flEkt": 2973,
      "vEtr": 2974,
      "sajkl": 2975,
      "pojntm": 2976,
      "mbIgwejS": 2977,
      "towkiow": 2978,
      "swItsr": 2979,
      "gj": 2980,
      "ntSEstr": 2981,
      "fg": 2982,
      "Tist": 2983,
      "mEstIk": 2984,
      "kVz": 2985,
      "bVtr": 2986,
      "flE": 2987,
      "kjuS": 2988,
      "slowv": 2989,
      "nwElT": 2990,
      "INkt": 2991,
      "bIniT": 2992,
      "ejks": 2993,
      "bAnd": 2994,
      "mbi": 2995,
      "@@": 2996,
      "kwAnt": 2997,
      "klowDz": 2998,
      "bVdZ": 2999,
      "dajm": 3000,
      "pInj": 3001,
      "smu": 3002,
      "Agz": 3003,
      "pejntINz": 3004,
      "sd": 3005,
      "piEm": 3006,
      "hIs": 3007,
      "sIkst": 3008,
      "pil": 3009,
      "EnSUr": 3010,
      "mst": 3011,
      "kawnts": 3012,
      "ajbr": 3013,
      "sItSuejtId": 3014,
      "IpitId": 3015,
      "ejgow": 3016,
      "skVlptSr": 3017,
      "fid": 3018,
      "ejndZm": 3019,
      "stEf": 3020,
      "lIT": 3021,
      "plVs": 3022,
      "btejnd": 3023,
      "towl": 3024,
      "fawndIN": 3025,
      "fajndIN": 3026,
      "EktSr": 3027,
      "mowd": 3028,
      "sowfi": 3029,
      "sAb": 3030,
      "pVt": 3031,
      "skEdZUl": 3032,
      "hOk": 3033,
      "hawshowld": 3034,
      "sOl": 3035,
      "ntejnIN": 3036,
      "nIzejS": 3037,
      "tSEl": 3038,
      "kEnt": 3039,
      "IksEpS": 3040,
      "stejb": 3041,
      "lajzIN": 3042,
      "ndsk": 3043,
      "ndZi": 3044,
      "jAm": 3045,
      "dZIz": 3046,
      "Ai": 3047,
      "dZAr": 3048,
      "Iksplejnd": 3049,
      "Iksplow": 3050,
      "kAmr": 3051,
      "mstr": 3052,
      "mEntejS": 3053,
      "wEltS": 3054,
      "IkstEnS": 3055,
      "AtIk": 3056,
      "fjuZ": 3057,
      "duti": 3058,
      "vAd": 3059,
      "tSivm": 3060,
      "TlEtIk": 3061,
      "sElIN": 3062,
      "lejtId": 3063,
      "lajm": 3064,
      "EgzIst": 3065,
      "itajr": 3066,
      "tEmpts": 3067,
      "Emplojd": 3068,
      "dIsr": 3069,
      "nojz": 3070,
      "kd": 3071,
      "dEnIs": 3072,
      "ntIdZ": 3073,
      "TOts": 3074,
      "Amb": 3075,
      "IlEv": 3076,
      "kipr": 3077,
      "dZojnIN": 3078,
      "sivIN": 3079,
      "lejr": 3080,
      "hIts": 3081,
      "OsIN": 3082,
      "skEdZUld": 3083,
      "smAr": 3084,
      "klAk": 3085,
      "SEd": 3086,
      "vIns": 3087,
      "ajvz": 3088,
      "OIN": 3089,
      "niDr": 3090,
      "kwr": 3091,
      "nIti": 3092,
      "pEt": 3093,
      "bluz": 3094,
      "IkVltSr": 3095,
      "wIg": 3096,
      "kEvIn": 3097,
      "tSEstr": 3098,
      "mil": 3099,
      "ntowniow": 3100,
      "wIlIN": 3101,
      "bENg": 3102,
      "sis": 3103,
      "dInr": 3104,
      "owzd": 3105,
      "ImAr": 3106,
      "dZImi": 3107,
      "owti": 3108,
      "owsi": 3109,
      "owlr": 3110,
      "zdi": 3111,
      "wElk": 3112,
      "kibOr": 3113,
      "lImItId": 3114,
      "uli": 3115,
      "sik": 3116,
      "SOn": 3117,
      "Eniwej": 3118,
      "lup": 3119,
      "Vks": 3120,
      "lEb": 3121,
      "pAst": 3122,
      "hjust": 3123,
      "dIsEnd": 3124,
      "dVgl": 3125,
      "Entajt": 3126,
      "kAzIN": 3127,
      "nfEdr": 3128,
      "sawTwEst": 3129,
      "fIzIks": 3130,
      "dZiow": 3131,
      "diejgow": 3132,
      "bEnt": 3133,
      "kiz": 3134,
      "owks": 3135,
      "nIp": 3136,
      "Adiow": 3137,
      "bst": 3138,
      "tajwAn": 3139,
      "VblIn": 3140,
      "Nl": 3141,
      "lajkt": 3142,
      "SIN": 3143,
      "ojr": 3144,
      "lejtIN": 3145,
      "luizi": 3146,
      "hEm": 3147,
      "Vtr": 3148,
      "spEktIv": 3149,
      "Ibjut": 3150,
      "tSivd": 3151,
      "dIpEnd": 3152,
      "fowtow": 3153,
      "tSiow": 3154,
      "pwEr": 3155,
      "sawndtr": 3156,
      "wejd": 3157,
      "Indu": 3158,
      "Izajnd": 3159,
      "Ati": 3160,
      "fVndIN": 3161,
      "mIsIsIpi": 3162,
      "kAntEst": 3163,
      "mejtr": 3164,
      "klIf": 3165,
      "dajsEst": 3166,
      "mIdi": 3167,
      "owfi": 3168,
      "nsA": 3169,
      "tSejs": 3170,
      "dIkr": 3171,
      "Akr": 3172,
      "kf": 3173,
      "tVf": 3174,
      "Ensr": 3175,
      "skIN": 3176,
      "Tju": 3177,
      "pVn": 3178,
      "bejkr": 3179,
      "SowIN": 3180,
      "lIli": 3181,
      "gejts": 3182,
      "sfIr": 3183,
      "stejtIN": 3184,
      "ub": 3185,
      "spEr": 3186,
      "bEdr": 3187,
      "spEkts": 3188,
      "IzlAm": 3189,
      "lEl": 3190,
      "wAznt": 3191,
      "gnejS": 3192,
      "fOlIN": 3193,
      "Sejpt": 3194,
      "ifli": 3195,
      "Vni": 3196,
      "gAm": 3197,
      "InvejZ": 3198,
      "wITdr": 3199,
      "ntIN": 3200,
      "IndIdZ": 3201,
      "smuD": 3202,
      "Itiz": 3203,
      "dIfEndr": 3204,
      "kApiz": 3205,
      "vm": 3206,
      "bET": 3207,
      "IzlAmIk": 3208,
      "Enejb": 3209,
      "iejtIv": 3210,
      "dZown": 3211,
      "dik": 3212,
      "mEm": 3213,
      "tSIr": 3214,
      "smEl": 3215,
      "nsE": 3216,
      "ajmz": 3217,
      "IsEnS": 3218,
      "dIzr": 3219,
      "Ikwajr": 3220,
      "bVl": 3221,
      "kst": 3222,
      "mAli": 3223,
      "kejd": 3224,
      "dejtIN": 3225,
      "bVf": 3226,
      "fowld": 3227,
      "dAlr": 3228,
      "hid": 3229,
      "sOt": 3230,
      "dImEnS": 3231,
      "Inkawntr": 3232,
      "kAnd": 3233,
      "sinz": 3234,
      "klawd": 3235,
      "sININ": 3236,
      "kSr": 3237,
      "EnsIs": 3238,
      "pAd": 3239,
      "vEntSr": 3240,
      "Enti": 3241,
      "Akl": 3242,
      "ntejnd": 3243,
      "Iskej": 3244,
      "stejn": 3245,
      "dZEt": 3246,
      "fajndz": 3247,
      "dIstINgwISt": 3248,
      "siow": 3249,
      "owpi": 3250,
      "dZVNkS": 3251,
      "sowkOr": 3252,
      "pINk": 3253,
      "ms": 3254,
      "ldwajd": 3255,
      "dEnmAr": 3256,
      "fiz": 3257,
      "glEn": 3258,
      "sIfIkli": 3259,
      "ejviejS": 3260,
      "InSUr": 3261,
      "EnfOr": 3262,
      "imIN": 3263,
      "IksklusIv": 3264,
      "nAmIks": 3265,
      "kejv": 3266,
      "spEktr": 3267,
      "Egn": 3268,
      "kows": 3269,
      "sajkAl": 3270,
      "ksEsr": 3271,
      "nklud": 3272,
      "lId": 3273,
      "stIks": 3274,
      "kejb": 3275,
      "gAlf": 3276,
      "zbr": 3277,
      "IpIN": 3278,
      "majnIN": 3279,
      "glOr": 3280,
      "IfIS": 3281,
      "stup": 3282,
      "lAdZ": 3283,
      "Aptr": 3284,
      "ejzIN": 3285,
      "wUdz": 3286,
      "dEsk": 3287,
      "AN": 3288,
      "tsm": 3289,
      "mIdiv": 3290,
      "nit": 3291,
      "gowst": 3292,
      "owr": 3293,
      "VNg": 3294,
      "tajni": 3295,
      "Sawt": 3296,
      "dejm": 3297,
      "dvd": 3298,
      "Avi": 3299,
      "lAkt": 3300,
      "mAgr": 3301,
      "doj": 3302,
      "hejz": 3303,
      "kown": 3304,
      "tAn": 3305,
      "skIlz": 3306,
      "vajt": 3307,
      "toj": 3308,
      "Vns": 3309,
      "tEndr": 3310,
      "hVl": 3311,
      "AbdZEkt": 3312,
      "awtst": 3313,
      "tSIz": 3314,
      "kowlsp": 3315,
      "ligz": 3316,
      "gnajz": 3317,
      "ETnIk": 3318,
      "bIsajdz": 3319,
      "Ingr": 3320,
      "bajAl": 3321,
      "sEgm": 3322,
      "sIdi": 3323,
      "titS": 3324,
      "ZAnr": 3325,
      "klowsli": 3326,
      "dIfEnsIv": 3327,
      "nskr": 3328,
      "mAnIk": 3329,
      "bjuti": 3330,
      "owmi": 3331,
      "ini": 3332,
      "pidi": 3333,
      "fInISIN": 3334,
      "fIliejt": 3335,
      "IbjutId": 3336,
      "kVS": 3337,
      "ntIsts": 3338,
      "vejg": 3339,
      "dajr": 3340,
      "ISm": 3341,
      "ntajn": 3342,
      "gwA": 3343,
      "owdi": 3344,
      "EndEmIk": 3345,
      "lbej": 3346,
      "nowm": 3347,
      "owg": 3348,
      "mk": 3349,
      "dVst": 3350,
      "ntSajz": 3351,
      "dEzr": 3352,
      "lImp": 3353,
      "dawnt": 3354,
      "ItIsIz": 3355,
      "AbdZEkts": 3356,
      "tSVk": 3357,
      "ntIs": 3358,
      "lIzejS": 3359,
      "niks": 3360,
      "swImIN": 3361,
      "ItIv": 3362,
      "lkj": 3363,
      "spA": 3364,
      "Emplojiz": 3365,
      "nsfOr": 3366,
      "twIn": 3367,
      "sImf": 3368,
      "hVm": 3369,
      "Ivajv": 3370,
      "spajdr": 3371,
      "vAli": 3372,
      "spaj": 3373,
      "IbEl": 3374,
      "piEr": 3375,
      "dEkejdz": 3376,
      "VpS": 3377,
      "tEstIN": 3378,
      "Emi": 3379,
      "sumd": 3380,
      "uld": 3381,
      "mAkr": 3382,
      "ifEktSr": 3383,
      "lVk": 3384,
      "dIfi": 3385,
      "zinz": 3386,
      "plejnz": 3387,
      "nsEkj": 3388,
      "mejntejnd": 3389,
      "stin": 3390,
      "stownz": 3391,
      "dVblIn": 3392,
      "mVnd": 3393,
      "mIljr": 3394,
      "lusi": 3395,
      "Ink": 3396,
      "fVndz": 3397,
      "dZulj": 3398,
      "wEdIN": 3399,
      "tejst": 3400,
      "hAliwUd": 3401,
      "nIn": 3402,
      "fli": 3403,
      "dIkt": 3404,
      "sAm": 3405,
      "moj": 3406,
      "nsEstr": 3407,
      "IkwIv": 3408,
      "sidZr": 3409,
      "kh": 3410,
      "owtin": 3411,
      "dIskowgr": 3412,
      "dZEl": 3413,
      "kIr": 3414,
      "tIkli": 3415,
      "OS": 3416,
      "bOlt": 3417,
      "gjud": 3418,
      "mli": 3419,
      "tSik": 3420,
      "EngejdZd": 3421,
      "sAd": 3422,
      "VnInkOr": 3423,
      "SiejS": 3424,
      "Insr": 3425,
      "fEnsIv": 3426,
      "blajnd": 3427,
      "sVbmr": 3428,
      "fIftin": 3429,
      "gIft": 3430,
      "hEz": 3431,
      "kIlr": 3432,
      "jAn": 3433,
      "mISEl": 3434,
      "SUgr": 3435,
      "kg": 3436,
      "dVm": 3437,
      "bElt": 3438,
      "dElt": 3439,
      "flVd": 3440,
      "dawntawn": 3441,
      "nIns": 3442,
      "pejl": 3443,
      "bowts": 3444,
      "nb": 3445,
      "mowl": 3446,
      "pItsbr": 3447,
      "stEl": 3448,
      "supIr": 3449,
      "iOl": 3450,
      "awl": 3451,
      "kawntiz": 3452,
      "Iksplejn": 3453,
      "kAs": 3454,
      "dIfVNkt": 3455,
      "gejtId": 3456,
      "vejtId": 3457,
      "hU": 3458,
      "plEZr": 3459,
      "fInl": 3460,
      "mAk": 3461,
      "klivl": 3462,
      "Ilj": 3463,
      "TAl": 3464,
      "mOTs": 3465,
      "pejs": 3466,
      "sVbr": 3467,
      "ulr": 3468,
      "vajn": 3469,
      "sajnz": 3470,
      "nIst": 3471,
      "viEn": 3472,
      "lIks": 3473,
      "lejks": 3474,
      "pd": 3475,
      "Endli": 3476,
      "mVntr": 3477,
      "dZinz": 3478,
      "stowl": 3479,
      "Ngl": 3480,
      "ljuz": 3481,
      "fd": 3482,
      "dZVmp": 3483,
      "ptejS": 3484,
      "InstOld": 3485,
      "pVntS": 3486,
      "nfOr": 3487,
      "gows": 3488,
      "sajr": 3489,
      "fIst": 3490,
      "jutO": 3491,
      "dZVdZIz": 3492,
      "majz": 3493,
      "bejn": 3494,
      "vajvd": 3495,
      "dIg": 3496,
      "sIg": 3497,
      "vVl": 3498,
      "Ogr": 3499,
      "ntow": 3500,
      "hElpIN": 3501,
      "mIdfildr": 3502,
      "sEndIN": 3503,
      "Di": 3504,
      "dIskVS": 3505,
      "pUlIN": 3506,
      "dIsOr": 3507,
      "IndEks": 3508,
      "sowni": 3509,
      "bowlt": 3510,
      "Om": 3511,
      "lowz": 3512,
      "ln": 3513,
      "InvAlvIN": 3514,
      "pE": 3515,
      "gUdz": 3516,
      "Tir": 3517,
      "TVndr": 3518,
      "pAt": 3519,
      "lEktIv": 3520,
      "vEnIz": 3521,
      "wund": 3522,
      "lbejni": 3523,
      "ANk": 3524,
      "kAsts": 3525,
      "lowm": 3526,
      "dEli": 3527,
      "INkIN": 3528,
      "VSIN": 3529,
      "ds": 3530,
      "plajz": 3531,
      "dVg": 3532,
      "tSow": 3533,
      "ndINz": 3534,
      "nlEs": 3535,
      "EdItId": 3536,
      "stVf": 3537,
      "biz": 3538,
      "kjuzd": 3539,
      "sVmwEr": 3540,
      "piejtS": 3541,
      "ldZ": 3542,
      "lif": 3543,
      "kupr": 3544,
      "ntId": 3545,
      "dEspr": 3546,
      "AS": 3547,
      "NklIn": 3548,
      "kAlIdZIz": 3549,
      "kejtIN": 3550,
      "tSejndZIN": 3551,
      "wElz": 3552,
      "tEkniks": 3553,
      "EnimOr": 3554,
      "kUdnt": 3555,
      "kejl": 3556,
      "sejnts": 3557,
      "mAnAr": 3558,
      "Azr": 3559,
      "sist": 3560,
      "vEnIzwejl": 3561,
      "downi": 3562,
      "nsIstIN": 3563,
      "dejS": 3564,
      "ejaj": 3565,
      "kAmjun": 3566,
      "nAtsi": 3567,
      "dejtId": 3568,
      "sowlr": 3569,
      "Akow": 3570,
      "mEndm": 3571,
      "njuZ": 3572,
      "ImpAs": 3573,
      "gejtr": 3574,
      "vEdZ": 3575,
      "ownz": 3576,
      "ajvi": 3577,
      "INg": 3578,
      "tSEn": 3579,
      "imli": 3580,
      "nzIS": 3581,
      "uvm": 3582,
      "EktIN": 3583,
      "AdZIk": 3584,
      "fEns": 3585,
      "lEts": 3586,
      "skj": 3587,
      "ndVktr": 3588,
      "fejsIN": 3589,
      "Impi": 3590,
      "bowld": 3591,
      "wAts": 3592,
      "IdZEktId": 3593,
      "dEkejd": 3594,
      "Ilaj": 3595,
      "vEntS": 3596,
      "sEnsr": 3597,
      "ajli": 3598,
      "EmIks": 3599,
      "Sild": 3600,
      "lun": 3601,
      "IndOr": 3602,
      "wejni": 3603,
      "stS": 3604,
      "mpit": 3605,
      "lEpt": 3606,
      "dZIsts": 3607,
      "sEsIN": 3608,
      "Iksajt": 3609,
      "hVd": 3610,
      "mIstejk": 3611,
      "tSm": 3612,
      "tSajldhUd": 3613,
      "nEls": 3614,
      "bstr": 3615,
      "mn": 3616,
      "gVlf": 3617,
      "iu": 3618,
      "nEnt": 3619,
      "fISIN": 3620,
      "bEndZ": 3621,
      "spAnd": 3622,
      "dIpIkt": 3623,
      "slId": 3624,
      "tAd": 3625,
      "SIf": 3626,
      "mplej": 3627,
      "twIst": 3628,
      "wikEnd": 3629,
      "sum": 3630,
      "pVtIN": 3631,
      "spl": 3632,
      "gt": 3633,
      "hajl": 3634,
      "lIl": 3635,
      "kEnj": 3636,
      "bAbi": 3637,
      "Enh": 3638,
      "blr": 3639,
      "kVnd": 3640,
      "kwIz": 3641,
      "howpt": 3642,
      "jEl": 3643,
      "mowtIv": 3644,
      "stEm": 3645,
      "mIT": 3646,
      "dZO": 3647,
      "ulIN": 3648,
      "kAp": 3649,
      "owsp": 3650,
      "TAn": 3651,
      "kwIn": 3652,
      "tAmps": 3653,
      "vjud": 3654,
      "pit": 3655,
      "sVlt": 3656,
      "tul": 3657,
      "kowm": 3658,
      "klowzIN": 3659,
      "pAmr": 3660,
      "iOr": 3661,
      "gAdz": 3662,
      "nE": 3663,
      "IdZIpS": 3664,
      "ejbi": 3665,
      "tVtSt": 3666,
      "hejg": 3667,
      "sv": 3668,
      "ejzr": 3669,
      "mpSr": 3670,
      "fjun": 3671,
      "SO": 3672,
      "ndfADr": 3673,
      "tEnt": 3674,
      "wIdT": 3675,
      "vjur": 3676,
      "vIS": 3677,
      "pAvr": 3678,
      "kInz": 3679,
      "zES": 3680,
      "blV": 3681,
      "mits": 3682,
      "pIst": 3683,
      "tejlz": 3684,
      "mejntejn": 3685,
      "owtr": 3686,
      "dIvOr": 3687,
      "lVvr": 3688,
      "Ukl": 3689,
      "skim": 3690,
      "NIN": 3691,
      "dIzajnz": 3692,
      "mVm": 3693,
      "gIn": 3694,
      "Inskr": 3695,
      "Tu": 3696,
      "SIn": 3697,
      "dZud": 3698,
      "sAk": 3699,
      "vOr": 3700,
      "Ilig": 3701,
      "muviz": 3702,
      "EdIts": 3703,
      "ajld": 3704,
      "Atr": 3705,
      "jugows": 3706,
      "hEndr": 3707,
      "ajzIz": 3708,
      "ejr": 3709,
      "pejm": 3710,
      "kwowt": 3711,
      "owSi": 3712,
      "kdAn": 3713,
      "ntAr": 3714,
      "inr": 3715,
      "sVmhaw": 3716,
      "InhEr": 3717,
      "InOgr": 3718,
      "dIdn": 3719,
      "hajpr": 3720,
      "sInd": 3721,
      "mInr": 3722,
      "nsVlt": 3723,
      "pVNk": 3724,
      "Odwej": 3725,
      "imd": 3726,
      "owtSt": 3727,
      "ndskejp": 3728,
      "swE": 3729,
      "Eskow": 3730,
      "lItIk": 3731,
      "Alf": 3732,
      "muvz": 3733,
      "nsumr": 3734,
      "uk": 3735,
      "fjUr": 3736,
      "ItSm": 3737,
      "sojl": 3738,
      "lINkt": 3739,
      "hVntIN": 3740,
      "bjus": 3741,
      "pAnt": 3742,
      "dIzni": 3743,
      "najf": 3744,
      "nAg": 3745,
      "IntEntS": 3746,
      "minwajl": 3747,
      "Nz": 3748,
      "nINz": 3749,
      "tejni": 3750,
      "bajt": 3751,
      "iplejs": 3752,
      "vAlibOl": 3753,
      "lajg": 3754,
      "filINz": 3755,
      "ONg": 3756,
      "bin": 3757,
      "mjut": 3758,
      "kejtId": 3759,
      "luTr": 3760,
      "Indid": 3761,
      "klOr": 3762,
      "ejlIN": 3763,
      "IdIS": 3764,
      "tSbIS": 3765,
      "IzOr": 3766,
      "ejmi": 3767,
      "dItEktIv": 3768,
      "Agow": 3769,
      "nbA": 3770,
      "jul": 3771,
      "fIlmAgr": 3772,
      "Ok": 3773,
      "InkVmb": 3774,
      "bAksr": 3775,
      "kAks": 3776,
      "vEnuz": 3777,
      "bownz": 3778,
      "dl": 3779,
      "bIzi": 3780,
      "ejtT": 3781,
      "pEnt": 3782,
      "gug": 3783,
      "umd": 3784,
      "gVst": 3785,
      "fIltr": 3786,
      "Nki": 3787,
      "sil": 3788,
      "SVv": 3789,
      "mIlz": 3790,
      "tidZIk": 3791,
      "slejS": 3792,
      "ejdId": 3793,
      "gIni": 3794,
      "bdZEktIv": 3795,
      "Vfli": 3796,
      "fAstr": 3797,
      "dIstINkt": 3798,
      "silIN": 3799,
      "Siejt": 3800,
      "mINh": 3801,
      "Istin": 3802,
      "hIsp": 3803,
      "dZInz": 3804,
      "swOr": 3805,
      "Abzr": 3806,
      "bul": 3807,
      "bajb": 3808,
      "hElIk": 3809,
      "dZIt": 3810,
      "mows": 3811,
      "wAndr": 3812,
      "mowtIvz": 3813,
      "vIdiowz": 3814,
      "tEsts": 3815,
      "tajz": 3816,
      "Estowni": 3817,
      "lEstr": 3818,
      "bajow": 3819,
      "vowd": 3820,
      "but": 3821,
      "dutiz": 3822,
      "dIsajd": 3823,
      "mU": 3824,
      "stVdiIN": 3825,
      "tImbr": 3826,
      "lEz": 3827,
      "InsIst": 3828,
      "Ints": 3829,
      "bEntS": 3830,
      "lowg": 3831,
      "gwej": 3832,
      "Tdej": 3833,
      "gaw": 3834,
      "nVt": 3835,
      "ktIr": 3836,
      "dis": 3837,
      "kUr": 3838,
      "knAl": 3839,
      "sVmwVt": 3840,
      "vEnt": 3841,
      "kbz": 3842,
      "fajld": 3843,
      "blAks": 3844,
      "pdejt": 3845,
      "fIfti": 3846,
      "ntInjuIN": 3847,
      "pajn": 3848,
      "dIspjut": 3849,
      "Vbz": 3850,
      "lEktr": 3851,
      "hIst": 3852,
      "lVki": 3853,
      "majnOr": 3854,
      "pikt": 3855,
      "howpIN": 3856,
      "Sit": 3857,
      "hAns": 3858,
      "flr": 3859,
      "Elm": 3860,
      "dZEntli": 3861,
      "smowk": 3862,
      "Vltr": 3863,
      "bOld": 3864,
      "mOT": 3865,
      "owtEst": 3866,
      "mIg": 3867,
      "skwiz": 3868,
      "bzOr": 3869,
      "ftId": 3870,
      "sOftli": 3871,
      "Epj": 3872,
      "tSuEr": 3873,
      "sejvd": 3874,
      "pEd": 3875,
      "OtAn": 3876,
      "dnA": 3877,
      "lONg": 3878,
      "dowmejn": 3879,
      "vowtr": 3880,
      "klowDIN": 3881,
      "ndEmIk": 3882,
      "Uif": 3883,
      "IgzIb": 3884,
      "lEDr": 3885,
      "ubi": 3886,
      "pS": 3887,
      "lIg": 3888,
      "nfjuzd": 3889,
      "dZEsi": 3890,
      "kAntEkst": 3891,
      "kApr": 3892,
      "Eksk": 3893,
      "Abi": 3894,
      "mjunz": 3895,
      "SApIN": 3896,
      "Adz": 3897,
      "jutub": 3898,
      "mVtr": 3899,
      "kv": 3900,
      "dejbjud": 3901,
      "dZIkts": 3902,
      "ajsl": 3903,
      "sVbdZIkts": 3904,
      "bEli": 3905,
      "fajlz": 3906,
      "sEkts": 3907,
      "mjUr": 3908,
      "tulz": 3909,
      "hEns": 3910,
      "kowtSIN": 3911,
      "slejtSr": 3912,
      "dEpT": 3913,
      "vejk": 3914,
      "pojz": 3915,
      "Vpl": 3916,
      "tEkts": 3917,
      "InfEkS": 3918,
      "Esp": 3919,
      "sejlr": 3920,
      "Ami": 3921,
      "kVlt": 3922,
      "najm": 3923,
      "twr": 3924,
      "ejnr": 3925,
      "Ekow": 3926,
      "hVni": 3927,
      "lgbt": 3928,
      "kwIt": 3929,
      "sajtejS": 3930,
      "lojd": 3931,
      "bIgVn": 3932,
      "taw": 3933,
      "NkS": 3934,
      "klInt": 3935,
      "sAks": 3936,
      "zAn": 3937,
      "tSO": 3938,
      "sejvIN": 3939,
      "wEs": 3940,
      "kiAl": 3941,
      "Aw": 3942,
      "swImr": 3943,
      "ndmAr": 3944,
      "fajbr": 3945,
      "wIlst": 3946,
      "hOf": 3947,
      "jug": 3948,
      "sidZ": 3949,
      "Iplejsm": 3950,
      "pItSr": 3951,
      "hEn": 3952,
      "pgr": 3953,
      "Insajkl": 3954,
      "zEnts": 3955,
      "ilajz": 3956,
      "dImAl": 3957,
      "hejl": 3958,
      "Emplojm": 3959,
      "wejvz": 3960,
      "nir": 3961,
      "tajzIN": 3962,
      "kfk": 3963,
      "fOls": 3964,
      "owbi": 3965,
      "EgzIt": 3966,
      "iejts": 3967,
      "fEn": 3968,
      "hEdIN": 3969,
      "gIlti": 3970,
      "spIS": 3971,
      "klEm": 3972,
      "klO": 3973,
      "bAzni": 3974,
      "howsts": 3975,
      "dows": 3976,
      "dIfitIN": 3977,
      "bmIt": 3978,
      "sidz": 3979,
      "hAst": 3980,
      "waji": 3981,
      "Sawr": 3982,
      "AnIks": 3983,
      "skawt": 3984,
      "fowl": 3985,
      "bIlif": 3986,
      "tSIp": 3987,
      "hOks": 3988,
      "EndZojd": 3989,
      "hajbr": 3990,
      "swIN": 3991,
      "ONli": 3992,
      "ejvz": 3993,
      "INr": 3994,
      "fOlt": 3995,
      "kajvz": 3996,
      "IspAndId": 3997,
      "lINg": 3998,
      "tEknik": 3999,
      "iDIN": 4000,
      "spEndIN": 4001,
      "Infl": 4002,
      "klowZr": 4003,
      "dZAbz": 4004,
      "lIni": 4005,
      "lIstIk": 4006,
      "Itejnd": 4007,
      "dOn": 4008,
      "stejnd": 4009,
      "EskOr": 4010,
      "fjunr": 4011,
      "IbElj": 4012,
      "bAksIN": 4013,
      "IdIkt": 4014,
      "mud": 4015,
      "dusIz": 4016,
      "sIgnIfIk": 4017,
      "gIb": 4018,
      "mjunIk": 4019,
      "blejd": 4020,
      "klOz": 4021,
      "owkr": 4022,
      "lEbr": 4023,
      "nIg": 4024,
      "dZEm": 4025,
      "dowm": 4026,
      "mEz": 4027,
      "SEltr": 4028,
      "kVn": 4029,
      "dVlts": 4030,
      "ejbr": 4031,
      "sajnIN": 4032,
      "Taj": 4033,
      "ANg": 4034,
      "ng": 4035,
      "bitIN": 4036,
      "howz": 4037,
      "pIg": 4038,
      "nvIns": 4039,
      "ejtin": 4040,
      "filz": 4041,
      "kOf": 4042,
      "flowz": 4043,
      "kuvr": 4044,
      "dIpEndIN": 4045,
      "stajlz": 4046,
      "jutIl": 4047,
      "nvIl": 4048,
      "IstIks": 4049,
      "vAljumz": 4050,
      "ful": 4051,
      "SE": 4052,
      "dImAkr": 4053,
      "fIlmd": 4054,
      "dOs": 4055,
      "howlm": 4056,
      "lIkw": 4057,
      "pajp": 4058,
      "dZImn": 4059,
      "tAmi": 4060,
      "plejOfs": 4061,
      "nAmi": 4062,
      "wejZ": 4063,
      "finIks": 4064,
      "tEs": 4065,
      "dZejmi": 4066,
      "vowtIN": 4067,
      "lejdiz": 4068,
      "klVstr": 4069,
      "blAnd": 4070,
      "dZAS": 4071,
      "dIskVs": 4072,
      "hElIkAptr": 4073,
      "tum": 4074,
      "Antr": 4075,
      "wajldlajf": 4076,
      "sVN": 4077,
      "ojdz": 4078,
      "lAti": 4079,
      "lVN": 4080,
      "ejlwejz": 4081,
      "bsIdi": 4082,
      "SejkIN": 4083,
      "powli": 4084,
      "stEd": 4085,
      "wIs": 4086,
      "kVv": 4087,
      "nEst": 4088,
      "sEmifajn": 4089,
      "sEptr": 4090,
      "sIkstin": 4091,
      "dAgz": 4092,
      "Ngj": 4093,
      "gdZEsts": 4094,
      "sVt": 4095,
      "dZVmpt": 4096,
      "sIndr": 4097,
      "lEtIN": 4098,
      "ntIst": 4099,
      "slejv": 4100,
      "kowk": 4101,
      "luiz": 4102,
      "ksown": 4103,
      "flES": 4104,
      "pAtr": 4105,
      "ZIN": 4106,
      "mUhAm": 4107,
      "bm": 4108,
      "tVnz": 4109,
      "fEld": 4110,
      "bO": 4111,
      "TEtIk": 4112,
      "EmIli": 4113,
      "VptId": 4114,
      "glu": 4115,
      "owh": 4116,
      "bAmr": 4117,
      "jowhAn": 4118,
      "dawnz": 4119,
      "fVk": 4120,
      "nIdZ": 4121,
      "gejbr": 4122,
      "imajnd": 4123,
      "luis": 4124,
      "pOzd": 4125,
      "fajz": 4126,
      "Amp": 4127,
      "lINt": 4128,
      "IkwIpt": 4129,
      "bil": 4130,
      "tEd": 4131,
      "slipIN": 4132,
      "IslAm": 4133,
      "stli": 4134,
      "ptIv": 4135,
      "vajvr": 4136,
      "nkuvr": 4137,
      "dajIN": 4138,
      "Vnkr": 4139,
      "lEkts": 4140,
      "bajr": 4141,
      "gIg": 4142,
      "piz": 4143,
      "zEntejS": 4144,
      "sEpts": 4145,
      "nkluZ": 4146,
      "nbk": 4147,
      "Tk": 4148,
      "pAli": 4149,
      "sEf": 4150,
      "duow": 4151,
      "AsEsIN": 4152,
      "vojvowd": 4153,
      "spt": 4154,
      "ldZIr": 4155,
      "IplejsIN": 4156,
      "mVNst": 4157,
      "lVks": 4158,
      "EtSt": 4159,
      "mVndi": 4160,
      "dvajs": 4161,
      "flEks": 4162,
      "bIh": 4163,
      "wOld": 4164,
      "lejz": 4165,
      "kAlInz": 4166,
      "bim": 4167,
      "tEt": 4168,
      "vini": 4169,
      "Ikspowzd": 4170,
      "smajlIN": 4171,
      "hAk": 4172,
      "Invr": 4173,
      "lVntS": 4174,
      "jusf": 4175,
      "pOz": 4176,
      "mIlk": 4177,
      "awtdOr": 4178,
      "dZEstSr": 4179,
      "mejts": 4180,
      "ElIs": 4181,
      "dIfaj": 4182,
      "nejtr": 4183,
      "stIr": 4184,
      "kejts": 4185,
      "wAntIN": 4186,
      "hk": 4187,
      "fVni": 4188,
      "blum": 4189,
      "stVk": 4190,
      "vajvIN": 4191,
      "vir": 4192,
      "najnT": 4193,
      "swAn": 4194,
      "tOkt": 4195,
      "nAkt": 4196,
      "jejl": 4197,
      "kiT": 4198,
      "downejt": 4199,
      "dInajd": 4200,
      "sikIN": 4201,
      "bADr": 4202,
      "pojntIN": 4203,
      "mejkVp": 4204,
      "Suz": 4205,
      "mAs": 4206,
      "InvAlvm": 4207,
      "bEg": 4208,
      "mitINz": 4209,
      "bejr": 4210,
      "zIz": 4211,
      "Ald": 4212,
      "nw": 4213,
      "kbr": 4214,
      "bVtlr": 4215,
      "blejk": 4216,
      "pEz": 4217,
      "dImAlISt": 4218,
      "vu": 4219,
      "IstSi": 4220,
      "iInfOr": 4221,
      "tfr": 4222,
      "hjumr": 4223,
      "IzEmb": 4224,
      "hVds": 4225,
      "tsr": 4226,
      "InfluEntS": 4227,
      "jVNg": 4228,
      "sejkr": 4229,
      "mbow": 4230,
      "glEr": 4231,
      "lst": 4232,
      "mpliS": 4233,
      "fEd": 4234,
      "ElIk": 4235,
      "pIks": 4236,
      "nstajn": 4237,
      "klaw": 4238,
      "towz": 4239,
      "Dz": 4240,
      "spajr": 4241,
      "bn": 4242,
      "slIpt": 4243,
      "IlisIz": 4244,
      "nuk": 4245,
      "isINli": 4246,
      "Isti": 4247,
      "dIklajn": 4248,
      "nut": 4249,
      "tEksts": 4250,
      "pjup": 4251,
      "Timz": 4252,
      "nIkowl": 4253,
      "iAr": 4254,
      "igr": 4255,
      "pEnd": 4256,
      "Imowt": 4257,
      "dIklajnd": 4258,
      "gEsts": 4259,
      "ImOr": 4260,
      "vwAr": 4261,
      "glejS": 4262,
      "num": 4263,
      "dIpIk": 4264,
      "mpitIN": 4265,
      "mid": 4266,
      "vojst": 4267,
      "owlt": 4268,
      "gOl": 4269,
      "slowvAki": 4270,
      "sIlv": 4271,
      "INh": 4272,
      "mVnTli": 4273,
      "hIndu": 4274,
      "nvi": 4275,
      "dZejl": 4276,
      "Iln": 4277,
      "IkspEnsIv": 4278,
      "lIdZ": 4279,
      "ejj": 4280,
      "sEkt": 4281,
      "dVNk": 4282,
      "bsIdiEr": 4283,
      "plEz": 4284,
      "najz": 4285,
      "itejl": 4286,
      "idz": 4287,
      "mejzIN": 4288,
      "tEndIN": 4289,
      "Ipts": 4290,
      "fjuz": 4291,
      "IntIN": 4292,
      "Ants": 4293,
      "bajn": 4294,
      "IkwejZ": 4295,
      "idi": 4296,
      "sEsm": 4297,
      "bIlONd": 4298,
      "Anti": 4299,
      "sOdi": 4300,
      "skVlptr": 4301,
      "lEktSu": 4302,
      "Elr": 4303,
      "dAt": 4304,
      "kVtIN": 4305,
      "mAsk": 4306,
      "vojvowdSIp": 4307,
      "vejtr": 4308,
      "lajftajm": 4309,
      "kustIk": 4310,
      "dVk": 4311,
      "ejvr": 4312,
      "kz": 4313,
      "dowl": 4314,
      "Asi": 4315,
      "awtbr": 4316,
      "AnsAmb": 4317,
      "nsmIS": 4318,
      "majnz": 4319,
      "flV": 4320,
      "Idli": 4321,
      "owtEsts": 4322,
      "Imjun": 4323,
      "IgzOst": 4324,
      "gAnz": 4325,
      "Sajn": 4326,
      "stAn": 4327,
      "vaw": 4328,
      "gk": 4329,
      "fowtowz": 4330,
      "dajz": 4331,
      "dZIl": 4332,
      "dItejld": 4333,
      "vEnju": 4334,
      "OsIz": 4335,
      "ApIN": 4336,
      "kjuz": 4337,
      "ONr": 4338,
      "zejn": 4339,
      "Ebr": 4340,
      "pawnd": 4341,
      "lEdZd": 4342,
      "pEst": 4343,
      "pejdr": 4344,
      "Oskr": 4345,
      "imuv": 4346,
      "sIlk": 4347,
      "kEni": 4348,
      "owlIvi": 4349,
      "pAnd": 4350,
      "ajsow": 4351,
      "EniwEr": 4352,
      "ajOr": 4353,
      "zIm": 4354,
      "Sejm": 4355,
      "bVb": 4356,
      "bejZIN": 4357,
      "hm": 4358,
      "nvIkt": 4359,
      "spEkj": 4360,
      "gnEtIk": 4361,
      "{@": 4362,
      "nIdZIN": 4363,
      "lEni": 4364,
      "ejSiow": 4365,
      "dipli": 4366,
      "izir": 4367,
      "kajr": 4368,
      "sINk": 4369,
      "owZr": 4370,
      "stejk": 4371,
      "sIli": 4372,
      "Ekf": 4373,
      "awtpUt": 4374,
      "spIl": 4375,
      "owst": 4376,
      "nAks": 4377,
      "IspAnd": 4378,
      "kAd": 4379,
      "fejd": 4380,
      "spEnsr": 4381,
      "lum": 4382,
      "AdIk": 4383,
      "TVm": 4384,
      "dZAv": 4385,
      "iejtr": 4386,
      "mAhr": 4387,
      "kawnsIlr": 4388,
      "stEdi": 4389,
      "ejndr": 4390,
      "kawntIN": 4391,
      "niv": 4392,
      "InINz": 4393,
      "ejdAr": 4394,
      "uvIN": 4395,
      "Iskejpt": 4396,
      "pejtIN": 4397,
      "Uks": 4398,
      "IdZu": 4399,
      "bAd": 4400,
      "mInstr": 4401,
      "slajt": 4402,
      "bejsm": 4403,
      "kIdn": 4404,
      "lajtIN": 4405,
      "sidIN": 4406,
      "wIDdr": 4407,
      "IfEktIvli": 4408,
      "fIlmIN": 4409,
      "slowvini": 4410,
      "ltejni": 4411,
      "lejmd": 4412,
      "Elpi": 4413,
      "fElowz": 4414,
      "Alv": 4415,
      "sImpl": 4416,
      "ksES": 4417,
      "ejndZIN": 4418,
      "mI": 4419,
      "InspEktr": 4420,
      "sEmb": 4421,
      "tejp": 4422,
      "VpsEt": 4423,
      "sIsts": 4424,
      "stIm": 4425,
      "bUr": 4426,
      "wejvd": 4427,
      "Sinz": 4428,
      "dajs": 4429,
      "owbAt": 4430,
      "dEnvr": 4431,
      "sVpl": 4432,
      "nvInst": 4433,
      "ISn": 4434,
      "vn": 4435,
      "bIhej": 4436,
      "lajnr": 4437,
      "Tlit": 4438,
      "mIksIN": 4439,
      "ndejS": 4440,
      "sowp": 4441,
      "bdu": 4442,
      "sajnm": 4443,
      "sIlown": 4444,
      "nO": 4445,
      "ilowk": 4446,
      "vVlnr": 4447,
      "Ilit": 4448,
      "sivr": 4449,
      "kowlIn": 4450,
      "swIft": 4451,
      "tSiks": 4452,
      "powstId": 4453,
      "ajks": 4454,
      "dZVdZm": 4455,
      "lEnr": 4456,
      "nowl": 4457,
      "Ekspl": 4458,
      "ajp": 4459,
      "bEnd": 4460,
      "tajn": 4461,
      "hibr": 4462,
      "lAvi": 4463,
      "najntin": 4464,
      "klejmIN": 4465,
      "howlz": 4466,
      "bajdZAn": 4467,
      "mOs": 4468,
      "Vsn": 4469,
      "pUSIN": 4470,
      "sIpi": 4471,
      "SAts": 4472,
      "Inkwajr": 4473,
      "hajdIN": 4474,
      "fts": 4475,
      "gO": 4476,
      "blVdi": 4477,
      "tSej": 4478,
      "sET": 4479,
      "faw": 4480,
      "Inspr": 4481,
      "pinow": 4482,
      "tEnjr": 4483,
      "tVtSdawn": 4484,
      "ajdId": 4485,
      "ojm": 4486,
      "EndSIp": 4487,
      "flajz": 4488,
      "IkAl": 4489,
      "dIT": 4490,
      "slajd": 4491,
      "Vsk": 4492,
      "ajlz": 4493,
      "lajl": 4494,
      "mANg": 4495,
      "ejtli": 4496,
      "IksplowZ": 4497,
      "mowld": 4498,
      "owdZ": 4499,
      "sAg": 4500,
      "tEmptIN": 4501,
      "gnr": 4502,
      "mt": 4503,
      "howml": 4504,
      "stAps": 4505,
      "wawnd": 4506,
      "tajzd": 4507,
      "dIfEndIN": 4508,
      "vajbr": 4509,
      "nsAl": 4510,
      "gIld": 4511,
      "bowz": 4512,
      "Nr": 4513,
      "lAts": 4514,
      "bENgOl": 4515,
      "siEr": 4516,
      "sAv": 4517,
      "Otow": 4518,
      "itow": 4519,
      "fn": 4520,
      "fEDr": 4521,
      "bist": 4522,
      "stIf": 4523,
      "kAb": 4524,
      "swr": 4525,
      "wajdspr": 4526,
      "gU": 4527,
      "Imejndr": 4528,
      "kAli": 4529,
      "iIs": 4530,
      "klOd": 4531,
      "ZAk": 4532,
      "ajdZ": 4533,
      "bOlz": 4534,
      "fOn": 4535,
      "IgzIsts": 4536,
      "mVd": 4537,
      "InsEkts": 4538,
      "ktIvli": 4539,
      "klu": 4540,
      "dZiAl": 4541,
      "gp": 4542,
      "ktId": 4543,
      "sajpr": 4544,
      "Espr": 4545,
      "gIlbr": 4546,
      "nowbAdi": 4547,
      "dZEni": 4548,
      "lejzr": 4549,
      "bIlONIN": 4550,
      "bejd": 4551,
      "bejli": 4552,
      "wowk": 4553,
      "lEN": 4554,
      "tuts": 4555,
      "bjuz": 4556,
      "iowz": 4557,
      "mpl": 4558,
      "tvi": 4559,
      "sImpt": 4560,
      "nAp": 4561,
      "ejIN": 4562,
      "dIvowt": 4563,
      "bajk": 4564,
      "flEd": 4565,
      "kIkt": 4566,
      "bIgr": 4567,
      "dIks": 4568,
      "pir": 4569,
      "fAnt": 4570,
      "nejbOr": 4571,
      "sIgr": 4572,
      "fin": 4573,
      "nejtId": 4574,
      "Nglow": 4575,
      "IkstEnt": 4576,
      "Tuzi": 4577,
      "EndOr": 4578,
      "bejl": 4579,
      "btejn": 4580,
      "IbjutIN": 4581,
      "ejps": 4582,
      "zEn": 4583,
      "sAvr": 4584,
      "ndEz": 4585,
      "zOr": 4586,
      "iTi": 4587,
      "bum": 4588,
      "fAl": 4589,
      "soj": 4590,
      "sejk": 4591,
      "dilIN": 4592,
      "dwEl": 4593,
      "Afaj": 4594,
      "Zim": 4595,
      "InOr": 4596,
      "wElTi": 4597,
      "np": 4598,
      "vEst": 4599,
      "dON": 4600,
      "plejsIN": 4601,
      "Iki": 4602,
      "dIskVst": 4603,
      "iTiowpi": 4604,
      "bojfr": 4605,
      "IntEnt": 4606,
      "kVts": 4607,
      "owts": 4608,
      "kIts": 4609,
      "ksElr": 4610,
      "SvIl": 4611,
      "wIli": 4612,
      "mowtow": 4613,
      "fownz": 4614,
      "IwOr": 4615,
      "vId": 4616,
      "kEt": 4617,
      "hjuz": 4618,
      "IdZr": 4619,
      "iks": 4620,
      "stejks": 4621,
      "powt": 4622,
      "nEktIN": 4623,
      "goj": 4624,
      "dIspr": 4625,
      "kawtS": 4626,
      "tSiz": 4627,
      "nbEr": 4628,
      "ImbEr": 4629,
      "gATIk": 4630,
      "lip": 4631,
      "gAsp": 4632,
      "lIbi": 4633,
      "ib": 4634,
      "wIndz": 4635,
      "EdItr": 4636,
      "sAns": 4637,
      "bElgr": 4638,
      "INks": 4639,
      "stejIN": 4640,
      "nur": 4641,
      "dZudIS": 4642,
      "dEmIks": 4643,
      "nejT": 4644,
      "ElswEr": 4645,
      "bItS": 4646,
      "ndZIz": 4647,
      "TwEstr": 4648,
      "ajkAn": 4649,
      "ajbIN": 4650,
      "wOki": 4651,
      "smr": 4652,
      "dIplojd": 4653,
      "Eksploj": 4654,
      "fIlIps": 4655,
      "wElfEr": 4656,
      "wIdow": 4657,
      "vk": 4658,
      "dIsb": 4659,
      "skEtS": 4660,
      "db": 4661,
      "fId": 4662,
      "sb": 4663,
      "ejmwr": 4664,
      "lajzIz": 4665,
      "tE": 4666,
      "Vnk": 4667,
      "utr": 4668,
      "kANgow": 4669,
      "dZowh": 4670,
      "wOks": 4671,
      "dIsplejd": 4672,
      "utSi": 4673,
      "dIsmIst": 4674,
      "ivd": 4675,
      "SV": 4676,
      "ajkr": 4677,
      "bjusIn": 4678,
      "gowlkipr": 4679,
      "Ampt": 4680,
      "kANkr": 4681,
      "jU": 4682,
      "IdAm": 4683,
      "bb": 4684,
      "ivEndZ": 4685,
      "snejk": 4686,
      "Izbejn": 4687,
      "dEnts": 4688,
      "hOlt": 4689,
      "bIlz": 4690,
      "ejsIz": 4691,
      "EngejdZm": 4692,
      "Sli": 4693,
      "kjumj": 4694,
      "lajnIN": 4695,
      "sImj": 4696,
      "nTAl": 4697,
      "mIdnajt": 4698,
      "owvi": 4699,
      "EkspOr": 4700,
      "wOlt": 4701,
      "pst": 4702,
      "dZini": 4703,
      "ibIlt": 4704,
      "igow": 4705,
      "mAnwEl": 4706,
      "AfajEl": 4707,
      "VstId": 4708,
      "EsId": 4709,
      "kajl": 4710,
      "pVblIkli": 4711,
      "ndmVDr": 4712,
      "AngowIN": 4713,
      "lAbi": 4714,
      "blaj": 4715,
      "gVt": 4716,
      "utId": 4717,
      "lVg": 4718,
      "mejz": 4719,
      "glaj": 4720,
      "kjul": 4721,
      "fO": 4722,
      "zAm": 4723,
      "dItejl": 4724,
      "skEl": 4725,
      "kumAr": 4726,
      "hajts": 4727,
      "wajdr": 4728,
      "sejn": 4729,
      "nfjuZ": 4730,
      "maws": 4731,
      "sig": 4732,
      "ndAr": 4733,
      "kwI": 4734,
      "Vbr": 4735,
      "towm": 4736,
      "tajlr": 4737,
      "Oldr": 4738,
      "sdIkS": 4739,
      "gIN": 4740,
      "SEpr": 4741,
      "Imuv": 4742,
      "Vps": 4743,
      "stImj": 4744,
      "bEvr": 4745,
      "bik": 4746,
      "mIdl": 4747,
      "slAv": 4748,
      "slejvz": 4749,
      "Ofski": 4750,
      "AsIk": 4751,
      "hElps": 4752,
      "lIftIN": 4753,
      "ntEnd": 4754,
      "tuT": 4755,
      "dAnt": 4756,
      "sejlIN": 4757,
      "howzej": 4758,
      "Amr": 4759,
      "dIvr": 4760,
      "dVsn": 4761,
      "fejsbUk": 4762,
      "ENT": 4763,
      "ajtINz": 4764,
      "swEt": 4765,
      "hUdz": 4766,
      "him": 4767,
      "pUts": 4768,
      "IkspowZr": 4769,
      "nslejtr": 4770,
      "IbIt": 4771,
      "ljuejS": 4772,
      "lVd": 4773,
      "kAnv": 4774,
      "mAntg": 4775,
      "nejlz": 4776,
      "itiz": 4777,
      "klajmd": 4778,
      "fajs": 4779,
      "wElINt": 4780,
      "idIN": 4781,
      "niZ": 4782,
      "ilowkejtId": 4783,
      "lIstIni": 4784,
      "IlVkt": 4785,
      "wIts": 4786,
      "fEkS": 4787,
      "spAts": 4788,
      "pVb": 4789,
      "ivz": 4790,
      "owdr": 4791,
      "zks": 4792,
      "Isajs": 4793,
      "hejli": 4794,
      "nejts": 4795,
      "pVnISm": 4796,
      "dipr": 4797,
      "lEkj": 4798,
      "plejts": 4799,
      "Uki": 4800,
      "vIst": 4801,
      "hAg": 4802,
      "wEns": 4803,
      "owsOft": 4804,
      "dojtS": 4805,
      "sir": 4806,
      "wk": 4807,
      "vIi": 4808,
      "pEti": 4809,
      "Otr": 4810,
      "IpIsk": 4811,
      "mAntr": 4812,
      "wUdnt": 4813,
      "mawnts": 4814,
      "lEnz": 4815,
      "nowtr": 4816,
      "slIp": 4817,
      "kwAdr": 4818,
      "InvEstr": 4819,
      "TINks": 4820,
      "dIlIbr": 4821,
      "blISIN": 4822,
      "Sutr": 4823,
      "blAg": 4824,
      "Sip": 4825,
      "lutli": 4826,
      "vajdr": 4827,
      "sEtlr": 4828,
      "dIstINkS": 4829,
      "pVz": 4830,
      "powzIN": 4831,
      "hUk": 4832,
      "dItEkt": 4833,
      "IkwEstId": 4834,
      "tAt": 4835,
      "hVb": 4836,
      "owzi": 4837,
      "ISIz": 4838,
      "powlz": 4839,
      "hAlow": 4840,
      "lpajn": 4841,
      "lIkt": 4842,
      "mItm": 4843,
      "owhIb": 4844,
      "Nhaj": 4845,
      "powlr": 4846,
      "wit": 4847,
      "Ivajzd": 4848,
      "hil": 4849,
      "dIsajdz": 4850,
      "bsk": 4851,
      "iEl": 4852,
      "stO": 4853,
      "pejIN": 4854,
      "nfIgjr": 4855,
      "IsIst": 4856,
      "owtow": 4857,
      "kejdZ": 4858,
      "tApIks": 4859,
      "mIts": 4860,
      "InvEnt": 4861,
      "plIk": 4862,
      "lINgwI": 4863,
      "powsts": 4864,
      "lAks": 4865,
      "klIN": 4866,
      "Etow": 4867,
      "kil": 4868,
      "sajtIN": 4869,
      "swItSt": 4870,
      "buts": 4871,
      "dIplowm": 4872,
      "kAmpawnd": 4873,
      "kAN": 4874,
      "lEsli": 4875,
      "VndZ": 4876,
      "upr": 4877,
      "vajzd": 4878,
      "kojnz": 4879,
      "sImps": 4880,
      "EpIk": 4881,
      "mIstIr": 4882,
      "swEr": 4883,
      "mowhAm": 4884,
      "bIldr": 4885,
      "sejld": 4886,
      "lajtnIN": 4887,
      "liAn": 4888,
      "ihEnsIv": 4889,
      "sinow": 4890,
      "linIN": 4891,
      "dEklr": 4892,
      "mAnti": 4893,
      "IkOld": 4894,
      "uzr": 4895,
      "gejb": 4896,
      "kAnfl": 4897,
      "SAps": 4898,
      "lud": 4899,
      "itSi": 4900,
      "IkwAl": 4901,
      "mpejnz": 4902,
      "sowlz": 4903,
      "skowS": 4904,
      "AT": 4905,
      "EntSt": 4906,
      "tOks": 4907,
      "vp": 4908,
      "tSIm": 4909,
      "bIlivz": 4910,
      "mOlt": 4911,
      "swejd": 4912,
      "ajdEntIk": 4913,
      "stAf": 4914,
      "fIlIp": 4915,
      "bEni": 4916,
      "bejts": 4917,
      "pAT": 4918,
      "ejsr": 4919,
      "Ivilz": 4920,
      "wOn": 4921,
      "nIpj": 4922,
      "ApsIs": 4923,
      "hIps": 4924,
      "mAntgVmr": 4925,
      "iAl": 4926,
      "lEktIN": 4927,
      "awm": 4928,
      "IgzIbIt": 4929,
      "nawnsm": 4930,
      "ajtIr": 4931,
      "mplitIN": 4932,
      "owtSIz": 4933,
      "nItSr": 4934,
      "flajts": 4935,
      "SEf": 4936,
      "nISt": 4937,
      "pg": 4938,
      "kOz": 4939,
      "ndsVn": 4940,
      "owlImpi": 4941,
      "hVg": 4942,
      "lVmb": 4943,
      "SIpIN": 4944,
      "lUr": 4945,
      "ilaj": 4946,
      "VmpS": 4947,
      "mEmwAr": 4948,
      "Odr": 4949,
      "htm": 4950,
      "hEzIt": 4951,
      "InIN": 4952,
      "vEktr": 4953,
      "fElowSIp": 4954,
      "jugowslAvi": 4955,
      "nspIr": 4956,
      "dZulz": 4957,
      "mIlwOki": 4958,
      "wIz": 4959,
      "spajn": 4960,
      "lajr": 4961,
      "spAndIN": 4962,
      "Tkwejk": 4963,
      "IzajdIN": 4964,
      "wAt": 4965,
      "tAlr": 4966,
      "fIlIN": 4967,
      "gowSiejS": 4968,
      "lIstId": 4969,
      "ists": 4970,
      "tEnT": 4971,
      "AptIk": 4972,
      "jutIN": 4973,
      "pItSt": 4974,
      "owmIN": 4975,
      "ivjud": 4976,
      "AtSi": 4977,
      "Ih": 4978,
      "plAz": 4979,
      "bskr": 4980,
      "btr": 4981,
      "sIvIk": 4982,
      "IkstINkt": 4983,
      "mejtId": 4984,
      "IkVvr": 4985,
      "midiIt": 4986,
      "ip": 4987,
      "vowlt": 4988,
      "InISiejt": 4989,
      "klVtS": 4990,
      "klajn": 4991,
      "uS": 4992,
      "wInst": 4993,
      "Endi": 4994,
      "hawzd": 4995,
      "SIvr": 4996,
      "ejnwA": 4997,
      "lAtinow": 4998,
      "pVm": 4999,
      "istajl": 5000,
      "pawdr": 5001,
      "VnIkspEkt": 5002,
      "mbOr": 5003,
      "IksklusIvli": 5004,
      "hOlwej": 5005,
      "hItIN": 5006,
      "nEks": 5007,
      "IgAr": 5008,
      "najzIN": 5009,
      "EsIks": 5010,
      "IstAn": 5011,
      "Ikskjus": 5012,
      "SAkt": 5013,
      "mowhAmEd": 5014,
      "tik": 5015,
      "bVsIz": 5016,
      "wz": 5017,
      "zA": 5018,
      "wEd": 5019,
      "niT": 5020,
      "zIn": 5021,
      "InvAlvz": 5022,
      "sAlv": 5023,
      "hEs": 5024,
      "TIs": 5025,
      "tajlz": 5026,
      "sAnIk": 5027,
      "bAts": 5028,
      "nEfju": 5029,
      "TiAl": 5030,
      "gAs": 5031,
      "lINgw": 5032,
      "twInz": 5033,
      "lEsr": 5034,
      "bVm": 5035,
      "mejnstr": 5036,
      "blIs": 5037,
      "wilz": 5038,
      "ntiz": 5039,
      "VnzwIk": 5040,
      "bAlIk": 5041,
      "sIts": 5042,
      "tIz": 5043,
      "bEs": 5044,
      "EstIN": 5045,
      "vIt": 5046,
      "IndVkt": 5047,
      "Inu": 5048,
      "mowtIN": 5049,
      "vIkr": 5050,
      "SEfild": 5051,
      "mpajld": 5052,
      "flejmz": 5053,
      "mowh": 5054,
      "ejtINz": 5055,
      "wAnd": 5056,
      "mVNk": 5057,
      "gmin": 5058,
      "mIgEl": 5059,
      "dnr": 5060,
      "Nkfr": 5061,
      "kVmbr": 5062,
      "mg": 5063,
      "sEnsejS": 5064,
      "Vbd": 5065,
      "hIndi": 5066,
      "wIlhElm": 5067,
      "jum": 5068,
      "owtinz": 5069,
      "ndbOl": 5070,
      "dejbjuz": 5071,
      "InkAr": 5072,
      "dIvajn": 5073,
      "dIstSAr": 5074,
      "iwEr": 5075,
      "lajks": 5076,
      "ndZElIk": 5077,
      "sowm": 5078,
      "kAmEnts": 5079,
      "fejlIN": 5080,
      "hEviwejt": 5081,
      "tSifs": 5082,
      "VktIv": 5083,
      "lajtli": 5084,
      "IkspEns": 5085,
      "kSAp": 5086,
      "Vsti": 5087,
      "mjutS": 5088,
      "bIlONz": 5089,
      "powlow": 5090,
      "Indow": 5091,
      "psi": 5092,
      "howmow": 5093,
      "flEr": 5094,
      "skejt": 5095,
      "sawTistr": 5096,
      "nin": 5097,
      "dInaj": 5098,
      "tSEkt": 5099,
      "Esejz": 5100,
      "vejn": 5101,
      "najtr": 5102,
      "nejdZr": 5103,
      "vElt": 5104,
      "fIlmejkr": 5105,
      "plejstejS": 5106,
      "lVvz": 5107,
      "lowgow": 5108,
      "awld": 5109,
      "Sejn": 5110,
      "tinejdZr": 5111,
      "dilr": 5112,
      "Imz": 5113,
      "pIlr": 5114,
      "sVni": 5115,
      "pIdZ": 5116,
      "swEpt": 5117,
      "pEk": 5118,
      "IspEktIv": 5119,
      "iAgr": 5120,
      "hw": 5121,
      "slejvr": 5122,
      "hejst": 5123,
      "wEnEvr": 5124,
      "ItSi": 5125,
      "bwej": 5126,
      "dwEr": 5127,
      "pOlow": 5128,
      "dfr": 5129,
      "stip": 5130,
      "owkt": 5131,
      "zEs": 5132,
      "lejts": 5133,
      "Ivil": 5134,
      "flEm": 5135,
      "lOn": 5136,
      "awnIN": 5137,
      "ilej": 5138,
      "hajlajt": 5139,
      "stOl": 5140,
      "ENg": 5141,
      "ajnz": 5142,
      "hd": 5143,
      "ndZAb": 5144,
      "pEg": 5145,
      "swAlowd": 5146,
      "jEld": 5147,
      "nowp": 5148,
      "zum": 5149,
      "dIlejd": 5150,
      "Elz": 5151,
      "bVg": 5152,
      "Izumd": 5153,
      "bajndIN": 5154,
      "kojn": 5155,
      "wejdZ": 5156,
      "mIkstSr": 5157,
      "mik": 5158,
      "juk": 5159,
      "mejnl": 5160,
      "ikAn": 5161,
      "dwOr": 5162,
      "spir": 5163,
      "ejdiejS": 5164,
      "TEt": 5165,
      "dawnlowd": 5166,
      "pId": 5167,
      "Egzajl": 5168,
      "bEti": 5169,
      "hElTi": 5170,
      "Eksplr": 5171,
      "pEpr": 5172,
      "ndEm": 5173,
      "Enzow": 5174,
      "spEnS": 5175,
      "stAkhowlm": 5176,
      "tIps": 5177,
      "nIknejm": 5178,
      "Iksplejnz": 5179,
      "tSOkl": 5180,
      "stVmb": 5181,
      "bw": 5182,
      "majndz": 5183,
      "gIlt": 5184,
      "ejdow": 5185,
      "NktSuEr": 5186,
      "sIf": 5187,
      "fAlowr": 5188,
      "sIbl": 5189,
      "iAdIk": 5190,
      "kowdz": 5191,
      "Aksajd": 5192,
      "pilz": 5193,
      "bmIS": 5194,
      "InvItejS": 5195,
      "Aj": 5196,
      "kApir": 5197,
      "dIvajsIn": 5198,
      "pejli": 5199,
      "nAb": 5200,
      "Alow": 5201,
      "Tistr": 5202,
      "kAnflIkts": 5203,
      "sajbr": 5204,
      "tunz": 5205,
      "kEnIT": 5206,
      "glejSr": 5207,
      "dZuejS": 5208,
      "kejk": 5209,
      "hItlr": 5210,
      "mplaj": 5211,
      "dmajr": 5212,
      "Edgr": 5213,
      "owsr": 5214,
      "fidIN": 5215,
      "zEt": 5216,
      "bAmIN": 5217,
      "lid": 5218,
      "jEstr": 5219,
      "stApIN": 5220,
      "vajzr": 5221,
      "dIzAlvd": 5222,
      "bawndz": 5223,
      "Sk": 5224,
      "NkINz": 5225,
      "Sejkspir": 5226,
      "dnt": 5227,
      "Emploji": 5228,
      "dIstINgwIS": 5229,
      "fAg": 5230,
      "hawz": 5231,
      "SwOr": 5232,
      "Tl": 5233,
      "tApIk": 5234,
      "tSElow": 5235,
      "usej": 5236,
      "ntiAgow": 5237,
      "sivz": 5238,
      "jild": 5239,
      "Evi": 5240,
      "owvAni": 5241,
      "ajdil": 5242,
      "sOs": 5243,
      "gejnz": 5244,
      "zmejni": 5245,
      "mT": 5246,
      "downejS": 5247,
      "gIs": 5248,
      "npr": 5249,
      "IkAr": 5250,
      "tVtSIN": 5251,
      "Zu": 5252,
      "tEns": 5253,
      "nAmis": 5254,
      "viEtnAmis": 5255,
      "owbAm": 5256,
      "Vtk": 5257,
      "mEts": 5258,
      "nojd": 5259,
      "nwOl": 5260,
      "imi": 5261,
      "flUr": 5262,
      "Ivl": 5263,
      "dZowk": 5264,
      "mbIS": 5265,
      "dSajr": 5266,
      "fjur": 5267,
      "hoj": 5268,
      "fajts": 5269,
      "pVls": 5270,
      "Tis": 5271,
      "kOk": 5272,
      "ndu": 5273,
      "ndlIN": 5274,
      "dikr": 5275,
      "sowsiAl": 5276,
      "sEltIk": 5277,
      "Emplojr": 5278,
      "spVn": 5279,
      "EndejndZr": 5280,
      "mtv": 5281,
      "mIlt": 5282,
      "fbi": 5283,
      "nis": 5284,
      "owsidINz": 5285,
      "bIhejvir": 5286,
      "ibr": 5287,
      "suts": 5288,
      "ntSEr": 5289,
      "kowlt": 5290,
      "hVt": 5291,
      "kAntEnts": 5292,
      "mEntow": 5293,
      "IlejtIN": 5294,
      "bwejnows": 5295,
      "tVl": 5296,
      "kAnsEpts": 5297,
      "dZI": 5298,
      "lEksi": 5299,
      "snOr": 5300,
      "jEr": 5301,
      "lEnt": 5302,
      "nI": 5303,
      "lowl": 5304,
      "sVsIks": 5305,
      "nEm": 5306,
      "skejtIN": 5307,
      "powk": 5308,
      "owf": 5309,
      "fUtIdZ": 5310,
      "hInt": 5311,
      "sfEr": 5312,
      "tsi": 5313,
      "nIkr": 5314,
      "gb": 5315,
      "fawnt": 5316,
      "towd": 5317,
      "mElt": 5318,
      "dVznt": 5319,
      "ndl": 5320,
      "plEnti": 5321,
      "fejk": 5322,
      "dimd": 5323,
      "dZEsIk": 5324,
      "nvinj": 5325,
      "nowS": 5326,
      "EfjudZiz": 5327,
      "sIp": 5328,
      "fivr": 5329,
      "lejawt": 5330,
      "SEn": 5331,
      "hajwejz": 5332,
      "klOT": 5333,
      "jAk": 5334,
      "sVNk": 5335,
      "mbA": 5336,
      "ndZIN": 5337,
      "ui": 5338,
      "lowp": 5339,
      "simIN": 5340,
      "mVmbaj": 5341,
      "lvr": 5342,
      "dmIS": 5343,
      "tajtli": 5344,
      "ejow": 5345,
      "blejm": 5346,
      "gowvin": 5347,
      "sawTwEstr": 5348,
      "lIstINz": 5349,
      "wIldr": 5350,
      "gur": 5351,
      "owtejS": 5352,
      "EmbAr": 5353,
      "sEksi": 5354,
      "wIzr": 5355,
      "Vtgr": 5356,
      "dipow": 5357,
      "lini": 5358,
      "mIm": 5359,
      "juv": 5360,
      "miow": 5361,
      "nId": 5362,
      "tEnr": 5363,
      "sIndIk": 5364,
      "klInIk": 5365,
      "kIlz": 5366,
      "vAs": 5367,
      "lik": 5368,
      "sajdIN": 5369,
      "IntId": 5370,
      "wejtId": 5371,
      "sIlvi": 5372,
      "dVkt": 5373,
      "bajsIk": 5374,
      "klajmIN": 5375,
      "tf": 5376,
      "gAv": 5377,
      "najtmEr": 5378,
      "dajnIN": 5379,
      "gejtIN": 5380,
      "bowlIN": 5381,
      "IvAlvd": 5382,
      "kEnzi": 5383,
      "SIm": 5384,
      "Iplaj": 5385,
      "hEtr": 5386,
      "gIf": 5387,
      "suIN": 5388,
      "sAbh": 5389,
      "tIsju": 5390,
      "sItIz": 5391,
      "lINz": 5392,
      "vajowl": 5393,
      "sAf": 5394,
      "howtElz": 5395,
      "Iksplowd": 5396,
      "Ild": 5397,
      "kAgn": 5398,
      "nowvr": 5399,
      "hajpAT": 5400,
      "ajkIN": 5401,
      "pIlgr": 5402,
      "lidZIt": 5403,
      "vEdZt": 5404,
      "dZiowvAni": 5405,
      "blINkt": 5406,
      "tOst": 5407,
      "kwIl": 5408,
      "InpUt": 5409,
      "Ilivd": 5410,
      "tni": 5411,
      "sVf": 5412,
      "jej": 5413,
      "nsejS": 5414,
      "dZEnd": 5415,
      "najtId": 5416,
      "ntejtr": 5417,
      "ajg": 5418,
      "pejnf": 5419,
      "ejpt": 5420,
      "sfajd": 5421,
      "kwEr": 5422,
      "dIstINktIv": 5423,
      "mAdZ": 5424,
      "gAmplej": 5425,
      "ntSr": 5426,
      "tEtr": 5427,
      "wUdl": 5428,
      "mejnz": 5429,
      "mAni": 5430,
      "kwIr": 5431,
      "majld": 5432,
      "dVktIv": 5433,
      "lajnm": 5434,
      "ImIS": 5435,
      "dejviz": 5436,
      "viz": 5437,
      "tw": 5438,
      "sAfIk": 5439,
      "bh": 5440,
      "AkS": 5441,
      "saw": 5442,
      "plejsm": 5443,
      "IkstEnsIvli": 5444,
      "bowIN": 5445,
      "zImbAb": 5446,
      "dZVNg": 5447,
      "nOt": 5448,
      "pisf": 5449,
      "ilisIN": 5450,
      "nIsts": 5451,
      "sajkow": 5452,
      "gowt": 5453,
      "mEnst": 5454,
      "dun": 5455,
      "nupOr": 5456,
      "nIntEnd": 5457,
      "nIntEndow": 5458,
      "nsVmpS": 5459,
      "pEni": 5460,
      "lVvIN": 5461,
      "iS": 5462,
      "kAnvoj": 5463,
      "plizd": 5464,
      "mpjutIN": 5465,
      "mowti": 5466,
      "hElTkEr": 5467,
      "pENgw": 5468,
      "zEst": 5469,
      "lajthaws": 5470,
      "dZVn": 5471,
      "ImpEr": 5472,
      "sItr": 5473,
      "DIN": 5474,
      "ojn": 5475,
      "InTuzi": 5476,
      "howps": 5477,
      "tEkn": 5478,
      "gnow": 5479,
      "kI": 5480,
      "wEstmInstr": 5481,
      "blEr": 5482,
      "kIsIN": 5483,
      "kwEns": 5484,
      "niS": 5485,
      "sizd": 5486,
      "pawndz": 5487,
      "howlt": 5488,
      "lownli": 5489,
      "dum": 5490,
      "kVlEkt": 5491,
      "owlm": 5492,
      "wajowmIN": 5493,
      "Indiz": 5494,
      "nejp": 5495,
      "IksplowsIv": 5496,
      "waw": 5497,
      "Igm": 5498,
      "wajpt": 5499,
      "tuniZ": 5500,
      "lEst": 5501,
      "InId": 5502,
      "pejz": 5503,
      "nsk": 5504,
      "SVvd": 5505,
      "kejsi": 5506,
      "sVbdIvIZ": 5507,
      "pVp": 5508,
      "ntAl": 5509,
      "tajmlajn": 5510,
      "ivIl": 5511,
      "ntOr": 5512,
      "bVd": 5513,
      "nhejg": 5514,
      "hilz": 5515,
      "stEfAn": 5516,
      "gAz": 5517,
      "wid": 5518,
      "Estlr": 5519,
      "mAz": 5520,
      "nklu": 5521,
      "najdr": 5522,
      "fejnt": 5523,
      "Sits": 5524,
      "kUkIN": 5525,
      "nItowb": 5526,
      "mfIbi": 5527,
      "lejsi": 5528,
      "powstr": 5529,
      "lImpIks": 5530,
      "IksplIs": 5531,
      "ndOr": 5532,
      "pAlow": 5533,
      "iowp": 5534,
      "wejtr": 5535,
      "ltow": 5536,
      "kips": 5537,
      "nejd": 5538,
      "kAnkOr": 5539,
      "Abs": 5540,
      "sAt": 5541,
      "Itli": 5542,
      "kowli": 5543,
      "nejmli": 5544,
      "EnkVmp": 5545,
      "Emn": 5546,
      "dZuv": 5547,
      "tIb": 5548,
      "Embl": 5549,
      "Sl": 5550,
      "Agw": 5551,
      "kit": 5552,
      "hawshowldr": 5553,
      "Amtr": 5554,
      "flejm": 5555,
      "judZin": 5556,
      "nEkts": 5557,
      "Istejts": 5558,
      "IpitIdli": 5559,
      "lejm": 5560,
      "itEnd": 5561,
      "mEmf": 5562,
      "vf": 5563,
      "mw": 5564,
      "Ah": 5565,
      "InvEnS": 5566,
      "gdZEstS": 5567,
      "blAkt": 5568,
      "kwInt": 5569,
      "kAligz": 5570,
      "ksEnt": 5571,
      "flut": 5572,
      "Inl": 5573,
      "dZEkt": 5574,
      "IkstEndIN": 5575,
      "sown": 5576,
      "flowt": 5577,
      "unow": 5578,
      "lui": 5579,
      "tAmIk": 5580,
      "mjAn": 5581,
      "dZEts": 5582,
      "Sejd": 5583,
      "dZVmpIN": 5584,
      "flowtIN": 5585,
      "dZAnz": 5586,
      "wAzn": 5587,
      "IfIn": 5588,
      "buT": 5589,
      "mojst": 5590,
      "twItr": 5591,
      "klawdz": 5592,
      "bAlISt": 5593,
      "nzi": 5594,
      "ejmIN": 5595,
      "plajIN": 5596,
      "Enzajm": 5597,
      "kajndz": 5598,
      "skwr": 5599,
      "mowbil": 5600,
      "ksEst": 5601,
      "flIn": 5602,
      "Ofs": 5603,
      "dZEnj": 5604,
      "wownt": 5605,
      "pVmp": 5606,
      "slEpt": 5607,
      "nowwEr": 5608,
      "Sim": 5609,
      "wUlvz": 5610,
      "ndIn": 5611,
      "ElIN": 5612,
      "Nkiz": 5613,
      "kk": 5614,
      "glVv": 5615,
      "lsi": 5616,
      "bIT": 5617,
      "pEnS": 5618,
      "flowIN": 5619,
      "lAtr": 5620,
      "ibAdi": 5621,
      "vEt": 5622,
      "ejmr": 5623,
      "ItEr": 5624,
      "ifr": 5625,
      "Nd": 5626,
      "lajtr": 5627,
      "NkAr": 5628,
      "ivjur": 5629,
      "Esi": 5630,
      "inplej": 5631,
      "Vgli": 5632,
      "lps": 5633,
      "swVN": 5634,
      "kowtSt": 5635,
      "pajk": 5636,
      "nowvi": 5637,
      "EsIz": 5638,
      "ejti": 5639,
      "tIlt": 5640,
      "dIlajt": 5641,
      "owtSIN": 5642,
      "VpkVmIN": 5643,
      "fIsk": 5644,
      "SmIt": 5645,
      "sElj": 5646,
      "dIsejb": 5647,
      "ownIN": 5648,
      "dIlej": 5649,
      "bAmbAr": 5650,
      "dVv": 5651,
      "bElz": 5652,
      "Vfk": 5653,
      "IkstIr": 5654,
      "Sowk": 5655,
      "Ilum": 5656,
      "mejntejnIN": 5657,
      "vIv": 5658,
      "kstr": 5659,
      "nsEnt": 5660,
      "zEl": 5661,
      "Infow": 5662,
      "Vpwr": 5663,
      "fAnd": 5664,
      "flejvr": 5665,
      "najl": 5666,
      "AlIk": 5667,
      "Aksi": 5668,
      "tawnSIps": 5669,
      "flIks": 5670,
      "ESm": 5671,
      "kANkwEst": 5672,
      "ejIk": 5673,
      "kINst": 5674,
      "nvIkS": 5675,
      "IstAnbul": 5676,
      "dini": 5677,
      "sInt": 5678,
      "dEdli": 5679,
      "klIk": 5680,
      "gejnIN": 5681,
      "Inawnd": 5682,
      "tSElsi": 5683,
      "owvow": 5684,
      "InvIz": 5685,
      "nAdu": 5686,
      "bawr": 5687,
      "kejAs": 5688,
      "dIpIkS": 5689,
      "dajvIN": 5690,
      "kIv": 5691,
      "hInd": 5692,
      "flEkS": 5693,
      "skwizd": 5694,
      "ejtf": 5695,
      "hejld": 5696,
      "EzId": 5697,
      "wEnzdi": 5698,
      "bdul": 5699,
      "skAts": 5700,
      "hili": 5701,
      "pIkIN": 5702,
      "hiT": 5703,
      "hjugow": 5704,
      "skejtr": 5705,
      "lAg": 5706,
      "nejmIN": 5707,
      "kir": 5708,
      "sVspEkt": 5709,
      "nowtIN": 5710,
      "lowdIN": 5711,
      "InhIb": 5712,
      "fVkIN": 5713,
      "nIdZIz": 5714,
      "zv": 5715,
      "sEndz": 5716,
      "bp": 5717,
      "mIzr": 5718,
      "spowks": 5719,
      "dIsgVst": 5720,
      "najntinT": 5721,
      "gwAt": 5722,
      "kAw": 5723,
      "fidZi": 5724,
      "IsIz": 5725,
      "plIm": 5726,
      "mItiz": 5727,
      "bVntS": 5728,
      "kAndr": 5729,
      "ajow": 5730,
      "ENk": 5731,
      "owlow": 5732,
      "AsEsr": 5733,
      "mInt": 5734,
      "Inud": 5735,
      "InstOl": 5736,
      "hejd": 5737,
      "pUlz": 5738,
      "mANgow": 5739,
      "ntejnr": 5740,
      "InvEntr": 5741,
      "stId": 5742,
      "lIvi": 5743,
      "ejf": 5744,
      "bajp": 5745,
      "OINz": 5746,
      "ug": 5747,
      "hp": 5748,
      "ndIk": 5749,
      "bIbl": 5750,
      "pIz": 5751,
      "sVk": 5752,
      "dAlf": 5753,
      "dZIS": 5754,
      "mIstIk": 5755,
      "fudz": 5756,
      "ETIks": 5757,
      "lIndzi": 5758,
      "nowbEl": 5759,
      "hApkInz": 5760,
      "bun": 5761,
      "AgzIl": 5762,
      "bIlivIN": 5763,
      "AgzIljr": 5764,
      "nwajd": 5765,
      "pidow": 5766,
      "IvEntId": 5767,
      "kup": 5768,
      "mInj": 5769,
      "nejsi": 5770,
      "TlIks": 5771,
      "tojl": 5772,
      "mEntId": 5773,
      "bowd": 5774,
      "bVdi": 5775,
      "slejtr": 5776,
      "mlb": 5777,
      "Espn": 5778,
      "IdZi": 5779,
      "hmz": 5780,
      "kwIzin": 5781,
      "slajdIN": 5782,
      "wAk": 5783,
      "nigr": 5784,
      "wajvz": 5785,
      "tSejnz": 5786,
      "IzajdId": 5787,
      "ndm": 5788,
      "gun": 5789,
      "IkspEktIN": 5790,
      "kowsow": 5791,
      "kIlAmtr": 5792,
      "wiz": 5793,
      "swEl": 5794,
      "SUm": 5795,
      "pAstSUm": 5796,
      "sEsIv": 5797,
      "dZul": 5798,
      "gjuz": 5799,
      "fp": 5800,
      "sInIm": 5801,
      "dZASu": 5802,
      "tejtId": 5803,
      "vEndZ": 5804,
      "kejdi": 5805,
      "lEvr": 5806,
      "ndVktIN": 5807,
      "ntSi": 5808,
      "uti": 5809,
      "tEktIN": 5810,
      "bAni": 5811,
      "filIks": 5812,
      "hEkt": 5813,
      "InfEkt": 5814,
      "gIbs": 5815,
      "ktIS": 5816,
      "sowsiIts": 5817,
      "tinejdZ": 5818,
      "bIlifs": 5819,
      "sVbspiSiz": 5820,
      "Ogz": 5821,
      "spajt": 5822,
      "mbowdi": 5823,
      "swej": 5824,
      "wASt": 5825,
      "howldINz": 5826,
      "bUld": 5827,
      "dIsplejz": 5828,
      "dIpOr": 5829,
      "dZEZu": 5830,
      "lOsut": 5831,
      "towk": 5832,
      "Invejd": 5833,
      "dZAk": 5834,
      "lVvli": 5835,
      "bits": 5836,
      "gVnr": 5837,
      "dIspowz": 5838,
      "dVbd": 5839,
      "ivEnS": 5840,
      "hOlz": 5841,
      "kdp": 5842,
      "kun": 5843,
      "EkspEkt": 5844,
      "Azlow": 5845,
      "tVtSdawnz": 5846,
      "ojIN": 5847,
      "nejtow": 5848,
      "bEdz": 5849,
      "mANgowli": 5850,
      "nEd": 5851,
      "tApt": 5852,
      "EkspEktejS": 5853,
      "jAt": 5854,
      "dejmi": 5855,
      "Enkow": 5856,
      "IluZ": 5857,
      "majs": 5858,
      "kAmpawndz": 5859,
      "IvilIN": 5860,
      "dAd": 5861,
      "Edw": 5862,
      "IkstEndz": 5863,
      "sIksti": 5864,
      "gUdbaj": 5865,
      "sIblINz": 5866,
      "sVmpS": 5867,
      "vil": 5868,
      "bItIr": 5869,
      "bAli": 5870,
      "udi": 5871,
      "stAl": 5872,
      "tVkr": 5873,
      "fT": 5874,
      "vIZw": 5875,
      "spidwej": 5876,
      "pejp": 5877,
      "nuf": 5878,
      "EsbItIr": 5879,
      "Ikow": 5880,
      "lil": 5881,
      "IlIN": 5882,
      "gni": 5883,
      "Vsr": 5884,
      "nEv": 5885,
      "Siv": 5886,
      "wInzr": 5887,
      "bVlk": 5888,
      "Ij": 5889,
      "ojz": 5890,
      "bajnz": 5891,
      "Imb": 5892,
      "nejgr": 5893,
      "Vlr": 5894,
      "Vstiz": 5895,
      "smajlz": 5896,
      "EndINz": 5897,
      "hIn": 5898,
      "gAw": 5899,
      "ltr": 5900,
      "slAt": 5901,
      "bIts": 5902,
      "kAkt": 5903,
      "bElf": 5904,
      "bajl": 5905,
      "AsIkjutr": 5906,
      "sidr": 5907,
      "jVn": 5908,
      "spiks": 5909,
      "lEpr": 5910,
      "juAn": 5911,
      "minow": 5912,
      "AStr": 5913,
      "EndjUr": 5914,
      "sVbf": 5915,
      "uvi": 5916,
      "kAstum": 5917,
      "hilIN": 5918,
      "siks": 5919,
      "flIkr": 5920,
      "lVdwIg": 5921,
      "Iksajtm": 5922,
      "swAlow": 5923,
      "fIkstSr": 5924,
      "ikt": 5925,
      "mlr": 5926,
      "ISIN": 5927,
      "nAtow": 5928,
      "lajps": 5929,
      "Aspr": 5930,
      "fwej": 5931,
      "jE": 5932,
      "Oli": 5933,
      "hAv": 5934,
      "wundz": 5935,
      "gowSiejt": 5936,
      "vAlkej": 5937,
      "lInz": 5938,
      "bEdfr": 5939,
      "hEDr": 5940,
      "gdZEstIN": 5941,
      "zownz": 5942,
      "suk": 5943,
      "sInEr": 5944,
      "EfjudZ": 5945,
      "knAlIdZd": 5946,
      "Izi": 5947,
      "bejz": 5948,
      "dejvi": 5949,
      "sVmtajm": 5950,
      "dir": 5951,
      "nud": 5952,
      "Ibm": 5953,
      "iIn": 5954,
      "flVdIN": 5955,
      "Olb": 5956,
      "sku": 5957,
      "lib": 5958,
      "dZojnz": 5959,
      "nzejni": 5960,
      "mownt": 5961,
      "kajli": 5962,
      "pAdk": 5963,
      "hajnr": 5964,
      "dAdZ": 5965,
      "Ibz": 5966,
      "Elt": 5967,
      "hEk": 5968,
      "VnkAnS": 5969,
      "sVmbAdi": 5970,
      "ind": 5971,
      "wEbr": 5972,
      "owlaj": 5973,
      "sejt": 5974,
      "lbi": 5975,
      "dejnd": 5976,
      "dZENk": 5977,
      "AmAd": 5978,
      "fjud": 5979,
      "VltIN": 5980,
      "viIi": 5981,
      "nhAr": 5982,
      "Itejn": 5983,
      "awzr": 5984,
      "pojntId": 5985,
      "ajIn": 5986,
      "VNkr": 5987,
      "Alt": 5988,
      "gejlIk": 5989,
      "lVgZr": 5990,
      "OlmjuzIk": 5991,
      "usow": 5992,
      "owvIZ": 5993,
      "Ilow": 5994,
      "tVg": 5995,
      "nAkawt": 5996,
      "gown": 5997,
      "nsmItr": 5998,
      "AtSEstr": 5999,
      "mejp": 6000,
      "fjus": 6001,
      "mIki": 6002,
      "nsEns": 6003,
      "Izm": 6004,
      "IgOr": 6005,
      "kAS": 6006,
      "VktId": 6007,
      "gjuIN": 6008,
      "ndlr": 6009,
      "dilz": 6010,
      "ntOn": 6011,
      "fajndINz": 6012,
      "mjutejS": 6013,
      "bejk": 6014,
      "vOlt": 6015,
      "sejdZ": 6016,
      "wISIz": 6017,
      "Idz": 6018,
      "Sik": 6019,
      "dZinj": 6020,
      "hItS": 6021,
      "lIb": 6022,
      "EdZi": 6023,
      "mbj": 6024,
      "lowt": 6025,
      "lOtr": 6026,
      "lajmstown": 6027,
      "Vnwej": 6028,
      "ENkow": 6029,
      "lEzbi": 6030,
      "TE": 6031,
      "kAzAk": 6032,
      "SVdr": 6033,
      "majzd": 6034,
      "wejts": 6035,
      "kAkr": 6036,
      "Abst": 6037,
      "vEntSu": 6038,
      "ejtSajvi": 6039,
      "dZiAm": 6040,
      "dIfajn": 6041,
      "nEtIks": 6042,
      "hajn": 6043,
      "majti": 6044,
      "lajpsIg": 6045,
      "howmowsEkS": 6046,
      "kAzAkstAn": 6047,
      "smVg": 6048,
      "pajpr": 6049,
      "sVndr": 6050,
      "nejz": 6051,
      "mjuzm": 6052,
      "Isr": 6053,
      "Dd": 6054,
      "AgVst": 6055,
      "dApS": 6056,
      "thaws": 6057,
      "nowd": 6058,
      "gnows": 6059,
      "ivIZ": 6060,
      "lIzr": 6061,
      "plUr": 6062,
      "visk": 6063,
      "lEvi": 6064,
      "nspEr": 6065,
      "ugV": 6066,
      "tEktIv": 6067,
      "owzIz": 6068,
      "EnlIstId": 6069,
      "vejd": 6070,
      "sIklown": 6071,
      "nfES": 6072,
      "jEm": 6073,
      "howmtawn": 6074,
      "sINkr": 6075,
      "Itv": 6076,
      "ibawndz": 6077,
      "nowbIl": 6078,
      "sizr": 6079,
      "Avski": 6080,
      "ISi": 6081,
      "InspEkS": 6082,
      "nIknejmd": 6083,
      "kIndr": 6084,
      "INfild": 6085,
      "owtEstr": 6086,
      "bajd": 6087,
      "Anj": 6088,
      "ntows": 6089,
      "jud": 6090,
      "lINgr": 6091,
      "sVkt": 6092,
      "tejnIN": 6093,
      "jugowslAv": 6094,
      "Ngowl": 6095,
      "lIntS": 6096,
      "nEp": 6097,
      "nIki": 6098,
      "AbIn": 6099,
      "gwAr": 6100,
      "tuzdi": 6101,
      "bAndz": 6102,
      "zejv": 6103,
      "tinT": 6104,
      "kAmplISt": 6105,
      "himi": 6106,
      "hEdkOr": 6107,
      "dZejd": 6108,
      "kOS": 6109,
      "Tjuz": 6110,
      "fVNk": 6111,
      "td": 6112,
      "lOgz": 6113,
      "mzi": 6114,
      "kowz": 6115,
      "pdf": 6116,
      "hEzItejtId": 6117,
      "sOlts": 6118,
      "Empt": 6119,
      "lpr": 6120,
      "TOl": 6121,
      "ejnfOl": 6122,
      "imuvIN": 6123,
      "kawr": 6124,
      "dIsmIs": 6125,
      "powld": 6126,
      "ziz": 6127,
      "klAz": 6128,
      "fib": 6129,
      "wejvr": 6130,
      "vAlk": 6131,
      "ikOl": 6132,
      "sul": 6133,
      "SiejtId": 6134,
      "wItni": 6135,
      "bivr": 6136,
      "EstIdZ": 6137,
      "lejs": 6138,
      "wowl": 6139,
      "kjum": 6140,
      "lVst": 6141,
      "tudz": 6142,
      "dIpEndz": 6143,
      "bjuk": 6144,
      "fUtnowts": 6145,
      "sps": 6146,
      "ntEn": 6147,
      "bVst": 6148,
      "InvAlv": 6149,
      "dItS": 6150,
      "howv": 6151,
      "owmow": 6152,
      "howmr": 6153,
      "dIsist": 6154,
      "lownz": 6155,
      "slowp": 6156,
      "InkluZ": 6157,
      "Impowzd": 6158,
      "kejnz": 6159,
      "wAd": 6160,
      "ejnbow": 6161,
      "imr": 6162,
      "bVndIs": 6163,
      "bAg": 6164,
      "Ivowlt": 6165,
      "vjuIN": 6166,
      "slVm": 6167,
      "kVps": 6168,
      "pIs": 6169,
      "tkow": 6170,
      "luivIl": 6171,
      "ejdZIN": 6172,
      "mjAnmAr": 6173,
      "dEts": 6174,
      "kE": 6175,
      "kowlm": 6176,
      "ktIks": 6177,
      "smowkIN": 6178,
      "Ipit": 6179,
      "kVlm": 6180,
      "stEpIN": 6181,
      "nhajm": 6182,
      "lajfstajl": 6183,
      "wInIp": 6184,
      "dvajzd": 6185,
      "pstEr": 6186,
      "ndZVNkS": 6187,
      "hVvr": 6188,
      "awtkVm": 6189,
      "hejn": 6190,
      "IsIp": 6191,
      "pAzIts": 6192,
      "Isn": 6193,
      "hAb": 6194,
      "wIp": 6195,
      "mowniz": 6196,
      "fawl": 6197,
      "skejlz": 6198,
      "ksEsIv": 6199,
      "mVNks": 6200,
      "juts": 6201,
      "zejvjr": 6202,
      "dIplojm": 6203,
      "bVz": 6204,
      "bajz": 6205,
      "bowldr": 6206,
      "ndwItS": 6207,
      "tajf": 6208,
      "fItIN": 6209,
      "niki": 6210,
      "sEgr": 6211,
      "dAdZr": 6212,
      "dajv": 6213,
      "Vlstr": 6214,
      "AnsIz": 6215,
      "hAnd": 6216,
      "iows": 6217,
      "dZub": 6218,
      "Anwr": 6219,
      "Aku": 6220,
      "Isnt": 6221,
      "ntSEz": 6222,
      "dIgn": 6223,
      "skawts": 6224,
      "idIz": 6225,
      "klEntSt": 6226,
      "pikIN": 6227,
      "hElsIN": 6228,
      "ksin": 6229,
      "zImbAbwej": 6230,
      "utin": 6231,
      "howpf": 6232,
      "AksIm": 6233,
      "iDd": 6234,
      "iEntejS": 6235,
      "Tajz": 6236,
      "bejsIst": 6237,
      "pAmz": 6238,
      "stejdZd": 6239,
      "Alvz": 6240,
      "did": 6241,
      "Imbr": 6242,
      "hEdr": 6243,
      "nkVmfr": 6244,
      "Elbow": 6245,
      "skInz": 6246,
      "ust": 6247,
      "VnIkspEktId": 6248,
      "mtr": 6249,
      "lImpIk": 6250,
      "howstIN": 6251,
      "spEktejtr": 6252,
      "flown": 6253,
      "kSAps": 6254,
      "wild": 6255,
      "kowvr": 6256,
      "Sil": 6257,
      "pits": 6258,
      "wElmIN": 6259,
      "dZus": 6260,
      "tejtr": 6261,
      "SIftIN": 6262,
      "fowliow": 6263,
      "IndIv": 6264,
      "AspEkt": 6265,
      "kswEl": 6266,
      "dZIp": 6267,
      "nejdow": 6268,
      "isEptr": 6269,
      "hOnt": 6270,
      "mpAr": 6271,
      "bajIN": 6272,
      "kAgnItIv": 6273,
      "idej": 6274,
      "twAr": 6275,
      "bVn": 6276,
      "kmIl": 6277,
      "towj": 6278,
      "mVsk": 6279,
      "Ask": 6280,
      "tEmz": 6281,
      "Ilajz": 6282,
      "nim": 6283,
      "bVstr": 6284,
      "lAp": 6285,
      "sVnSajn": 6286,
      "wEbs": 6287,
      "gEl": 6288,
      "lAkr": 6289,
      "wUlvr": 6290,
      "piks": 6291,
      "EtSIN": 6292,
      "nItS": 6293,
      "kVbz": 6294,
      "dZowi": 6295,
      "dZAnst": 6296,
      "tejld": 6297,
      "klinIN": 6298,
      "kAnsowl": 6299,
      "jowSi": 6300,
      "tSip": 6301,
      "lVNz": 6302,
      "fejTf": 6303,
      "TAr": 6304,
      "Osi": 6305,
      "fowli": 6306,
      "nuvr": 6307,
      "tz": 6308,
      "mAnd": 6309,
      "tjAr": 6310,
      "lajnVp": 6311,
      "gjudZr": 6312,
      "vejz": 6313,
      "mpIN": 6314,
      "kejz": 6315,
      "gejmIN": 6316,
      "mIli": 6317,
      "zAnt": 6318,
      "df": 6319,
      "bskjUr": 6320,
      "bowhimi": 6321,
      "pEs": 6322,
      "tItS": 6323,
      "sowlli": 6324,
      "mejntejnz": 6325,
      "nzw": 6326,
      "tI": 6327,
      "owls": 6328,
      "simINli": 6329,
      "hIg": 6330,
      "dimi": 6331,
      "mili": 6332,
      "kowni": 6333,
      "tElugV": 6334,
      "uvz": 6335,
      "lejni": 6336,
      "bojd": 6337,
      "lIZ": 6338,
      "klIp": 6339,
      "vkAr": 6340,
      "bAmz": 6341,
      "lAmbAr": 6342,
      "dud": 6343,
      "fUlr": 6344,
      "IdZm": 6345,
      "IntEnS": 6346,
      "owki": 6347,
      "twItS": 6348,
      "ndEmd": 6349,
      "Izum": 6350,
      "dj": 6351,
      "NkAk": 6352,
      "tEktr": 6353,
      "Dejr": 6354,
      "kEndr": 6355,
      "zowi": 6356,
      "hVn": 6357,
      "Ibjun": 6358,
      "dAntej": 6359,
      "Eki": 6360,
      "jEn": 6361,
      "dEmow": 6362,
      "SAdi": 6363,
      "Insajt": 6364,
      "tini": 6365,
      "dmInt": 6366,
      "mIdst": 6367,
      "Api": 6368,
      "AdZi": 6369,
      "ilajn": 6370,
      "bows": 6371,
      "sur": 6372,
      "vejkejS": 6373,
      "pks": 6374,
      "ksiz": 6375,
      "nowEl": 6376,
      "wIzd": 6377,
      "nAtINh": 6378,
      "ndfUl": 6379,
      "kdr": 6380,
      "bElAr": 6381,
      "budIz": 6382,
      "tumr": 6383,
      "mowtOr": 6384,
      "ilajzIN": 6385,
      "mEntIN": 6386,
      "fist": 6387,
      "vejtIv": 6388,
      "wOlS": 6389,
      "kawbojz": 6390,
      "Vptli": 6391,
      "bENgAli": 6392,
      "nsmIt": 6393,
      "sajzr": 6394,
      "sejbr": 6395,
      "wajts": 6396,
      "spInIN": 6397,
      "wiv": 6398,
      "Andow": 6399,
      "lejtli": 6400,
      "fEndr": 6401,
      "nAgr": 6402,
      "dvEnt": 6403,
      "fIliejS": 6404,
      "wAtr": 6405,
      "iSiejt": 6406,
      "Iksid": 6407,
      "tIpt": 6408,
      "spajk": 6409,
      "lowdz": 6410,
      "owkEm": 6411,
      "pejst": 6412,
      "kwejnt": 6413,
      "liown": 6414,
      "dZudi": 6415,
      "kAps": 6416,
      "Vnpr": 6417,
      "nejzi": 6418,
      "ntSEskow": 6419,
      "Sinr": 6420,
      "nVnD": 6421,
      "bowlz": 6422,
      "kowsowvow": 6423,
      "nzr": 6424,
      "mAtr": 6425,
      "hAs": 6426,
      "dVtSi": 6427,
      "tjUr": 6428,
      "hEdZ": 6429,
      "husejn": 6430,
      "IkspEld": 6431,
      "gIfts": 6432,
      "stIn": 6433,
      "dZejz": 6434,
      "nIstIk": 6435,
      "Nzaj": 6436,
      "dowd": 6437,
      "tSit": 6438,
      "dIspEr": 6439,
      "Vkl": 6440,
      "snAr": 6441,
      "wikn": 6442,
      "EndZojIN": 6443,
      "gEz": 6444,
      "uni": 6445,
      "OlIN": 6446,
      "pild": 6447,
      "Asow": 6448,
      "blidIN": 6449,
      "ImEr": 6450,
      "fIs": 6451,
      "kVnIN": 6452,
      "idow": 6453,
      "SElz": 6454,
      "nski": 6455,
      "sVnlajt": 6456,
      "ndZu": 6457,
      "dAni": 6458,
      "nsOr": 6459,
      "IntEr": 6460,
      "mus": 6461,
      "Eskjud": 6462,
      "dhIr": 6463,
      "mAb": 6464,
      "wON": 6465,
      "kut": 6466,
      "Ilz": 6467,
      "tEntS": 6468,
      "mVmb": 6469,
      "sVbwej": 6470,
      "bOldw": 6471,
      "lejIN": 6472,
      "lENk": 6473,
      "dd": 6474,
      "blEnd": 6475,
      "lfild": 6476,
      "vejnz": 6477,
      "kVmr": 6478,
      "owklejmd": 6479,
      "sIpr": 6480,
      "dubaj": 6481,
      "kejvz": 6482,
      "plVm": 6483,
      "flEtSr": 6484,
      "bOltIk": 6485,
      "stowk": 6486,
      "klowi": 6487,
      "lImItejS": 6488,
      "dZk": 6489,
      "nbi": 6490,
      "lawnd": 6491,
      "nn": 6492,
      "miti": 6493,
      "tSEkIN": 6494,
      "sawndIN": 6495,
      "wISIN": 6496,
      "liT": 6497,
      "owtEk": 6498,
      "hVf": 6499,
      "nAts": 6500,
      "nidIN": 6501,
      "uki": 6502,
      "pAts": 6503,
      "jutId": 6504,
      "tEndz": 6505,
      "juni": 6506,
      "flIpt": 6507,
      "kti": 6508,
      "dAp": 6509,
      "nlajkli": 6510,
      "gON": 6511,
      "SmIr": 6512,
      "nsivd": 6513,
      "mowldowv": 6514,
      "hajp": 6515,
      "tAkA": 6516,
      "sejfli": 6517,
      "tows": 6518,
      "VntS": 6519,
      "kVltIv": 6520,
      "bEns": 6521,
      "mEns": 6522,
      "IdIktId": 6523,
      "biINz": 6524,
      "dZajn": 6525,
      "najzr": 6526,
      "hajnz": 6527,
      "wilr": 6528,
      "Suts": 6529,
      "sunr": 6530,
      "dZudej": 6531,
      "hEks": 6532,
      "Olz": 6533,
      "IksplejnIN": 6534,
      "skIld": 6535,
      "Endl": 6536,
      "wajg": 6537,
      "dZEnIk": 6538,
      "Ipidi": 6539,
      "SIk": 6540,
      "sutIk": 6541,
      "dIpIktIN": 6542,
      "sEnsIz": 6543,
      "hEktAr": 6544,
      "sowf": 6545,
      "VSr": 6546,
      "Iksklud": 6547,
      "iAnow": 6548,
      "Inski": 6549,
      "lidow": 6550,
      "spejskr": 6551,
      "ajdiAl": 6552,
      "Sn": 6553,
      "hajlajts": 6554,
      "dZEkS": 6555,
      "tAms": 6556,
      "wIkIpidi": 6557,
      "flIp": 6558,
      "ntaj": 6559,
      "mVNki": 6560,
      "nejl": 6561,
      "sINgj": 6562,
      "dItEkS": 6563,
      "dVd": 6564,
      "bjun": 6565,
      "Ikspajr": 6566,
      "fudZi": 6567,
      "fIlipej": 6568,
      "ItIsajzd": 6569,
      "snej": 6570,
      "gOg": 6571,
      "sup": 6572,
      "lIkr": 6573,
      "lVmbr": 6574,
      "dju": 6575,
      "bVndIslajg": 6576,
      "sliv": 6577,
      "slOtr": 6578,
      "viskawnt": 6579,
      "Amow": 6580,
      "Imps": 6581,
      "tSIt": 6582,
      "iowl": 6583,
      "Insejn": 6584,
      "inIN": 6585,
      "EksEs": 6586,
      "VbIN": 6587,
      "Ikspowz": 6588,
      "niIN": 6589,
      "dinow": 6590,
      "IspEktId": 6591,
      "lejnz": 6592,
      "Ul": 6593,
      "Iktli": 6594,
      "kjulz": 6595,
      "hEt": 6596,
      "lowb": 6597,
      "jON": 6598,
      "Vnts": 6599,
      "nsEpS": 6600,
      "pun": 6601,
      "klajd": 6602,
      "ikr": 6603,
      "tSVN": 6604,
      "nsajd": 6605,
      "sejni": 6606,
      "nVts": 6607,
      "ndIs": 6608,
      "nItiz": 6609,
      "fVmb": 6610,
      "Amni": 6611,
      "nmowst": 6612,
      "tVkt": 6613,
      "stejp": 6614,
      "sawr": 6615,
      "tIf": 6616,
      "bojlr": 6617,
      "INli": 6618,
      "owZ": 6619,
      "INgr": 6620,
      "ksIm": 6621,
      "mejow": 6622,
      "mVstr": 6623,
      "imaj": 6624,
      "mplEks": 6625,
      "Ivajvd": 6626,
      "sumIN": 6627,
      "zEr": 6628,
      "iAs": 6629,
      "dZImnejzi": 6630,
      "Akwr": 6631,
      "lunr": 6632,
      "sild": 6633,
      "ljAl": 6634,
      "dIskOr": 6635,
      "klOdi": 6636,
      "sINkIN": 6637,
      "mbu": 6638,
      "SajnIN": 6639,
      "vojdIN": 6640,
      "tSaw": 6641,
      "Osr": 6642,
      "IndZi": 6643,
      "tAf": 6644,
      "Ekl": 6645,
      "spElIN": 6646,
      "skiIN": 6647,
      "SIl": 6648,
      "ksr": 6649,
      "dejs": 6650,
      "mIsts": 6651,
      "Ansow": 6652,
      "tIt": 6653,
      "IspAnsIz": 6654,
      "timejt": 6655,
      "gejOr": 6656,
      "nklIr": 6657,
      "nsum": 6658,
      "divi": 6659,
      "vIgr": 6660,
      "bVks": 6661,
      "kEnd": 6662,
      "kAf": 6663,
      "Isks": 6664,
      "kowdi": 6665,
      "Avow": 6666,
      "hAndUr": 6667,
      "nawnsr": 6668,
      "hitIN": 6669,
      "fIzIsIst": 6670,
      "tVsk": 6671,
      "kVtAr": 6672,
      "kEs": 6673,
      "InsIp": 6674,
      "mEstr": 6675,
      "tb": 6676,
      "vejs": 6677,
      "ihIstOr": 6678,
      "sEpi": 6679,
      "slowps": 6680,
      "kAni": 6681,
      "gAlfr": 6682,
      "tSEN": 6683,
      "ntIkw": 6684,
      "ejdmAr": 6685,
      "iunj": 6686,
      "tejkr": 6687,
      "towjowt": 6688,
      "InsId": 6689,
      "townz": 6690,
      "nEz": 6691,
      "fItn": 6692,
      "Env": 6693,
      "kbk": 6694,
      "ndZaj": 6695,
      "Nkw": 6696,
      "ustr": 6697,
      "sbr": 6698,
      "dejzi": 6699,
      "sINz": 6700,
      "EdIk": 6701,
      "flajr": 6702,
      "sIgm": 6703,
      "sElow": 6704,
      "mIkejl": 6705,
      "fUtstEps": 6706,
      "bawm": 6707,
      "hIlr": 6708,
      "ejnt": 6709,
      "spejS": 6710,
      "gawn": 6711,
      "lInVks": 6712,
      "slowd": 6713,
      "InsEkt": 6714,
      "huEvr": 6715,
      "Aviv": 6716,
      "spEld": 6717,
      "Eptajlz": 6718,
      "SIpr": 6719,
      "ljud": 6720,
      "sVnsEt": 6721,
      "vAn": 6722,
      "dZim": 6723,
      "hVtS": 6724,
      "hajmr": 6725,
      "gVm": 6726,
      "vElv": 6727,
      "Indust": 6728,
      "mejlej": 6729,
      "ntIdZIz": 6730,
      "hIlt": 6731,
      "pIzt": 6732,
      "zAgr": 6733,
      "ktow": 6734,
      "skV": 6735,
      "downr": 6736,
      "kowbr": 6737,
      "lim": 6738,
      "owmAr": 6739,
      "tANg": 6740,
      "bUlIt": 6741,
      "bVkIN": 6742,
      "sejdiz": 6743,
      "awtfIt": 6744,
      "VsIN": 6745,
      "EmpS": 6746,
      "nsVltIN": 6747,
      "mAtow": 6748,
      "kEstr": 6749,
      "gSIp": 6750,
      "bOlk": 6751,
      "bUlz": 6752,
      "skoj": 6753,
      "bajts": 6754,
      "blejdz": 6755,
      "kVmb": 6756,
      "wINr": 6757,
      "Eswej": 6758,
      "wivr": 6759,
      "tbr": 6760,
      "hAvi": 6761,
      "Igni": 6762,
      "liS": 6763,
      "hVmfr": 6764,
      "lEZr": 6765,
      "zbAks": 6766,
      "dIskVsIN": 6767,
      "dInOm": 6768,
      "gnIs": 6769,
      "ndejt": 6770,
      "mEli": 6771,
      "jUN": 6772,
      "titr": 6773,
      "tojz": 6774,
      "zl": 6775,
      "mEntOr": 6776,
      "sEld": 6777,
      "Twr": 6778,
      "Esti": 6779,
      "powkr": 6780,
      "wUstr": 6781,
      "vIvi": 6782,
      "ESwOtr": 6783,
      "stEn": 6784,
      "IfIkejS": 6785,
      "Impowz": 6786,
      "sUr": 6787,
      "lmIn": 6788,
      "tejtIN": 6789,
      "dZojntli": 6790,
      "luzr": 6791,
      "plid": 6792,
      "IksEsIv": 6793,
      "ApAd": 6794,
      "pAblow": 6795,
      "fowklOr": 6796,
      "flojd": 6797,
      "dZIbr": 6798,
      "izAlvd": 6799,
      "IvEntIN": 6800,
      "VlS": 6801,
      "nsumd": 6802,
      "lOndr": 6803,
      "iAn": 6804,
      "Inow": 6805,
      "sini": 6806,
      "hejtr": 6807,
      "sEtINz": 6808,
      "gwEn": 6809,
      "vItr": 6810,
      "Vntr": 6811,
      "pAstAlIk": 6812,
      "VT": 6813,
      "kni": 6814,
      "nEli": 6815,
      "kIkIN": 6816,
      "lIzb": 6817,
      "mAdEl": 6818,
      "stVnd": 6819,
      "utIN": 6820,
      "hIndZ": 6821,
      "tSEv": 6822,
      "blEsId": 6823,
      "owsAk": 6824,
      "dejaj": 6825,
      "tSajr": 6826,
      "kAnsOr": 6827,
      "nils": 6828,
      "dItIr": 6829,
      "smEld": 6830,
      "nzbr": 6831,
      "sni": 6832,
      "towbi": 6833,
      "bIlAr": 6834,
      "klejt": 6835,
      "hjubr": 6836,
      "flEktIN": 6837,
      "umi": 6838,
      "flInt": 6839,
      "mplejnts": 6840,
      "sajki": 6841,
      "ljuejt": 6842,
      "lejdz": 6843,
      "bIdZ": 6844,
      "imejl": 6845,
      "gowd": 6846,
      "fajnajt": 6847,
      "fIlhAr": 6848,
      "AlAdZIk": 6849,
      "dOl": 6850,
      "sawTh": 6851,
      "mpAz": 6852,
      "lAd": 6853,
      "silj": 6854,
      "IklIps": 6855,
      "fVndr": 6856,
      "blown": 6857,
      "pAlIt": 6858,
      "livr": 6859,
      "dIpIkts": 6860,
      "dejvIds": 6861,
      "EsejtS": 6862,
      "stIkli": 6863,
      "EdZd": 6864,
      "tejr": 6865,
      "Sm": 6866,
      "hOfm": 6867,
      "dlr": 6868,
      "lajtwejt": 6869,
      "tfowliow": 6870,
      "iEt": 6871,
      "lts": 6872,
      "tVmb": 6873,
      "lulu": 6874,
      "nIkowlaj": 6875,
      "Sejps": 6876,
      "nvejld": 6877,
      "wEsli": 6878,
      "mjuzd": 6879,
      "nSajr": 6880,
      "InEv": 6881,
      "kwEl": 6882,
      "mul": 6883,
      "ikIN": 6884,
      "tlt": 6885,
      "pIlow": 6886,
      "bIlItejS": 6887,
      "dp": 6888,
      "biti": 6889,
      "izAlv": 6890,
      "IntEgr": 6891,
      "kIz": 6892,
      "ksEptIN": 6893,
      "VntId": 6894,
      "ldr": 6895,
      "dEbr": 6896,
      "mowmEnt": 6897,
      "nVm": 6898,
      "IdIkj": 6899,
      "slEndr": 6900,
      "Ahim": 6901,
      "dZojs": 6902,
      "wajldk": 6903,
      "tEdi": 6904,
      "Iklizi": 6905,
      "fIliz": 6906,
      "lkr": 6907,
      "tutr": 6908,
      "lajkwajz": 6909,
      "unz": 6910,
      "dItEnS": 6911,
      "mINt": 6912,
      "ilIz": 6913,
      "tist": 6914,
      "fjuzIN": 6915,
      "EnlAr": 6916,
      "ksIz": 6917,
      "mAg": 6918,
      "bmr": 6919,
      "kOs": 6920,
      "EntItiz": 6921,
      "gajdlajnz": 6922,
      "iAtIk": 6923,
      "mIbi": 6924,
      "IkspOr": 6925,
      "dZEd": 6926,
      "ksk": 6927,
      "Ekowd": 6928,
      "lImz": 6929,
      "nVk": 6930,
      "lINgwIstIk": 6931,
      "sAnt": 6932,
      "mSajr": 6933,
      "ojlr": 6934,
      "Efjus": 6935,
      "bUldOgz": 6936,
      "wEbstr": 6937,
      "powstpow": 6938,
      "owkAr": 6939,
      "sEptSu": 6940,
      "gnowst": 6941,
      "ikowsIst": 6942,
      "lejl": 6943,
      "Obr": 6944,
      "SIpt": 6945,
      "mInAl": 6946,
      "lENkTs": 6947,
      "IdIT": 6948,
      "dIspjuts": 6949,
      "Vnj": 6950,
      "awndId": 6951,
      "Timd": 6952,
      "sitIN": 6953,
      "owsow": 6954,
      "tSuzIN": 6955,
      "tAps": 6956,
      "ndstown": 6957,
      "sInkl": 6958,
      "kAtr": 6959,
      "ownow": 6960,
      "sOftbOl": 6961,
      "gIdi": 6962,
      "tEkstajl": 6963,
      "sejvINz": 6964,
      "ajps": 6965,
      "izIN": 6966,
      "mowdz": 6967,
      "isajd": 6968,
      "ksIN": 6969,
      "ksejS": 6970,
      "lawndZ": 6971,
      "tSivIN": 6972,
      "powstpownd": 6973,
      "hEp": 6974,
      "AntS": 6975,
      "hElsINki": 6976,
      "plajr": 6977,
      "gAbr": 6978,
      "tSEnaj": 6979,
      "pawndIN": 6980,
      "bdZEktIvz": 6981,
      "wIi": 6982,
      "dZajr": 6983,
      "Enklowzd": 6984,
      "isidIN": 6985,
      "ilIdZ": 6986,
      "pInd": 6987,
      "AmIk": 6988,
      "dImitr": 6989,
      "IntEnsIv": 6990,
      "mejg": 6991,
      "wIski": 6992,
      "VktIN": 6993,
      "twElfT": 6994,
      "owlf": 6995,
      "aji": 6996,
      "ejkTr": 6997,
      "Azi": 6998,
      "dojl": 6999,
      "Afi": 7000,
      "fIkIN": 7001,
      "dZz": 7002,
      "dEstr": 7003,
      "pIti": 7004,
      "pAndr": 7005,
      "hajlajtId": 7006,
      "gus": 7007,
      "slown": 7008,
      "sImr": 7009,
      "bAmbej": 7010,
      "dImIn": 7011,
      "Impawr": 7012,
      "iwej": 7013,
      "awtIN": 7014,
      "pf": 7015,
      "towli": 7016,
      "wOt": 7017,
      "SIpjAr": 7018,
      "bejbiz": 7019,
      "lImr": 7020,
      "lejg": 7021,
      "lawdli": 7022,
      "linz": 7023,
      "mjud": 7024,
      "fUr": 7025,
      "ajsi": 7026,
      "Okt": 7027,
      "INgow": 7028,
      "tj": 7029,
      "junEskow": 7030,
      "Agd": 7031,
      "lowdId": 7032,
      "numEr": 7033,
      "stilIN": 7034,
      "snejl": 7035,
      "vInt": 7036,
      "kowb": 7037,
      "vowkejS": 7038,
      "tubz": 7039,
      "IliejS": 7040,
      "tSut": 7041,
      "dIstOr": 7042,
      "Agi": 7043,
      "dZtawn": 7044,
      "vAm": 7045,
      "dawnstEr": 7046,
      "lItS": 7047,
      "owbI": 7048,
      "tkInz": 7049,
      "Ifi": 7050,
      "InstIN": 7051,
      "fIsts": 7052,
      "Aldow": 7053,
      "lINkIN": 7054,
      "jowk": 7055,
      "vIdi": 7056,
      "nfEr": 7057,
      "lONtajm": 7058,
      "mvp": 7059,
      "Ihr": 7060,
      "owkow": 7061,
      "IdZin": 7062,
      "dZuliEt": 7063,
      "nsiejS": 7064,
      "spidz": 7065,
      "tSEt": 7066,
      "kAnow": 7067,
      "ejgr": 7068,
      "lOf": 7069,
      "zvi": 7070,
      "kVr": 7071,
      "dajdZEst": 7072,
      "sInTEtIk": 7073,
      "ntwr": 7074,
      "lowv": 7075,
      "fItsdZEr": 7076,
      "nkVvr": 7077,
      "tEknIS": 7078,
      "dZudejIz": 7079,
      "SVf": 7080,
      "owmEr": 7081,
      "tig": 7082,
      "spIN": 7083,
      "ElIdZ": 7084,
      "wiltSEr": 7085,
      "IndIvIdZu": 7086,
      "Sildz": 7087,
      "udAlf": 7088,
      "Asr": 7089,
      "slIm": 7090,
      "owsid": 7091,
      "hAdZ": 7092,
      "ndbUk": 7093,
      "IptIk": 7094,
      "sajbIr": 7095,
      "bajnr": 7096,
      "gowsts": 7097,
      "blAkIN": 7098,
      "tVk": 7099,
      "stVtgr": 7100,
      "vAnt": 7101,
      "nAdz": 7102,
      "lajfl": 7103,
      "IvAl": 7104,
      "dIpt": 7105,
      "fEN": 7106,
      "Nkf": 7107,
      "klEvr": 7108,
      "Istow": 7109,
      "sInApsIs": 7110,
      "tAksIk": 7111,
      "ApAdz": 7112,
      "mplejnd": 7113,
      "lajzr": 7114,
      "zn": 7115,
      "tIbEt": 7116,
      "VdZ": 7117,
      "tOlIst": 7118,
      "pAlItEk": 7119,
      "lAl": 7120,
      "mks": 7121,
      "bEdId": 7122,
      "tajmIN": 7123,
      "skir": 7124,
      "tajwAniz": 7125,
      "mAdZul": 7126,
      "@{": 7127,
      "tSESr": 7128,
      "glr": 7129,
      "EplIk": 7130,
      "IkstSejndZd": 7131,
      "btejnIN": 7132,
      "owsidz": 7133,
      "mVf": 7134,
      "dIktejtr": 7135,
      "vIg": 7136,
      "TVmbr": 7137,
      "owbItSuEr": 7138,
      "ejvIN": 7139,
      "ImIdZIN": 7140,
      "dVndZ": 7141,
      "jutejS": 7142,
      "kImbr": 7143,
      "stInt": 7144,
      "lajvstAk": 7145,
      "dZIsEpi": 7146,
      "IkwEsts": 7147,
      "glowIN": 7148,
      "EspA": 7149,
      "hejti": 7150,
      "wajs": 7151,
      "lzbr": 7152,
      "ejdAlf": 7153,
      "kowkow": 7154,
      "ajnr": 7155,
      "kawts": 7156,
      "sInklEr": 7157,
      "dIskow": 7158,
      "twi": 7159,
      "jowg": 7160,
      "tSAk": 7161,
      "ANkowz": 7162,
      "majstr": 7163,
      "AntwAn": 7164,
      "kAmplISm": 7165,
      "tSdaj": 7166,
      "hun": 7167,
      "owspejs": 7168,
      "mAtsu": 7169,
      "lIdi": 7170,
      "lkow": 7171,
      "sVbstr": 7172,
      "EmpiejtS": 7173,
      "mpow": 7174,
      "dIsajsIv": 7175,
      "howmp": 7176,
      "itejlr": 7177,
      "EntId": 7178,
      "dIgIN": 7179,
      "nowtOr": 7180,
      "ajmr": 7181,
      "gAndi": 7182,
      "ESowld": 7183,
      "EksItr": 7184,
      "SElf": 7185,
      "vIlIdZr": 7186,
      "Ilu": 7187,
      "IlIk": 7188,
      "sEnts": 7189,
      "lownd": 7190,
      "fuku": 7191,
      "klIt": 7192,
      "bejgow": 7193,
      "ndInejvi": 7194,
      "itOr": 7195,
      "blejmd": 7196,
      "kulIN": 7197,
      "hejstINz": 7198,
      "nsES": 7199,
      "lAgr": 7200,
      "ajzINli": 7201,
      "skimz": 7202,
      "foj": 7203,
      "sIb": 7204,
      "glEkt": 7205,
      "awtlEts": 7206,
      "stowni": 7207,
      "blejz": 7208,
      "Alej": 7209,
      "vt": 7210,
      "uIN": 7211,
      "lsEks": 7212,
      "kVtr": 7213,
      "vEntr": 7214,
      "powdi": 7215,
      "hawnd": 7216,
      "dIsajp": 7217,
      "dinz": 7218,
      "Enib": 7219,
      "zowAl": 7220,
      "Iu": 7221,
      "sImbAlIk": 7222,
      "tejm": 7223,
      "nEktr": 7224,
      "Oktowbr": 7225,
      "tIpIk": 7226,
      "ImId": 7227,
      "tEkstSr": 7228,
      "vajkIN": 7229,
      "pAdz": 7230,
      "fVndZaj": 7231,
      "dZajz": 7232,
      "bajs": 7233,
      "mItr": 7234,
      "bowm": 7235,
      "dIvowS": 7236,
      "dAv": 7237,
      "gAnzlEz": 7238,
      "lpEz": 7239,
      "najdZ": 7240,
      "EmbEdId": 7241,
      "swip": 7242,
      "pIv": 7243,
      "SIv": 7244,
      "wImb": 7245,
      "idm": 7246,
      "fw": 7247,
      "nIts": 7248,
      "fAsf": 7249,
      "kInd": 7250,
      "wIlow": 7251,
      "mejtIN": 7252,
      "Isajsli": 7253,
      "fEnd": 7254,
      "wEtl": 7255,
      "hElpl": 7256,
      "gajdz": 7257,
      "awtlajn": 7258,
      "gnejtId": 7259,
      "nAkIN": 7260,
      "ntajm": 7261,
      "wIntSEstr": 7262,
      "gVs": 7263,
      "gajl": 7264,
      "Elf": 7265,
      "gejtwej": 7266,
      "mfr": 7267,
      "pApt": 7268,
      "ImpejS": 7269,
      "IvEr": 7270,
      "Vkts": 7271,
      "ziowni": 7272,
      "dIsklow": 7273,
      "sownj": 7274,
      "tSowk": 7275,
      "ztawn": 7276,
      "dEndr": 7277,
      "blVf": 7278,
      "tiow": 7279,
      "pid": 7280,
      "nAli": 7281,
      "dkOr": 7282,
      "flVtr": 7283,
      "IsidId": 7284,
      "bowk": 7285,
      "sowvr": 7286,
      "pgA": 7287,
      "kUdn": 7288,
      "hOnd": 7289,
      "fejlz": 7290,
      "lowdZi": 7291,
      "OfSOr": 7292,
      "sVbk": 7293,
      "dVks": 7294,
      "swAmp": 7295,
      "fIlz": 7296,
      "dZEnow": 7297,
      "bejb": 7298,
      "dZIndZr": 7299,
      "Elk": 7300,
      "wIlIs": 7301,
      "SiEr": 7302,
      "kOldr": 7303,
      "skEpt": 7304,
      "dIfIS": 7305,
      "mAts": 7306,
      "udZ": 7307,
      "owmiow": 7308,
      "kuwejt": 7309,
      "lEnsi": 7310,
      "nikow": 7311,
      "fks": 7312,
      "zej": 7313,
      "gAg": 7314,
      "bejsIkli": 7315,
      "plejg": 7316,
      "mVk": 7317,
      "fAt": 7318,
      "sU": 7319,
      "tju": 7320,
      "nAdi": 7321,
      "owldz": 7322,
      "mElow": 7323,
      "vs": 7324,
      "fIziAl": 7325,
      "hVgd": 7326,
      "EzdIn": 7327,
      "gund": 7328,
      "nus": 7329,
      "najr": 7330,
      "ITs": 7331,
      "blAs": 7332,
      "fEktIN": 7333,
      "ntInjuejS": 7334,
      "TEft": 7335,
      "pejvd": 7336,
      "Vvd": 7337,
      "kowlkAt": 7338,
      "bif": 7339,
      "mownz": 7340,
      "IflEkts": 7341,
      "awndINz": 7342,
      "iunajtId": 7343,
      "fAk": 7344,
      "fOk": 7345,
      "vajkINz": 7346,
      "pElr": 7347,
      "bug": 7348,
      "dIfOr": 7349,
      "wAs": 7350,
      "ggr": 7351,
      "mInIsEr": 7352,
      "Ibjuts": 7353,
      "AptId": 7354,
      "nsIr": 7355,
      "IkspEnd": 7356,
      "IDmIk": 7357,
      "tON": 7358,
      "IksajtIN": 7359,
      "plEks": 7360,
      "Ilejt": 7361,
      "bbfb": 7362,
      "mbajnIN": 7363,
      "majd": 7364,
      "hEktr": 7365,
      "ntIndZ": 7366,
      "lAfi": 7367,
      "ntSow": 7368,
      "ktIvIz": 7369,
      "bEkr": 7370,
      "mEdi": 7371,
      "Iw": 7372,
      "IndZEkS": 7373,
      "kAlig": 7374,
      "bawts": 7375,
      "sEntEni": 7376,
      "Eksplojt": 7377,
      "pajz": 7378,
      "nEtflIks": 7379,
      "mplejnt": 7380,
      "idIkS": 7381,
      "sItS": 7382,
      "dZIb": 7383,
      "pn": 7384,
      "uzbEk": 7385,
      "pajps": 7386,
      "mVnstr": 7387,
      "Vts": 7388,
      "AptEr": 7389,
      "bjukr": 7390,
      "hVs": 7391,
      "ejsIv": 7392,
      "vowg": 7393,
      "juki": 7394,
      "Vlsr": 7395,
      "hb": 7396,
      "mjutr": 7397,
      "EstS": 7398,
      "EsTEtIk": 7399,
      "Sejks": 7400,
      "wAdi": 7401,
      "blA": 7402,
      "Epl": 7403,
      "dOlt": 7404,
      "mawnd": 7405,
      "snaj": 7406,
      "hAsp": 7407,
      "klowk": 7408,
      "tinz": 7409,
      "sImown": 7410,
      "slowg": 7411,
      "ksp": 7412,
      "dajzd": 7413,
      "milj": 7414,
      "tSA": 7415,
      "ndejl": 7416,
      "tStow": 7417,
      "pitS": 7418,
      "Ifs": 7419,
      "wASIN": 7420,
      "kum": 7421,
      "bdZEkS": 7422,
      "dZAki": 7423,
      "zAmbi": 7424,
      "Abz": 7425,
      "VndIs": 7426,
      "slAvIk": 7427,
      "sajklow": 7428,
      "dIsks": 7429,
      "imejk": 7430,
      "izd": 7431,
      "dEpTs": 7432,
      "mowzAr": 7433,
      "ajtS": 7434,
      "lowdZ": 7435,
      "kAmbajn": 7436,
      "lAndZ": 7437,
      "bEnz": 7438,
      "tsk": 7439,
      "bowi": 7440,
      "bejaj": 7441,
      "dZup": 7442,
      "bust": 7443,
      "lawdr": 7444,
      "SEvr": 7445,
      "bojl": 7446,
      "glImps": 7447,
      "ntik": 7448,
      "mowbIl": 7449,
      "mitiOr": 7450,
      "ejdZd": 7451,
      "isajk": 7452,
      "bIfr": 7453,
      "tSIps": 7454,
      "dVdli": 7455,
      "livaj": 7456,
      "ejT": 7457,
      "eji": 7458,
      "dajl": 7459,
      "SIftr": 7460,
      "mejtowz": 7461,
      "lajnb": 7462,
      "tIsts": 7463,
      "fEnsr": 7464,
      "vEnr": 7465,
      "iIntr": 7466,
      "ndownr": 7467,
      "fowks": 7468,
      "gE": 7469,
      "zfild": 7470,
      "klIps": 7471,
      "ISr": 7472,
      "kajt": 7473,
      "EfjU": 7474,
      "stejsi": 7475,
      "EfjUdZi": 7476,
      "nsEptSu": 7477,
      "duEt": 7478,
      "tajfun": 7479,
      "wajp": 7480,
      "ndOtr": 7481,
      "sEnst": 7482,
      "kVltIvejS": 7483,
      "wUdi": 7484,
      "dIstIl": 7485,
      "mowtif": 7486,
      "dSIp": 7487,
      "lvAr": 7488,
      "mjus": 7489,
      "dEvi": 7490,
      "owsaj": 7491,
      "isIZ": 7492,
      "ndZow": 7493,
      "EngejdZIN": 7494,
      "kAbr": 7495,
      "Sh": 7496,
      "kawboj": 7497,
      "stIp": 7498,
      "IstOf": 7499,
      "nIb": 7500,
      "viv": 7501,
      "Implojm": 7502,
      "Izajdz": 7503,
      "litr": 7504,
      "skA": 7505,
      "ANks": 7506,
      "IntImId": 7507,
      "dajk": 7508,
      "udr": 7509,
      "bowlr": 7510,
      "iSiejS": 7511,
      "kVnst": 7512,
      "Enlajt": 7513,
      "ndAlf": 7514,
      "kElr": 7515,
      "mitir": 7516,
      "ejIs": 7517,
      "tivow": 7518,
      "wajli": 7519,
      "dowp": 7520,
      "nVl": 7521,
      "lOntSIN": 7522,
      "dZuliow": 7523,
      "kowstr": 7524,
      "gIm": 7525,
      "ndik": 7526,
      "tSh": 7527,
      "dZIstIks": 7528,
      "ejvd": 7529,
      "inu": 7530,
      "fVNg": 7531,
      "kOli": 7532,
      "bIlVvd": 7533,
      "kEmIk": 7534,
      "stElr": 7535,
      "hAstIl": 7536,
      "vEz": 7537,
      "Twej": 7538,
      "gVnd": 7539,
      "InT": 7540,
      "klub": 7541,
      "sIlIk": 7542,
      "EtSr": 7543,
      "lEktIvli": 7544,
      "sEgund": 7545,
      "swItSIN": 7546,
      "ktSu": 7547,
      "Ifowli": 7548,
      "tVgd": 7549,
      "bawd": 7550,
      "gwAd": 7551,
      "inl": 7552,
      "iviejt": 7553,
      "dZEZuIt": 7554,
      "slr": 7555,
      "bajowd": 7556,
      "fidb": 7557,
      "ImEns": 7558,
      "vIks": 7559,
      "fajnr": 7560,
      "bUtSr": 7561,
      "mownj": 7562,
      "wUlfg": 7563,
      "nsmItId": 7564,
      "pAlIn": 7565,
      "ElvIs": 7566,
      "VnImplojm": 7567,
      "dZEns": 7568,
      "nAnpr": 7569,
      "pEmbr": 7570,
      "dZON": 7571,
      "upt": 7572,
      "IkstIN": 7573,
      "wEndi": 7574,
      "fojl": 7575,
      "howmpIdZ": 7576,
      "dawnwr": 7577,
      "igejnd": 7578,
      "dZinowm": 7579,
      "sAfmOr": 7580,
      "blowIN": 7581,
      "wb": 7582,
      "pajplajn": 7583,
      "kowts": 7584,
      "nojr": 7585,
      "hOt": 7586,
      "Ezi": 7587,
      "Imd": 7588,
      "stAt": 7589,
      "uIz": 7590,
      "IkstINkS": 7591,
      "SEli": 7592,
      "tSEks": 7593,
      "lusli": 7594,
      "kinow": 7595,
      "vEndr": 7596,
      "nIgr": 7597,
      "kIp": 7598,
      "flEmIN": 7599,
      "ndskejps": 7600,
      "hApr": 7601,
      "nwr": 7602,
      "dIfajnz": 7603,
      "Olbi": 7604,
      "ntid": 7605,
      "spElz": 7606,
      "kAmi": 7607,
      "dINli": 7608,
      "kowvi": 7609,
      "plVndZ": 7610,
      "Saw": 7611,
      "iejtId": 7612,
      "skAl": 7613,
      "mIdwej": 7614,
      "bsr": 7615,
      "lINgwIstIks": 7616,
      "pIp": 7617,
      "dZejm": 7618,
      "spun": 7619,
      "owzAr": 7620,
      "sajdr": 7621,
      "sEntS": 7622,
      "VntIN": 7623,
      "sinIk": 7624,
      "tii": 7625,
      "sVnr": 7626,
      "powlbAt": 7627,
      "owkjUr": 7628,
      "nIkt": 7629,
      "klIfr": 7630,
      "pAzIt": 7631,
      "howk": 7632,
      "dejtajm": 7633,
      "fIntS": 7634,
      "skIp": 7635,
      "OzbOr": 7636,
      "stEmz": 7637,
      "mv": 7638,
      "zON": 7639,
      "Odli": 7640,
      "EntSm": 7641,
      "dIlIS": 7642,
      "bElow": 7643,
      "dIbr": 7644,
      "tImr": 7645,
      "IdZEkS": 7646,
      "mEtIk": 7647,
      "dZIs": 7648,
      "stVft": 7649,
      "pbz": 7650,
      "lONd": 7651,
      "lEksIs": 7652,
      "kowlts": 7653,
      "hajkIN": 7654,
      "lowpEz": 7655,
      "jusl": 7656,
      "Odi": 7657,
      "idZoj": 7658,
      "kfAr": 7659,
      "ojstr": 7660,
      "tajpej": 7661,
      "kwejkr": 7662,
      "owfawnd": 7663,
      "Olf": 7664,
      "Sid": 7665,
      "Sw": 7666,
      "ziow": 7667,
      "glOstr": 7668,
      "ajsIN": 7669,
      "lOd": 7670,
      "dInowt": 7671,
      "spajs": 7672,
      "flIk": 7673,
      "stejz": 7674,
      "owkIn": 7675,
      "Ivz": 7676,
      "gUstAf": 7677,
      "ejkdawn": 7678,
      "hejlikAl": 7679,
      "dejlajt": 7680,
      "Adni": 7681,
      "Izajn": 7682,
      "bdZEkt": 7683,
      "hEmIs": 7684,
      "Amz": 7685,
      "fiown": 7686,
      "EdIS": 7687,
      "IsIpItejS": 7688,
      "IfEktIvn": 7689,
      "ejtinT": 7690,
      "owbz": 7691,
      "SEv": 7692,
      "sejvz": 7693,
      "lkVt": 7694,
      "tOlr": 7695,
      "sINt": 7696,
      "sEps": 7697,
      "kfr": 7698,
      "upIN": 7699,
      "fInISIz": 7700,
      "fVN": 7701,
      "Iliz": 7702,
      "snejks": 7703,
      "kAmpjutejS": 7704,
      "pEld": 7705,
      "pVntSIz": 7706,
      "hOld": 7707,
      "spEsIfIkejS": 7708,
      "dZVmpr": 7709,
      "lfAnsow": 7710,
      "bowlS": 7711,
      "pulz": 7712,
      "dEkstr": 7713,
      "dIfajnIN": 7714,
      "Ngli": 7715,
      "kIns": 7716,
      "guld": 7717,
      "bnOr": 7718,
      "ETnIs": 7719,
      "sif": 7720,
      "powni": 7721,
      "nwA": 7722,
      "bajowkEm": 7723,
      "ejnts": 7724,
      "bejtId": 7725,
      "sajzIN": 7726,
      "pOli": 7727,
      "dZVdZd": 7728,
      "InsEpS": 7729,
      "sItkAm": 7730,
      "EnsIk": 7731,
      "bihAr": 7732,
      "OlbiIt": 7733,
      "nsIsk": 7734,
      "idIT": 7735,
      "Enow": 7736,
      "lw": 7737,
      "gnIf": 7738,
      "ndb": 7739,
      "kOn": 7740,
      "swithAr": 7741,
      "titSINz": 7742,
      "vInd": 7743,
      "bISajr": 7744,
      "suni": 7745,
      "awdz": 7746,
      "kEmIst": 7747,
      "sfr": 7748,
      "stilr": 7749,
      "tg": 7750,
      "pmEnt": 7751,
      "powzIz": 7752,
      "SawtIN": 7753,
      "hIgInz": 7754,
      "wINk": 7755,
      "idZEnr": 7756,
      "kAvski": 7757,
      "gAlwej": 7758,
      "Snajdr": 7759,
      "igEz": 7760,
      "nzdZEndr": 7761,
      "tINg": 7762,
      "tSejsIN": 7763,
      "nawt": 7764,
      "pilIN": 7765,
      "Tif": 7766,
      "nejtIvz": 7767,
      "dZAl": 7768,
      "dowvr": 7769,
      "ldow": 7770,
      "bUli": 7771,
      "tIg": 7772,
      "Isajzd": 7773,
      "mAfi": 7774,
      "ltS": 7775,
      "lEnd": 7776,
      "hbow": 7777,
      "nEts": 7778,
      "ajvwej": 7779,
      "kks": 7780,
      "vAlkejnow": 7781,
      "Esli": 7782,
      "dZudI": 7783,
      "tit": 7784,
      "tEli": 7785,
      "ndiz": 7786,
      "ksidIN": 7787,
      "tSIs": 7788,
      "slajs": 7789,
      "wINsp": 7790,
      "lAkIN": 7791,
      "simOr": 7792,
      "flEmIS": 7793,
      "dIskAr": 7794,
      "dVmp": 7795,
      "IptSr": 7796,
      "ajown": 7797,
      "skwIn": 7798,
      "ht": 7799,
      "bVlb": 7800,
      "dIskwAl": 7801,
      "Ambown": 7802,
      "bjuts": 7803,
      "dIsplejst": 7804,
      "Nzu": 7805,
      "pEp": 7806,
      "twA": 7807,
      "kajzr": 7808,
      "dIfOlt": 7809,
      "skajr": 7810,
      "dIsplejsm": 7811,
      "mudi": 7812,
      "lENT": 7813,
      "zIp": 7814,
      "gajn": 7815,
      "glIn": 7816,
      "mawntId": 7817,
      "dowmejnz": 7818,
      "pejg": 7819,
      "kVnINh": 7820,
      "awtwr": 7821,
      "kAstu": 7822,
      "mij": 7823,
      "hows": 7824,
      "hajejt": 7825,
      "hEvir": 7826,
      "mowbi": 7827,
      "TOtf": 7828,
      "kwAtIk": 7829,
      "owlIfIk": 7830,
      "nilj": 7831,
      "kUkt": 7832,
      "gejzd": 7833,
      "zuki": 7834,
      "mIdZ": 7835,
      "pAlItEknIk": 7836,
      "tis": 7837,
      "sVlfr": 7838,
      "kejst": 7839,
      "owmAn": 7840,
      "timd": 7841,
      "mIstejks": 7842,
      "gowni": 7843,
      "dIsm": 7844,
      "bf": 7845,
      "dZajzd": 7846,
      "fejS": 7847,
      "dIzajnIN": 7848,
      "tks": 7849,
      "sInr": 7850,
      "mbik": 7851,
      "tajtr": 7852,
      "nIndZ": 7853,
      "nEkl": 7854,
      "dmi": 7855,
      "lIvINst": 7856,
      "kjubIk": 7857,
      "utow": 7858,
      "AmEtr": 7859,
      "vajvz": 7860,
      "Indajt": 7861,
      "ufs": 7862,
      "EmIs": 7863,
      "lImf": 7864,
      "SIpm": 7865,
      "glVvz": 7866,
      "tajs": 7867,
      "awtkVmz": 7868,
      "sows": 7869,
      "iSiejtId": 7870,
      "nAtsiz": 7871,
      "wEstwr": 7872,
      "SIfts": 7873,
      "wEnd": 7874,
      "owkIN": 7875,
      "plVg": 7876,
      "sus": 7877,
      "dEni": 7878,
      "lENTi": 7879,
      "bdVl": 7880,
      "mir": 7881,
      "hOkInz": 7882,
      "wIst": 7883,
      "AbIN": 7884,
      "Inmejts": 7885,
      "Iksklejmd": 7886,
      "lVft": 7887,
      "EndZr": 7888,
      "sowdi": 7889,
      "mVSr": 7890,
      "stVbr": 7891,
      "dEnS": 7892,
      "nukVmr": 7893,
      "owps": 7894,
      "binz": 7895,
      "dIfits": 7896,
      "glItr": 7897,
      "lAows": 7898,
      "usejdr": 7899,
      "IstSr": 7900,
      "awtskr": 7901,
      "luZ": 7902,
      "nfajnd": 7903,
      "nzfild": 7904,
      "zIi": 7905,
      "stSr": 7906,
      "nAstr": 7907,
      "ftsm": 7908,
      "owku": 7909,
      "ItejnIN": 7910,
      "EnItS": 7911,
      "lIpr": 7912,
      "IsIsts": 7913,
      "munlajt": 7914,
      "slIpIN": 7915,
      "vejr": 7916,
      "fEt": 7917,
      "dZVNk": 7918,
      "duz": 7919,
      "EdwAr": 7920,
      "ftIN": 7921,
      "ldZi": 7922,
      "Vmpajr": 7923,
      "ITi": 7924,
      "mES": 7925,
      "nAf": 7926,
      "mEnju": 7927,
      "awns": 7928,
      "dowb": 7929,
      "plejgr": 7930,
      "ItSt": 7931,
      "blINk": 7932,
      "junIk": 7933,
      "nnejmd": 7934,
      "nawnsIN": 7935,
      "towst": 7936,
      "pIknIk": 7937,
      "ntSt": 7938,
      "IlIn": 7939,
      "difEkt": 7940,
      "fiOr": 7941,
      "Atu": 7942,
      "bVNkr": 7943,
      "kAstumz": 7944,
      "lAfiEt": 7945,
      "sEli": 7946,
      "nAns": 7947,
      "zIv": 7948,
      "Ildr": 7949,
      "vAk": 7950,
      "pOlin": 7951,
      "IkskludIN": 7952,
      "ndli": 7953,
      "dElIk": 7954,
      "nejowmi": 7955,
      "blIn": 7956,
      "ojld": 7957,
      "owmr": 7958,
      "bVgz": 7959,
      "lvejS": 7960,
      "mItIN": 7961,
      "Askow": 7962,
      "gnajzIN": 7963,
      "ImIt": 7964,
      "sajkIk": 7965,
      "Nstr": 7966,
      "ajtli": 7967,
      "kIdni": 7968,
      "InflIkt": 7969,
      "nowtIs": 7970,
      "InfIn": 7971,
      "InsEnt": 7972,
      "pVntSt": 7973,
      "nawns": 7974,
      "vowlz": 7975,
      "fAn": 7976,
      "fInz": 7977,
      "Igejn": 7978,
      "swININ": 7979,
      "mEdow": 7980,
      "Ilejn": 7981,
      "Iskejps": 7982,
      "vejni": 7983,
      "glustr": 7984,
      "hawsIz": 7985,
      "hin": 7986,
      "najdZr": 7987,
      "nkAk": 7988,
      "IzejS": 7989,
      "oju": 7990,
      "nEf": 7991,
      "Ents": 7992,
      "Ond": 7993,
      "Itunz": 7994,
      "vInjr": 7995,
      "jAmA": 7996,
      "Vkr": 7997,
      "klaws": 7998,
      "lAdZIkli": 7999,
      "kEmp": 8000,
      "sowz": 8001,
      "powstsis": 8002,
      "tSju": 8003,
      "skajs": 8004,
      "mEdowz": 8005,
      "glej": 8006,
      "pUlm": 8007,
      "biow": 8008,
      "duks": 8009,
      "lVS": 8010,
      "sImz": 8011,
      "timmejts": 8012,
      "gubr": 8013,
      "mowk": 8014,
      "Nli": 8015,
      "nTi": 8016,
      "kAnflu": 8017,
      "Ignr": 8018,
      "tejtow": 8019,
      "twajlajt": 8020,
      "Osk": 8021,
      "InfIltr": 8022,
      "InISi": 8023,
      "glAmr": 8024,
      "lojr": 8025,
      "IbjuS": 8026,
      "bAku": 8027,
      "ltejS": 8028,
      "dEks": 8029,
      "lajbIr": 8030,
      "slajdz": 8031,
      "Inklaj": 8032,
      "awlz": 8033,
      "tAb": 8034,
      "bimz": 8035,
      "tSejst": 8036,
      "iowlz": 8037,
      "flVdz": 8038,
      "bOlr": 8039,
      "tSON": 8040,
      "lwUd": 8041,
      "dejEm": 8042,
      "nSUr": 8043,
      "tejtIv": 8044,
      "silz": 8045,
      "bIznIs": 8046,
      "wajndIN": 8047,
      "spEktIvz": 8048,
      "lh": 8049,
      "skApIk": 8050,
      "hEbr": 8051,
      "milz": 8052,
      "fowldIN": 8053,
      "IndEvr": 8054,
      "bajowdajvr": 8055,
      "wAb": 8056,
      "bmw": 8057,
      "uft": 8058,
      "stilz": 8059,
      "mAkt": 8060,
      "nEvIl": 8061,
      "nSIr": 8062,
      "luidZi": 8063,
      "hIndr": 8064,
      "dEgr": 8065,
      "nowtejS": 8066,
      "ktv": 8067,
      "howbAr": 8068,
      "mowts": 8069,
      "hAviEr": 8070,
      "jAndr": 8071,
      "sVspEkts": 8072,
      "tuz": 8073,
      "SEt": 8074,
      "EstSu": 8075,
      "owIlEktr": 8076,
      "IptId": 8077,
      "nowdz": 8078,
      "lAi": 8079,
      "kwAn": 8080,
      "gs": 8081,
      "IgzAtIk": 8082,
      "mIdwEst": 8083,
      "slowr": 8084,
      "InhIr": 8085,
      "pItSIN": 8086,
      "nui": 8087,
      "tlIN": 8088,
      "mfl": 8089,
      "Izajd": 8090,
      "bAdigAr": 8091,
      "vIntIdZ": 8092,
      "stAkt": 8093,
      "dZudISiEr": 8094,
      "tIld": 8095,
      "IntEst": 8096,
      "IlejS": 8097,
      "ajAn": 8098,
      "owbAts": 8099,
      "VstIN": 8100,
      "ij": 8101,
      "Tlin": 8102,
      "fAd": 8103,
      "nowvow": 8104,
      "Intow": 8105,
      "Tt": 8106,
      "Implajz": 8107,
      "wejvIN": 8108,
      "smITsowni": 8109,
      "mVg": 8110,
      "blEs": 8111,
      "wINd": 8112,
      "skajskr": 8113,
      "fIkt": 8114,
      "EsIvli": 8115,
      "nkAm": 8116,
      "kAnwej": 8117,
      "sojlz": 8118,
      "InfIr": 8119,
      "lownj": 8120,
      "wUdr": 8121,
      "klIft": 8122,
      "dSr": 8123,
      "fajlIN": 8124,
      "tOs": 8125,
      "lvIn": 8126,
      "sowbr": 8127,
      "fejn": 8128,
      "ndfOr": 8129,
      "hajdZ": 8130,
      "plejnt": 8131,
      "zajt": 8132,
      "lvi": 8133,
      "ditr": 8134,
      "kUS": 8135,
      "lAhOr": 8136,
      "pawlow": 8137,
      "mVskj": 8138,
      "sOndr": 8139,
      "tVls": 8140,
      "wEdZ": 8141,
      "spAnt": 8142,
      "lEksINt": 8143,
      "gAnzAl": 8144,
      "tEmpow": 8145,
      "dZajlz": 8146,
      "dZEnz": 8147,
      "mintajm": 8148,
      "lajvli": 8149,
      "gul": 8150,
      "plEdZ": 8151,
      "hAstIdZ": 8152,
      "ejviejtr": 8153,
      "mAtejow": 8154,
      "dIfIn": 8155,
      "wIlk": 8156,
      "sIlAn": 8157,
      "owdiZ": 8158,
      "hEmIsfIr": 8159,
      "skAp": 8160,
      "InflejS": 8161,
      "iskr": 8162,
      "mAnz": 8163,
      "lwr": 8164,
      "lups": 8165,
      "Asm": 8166,
      "nAtS": 8167,
      "Espi": 8168,
      "slIk": 8169,
      "dwajt": 8170,
      "lIftr": 8171,
      "sajdwOk": 8172,
      "slA": 8173,
      "bowni": 8174,
      "hAlIk": 8175,
      "Vsts": 8176,
      "bIst": 8177,
      "AspEr": 8178,
      "owbow": 8179,
      "EnkowdId": 8180,
      "nawnsIz": 8181,
      "mawntIN": 8182,
      "dZudow": 8183,
      "Ozbi": 8184,
      "AmOr": 8185,
      "pAmp": 8186,
      "hOTOr": 8187,
      "mlz": 8188,
      "kjowtow": 8189,
      "awtlEt": 8190,
      "nOts": 8191,
      "kplejs": 8192,
      "mEdli": 8193,
      "dZEnINz": 8194,
      "tIgr": 8195,
      "linow": 8196,
      "itEndIN": 8197,
      "gdp": 8198,
      "zumd": 8199,
      "idAn": 8200,
      "Sowkejs": 8201,
      "mOd": 8202,
      "klIfs": 8203,
      "Ilist": 8204,
      "kowhIr": 8205,
      "bajowm": 8206,
      "kowlr": 8207,
      "dawnstr": 8208,
      "Edn": 8209,
      "sowsiow": 8210,
      "mInIN": 8211,
      "owIk": 8212,
      "sIndi": 8213,
      "nkajnd": 8214,
      "Igejdz": 8215,
      "stVnt": 8216,
      "Sul": 8217,
      "wIpt": 8218,
      "AidAn": 8219,
      "sili": 8220,
      "Sajni": 8221,
      "hAd": 8222,
      "gAT": 8223,
      "nAz": 8224,
      "litS": 8225,
      "dItejnd": 8226,
      "dAb": 8227,
      "ziIi": 8228,
      "gwaj": 8229,
      "klind": 8230,
      "lIzi": 8231,
      "fejbr": 8232,
      "dhi": 8233,
      "EtejS": 8234,
      "kojnd": 8235,
      "isi": 8236,
      "lAnz": 8237,
      "lIndr": 8238,
      "kwejks": 8239,
      "VTr": 8240,
      "Enk": 8241,
      "Estl": 8242,
      "nAdIN": 8243,
      "dAli": 8244,
      "dIfInItIv": 8245,
      "tbit": 8246,
      "Emj": 8247,
      "swIftli": 8248,
      "fItId": 8249,
      "ksEpts": 8250,
      "ksAr": 8251,
      "bajtIN": 8252,
      "nvInsIN": 8253,
      "stimr": 8254,
      "jEp": 8255,
      "isEt": 8256,
      "kdz": 8257,
      "bajnd": 8258,
      "ldOr": 8259,
      "fEkts": 8260,
      "kOfIn": 8261,
      "IlIs": 8262,
      "spEns": 8263,
      "ptAp": 8264,
      "pVnt": 8265,
      "zImr": 8266,
      "IskejpIN": 8267,
      "kuz": 8268,
      "owlIviej": 8269,
      "kojl": 8270,
      "hAf": 8271,
      "InstIt": 8272,
      "bajdZAni": 8273,
      "fEnsIN": 8274,
      "awtlIdZ": 8275,
      "ElIn": 8276,
      "VNks": 8277,
      "Ofspr": 8278,
      "kOtS": 8279,
      "IpswItS": 8280,
      "sfaj": 8281,
      "skawtIN": 8282,
      "dIkl": 8283,
      "tAg": 8284,
      "pv": 8285,
      "fIlIs": 8286,
      "Olbr": 8287,
      "dZEtIk": 8288,
      "dIsgajz": 8289,
      "fjudZ": 8290,
      "uow": 8291,
      "SUlts": 8292,
      "nnEs": 8293,
      "subr": 8294,
      "sAs": 8295,
      "hir": 8296,
      "gnA": 8297,
      "ntI": 8298,
      "hits": 8299,
      "idIvEl": 8300,
      "mAnow": 8301,
      "towp": 8302,
      "dZVstm": 8303,
      "lEpId": 8304,
      "mownd": 8305,
      "skju": 8306,
      "dZAm": 8307,
      "lVmbow": 8308,
      "hIks": 8309,
      "nawr": 8310,
      "blik": 8311,
      "tAnj": 8312,
      "vEnsk": 8313,
      "dImajz": 8314,
      "wejkIN": 8315,
      "ejnIr": 8316,
      "tizIN": 8317,
      "dEbi": 8318,
      "nEdr": 8319,
      "vitow": 8320,
      "powEtIk": 8321,
      "dajt": 8322,
      "powstIr": 8323,
      "sIstIN": 8324,
      "kmej": 8325,
      "stejtId": 8326,
      "powlIN": 8327,
      "Emow": 8328,
      "mInd": 8329,
      "pAti": 8330,
      "fulIS": 8331,
      "Ikskr": 8332,
      "tizd": 8333,
      "sAli": 8334,
      "bid": 8335,
      "Ob": 8336,
      "kIks": 8337,
      "Ikowl": 8338,
      "Sejdz": 8339,
      "pAlInowmi": 8340,
      "ejpEks": 8341,
      "kIdIN": 8342,
      "dVsti": 8343,
      "hild": 8344,
      "bIm": 8345,
      "nsej": 8346,
      "owlg": 8347,
      "dAg": 8348,
      "kAi": 8349,
      "Dejd": 8350,
      "lejgOs": 8351,
      "dINt": 8352,
      "hVmb": 8353,
      "tEz": 8354,
      "Ilajd": 8355,
      "Endawm": 8356,
      "Zi": 8357,
      "tVb": 8358,
      "hejnz": 8359,
      "flowd": 8360,
      "tAku": 8361,
      "put": 8362,
      "sVbdIstr": 8363,
      "jowS": 8364,
      "IlON": 8365,
      "kfOr": 8366,
      "sudow": 8367,
      "Zaw": 8368,
      "swipIN": 8369,
      "sejfr": 8370,
      "mIsr": 8371,
      "dVt": 8372,
      "mbUS": 8373,
      "dZowks": 8374,
      "IgAn": 8375,
      "plejf": 8376,
      "ejpIN": 8377,
      "fni": 8378,
      "lVs": 8379,
      "Tini": 8380,
      "SAtgVn": 8381,
      "siZr": 8382,
      "AdIS": 8383,
      "zik": 8384,
      "fawlr": 8385,
      "dVf": 8386,
      "dwElIN": 8387,
      "tudr": 8388,
      "mejli": 8389,
      "bfb": 8390,
      "sutr": 8391,
      "ETn": 8392,
      "plum": 8393,
      "jaw": 8394,
      "dInowts": 8395,
      "ejtow": 8396,
      "dIlit": 8397,
      "sEnsItIv": 8398,
      "Vndi": 8399,
      "Enaj": 8400,
      "istwr": 8401,
      "AvEndZr": 8402,
      "dejni": 8403,
      "EtSIn": 8404,
      "spaws": 8405,
      "sAlvd": 8406,
      "fejli": 8407,
      "nsli": 8408,
      "tAv": 8409,
      "fElr": 8410,
      "snejlz": 8411,
      "dIdZEnr": 8412,
      "mVltiplejr": 8413,
      "kVmbajnz": 8414,
      "ejniz": 8415,
      "sejvr": 8416,
      "bAp": 8417,
      "dESi": 8418,
      "sntSEz": 8419,
      "bIgInINz": 8420,
      "bdZEktId": 8421,
      "gUdm": 8422,
      "ubIn": 8423,
      "plr": 8424,
      "tejps": 8425,
      "bitiz": 8426,
      "nwIlIN": 8427,
      "dmItr": 8428,
      "wIlfr": 8429,
      "kejks": 8430,
      "gnAstIk": 8431,
      "uu": 8432,
      "dZAg": 8433,
      "vowlks": 8434,
      "owlIn": 8435,
      "hjur": 8436,
      "Nksi": 8437,
      "nsIS": 8438,
      "kIti": 8439,
      "Implajd": 8440,
      "fUlb": 8441,
      "lowsIs": 8442,
      "mEsi": 8443,
      "dItEktr": 8444,
      "vejkejt": 8445,
      "EksplojtejS": 8446,
      "pAlImr": 8447,
      "EnsuIN": 8448,
      "EnAv": 8449,
      "stajld": 8450,
      "Vkn": 8451,
      "ngAr": 8452,
      "jAd": 8453,
      "klajv": 8454,
      "wIltSajr": 8455,
      "EstSuEr": 8456,
      "ntEndr": 8457,
      "Sb": 8458,
      "vejtIN": 8459,
      "tnEz": 8460,
      "ntSu": 8461,
      "lInr": 8462,
      "kIdZIN": 8463,
      "Inklajnd": 8464,
      "idIstr": 8465,
      "wEld": 8466,
      "pVnIS": 8467,
      "dIklajnIN": 8468,
      "kuld": 8469,
      "ATr": 8470,
      "tinow": 8471,
      "hEdm": 8472,
      "tSowkt": 8473,
      "tSoj": 8474,
      "blEsIN": 8475,
      "nEsk": 8476,
      "nuzk": 8477,
      "spEk": 8478,
      "owtejtIN": 8479,
      "nfInISt": 8480,
      "hIstwAr": 8481,
      "ejZi": 8482,
      "dajnr": 8483,
      "fAsfr": 8484,
      "nhawr": 8485,
      "plAts": 8486,
      "kulr": 8487,
      "uInz": 8488,
      "najvz": 8489,
      "lIpt": 8490,
      "SElbi": 8491,
      "fidz": 8492,
      "dZVd": 8493,
      "lisIN": 8494,
      "nAs": 8495,
      "tejnr": 8496,
      "Avr": 8497,
      "Vpstr": 8498,
      "nds": 8499,
      "StS": 8500,
      "awtsajdr": 8501,
      "stejtwajd": 8502,
      "vAt": 8503,
      "Aldi": 8504,
      "kpr": 8505,
      "pAlISt": 8506,
      "kAzmIk": 8507,
      "bejdows": 8508,
      "ajkAnIk": 8509,
      "fEmIn": 8510,
      "gejtIv": 8511,
      "powstgr": 8512,
      "inwUd": 8513,
      "liIs": 8514,
      "Ukr": 8515,
      "InstINkt": 8516,
      "sIndIkejtId": 8517,
      "zEN": 8518,
      "sAlvIN": 8519,
      "gEsIkt": 8520,
      "sOjr": 8521,
      "tInz": 8522,
      "lIfts": 8523,
      "ndpEr": 8524,
      "hajmi": 8525,
      "mAv": 8526,
      "Asu": 8527,
      "Igzr": 8528,
      "mbIgju": 8529,
      "bejS": 8530,
      "vIki": 8531,
      "hAbi": 8532,
      "AlejjAndr": 8533,
      "sajdwejz": 8534,
      "wowv": 8535,
      "owmIt": 8536,
      "bAdid": 8537,
      "IzEnt": 8538,
      "AmAr": 8539,
      "klejn": 8540,
      "skejp": 8541,
      "nsin": 8542,
      "InsIk": 8543,
      "bIsi": 8544,
      "pAgr": 8545,
      "dIlejz": 8546,
      "ajmi": 8547,
      "pEndIN": 8548,
      "wajnr": 8549,
      "lOft": 8550,
      "gowmEz": 8551,
      "plk": 8552,
      "iki": 8553,
      "bEz": 8554,
      "lejzi": 8555,
      "gwAm": 8556,
      "EntIn": 8557,
      "gut": 8558,
      "skwi": 8559,
      "Tiow": 8560,
      "mpits": 8561,
      "sIkr": 8562,
      "blVnt": 8563,
      "dZp": 8564,
      "kAtow": 8565,
      "msf": 8566,
      "sIvli": 8567,
      "stIS": 8568,
      "dIsbIlif": 8569,
      "udow": 8570,
      "kOfm": 8571,
      "smejts": 8572,
      "npOr": 8573,
      "Ogjr": 8574,
      "EntIk": 8575,
      "gUr": 8576,
      "nsejt": 8577,
      "IzIstId": 8578,
      "vEd": 8579,
      "pEpt": 8580,
      "blIvi": 8581,
      "ivjuIN": 8582,
      "hItr": 8583,
      "powstIN": 8584,
      "tAZ": 8585,
      "vajpr": 8586,
      "tejkowvr": 8587,
      "plA": 8588,
      "nVnz": 8589,
      "wejkfild": 8590,
      "nIsbr": 8591,
      "Emil": 8592,
      "bEv": 8593,
      "pES": 8594,
      "sAfi": 8595,
      "Osowvr": 8596,
      "svr": 8597,
      "gwajr": 8598,
      "zus": 8599,
      "imow": 8600,
      "NgAr": 8601,
      "kajvd": 8602,
      "mVt": 8603,
      "SImr": 8604,
      "Tkwejks": 8605,
      "stul": 8606,
      "pInz": 8607,
      "kwInsi": 8608,
      "swAnsi": 8609,
      "Egzajld": 8610,
      "uzbEkIst": 8611,
      "ETl": 8612,
      "dZip": 8613,
      "bejlr": 8614,
      "owkInAw": 8615,
      "zINk": 8616,
      "tSI": 8617,
      "OdIS": 8618,
      "glajdr": 8619,
      "bdowm": 8620,
      "nEnsIs": 8621,
      "Isiow": 8622,
      "lajflON": 8623,
      "hejm": 8624,
      "pajIN": 8625,
      "ntEnS": 8626,
      "InOgjr": 8627,
      "ndawt": 8628,
      "kowInsId": 8629,
      "pdejts": 8630,
      "InvEr": 8631,
      "nini": 8632,
      "lEksIk": 8633,
      "sAnd": 8634,
      "ndlOr": 8635,
      "mgm": 8636,
      "bEki": 8637,
      "piEtr": 8638,
      "wikEndz": 8639,
      "ptIst": 8640,
      "sEnsIN": 8641,
      "kwow": 8642,
      "dAlz": 8643,
      "mojstSr": 8644,
      "ntSIldr": 8645,
      "mITs": 8646,
      "hElpf": 8647,
      "ifs": 8648,
      "nAtIN": 8649,
      "bEgIN": 8650,
      "howgAn": 8651,
      "dZVdZIN": 8652,
      "snajdr": 8653,
      "flVS": 8654,
      "flVSt": 8655,
      "gIbz": 8656,
      "IndEf": 8657,
      "SlEs": 8658,
      "VndIfi": 8659,
      "VndIfitId": 8660,
      "zajmz": 8661,
      "spAntejni": 8662,
      "tAnIk": 8663,
      "nIf": 8664,
      "lajnstr": 8665,
      "pVlS": 8666,
      "jub": 8667,
      "dawts": 8668,
      "mbAr": 8669,
      "lInt": 8670,
      "ImIr": 8671,
      "Amptli": 8672,
      "SEld": 8673,
      "wl": 8674,
      "utm": 8675,
      "spowksm": 8676,
      "knAlIdZ": 8677,
      "howmstEd": 8678,
      "istAr": 8679,
      "ndAnt": 8680,
      "tSV": 8681,
      "sIkstinT": 8682,
      "IspOr": 8683,
      "ObEr": 8684,
      "twIstIN": 8685,
      "TAm": 8686,
      "ElajdZ": 8687,
      "fliIN": 8688,
      "mplIN": 8689,
      "wElmd": 8690,
      "dIsAr": 8691,
      "bvr": 8692,
      "EdIs": 8693,
      "NkIn": 8694,
      "ktIvejtId": 8695,
      "timOr": 8696,
      "mplejn": 8697,
      "AnsEt": 8698,
      "kAmli": 8699,
      "owbVst": 8700,
      "zb": 8701,
      "vg": 8702,
      "tIsjuz": 8703,
      "uzd": 8704,
      "lejkr": 8705,
      "kugr": 8706,
      "EktOr": 8707,
      "niEl": 8708,
      "skulIN": 8709,
      "nsild": 8710,
      "kVmINz": 8711,
      "awzd": 8712,
      "nfEst": 8713,
      "mVltimidi": 8714,
      "lawr": 8715,
      "tVm": 8716,
      "pAzItId": 8717,
      "hUkt": 8718,
      "najnti": 8719,
      "ilz": 8720,
      "kjAr": 8721,
      "stVd": 8722,
      "kawt": 8723,
      "IgzEmpt": 8724,
      "hIld": 8725,
      "pIm": 8726,
      "tEnz": 8727,
      "nlIm": 8728,
      "nElt": 8729,
      "Tplejs": 8730,
      "tinEz": 8731,
      "dEtr": 8732,
      "snik": 8733,
      "bEgd": 8734,
      "sbi": 8735,
      "isis": 8736,
      "nsIliejS": 8737,
      "EstiZ": 8738,
      "dajAksajd": 8739,
      "sejd": 8740,
      "Inbr": 8741,
      "pEli": 8742,
      "Amn": 8743,
      "ajbIr": 8744,
      "wIDr": 8745,
      "VstS": 8746,
      "tajzm": 8747,
      "plOz": 8748,
      "kAkpIt": 8749,
      "dZAp": 8750,
      "dIvIn": 8751,
      "ntSIN": 8752,
      "owsIN": 8753,
      "AsEst": 8754,
      "lAb": 8755,
      "sEptIv": 8756,
      "mINg": 8757,
      "ibIldIN": 8758,
      "wUdn": 8759,
      "fIzi": 8760,
      "bVni": 8761,
      "stAks": 8762,
      "mInIstr": 8763,
      "sInTi": 8764,
      "mpjut": 8765,
      "Intejk": 8766,
      "kajowti": 8767,
      "dawtId": 8768,
      "Ilejts": 8769,
      "Vdr": 8770,
      "vajsr": 8771,
      "ikej": 8772,
      "hVnts": 8773,
      "kwIzIS": 8774,
      "Enzajmz": 8775,
      "najtIN": 8776,
      "lAwi": 8777,
      "hEdId": 8778,
      "dIzi": 8779,
      "gwi": 8780,
      "idZojnd": 8781,
      "pEgi": 8782,
      "njr": 8783,
      "pVnISt": 8784,
      "pEnr": 8785,
      "lIsejS": 8786,
      "hejlow": 8787,
      "stItS": 8788,
      "OlIk": 8789,
      "klowzIz": 8790,
      "Emplojz": 8791,
      "vIsi": 8792,
      "tIpr": 8793,
      "kwEz": 8794,
      "towpi": 8795,
      "dowmINgow": 8796,
      "dEdlajn": 8797,
      "pIlz": 8798,
      "awtS": 8799,
      "mEltIN": 8800,
      "nawn": 8801,
      "vitS": 8802,
      "lukr": 8803,
      "nEktId": 8804,
      "jAl": 8805,
      "Tiz": 8806,
      "EmIksIz": 8807,
      "dZOs": 8808,
      "imajndr": 8809,
      "sowkt": 8810,
      "ejNg": 8811,
      "dZVN": 8812,
      "mAsA": 8813,
      "tElEnAv": 8814,
      "pI": 8815,
      "sVpr": 8816,
      "ejTi": 8817,
      "skowl": 8818,
      "uzIN": 8819,
      "kAti": 8820,
      "zAmbiz": 8821,
      "ndEs": 8822,
      "dZjA": 8823,
      "pIgz": 8824,
      "sbOr": 8825,
      "dZn": 8826,
      "mojl": 8827,
      "mpVlsr": 8828,
      "bVfr": 8829,
      "mAdZulz": 8830,
      "mbitS": 8831,
      "klown": 8832,
      "liejz": 8833,
      "dw": 8834,
      "mInIk": 8835,
      "dEmi": 8836,
      "pAv": 8837,
      "kVN": 8838,
      "vEli": 8839,
      "ETs": 8840,
      "sowk": 8841,
      "klVm": 8842,
      "ejsIn": 8843,
      "owdajn": 8844,
      "wIlmINt": 8845,
      "ubr": 8846,
      "ntawn": 8847,
      "pejvm": 8848,
      "klEn": 8849,
      "IkwEstr": 8850,
      "gI": 8851,
      "VnIkspEktIdli": 8852,
      "Enslej": 8853,
      "gwIn": 8854,
      "lITIk": 8855,
      "tSowl": 8856,
      "sAtow": 8857,
      "ejvjAr": 8858,
      "nTIs": 8859,
      "nOs": 8860,
      "swEtr": 8861,
      "wImpr": 8862,
      "lOt": 8863,
      "tejg": 8864,
      "IspAndIN": 8865,
      "InvejsIv": 8866,
      "fowni": 8867,
      "lSIp": 8868,
      "mblr": 8869,
      "Egej": 8870,
      "niAl": 8871,
      "lEgr": 8872,
      "nOl": 8873,
      "stowv": 8874,
      "TIkn": 8875,
      "dmIts": 8876,
      "stejtsm": 8877,
      "mlA": 8878,
      "skejd": 8879,
      "wITst": 8880,
      "dZIni": 8881,
      "EmpIr": 8882,
      "fUlfIl": 8883,
      "ziA": 8884,
      "zvIl": 8885,
      "nfild": 8886,
      "ajj": 8887,
      "bejtowv": 8888,
      "bIdIN": 8889,
      "lism": 8890,
      "mwr": 8891,
      "owtIs": 8892,
      "sImpowzi": 8893,
      "TEntIk": 8894,
      "zIk": 8895,
      "sejb": 8896,
      "ejtOr": 8897,
      "ibIld": 8898,
      "INkr": 8899,
      "swowl": 8900,
      "owj": 8901,
      "slVg": 8902,
      "fidr": 8903,
      "gps": 8904,
      "blowz": 8905,
      "gowlskOr": 8906,
      "lIts": 8907,
      "wajnz": 8908,
      "iISud": 8909,
      "InIkwAl": 8910,
      "Itejnz": 8911,
      "jElIN": 8912,
      "nkludz": 8913,
      "dZudowk": 8914,
      "vIni": 8915,
      "dAts": 8916,
      "ajnstajn": 8917,
      "splItIN": 8918,
      "dInis": 8919,
      "nji": 8920,
      "ptajzd": 8921,
      "nuzlEtr": 8922,
      "fIzIsIsts": 8923,
      "sVv": 8924,
      "InIk": 8925,
      "awndr": 8926,
      "lIzIN": 8927,
      "IksidIN": 8928,
      "spowkspr": 8929,
      "mksi": 8930,
      "gajdIN": 8931,
      "dZEli": 8932,
      "ntinT": 8933,
      "kwAr": 8934,
      "owlu": 8935,
      "Inwr": 8936,
      "powstm": 8937,
      "mwej": 8938,
      "ikOr": 8939,
      "dIkIns": 8940,
      "sEnsItIvIti": 8941,
      "ntEnt": 8942,
      "dEpt": 8943,
      "hVntINt": 8944,
      "bks": 8945,
      "usejd": 8946,
      "ktAp": 8947,
      "InTi": 8948,
      "kjun": 8949,
      "pVlp": 8950,
      "lIfr": 8951,
      "lINr": 8952,
      "dinr": 8953,
      "EnvIZ": 8954,
      "InkVmIN": 8955,
      "fejb": 8956,
      "skwAS": 8957,
      "ajdEntItiz": 8958,
      "IzEmbl": 8959,
      "sVkIN": 8960,
      "vAks": 8961,
      "lOgIN": 8962,
      "wIkSr": 8963,
      "zowl": 8964,
      "hVsk": 8965,
      "IksplowsIvz": 8966,
      "Tbr": 8967,
      "lowwej": 8968,
      "kAnz": 8969,
      "ndIr": 8970,
      "dZEktr": 8971,
      "kOfski": 8972,
      "InsIgni": 8973,
      "kwEntS": 8974,
      "swits": 8975,
      "Eh": 8976,
      "fliz": 8977,
      "mIdZIN": 8978,
      "hEdl": 8979,
      "mEksIk": 8980,
      "kowmow": 8981,
      "sowtow": 8982,
      "najd": 8983,
      "owmEg": 8984,
      "ndejtId": 8985,
      "vAld": 8986,
      "spIld": 8987,
      "dZIg": 8988,
      "EdINz": 8989,
      "AkIN": 8990,
      "vUr": 8991,
      "Tej": 8992,
      "ajkawts": 8993,
      "juej": 8994,
      "kwIvr": 8995,
      "tSEsnVt": 8996,
      "owbej": 8997,
      "Ivju": 8998,
      "Abd": 8999,
      "lejtS": 9000,
      "ptIk": 9001,
      "wIlbr": 9002,
      "nowk": 9003,
      "IlONgejt": 9004,
      "mowzejIk": 9005,
      "didz": 9006,
      "InstItut": 9007,
      "pVmpIN": 9008,
      "IndVl": 9009,
      "stIkIN": 9010,
      "AkIm": 9011,
      "Enst": 9012,
      "ajzl": 9013,
      "ETr": 9014,
      "iplej": 9015,
      "dZIpsi": 9016,
      "liejzAn": 9017,
      "wajldr": 9018,
      "sklr": 9019,
      "libr": 9020,
      "Iski": 9021,
      "bawnst": 9022,
      "pAks": 9023,
      "snajpr": 9024,
      "fajnz": 9025,
      "pEdr": 9026,
      "tumz": 9027,
      "tAS": 9028,
      "hj": 9029,
      "woj": 9030,
      "lwejt": 9031,
      "skajlr": 9032,
      "ndZAbi": 9033,
      "dZowkIN": 9034,
      "mAp": 9035,
      "sInz": 9036,
      "isk": 9037,
      "fEstIv": 9038,
      "Envi": 9039,
      "ElIks": 9040,
      "bEliz": 9041,
      "wivIN": 9042,
      "kAtS": 9043,
      "spAndz": 9044,
      "Envoj": 9045,
      "vEnd": 9046,
      "nstejb": 9047,
      "AnT": 9048,
      "gAli": 9049,
      "Adu": 9050,
      "nIpAn": 9051,
      "ajslr": 9052,
      "Aktr": 9053,
      "fildIN": 9054,
      "kIlINz": 9055,
      "Amows": 9056,
      "sImEtr": 9057,
      "wINkt": 9058,
      "wEm": 9059,
      "slIpr": 9060,
      "sEti": 9061,
      "wir": 9062,
      "lIksAndr": 9063,
      "ISuIN": 9064,
      "nAtr": 9065,
      "Sejmd": 9066,
      "ejsIst": 9067,
      "zAv": 9068,
      "nAdZ": 9069,
      "lT": 9070,
      "ntu": 9071,
      "lIfOr": 9072,
      "kwbEk": 9073,
      "kAnIk": 9074,
      "mejb": 9075,
      "kowdIN": 9076,
      "dh": 9077,
      "VnajdEnt": 9078,
      "dZVmps": 9079,
      "nspl": 9080,
      "majzIN": 9081,
      "wOf": 9082,
      "InstOlm": 9083,
      "wajpIN": 9084,
      "wOlts": 9085,
      "jejvow": 9086,
      "hEg": 9087,
      "wajldli": 9088,
      "kVmjun": 9089,
      "sElfIS": 9090,
      "lowkwi": 9091,
      "Sejl": 9092,
      "IktIN": 9093,
      "lvz": 9094,
      "pw": 9095,
      "sajnow": 9096,
      "vAz": 9097,
      "hejS": 9098,
      "dZt": 9099,
      "hVbr": 9100,
      "litow": 9101,
      "stVnIN": 9102,
      "tIdZ": 9103,
      "bEndIN": 9104,
      "ejsf": 9105,
      "OdIt": 9106,
      "pIkju": 9107,
      "tusAn": 9108,
      "tajIN": 9109,
      "nOf": 9110,
      "kAlA": 9111,
      "ajnfOr": 9112,
      "nizi": 9113,
      "sowviEts": 9114,
      "ndp": 9115,
      "jusr": 9116,
      "awtfildr": 9117,
      "hIstEr": 9118,
      "lzr": 9119,
      "kawz": 9120,
      "ojow": 9121,
      "Elbowz": 9122,
      "EsTEt": 9123,
      "mpowzIN": 9124,
      "ejvAn": 9125,
      "bajlINgw": 9126,
      "nowni": 9127,
      "pojntr": 9128,
      "IftIN": 9129,
      "pAstSr": 9130,
      "stejdZIN": 9131,
      "jejts": 9132,
      "mAhA": 9133,
      "Daj": 9134,
      "blejn": 9135,
      "nIdZIr": 9136,
      "minr": 9137,
      "awtlajnd": 9138,
      "lVmp": 9139,
      "wOlr": 9140,
      "izr": 9141,
      "Entow": 9142,
      "ntIks": 9143,
      "hidr": 9144,
      "gAnd": 9145,
      "kjuljr": 9146,
      "wIlr": 9147,
      "klVN": 9148,
      "dEzm": 9149,
      "SIpbIldIN": 9150,
      "kimi": 9151,
      "ntOS": 9152,
      "bEntli": 9153,
      "lmr": 9154,
      "mOnt": 9155,
      "vejpr": 9156,
      "dZIstr": 9157,
      "sAp": 9158,
      "wEltr": 9159,
      "dui": 9160,
      "suzi": 9161,
      "dIskawnt": 9162,
      "fajnm": 9163,
      "stIpj": 9164,
      "bowmOnt": 9165,
      "kowkejn": 9166,
      "slowvAk": 9167,
      "fUlt": 9168,
      "IndVk": 9169,
      "glEnd": 9170,
      "dZir": 9171,
      "pApi": 9172,
      "jIn": 9173,
      "knr": 9174,
      "mON": 9175,
      "mIsm": 9176,
      "bUkr": 9177,
      "numownj": 9178,
      "sVmdej": 9179,
      "dIsplejIN": 9180,
      "dVmpt": 9181,
      "lOntSr": 9182,
      "sVndejz": 9183,
      "tEmtejS": 9184,
      "kus": 9185,
      "gAS": 9186,
      "bowg": 9187,
      "imEr": 9188,
      "fowbi": 9189,
      "ksImIli": 9190,
      "sibr": 9191,
      "sVbdIv": 9192,
      "tSAp": 9193,
      "nejmsejk": 9194,
      "dZuvEnt": 9195,
      "snIf": 9196,
      "sutkejs": 9197,
      "bAv": 9198,
      "kVd": 9199,
      "ElEs": 9200,
      "kowtIN": 9201,
      "IflEkS": 9202,
      "Sajld": 9203,
      "skwAdz": 9204,
      "VptIN": 9205,
      "kdawn": 9206,
      "Nkli": 9207,
      "bists": 9208,
      "EnTuzi": 9209,
      "tejtowz": 9210,
      "ejshOr": 9211,
      "klVtSt": 9212,
      "NksgIvIN": 9213,
      "bUlSIt": 9214,
      "nAmIkli": 9215,
      "mowlt": 9216,
      "ktm": 9217,
      "ItIz": 9218,
      "mAmi": 9219,
      "IvAn": 9220,
      "ptejnd": 9221,
      "smIr": 9222,
      "AmptIN": 9223,
      "ndEl": 9224,
      "ojlz": 9225,
      "gAk": 9226,
      "nlAkt": 9227,
      "kwAd": 9228,
      "fejdIN": 9229,
      "mhaws": 9230,
      "tEkstbUk": 9231,
      "vEk": 9232,
      "kluz": 9233,
      "jowAkIm": 9234,
      "ojdr": 9235,
      "owzr": 9236,
      "kejIk": 9237,
      "sIkn": 9238,
      "Vnb": 9239,
      "vajz": 9240,
      "tund": 9241,
      "Efski": 9242,
      "kIkr": 9243,
      "tuluz": 9244,
      "ndajz": 9245,
      "Vlm": 9246,
      "hUkr": 9247,
      "zejt": 9248,
      "sVbdIvajdId": 9249,
      "swInd": 9250,
      "minINf": 9251,
      "spajz": 9252,
      "bAliwUd": 9253,
      "SAb": 9254,
      "najtklVb": 9255,
      "ntl": 9256,
      "nsow": 9257,
      "dZId": 9258,
      "dAnIl": 9259,
      "Itf": 9260,
      "nAnsEns": 9261,
      "nflIkt": 9262,
      "ApSajr": 9263,
      "majtS": 9264,
      "fajf": 9265,
      "kwowts": 9266,
      "Ekspown": 9267,
      "tSItS": 9268,
      "wEstfejli": 9269,
      "Iplajz": 9270,
      "ajdilz": 9271,
      "gajAn": 9272,
      "klIpr": 9273,
      "IVkn": 9274,
      "wEz": 9275,
      "sajkaj": 9276,
      "bugbAt": 9277,
      "kbugbAt": 9278,
      "dZEN": 9279,
      "nAnIk": 9280,
      "SEk": 9281,
      "mOltiz": 9282,
      "tVt": 9283,
      "blAkejd": 9284,
      "fVts": 9285,
      "IndVkS": 9286,
      "psbr": 9287,
      "EtId": 9288,
      "Ekowz": 9289,
      "ASi": 9290,
      "ETnIsIti": 9291,
      "Invejdr": 9292,
      "dajvz": 9293,
      "Alz": 9294,
      "fInd": 9295,
      "dZVl": 9296,
      "pVf": 9297,
      "gAb": 9298,
      "kowstlajn": 9299,
      "pawndId": 9300,
      "dZowzi": 9301,
      "sajfr": 9302,
      "EntIs": 9303,
      "vIts": 9304,
      "pidmAnt": 9305,
      "kVpt": 9306,
      "flVN": 9307,
      "lAzow": 9308,
      "powliAnIk": 9309,
      "sOltsbr": 9310,
      "lks": 9311,
      "nAkA": 9312,
      "sEmik": 9313,
      "kOldwEl": 9314,
      "wejtlIftr": 9315,
      "owdEs": 9316,
      "fUtpr": 9317,
      "mjunj": 9318,
      "fIkejS": 9319,
      "skwajr": 9320,
      "hejwr": 9321,
      "stIs": 9322,
      "sEnS": 9323,
      "bwA": 9324,
      "nkludIN": 9325,
      "mAnr": 9326,
      "jowkow": 9327,
      "klejv": 9328,
      "EdskInz": 9329,
      "Onwr": 9330,
      "ajnhAr": 9331,
      "hVtSIns": 9332,
      "niowl": 9333,
      "wAtkInz": 9334,
      "IvAlvr": 9335,
      "dubi": 9336,
      "Ttr": 9337,
      "dIli": 9338,
      "Iliv": 9339,
      "hejs": 9340,
      "wIlz": 9341,
      "Ifajnr": 9342,
      "Afr": 9343,
      "pAg": 9344,
      "tSipr": 9345,
      "sg": 9346,
      "unIN": 9347,
      "stiz": 9348,
      "hud": 9349,
      "blajdZd": 9350,
      "dIvajzd": 9351,
      "Iptr": 9352,
      "InvajtIN": 9353,
      "pVtn": 9354,
      "dIhajdr": 9355,
      "wIns": 9356,
      "ktajs": 9357,
      "gjul": 9358,
      "hVlk": 9359,
      "pIntS": 9360,
      "Skr": 9361,
      "hl": 9362,
      "ntiAk": 9363,
      "IkskluZ": 9364,
      "sawTwr": 9365,
      "smowki": 9366,
      "skajl": 9367,
      "pAnti": 9368,
      "IndIk": 9369,
      "slAl": 9370,
      "lsu": 9371,
      "sEg": 9372,
      "bojs": 9373,
      "kjuzIN": 9374,
      "ejndZli": 9375,
      "kIlkEni": 9376,
      "Esow": 9377,
      "kud": 9378,
      "vitSEnti": 9379,
      "lEf": 9380,
      "tsow": 9381,
      "suv": 9382,
      "nsajl": 9383,
      "mAndow": 9384,
      "dIb": 9385,
      "tElr": 9386,
      "gejmr": 9387,
      "ElIz": 9388,
      "majlow": 9389,
      "mS": 9390,
      "fEstow": 9391,
      "nsidId": 9392,
      "udIN": 9393,
      "kAmpt": 9394,
      "dZVg": 9395,
      "gAdfr": 9396,
      "kAntS": 9397,
      "klIkt": 9398,
      "awtkr": 9399,
      "lVmn": 9400,
      "pjutIk": 9401,
      "Vtl": 9402,
      "dIsEndIN": 9403,
      "mAntIn": 9404,
      "bAtswAn": 9405,
      "SVtr": 9406,
      "huvr": 9407,
      "lejv": 9408,
      "fEmInIz": 9409,
      "fowldz": 9410,
      "niowkl": 9411,
      "kejli": 9412,
      "hjumOr": 9413,
      "hVmbowlt": 9414,
      "stajlajzd": 9415,
      "dZEntr": 9416,
      "hVmIN": 9417,
      "bElmAnt": 9418,
      "fIftinT": 9419,
      "ImowSn": 9420,
      "Eski": 9421,
      "splIntr": 9422,
      "dZunow": 9423,
      "nVnsiejS": 9424,
      "likt": 9425,
      "stIgm": 9426,
      "niAn": 9427,
      "ojdi": 9428,
      "wtA": 9429,
      "zINt": 9430,
      "kAstEl": 9431,
      "swAmi": 9432,
      "lsiow": 9433,
      "AndIs": 9434,
      "bajowtEk": 9435,
      "sitr": 9436,
      "skajz": 9437,
      "nEgl": 9438,
      "mIsk": 9439,
      "zg": 9440,
      "klawn": 9441,
      "pVk": 9442,
      "lInEr": 9443,
      "wt": 9444,
      "bInz": 9445,
      "dZINg": 9446,
      "wejIN": 9447,
      "zIg": 9448,
      "dbr": 9449,
      "pAntIf": 9450,
      "iISu": 9451,
      "kdk": 9452,
      "vit": 9453,
      "skId": 9454,
      "fjuS": 9455,
      "nvej": 9456,
      "sVfIks": 9457,
      "EgzIts": 9458,
      "nOst": 9459,
      "kAntEsts": 9460,
      "Insli": 9461,
      "vAlkejnowz": 9462,
      "dZENks": 9463,
      "fIni": 9464,
      "njub": 9465,
      "kowr": 9466,
      "kAmt": 9467,
      "EndZi": 9468,
      "ItAn": 9469,
      "huI": 9470,
      "lVftwOf": 9471,
      "dks": 9472,
      "gEm": 9473,
      "pejts": 9474,
      "dEsktAp": 9475,
      "kpul": 9476,
      "mAdi": 9477,
      "tEg": 9478,
      "lIstr": 9479,
      "fowm": 9480,
      "Enzi": 9481,
      "iAt": 9482,
      "gowltEndr": 9483,
      "ajmtajm": 9484,
      "howpl": 9485,
      "IpIst": 9486,
      "wIlks": 9487,
      "gEtow": 9488,
      "iIt": 9489,
      "bjud": 9490,
      "Sowl": 9491,
      "wejm": 9492,
      "pIkVp": 9493,
      "nsumIN": 9494,
      "buz": 9495,
      "Sfr": 9496,
      "jaj": 9497,
      "dIsgr": 9498,
      "kAmplIS": 9499,
      "kAmEntIN": 9500,
      "Amaj": 9501,
      "usi": 9502,
      "Ismejl": 9503,
      "Ambr": 9504,
      "kejti": 9505,
      "tSVn": 9506,
      "ntSEsk": 9507,
      "lISi": 9508,
      "IkspowzIN": 9509,
      "fjum": 9510,
      "kwEntIn": 9511,
      "mowtEl": 9512,
      "itEnS": 9513,
      "sVbtajt": 9514,
      "lAdIk": 9515,
      "tSini": 9516,
      "sdr": 9517,
      "gEti": 9518,
      "iflEks": 9519,
      "uTl": 9520,
      "wAf": 9521,
      "Tivz": 9522,
      "mpejnd": 9523,
      "Vpsajd": 9524,
      "kApid": 9525,
      "kAki": 9526,
      "nhr": 9527,
      "kSmi": 9528,
      "til": 9529,
      "InlEt": 9530,
      "IgzEmpS": 9531,
      "owmAni": 9532,
      "mejsi": 9533,
      "sItIk": 9534,
      "nowtbUk": 9535,
      "flowtIl": 9536,
      "ksIl": 9537,
      "vIdj": 9538,
      "hjumIli": 9539,
      "plz": 9540,
      "wOli": 9541,
      "Elmz": 9542,
      "zAk": 9543,
      "Ekspow": 9544,
      "hIli": 9545,
      "Ibu": 9546,
      "skVlpt": 9547,
      "mksikow": 9548,
      "dZowdi": 9549,
      "Edin": 9550,
      "sIdIk": 9551,
      "kwOtr": 9552,
      "hImz": 9553,
      "mpIr": 9554,
      "Alejz": 9555,
      "jAz": 9556,
      "nEgr": 9557,
      "ntSejndZd": 9558,
      "hown": 9559,
      "ajnl": 9560,
      "gejni": 9561,
      "kawntl": 9562,
      "mjutId": 9563,
      "wis": 9564,
      "sVbgr": 9565,
      "pEnIs": 9566,
      "hI": 9567,
      "dZowkr": 9568,
      "mInik": 9569,
      "zowIk": 9570,
      "wEks": 9571,
      "bAkr": 9572,
      "nAnow": 9573,
      "nowki": 9574,
      "itElIN": 9575,
      "gUdn": 9576,
      "nEktIv": 9577,
      "zk": 9578,
      "spEndz": 9579,
      "stSajld": 9580,
      "iviejS": 9581,
      "idZEkt": 9582,
      "stajnr": 9583,
      "mVlr": 9584,
      "Tin": 9585,
      "slaw": 9586,
      "kiEv": 9587,
      "inhaws": 9588,
      "EmplojIN": 9589,
      "pEtSu": 9590,
      "dVfi": 9591,
      "EsIdEntId": 9592,
      "pIkr": 9593,
      "plaw": 9594,
      "ntikEr": 9595,
      "mpaj": 9596,
      "hip": 9597,
      "EnIk": 9598,
      "lbEr": 9599,
      "dejtown": 9600,
      "ownj": 9601,
      "dIsg": 9602,
      "mowg": 9603,
      "bejsIz": 9604,
      "owSim": 9605,
      "owvz": 9606,
      "pEts": 9607,
      "kAlIN": 9608,
      "mAsks": 9609,
      "sEkst": 9610,
      "plEdZd": 9611,
      "dImEtr": 9612,
      "kAzi": 9613,
      "simi": 9614,
      "mAdElIN": 9615,
      "Tm": 9616,
      "dZowl": 9617,
      "livi": 9618,
      "klVtSIN": 9619,
      "kEnzINt": 9620,
      "gwAn": 9621,
      "bIldz": 9622,
      "tSin": 9623,
      "lVmpUr": 9624,
      "lVstr": 9625,
      "howlstin": 9626,
      "ksm": 9627,
      "awtSt": 9628,
      "Daw": 9629,
      "jEz": 9630,
      "zksi": 9631,
      "mInsk": 9632,
      "kowtow": 9633,
      "pIgm": 9634,
      "kVb": 9635,
      "fIksIN": 9636,
      "nejdowz": 9637,
      "nspajr": 9638,
      "sEtVp": 9639,
      "slVmpt": 9640,
      "kAndZ": 9641,
      "tajzr": 9642,
      "luks": 9643,
      "nAktr": 9644,
      "tiv": 9645,
      "mVdi": 9646,
      "skInr": 9647,
      "Tn": 9648,
      "IpitIN": 9649,
      "TIl": 9650,
      "Amu": 9651,
      "lIkwId": 9652,
      "sIgAr": 9653,
      "Sejki": 9654,
      "lAkhid": 9655,
      "slejd": 9656,
      "dejd": 9657,
      "kAdow": 9658,
      "mAti": 9659,
      "Asp": 9660,
      "ntSajzIz": 9661,
      "IkejtId": 9662,
      "gowldm": 9663,
      "mjuziow": 9664,
      "vajmAr": 9665,
      "gowp": 9666,
      "powstwOr": 9667,
      "Eznow": 9668,
      "bIsk": 9669,
      "nEtIkli": 9670,
      "pwEb": 9671,
      "mIsti": 9672,
      "pAps": 9673,
      "blINkIN": 9674,
      "Vzd": 9675,
      "kowlbr": 9676,
      "tAtInh": 9677,
      "kOni": 9678,
      "AlejzAndr": 9679,
      "ntinow": 9680,
      "ojtr": 9681,
      "fUlfIld": 9682,
      "hui": 9683,
      "hejb": 9684,
      "gojn": 9685,
      "mawr": 9686,
      "kim": 9687,
      "pwEblow": 9688,
      "EdI": 9689,
      "sVbsEt": 9690,
      "sigr": 9691,
      "spd": 9692,
      "howmwr": 9693,
      "EndIS": 9694,
      "mowtifs": 9695,
      "mIspejs": 9696,
      "hIntS": 9697,
[...]
