{
  "version": "1.0",
  "truncation": null,
  "padding": null,
  "added_tokens": [
    {
      "id": 0,
      "content": "[UNK]",
      "single_word": false,
      "lstrip": false,
      "rstrip": false,
      "normalized": false,
      "special": true
    },
    {
      "id": 1,
      "content": "[CLS]",
      "single_word": false,
      "lstrip": false,
      "rstrip": false,
      "normalized": false,
      "special": true
    },
    {
      "id": 2,
      "content": "[SEP]",
      "single_word": false,
      "lstrip": false,
      "rstrip": false,
      "normalized": false,
      "special": true
    },
    {
      "id": 3,
      "content": "[PAD]",
      "single_word": false,
      "lstrip": false,
      "rstrip": false,
      "normalized": false,
      "special": true
    },
    {
      "id": 4,
      "content": "[MASK]",
      "single_word": false,
      "lstrip": false,
      "rstrip": false,
      "normalized": false,
      "special": true
    }
  ],
  "normalizer": {
    "type": "Sequence",
    "normalizers": [
      {
        "type": "NFD"
      },
      {
        "type": "Lowercase"
      },
      {
        "type": "StripAccents"
      }
    ]
  },
  "pre_tokenizer": {
    "type": "Whitespace"
  },
  "post_processor": {
    "type": "TemplateProcessing",
    "single": [
      {
        "SpecialToken": {
          "id": "[CLS]",
          "type_id": 0
        }
      },
      {
        "Sequence": {
          "id": "A",
          "type_id": 0
        }
      },
      {
        "SpecialToken": {
          "id": "[SEP]",
          "type_id": 0
        }
      }
    ],
    "pair": [
      {
        "SpecialToken": {
          "id": "[CLS]",
          "type_id": 0
        }
      },
      {
        "Sequence": {
          "id": "A",
          "type_id": 0
        }
      },
      {
        "SpecialToken": {
          "id": "[SEP]",
          "type_id": 0
        }
      },
      {
        "Sequence": {
          "id": "B",
          "type_id": 1
        }
      },
      {
        "SpecialToken": {
          "id": "[SEP]",
          "type_id": 1
        }
      }
    ],
    "special_tokens": {
      "[CLS]": {
        "id": "[CLS]",
        "ids": [
          1
        ],
        "tokens": [
          "[CLS]"
        ]
      },
      "[SEP]": {
        "id": "[SEP]",
        "ids": [
          2
        ],
        "tokens": [
          "[SEP]"
        ]
      }
    }
  },
  "decoder": null,
  "model": {
    "type": "WordPiece",
    "unk_token": "[UNK]",
    "continuing_subword_prefix": "##",
    "max_input_chars_per_word": 100,
    "vocab": {
      "[UNK]": 0,
      "[CLS]": 1,
      "[SEP]": 2,
      "[PAD]": 3,
      "[MASK]": 4,
      "!": 5,
      "\"": 6,
      ",": 7,
      ".": 8,
      "0": 9,
      "1": 10,
      "2": 11,
      "3": 12,
      "4": 13,
      "5": 14,
      "6": 15,
      "7": 16,
      "8": 17,
      "9": 18,
      ":": 19,
      ";": 20,
      "?": 21,
      "a": 22,
      "b": 23,
      "d": 24,
      "e": 25,
      "f": 26,
      "h": 27,
      "i": 28,
      "j": 29,
      "k": 30,
      "l": 31,
      "m": 32,
      "n": 33,
      "o": 34,
      "p": 35,
      "s": 36,
      "t": 37,
      "u": 38,
      "v": 39,
      "w": 40,
      "z": 41,
      "æ": 42,
      "ð": 43,
      "ŋ": 44,
      "ɑ": 45,
      "ɔ": 46,
      "ə": 47,
      "ɛ": 48,
      "ɡ": 49,
      "ɪ": 50,
      "ɹ": 51,
      "ʃ": 52,
      "ʊ": 53,
      "ʌ": 54,
      "ʒ": 55,
      "θ": 56,
      "##m": 57,
      "##p": 58,
      "##j": 59,
      "##ʊ": 60,
      "##ɹ": 61,
      "##ə": 62,
      "##t": 63,
      "##i": 64,
      "##o": 65,
      "##w": 66,
      "##l": 67,
      "##ɑ": 68,
      "##z": 69,
      "##ɪ": 70,
      "##b": 71,
      "##e": 72,
      "##n": 73,
      "##d": 74,
      "##k": 75,
      "##ɡ": 76,
      "##æ": 77,
      "##ʌ": 78,
      "##ŋ": 79,
      "##ʃ": 80,
      "##s": 81,
      "##a": 82,
      "##u": 83,
      "##ʒ": 84,
      "##5": 85,
      "##8": 86,
      "##v": 87,
      "##ɛ": 88,
      "##ɔ": 89,
      "##θ": 90,
      "##6": 91,
      "##4": 92,
      "##2": 93,
      "##f": 94,
      "##h": 95,
      "##7": 96,
      "##9": 97,
      "##1": 98,
      "##ð": 99,
      "##3": 100,
      "##0": 101,
      "##.": 102,
      "##ən": 103,
      "ðə": 104,
      "##ej": 105,
      "##nd": 106,
      "##aj": 107,
      "##ow": 108,
      "##əl": 109,
      "ɪn": 110,
      "##st": 111,
      "##ɔɹ": 112,
      "ʌv": 113,
      "##ɪŋ": 114,
      "ænd": 115,
      "tə": 116,
      "##tɹ": 117,
      "##əd": 118,
      "##ɹi": 119,
      "##tʃ": 120,
      "##ʃən": 121,
      "##ɪk": 122,
      "##ɛn": 123,
      "##li": 124,
      "wɪ": 125,
      "##əm": 126,
      "##aw": 127,
      "##ɑɹ": 128,
      "##ət": 129,
      "wɑ": 130,
      "##əs": 131,
      "pɹ": 132,
      "wɑz": 133,
      "fɔɹ": 134,
      "##dʒ": 135,
      "##æn": 136,
      "##ɛɹ": 137,
      "##ts": 138,
      "dɪ": 139,
      "##æt": 140,
      "fɹ": 141,
      "##ɛk": 142,
      "##ʌm": 143,
      "dʒ": 144,
      "##ɪz": 145,
      "##ɪl": 146,
      "##ɪn": 147,
      "##ənt": 148,
      "st": 149,
      "ɑn": 150,
      "ɛs": 151,
      "hæ": 152,
      "##ejt": 153,
      "##vɹ": 154,
      "æz": 155,
      "##ɛl": 156,
      "##ɪt": 157,
      "##ks": 158,
      "ðæt": 159,
      "##ju": 160,
      "wɪð": 161,
      "baj": 162,
      "##ɹz": 163,
      "##ɹd": 164,
      "##ejʃən": 165,
      "##ɑn": 166,
      "##ək": 167,
      "##ʌn": 168,
      "ɹi": 169,
      "wɹ": 170,
      "##ɪs": 171,
      "tɹ": 172,
      "##əz": 173,
      "##pɹ": 174,
      "19": 175,
      "ɪz": 176,
      "##ɪd": 177,
      "##iz": 178,
      "##bɹ": 179,
      "ow": 180,
      "##əns": 181,
      "##ɛm": 182,
      "##ejm": 183,
      "æt": 184,
      "##ld": 185,
      "hi": 186,
      "ɪt": 187,
      "ju": 188,
      "hɪz": 189,
      "##æk": 190,
      "##təd": 191,
      "ɑɹ": 192,
      "æn": 193,
      "fɹʌm": 194,
      "##ɪv": 195,
      "##ejn": 196,
      "bɹ": 197,
      "tʃ": 198,
      "ɔl": 199,
      "##ɛd": 200,
      "##stɹ": 201,
      "kɹ": 202,
      "##ɑl": 203,
      "20": 204,
      "##mən": 205,
      "##ɪɹ": 206,
      "##ðɹ": 207,
      "##in": 208,
      "##ɛɹi": 209,
      "##ɪm": 210,
      "bi": 211,
      "##ajd": 212,
      "##ɪʃ": 213,
      "##ajt": 214,
      "##ajn": 215,
      "##ɑt": 216,
      "##əp": 217,
      "##ɪst": 218,
      "##ænd": 219,
      "##ɛs": 220,
      "pl": 221,
      "##oj": 222,
      "##ənd": 223,
      "##ɛst": 224,
      "##ɪp": 225,
      "##æm": 226,
      "ɡɹ": 227,
      "##ejd": 228,
      "##əst": 229,
      "aj": 230,
      "##ɑm": 231,
      "kəm": 232,
      "sk": 233,
      "##əli": 234,
      "##əb": 235,
      "##ʊɹ": 236,
      "##awn": 237,
      "dɪs": 238,
      "sp": 239,
      "##ɔl": 240,
      "##ʌt": 241,
      "##ɛnt": 242,
      "ðɛɹ": 243,
      "hæd": 244,
      "##own": 245,
      "##ʊd": 246,
      "##ɛt": 247,
      "##ɔɹd": 248,
      "wɪtʃ": 249,
      "##owl": 250,
      "##zd": 251,
      "kl": 252,
      "##ɑɹt": 253,
      "##ɔŋ": 254,
      "bɪ": 255,
      "##ajm": 256,
      "##əf": 257,
      "##ud": 258,
      "##ɪʃən": 259,
      "ɔɹ": 260,
      "##ejl": 261,
      "ɹɪ": 262,
      "kæ": 263,
      "##awnd": 264,
      "wʌn": 265,
      "##ɑp": 266,
      "##kɹ": 267,
      "##ejs": 268,
      "##ədʒ": 269,
      "##əɡ": 270,
      "dɹ": 271,
      "##mənt": 272,
      "ej": 273,
      "##əti": 274,
      "hɹ": 275,
      "nu": 276,
      "##ajl": 277,
      "sɹ": 278,
      "##ti": 279,
      "æf": 280,
      "##kt": 281,
      "##ɛnd": 282,
      "##əlz": 283,
      "ən": 284,
      "##ʌb": 285,
      "##owd": 286,
      "##sow": 287,
      "##æs": 288,
      "##vd": 289,
      "tu": 290,
      "##id": 291,
      "ðɪs": 292,
      "bʌt": 293,
      "##owz": 294,
      "##ɔɹt": 295,
      "kən": 296,
      "##ənz": 297,
      "ɛn": 298,
      "200": 299,
      "stɹ": 300,
      "##kl": 301,
      "##æl": 302,
      "##ejtəd": 303,
      "mej": 304,
      "now": 305,
      "æftɹ": 306,
      "fɹst": 307,
      "##owst": 308,
      "ɪnt": 309,
      "##pt": 310,
      "nɑt": 311,
      "##ɪɹi": 312,
      "##fɔɹ": 313,
      "##ɡɹ": 314,
      "ɪts": 315,
      "hæv": 316,
      "##pl": 317,
      "sɛ": 318,
      "##ɑd": 319,
      "kɑn": 320,
      "aw": 321,
      "laj": 322,
      "hu": 323,
      "əb": 324,
      "##ʌl": 325,
      "ɔlsow": 326,
      "##ejnd": 327,
      "##00": 328,
      "##tʃɹ": 329,
      "##əv": 330,
      "##ɪdʒ": 331,
      "##fɹ": 332,
      "##owk": 333,
      "æl": 334,
      "ðej": 335,
      "##owt": 336,
      "##ɛkt": 337,
      "##tɹz": 338,
      "##ajɹ": 339,
      "##im": 340,
      "##ɪks": 341,
      "##ɑk": 342,
      "ɪm": 343,
      "##ʒən": 344,
      "##awt": 345,
      "tajm": 346,
      "əp": 347,
      "ɹɛ": 348,
      "jun": 349,
      "ɪntɹ": 350,
      "bɪk": 351,
      "ʃi": 352,
      "18": 353,
      "haw": 354,
      "owvɹ": 355,
      "mɔɹ": 356,
      "##jəl": 357,
      "bɪn": 358,
      "fl": 359,
      "##it": 360,
      "##əw": 361,
      "##ʌk": 362,
      "hæz": 363,
      "##æŋ": 364,
      "dej": 365,
      "ɛm": 366,
      "ɪks": 367,
      "##ajz": 368,
      "ɪnd": 369,
      "fɪl": 370,
      "nɔɹ": 371,
      "mæ": 372,
      "##ejk": 373,
      "wʊd": 374,
      "201": 375,
      "əm": 376,
      "##iə": 377,
      "##ul": 378,
      "##ɪkəl": 379,
      "##ɛmbɹ": 380,
      "##jən": 381,
      "##æns": 382,
      "own": 383,
      "##juz": 384,
      "ɡejm": 385,
      "si": 386,
      "kɑ": 387,
      "lɛ": 388,
      "##klud": 389,
      "sɛn": 390,
      "sʌ": 391,
      "pɑɹt": 392,
      "θɹ": 393,
      "pi": 394,
      "##əbəl": 395,
      "##iən": 396,
      "##ejtɹ": 397,
      "##sən": 398,
      "sɛk": 399,
      "əl": 400,
      "wɛn": 401,
      "##ʊɹɪŋ": 402,
      "sʌm": 403,
      "##ajnd": 404,
      "plej": 405,
      "mɑɹ": 406,
      "ɔf": 407,
      "ʌðɹ": 408,
      "##ɑɹd": 409,
      "dʊɹɪŋ": 410,
      "##ndɹ": 411,
      "ət": 412,
      "##ɑs": 413,
      "##vəl": 414,
      "##æst": 415,
      "ɪnklud": 416,
      "##un": 417,
      "##vi": 418,
      "bl": 419,
      "kw": 420,
      "dɪv": 421,
      "əɡ": 422,
      "kɑm": 423,
      "li": 424,
      "##ejʃənz": 425,
      "hɪm": 426,
      "##ft": 427,
      "ək": 428,
      "awt": 429,
      "ɪntu": 430,
      "haj": 431,
      "##ɪti": 432,
      "bɪl": 433,
      "wɔɹ": 434,
      "##ut": 435,
      "##owm": 436,
      "##ʌŋ": 437,
      "ɛɹ": 438,
      "##pən": 439,
      "ɛnd": 440,
      "##pəl": 441,
      "kəns": 442,
      "##ʌvɹ": 443,
      "əd": 444,
      "##lənd": 445,
      "##wej": 446,
      "##owld": 447,
      "##tən": 448,
      "fɪlm": 449,
      "##ɡz": 450,
      "kəmp": 451,
      "fɔɹm": 452,
      "mɛn": 453,
      "##ækt": 454,
      "##ejtʃ": 455,
      "di": 456,
      "kæn": 457,
      "##ɛvɹ": 458,
      "##ʌst": 459,
      "##ʊk": 460,
      "##ows": 461,
      "##ʃənəl": 462,
      "##bəl": 463,
      "##vən": 464,
      "wi": 465,
      "mæn": 466,
      "wajl": 467,
      "æd": 468,
      "##ɔɹi": 469,
      "ʌp": 470,
      "##kw": 471,
      "du": 472,
      "fi": 473,
      "mowst": 474,
      "##ɪŋz": 475,
      "##ɛz": 476,
      "##ajv": 477,
      "##ənts": 478,
      "##ɪɹz": 479,
      "##ejndʒ": 480,
      "##ojn": 481,
      "bɪɡ": 482,
      "##ejts": 483,
      "##ps": 484,
      "mɪl": 485,
      "##tɹi": 486,
      "kənt": 487,
      "pɹɑ": 488,
      "##ɪf": 489,
      "##əsi": 490,
      "ɪl": 491,
      "sɔŋ": 492,
      "əɡɛn": 493,
      "ownli": 494,
      "lejtɹ": 495,
      "bɪt": 496,
      "##dʒən": 497,
      "ʌndɹ": 498,
      "##ʃənz": 499,
      "lɔ": 500,
      "##əts": 501,
      "##ɛɹək": 502,
      "##iow": 503,
      "dɪf": 504,
      "siz": 505,
      "##ətɪv": 506,
      "θɹi": 507,
      "##ɑɹdʒ": 508,
      "əbawt": 509,
      "θɹu": 510,
      "sow": 511,
      "##win": 512,
      "##ɛns": 513,
      "wɪl": 514,
      "199": 515,
      "##owɪŋ": 516,
      "bɪtwin": 517,
      "##ʌbl": 518,
      "##ʃəl": 519,
      "kɔɹ": 520,
      "wɛɹ": 521,
      "mjuz": 522,
      "##ɪns": 523,
      "fɑl": 524,
      "nɔɹθ": 525,
      "##tiejtʃ": 526,
      "##ɪɡ": 527,
      "##fɔɹm": 528,
      "ðæn": 529,
      "pɹi": 530,
      "##ŋɡ": 531,
      "sɛkənd": 532,
      "vɹ": 533,
      "hɛl": 534,
      "##pəs": 535,
      "##ʃɪp": 536,
      "æk": 537,
      "##ɑɹk": 538,
      "bow": 539,
      "mu": 540,
      "##awθ": 541,
      "dʒɛn": 542,
      "ɹili": 543,
      "##ajzd": 544,
      "ɹɛk": 545,
      "sɹv": 546,
      "wɛl": 547,
      "sɪɹi": 548,
      "##ɛntʃ": 549,
      "##æmp": 550,
      "næ": 551,
      "wɹld": 552,
      "əmɛɹək": 553,
      "ɹɪz": 554,
      "ɪf": 555,
      "mejd": 556,
      "ɹaj": 557,
      "ælb": 558,
      "tim": 559,
      "bɪfɔɹ": 560,
      "jɪɹ": 561,
      "##ejtɪd": 562,
      "sɪŋ": 563,
      "ɪnv": 564,
      "##əkəl": 565,
      "mʌ": 566,
      "wɹk": 567,
      "əs": 568,
      "sawθ": 569,
      "##ɡəl": 570,
      "##us": 571,
      "ɹli": 572,
      "nejm": 573,
      "pɹəd": 574,
      "ɑɹm": 575,
      "ðɛm": 576,
      "##ejv": 577,
      "kʌm": 578,
      "maj": 579,
      "sizən": 580,
      "sm": 581,
      "sʌtʃ": 582,
      "sɪm": 583,
      "##ɪʒən": 584,
      "##ejtɪŋ": 585,
      "000": 586,
      "ælbəm": 587,
      "nʌm": 588,
      "ɛl": 589,
      "##ɹəl": 590,
      "##si": 591,
      "ɪk": 592,
      "##ajtəd": 593,
      "##ejst": 594,
      "dɛ": 595,
      "pʌbl": 596,
      "jɪɹz": 597,
      "dɪz": 598,
      "##æd": 599,
      "səp": 600,
      "##ænt": 601,
      "##jə": 602,
      "##ɪʃt": 603,
      "##ɛktəd": 604,
      "##ɹn": 605,
      "##wɔɹd": 606,
      "10": 607,
      "ɪksp": 608,
      "kɹi": 609,
      "ɪv": 610,
      "##əks": 611,
      "##jəlɹ": 612,
      "##æf": 613,
      "lowk": 614,
      "lɑɹdʒ": 615,
      "ti": 616,
      "bowθ": 617,
      "##æks": 618,
      "ðɛn": 619,
      "hawɛvɹ": 620,
      "ɹɪm": 621,
      "juzd": 622,
      "##ɪkt": 623,
      "##um": 624,
      "##ɔld": 625,
      "ɛks": 626,
      "biɪŋ": 627,
      "ɛpəs": 628,
      "##ɡən": 629,
      "ðiz": 630,
      "##uz": 631,
      "stejt": 632,
      "wɛ": 633,
      "ɛpəsowd": 634,
      "sɪɹiz": 635,
      "bæk": 636,
      "vɛɹi": 637,
      "əɡɛnst": 638,
      "ɛɹi": 639,
      "##bi": 640,
      "mejn": 641,
      "fajn": 642,
      "ɹej": 643,
      "ɪɡz": 644,
      "mɪn": 645,
      "fawnd": 646,
      "mɛni": 647,
      "stɑɹ": 648,
      "17": 649,
      "əf": 650,
      "sl": 651,
      "##ɛləp": 652,
      "ɹawnd": 653,
      "pɹfɔɹm": 654,
      "sɪti": 655,
      "sɛvɹ": 656,
      "##sp": 657,
      "##ɑks": 658,
      "kawn": 659,
      "nʌmbɹ": 660,
      "lɔŋ": 661,
      "##up": 662,
      "bɹɪt": 663,
      "##ɛkʃən": 664,
      "pɹɛz": 665,
      "##səl": 666,
      "lajk": 667,
      "bɪkejm": 668,
      "##tɪl": 669,
      "##ʌkʃən": 670,
      "##bl": 671,
      "##ʌd": 672,
      "junajtəd": 673,
      "sɛvɹəl": 674,
      "##ɔz": 675,
      "ɪnk": 676,
      "##ɛlf": 677,
      "ɪnkludɪŋ": 678,
      "sin": 679,
      "fʊ": 680,
      "ɑpɹ": 681,
      "ʃɪp": 682,
      "dʒɑn": 683,
      "##əmz": 684,
      "##æŋk": 685,
      "##səz": 686,
      "sɛt": 687,
      "##tɹn": 688,
      "##tʃt": 689,
      "##ʌlt": 690,
      "dɪvɛləp": 691,
      "kɛɹ": 692,
      "##awɹ": 693,
      "fju": 694,
      "pɑp": 695,
      "dɪd": 696,
      "bæt": 697,
      "15": 698,
      "fɔɹs": 699,
      "12": 700,
      "kow": 701,
      "##ejdʒ": 702,
      "mjuzɪk": 703,
      "198": 704,
      "saj": 705,
      "howm": 706,
      "##ʌnd": 707,
      "tejk": 708,
      "kɑɹ": 709,
      "ɡʌvɹ": 710,
      "wɪn": 711,
      "sɛd": 712,
      "hɪst": 713,
      "194": 714,
      "##ʌðɹ": 715,
      "##pɔɹt": 716,
      "ɪnf": 717,
      "wɔ": 718,
      "dɪstɹ": 719,
      "##ajb": 720,
      "##jɹ": 721,
      "##sɹ": 722,
      "lajn": 723,
      "mi": 724,
      "##vɹs": 725,
      "sɛntɹ": 726,
      "lɛd": 727,
      "##fəl": 728,
      "ækt": 729,
      "stejts": 730,
      "pɛɹ": 731,
      "##kɪŋ": 732,
      "##ɔɹn": 733,
      "ɹɪs": 734,
      "##æp": 735,
      "fɑlowɪŋ": 736,
      "sʌb": 737,
      "##ɔs": 738,
      "ɹajt": 739,
      "kəl": 740,
      "##ejz": 741,
      "##ɔt": 742,
      "##jud": 743,
      "stɔɹ": 744,
      "dʒɹ": 745,
      "ɑɹt": 746,
      "kʊd": 747,
      "nɪɹ": 748,
      "kɪŋ": 749,
      "ɹɑ": 750,
      "##ɛktɹ": 751,
      "##əntli": 752,
      "##ɹdz": 753,
      "16": 754,
      "##ɹin": 755,
      "##dʒɹ": 756,
      "##dɹ": 757,
      "dɪskɹ": 758,
      "##ɪb": 759,
      "ɹəsi": 760,
      "əmɛɹəkən": 761,
      "ɹʌn": 762,
      "nown": 763,
      "##ðow": 764,
      "ɔlðow": 765,
      "##əld": 766,
      "ɹɪdʒən": 767,
      "##ətɹ": 768,
      "##nəs": 769,
      "wɛst": 770,
      "ɹowd": 771,
      "kɹɪt": 772,
      "##əmənt": 773,
      "ɔɹd": 774,
      "ɛni": 775,
      "197": 776,
      "mʌn": 777,
      "lænd": 778,
      "##il": 779,
      "ɹil": 780,
      "11": 781,
      "196": 782,
      "ɪŋɡ": 783,
      "səks": 784,
      "nɑ": 785,
      "##əzɪʃən": 786,
      "##nɹ": 787,
      "dawn": 788,
      "fɹi": 789,
      "kəntɪn": 790,
      "bɪɡæn": 791,
      "##ɔɹdɪŋ": 792,
      "mɛ": 793,
      "##sk": 794,
      "əntɪl": 795,
      "##ejnz": 796,
      "##ŋk": 797,
      "pojn": 798,
      "spi": 799,
      "sɪst": 800,
      "##ɛks": 801,
      "kɔld": 802,
      "ɪkst": 803,
      "##ust": 804,
      "bɪkɔz": 805,
      "əlɔŋ": 806,
      "ɹɪp": 807,
      "ɡɪv": 808,
      "##vz": 809,
      "##0ɛs": 810,
      "skul": 811,
      "ɹilist": 812,
      "##ɪtʃ": 813,
      "##ɡəst": 814,
      "##stɹn": 815,
      "##ænz": 816,
      "ɪnst": 817,
      "##ɪfɪk": 818,
      "jɔɹ": 819,
      "daj": 820,
      "##ojd": 821,
      "sw": 822,
      "low": 823,
      "dʒun": 824,
      "nej": 825,
      "##mənts": 826,
      "mɑd": 827,
      "jus": 828,
      "pipəl": 829,
      "kɑl": 830,
      "tɛl": 831,
      "næʃənəl": 832,
      "##ətiz": 833,
      "ɹək": 834,
      "##ajs": 835,
      "##ʌv": 836,
      "ʌs": 837,
      "lajf": 838,
      "klæs": 839,
      "mɪljən": 840,
      "ɛv": 841,
      "mək": 842,
      "bæ": 843,
      "hɛd": 844,
      "dʒʌst": 845,
      "##tʃɹi": 846,
      "##ɛkst": 847,
      "lɪ": 848,
      "bɹɪtɪʃ": 849,
      "sɪns": 850,
      "kɪl": 851,
      "ɹowl": 852,
      "13": 853,
      "##ɛpt": 854,
      "sɛntʃɹi": 855,
      "##owzd": 856,
      "##iəm": 857,
      "itʃ": 858,
      "əwɔɹd": 859,
      "##lit": 860,
      "dʒɹmən": 861,
      "##ətɛɹi": 862,
      "ʃow": 863,
      "bɛst": 864,
      "sɛpt": 865,
      "ajd": 866,
      "vi": 867,
      "##æft": 868,
      "ɡl": 869,
      "ɪns": 870,
      "mɪd": 871,
      "sejm": 872,
      "plejs": 873,
      "##ejnɪŋ": 874,
      "pɑɹ": 875,
      "ɹiv": 876,
      "ədɪʃən": 877,
      "bænd": 878,
      "##vɪŋ": 879,
      "ɹɛd": 880,
      "ɔstɹ": 881,
      "sɛptɛmbɹ": 882,
      "dɪskɹajb": 883,
      "wik": 884,
      "pɹəv": 885,
      "##ajɹd": 886,
      "pɹow": 887,
      "bætəl": 888,
      "əpɹ": 889,
      "stɹit": 890,
      "kəntɹ": 891,
      "##ni": 892,
      "sej": 893,
      "##ɑnd": 894,
      "mɑn": 895,
      "bɪld": 896,
      "lid": 897,
      "dɪsk": 898,
      "ɑkt": 899,
      "ənʌðɹ": 900,
      "fajv": 901,
      "fajnəl": 902,
      "##ɪts": 903,
      "ɡɹejt": 904,
      "##ɑlədʒ": 905,
      "##tʃɹz": 906,
      "ist": 907,
      "##ejlz": 908,
      "##tʃɹd": 909,
      "14": 910,
      "ɛd": 911,
      "səksɛs": 912,
      "##ɛndəd": 913,
      "æks": 914,
      "bɪkʌm": 915,
      "fej": 916,
      "owld": 917,
      "ɔfəs": 918,
      "##əkejʃən": 919,
      "ɛntɹ": 920,
      "waj": 921,
      "ɹɪt": 922,
      "##ɛʃ": 923,
      "##əɡɹ": 924,
      "ɡɹup": 925,
      "tʊk": 926,
      "195": 927,
      "bejs": 928,
      "hju": 929,
      "ejdʒ": 930,
      "kʌmpən": 931,
      "##ətli": 932,
      "##bɹz": 933,
      "ɹʌ": 934,
      "ɑɡəst": 935,
      "haws": 936,
      "##owbɹ": 937,
      "æm": 938,
      "ɛɹiə": 939,
      "ɔstɹejl": 940,
      "dɪp": 941,
      "sɪks": 942,
      "smɔl": 943,
      "##fɹd": 944,
      "su": 945,
      "θɹd": 946,
      "kʌl": 947,
      "wʌt": 948,
      "fæm": 949,
      "kənsɪd": 950,
      "193": 951,
      "##əvɹs": 952,
      "tɹæns": 953,
      "##ɪzəm": 954,
      "stud": 955,
      "ɹəsivd": 956,
      "nowv": 957,
      "##ɛp": 958,
      "ɑktowbɹ": 959,
      "sɹvəs": 960,
      "##ɪktɹ": 961,
      "##əɡn": 962,
      "dʒul": 963,
      "sajd": 964,
      "mɑɹtʃ": 965,
      "dɪsp": 966,
      "##jun": 967,
      "191": 968,
      "##ðɹn": 969,
      "læst": 970,
      "ɹɪvɹ": 971,
      "##əθ": 972,
      "mɛm": 973,
      "ɹəf": 974,
      "##əwəli": 975,
      "##ɹid": 976,
      "##ɛktɪv": 977,
      "sɪstəm": 978,
      "kæp": 979,
      "##ɑɡ": 980,
      "##kəl": 981,
      "##ejp": 982,
      "sɪŋɡəl": 983,
      "dʒɛnɹəl": 984,
      "##ɔɹtəd": 985,
      "fɛl": 986,
      "ɡʌvɹmənt": 987,
      "##ətəd": 988,
      "tɑp": 989,
      "##tɪŋ": 990,
      "mɹ": 991,
      "jɔɹk": 992,
      "kəmænd": 993,
      "tajt": 994,
      "dʒæn": 995,
      "##θɹ": 996,
      "##wɹd": 997,
      "##ɪtəl": 998,
      "pæs": 999,
      "mætʃ": 1000,
      "##lz": 1001,
      "##mz": 1002,
      "ɹejndʒ": 1003,
      "skw": 1004,
      "ɹowt": 1005,
      "##pɹəl": 1006,
      "##ɛkts": 1007,
      "dʒulaj": 1008,
      "##ɑz": 1009,
      "nowvɛmbɹ": 1010,
      "kʌn": 1011,
      "sʌn": 1012,
      "sɛl": 1013,
      "ɡejmz": 1014,
      "##əlɹ": 1015,
      "hɛ": 1016,
      "kɑntɹ": 1017,
      "tɹi": 1018,
      "ʃɔɹt": 1019,
      "taj": 1020,
      "tʃejndʒ": 1021,
      "dɛθ": 1022,
      "##zɪŋ": 1023,
      "ajlənd": 1024,
      "ɪst": 1025,
      "##fi": 1026,
      "pɹs": 1027,
      "##æɡ": 1028,
      "mʌtʃ": 1029,
      "ejpɹəl": 1030,
      "ki": 1031,
      "tw": 1032,
      "##jəm": 1033,
      "vɪd": 1034,
      "##jəw": 1035,
      "wɔtɹ": 1036,
      "pawɹ": 1037,
      "dɪfɹ": 1038,
      "ɹɪk": 1039,
      "ɹɪl": 1040,
      "əlaw": 1041,
      "tawn": 1042,
      "lu": 1043,
      "lɛft": 1044,
      "##ɔn": 1045,
      "tɛn": 1046,
      "##əwəl": 1047,
      "junəvɹs": 1048,
      "ɹɪzʌlt": 1049,
      "ɹɪsp": 1050,
      "##kən": 1051,
      "##ɛb": 1052,
      "mejdʒɹ": 1053,
      "##viəs": 1054,
      "mʌnθ": 1055,
      "30": 1056,
      "pɹəvajd": 1057,
      "ɡʌn": 1058,
      "##əfajd": 1059,
      "stɔɹi": 1060,
      "bejst": 1061,
      "fɪn": 1062,
      "tʊɹ": 1063,
      "fæməli": 1064,
      "wej": 1065,
      "kʌ": 1066,
      "sɪk": 1067,
      "ɹejd": 1068,
      "pɔɹ": 1069,
      "ɪntɹn": 1070,
      "sowl": 1071,
      "plæn": 1072,
      "ɑɹmi": 1073,
      "naw": 1074,
      "kʌmpəni": 1075,
      "ɪnkɹi": 1076,
      "##lajn": 1077,
      "ʌn": 1078,
      "##ki": 1079,
      "##ɛɹd": 1080,
      "##ɛntəd": 1081,
      "##bən": 1082,
      "dɪsɛmbɹ": 1083,
      "##ejbəl": 1084,
      "lejt": 1085,
      "25": 1086,
      "plejd": 1087,
      "klʌb": 1088,
      "əkɔɹdɪŋ": 1089,
      "ɪnkludəd": 1090,
      "mow": 1091,
      "dæm": 1092,
      "##pi": 1093,
      "səl": 1094,
      "##..": 1095,
      "dʒænju": 1096,
      "dʒænjuɛɹi": 1097,
      "pæ": 1098,
      "bɪli": 1099,
      "kɛɹɪktɹ": 1100,
      "pɹsən": 1101,
      "##ɑb": 1102,
      "##wɹ": 1103,
      "192": 1104,
      "##bɔl": 1105,
      "##ɑns": 1106,
      "owpən": 1107,
      "##owni": 1108,
      "ɹut": 1109,
      "##kow": 1110,
      "##kət": 1111,
      "sɛnt": 1112,
      "wɪθ": 1113,
      "mejk": 1114,
      "hɛɹ": 1115,
      "ɪmp": 1116,
      "pɑl": 1117,
      "##ʃiz": 1118,
      "##ɪstɹ": 1119,
      "##bɹt": 1120,
      "ɹu": 1121,
      "blæk": 1122,
      "liɡ": 1123,
      "kæmp": 1124,
      "...": 1125,
      "pɹiviəs": 1126,
      "##nɪŋ": 1127,
      "##əmi": 1128,
      "ɹilis": 1129,
      "pʌblɪk": 1130,
      "hænd": 1131,
      "kejm": 1132,
      "wɪðɪn": 1133,
      "ɹæ": 1134,
      "tʃɑɹ": 1135,
      "əpɪɹ": 1136,
      "##ʌs": 1137,
      "kæl": 1138,
      "fɑɹ": 1139,
      "stɪl": 1140,
      "##ɑdʒ": 1141,
      "##ɪʃənz": 1142,
      "tajmz": 1143,
      "dɪskɹajbd": 1144,
      "pəzɪʃən": 1145,
      "ɪnɪʃ": 1146,
      "vɪdiow": 1147,
      "##əstɹ": 1148,
      "ðowz": 1149,
      "bej": 1150,
      "dʒɛnɹ": 1151,
      "wɪnd": 1152,
      "##ɔd": 1153,
      "nɛkst": 1154,
      "ɪʃ": 1155,
      "wajt": 1156,
      "nejmd": 1157,
      "ɪmpɹ": 1158,
      "stænd": 1159,
      "##ɪθ": 1160,
      "##ɛʃən": 1161,
      "dɪk": 1162,
      "ɹɛkɹd": 1163,
      "əmʌŋ": 1164,
      "səpɔɹt": 1165,
      "jʊɹ": 1166,
      "pɹɛzəd": 1167,
      "ətɛm": 1168,
      "tɛm": 1169,
      "tɹaj": 1170,
      "##zɹ": 1171,
      "mɛt": 1172,
      "pɑɹk": 1173,
      "##ejmz": 1174,
      "fɹðɹ": 1175,
      "pɹfɔɹməns": 1176,
      "bɑɹ": 1177,
      "##ɹɪk": 1178,
      "tʃæmp": 1179,
      "hɑɹ": 1180,
      "wɑn": 1181,
      "stɔɹm": 1182,
      "pʊ": 1183,
      "ɹɪtɹn": 1184,
      "kənstɹ": 1185,
      "fʊt": 1186,
      "lɛs": 1187,
      "##awnt": 1188,
      "ɹɪdʒənəl": 1189,
      "ɔɹɡən": 1190,
      "ivən": 1191,
      "tʃɹ": 1192,
      "##uʃən": 1193,
      "##ɪɹd": 1194,
      "##ajlz": 1195,
      "wɔl": 1196,
      "hɪstɹi": 1197,
      "##təm": 1198,
      "100": 1199,
      "muv": 1200,
      "ɹɑk": 1201,
      "##æbl": 1202,
      "spiʃiz": 1203,
      "ɹip": 1204,
      "powst": 1205,
      "sawnd": 1206,
      "##əbli": 1207,
      "tɹu": 1208,
      "fajɹ": 1209,
      "fɔɹmɹ": 1210,
      "ɹoj": 1211,
      "ɪnfl": 1212,
      "fɛb": 1213,
      "##jəwɛɹi": 1214,
      "fɛbjəwɛɹi": 1215,
      "dejz": 1216,
      "fɑ": 1217,
      "##ʒənz": 1218,
      "dɪzajn": 1219,
      "##ɪnz": 1220,
      "##ɔɹs": 1221,
      "##sɛlf": 1222,
      "bʊk": 1223,
      "ðow": 1224,
      "mɛd": 1225,
      "bʊ": 1226,
      "dɪvɪʒən": 1227,
      "bɪlt": 1228,
      "dɪst": 1229,
      "pɪɹi": 1230,
      "mæɡ": 1231,
      "kɑmən": 1232,
      "##jut": 1233,
      "əkɹ": 1234,
      "##ɪŋk": 1235,
      "vaj": 1236,
      "ɡʊd": 1237,
      "hɛld": 1238,
      "##ʌnt": 1239,
      "jʊɹəp": 1240,
      "ɹow": 1241,
      "##dʒɛkt": 1242,
      "##ʌŋk": 1243,
      "ɹɪv": 1244,
      "jʌŋ": 1245,
      "min": 1246,
      "junəvɹsəti": 1247,
      "fɹɛntʃ": 1248,
      "lɪst": 1249,
      "tʃɹtʃ": 1250,
      "kɔɹt": 1251,
      "mæs": 1252,
      "##ɛtɹ": 1253,
      "kʌvɹ": 1254,
      "ɹejs": 1255,
      "##ðɹz": 1256,
      "##ɛntəl": 1257,
      "##əsts": 1258,
      "##ɹiz": 1259,
      "ejt": 1260,
      "ɔɹdɹ": 1261,
      "21": 1262,
      "##di": 1263,
      "æs": 1264,
      "ɪkspl": 1265,
      "bɪh": 1266,
      "##ætɪk": 1267,
      "2010": 1268,
      "tɑm": 1269,
      "mɛmbɹz": 1270,
      "##ɑpɪkəl": 1271,
      "kənd": 1272,
      "ɪstæbl": 1273,
      "##ænə": 1274,
      "##laj": 1275,
      "nɛvɹ": 1276,
      "plejɹ": 1277,
      "hævɪŋ": 1278,
      "lajt": 1279,
      "##jʊɹ": 1280,
      "pojnt": 1281,
      "##lɪŋ": 1282,
      "lowkəl": 1283,
      "najt": 1284,
      "pɪɹiəd": 1285,
      "##əkw": 1286,
      "əfɪʃ": 1287,
      "əv": 1288,
      "tɛk": 1289,
      "##mɪn": 1290,
      "kɹɪst": 1291,
      "tɛst": 1292,
      "pɑpjəl": 1293,
      "##ɪnd": 1294,
      "##ɔɹdʒ": 1295,
      "pəl": 1296,
      "##tʃɹəl": 1297,
      "əsow": 1298,
      "##əbɪl": 1299,
      "ejtʃ": 1300,
      "towt": 1301,
      "əsowsi": 1302,
      "hæf": 1303,
      "sɪməlɹ": 1304,
      "##tʃi": 1305,
      "ətæk": 1306,
      "ɔfən": 1307,
      "ɛvɹi": 1308,
      "pɹədʌkʃən": 1309,
      "ɹɛpɹ": 1310,
      "24": 1311,
      "##ɹim": 1312,
      "##owp": 1313,
      "##ɛnʃən": 1314,
      "mænədʒ": 1315,
      "tɹæ": 1316,
      "kəntɹowl": 1317,
      "dejv": 1318,
      "ædv": 1319,
      "2008": 1320,
      "mɛɹi": 1321,
      "kəntɪnjud": 1322,
      "dɪl": 1323,
      "pɹajm": 1324,
      "2009": 1325,
      "kɑmp": 1326,
      "spɹ": 1327,
      "kɹɪɹ": 1328,
      "dæmədʒ": 1329,
      "##kɹæft": 1330,
      "kæm": 1331,
      "##mɹ": 1332,
      "bɑd": 1333,
      "##ɑlədʒi": 1334,
      "klows": 1335,
      "##ætɹ": 1336,
      "##ɑv": 1337,
      "tʃæmpiən": 1338,
      "##θɪŋ": 1339,
      "wɪθawt": 1340,
      "##ɹən": 1341,
      "2011": 1342,
      "ɪɹ": 1343,
      "##stən": 1344,
      "dɑk": 1345,
      "##uvd": 1346,
      "ɛdʒ": 1347,
      "##dʒɛst": 1348,
      "sɛvən": 1349,
      "kejs": 1350,
      "dɪspajt": 1351,
      "fɔl": 1352,
      "ɪŋɡlənd": 1353,
      "supɹ": 1354,
      "stʌd": 1355,
      "##æʃ": 1356,
      "wajd": 1357,
      "##bɹɡ": 1358,
      "pɑɹti": 1359,
      "mɛɹ": 1360,
      "tɹæk": 1361,
      "vɪz": 1362,
      "##tʃɪŋ": 1363,
      "ɹɛst": 1364,
      "22": 1365,
      "kənsɪdɹd": 1366,
      "pæst": 1367,
      "ɹɛz": 1368,
      "##ɡw": 1369,
      "pɹɑs": 1370,
      "ɪntɹnæ": 1371,
      "hɪɹ": 1372,
      "kənv": 1373,
      "dʒɔɹdʒ": 1374,
      "##ejmd": 1375,
      "ɡowl": 1376,
      "##lɪʃ": 1377,
      "pɹəp": 1378,
      "fild": 1379,
      "səb": 1380,
      "##lɹ": 1381,
      "stɹɔŋ": 1382,
      "##ɡɹæm": 1383,
      "2007": 1384,
      "kawnti": 1385,
      "fɹæns": 1386,
      "kʌntɹi": 1387,
      "bɔɹd": 1388,
      "lʌnd": 1389,
      "##ɑnt": 1390,
      "fɹɛnd": 1391,
      "sɔŋz": 1392,
      "ɹojəl": 1393,
      "stɹʌk": 1394,
      "mɪlətɛɹi": 1395,
      "muvd": 1396,
      "##idi": 1397,
      "hajwej": 1398,
      "ɹɪtən": 1399,
      "vɹʒən": 1400,
      "##ɹdʒ": 1401,
      "səs": 1402,
      "##ɛnsɪv": 1403,
      "pɑs": 1404,
      "ɡɑɹd": 1405,
      "##ənsi": 1406,
      "dɪfɹənt": 1407,
      "ɪŋɡlɪʃ": 1408,
      "bɪz": 1409,
      "ænəm": 1410,
      "kəmjun": 1411,
      "majn": 1412,
      "##ɛðɹ": 1413,
      "mɪs": 1414,
      "sɪn": 1415,
      "lɪtəl": 1416,
      "ɪlɛktɹ": 1417,
      "pɹowɡɹæm": 1418,
      "fɔɹsɪz": 1419,
      "##ɪsts": 1420,
      "sajt": 1421,
      "dɪt": 1422,
      "dɪvɛləpmənt": 1423,
      "lɔst": 1424,
      "lej": 1425,
      "2012": 1426,
      "pɹɛzədɛnt": 1427,
      "23": 1428,
      "ɪnflu": 1429,
      "lɪm": 1430,
      "bɪldɪŋ": 1431,
      "lʌv": 1432,
      "æb": 1433,
      "tɹɑpɪkəl": 1434,
      "lʌndən": 1435,
      "ɡɪvən": 1436,
      "ɪi": 1437,
      "səɡ": 1438,
      "æktɪv": 1439,
      "naj": 1440,
      "ɹɪmejnd": 1441,
      "səɡdʒɛst": 1442,
      "ɪnvɑl": 1443,
      "stejdʒ": 1444,
      "ɡejv": 1445,
      "##ɔɹts": 1446,
      "dʒæ": 1447,
      "##ɛnts": 1448,
      "##tɹnd": 1449,
      "ənawn": 1450,
      "pɹɪns": 1451,
      "ɪntɹnæʃənəl": 1452,
      "##ʃi": 1453,
      "##ɪkli": 1454,
      "bɛl": 1455,
      "fajnd": 1456,
      "tʃɪl": 1457,
      "tɛləv": 1458,
      "190": 1459,
      "##əmənts": 1460,
      "dʌb": 1461,
      "##ajəti": 1462,
      "dɛm": 1463,
      "kɹɔs": 1464,
      "##dəm": 1465,
      "##ɪŋtən": 1466,
      "sɔ": 1467,
      "##ɪɡn": 1468,
      "skɹ": 1469,
      "lajv": 1470,
      "kowst": 1471,
      "ɡɛt": 1472,
      "##ɪkjəlɹ": 1473,
      "ɡowld": 1474,
      "dʒi": 1475,
      "##dɹən": 1476,
      "##səkw": 1477,
      "skɔɹ": 1478,
      "bɹɪdʒ": 1479,
      "##ownz": 1480,
      "towtəl": 1481,
      "stejʃən": 1482,
      "##ʌf": 1483,
      "pɹəf": 1484,
      "dɛk": 1485,
      "wɛnt": 1486,
      "ɪmpɔɹt": 1487,
      "##ɛɡ": 1488,
      "stɑɹt": 1489,
      "ɹɪtɹnd": 1490,
      "nid": 1491,
      "juzɪŋ": 1492,
      "##ləs": 1493,
      "tɛɹ": 1494,
      "ɹejl": 1495,
      "##ɔɹdəd": 1496,
      "dɪm": 1497,
      "hɪl": 1498,
      "pʌblɪʃt": 1499,
      "pɹədust": 1500,
      "##fəs": 1501,
      "##fɹm": 1502,
      "wɛstɹn": 1503,
      "##ajzɪŋ": 1504,
      "tɹn": 1505,
      "##ajld": 1506,
      "##ejtɪv": 1507,
      "##ədə": 1508,
      "pej": 1509,
      "ɹɛpɹəz": 1510,
      "ɹəkɔɹdəd": 1511,
      "tʃɪldɹən": 1512,
      "boj": 1513,
      "kɑnt": 1514,
      "əpɑn": 1515,
      "tɛləvɪʒən": 1516,
      "##fɹəns": 1517,
      "stejtəd": 1518,
      "##ɪsən": 1519,
      "ɛɹkɹæft": 1520,
      "nowt": 1521,
      "fʊl": 1522,
      "nuz": 1523,
      "##ɪpt": 1524,
      "##tʃəz": 1525,
      "ʃɪps": 1526,
      "fɑðɹ": 1527,
      "ɡɹawnd": 1528,
      "2006": 1529,
      "ɹim": 1530,
      "##ədɪʃən": 1531,
      "##wɛst": 1532,
      "mɛmbɹ": 1533,
      "pɹədus": 1534,
      "mejkɪŋ": 1535,
      "spɛ": 1536,
      "##ɔf": 1537,
      "lɪv": 1538,
      "ɹivju": 1539,
      "##ɛdʒ": 1540,
      "bɹɔd": 1541,
      "##ɪsəp": 1542,
      "ɹejn": 1543,
      "spɛʃəl": 1544,
      "vju": 1545,
      "awɹ": 1546,
      "təwɔɹd": 1547,
      "pəlɪt": 1548,
      "##ɪli": 1549,
      "27": 1550,
      "mit": 1551,
      "##ənsəz": 1552,
      "dɪsajd": 1553,
      "stajl": 1554,
      "hɪstɔɹ": 1555,
      "najn": 1556,
      "hɹək": 1557,
      "tʃi": 1558,
      "wɪmən": 1559,
      "sɛntɹəl": 1560,
      "hɪt": 1561,
      "28": 1562,
      "θɹuawt": 1563,
      "kæt": 1564,
      "##kə": 1565,
      "##owli": 1566,
      "ɹɛdʒ": 1567,
      "50": 1568,
      "##fild": 1569,
      "ɹidʒən": 1570,
      "##ɑɡɹ": 1571,
      "wʌns": 1572,
      "skɑt": 1573,
      "ænt": 1574,
      "vɪl": 1575,
      "hɪmsɛlf": 1576,
      "ɔstɹejljə": 1577,
      "##ətəl": 1578,
      "##ɪnt": 1579,
      "tʃæmpiənʃɪp": 1580,
      "sɪt": 1581,
      "ɡow": 1582,
      "2013": 1583,
      "flɔɹ": 1584,
      "hɛvi": 1585,
      "##lænd": 1586,
      "ɹis": 1587,
      "kæɹɪk": 1588,
      "kəmplit": 1589,
      "##æljən": 1590,
      "wɪljəm": 1591,
      "kæɹɪktɹz": 1592,
      "##əni": 1593,
      "bɑm": 1594,
      "ft": 1595,
      "pow": 1596,
      "owp": 1597,
      "##æb": 1598,
      "ɹɛɡ": 1599,
      "pɹət": 1600,
      "hɔl": 1601,
      "kɑnst": 1602,
      "26": 1603,
      "wʊ": 1604,
      "dʌ": 1605,
      "skwɑd": 1606,
      "40": 1607,
      "əwej": 1608,
      "plejɹz": 1609,
      "##əsɪfɪk": 1610,
      "voj": 1611,
      "ɪnstɛd": 1612,
      "mɑɹk": 1613,
      "dajd": 1614,
      "tajtəl": 1615,
      "##zən": 1616,
      "##wɛɹ": 1617,
      "sʌðɹn": 1618,
      "kəmpli": 1619,
      "dʒejmz": 1620,
      "ɹajtɪŋ": 1621,
      "fejvɹ": 1622,
      "##tejn": 1623,
      "pɹəm": 1624,
      "bɪɡɪn": 1625,
      "kɑlɪdʒ": 1626,
      "##ɔɹəti": 1627,
      "əkɹɔs": 1628,
      "##ɹv": 1629,
      "189": 1630,
      "ɡɹu": 1631,
      "ɪntɹəd": 1632,
      "mʌnθs": 1633,
      "ɹipl": 1634,
      "##ɹə": 1635,
      "##ʒɹ": 1636,
      "væl": 1637,
      "##stɹi": 1638,
      "dɪvɛləpt": 1639,
      "##ɛndɪŋ": 1640,
      "bɔɹn": 1641,
      "pəlɪtəkəl": 1642,
      "##ədi": 1643,
      "##ɪɹiəl": 1644,
      "nɑn": 1645,
      "dɔ": 1646,
      "kɔl": 1647,
      "pɔɹt": 1648,
      "vɛɹiəs": 1649,
      "lɑ": 1650,
      "dɑn": 1651,
      "ɹɪli": 1652,
      "hɑɹd": 1653,
      "fɹʌnt": 1654,
      "sti": 1655,
      "hɹəkejn": 1656,
      "##ʃɹ": 1657,
      "ɹɛl": 1658,
      "kɑst": 1659,
      "pejn": 1660,
      "hɛn": 1661,
      "dejt": 1662,
      "##ajɪŋ": 1663,
      "hjumən": 1664,
      "mɑdɹn": 1665,
      "##əkɹ": 1666,
      "plejst": 1667,
      "tʃajn": 1668,
      "sɪl": 1669,
      "##inz": 1670,
      "ɡɹænd": 1671,
      "##æntʃ": 1672,
      "bɛn": 1673,
      "mət": 1674,
      "fɔɹθ": 1675,
      "ɹipɔɹtəd": 1676,
      "ɹum": 1677,
      "majlz": 1678,
      "##æli": 1679,
      "ɪnkɹis": 1680,
      "##ŋkθ": 1681,
      "fɛlt": 1682,
      "ɛɹiəz": 1683,
      "vɑl": 1684,
      "nowtəd": 1685,
      "ævɹ": 1686,
      "##pəniz": 1687,
      "əmɛɹəkə": 1688,
      "##ɛntʃəwəli": 1689,
      "ɪvɛntʃəwəli": 1690,
      "mid": 1691,
      "pɹɛzənt": 1692,
      "kæpt": 1693,
      "ənawnst": 1694,
      "kɹiejtəd": 1695,
      "##ejks": 1696,
      "ɹitʃt": 1697,
      "ɔlm": 1698,
      "ədv": 1699,
      "dʒæpəniz": 1700,
      "ɛndʒən": 1701,
      "ɪkspɪɹi": 1702,
      "##mənd": 1703,
      "##fl": 1704,
      "howld": 1705,
      "pɹowt": 1706,
      "dɛd": 1707,
      "##əbɹ": 1708,
      "ɹikw": 1709,
      "ɛvɹ": 1710,
      "təɡ": 1711,
      "hʌ": 1712,
      "ʃʊd": 1713,
      "nɔɹðɹn": 1714,
      "jɑɹd": 1715,
      "ɪntɹəst": 1716,
      "sʌmɹ": 1717,
      "lɛvəl": 1718,
      "ɑb": 1719,
      "29": 1720,
      "##tʃu": 1721,
      "ɹul": 1722,
      "##ɑnɪk": 1723,
      "sn": 1724,
      "##ɛts": 1725,
      "##ɛf": 1726,
      "2005": 1727,
      "##ɛstɹ": 1728,
      "##ɛɹz": 1729,
      "bɑdi": 1730,
      "fɑlowd": 1731,
      "##awd": 1732,
      "##dʒɹz": 1733,
      "##ʃə": 1734,
      "bɹawn": 1735,
      "təɡɛðɹ": 1736,
      "fowk": 1737,
      "kɪld": 1738,
      "tʃɑɹt": 1739,
      "pɹfɔɹmd": 1740,
      "sɹvd": 1741,
      "##ɹək": 1742,
      "hɛlp": 1743,
      "fajt": 1744,
      "məl": 1745,
      "ɑɹɡ": 1746,
      "kæmpejn": 1747,
      "ejbəl": 1748,
      "bɔl": 1749,
      "kənstɹʌkʃən": 1750,
      "vɪk": 1751,
      "kɑp": 1752,
      "fit": 1753,
      "dɹɛkt": 1754,
      "tʌn": 1755,
      "##tajm": 1756,
      "##tiz": 1757,
      "kæst": 1758,
      "ɹowz": 1759,
      "powl": 1760,
      "fʊtbɔl": 1761,
      "pɪk": 1762,
      "2014": 1763,
      "##ədəns": 1764,
      "kowl": 1765,
      "tɹænz": 1766,
      "hɔɹ": 1767,
      "tejkən": 1768,
      "ɛst": 1769,
      "##ɪvəl": 1770,
      "hɑ": 1771,
      "ajdɛnt": 1772,
      "kɹu": 1773,
      "wɹks": 1774,
      "##ʌktəd": 1775,
      "##ɑɡɹəf": 1776,
      "pojnts": 1777,
      "ækʃən": 1778,
      "wɛðɹ": 1779,
      "fɔɹt": 1780,
      "ɡɑd": 1781,
      "##ædʒ": 1782,
      "##ɛndɹ": 1783,
      "##əstɹi": 1784,
      "bət": 1785,
      "θɔt": 1786,
      "dʒoj": 1787,
      "dʌbəl": 1788,
      "ɪstæblɪʃt": 1789,
      "ɹɪdʒənəli": 1790,
      "##ɪtəd": 1791,
      "ɡɹin": 1792,
      "##əʃ": 1793,
      "dɑ": 1794,
      "pɑpjəlɹ": 1795,
      "wɑʃ": 1796,
      "ɹilejʃən": 1797,
      "##ənst": 1798,
      "ɔstɹejljən": 1799,
      "ɹisɹ": 1800,
      "sʌbsəkw": 1801,
      "##ɑmə": 1802,
      "##æmpəl": 1803,
      "##owv": 1804,
      "ʌðɹz": 1805,
      "ɪntajɹ": 1806,
      "əpɪɹd": 1807,
      "##plej": 1808,
      "səm": 1809,
      "pɹej": 1810,
      "spejs": 1811,
      "dejb": 1812,
      "dejvɪd": 1813,
      "mɪk": 1814,
      "##ʒəwəl": 1815,
      "ɪnvɛst": 1816,
      "lowkejtəd": 1817,
      "fitʃɹz": 1818,
      "fən": 1819,
      "tɹævəl": 1820,
      "##ʌdʒ": 1821,
      "pɹɑdʒɛkt": 1822,
      "ɑpɹejʃən": 1823,
      "ɹəd": 1824,
      "##ɔɹtɹ": 1825,
      "ɛf": 1826,
      "æfɹək": 1827,
      "bɹejk": 1828,
      "##wɹk": 1829,
      "kəmɪʃən": 1830,
      "sun": 1831,
      "ɹajts": 1832,
      "stɑɹtəd": 1833,
      "ɪkspɹ": 1834,
      "dʒu": 1835,
      "plejɪŋ": 1836,
      "kɑzd": 1837,
      "vowk": 1838,
      "pɹɑsɛs": 1839,
      "ɪndʒ": 1840,
      "kɹɪtɪks": 1841,
      "##ɡow": 1842,
      "fitʃɹ": 1843,
      "pɹɛs": 1844,
      "tɔɹ": 1845,
      "howl": 1846,
      "fim": 1847,
      "ɪkw": 1848,
      "ævɹɪdʒ": 1849,
      "ɹæðɹ": 1850,
      "dɹɛktɹ": 1851,
      "tɹejd": 1852,
      "fæk": 1853,
      "dɛl": 1854,
      "##wɛl": 1855,
      "kwɑl": 1856,
      "##ɪpɛnd": 1857,
      "##kæst": 1858,
      "##ənsɪz": 1859,
      "##ɛtɪk": 1860,
      "dɪsajdɪd": 1861,
      "sowld": 1862,
      "fɛd": 1863,
      "ɪndɪpɛnd": 1864,
      "hæm": 1865,
      "bɪhajnd": 1866,
      "bɑ": 1867,
      "fɔɹmd": 1868,
      "ædəd": 1869,
      "ni": 1870,
      "mæɡəz": 1871,
      "flit": 1872,
      "owl": 1873,
      "dʒojn": 1874,
      "##ətɔɹi": 1875,
      "kəntɪnju": 1876,
      "31": 1877,
      "bɪznəs": 1878,
      "mawn": 1879,
      "ɹowm": 1880,
      "188": 1881,
      "fejs": 1882,
      "kawnsəl": 1883,
      "##əh": 1884,
      "læŋ": 1885,
      "istɹn": 1886,
      "mɑ": 1887,
      "kɑz": 1888,
      "##məs": 1889,
      "kəmplitəd": 1890,
      "##ɑdʒɪkəl": 1891,
      "ɑp": 1892,
      "ɔlmowst": 1893,
      "bowl": 1894,
      "pɑpjəlejʃən": 1895,
      "ɡɪl": 1896,
      "awts": 1897,
      "ɪmpɔɹtənt": 1898,
      "majkəl": 1899,
      "ɡʌnz": 1900,
      "hɛnɹi": 1901,
      "##uv": 1902,
      "##æŋks": 1903,
      "mʌðɹ": 1904,
      "##ɡə": 1905,
      "lɔn": 1906,
      "##əpəl": 1907,
      "dæns": 1908,
      "lidɹ": 1909,
      "ɪnɪʃəli": 1910,
      "nɑmən": 1911,
      "sæn": 1912,
      "ɪntɹv": 1913,
      "##baj": 1914,
      "ɡɹi": 1915,
      "##wʊd": 1916,
      "##ɪft": 1917,
      "kɪŋdəm": 1918,
      "##ɛɹə": 1919,
      "owpənd": 1920,
      "bɹi": 1921,
      "dɪfɛns": 1922,
      "əwɔɹdz": 1923,
      "##æbɹ": 1924,
      "##ajdɹ": 1925,
      "dʒɹn": 1926,
      "##ɛpʃən": 1927,
      "əsɪst": 1928,
      "pɹækt": 1929,
      "list": 1930,
      "##jənz": 1931,
      "##wejz": 1932,
      "pɹɑbl": 1933,
      "lɛdʒ": 1934,
      "2004": 1935,
      "sowʃəl": 1936,
      "nɛt": 1937,
      "kənf": 1938,
      "mɪdəl": 1939,
      "##ploj": 1940,
      "θim": 1941,
      "ɹilejʃənʃɪp": 1942,
      "ətɛmp": 1943,
      "faj": 1944,
      "fʌnd": 1945,
      "ajs": 1946,
      "##inə": 1947,
      "kʌp": 1948,
      "##ʌp": 1949,
      "##bɔɹd": 1950,
      "æŋɡ": 1951,
      "186": 1952,
      "##ejʒən": 1953,
      "wiks": 1954,
      "tɛmpɹ": 1955,
      "##ɪmən": 1956,
      "ɛɡz": 1957,
      "##aws": 1958,
      "lidɪŋ": 1959,
      "stɑp": 1960,
      "dʒej": 1961,
      "##ɪi": 1962,
      "##hɛd": 1963,
      "dɪkl": 1964,
      "sɛpɹ": 1965,
      "##vɹt": 1966,
      "wɹkɪŋ": 1967,
      "wɹkt": 1968,
      "tɹədɪʃən": 1969,
      "kɹɪs": 1970,
      "ɪnstɹ": 1971,
      "##ɹt": 1972,
      "pɑz": 1973,
      "dɪfəkəl": 1974,
      "stɹɛ": 1975,
      "təwɔɹdz": 1976,
      "##juzd": 1977,
      "##ɛdi": 1978,
      "pis": 1979,
      "ɪvɛnt": 1980,
      "ɹejdiow": 1981,
      "ɛfɹ": 1982,
      "ɹəkɔɹdɪŋ": 1983,
      "##kəm": 1984,
      "əθ": 1985,
      "əpojn": 1986,
      "##ætəs": 1987,
      "2015": 1988,
      "əpɹow": 1989,
      "fɪʃ": 1990,
      "səɡn": 1991,
      "səɡnɪfɪk": 1992,
      "##əlis": 1993,
      "mɛl": 1994,
      "kɑŋ": 1995,
      "ɹɛs": 1996,
      "##ændəd": 1997,
      "ətɛmpt": 1998,
      "junjən": 1999,
      "pɹɪv": 2000,
      "ɹθ": 2001,
      "əlawd": 2002,
      "##əzejʃən": 2003,
      "blu": 2004,
      "pɔl": 2005,
      "nejvi": 2006,
      "zi": 2007,
      "ɹɛkɹdz": 2008,
      "tɹejnɪŋ": 2009,
      "kæɹi": 2010,
      "##æləs": 2011,
      "skɔɹd": 2012,
      "sɛns": 2013,
      "##kej": 2014,
      "pɹəvajdəd": 2015,
      "wɑntəd": 2016,
      "ʌl": 2017,
      "kənsɪst": 2018,
      "tʃɑɹdʒ": 2019,
      "##jətɪv": 2020,
      "ændɹ": 2021,
      "bɹɔt": 2022,
      "500": 2023,
      "##æfɪk": 2024,
      "##əkt": 2025,
      "##vəlz": 2026,
      "ɹɛkəɡn": 2027,
      "tɹups": 2028,
      "ænti": 2029,
      "##ɡɹawnd": 2030,
      "ɡæl": 2031,
      "fitʃɹd": 2032,
      "##ɔɹdən": 2033,
      "dowz": 2034,
      "##əvɹ": 2035,
      "##ajk": 2036,
      "iðɹ": 2037,
      "##ist": 2038,
      "pʊt": 2039,
      "ətɹ": 2040,
      "dɹaj": 2041,
      "bæl": 2042,
      "##vɪl": 2043,
      "pɹɑpɹ": 2044,
      "ɑk": 2045,
      "pɑ": 2046,
      "tʃajld": 2047,
      "hɑɹt": 2048,
      "æktɹ": 2049,
      "##ʌmp": 2050,
      "wajf": 2051,
      "187": 2052,
      "ɛstəm": 2053,
      "vɪktɹi": 2054,
      "##əkejʃənz": 2055,
      "kʌt": 2056,
      "ɑks": 2057,
      "##ədənt": 2058,
      "##ɪstɪk": 2059,
      "studiow": 2060,
      "pɹəmow": 2061,
      "vɪkt": 2062,
      "##ɛkjətɪv": 2063,
      "mʌst": 2064,
      "dʒɛnɹəli": 2065,
      "əvejl": 2066,
      "dʒin": 2067,
      "##dʒɪn": 2068,
      "pəlis": 2069,
      "fɪɡ": 2070,
      "##əvɪdʒ": 2071,
      "wɑʃɪŋtən": 2072,
      "##ədz": 2073,
      "##ədʒəz": 2074,
      "pɹɪz": 2075,
      "pət": 2076,
      "ajɹ": 2077,
      "ɹʌnz": 2078,
      "ɹɑbɹt": 2079,
      "ɪɡzæmpəl": 2080,
      "ɪndəvɪdʒ": 2081,
      "##ɛkʃənz": 2082,
      "ɪvɛnts": 2083,
      "##vɹz": 2084,
      "##ʒəl": 2085,
      "mæɡəzin": 2086,
      "dɛz": 2087,
      "tʃif": 2088,
      "##ʌkt": 2089,
      "kej": 2090,
      "##əkejtəd": 2091,
      "pɛn": 2092,
      "tɛkn": 2093,
      "lʊk": 2094,
      "dɹɑp": 2095,
      "##mənənt": 2096,
      "##dej": 2097,
      "awɹz": 2098,
      "dʌn": 2099,
      "səv": 2100,
      "##iɹ": 2101,
      "fɛɹ": 2102,
      "dʒojnd": 2103,
      "dɪzajnd": 2104,
      "skwɑdɹən": 2105,
      "pɑɹtɪsəp": 2106,
      "mæks": 2107,
      "kɑnsɹ": 2108,
      "kwɛst": 2109,
      "##ild": 2110,
      "æksɛpt": 2111,
      "ɛk": 2112,
      "2003": 2113,
      "##ʒə": 2114,
      "stown": 2115,
      "##əpæn": 2116,
      "ɡɪt": 2117,
      "##ɛli": 2118,
      "spæn": 2119,
      "ʃɑt": 2120,
      "mɪst": 2121,
      "##ɔst": 2122,
      "pɑzətɪv": 2123,
      "35": 2124,
      "ɛmpi": 2125,
      "##æntɪk": 2126,
      "ɹəɡ": 2127,
      "sim": 2128,
      "tɹm": 2129,
      "##ajən": 2130,
      "owpənɪŋ": 2131,
      "##æləti": 2132,
      "əbzɹ": 2133,
      "bɪlivd": 2134,
      "tɪp": 2135,
      "kɑmpl": 2136,
      "stæf": 2137,
      "ɡɪtɑɹ": 2138,
      "ɛmp": 2139,
      "ɹəɡɑɹd": 2140,
      "##ɑts": 2141,
      "fɪf": 2142,
      "dɪskʌvɹ": 2143,
      "##sajd": 2144,
      "lejd": 2145,
      "##bz": 2146,
      "dʒəpæn": 2147,
      "ɹiplejst": 2148,
      "##dən": 2149,
      "ɛmpiejtʃ": 2150,
      "əfɪʃəl": 2151,
      "bɹowk": 2152,
      "##ik": 2153,
      "dʒæk": 2154,
      "##ɪkʃən": 2155,
      "##əɡejʃən": 2156,
      "dɹajv": 2157,
      "læk": 2158,
      "hajɹ": 2159,
      "##ɪtʃu": 2160,
      "tʌ": 2161,
      "pɹɛm": 2162,
      "midiə": 2163,
      "dʒow": 2164,
      "sɪɡn": 2165,
      "##ɑmɪk": 2166,
      "##fɔl": 2167,
      "spid": 2168,
      "ɪnvɑlvd": 2169,
      "##ɑɹtmənt": 2170,
      "mɑɹt": 2171,
      "##ətʃɹ": 2172,
      "mejl": 2173,
      "##æps": 2174,
      "kju": 2175,
      "ɹliɹ": 2176,
      "jʊɹəpiən": 2177,
      "læŋɡw": 2178,
      "mɪnəts": 2179,
      "lejk": 2180,
      "pɔɹtɹ": 2181,
      "fɪnɪʃt": 2182,
      "##ejtɹz": 2183,
      "##ɑnə": 2184,
      "##ɛktɪvli": 2185,
      "tɑɹ": 2186,
      "səsajəti": 2187,
      "səksɛsfəl": 2188,
      "kɹuz": 2189,
      "##vəluʃən": 2190,
      "lɪtɹ": 2191,
      "sejɪŋ": 2192,
      "ɛdʒəkejʃən": 2193,
      "ɪmidi": 2194,
      "pɑsəbəl": 2195,
      "ɹɛɡjəlɹ": 2196,
      "##pɹejʃən": 2197,
      "##ɡəlz": 2198,
      "səɡnɪfɪkənt": 2199,
      "lɪɹ": 2200,
      "fjutʃɹ": 2201,
      "fɔɹst": 2202,
      "dɪpɹ": 2203,
      "##stɹit": 2204,
      "lɔs": 2205,
      "kəmɹ": 2206,
      "##æstɹ": 2207,
      "əsowsiejʃən": 2208,
      "θiə": 2209,
      "sɑl": 2210,
      "##ɪkjəlɹli": 2211,
      "ɪnfən": 2212,
      "lɑɹdʒəst": 2213,
      "hajəst": 2214,
      "pɑɹtɪkjəlɹli": 2215,
      "ɹæp": 2216,
      "bɪɡɪnɪŋ": 2217,
      "kɑns": 2218,
      "lɪŋ": 2219,
      "ʃɹ": 2220,
      "fɪlmz": 2221,
      "lowɹ": 2222,
      "awtsajd": 2223,
      "##nz": 2224,
      "##ɔɹtɹz": 2225,
      "dip": 2226,
      "ɹisɹtʃ": 2227,
      "ɪnsp": 2228,
      "ɪntɹs": 2229,
      "əvejləbəl": 2230,
      "##ætʃ": 2231,
      "dæn": 2232,
      "2000": 2233,
      "tejl": 2234,
      "bɛtɹ": 2235,
      "kæptən": 2236,
      "paw": 2237,
      "##ɪkə": 2238,
      "##əsli": 2239,
      "stʌdi": 2240,
      "sajn": 2241,
      "vɹdʒɪn": 2242,
      "ətʃi": 2243,
      "tʃɑɹlz": 2244,
      "pæn": 2245,
      "##ɹiəl": 2246,
      "kɛn": 2247,
      "skɹin": 2248,
      "2001": 2249,
      "tejkɪŋ": 2250,
      "nɑvəl": 2251,
      "##iənz": 2252,
      "tɹnd": 2253,
      "##ɛv": 2254,
      "ɹɪlɪdʒ": 2255,
      "sikw": 2256,
      "sɛkʃən": 2257,
      "ɹɛlətɪv": 2258,
      "sɛm": 2259,
      "ɹɛpɹəzɛnt": 2260,
      "ɪs": 2261,
      "ɪnkɹist": 2262,
      "##ɹow": 2263,
      "ɛndəd": 2264,
      "kənsɪdɹ": 2265,
      "##ætən": 2266,
      "ɪntɛns": 2267,
      "dɑɹk": 2268,
      "tajp": 2269,
      "kæləf": 2270,
      "junəts": 2271,
      "kɹɛd": 2272,
      "pitɹ": 2273,
      "klɪɹ": 2274,
      "dɪsəp": 2275,
      "##æz": 2276,
      "##tɹiz": 2277,
      "pɹɛʃ": 2278,
      "kəmjunəti": 2279,
      "tɑməs": 2280,
      "kæsəl": 2281,
      "pɹejzd": 2282,
      "ɹivjuz": 2283,
      "##ejdz": 2284,
      "##ʊɹi": 2285,
      "##mə": 2286,
      "##ʒəwəli": 2287,
      "pɹɑm": 2288,
      "ɡowɪŋ": 2289,
      "əbʌv": 2290,
      "##ɔlt": 2291,
      "nɪk": 2292,
      "əpɪɹəns": 2293,
      "##æksən": 2294,
      "sɪvəl": 2295,
      "##jəp": 2296,
      "ðʌs": 2297,
      "ədɪʃənəl": 2298,
      "##əfəkejʃən": 2299,
      "2002": 2300,
      "fɪz": 2301,
      "dɔɹ": 2302,
      "ɪnʌf": 2303,
      "bɑt": 2304,
      "wɪndz": 2305,
      "##əndʒ": 2306,
      "ɔɹdɹd": 2307,
      "smɪθ": 2308,
      "pɹiviəsli": 2309,
      "bɹʌðɹ": 2310,
      "kænədə": 2311,
      "##fɹmejʃən": 2312,
      "ejd": 2313,
      "sajnd": 2314,
      "##ɪɹiɹ": 2315,
      "vajəl": 2316,
      "ɛksp": 2317,
      "pɹajv": 2318,
      "ɹɪtʃɹd": 2319,
      "ɪnfəntɹi": 2320,
      "θɹɛt": 2321,
      "##ɛɹəli": 2322,
      "ɪndiən": 2323,
      "ɛləmənts": 2324,
      "##ɔɹnjə": 2325,
      "kæləfɔɹnjə": 2326,
      "pʊɹ": 2327,
      "##ɪmp": 2328,
      "sɹfəs": 2329,
      "ɹid": 2330,
      "fud": 2331,
      "sajz": 2332,
      "lɔɹd": 2333,
      "ɡɹædʒ": 2334,
      "sinjɹ": 2335,
      "##ɛntʃəl": 2336,
      "##ækʃən": 2337,
      "kip": 2338,
      "plæt": 2339,
      "##kli": 2340,
      "sɑ": 2341,
      "pɑɹts": 2342,
      "dɪstɪŋ": 2343,
      "##sɛl": 2344,
      "ɹisp": 2345,
      "lɛŋkθ": 2346,
      "ɪʃu": 2347,
      "dajn": 2348,
      "ɹɪspɑns": 2349,
      "fimejl": 2350,
      "ɹejt": 2351,
      "spɛnt": 2352,
      "##bə": 2353,
      "lajnz": 2354,
      "owvɹɔl": 2355,
      "ɹipɔɹt": 2356,
      "towld": 2357,
      "bɹɔdkæst": 2358,
      "##wɹdz": 2359,
      "væn": 2360,
      "mʌni": 2361,
      "kəmɪti": 2362,
      "##ɡejdʒ": 2363,
      "ɡɹej": 2364,
      "flʌd": 2365,
      "##ɛʃənəl": 2366,
      "bæs": 2367,
      "dɹɛktəd": 2368,
      "stejd": 2369,
      "dɪfi": 2370,
      "mjuzɪkəl": 2371,
      "hʌn": 2372,
      "##ɑsp": 2373,
      "45": 2374,
      "##əsl": 2375,
      "fejld": 2376,
      "kɑɹd": 2377,
      "bɹɪtən": 2378,
      "ɹispɑns": 2379,
      "##θl": 2380,
      "##ɪʃɪŋ": 2381,
      "ɹikwajɹd": 2382,
      "pɹajɹ": 2383,
      "ɡɹups": 2384,
      "##əbɪləti": 2385,
      "sɔɹ": 2386,
      "##ətɹz": 2387,
      "kɔɹs": 2388,
      "dʒɹməni": 2389,
      "ɡʌvɹnɹ": 2390,
      "dɪstɹɪkt": 2391,
      "##ɑɡɹəfi": 2392,
      "mɪkst": 2393,
      "##tajmz": 2394,
      "##ɡɹi": 2395,
      "ɪtsɛlf": 2396,
      "##ski": 2397,
      "##ʌmb": 2398,
      "hɛlθ": 2399,
      "km": 2400,
      "pajl": 2401,
      "tɹɪp": 2402,
      "ɛvədəns": 2403,
      "ʃɛɹ": 2404,
      "lætɹ": 2405,
      "ɔlɹ": 2406,
      "ɪndiə": 2407,
      "səmtajmz": 2408,
      "##fli": 2409,
      "bətæljən": 2410,
      "ədvæns": 2411,
      "60": 2412,
      "fænt": 2413,
      "sɪmp": 2414,
      "bɛɹ": 2415,
      "##ajɹən": 2416,
      "ɛnɡejdʒ": 2417,
      "kɑŋɡɹ": 2418,
      "huz": 2419,
      "pɹɪzən": 2420,
      "##stænd": 2421,
      "##ownə": 2422,
      "ɪlɛkʃən": 2423,
      "##zb": 2424,
      "æskt": 2425,
      "ɑkjəp": 2426,
      "185": 2427,
      "hum": 2428,
      "##ɪkət": 2429,
      "ɡɑt": 2430,
      "fejm": 2431,
      "##nə": 2432,
      "##ʃəli": 2433,
      "ɪɡzɪst": 2434,
      "lɪvɪŋ": 2435,
      "mətɪɹiəl": 2436,
      "##ejnt": 2437,
      "əpɹɑks": 2438,
      "hɑt": 2439,
      "skwɛɹ": 2440,
      "mɛks": 2441,
      "mɑɹkət": 2442,
      "##ɛktɪŋ": 2443,
      "ʃɛl": 2444,
      "tʃæl": 2445,
      "##ʃu": 2446,
      "jukej": 2447,
      "kɹɪtɪkəl": 2448,
      "sɛɹ": 2449,
      "##juʃən": 2450,
      "howst": 2451,
      "dɪtɹ": 2452,
      "ɔlɹɛdi": 2453,
      "majt": 2454,
      "klejmd": 2455,
      "ɪsp": 2456,
      "ɑɹk": 2457,
      "iz": 2458,
      "flajt": 2459,
      "##mæn": 2460,
      "sæm": 2461,
      "ɹɛm": 2462,
      "tʃowz": 2463,
      "klajm": 2464,
      "kwin": 2465,
      "##æŋkt": 2466,
      "##bæk": 2467,
      "##ʌŋkʃən": 2468,
      "fɹikw": 2469,
      "ɪntɹədust": 2470,
      "əpɹɑksəm": 2471,
      "nætʃɹəl": 2472,
      "##ɑɡow": 2473,
      "##tow": 2474,
      "sowvi": 2475,
      "pɹsənəl": 2476,
      "##ɪləti": 2477,
      "mawnt": 2478,
      "##ətʃ": 2479,
      "juʒəwəli": 2480,
      "dɪn": 2481,
      "sɹk": 2482,
      "tæks": 2483,
      "wʊmən": 2484,
      "32": 2485,
      "##ɹs": 2486,
      "studənts": 2487,
      "pɑɹl": 2488,
      "mɪʃ": 2489,
      "##iowz": 2490,
      "kwɪkli": 2491,
      "##ɔk": 2492,
      "ajdiə": 2493,
      "luɪs": 2494,
      "ɑdi": 2495,
      "vojs": 2496,
      "lɪmətəd": 2497,
      "##awz": 2498,
      "ku": 2499,
      "ɡɹow": 2500,
      "mən": 2501,
      "sɪkjʊɹ": 2502,
      "ʌpɹ": 2503,
      "ɪfɛkts": 2504,
      "stɑɹz": 2505,
      "##ɛʃli": 2506,
      "muvmənt": 2507,
      "mɛksək": 2508,
      "ɔθɹ": 2509,
      "ɹowmən": 2510,
      "sɪtʃu": 2511,
      "##bəlz": 2512,
      "pɹɑb": 2513,
      "dɪfit": 2514,
      "##ɔɡ": 2515,
      "θiətɹ": 2516,
      "sænd": 2517,
      "sɛlf": 2518,
      "sʌbdʒ": 2519,
      "dɪstɹoj": 2520,
      "dejbju": 2521,
      "##ɪtɹ": 2522,
      "##haws": 2523,
      "mɪnəstɹ": 2524,
      "##ɑnz": 2525,
      "##ɹdʒi": 2526,
      "fɪfθ": 2527,
      "ɹajvd": 2528,
      "pɹɪvɛnt": 2529,
      "pɹɛʃɹ": 2530,
      "ɪkspɪɹiəns": 2531,
      "kəmændɹ": 2532,
      "##juəl": 2533,
      "wɪŋ": 2534,
      "ɪspɛʃli": 2535,
      "fækt": 2536,
      "stɹʌktʃɹ": 2537,
      "ɪmɹdʒ": 2538,
      "##æɡən": 2539,
      "dɪsɪʒən": 2540,
      "sɹvəsəz": 2541,
      "##ɛnti": 2542,
      "ɹajtɹ": 2543,
      "dɪpɑɹtmənt": 2544,
      "tɹejn": 2545,
      "bit": 2546,
      "luz": 2547,
      "kʌlɹ": 2548,
      "æktʃ": 2549,
      "tʃɛɹ": 2550,
      "timz": 2551,
      "vɪlədʒ": 2552,
      "ɑpɹejʃənz": 2553,
      "##bət": 2554,
      "ʃowz": 2555,
      "ɪndəstɹi": 2556,
      "fɛst": 2557,
      "##ajts": 2558,
      "ɑl": 2559,
      "lɑɹdʒɹ": 2560,
      "lows": 2561,
      "lɛɡ": 2562,
      "kəmɹʃəl": 2563,
      "ɪsk": 2564,
      "##ɛlow": 2565,
      "vɛn": 2566,
      "##ətɪʃən": 2567,
      "bɪkʌmɪŋ": 2568,
      "fɹæŋk": 2569,
      "##əlɑdʒɪkəl": 2570,
      "ɹɪmejnɪŋ": 2571,
      "##wʌn": 2572,
      "ɛstəmejtəd": 2573,
      "sajəns": 2574,
      "dɪfitəd": 2575,
      "pɹæktəs": 2576,
      "sejl": 2577,
      "kæɹid": 2578,
      "spəsɪfɪk": 2579,
      "##ajdz": 2580,
      "##fəli": 2581,
      "bɑks": 2582,
      "ɑnɹ": 2583,
      "æksɛs": 2584,
      "məd": 2585,
      "ɑd": 2586,
      "mɛθ": 2587,
      "tʌnz": 2588,
      "kejp": 2589,
      "blʌd": 2590,
      "pɹtʃ": 2591,
      "##bɹn": 2592,
      "sɹawnd": 2593,
      "pɹsɛnt": 2594,
      "sinz": 2595,
      "##ədʒən": 2596,
      "##ʌlts": 2597,
      "hɑsp": 2598,
      "livɪŋ": 2599,
      "mədʒ": 2600,
      "ɪnfluəns": 2601,
      "sɹtən": 2602,
      "ɛpəsowdz": 2603,
      "ɹʌnɪŋ": 2604,
      "36": 2605,
      "##sə": 2606,
      "θi": 2607,
      "nejvəl": 2608,
      "tʃejndʒəz": 2609,
      "1999": 2610,
      "vɹdʒɪnjə": 2611,
      "əkw": 2612,
      "##ɛld": 2613,
      "##ɪɡən": 2614,
      "##ændɹ": 2615,
      "bʌ": 2616,
      "spɪɹ": 2617,
      "səɡdʒɛstəd": 2618,
      "ɹajvəl": 2619,
      "ɹæn": 2620,
      "ɪnh": 2621,
      "ɛntɹd": 2622,
      "ɡɹl": 2623,
      "nɪɹli": 2624,
      "dɪpɹɛʃən": 2625,
      "##ɛɹəktɹ": 2626,
      "əpojntəd": 2627,
      "dɑkjəm": 2628,
      "kwɔɹtɹ": 2629,
      "tɹæks": 2630,
      "wɪnɪŋ": 2631,
      "mɛs": 2632,
      "əpɹɑksəmətli": 2633,
      "məʃ": 2634,
      "fəs": 2635,
      "##məl": 2636,
      "##ɑlɹ": 2637,
      "##ɔɹz": 2638,
      "vow": 2639,
      "fɛdɹəl": 2640,
      "wajld": 2641,
      "##əbɪlɪti": 2642,
      "ɑnt": 2643,
      "ʌltəm": 2644,
      "læŋɡwədʒ": 2645,
      "dʒɪm": 2646,
      "ʃɔɹtli": 2647,
      "##mɹəs": 2648,
      "wɛb": 2649,
      "pɹajvət": 2650,
      "ajləndz": 2651,
      "##ɔɹiəl": 2652,
      "kɑmb": 2653,
      "ɛmpajɹ": 2654,
      "fajnəli": 2655,
      "ændʒəl": 2656,
      "tədej": 2657,
      "ædm": 2658,
      "##əsən": 2659,
      "nɛtwɹk": 2660,
      "ɛkən": 2661,
      "dʒæksən": 2662,
      "##ɑki": 2663,
      "##əpɹ": 2664,
      "oj": 2665,
      "dɪstɹojd": 2666,
      "plɑt": 2667,
      "pɹəpowzd": 2668,
      "ɹidʒ": 2669,
      "dɔtɹ": 2670,
      "kɹɪtɪs": 2671,
      "dɪdʒ": 2672,
      "mɪʃən": 2673,
      "75": 2674,
      "##əɡejd": 2675,
      "##ɪstəns": 2676,
      "pɹədusɹ": 2677,
      "spænɪʃ": 2678,
      "bɹθ": 2679,
      "kɹənt": 2680,
      "ʃɑɹ": 2681,
      "tɛkst": 2682,
      "kɑntɹækt": 2683,
      "##jəlejʃən": 2684,
      "bæd": 2685,
      "kli": 2686,
      "##hʊd": 2687,
      "wɪt": 2688,
      "sʌbsəkwəntli": 2689,
      "sæl": 2690,
      "300": 2691,
      "##əfaj": 2692,
      "kowtʃ": 2693,
      "bæŋk": 2694,
      "##lɪn": 2695,
      "bɹid": 2696,
      "##sɛlvz": 2697,
      "ɹejlwej": 2698,
      "hɑl": 2699,
      "ɹɛfɹəns": 2700,
      "kəmpɛɹd": 2701,
      "pɹəfɛʃənəl": 2702,
      "mɛɹid": 2703,
      "##tmənt": 2704,
      "ɔltɹn": 2705,
      "##ɛsɪv": 2706,
      "ɪntɛndəd": 2707,
      "##ɛndz": 2708,
      "ɪmidiətli": 2709,
      "dʒʌdʒ": 2710,
      "bɹəɡejd": 2711,
      "nejtʃɹ": 2712,
      "səpɔɹtəd": 2713,
      "sajənt": 2714,
      "fænz": 2715,
      "sowviət": 2716,
      "kæns": 2717,
      "dɑktɹ": 2718,
      "majnɹ": 2719,
      "sɹvaj": 2720,
      "184": 2721,
      "əɡɹid": 2722,
      "mæk": 2723,
      "##tejnd": 2724,
      "##ətud": 2725,
      "ɪnvajɹən": 2726,
      "dʒɹnəl": 2727,
      "ʃək": 2728,
      "##ɹiə": 2729,
      "hɔɹs": 2730,
      "kɑt": 2731,
      "ɛntɹtejn": 2732,
      "ɹɛzəd": 2733,
      "mʌlt": 2734,
      "ɪnkɹisɪŋ": 2735,
      "80": 2736,
      "əwɔɹdəd": 2737,
      "væli": 2738,
      "fil": 2739,
      "mjuziəm": 2740,
      "##ɪʒənz": 2741,
      "##əməm": 2742,
      "fɔɹwɹd": 2743,
      "##bɛɹi": 2744,
      "ɛdwɹd": 2745,
      "tʃajniz": 2746,
      "hɛlpt": 2747,
      "bɹɪŋ": 2748,
      "ʃəkɑɡow": 2749,
      "plænd": 2750,
      "mænədʒɹ": 2751,
      "æləɡ": 2752,
      "bɛɹi": 2753,
      "ɔfəsɹ": 2754,
      "spɹɪŋ": 2755,
      "kɹiejt": 2756,
      "##ɪbjut": 2757,
      "ɹɪlejtɪd": 2758,
      "##æts": 2759,
      "ɪmpækt": 2760,
      "sowldʒɹz": 2761,
      "liv": 2762,
      "bʊks": 2763,
      "##əɡɹæf": 2764,
      "lɪbɹ": 2765,
      "kɑnfɹəns": 2766,
      "mɹd": 2767,
      "lɔŋɡɹ": 2768,
      "fɑɹm": 2769,
      "pæk": 2770,
      "fəsɪl": 2771,
      "bɪlbɔɹd": 2772,
      "1998": 2773,
      "wɪntɹ": 2774,
      "##bow": 2775,
      "bɹn": 2776,
      "##θi": 2777,
      "dejli": 2778,
      "jɛt": 2779,
      "kæptʃɹd": 2780,
      "əɡɹi": 2781,
      "bɪldɪŋz": 2782,
      "fɛstəv": 2783,
      "kɑɹl": 2784,
      "dɪlɪ": 2785,
      "plænz": 2786,
      "mɛtɹ": 2787,
      "##ɛnʃəl": 2788,
      "##ejdiən": 2789,
      "##jum": 2790,
      "ɛmploj": 2791,
      "33": 2792,
      "tʃejndʒd": 2793,
      "dʒɑnsən": 2794,
      "##ɛɹow": 2795,
      "kənklud": 2796,
      "lajkli": 2797,
      "kɹɪstʃən": 2798,
      "əsowsiejtəd": 2799,
      "sʌmθɪŋ": 2800,
      "fɹɛndz": 2801,
      "##fɪɹ": 2802,
      "ɹɛdʒəmənt": 2803,
      "ɔfəsɹz": 2804,
      "##ejvz": 2805,
      "stil": 2806,
      "plænt": 2807,
      "æmb": 2808,
      "fejl": 2809,
      "ɹɪmejnz": 2810,
      "mowstli": 2811,
      "ɪfɛkt": 2812,
      "dil": 2813,
      "##fə": 2814,
      "how": 2815,
      "##læntɪk": 2816,
      "##ʊɹd": 2817,
      "##dawn": 2818,
      "kəmb": 2819,
      "ðɛmsɛlvz": 2820,
      "sɪŋɡəlz": 2821,
      "stændɹd": 2822,
      "tɑɹɡ": 2823,
      "pəsɪfɪk": 2824,
      "##ʌndɹ": 2825,
      "##bɹɪdʒ": 2826,
      "lɛdʒəsl": 2827,
      "##tʃɛstɹ": 2828,
      "dɹæft": 2829,
      "kʌntɹiz": 2830,
      "ɪnɪʃəl": 2831,
      "kawntɹ": 2832,
      "lɪɹɪks": 2833,
      "pɹɑbəbli": 2834,
      "##ʃt": 2835,
      "tɛks": 2836,
      "wejlz": 2837,
      "mɛtəl": 2838,
      "dʒɑb": 2839,
      "lɔɹ": 2840,
      "pɹt": 2841,
      "sejlz": 2842,
      "ɪkstɛndəd": 2843,
      "##ɛmb": 2844,
      "##ɡn": 2845,
      "muvɪŋ": 2846,
      "numɹəs": 2847,
      "##ɑni": 2848,
      "##jɹz": 2849,
      "kɑnstət": 2850,
      "##ɪpʃən": 2851,
      "ɹajv": 2852,
      "##æv": 2853,
      "ɑɹkət": 2854,
      "ɪnfɹmejʃən": 2855,
      "kəmpl": 2856,
      "tʃæn": 2857,
      "##ətɪŋ": 2858,
      "##ənɪŋ": 2859,
      "ɪmpl": 2860,
      "kɑpiz": 2861,
      "ɔlwejz": 2862,
      "mɑdəl": 2863,
      "ɹɪkwɛst": 2864,
      "mɔɹnɪŋ": 2865,
      "owlɪmp": 2866,
      "lowkejʃən": 2867,
      "fowt": 2868,
      "fowkəs": 2869,
      "##lən": 2870,
      "ʃut": 2871,
      "##lown": 2872,
      "dɹɔ": 2873,
      "##tʃənt": 2874,
      "kæpətəl": 2875,
      "37": 2876,
      "##əmɛntəl": 2877,
      "##ɪkəli": 2878,
      "ɛnɹdʒi": 2879,
      "ɪʃud": 2880,
      "ɹɛɹ": 2881,
      "dɪfəkəlt": 2882,
      "pɹajmɛɹi": 2883,
      "kɑŋɡɹəs": 2884,
      "bækɡɹawnd": 2885,
      "stætəs": 2886,
      "ɹiz": 2887,
      "ɪnkludz": 2888,
      "junət": 2889,
      "ɡɑɹ": 2890,
      "##fɹɪŋ": 2891,
      "ətlæntɪk": 2892,
      "sʌfɹd": 2893,
      "##ʌɡ": 2894,
      "θɪŋ": 2895,
      "##vənu": 2896,
      "kəntɛm": 2897,
      "##tawn": 2898,
      "##ɔɹm": 2899,
      "sɪŋɹ": 2900,
      "1997": 2901,
      "ɹɪdʒ": 2902,
      "vajə": 2903,
      "pɹip": 2904,
      "##əlajn": 2905,
      "##əpt": 2906,
      "muvi": 2907,
      "klejm": 2908,
      "pɹɑbləmz": 2909,
      "##pɹajz": 2910,
      "mɪɹ": 2911,
      "bɑnd": 2912,
      "flɔɹədə": 2913,
      "pik": 2914,
      "ælbəmz": 2915,
      "mitɪŋ": 2916,
      "slow": 2917,
      "dɛn": 2918,
      "##kʌm": 2919,
      "dʒunjɹ": 2920,
      "##low": 2921,
      "70": 2922,
      "##mɪtəd": 2923,
      "##ʃənd": 2924,
      "tɛɹɪt": 2925,
      "ɹit": 2926,
      "ɹimuvd": 2927,
      "##əmən": 2928,
      "kɹow": 2929,
      "tʃajnə": 2930,
      "ɹajz": 2931,
      "wu": 2932,
      "kənsɹn": 2933,
      "ɪndɪpɛndənt": 2934,
      "00": 2935,
      "hɑspɪtəl": 2936,
      "nejtɪv": 2937,
      "##itɪd": 2938,
      "tɛksəs": 2939,
      "wɹd": 2940,
      "##ɪkən": 2941,
      "ɪnspajɹd": 2942,
      "ɹejzd": 2943,
      "ajɹn": 2944,
      "fɔɹən": 2945,
      "ɪɡzɛkjətɪv": 2946,
      "tʃæns": 2947,
      "dəm": 2948,
      "kɹik": 2949,
      "lɛn": 2950,
      "tɹmz": 2951,
      "ɹɛvəluʃən": 2952,
      "mədʒɔɹəti": 2953,
      "θɪɹi": 2954,
      "vih": 2955,
      "ɹiɪn": 2956,
      "ɹitʃ": 2957,
      "ənn": 2958,
      "ɔfɹd": 2959,
      "kɑmbæt": 2960,
      "##inow": 2961,
      "mɪnut": 2962,
      "mɛnt": 2963,
      "pɹɑd": 2964,
      "lut": 2965,
      "tejks": 2966,
      "əvojd": 2967,
      "mænj": 2968,
      "əpɹowtʃ": 2969,
      "##ejniən": 2970,
      "kɛɹəktɹ": 2971,
      "##ʃəs": 2972,
      "ɡowlz": 2973,
      "ətæks": 2974,
      "##nəl": 2975,
      "##ətejʃən": 2976,
      "ʃown": 2977,
      "ədɑp": 2978,
      "kowd": 2979,
      "ɹɪpl": 2980,
      "##hæm": 2981,
      "##əmɛnt": 2982,
      "ɹɛn": 2983,
      "dɹʌm": 2984,
      "##iəs": 2985,
      "flæɡ": 2986,
      "ɪndəvɪdʒəwəl": 2987,
      "ɪntɹvju": 2988,
      "ɛntɹtejnmənt": 2989,
      "ɡæs": 2990,
      "dæmədʒd": 2991,
      "kəmpowzd": 2992,
      "fɑlow": 2993,
      "ɹæŋkt": 2994,
      "ɑɹtəst": 2995,
      "##ɑtə": 2996,
      "dɛp": 2997,
      "kənejdiən": 2998,
      "lɛtɹ": 2999,
      "fɑks": 3000,
      "lɪn": 3001,
      "##ɑɹə": 3002,
      "ɛmpɹ": 3003,
      "183": 3004,
      "##ajdəd": 3005,
      "##umd": 3006,
      "sikɹ": 3007,
      "ɹɑb": 3008,
      "##ɪkts": 3009,
      "əpɪɹz": 3010,
      "ɪnsajd": 3011,
      "fajtɪŋ": 3012,
      "##howld": 3013,
      "æfɹəkə": 3014,
      "səlɛktəd": 3015,
      "kɔɹəs": 3016,
      "sɪstɹ": 3017,
      "kɛm": 3018,
      "ɡɹæn": 3019,
      "ɹɪvild": 3020,
      "sɪklown": 3021,
      "dɪskʌvɹd": 3022,
      "##idəd": 3023,
      "ɹʌʃən": 3024,
      "dɛməkɹ": 3025,
      "pɪɹ": 3026,
      "ɛp": 3027,
      "##ejld": 3028,
      "mɑɹtən": 3029,
      "twɛnti": 3030,
      "kəndɪʃənz": 3031,
      "ənejbəl": 3032,
      "lɔntʃt": 3033,
      "ɡɹejtɹ": 3034,
      "səsp": 3035,
      "34": 3036,
      "iv": 3037,
      "mejks": 3038,
      "##ɛntɹi": 3039,
      "ɹɪspɛktɪvli": 3040,
      "pɹtɪkjəlɹ": 3041,
      "pejd": 3042,
      "##ænst": 3043,
      "tv": 3044,
      "##tɹd": 3045,
      "ɛɹə": 3046,
      "ɛndʒ": 3047,
      "38": 3048,
      "bɪlow": 3049,
      "ɹajd": 3050,
      "nʌmbɹz": 3051,
      "ɪʃuz": 3052,
      "nidəd": 3053,
      "smɔlɹ": 3054,
      "##ɛɹiən": 3055,
      "ændʒəlɪs": 3056,
      "slajt": 3057,
      "lɹn": 3058,
      "θɪŋk": 3059,
      "lɪvd": 3060,
      "blɑk": 3061,
      "##ɛɹəti": 3062,
      "jɑɹdz": 3063,
      "kəntejnz": 3064,
      "ətɛmptəd": 3065,
      "##ɛdʒʊ": 3066,
      "ətækt": 3067,
      "spɔɹts": 3068,
      "mɛɹɪdʒ": 3069,
      "skɛdʒʊ": 3070,
      "spl": 3071,
      "mæstɹ": 3072,
      "1995": 3073,
      "sejf": 3074,
      "stivən": 3075,
      "əkɹd": 3076,
      "ojl": 3077,
      "nuzp": 3078,
      "##əmætɪk": 3079,
      "##ɪɹɪŋ": 3080,
      "##ʃɪps": 3081,
      "mæθ": 3082,
      "ikw": 3083,
      "ɪmpɹuv": 3084,
      "##ɛɹiz": 3085,
      "##dʒi": 3086,
      "tɹədɪʃənəl": 3087,
      "tɪm": 3088,
      "kəntɛmpɹ": 3089,
      "kɑnfl": 3090,
      "ɹɪŋ": 3091,
      "fʌn": 3092,
      "vɪ": 3093,
      "ajɪi": 3094,
      "fənæn": 3095,
      "##ɛsɹ": 3096,
      "kʌltʃɹ": 3097,
      "majnd": 3098,
      "ɡæ": 3099,
      "tæs": 3100,
      "mʌl": 3101,
      "ɪlɛktəd": 3102,
      "##dʒɛkts": 3103,
      "ænjuəl": 3104,
      "##nɑ": 3105,
      "ɹəfɹd": 3106,
      "fɛstəvəl": 3107,
      "##ɹnd": 3108,
      "əpl": 3109,
      "##ɪbj": 3110,
      "fɔɹəst": 3111,
      "ɹɪlɪdʒəs": 3112,
      "ɪmədʒ": 3113,
      "##ɑɹi": 3114,
      "##sɛt": 3115,
      "##fs": 3116,
      "sɪd": 3117,
      "ɡɛst": 3118,
      "skɹɪpt": 3119,
      "məʃin": 3120,
      "pɹɑv": 3121,
      "##stown": 3122,
      "1996": 3123,
      "19tiejtʃ": 3124,
      "skulz": 3125,
      "ɑdiəns": 3126,
      "pɹɛ": 3127,
      "lɑɹdʒli": 3128,
      "ɹɪzʌltɪd": 3129,
      "kʌvɹd": 3130,
      "dɑɹ": 3131,
      "sɛtəl": 3132,
      "2016": 3133,
      "əsajnd": 3134,
      "mɪstɹ": 3135,
      "stɔɹiz": 3136,
      "pɹowd": 3137,
      "lɑt": 3138,
      "lɪstəd": 3139,
      "vɪktɔɹ": 3140,
      "vɹajəti": 3141,
      "##liən": 3142,
      "səvɪɹ": 3143,
      "##ɪʃəp": 3144,
      "##ətut": 3145,
      "90": 3146,
      "kɑmplɛks": 3147,
      "##ɹejʃən": 3148,
      "ædmɪn": 3149,
      "kəlɛkʃən": 3150,
      "kɑmpətɪʃən": 3151,
      "ejm": 3152,
      "mɹin": 3153,
      "dʒaj": 3154,
      "ɹnd": 3155,
      "mawntən": 3156,
      "##ejdəd": 3157,
      "ɡɹædʒu": 3158,
      "əkʌm": 3159,
      "tawɹ": 3160,
      "1994": 3161,
      "kɑmɛntəd": 3162,
      "ɪkspɛktəd": 3163,
      "tɹæfɪk": 3164,
      "sɪlvɹ": 3165,
      "stɑɹtɪŋ": 3166,
      "##ojz": 3167,
      "dvd": 3168,
      "##və": 3169,
      "klowzd": 3170,
      "stiv": 3171,
      "ɪtæljən": 3172,
      "pɑɹləmənt": 3173,
      "##əndz": 3174,
      "ətɛnʃən": 3175,
      "##kɑn": 3176,
      "##ajnz": 3177,
      "ɡɪvɪŋ": 3178,
      "ɪstæblɪʃ": 3179,
      "kəp": 3180,
      "əbænd": 3181,
      "ɹəfjuzd": 3182,
      "##plojd": 3183,
      "liɡəl": 3184,
      "mɪʃɪɡən": 3185,
      "ɹæpəd": 3186,
      "##dʒd": 3187,
      "ɛkənɑmɪk": 3188,
      "ɡɹejtəst": 3189,
      "##ɛtn": 3190,
      "pɹfɔɹmənsəz": 3191,
      "ɹizən": 3192,
      "pɹpəs": 3193,
      "æʃ": 3194,
      "dɪspl": 3195,
      "##fən": 3196,
      "fæst": 3197,
      "wɑnt": 3198,
      "wejt": 3199,
      "ɹɪpʌbl": 3200,
      "ælən": 3201,
      "ɔɹk": 3202,
      "əbɪləti": 3203,
      "ɹowdz": 3204,
      "mæl": 3205,
      "ɹɪst": 3206,
      "ɡlow": 3207,
      "ɹæŋk": 3208,
      "fɪləp": 3209,
      "æɡɹ": 3210,
      "stej": 3211,
      "ənlaj": 3212,
      "kætəɡ": 3213,
      "sɛpɹət": 3214,
      "dɪklɛɹd": 3215,
      "sʌbdʒɪkt": 3216,
      "nʌ": 3217,
      "mæd": 3218,
      "##ænɪk": 3219,
      "mætʃəz": 3220,
      "θɪŋz": 3221,
      "vowkəlz": 3222,
      "kəmpju": 3223,
      "dəb": 3224,
      "sɛkɹ": 3225,
      "hʌndɹ": 3226,
      "49": 3227,
      "mædʒ": 3228,
      "ɹɪtʃ": 3229,
      "ædmɪnɪstɹ": 3230,
      "kajnd": 3231,
      "məm": 3232,
      "ejn": 3233,
      "##ɪps": 3234,
      "lɛvəlz": 3235,
      "əkʌmpən": 3236,
      "stejdiəm": 3237,
      "kɑɹt": 3238,
      "dʒows": 3239,
      "bawnd": 3240,
      "dʌbəlju": 3241,
      "180": 3242,
      "nɪɹbaj": 3243,
      "stæn": 3244,
      "wɹdz": 3245,
      "##wajd": 3246,
      "bɹd": 3247,
      "spɛs": 3248,
      "##ejpt": 3249,
      "##ɹət": 3250,
      "nɛs": 3251,
      "kənfɹm": 3252,
      "pɹowdus": 3253,
      "##ajɹz": 3254,
      "##ɪʃənt": 3255,
      "hej": 3256,
      "##ɪtejʃən": 3257,
      "ʃowd": 3258,
      "majl": 3259,
      "kənstɹʌktəd": 3260,
      "##ɪktəd": 3261,
      "ɹɪsɛpʃən": 3262,
      "pɹiz": 3263,
      "pɹɛmɪɹ": 3264,
      "tɹajd": 3265,
      "ɪkspɛɹ": 3266,
      "##owzɪŋ": 3267,
      "ɔt": 3268,
      "kɑnsɹt": 3269,
      "fæntəsi": 3270,
      "vowt": 3271,
      "41": 3272,
      "##ɑps": 3273,
      "kʌst": 3274,
      "##tɹæk": 3275,
      "kæptʃɹ": 3276,
      "ɡw": 3277,
      "##əkəlz": 3278,
      "tʌtʃ": 3279,
      "##əfæk": 3280,
      "hajli": 3281,
      "nɑts": 3282,
      "zilənd": 3283,
      "klow": 3284,
      "ajz": 3285,
      "nowts": 3286,
      "əkejʒən": 3287,
      "nejmz": 3288,
      "1992": 3289,
      "nukli": 3290,
      "##əmowni": 3291,
      "bɹʌ": 3292,
      "minz": 3293,
      "nil": 3294,
      "bowt": 3295,
      "vowkəl": 3296,
      "ɡɹænt": 3297,
      "sɔɹs": 3298,
      "ɔɹɡənəzejʃən": 3299,
      "ɹajtɹz": 3300,
      "stim": 3301,
      "owʃən": 3302,
      "##ənejʃən": 3303,
      "mɛdəkəl": 3304,
      "pɛɹəl": 3305,
      "1stɹit": 3306,
      "kɑntɹəvɹ": 3307,
      "lɛt": 3308,
      "majkɹ": 3309,
      "dɹɛktli": 3310,
      "ʌltəmətli": 3311,
      "bɔɹ": 3312,
      "##pənz": 3313,
      "##owtɛl": 3314,
      "##uʒən": 3315,
      "tʃæləndʒ": 3316,
      "##vejʃən": 3317,
      "æfɹəkən": 3318,
      "pɹizɛntəd": 3319,
      "ɹədust": 3320,
      "bɛd": 3321,
      "nejʃən": 3322,
      "ɛfɹt": 3323,
      "400": 3324,
      "sejnt": 3325,
      "mæɡn": 3326,
      "mɛksəkow": 3327,
      "vɛs": 3328,
      "##owʃi": 3329,
      "stɹʌ": 3330,
      "dɹɛkʃən": 3331,
      "əmawnt": 3332,
      "tʃoj": 3333,
      "ɹɛkəm": 3334,
      "mɑnt": 3335,
      "sɛkʃu": 3336,
      "ædmɹəl": 3337,
      "ɡej": 3338,
      "ænəməlz": 3339,
      "##fɛɹ": 3340,
      "ɡɑm": 3341,
      "ɛfɹts": 3342,
      "hawsəz": 3343,
      "lajbɹ": 3344,
      "ɛkstɹ": 3345,
      "ajdi": 3346,
      "ətɛndəd": 3347,
      "55": 3348,
      "##əfɹ": 3349,
      "æksɛptɪd": 3350,
      "##fɔɹs": 3351,
      "stʌdiz": 3352,
      "stejtɪŋ": 3353,
      "pəzɪʃənz": 3354,
      "##əlɛs": 3355,
      "fənænʃəl": 3356,
      "##ajp": 3357,
      "##æktəd": 3358,
      "##nəmənt": 3359,
      "sɛləbɹ": 3360,
      "hɪp": 3361,
      "ɪkstɹim": 3362,
      "20tiejtʃ": 3363,
      "ɪntʃ": 3364,
      "əkæd": 3365,
      "ɪnkɔɹ": 3366,
      "mədɑnə": 3367,
      "##ɛntɪŋ": 3368,
      "##ɪdʒd": 3369,
      "ɪndək": 3370,
      "bɪɡɪnz": 3371,
      "##ɑf": 3372,
      "ɛndɪŋ": 3373,
      "##ɪkəlz": 3374,
      "##jul": 3375,
      "lutɛn": 3376,
      "##ejniə": 3377,
      "pæl": 3378,
      "ɹɛstɹ": 3379,
      "kɪd": 3380,
      "ɛnəmi": 3381,
      "1991": 3382,
      "sɛkɹətɛɹi": 3383,
      "kejsəz": 3384,
      "##əkli": 3385,
      "θɪk": 3386,
      "skɑtlənd": 3387,
      "sejv": 3388,
      "1993": 3389,
      "wʊl": 3390,
      "dʒownz": 3391,
      "179": 3392,
      "ɡɹik": 3393,
      "mʌltəpəl": 3394,
      "dɪsm": 3395,
      "kowld": 3396,
      "ɛɹpɔɹt": 3397,
      "##ejpɹ": 3398,
      "flajɪŋ": 3399,
      "39": 3400,
      "ədʒ": 3401,
      "ɛmb": 3402,
      "##ɛlv": 3403,
      "bitʃ": 3404,
      "ɹispɑnsəbəl": 3405,
      "sʌl": 3406,
      "skʌl": 3407,
      "fɔɹmz": 3408,
      "lʌ": 3409,
      "mænədʒd": 3410,
      "skejl": 3411,
      "minɪŋ": 3412,
      "ɪkspɹɛs": 3413,
      "##mɑɹk": 3414,
      "ɹɪzʌltɪŋ": 3415,
      "ɔɹɡənajzd": 3416,
      "fɔɹmejʃən": 3417,
      "bown": 3418,
      "kɛpt": 3419,
      "42": 3420,
      "bʊl": 3421,
      "tʊɹnəmənt": 3422,
      "ɹn": 3423,
      "##awndz": 3424,
      "dɹɑpt": 3425,
      "əkædəmi": 3426,
      "pəz": 3427,
      "##ɑɹkt": 3428,
      "ɑɹtɪl": 3429,
      "wund": 3430,
      "əθɔɹəti": 3431,
      "ɪkstɹ": 3432,
      "dɪpɑɹ": 3433,
      "nɛɡ": 3434,
      "ɡɛɹ": 3435,
      "##ɛndʒ": 3436,
      "hajl": 3437,
      "kwɑləti": 3438,
      "ɛmpɹɹ": 3439,
      "##tun": 3440,
      "fɪk": 3441,
      "kɔɹn": 3442,
      "pajlət": 3443,
      "48": 3444,
      "kɛɹəlajn": 3445,
      "bəl": 3446,
      "howtɛl": 3447,
      "pæsən": 3448,
      "182": 3449,
      "kəmbajnd": 3450,
      "pɑləsi": 3451,
      "æktɪŋ": 3452,
      "lutɛnənt": 3453,
      "fawndəd": 3454,
      "dʌtʃ": 3455,
      "kəntɪnjuz": 3456,
      "##ɪld": 3457,
      "##æpt": 3458,
      "stu": 3459,
      "tɹajəl": 3460,
      "ɹæm": 3461,
      "jusəz": 3462,
      "fɪɡjɹ": 3463,
      "pɹɑpɹti": 3464,
      "ɪntʃəz": 3465,
      "kʌmɪŋ": 3466,
      "majk": 3467,
      "ɑɹtɪlɹi": 3468,
      "nb": 3469,
      "sɪstəmz": 3470,
      "sʌbsəkwənt": 3471,
      "sæt": 3472,
      "##wi": 3473,
      "mɛʒɹ": 3474,
      "kəlʌmb": 3475,
      "ɑɹtəsts": 3476,
      "kəntɛmpɹɛɹi": 3477,
      "jut": 3478,
      "dɪmænd": 3479,
      "ətɛmpts": 3480,
      "##mɔɹ": 3481,
      "æləɡz": 3482,
      "##is": 3483,
      "sɹvajv": 3484,
      "tɛɹɪtɔɹi": 3485,
      "##ətɪvz": 3486,
      "##əsəz": 3487,
      "bæɹ": 3488,
      "##ɑŋk": 3489,
      "bɔɹdɹ": 3490,
      "pɹɛd": 3491,
      "dʒowsəf": 3492,
      "nɔɹθist": 3493,
      "hajdɹ": 3494,
      "181": 3495,
      "##ɛlə": 3496,
      "tʃejm": 3497,
      "pɹf": 3498,
      "##jəmz": 3499,
      "kʌmpəniz": 3500,
      "tɹænspɔɹt": 3501,
      "##kju": 3502,
      "##ɛlɹ": 3503,
      "bæn": 3504,
      "bibi": 3505,
      "ædmɪnɪstɹejʃən": 3506,
      "pɹɛzəns": 3507,
      "mɛtɹz": 3508,
      "kʌpəl": 3509,
      "ɹipʌbl": 3510,
      "vjuɹz": 3511,
      "ɹistɹ": 3512,
      "fæn": 3513,
      "əlawɪŋ": 3514,
      "howp": 3515,
      "θawz": 3516,
      "sajdz": 3517,
      "sæk": 3518,
      "sɪksθ": 3519,
      "studiowz": 3520,
      "pɹəpowz": 3521,
      "##əsəs": 3522,
      "nʌn": 3523,
      "##ɑθ": 3524,
      "ɹəfl": 3525,
      "ɹisənt": 3526,
      "kəndʌktəd": 3527,
      "əfɪʃəlz": 3528,
      "##pid": 3529,
      "##əlti": 3530,
      "fɪnɪʃ": 3531,
      "##stændɪŋ": 3532,
      "ətɛnd": 3533,
      "wɪljəmz": 3534,
      "kɑnsən": 3535,
      "##ɑdi": 3536,
      "pejdʒ": 3537,
      "hɛɹi": 3538,
      "kɑntækt": 3539,
      "ɛnkɹ": 3540,
      "##ætʃt": 3541,
      "1942": 3542,
      "tɛmpəl": 3543,
      "pətɹ": 3544,
      "ɹɪspɑnd": 3545,
      "ɹɛkəɡnajzd": 3546,
      "ɪkstɛnsɪv": 3547,
      "pɹɪd": 3548,
      "bɹænd": 3549,
      "dɪdʒətəl": 3550,
      "əkawnt": 3551,
      "tɹænsfɹd": 3552,
      "pɛɹənts": 3553,
      "ɪnvɛstəɡ": 3554,
      "skɔɹɪŋ": 3555,
      "ɑpɹtun": 3556,
      "hɹd": 3557,
      "pətɛnʃəl": 3558,
      "ɛnt": 3559,
      "pikt": 3560,
      "mæksəməm": 3561,
      "##ɑnəmi": 3562,
      "əlajd": 3563,
      "pɹəz": 3564,
      "##pɹt": 3565,
      "##ɛmbli": 3566,
      "65": 3567,
      "dɪstəns": 3568,
      "47": 3569,
      "##tʃejndʒ": 3570,
      "##owlz": 3571,
      "kændəd": 3572,
      "dɛmən": 3573,
      "ðɛɹfɔɹ": 3574,
      "pɹajmɛɹəli": 3575,
      "##ɪzejʃən": 3576,
      "##ʃʊɹ": 3577,
      "fɪlmɪŋ": 3578,
      "ɹɛlətɪvli": 3579,
      "ownd": 3580,
      "fitʃɹɪŋ": 3581,
      "ɪnkɔɹpɹ": 3582,
      "dɑmən": 3583,
      "tɔɹpid": 3584,
      "##ɑli": 3585,
      "dɑl": 3586,
      "dɪziz": 3587,
      "bɪkʌmz": 3588,
      "studənt": 3589,
      "kɛɹi": 3590,
      "##mɪt": 3591,
      "##vɹd": 3592,
      "tajtəld": 3593,
      "bu": 3594,
      "ɹɪmejn": 3595,
      "æktʃəwəli": 3596,
      "ɪnfɔɹm": 3597,
      "dɛzɪɡn": 3598,
      "##iænə": 3599,
      "ɑksfɹd": 3600,
      "mɑɹkt": 3601,
      "dɛmənstɹ": 3602,
      "sɪtʃuejʃən": 3603,
      "sit": 3604,
      "pɔɹʃən": 3605,
      "ɪskejp": 3606,
      "fid": 3607,
      "bɹæd": 3608,
      "kənkludəd": 3609,
      "ɹib": 3610,
      "lejn": 3611,
      "##ɪʃəl": 3612,
      "ɛθ": 3613,
      "ɹipʌblək": 3614,
      "dʒɹz": 3615,
      "stɹɛŋkθ": 3616,
      "ɛksək": 3617,
      "##dʒɛktɪd": 3618,
      "ɹɪb": 3619,
      "hɛɹɪsən": 3620,
      "əpil": 3621,
      "sɛlɪŋ": 3622,
      "##wɔ": 3623,
      "##ɪtiz": 3624,
      "ɛls": 3625,
      "mæntʃɛstɹ": 3626,
      "bɑstən": 3627,
      "əbzɹvd": 3628,
      "æɹ": 3629,
      "##ejndʒɹ": 3630,
      "##bɹow": 3631,
      "sɹt": 3632,
      "52": 3633,
      "əlɔŋsajd": 3634,
      "sɪkjʊɹəti": 3635,
      "pɹɪn": 3636,
      "dɪstɪŋkt": 3637,
      "ɪnvejʒən": 3638,
      "səpl": 3639,
      "46": 3640,
      "hɪɹow": 3641,
      "ɑɹts": 3642,
      "ævənu": 3643,
      "dɪvajdəd": 3644,
      "swid": 3645,
      "lætən": 3646,
      "sɛkəndz": 3647,
      "kɔlɪŋ": 3648,
      "sɪtiz": 3649,
      "ɹejtɪŋ": 3650,
      "dʒɛf": 3651,
      "slajtli": 3652,
      "ɡlæs": 3653,
      "##tə": 3654,
      "pɪtʃ": 3655,
      "plejz": 3656,
      "viɛtn": 3657,
      "viɛtnɑm": 3658,
      "##haj": 3659,
      "ɹɪtɹnɪŋ": 3660,
      "kɑnsɛpt": 3661,
      "ɹɪzʌlts": 3662,
      "nəɡ": 3663,
      "pɑlət": 3664,
      "1944": 3665,
      "sɔt": 3666,
      "əkɑm": 3667,
      "kɡ": 3668,
      "43": 3669,
      "hɪstɔɹiən": 3670,
      "fɪzɪkəl": 3671,
      "##kɹz": 3672,
      "ɪnkawn": 3673,
      "hɪstɔɹɪkəl": 3674,
      "##ɪdʒɪŋ": 3675,
      "ɑntu": 3676,
      "mænədʒmənt": 3677,
      "64": 3678,
      "stɹaj": 3679,
      "sɔɹsəz": 3680,
      "kɹæʃ": 3681,
      "plætfɔɹm": 3682,
      "44": 3683,
      "mun": 3684,
      "nʌθɪŋ": 3685,
      "ɪnfluənst": 3686,
      "##ɔɹiz": 3687,
      "ækʃənz": 3688,
      "tɹʌst": 3689,
      "##wajl": 3690,
      "kæθl": 3691,
      "ɪntɛl": 3692,
      "##ɑlə": 3693,
      "ɪnɪŋz": 3694,
      "æktɪvəti": 3695,
      "ɪmpɪɹiəl": 3696,
      "pɛns": 3697,
      "tæl": 3698,
      "awtɹ": 3699,
      "##lɹz": 3700,
      "##ɪstɪks": 3701,
      "tɹejl": 3702,
      "##æmən": 3703,
      "sawndtɹæk": 3704,
      "kojn": 3705,
      "səst": 3706,
      "kɹajm": 3707,
      "ɹɛzədənts": 3708,
      "ɪkwɪp": 3709,
      "əfɛnsɪv": 3710,
      "kɑmədi": 3711,
      "pɹəmowtəd": 3712,
      "dɛzɪɡnejtɪd": 3713,
      "pæsɪŋ": 3714,
      "ɔtəm": 3715,
      "##ɪbjətəd": 3716,
      "nɑmənejtəd": 3717,
      "ɪmow": 3718,
      "ɑɹmz": 3719,
      "bibisi": 3720,
      "kəmplitli": 3721,
      "lowd": 3722,
      "tʃæp": 3723,
      "##ɛɹɪŋ": 3724,
      "bɹdz": 3725,
      "##ɑnow": 3726,
      "stɹejt": 3727,
      "tajd": 3728,
      "##owtə": 3729,
      "bɹajən": 3730,
      "##ədɹ": 3731,
      "ɹədus": 3732,
      "pawɹfəl": 3733,
      "##awnts": 3734,
      "ətʃiv": 3735,
      "mejnli": 3736,
      "sut": 3737,
      "1990": 3738,
      "ɹuts": 3739,
      "məmɔɹiəl": 3740,
      "##æpəl": 3741,
      "mɛdəl": 3742,
      "wejv": 3743,
      "pɹɪnsəpəl": 3744,
      "pejpɹ": 3745,
      "hɛv": 3746,
      "sizənz": 3747,
      "##æθ": 3748,
      "lejbəl": 3749,
      "hʌzb": 3750,
      "kəlæbɹ": 3751,
      "æsp": 3752,
      "150": 3753,
      "kʌltʃɹəl": 3754,
      "kɑnsəntɹ": 3755,
      "flu": 3756,
      "ɹitʃɪŋ": 3757,
      "1945": 3758,
      "##ojl": 3759,
      "##ʌvɹi": 3760,
      "ɪtəli": 3761,
      "1941": 3762,
      "dʒɹzi": 3763,
      "##zi": 3764,
      "ɡajd": 3765,
      "##ɪsəti": 3766,
      "##əsajzd": 3767,
      "##əbjuʃən": 3768,
      "##wɑ": 3769,
      "bɛnəf": 3770,
      "wɛpənz": 3771,
      "##əvejʃən": 3772,
      "##sajt": 3773,
      "ɹin": 3774,
      "##ɪlə": 3775,
      "ejntʃənt": 3776,
      "ɹɪɹ": 3777,
      "nɔɹθwɛst": 3778,
      "howmz": 3779,
      "sɹtʃ": 3780,
      "əmɛɹəkənz": 3781,
      "##ɑmən": 3782,
      "fɛlow": 3783,
      "wajdli": 3784,
      "dw": 3785,
      "mætɹ": 3786,
      "##æstɪk": 3787,
      "mowd": 3788,
      "##ɑdə": 3789,
      "##ɪdʒɪz": 3790,
      "plejn": 3791,
      "ownɹ": 3792,
      "ɹipɹ": 3793,
      "əlown": 3794,
      "bejsbɔl": 3795,
      "ɪntɹpɹ": 3796,
      "##inθ": 3797,
      "##kwɔɹtɹz": 3798,
      "##ɑlvd": 3799,
      "əpɪɹənsəz": 3800,
      "sɛks": 3801,
      "##ɪndʒ": 3802,
      "duk": 3803,
      "kənfɹmd": 3804,
      "ɹɪplejs": 3805,
      "nɛsəs": 3806,
      "lajbɹɛɹi": 3807,
      "ɡejnd": 3808,
      "ɪkstʃ": 3809,
      "##ini": 3810,
      "##səns": 3811,
      "##əlɑs": 3812,
      "##əsɔɹ": 3813,
      "tʃojs": 3814,
      "bɪɑnd": 3815,
      "ʌnd": 3816,
      "##kɹi": 3817,
      "ɪkstʃejndʒ": 3818,
      "##ænow": 3819,
      "pɹɪs": 3820,
      "sɛz": 3821,
      "ajɹlənd": 3822,
      "owldɹ": 3823,
      "##ajzɹ": 3824,
      "lɪvɹ": 3825,
      "bɹʌðɹz": 3826,
      "ɔn": 3827,
      "spitʃ": 3828,
      "tʃænəl": 3829,
      "jɛlow": 3830,
      "tɛkni": 3831,
      "mɹdɹ": 3832,
      "2nd": 3833,
      "##ɛktɪd": 3834,
      "pɹuvd": 3835,
      "##ənsən": 3836,
      "##ədʒi": 3837,
      "ɪntɛlədʒ": 3838,
      "tɑɹɡət": 3839,
      "hæl": 3840,
      "ɹɪzɹv": 3841,
      "hɛdkwɔɹtɹz": 3842,
      "stɹajk": 3843,
      "ɪksplejnd": 3844,
      "ɔfɹ": 3845,
      "ɑɹmɹ": 3846,
      "əhɛd": 3847,
      "səplaj": 3848,
      "mɪks": 3849,
      "ænθ": 3850,
      "stɑk": 3851,
      "pɛɹɪs": 3852,
      "pɑɹtnɹ": 3853,
      "mɑɹʃəl": 3854,
      "ɪfɛktɪv": 3855,
      "##wɑɹ": 3856,
      "##ɛmɪk": 3857,
      "lɑk": 3858,
      "vɪktɔɹiə": 3859,
      "kʌmz": 3860,
      "kɑzɪŋ": 3861,
      "##wə": 3862,
      "vɹʒənz": 3863,
      "ɹejnfɔl": 3864,
      "fɪkʃən": 3865,
      "ɹɪvil": 3866,
      "kəmpowz": 3867,
      "##ðəlɛs": 3868,
      "##ʊks": 3869,
      "dʒʌstəs": 3870,
      "##əməs": 3871,
      "##ətən": 3872,
      "51": 3873,
      "##ɔɹətiz": 3874,
      "sajkəl": 3875,
      "1989": 3876,
      "ɪkspɹɛst": 3877,
      "1943": 3878,
      "əpɛɹ": 3879,
      "ɪkwɪpmənt": 3880,
      "wɹkɹz": 3881,
      "ɑɹtəkəl": 3882,
      "##æktɪv": 3883,
      "ɑɹtʃ": 3884,
      "sajts": 3885,
      "kəntɹɪbjut": 3886,
      "kənsɹv": 3887,
      "##ɪljən": 3888,
      "klɪn": 3889,
      "nɛɡətɪv": 3890,
      "ɹɪpɔɹts": 3891,
      "##əsajd": 3892,
      "ɡɹowθ": 3893,
      "##əfajɪŋ": 3894,
      "ɛɹd": 3895,
      "ɹowlz": 3896,
      "pɹɑmənənt": 3897,
      "bɑb": 3898,
      "æθ": 3899,
      "ədvænst": 3900,
      "nejbɹ": 3901,
      "ɪksɛpt": 3902,
      "kwɛstʃən": 3903,
      "ɪntɹtʃejndʒ": 3904,
      "kɑmpəzɪʃən": 3905,
      "hɑp": 3906,
      "vɔn": 3907,
      "ajdɛntəfajd": 3908,
      "splɪt": 3909,
      "əfɪʃəli": 3910,
      "dɹɑmə": 3911,
      "stɹʌɡəl": 3912,
      "ɑɹmd": 3913,
      "hʌzbənd": 3914,
      "wɹldwajd": 3915,
      "tʃɑɹts": 3916,
      "kul": 3917,
      "sɛtɪŋ": 3918,
      "dɪfɛnd": 3919,
      "kætəɡɔɹi": 3920,
      "##awts": 3921,
      "ɛsk": 3922,
      "mænjəfæk": 3923,
      "bɪliv": 3924,
      "##æmi": 3925,
      "##ʌpt": 3926,
      "tɛlz": 3927,
      "hɛvəli": 3928,
      "sɛnət": 3929,
      "kəmpjutɹ": 3930,
      "##ejsən": 3931,
      "##tɹɪk": 3932,
      "æktɪvətiz": 3933,
      "ɹɛpɹəzɛntəd": 3934,
      "hɑli": 3935,
      "##jəlejtəd": 3936,
      "spɹɛd": 3937,
      "ɡaj": 3938,
      "kɹɪkət": 3939,
      "minwajl": 3940,
      "pisəz": 3941,
      "ɹɔ": 3942,
      "əsɛmbli": 3943,
      "plejsəz": 3944,
      "tɹitmənt": 3945,
      "##jəmənt": 3946,
      "ɹl": 3947,
      "tɹiz": 3948,
      "dɹim": 3949,
      "vɪzət": 3950,
      "bɪʃəp": 3951,
      "æktɹəs": 3952,
      "lidɹz": 3953,
      "fɪɹ": 3954,
      "klɑɹk": 3955,
      "livz": 3956,
      "##ɛmbəl": 3957,
      "ənlajk": 3958,
      "fajɹd": 3959,
      "##bɹd": 3960,
      "vælju": 3961,
      "fɪɡjɹz": 3962,
      "##usɪv": 3963,
      "ɪndʒɹi": 3964,
      "kɑnflɪkt": 3965,
      "ɪndʌst": 3966,
      "##ɑɡə": 3967,
      "əɡɹimənt": 3968,
      "æləɡzændɹ": 3969,
      "fejz": 3970,
      "ɛkspədɪʃən": 3971,
      "mjun": 3972,
      "pɹejz": 3973,
      "duɪŋ": 3974,
      "##əlɔɡ": 3975,
      "##ələ": 3976,
      "##ɛktʃɹ": 3977,
      "1940": 3978,
      "kɪlɑm": 3979,
      "kɹawd": 3980,
      "kæʒəwəl": 3981,
      "fɹɛd": 3982,
      "ɡɹejd": 3983,
      "mʌlti": 3984,
      "dejtə": 3985,
      "lajvz": 3986,
      "##pul": 3987,
      "##ŋθ": 3988,
      "tɔ": 3989,
      "ənnown": 3990,
      "fɪt": 3991,
      "kənsɪstəd": 3992,
      "##əwəlz": 3993,
      "dejbjud": 3994,
      "sɛɹəmowni": 3995,
      "##əkət": 3996,
      "sikɹət": 3997,
      "wɔlz": 3998,
      "ɡʌl": 3999,
      "fɹænsɪs": 4000,
      "1980ɛs": 4001,
      "pæləs": 4002,
      "mænɹ": 4003,
      "fæ": 4004,
      "hændz": 4005,
      "spɔɹt": 4006,
      "kɑntɛnt": 4007,
      "howmɹ": 4008,
      "pætɹn": 4009,
      "mju": 4010,
      "ɑɹɡjud": 4011,
      "bk": 4012,
      "##əliz": 4013,
      "kəpæs": 4014,
      "##ldɹ": 4015,
      "tɪpəkli": 4016,
      "##owmə": 4017,
      "kənæl": 4018,
      "sɹdʒ": 4019,
      "bæŋ": 4020,
      "twajs": 4021,
      "##ləm": 4022,
      "stɹæt": 4023,
      "mawntəd": 4024,
      "dʒud": 4025,
      "əpɪn": 4026,
      "pɑlɪʃ": 4027,
      "wɑtʃ": 4028,
      "mowtɹ": 4029,
      "##mɪŋ": 4030,
      "klejmz": 4031,
      "tejlɹ": 4032,
      "ɑpəzɪʃən": 4033,
      "ənæləs": 4034,
      "##ʌki": 4035,
      "əfɛktəd": 4036,
      "æktɹz": 4037,
      "##əɡən": 4038,
      "mʊɹ": 4039,
      "stejʃənz": 4040,
      "fejst": 4041,
      "wikli": 4042,
      "plænət": 4043,
      "600": 4044,
      "nejʃənz": 4045,
      "ælbɹt": 4046,
      "ədɹ": 4047,
      "ɪndʌstɹiəl": 4048,
      "bʊʃ": 4049,
      "sawθist": 4050,
      "ɹɪn": 4051,
      "hɔɹsəz": 4052,
      "mejntejnd": 4053,
      "ænəməl": 4054,
      "tɹænzl": 4055,
      "ɹɛf": 4056,
      "tɹajɪŋ": 4057,
      "pawɹz": 4058,
      "pɹɑbləm": 4059,
      "tɛknɑlədʒi": 4060,
      "1970ɛs": 4061,
      "pɹətɛkʃən": 4062,
      "sɛmi": 4063,
      "vɪzətəd": 4064,
      "ɪlɪmən": 4065,
      "##its": 4066,
      "pɹɑf": 4067,
      "ɔɹdɹz": 4068,
      "##tʃuəl": 4069,
      "mænd": 4070,
      "kɹɪtəsajzd": 4071,
      "md": 4072,
      "kɛɹəlajnə": 4073,
      "lændɪŋ": 4074,
      "spowk": 4075,
      "əbdʒ": 4076,
      "##ʌkʃənz": 4077,
      "kɑntɹæst": 4078,
      "bɹæntʃ": 4079,
      "1960ɛs": 4080,
      "bɹowkən": 4081,
      "fɹm": 4082,
      "fʊli": 4083,
      "##ɪɹow": 4084,
      "ɡɹowɪŋ": 4085,
      "ədʌlt": 4086,
      "ɹejz": 4087,
      "tʃowzən": 4088,
      "ɔstɹi": 4089,
      "nowtəbəl": 4090,
      "dɹu": 4091,
      "sɛɡ": 4092,
      "mɑs": 4093,
      "vajs": 4094,
      "pɪn": 4095,
      "##ælɪti": 4096,
      "mowʃən": 4097,
      "sikwəns": 4098,
      "bʌdʒ": 4099,
      "pɹaj": 4100,
      "##spɹ": 4101,
      "twɛlv": 4102,
      "sɪɹiəs": 4103,
      "ɪnstətut": 4104,
      "skɑtɪʃ": 4105,
      "53": 4106,
      "ɹɪd": 4107,
      "sli": 4108,
      "dʒən": 4109,
      "ɪkspæn": 4110,
      "lɪnd": 4111,
      "pɹədusɹz": 4112,
      "fɹikwəntli": 4113,
      "fɑs": 4114,
      "##ɹowd": 4115,
      "mɹi": 4116,
      "səf": 4117,
      "##ʌbəl": 4118,
      "1987": 4119,
      "sɛvənθ": 4120,
      "dʌɡ": 4121,
      "ɪlɛktɹɪk": 4122,
      "fɹæntʃ": 4123,
      "bɑɹt": 4124,
      "##awɹz": 4125,
      "wundəd": 4126,
      "ɑɹθɹ": 4127,
      "mɛʒ": 4128,
      "##æntə": 4129,
      "1988": 4130,
      "mɛθəd": 4131,
      "kɹt": 4132,
      "85": 4133,
      "lʊkɪŋ": 4134,
      "kəndɪʃən": 4135,
      "kɑmɪk": 4136,
      "pɛnsəl": 4137,
      "dʒojnt": 4138,
      "nuzpejpɹ": 4139,
      "sɹawndɪŋ": 4140,
      "ɹbən": 4141,
      "##ɑkɹ": 4142,
      "dɪɡɹi": 4143,
      "##vɹtɪd": 4144,
      "bɪljən": 4145,
      "##vejn": 4146,
      "##ɹut": 4147,
      "ɪndɪpɛndəns": 4148,
      "mʌz": 4149,
      "bʌs": 4150,
      "ɑpɹejtəd": 4151,
      "pʌn": 4152,
      "##uts": 4153,
      "mæt": 4154,
      "ɡowldən": 4155,
      "bɪs": 4156,
      "sowlow": 4157,
      "ɹɪpʌblɪkən": 4158,
      "wɪk": 4159,
      "nukliɹ": 4160,
      "wɔtɹz": 4161,
      "##kɪn": 4162,
      "##lət": 4163,
      "sɹvɪŋ": 4164,
      "ɹɪsk": 4165,
      "kɹiejʃən": 4166,
      "sɪmpli": 4167,
      "##ejɡ": 4168,
      "sɪtəz": 4169,
      "wɪlsən": 4170,
      "fɑlowz": 4171,
      "##ɪzəb": 4172,
      "pæθ": 4173,
      "juθ": 4174,
      "ɔltɹnətɪv": 4175,
      "dejndʒɹ": 4176,
      "##owlt": 4177,
      "fejməs": 4178,
      "kɪlɪŋ": 4179,
      "ɪləstɹ": 4180,
      "hɑɹbɹ": 4181,
      "luzɪŋ": 4182,
      "nuli": 4183,
      "kəntejnd": 4184,
      "pɹajs": 4185,
      "ɹænd": 4186,
      "##ɪlz": 4187,
      "##əsti": 4188,
      "pæsəz": 4189,
      "hɹsɛlf": 4190,
      "##əsiz": 4191,
      "ɪndəvɪdʒəwəlz": 4192,
      "ɡejn": 4193,
      "ɛndz": 4194,
      "bju": 4195,
      "##nəm": 4196,
      "kɹɪsməs": 4197,
      "pɹɑɡɹ": 4198,
      "nɔɹməl": 4199,
      "ʒɑn": 4200,
      "##mɪʃən": 4201,
      "əpown": 4202,
      "##ejpɹz": 4203,
      "æns": 4204,
      "kaw": 4205,
      "kɑntən": 4206,
      "æpl": 4207,
      "nutɹ": 4208,
      "##ajɹɪŋ": 4209,
      "kæθlɪk": 4210,
      "54": 4211,
      "kævəl": 4212,
      "fʌŋkʃən": 4213,
      "ɪnstɪt": 4214,
      "kənsɛkjətɪv": 4215,
      "##mɛntəl": 4216,
      "pɹfəkt": 4217,
      "fɹɛʃ": 4218,
      "##nɪk": 4219,
      "kɹɔsɪŋ": 4220,
      "##kluʒən": 4221,
      "kænɑt": 4222,
      "##hɹ": 4223,
      "wɛbsajt": 4224,
      "zown": 4225,
      "sʌbst": 4226,
      "##ajtɪŋ": 4227,
      "səpɔɹtɪŋ": 4228,
      "kəlʌmbiə": 4229,
      "dɛməkɹætɪk": 4230,
      "əpowzd": 4231,
      "##ajəns": 4232,
      "ɡɹæf": 4233,
      "ww": 4234,
      "95": 4235,
      "97": 4236,
      "nɛst": 4237,
      "##ɑdow": 4238,
      "ɪvæk": 4239,
      "pɑɹtɪsəpejtəd": 4240,
      "56": 4241,
      "##sɪz": 4242,
      "kɹnəl": 4243,
      "sɪnθ": 4244,
      "kɑnsəkw": 4245,
      "ɪlɪzəb": 4246,
      "1986": 4247,
      "kɑnv": 4248,
      "ədɑptəd": 4249,
      "pjʊɹ": 4250,
      "lidɹʃɪp": 4251,
      "sɪ": 4252,
      "ɪkspænʃən": 4253,
      "ʃɪɹ": 4254,
      "down": 4255,
      "dɪsplej": 4256,
      "kəpæsəti": 4257,
      "tɹævəld": 4258,
      "əbændənd": 4259,
      "ɡejt": 4260,
      "stændɪŋ": 4261,
      "nɛɹ": 4262,
      "fɪlmd": 4263,
      "kɹɪtɪk": 4264,
      "fawndejʃən": 4265,
      "plænts": 4266,
      "vɑljum": 4267,
      "tʃɛk": 4268,
      "##ɛvən": 4269,
      "##ɑtɪk": 4270,
      "θimz": 4271,
      "bejsəs": 4272,
      "pɛnsəlvejn": 4273,
      "pɛnsəlvejnjə": 4274,
      "ɹɛp": 4275,
      "sɪmpəl": 4276,
      "pɹəmowt": 4277,
      "##ənəl": 4278,
      "tɹnz": 4279,
      "junik": 4280,
      "dɪfɛnsɪv": 4281,
      "##ɛti": 4282,
      "##owlə": 4283,
      "##ɛndow": 4284,
      "luk": 4285,
      "kɑmjən": 4286,
      "fejljɹ": 4287,
      "hʌŋ": 4288,
      "##ədɔɹ": 4289,
      "sid": 4290,
      "kɹiejtɪŋ": 4291,
      "##ɛktɹz": 4292,
      "fejvɹɪt": 4293,
      "pɪ": 4294,
      "kɹawn": 4295,
      "ɹəɡɑɹdəd": 4296,
      "pɑsəbli": 4297,
      "hɪstɔɹɪk": 4298,
      "##ɑkt": 4299,
      "177": 4300,
      "##tʃən": 4301,
      "tɹiti": 4302,
      "##wɪk": 4303,
      "ajɹɪʃ": 4304,
      "bɑdiz": 4305,
      "hæbət": 4306,
      "sɛkʃuəl": 4307,
      "##ɑʒ": 4308,
      "dɪstɪŋɡw": 4309,
      "snow": 4310,
      "ɑm": 4311,
      "##wɪn": 4312,
      "spejn": 4313,
      "vɑlənt": 4314,
      "##ajzɪz": 4315,
      "dɪklajn": 4316,
      "fət": 4317,
      "ɡɹows": 4318,
      "##fɹt": 4319,
      "hajt": 4320,
      "ajdiəz": 4321,
      "pɪktʃɹ": 4322,
      "ɹɪtajɹd": 4323,
      "klɛɹ": 4324,
      "wɪθdɹ": 4325,
      "##lowd": 4326,
      "##ɔɹiənz": 4327,
      "dəmɛst": 4328,
      "ɹejndʒd": 4329,
      "##əlajzd": 4330,
      "ɹɛdɪŋ": 4331,
      "76": 4332,
      "hɑki": 4333,
      "ɡɹlz": 4334,
      "hʌl": 4335,
      "pejtɹ": 4336,
      "##ptən": 4337,
      "jʌŋɡɹ": 4338,
      "lejdi": 4339,
      "kɑnstətuʃən": 4340,
      "##ɑɹm": 4341,
      "##ejkɹ": 4342,
      "##əfi": 4343,
      "ɹejlɹowd": 4344,
      "hajd": 4345,
      "ɔɹi": 4346,
      "##æmpəlz": 4347,
      "fjuəl": 4348,
      "wɔɹz": 4349,
      "ædvænt": 4350,
      "ənæləsəs": 4351,
      "bæskət": 4352,
      "##unz": 4353,
      "sʌnd": 4354,
      "178": 4355,
      "##ɪtɪd": 4356,
      "ɑpɹə": 4357,
      "tawnz": 4358,
      "nəɡowʃi": 4359,
      "paj": 4360,
      "pɹu": 4361,
      "ɹɪpitɪd": 4362,
      "ɪmpɹuvd": 4363,
      "ɡɑɹdən": 4364,
      "vɹt": 4365,
      "ətʃivd": 4366,
      "##klusɪv": 4367,
      "##pəlz": 4368,
      "ʌndɹt": 4369,
      "ændɹsən": 4370,
      "1939": 4371,
      "skɪn": 4372,
      "1990ɛs": 4373,
      "bɹifli": 4374,
      "nɔɹmən": 4375,
      "lus": 4376,
      "kɹəntli": 4377,
      "ɡɑmplej": 4378,
      "kɹɑn": 4379,
      "ɪlɛvən": 4380,
      "ɡowz": 4381,
      "hawshowld": 4382,
      "nɛsəsɛɹi": 4383,
      "61": 4384,
      "bɛ": 4385,
      "θɹown": 4386,
      "vihɪkəlz": 4387,
      "ɪkɑnəmi": 4388,
      "ɡɹæntəd": 4389,
      "##ɛnə": 4390,
      "dɔɡ": 4391,
      "æɹəb": 4392,
      "sup": 4393,
      "nɪkəl": 4394,
      "sajəntɪfɪk": 4395,
      "##uvəl": 4396,
      "ɹɪdʒɛktɪd": 4397,
      "piænow": 4398,
      "pli": 4399,
      "##əpɔɹ": 4400,
      "kæmpəs": 4401,
      "##ejkən": 4402,
      "ɹidʒənəl": 4403,
      "ɹisəntli": 4404,
      "##mɹin": 4405,
      "vɪktɹ": 4406,
      "66": 4407,
      "kɪlɑmtɹz": 4408,
      "ɹɑd": 4409,
      "skaj": 4410,
      "lɛtɹz": 4411,
      "tɹɛ": 4412,
      "ætməs": 4413,
      "ɪkspændəd": 4414,
      "ɹəsiv": 4415,
      "jow": 4416,
      "sɛkəndɛɹi": 4417,
      "pɹɑvəns": 4418,
      "əθɔɹətiz": 4419,
      "flæt": 4420,
      "1968": 4421,
      "flʌdɪŋ": 4422,
      "ɪnsədənt": 4423,
      "kəmɪʃənd": 4424,
      "ɪlɪzəbəθ": 4425,
      "pɹowtɛst": 4426,
      "pɹəɡɹ": 4427,
      "bɹif": 4428,
      "##fɹɛnd": 4429,
      "vɹs": 4430,
      "dɪdn": 4431,
      "1985": 4432,
      "ʌns": 4433,
      "bojz": 4434,
      "ɑpt": 4435,
      "##əmɛntɹi": 4436,
      "ɔnlajn": 4437,
      "##əltən": 4438,
      "klæsɪk": 4439,
      "spɑt": 4440,
      "kævəlɹi": 4441,
      "bjut": 4442,
      "owhaj": 4443,
      "fæməliz": 4444,
      "nɑk": 4445,
      "dʒɛɹ": 4446,
      "##stɹim": 4447,
      "mowt": 4448,
      "səksɛsfəli": 4449,
      "fʌŋk": 4450,
      "lown": 4451,
      "pɹfɔɹmɪŋ": 4452,
      "ajt": 4453,
      "fɹidəm": 4454,
      "1970": 4455,
      "lɪtɹətʃɹ": 4456,
      "fɔt": 4457,
      "dɪskɹajbz": 4458,
      "tajps": 4459,
      "mt": 4460,
      "dʒinəs": 4461,
      "jɹ": 4462,
      "dɪtɹmənd": 4463,
      "hɪnd": 4464,
      "kɔŋ": 4465,
      "əsɪstənt": 4466,
      "##ədɛlf": 4467,
      "tʃejmbɹ": 4468,
      "ʃejp": 4469,
      "##ʃɪŋ": 4470,
      "sejfti": 4471,
      "##həm": 4472,
      "sɛts": 4473,
      "ækəd": 4474,
      "##hæps": 4475,
      "əpɡɹ": 4476,
      "mɪlɹ": 4477,
      "ejdʒənt": 4478,
      "sɪŋɪŋ": 4479,
      "800": 4480,
      "fɹiwej": 4481,
      "plænɪŋ": 4482,
      "bʌdʒət": 4483,
      "əkwajɹd": 4484,
      "##ɛlɪŋ": 4485,
      "fɪlədɛlf": 4486,
      "owhajow": 4487,
      "tajtəlz": 4488,
      "vɪʒəwəl": 4489,
      "səɡdʒɛsts": 4490,
      "pən": 4491,
      "kɹɪtɪsɪzəm": 4492,
      "kɑmənli": 4493,
      "##stin": 4494,
      "ɡɪvz": 4495,
      "bæŋks": 4496,
      "##iəl": 4497,
      "sajtəd": 4498,
      "sɛntʃɹiz": 4499,
      "##ʊɹəl": 4500,
      "ɹɑs": 4501,
      "səpɹim": 4502,
      "##ækʃənz": 4503,
      "kəmpɛɹ": 4504,
      "##jələ": 4505,
      "dʒɔɹdʒə": 4506,
      "hɔɹn": 4507,
      "ɹɑn": 4508,
      "sajl": 4509,
      "pɪl": 4510,
      "mɛnʃənd": 4511,
      "kʌstəm": 4512,
      "1984": 4513,
      "kejmbɹɪdʒ": 4514,
      "57": 4515,
      "kəntɹowld": 4516,
      "skɛdʒʊld": 4517,
      "kəntejn": 4518,
      "##əfəkejʃənz": 4519,
      "pɹowɡɹæmz": 4520,
      "##ələnd": 4521,
      "sɛʃən": 4522,
      "spɪn": 4523,
      "fɪlədɛlfiə": 4524,
      "120": 4525,
      "ʃutɪŋ": 4526,
      "kənvɛnʃən": 4527,
      "kʊk": 4528,
      "hejl": 4529,
      "ɔθ": 4530,
      "pɹɑɡɹɛs": 4531,
      "pɹtʃəs": 4532,
      "pɹhæps": 4533,
      "ɛnl": 4534,
      "ɹəɡɑɹdɪŋ": 4535,
      "dɛns": 4536,
      "##vəst": 4537,
      "ɹiækʃən": 4538,
      "##ɪɹiə": 4539,
      "tækt": 4540,
      "ɹʌʃə": 4541,
      "fajndz": 4542,
      "tejbəl": 4543,
      "##ətɹi": 4544,
      "62": 4545,
      "əpɑɹt": 4546,
      "ɪstejt": 4547,
      "æstɹ": 4548,
      "##ɛmən": 4549,
      "kɔɹiən": 4550,
      "##dʒənt": 4551,
      "##umz": 4552,
      "sæŋk": 4553,
      "fəsɪlətiz": 4554,
      "##pow": 4555,
      "ədmɪn": 4556,
      "əsɔlt": 4557,
      "1967": 4558,
      "sɛlz": 4559,
      "stɛp": 4560,
      "tɹejnz": 4561,
      "kəntejnɪŋ": 4562,
      "æŋ": 4563,
      "##ʌʃən": 4564,
      "##ɪnəti": 4565,
      "##əɡɹæfɪk": 4566,
      "əkʌmpənid": 4567,
      "ɹejtəd": 4568,
      "pɹajz": 4569,
      "kɑlən": 4570,
      "ɹæd": 4571,
      "##tk": 4572,
      "ənju": 4573,
      "sʌbmɹin": 4574,
      "bowts": 4575,
      "bɪlɔŋ": 4576,
      "fajtɹ": 4577,
      "tɔɹpidow": 4578,
      "tʌtʃdawn": 4579,
      "ɑtəm": 4580,
      "ɹɛslɪŋ": 4581,
      "nl": 4582,
      "##pɪŋ": 4583,
      "kwajt": 4584,
      "1980": 4585,
      "lɪvɹpul": 4586,
      "læp": 4587,
      "ivnɪŋ": 4588,
      "##əlejʃən": 4589,
      "səlɛkʃən": 4590,
      "skɑlɹ": 4591,
      "nɪnt": 4592,
      "tæŋk": 4593,
      "##wɔtɹ": 4594,
      "##lə": 4595,
      "swit": 4596,
      "ɪntajɹli": 4597,
      "nɪntɛndow": 4598,
      "##ɹiən": 4599,
      "##pɑnd": 4600,
      "ɹik": 4601,
      "sawθwɛst": 4602,
      "hɪts": 4603,
      "pɹətɛkt": 4604,
      "ɹulz": 4605,
      "pæt": 4606,
      "ɪɡzɪstɪŋ": 4607,
      "kɑnstənt": 4608,
      "ejʒə": 4609,
      "##ɔɹf": 4610,
      "dɛdəkejtəd": 4611,
      "ɪntɛnsəti": 4612,
      "##ejsi": 4613,
      "bɹəz": 4614,
      "ændɹu": 4615,
      "kəntɹɪbjutɪd": 4616,
      "##wɹθ": 4617,
      "lowkejʃənz": 4618,
      "dʒuɪʃ": 4619,
      "pɹtʃəst": 4620,
      "pʌblɪʃ": 4621,
      "58": 4622,
      "bætɹi": 4623,
      "kæʒəwəltiz": 4624,
      "pɹəvajdz": 4625,
      "##æmə": 4626,
      "wɪndowz": 4627,
      "##jʊɹd": 4628,
      "74": 4629,
      "bɹajt": 4630,
      "ɹɪzɪstəns": 4631,
      "tɹajb": 4632,
      "ɑkjəpajd": 4633,
      "##ɪʃə": 4634,
      "##ajɹmənt": 4635,
      "ɡʌlf": 4636,
      "kɑɹz": 4637,
      "pʌbləkejʃən": 4638,
      "ejtθ": 4639,
      "fɹænsɪskow": 4640,
      "fɹɡ": 4641,
      "mɔɹt": 4642,
      "howldɪŋ": 4643,
      "##wɔl": 4644,
      "bæskətbɔl": 4645,
      "dʒɛnɹejʃən": 4646,
      "72": 4647,
      "##ɹvd": 4648,
      "##əksɛs": 4649,
      "lɪŋkən": 4650,
      "ʃæl": 4651,
      "##tɹəs": 4652,
      "kɔɹnɹ": 4653,
      "ɹikən": 4654,
      "1983": 4655,
      "1969": 4656,
      "ɛdətɹ": 4657,
      "##ʌvɹd": 4658,
      "lɔz": 4659,
      "dɹɔn": 4660,
      "kowstəl": 4661,
      "wejz": 4662,
      "##ækts": 4663,
      "kəmpit": 4664,
      "lb": 4665,
      "pɹətɛktəd": 4666,
      "fowkəst": 4667,
      "1964": 4668,
      "əkl": 4669,
      "ɹidʒənz": 4670,
      "hɛdz": 4671,
      "##ɹətɪv": 4672,
      "mejɹ": 4673,
      "##lajnz": 4674,
      "##jətejʃən": 4675,
      "kɔɹəspɑnd": 4676,
      "mejlz": 4677,
      "sɪdni": 4678,
      "ɹəsivɪŋ": 4679,
      "dɛs": 4680,
      "klowsli": 4681,
      "pɪt": 4682,
      "##əfəl": 4683,
      "ɹisɔɹs": 4684,
      "kɑmbən": 4685,
      "##ɑvə": 4686,
      "##ɛntʃən": 4687,
      "mowmənt": 4688,
      "tɹow": 4689,
      "ɪntɛlədʒəns": 4690,
      "ɑpɹtunəti": 4691,
      "tɹnɪŋ": 4692,
      "##ajtəld": 4693,
      "##stɹz": 4694,
      "1914": 4695,
      "tɹɪpəl": 4696,
      "plejstejʃən": 4697,
      "flow": 4698,
      "stɹʌktʃɹz": 4699,
      "dowm": 4700,
      "##sɪŋ": 4701,
      "owb": 4702,
      "hmz": 4703,
      "##ɪkw": 4704,
      "ɪnvajɹənmənt": 4705,
      "bɪhejv": 4706,
      "kənsɪsts": 4707,
      "ækts": 4708,
      "ɹʌfli": 4709,
      "1918": 4710,
      "##təl": 4711,
      "wɔɹn": 4712,
      "##stejt": 4713,
      "kɹaj": 4714,
      "##ɹk": 4715,
      "stɹim": 4716,
      "pɛɹəlɛl": 4717,
      "mænjəfæktʃɹ": 4718,
      "ɛkstɹə": 4719,
      "59": 4720,
      "hʌndɹəd": 4721,
      "stɹɛŋθ": 4722,
      "##jɑɹd": 4723,
      "1982": 4724,
      "1971": 4725,
      "pɑm": 4726,
      "kɑmənt": 4727,
      "ɪkspɪɹiənst": 4728,
      "ɛniθɪŋ": 4729,
      "1966": 4730,
      "kɔlz": 4731,
      "##bɹejk": 4732,
      "1972": 4733,
      "tæsk": 4734,
      "klawd": 4735,
      "məkl": 4736,
      "owlɪmpɪk": 4737,
      "ɹowlɪŋ": 4738,
      "##ndʒ": 4739,
      "##ʊkt": 4740,
      "1979": 4741,
      "lɔsəz": 4742,
      "stuɹt": 4743,
      "dɪfajnd": 4744,
      "læbɹ": 4745,
      "spɛk": 4746,
      "##wən": 4747,
      "vʌl": 4748,
      "##ajtɹ": 4749,
      "##ɪni": 4750,
      "wɔltɹ": 4751,
      "vjud": 4752,
      "ɛnɡejdʒd": 4753,
      "ɹitɹ": 4754,
      "pɔɹtɹej": 4755,
      "mowbəl": 4756,
      "pɹəvajdɪŋ": 4757,
      "tɹmən": 4758,
      "hajɹd": 4759,
      "ædvæntɪdʒ": 4760,
      "sɹb": 4761,
      "dɪvɛləpɪŋ": 4762,
      "pɑlətɪks": 4763,
      "bændz": 4764,
      "bɑtəm": 4765,
      "99": 4766,
      "1965": 4767,
      "lidz": 4768,
      "ajsəl": 4769,
      "dɹɪv": 4770,
      "fejθ": 4771,
      "kənvɹ": 4772,
      "ɹæpədli": 4773,
      "ʃɛɹd": 4774,
      "ɡɔn": 4775,
      "##jutəd": 4776,
      "ɪnvɛstəɡejʃən": 4777,
      "howli": 4778,
      "ənl": 4779,
      "owvɹl": 4780,
      "wɔɹd": 4781,
      "3ɹd": 4782,
      "dɪɡ": 4783,
      "##skɹ": 4784,
      "tɹmɪn": 4785,
      "##ɪksən": 4786,
      "wɛd": 4787,
      "##bɑks": 4788,
      "hɑliwʊd": 4789,
      "tɛmpɹətʃɹ": 4790,
      "1975": 4791,
      "dʒɹmənz": 4792,
      "loj": 4793,
      "##hə": 4794,
      "##ɛɹiow": 4795,
      "ʃɔɹ": 4796,
      "ɛvɹiθɪŋ": 4797,
      "lɔntʃ": 4798,
      "##uʃənz": 4799,
      "##bɹə": 4800,
      "##mi": 4801,
      "ɪnvɑlv": 4802,
      "mawθ": 4803,
      "18tiejtʃ": 4804,
      "##ojt": 4805,
      "pɹəfɛsɹ": 4806,
      "kæɹ": 4807,
      "ɹɛstəd": 4808,
      "kænd": 4809,
      "##ɑɹks": 4810,
      "ɹiplejs": 4811,
      "pejntɪŋ": 4812,
      "ədæp": 4813,
      "##əvən": 4814,
      "kawnt": 4815,
      "pɹsənɛl": 4816,
      "mɪsɪŋ": 4817,
      "bɑmb": 4818,
      "fəlɑs": 4819,
      "ɛksɹs": 4820,
      "ɹilejʃənz": 4821,
      "63": 4822,
      "ɪnhæb": 4823,
      "ɛləmənt": 4824,
      "##ɑkə": 4825,
      "ɡɛtɪŋ": 4826,
      "1974": 4827,
      "ɪɡzækt": 4828,
      "lændz": 4829,
      "sɪmbəl": 4830,
      "ɪntɹədʌkʃən": 4831,
      "tow": 4832,
      "wɑtʃt": 4833,
      "ɔɹkəstɹ": 4834,
      "##ɪdən": 4835,
      "sɪŋəpɔɹ": 4836,
      "##bawnd": 4837,
      "ɛmfəs": 4838,
      "skim": 4839,
      "sɪɡnɪfɪk": 4840,
      "73": 4841,
      "dejvəs": 4842,
      "1973": 4843,
      "77": 4844,
      "fɹæntʃajz": 4845,
      "sɪɡnɪfɪkəntli": 4846,
      "pɹɑdʒɛkts": 4847,
      "pɹows": 4848,
      "əpɹuvd": 4849,
      "##ənti": 4850,
      "##əmiz": 4851,
      "ɑɹki": 4852,
      "sʌnz": 4853,
      "lɪtɹɛɹi": 4854,
      "əpɪnjən": 4855,
      "##ɑtɹ": 4856,
      "ɪntɹsɛkʃən": 4857,
      "mawntənz": 4858,
      "hæŋ": 4859,
      "ædɪŋ": 4860,
      "ɡlowbəl": 4861,
      "ɪnɹ": 4862,
      "##ɑlf": 4863,
      "lɪŋk": 4864,
      "pənɪns": 4865,
      "ɡɹæs": 4866,
      "##ətɪd": 4867,
      "##əntajn": 4868,
      "##ɛntʃɹ": 4869,
      "##ədʒd": 4870,
      "##itə": 4871,
      "1976": 4872,
      "##pæs": 4873,
      "lə": 4874,
      "fɔlz": 4875,
      "kənfɛd": 4876,
      "nɑlədʒ": 4877,
      "ɹizənz": 4878,
      "dɪzni": 4879,
      "lejbɹ": 4880,
      "tɛnd": 4881,
      "bækt": 4882,
      "ʌnsəksɛs": 4883,
      "##ɛnʃənəl": 4884,
      "dəmɛstɪk": 4885,
      "majɡɹ": 4886,
      "hɑst": 4887,
      "##ɑmi": 4888,
      "kʌlt": 4889,
      "plejɔf": 4890,
      "vjuz": 4891,
      "sajk": 4892,
      "250": 4893,
      "ɪnkʌm": 4894,
      "ʃejpt": 4895,
      "kɹajs": 4896,
      "dɛfən": 4897,
      "tin": 4898,
      "kɪk": 4899,
      "stɔɹilajn": 4900,
      "##lɑv": 4901,
      "##ʌli": 4902,
      "sɛtəlmənt": 4903,
      "məɡ": 4904,
      "duti": 4905,
      "pɹəmowʃən": 4906,
      "ɛskɔɹt": 4907,
      "##jus": 4908,
      "##wejt": 4909,
      "slejv": 4910,
      "tæm": 4911,
      "ɑpɹejtɪŋ": 4912,
      "ɑɹsən": 4913,
      "##ɛsɪŋ": 4914,
      "ikwəl": 4915,
      "powəm": 4916,
      "##ɛʃənz": 4917,
      "67": 4918,
      "kæbən": 4919,
      "mɛk": 4920,
      "ɹinejmd": 4921,
      "tʃɛɹmən": 4922,
      "ɑz": 4923,
      "ɹɛpjətejʃən": 4924,
      "##əzejʃənz": 4925,
      "ædvɹt": 4926,
      "kaj": 4927,
      "##ɛps": 4928,
      "ælajz": 4929,
      "ɛmplojd": 4930,
      "##dɹɔ": 4931,
      "nɛvɹðəlɛs": 4932,
      "pɹipɛɹd": 4933,
      "bejɑŋk": 4934,
      "hæp": 4935,
      "pɑpjəlɛɹəti": 4936,
      "bejbi": 4937,
      "##ʊɹə": 4938,
      "ɪndʒɹd": 4939,
      "ɹɪlɪdʒən": 4940,
      "bɹejn": 4941,
      "swɪm": 4942,
      "##ɹɪʃ": 4943,
      "##ɑʃ": 4944,
      "fɛɹi": 4945,
      "pejnt": 4946,
      "stejdʒəz": 4947,
      "fimejlz": 4948,
      "tajf": 4949,
      "##ajnmənt": 4950,
      "θɹdi": 4951,
      "hjumənz": 4952,
      "kɑli": 4953,
      "kəntʌki": 4954,
      "ɪnkɹisɪŋli": 4955,
      "ɹɪlif": 4956,
      "hɛdəd": 4957,
      "tɔl": 4958,
      "niðɹ": 4959,
      "æθl": 4960,
      "mɑdəlz": 4961,
      "dɪsɹ": 4962,
      "##ɪstəl": 4963,
      "bɹɪɡ": 4964,
      "sɹvej": 4965,
      "dɪklajnd": 4966,
      "tɔɹn": 4967,
      "fajndɪŋ": 4968,
      "82": 4969,
      "ɪntɹnəl": 4970,
      "dim": 4971,
      "##əkts": 4972,
      "kəlɛktəd": 4973,
      "##ɡɹz": 4974,
      "##ɪvz": 4975,
      "kənɛktəd": 4976,
      "68": 4977,
      "96": 4978,
      "kənvɹtɪd": 4979,
      "dɪtejlz": 4980,
      "pɹɑdəkt": 4981,
      "##idɪŋ": 4982,
      "dɛpθ": 4983,
      "səstejnd": 4984,
      "ɛɡzɪstəns": 4985,
      "ɛndʒojd": 4986,
      "vajələns": 4987,
      "ɪvækjəw": 4988,
      "wɹθ": 4989,
      "1946": 4990,
      "nɔɹwej": 4991,
      "kɪŋz": 4992,
      "lɹnd": 4993,
      "dʒɹni": 4994,
      "pɹsi": 4995,
      "1981": 4996,
      "kɑntɹəvɹsi": 4997,
      "##ajɹəs": 4998,
      "hɛɹəld": 4999,
      "##ʃɔɹ": 5000,
      "sud": 5001,
      "##bɔɹn": 5002,
      "wɪðdɹɔ": 5003,
      "stejbəl": 5004,
      "hɛm": 5005,
      "mæsətʃ": 5006,
      "simz": 5007,
      "owlɪmpɪks": 5008,
      "kɑɹtɹ": 5009,
      "kəθ": 5010,
      "1950ɛs": 5011,
      "kæmɹə": 5012,
      "klowð": 5013,
      "əplajd": 5014,
      "tʃæmpiənʃɪps": 5015,
      "æbd": 5016,
      "##usəts": 5017,
      "mæsətʃusəts": 5018,
      "tæɡ": 5019,
      "1917": 5020,
      "əlawz": 5021,
      "sæ": 5022,
      "##bɑdi": 5023,
      "##inəs": 5024,
      "ɛntɹi": 5025,
      "ɛvəluʃən": 5026,
      "sɪs": 5027,
      "##ɪftəd": 5028,
      "##ɛɹiə": 5029,
      "kɛnt": 5030,
      "87": 5031,
      "ɛɹɪk": 5032,
      "owvɹs": 5033,
      "##ɑɡɹəfɹ": 5034,
      "əwɛɹ": 5035,
      "##jʊɹi": 5036,
      "əpɹowtʃt": 5037,
      "sidi": 5038,
      "tʃejn": 5039,
      "##wajz": 5040,
      "dɛkejd": 5041,
      "kæɹiɪŋ": 5042,
      "160": 5043,
      "izəli": 5044,
      "ejkɹz": 5045,
      "dɪzajnz": 5046,
      "tɛsts": 5047,
      "ɹɪspɑndɪd": 5048,
      "ædvɛntʃɹ": 5049,
      "dɪskɹɪpʃən": 5050,
      "dɪskʌvɹi": 5051,
      "bɛɹid": 5052,
      "owk": 5053,
      "ɑs": 5054,
      "bæɹi": 5055,
      "ɹuf": 5056,
      "ɪɡzɪb": 5057,
      "dawnlowd": 5058,
      "kɹɪmən": 5059,
      "pɹɛst": 5060,
      "pɔɹtʃ": 5061,
      "sɪmps": 5062,
      "ɪkstɛnʃən": 5063,
      "700": 5064,
      "hɪlz": 5065,
      "##əkən": 5066,
      "##əɡnejʃən": 5067,
      "ɡɹædʒuəli": 5068,
      "səksidəd": 5069,
      "##ʊɹz": 5070,
      "ɹɑm": 5071,
      "fejt": 5072,
      "kɑntɛst": 5073,
      "##ətɔɹiz": 5074,
      "spəsɪfɪkli": 5075,
      "kɑnf": 5076,
      "##ɪktɪd": 5077,
      "ʃowɪŋ": 5078,
      "sɛkʃənz": 5079,
      "dɪpl": 5080,
      "bɹidɪŋ": 5081,
      "sɪmpsənz": 5082,
      "fɹut": 5083,
      "##æmz": 5084,
      "1948": 5085,
      "##ændə": 5086,
      "##imə": 5087,
      "spɪɹət": 5088,
      "ɛntɹəns": 5089,
      "ɑbzɹ": 5090,
      "##bd": 5091,
      "dək": 5092,
      "bʌl": 5093,
      "69": 5094,
      "1960": 5095,
      "idʒ": 5096,
      "ɹif": 5097,
      "ajtəmz": 5098,
      "spɛktɹ": 5099,
      "pɹɪzənɹz": 5100,
      "##ʌstɹ": 5101,
      "kejn": 5102,
      "lɪsən": 5103,
      "æp": 5104,
      "pʌŋk": 5105,
      "ʃɑɹp": 5106,
      "kɹɛdətəd": 5107,
      "sɪməlɹli": 5108,
      "ɪɡn": 5109,
      "##ivəl": 5110,
      "##owvɹ": 5111,
      "stejtmənt": 5112,
      "wikənd": 5113,
      "pɹədusɪŋ": 5114,
      "##əpi": 5115,
      "klajmət": 5116,
      "ʃʌt": 5117,
      "ədɪʃənəli": 5118,
      "91": 5119,
      "ɹliəst": 5120,
      "78": 5121,
      "pɑɹtiz": 5122,
      "wɪnɹ": 5123,
      "ʃɑp": 5124,
      "wɔɹnɪŋ": 5125,
      "stæ": 5126,
      "1978": 5127,
      "lɛdʒənd": 5128,
      "mjunɪsəp": 5129,
      "pɹɛzədɛntʃəl": 5130,
      "ɹʊɹəl": 5131,
      "θɹɛtənd": 5132,
      "sækɹ": 5133,
      "mʌdɹ": 5134,
      "kændədejt": 5135,
      "kælk": 5136,
      "fildz": 5137,
      "##ətʃɹz": 5138,
      "##əlɪŋ": 5139,
      "ɹɪtejnd": 5140,
      "##əluʃən": 5141,
      "ɹɪɡ": 5142,
      "ɪlɛktɹɑnɪk": 5143,
      "##ɑpɹ": 5144,
      "ɹɛskju": 5145,
      "tɛknɪkəl": 5146,
      "lɛɡəsi": 5147,
      "kɑmbənejʃən": 5148,
      "ɹejdi": 5149,
      "dɪstɹəbjuʃən": 5150,
      "læstəd": 5151,
      "bluz": 5152,
      "sawndz": 5153,
      "ɑtəmən": 5154,
      "hit": 5155,
      "ʒɑnɹə": 5156,
      "1915": 5157,
      "ɛndʒənɪɹ": 5158,
      "pul": 5159,
      "powlənd": 5160,
      "pɹɑdəkts": 5161,
      "##əŋɡ": 5162,
      "fɪld": 5163,
      "məkæn": 5164,
      "mtv": 5165,
      "ɪŋk": 5166,
      "dɪvɪʒənz": 5167,
      "məkd": 5168,
      "ivəl": 5169,
      "dʒɛ": 5170,
      "lændfɔl": 5171,
      "səplajz": 5172,
      "##owpɹi": 5173,
      "bɹejkɪŋ": 5174,
      "##ɪstəd": 5175,
      "tɹænsp": 5176,
      "##owniəl": 5177,
      "dɛst": 5178,
      "æftɹwɹdz": 5179,
      "əfɛɹz": 5180,
      "tʃejs": 5181,
      "94": 5182,
      "##ɔft": 5183,
      "əlɛdʒ": 5184,
      "1950": 5185,
      "səbst": 5186,
      "##ojnt": 5187,
      "ɹɛdi": 5188,
      "əɡɹ": 5189,
      "ænəmejtəd": 5190,
      "dænjəl": 5191,
      "dawntawn": 5192,
      "wɪŋz": 5193,
      "ɔltɹ": 5194,
      "ədæptəd": 5195,
      "##ku": 5196,
      "wajn": 5197,
      "baw": 5198,
      "##bn": 5199,
      "ɪntɪɹiɹ": 5200,
      "fæʃən": 5201,
      "1977": 5202,
      "mɛɹələnd": 5203,
      "ɪnfɹ": 5204,
      "bejsɪk": 5205,
      "##vɪn": 5206,
      "ɛndʒənz": 5207,
      "81": 5208,
      "dɪlɪvɹd": 5209,
      "sidʒ": 5210,
      "pənɪnsələ": 5211,
      "spikɪŋ": 5212,
      "ejdʒənsi": 5213,
      "æpəl": 5214,
      "dɹʌɡ": 5215,
      "98": 5216,
      "towni": 5217,
      "mejntejn": 5218,
      "mɛsədʒ": 5219,
      "stɑpt": 5220,
      "hæpi": 5221,
      "##ɛlt": 5222,
      "##æftɹ": 5223,
      "ɹih": 5224,
      "ɛntajtəld": 5225,
      "kwɪk": 5226,
      "ɹɑf": 5227,
      "1963": 5228,
      "##ɪzəmz": 5229,
      "ɪksklusɪv": 5230,
      "ɪkspænd": 5231,
      "ɪksplɔɹ": 5232,
      "tɔk": 5233,
      "bɹow": 5234,
      "kænən": 5235,
      "səpɔɹtɹz": 5236,
      "bʌk": 5237,
      "sɑləd": 5238,
      "ɪkstɹimli": 5239,
      "ɪndəkejtəd": 5240,
      "sɪtəzənz": 5241,
      "##ajə": 5242,
      "ɛndʒənɪɹɪŋ": 5243,
      "pɹmənənt": 5244,
      "##ɪpɹ": 5245,
      "dɛθs": 5246,
      "flaj": 5247,
      "##ɪkʃənz": 5248,
      "dɹajvɪŋ": 5249,
      "##ɑɹz": 5250,
      "##hajm": 5251,
      "##əzət": 5252,
      "1916": 5253,
      "tʃæmpiənz": 5254,
      "71": 5255,
      "kliv": 5256,
      "idʒəpt": 5257,
      "mɑɹks": 5258,
      "wɔɹm": 5259,
      "pɹəpowzəl": 5260,
      "towk": 5261,
      "ɡɔɹdən": 5262,
      "##æljənz": 5263,
      "ɹɪtɹnz": 5264,
      "vɹsəz": 5265,
      "dɪzajɹ": 5266,
      "pɹowf": 5267,
      "hæn": 5268,
      "pejʃən": 5269,
      "wɪd": 5270,
      "##ʊt": 5271,
      "lejb": 5272,
      "tʃuz": 5273,
      "##ʌks": 5274,
      "##ənoj": 5275,
      "fɹejm": 5276,
      "pɹəs": 5277,
      "vɑlk": 5278,
      "##owʒən": 5279,
      "##ɔɹmz": 5280,
      "stɹits": 5281,
      "læm": 5282,
      "nɛl": 5283,
      "89": 5284,
      "##səlz": 5285,
      "tɹænsfɹ": 5286,
      "tajfun": 5287,
      "ɪkwɪvəl": 5288,
      "##hi": 5289,
      "ɡɹɛɡ": 5290,
      "##ɪlj": 5291,
      "kɑɹn": 5292,
      "##ɛvɪn": 5293,
      "tæŋks": 5294,
      "kɑləm": 5295,
      "sɹvajvd": 5296,
      "ɡɹawndz": 5297,
      "ɪnkɹ": 5298,
      "ɔɹədʒən": 5299,
      "ənɹ": 5300,
      "1962": 5301,
      "1919": 5302,
      "ɪmpɔɹtəns": 5303,
      "ɹɛɡjəl": 5304,
      "klæsɪkəl": 5305,
      "dɪskɹajbɪŋ": 5306,
      "kəmpown": 5307,
      "kəmpowzɹ": 5308,
      "sɔŋɹ": 5309,
      "luiz": 5310,
      "kənsɹnz": 5311,
      "kænsəld": 5312,
      "pajɹ": 5313,
      "ɹuld": 5314,
      "sʌmwʌn": 5315,
      "ɛntɹɪŋ": 5316,
      "tɪpəkəl": 5317,
      "##ɹɪŋ": 5318,
      "din": 5319,
      "ɹɪkɔɹd": 5320,
      "ɹejtɪŋz": 5321,
      "##əməl": 5322,
      "dʒajənt": 5323,
      "88": 5324,
      "ɹɛmɪks": 5325,
      "kɑzəz": 5326,
      "dəbejt": 5327,
      "ʃɑk": 5328,
      "##ətədʒ": 5329,
      "1938": 5330,
      "junəvɹ": 5331,
      "stʌdid": 5332,
      "kəmpɛt": 5333,
      "pɔɹtɹejd": 5334,
      "##ɹiow": 5335,
      "ɪmədʒəz": 5336,
      "ʃu": 5337,
      "vowtəd": 5338,
      "##ɪŋli": 5339,
      "##wɛ": 5340,
      "ejliən": 5341,
      "ænəvɹs": 5342,
      "sɔlt": 5343,
      "ɡɹædʒəw": 5344,
      "ɹɪkɔld": 5345,
      "ɪdʒ": 5346,
      "dʒejk": 5347,
      "kɹɔst": 5348,
      "fɔɹmjələ": 5349,
      "ædəmz": 5350,
      "ɡu": 5351,
      "əɡow": 5352,
      "##ɑtow": 5353,
      "kɹuzɹ": 5354,
      "tʃæpəl": 5355,
      "##dz": 5356,
      "mits": 5357,
      "filɪŋ": 5358,
      "kejpəbəl": 5359,
      "kɔɹpɹejʃən": 5360,
      "##ajnɪŋ": 5361,
      "ɪp": 5362,
      "tɹævəlɪŋ": 5363,
      "pɛ": 5364,
      "awtl": 5365,
      "sɛɹə": 5366,
      "vɛtɹ": 5367,
      "wɛɹɪŋ": 5368,
      "79": 5369,
      "wʌndɹ": 5370,
      "ɑbdʒɛkts": 5371,
      "dut": 5372,
      "ʃʊ": 5373,
      "bitəlz": 5374,
      "fɪft": 5375,
      "sɛʃənz": 5376,
      "smowk": 5377,
      "ɹɛkəɡnɪʃən": 5378,
      "əlajəns": 5379,
      "kɑləni": 5380,
      "tʃæptɹ": 5381,
      "səfɪʃənt": 5382,
      "ɪkwɪpt": 5383,
      "nɑmənejʃən": 5384,
      "dɛɹ": 5385,
      "θawzəndz": 5386,
      "ajdɛntəti": 5387,
      "fʌndz": 5388,
      "hʌntɪŋ": 5389,
      "town": 5390,
      "stajlz": 5391,
      "ɔfɹz": 5392,
      "mɪtʃ": 5393,
      "wʌnz": 5394,
      "nowtɪŋ": 5395,
      "kənsɹnd": 5396,
      "hɪstɔɹiənz": 5397,
      "##owks": 5398,
      "kənɛkʃən": 5399,
      "ænəvɹsɹi": 5400,
      "ɹajn": 5401,
      "mitɹz": 5402,
      "bɛk": 5403,
      "pɹist": 5404,
      "fajnəlz": 5405,
      "ɹɛfɹənsɪz": 5406,
      "æktəv": 5407,
      "dɛkejdz": 5408,
      "kənsɪstɪŋ": 5409,
      "pɹɪnsɛs": 5410,
      "ɹɪspɛkt": 5411,
      "ɹɛkəmɛndəd": 5412,
      "θʌndɹ": 5413,
      "ɑɹɡju": 5414,
      "jæŋk": 5415,
      "##ənəs": 5416,
      "mətʃ": 5417,
      "##ajtɪd": 5418,
      "mɪdivəl": 5419,
      "flæʃ": 5420,
      "175": 5421,
      "ɪntɹəstəd": 5422,
      "kɪm": 5423,
      "dajmənd": 5424,
      "ɪnvajtəd": 5425,
      "həŋɡ": 5426,
      "tɹk": 5427,
      "##ejnts": 5428,
      "ɪnstɔld": 5429,
      "kənsɪdɹəbəl": 5430,
      "kənsɹvətɪv": 5431,
      "junəvɹsəl": 5432,
      "1956": 5433,
      "##ɹej": 5434,
      "stɑɹts": 5435,
      "pawnd": 5436,
      "1930ɛs": 5437,
      "lɪbɹəl": 5438,
      "##ɪstɪd": 5439,
      "dʒejn": 5440,
      "wʊlf": 5441,
      "mətɪɹi": 5442,
      "hajp": 5443,
      "ɪstæblɪʃmənt": 5444,
      "ɹɪð": 5445,
      "sajkl": 5446,
      "##əbɪʃən": 5447,
      "ækədɛmɪk": 5448,
      "ɛnəmiz": 5449,
      "tʃɑɹdʒd": 5450,
      "##spɹɛd": 5451,
      "ʌtk": 5452,
      "dutiz": 5453,
      "##tejnɪŋ": 5454,
      "ɹɪmejndɹ": 5455,
      "skʌlp": 5456,
      "92": 5457,
      "sɔɹd": 5458,
      "1936": 5459,
      "ɹiɪnfɔɹs": 5460,
      "næv": 5461,
      "##tɪk": 5462,
      "pæsədʒ": 5463,
      "pɹowsid": 5464,
      "dɹəmætɪk": 5465,
      "##ʃajɹ": 5466,
      "##stajn": 5467,
      "##tɹɑpɪkəl": 5468,
      "tɹuθ": 5469,
      "##ɑlow": 5470,
      "wajdspɹɛd": 5471,
      "##əsɔɹəs": 5472,
      "##ɪsk": 5473,
      "ɑɹsənəl": 5474,
      "##now": 5475,
      "dejts": 5476,
      "ʃild": 5477,
      "##ejtow": 5478,
      "lejbawɹ": 5479,
      "93": 5480,
      "læn": 5481,
      "fɹejz": 5482,
      "##ɑntow": 5483,
      "kɑmjənəst": 5484,
      "dʒʌmp": 5485,
      "fɪʃɹ": 5486,
      "powp": 5487,
      "ɛnɹ": 5488,
      "##ɪlt": 5489,
      "fæl": 5490,
      "sajmən": 5491,
      "hæməltən": 5492,
      "130": 5493,
      "ədmɪtəd": 5494,
      "bɹu": 5495,
      "##ɪpi": 5496,
      "ɪndowni": 5497,
      "84": 5498,
      "kəntɪnjuɪŋ": 5499,
      "hawɹd": 5500,
      "slowli": 5501,
      "ɹæf": 5502,
      "ɹitɹit": 5503,
      "##ɛndɹd": 5504,
      "ɛkspl": 5505,
      "æktʃəwəl": 5506,
      "fli": 5507,
      "##owsəs": 5508,
      "æspɛkts": 5509,
      "dɪpɑɹtʃɹ": 5510,
      "əkejʒənəli": 5511,
      "1920": 5512,
      "kɛli": 5513,
      "ɡæŋ": 5514,
      "ɪnvajɹənmɛntəl": 5515,
      "ɪntəɡɹ": 5516,
      "tɹænsfɔɹm": 5517,
      "kɛnədi": 5518,
      "##əstɹd": 5519,
      "ædəm": 5520,
      "kɑsts": 5521,
      "klæsəz": 5522,
      "##ɪtɪk": 5523,
      "dʒʊɹ": 5524,
      "1961": 5525,
      "nbɑ": 5526,
      "sʌndej": 5527,
      "bjutəfəl": 5528,
      "lɛnən": 5529,
      "ɹisɔɹsɪz": 5530,
      "nɛðɹ": 5531,
      "kɹiejtɪv": 5532,
      "kəlowniəl": 5533,
      "bud": 5534,
      "powstɪd": 5535,
      "ɪmɹdʒənsi": 5536,
      "##dʒɪk": 5537,
      "##nɑl": 5538,
      "##ɪʃəs": 5539,
      "kɑmpɹ": 5540,
      "ɪnspɹejʃən": 5541,
      "ækjɹ": 5542,
      "əsɪstəns": 5543,
      "wɔk": 5544,
      "pejs": 5545,
      "1953": 5546,
      "ɹɛkɹi": 5547,
      "ədmɪnəstɹ": 5548,
      "ɔɹkəstɹə": 5549,
      "ɪndiænə": 5550,
      "vɛsəlz": 5551,
      "əkɹz": 5552,
      "æksədənt": 5553,
      "ɹæt": 5554,
      "##əmæt": 5555,
      "sɹtəfajd": 5556,
      "stɛm": 5557,
      "skʌli": 5558,
      "dejtɪd": 5559,
      "##ɡl": 5560,
      "dɪstɹʌkʃən": 5561,
      "kɹɛdɪts": 5562,
      "dətɹ": 5563,
      "##ɔɹɡ": 5564,
      "næs": 5565,
      "mɛmɹi": 5566,
      "wɹst": 5567,
      "kɔɹd": 5568,
      "hɪtlɹ": 5569,
      "wɪʃ": 5570,
      "##ɛlz": 5571,
      "ətætʃt": 5572,
      "ɹajən": 5573,
      "nɔɹwi": 5574,
      "##ŋkəl": 5575,
      "pɑpjəlejʃənz": 5576,
      "##ʌmbəl": 5577,
      "kəmpɹ": 5578,
      "17tiejtʃ": 5579,
      "pɹɑpɹtiz": 5580,
      "ænəmejʃən": 5581,
      "##əbju": 5582,
      "fown": 5583,
      "##əwɛɹ": 5584,
      "pæsəndʒɹz": 5585,
      "sɔɹt": 5586,
      "1930": 5587,
      "ʃɑts": 5588,
      "nɔɹm": 5589,
      "wɛltʃ": 5590,
      "mædʒɪk": 5591,
      "nɛɹow": 5592,
      "nowz": 5593,
      "mæsɪv": 5594,
      "owldəst": 5595,
      "ɪnvɑlvɪŋ": 5596,
      "tɹmɪnəs": 5597,
      "kowt": 5598,
      "kɑlɹ": 5599,
      "hɑɹm": 5600,
      "ɪkwɪvələnt": 5601,
      "##ɛnʃəli": 5602,
      "hɛɹətədʒ": 5603,
      "1947": 5604,
      "klæsəfəkejʃən": 5605,
      "æknɑl": 5606,
      "ts": 5607,
      "ɛnejbəl": 5608,
      "dətɹmən": 5609,
      "əmɛnd": 5610,
      "##jəs": 5611,
      "dʒæz": 5612,
      "ɑɹkətɛktʃɹ": 5613,
      "sɛtəld": 5614,
      "1958": 5615,
      "86": 5616,
      "##ejɹ": 5617,
      "kɹɛdət": 5618,
      "tʃɛs": 5619,
      "klivlənd": 5620,
      "əbtejnd": 5621,
      "ɹowmæntɪk": 5622,
      "kɑɹbən": 5623,
      "sikwəl": 5624,
      "stɑɹd": 5625,
      "##ləndz": 5626,
      "bɹus": 5627,
      "dajnəsti": 5628,
      "əkjuzd": 5629,
      "najts": 5630,
      "1957": 5631,
      "dɹajvd": 5632,
      "##iɪŋ": 5633,
      "fɪnɪʃɪŋ": 5634,
      "najnθ": 5635,
      "tajl": 5636,
      "dʒʌŋkʃən": 5637,
      "tʃɑɹdʒəz": 5638,
      "ɪnkɔɹpɹejtəd": 5639,
      "pɔɹtʃəɡ": 5640,
      "1937": 5641,
      "ɹivjuɹz": 5642,
      "##ənsiz": 5643,
      "##æɑ": 5644,
      "ændi": 5645,
      "kɹajsəs": 5646,
      "ɔɹəndʒ": 5647,
      "##istɹn": 5648,
      "kætəl": 5649,
      "kəmɪtəd": 5650,
      "howstɪd": 5651,
      "##ɛstəd": 5652,
      "ɹɪplejsmənt": 5653,
      "kɔɹiə": 5654,
      "##hɑl": 5655,
      "dʌɡləs": 5656,
      "##wɑn": 5657,
      "##ajvz": 5658,
      "ɔɹɡ": 5659,
      "ɹɑdʒɹ": 5660,
      "ɪlənoj": 5661,
      "bɛlt": 5662,
      "bɹɪŋɪŋ": 5663,
      "ɪli": 5664,
      "vihɪkəl": 5665,
      "mɪʃənz": 5666,
      "##əfown": 5667,
      "zu": 5668,
      "kʌlɹz": 5669,
      "wɪtnəs": 5670,
      "supɹv": 5671,
      "stət": 5672,
      "ɹʌsəl": 5673,
      "bɑs": 5674,
      "##uzi": 5675,
      "4tiejtʃ": 5676,
      "əsumd": 5677,
      "##ɪnst": 5678,
      "dɪnajd": 5679,
      "ɹumz": 5680,
      "stænli": 5681,
      "nɹ": 5682,
      "wejst": 5683,
      "##ɑŋ": 5684,
      "ɹɛdʒɪstɹ": 5685,
      "ɹɪvaj": 5686,
      "əbɹ": 5687,
      "##ɛθ": 5688,
      "##tin": 5689,
      "muvz": 5690,
      "110": 5691,
      "tʌnəl": 5692,
      "lɑdʒ": 5693,
      "##ɪɡɹ": 5694,
      "##wɛstɹn": 5695,
      "ɹɛpɹəzɛntətɪvz": 5696,
      "dɪɹ": 5697,
      "ənjuʒəwəl": 5698,
      "##ətɹejniən": 5699,
      "mɛdətɹejniən": 5700,
      "##ʌltʃɹəl": 5701,
      "əns": 5702,
      "kəmændəd": 5703,
      "pɹsu": 5704,
      "fɪkʃənəl": 5705,
      "ɔd": 5706,
      "##ejʃə": 5707,
      "stɹɔŋli": 5708,
      "pɪktʃɹz": 5709,
      "ɪnɪʃi": 5710,
      "ɛksɹsajz": 5711,
      "siɪŋ": 5712,
      "1959": 5713,
      "sɹkjəlejʃən": 5714,
      "kɛvɪn": 5715,
      "sɹkəl": 5716,
      "klʌbz": 5717,
      "awtstændɪŋ": 5718,
      "kɔɹts": 5719,
      "bɑɹb": 5720,
      "kənfɹ": 5721,
      "kəmpliʃən": 5722,
      "sɹvajvɪŋ": 5723,
      "bɪɡʌn": 5724,
      "##æɡənəst": 5725,
      "mətɪɹiəlz": 5726,
      "##ejps": 5727,
      "##ʌpʃən": 5728,
      "##ændʒ": 5729,
      "tɹænspɹt": 5730,
      "##ʌktɪv": 5731,
      "tɹænspɹtejʃən": 5732,
      "ɹiæləti": 5733,
      "kəmɪt": 5734,
      "nɔɹwidʒən": 5735,
      "ətɹn": 5736,
      "ɹɔŋ": 5737,
      "bɑmbɑɹd": 5738,
      "wɪkəts": 5739,
      "nɛk": 5740,
      "skawt": 5741,
      "ɪksɛpʃən": 5742,
      "izi": 5743,
      "lɪz": 5744,
      "pɑk": 5745,
      "pɑsəbɪləti": 5746,
      "mɛθədz": 5747,
      "##ɑti": 5748,
      "dɪzæstɹ": 5749,
      "sejld": 5750,
      "dɛpj": 5751,
      "dɪskʌs": 5752,
      "ɹispɑnsəbɪləti": 5753,
      "ɹɪbɛl": 5754,
      "kəθid": 5755,
      "##wɹks": 5756,
      "1955": 5757,
      "1954": 5758,
      "ɪntɹədus": 5759,
      "ɑɹn": 5760,
      "pɹədʒ": 5761,
      "hɑn": 5762,
      "ɛvɹiwʌn": 5763,
      "bjʊɹ": 5764,
      "bɹk": 5765,
      "wɪnz": 5766,
      "pæɹɪʃ": 5767,
      "ɑpəzət": 5768,
      "ɪsbn": 5769,
      "bɹɪstəl": 5770,
      "kɛɹəktɹɪstɪks": 5771,
      "pæsəndʒɹ": 5772,
      "lajz": 5773,
      "skɑl": 5774,
      "dɹɪvən": 5775,
      "vɪʒən": 5776,
      "##owtəd": 5777,
      "##ɪtɪv": 5778,
      "##ənbɹɡ": 5779,
      "mɑl": 5780,
      "æbi": 5781,
      "dɪfɹənsɪz": 5782,
      "pɑɹks": 5783,
      "ɹɛpɹəzɛntətɪv": 5784,
      "sɹkət": 5785,
      "ɹowb": 5786,
      "kæɹiɹ": 5787,
      "kænsɹ": 5788,
      "əbdʒɛktɪv": 5789,
      "ætməsfɪɹ": 5790,
      "##zɹz": 5791,
      "##əmənz": 5792,
      "lisə": 5793,
      "sɛnətɹ": 5794,
      "həw": 5795,
      "##tsmən": 5796,
      "ðɛɹæftɹ": 5797,
      "##ɛtʃ": 5798,
      "ɑnɹz": 5799,
      "kɑnsɹvejʃən": 5800,
      "mɛksəkən": 5801,
      "ɔɹəɡən": 5802,
      "kowk": 5803,
      "ɹiəl": 5804,
      "ɹəkʌvɹd": 5805,
      "fæktɹ": 5806,
      "səpɹ": 5807,
      "ʌðɹwajz": 5808,
      "kəlæps": 5809,
      "fɔɹd": 5810,
      "##ɪstæn": 5811,
      "fɪkst": 5812,
      "sæd": 5813,
      "fʌndɪŋ": 5814,
      "mɪz": 5815,
      "pɹɑp": 5816,
      "bætəlʃɪp": 5817,
      "pɪkt": 5818,
      "##əθi": 5819,
      "stɹætədʒi": 5820,
      "bowld": 5821,
      "ɡɛts": 5822,
      "##nənt": 5823,
      "sowlɹ": 5824,
      "ətɹɪbjətəd": 5825,
      "plætnəm": 5826,
      "ɛldɹ": 5827,
      "pɪŋk": 5828,
      "##itow": 5829,
      "sɹvz": 5830,
      "hæmp": 5831,
      "sɛɡmənt": 5832,
      "ɪmɹdʒd": 5833,
      "bɹɡ": 5834,
      "ɪfɛktɪvli": 5835,
      "kəmjunətiz": 5836,
      "##əsəns": 5837,
      "mɪnəstɹi": 5838,
      "pətɹowl": 5839,
      "dɛt": 5840,
      "ɛɡzɪt": 5841,
      "klæsəfajd": 5842,
      "nɛlsən": 5843,
      "ʃɑɹk": 5844,
      "wɛpən": 5845,
      "fowtəɡɹæf": 5846,
      "fajl": 5847,
      "ədʌlts": 5848,
      "sɛmətɛɹi": 5849,
      "əbɔɹd": 5850,
      "kowɔɹdən": 5851,
      "ɹitajɹmənt": 5852,
      "juɡ": 5853,
      "əkɑməd": 5854,
      "mjuzɪʃənz": 5855,
      "1952": 5856,
      "83": 5857,
      "ɹɛɡjəlɹli": 5858,
      "ɪd": 5859,
      "##owlən": 5860,
      "kætʃ": 5861,
      "ʃæd": 5862,
      "kɹɔsɪz": 5863,
      "ɹɑbənsən": 5864,
      "fɹɛdɹɪk": 5865,
      "pæd": 5866,
      "##ɛndənt": 5867,
      "fɔɹməl": 5868,
      "dɑkjəmɛntɹi": 5869,
      "əkawnts": 5870,
      "##ɑdɹ": 5871,
      "##ɪlətiz": 5872,
      "ɹajzɪŋ": 5873,
      "##mæθ": 5874,
      "fejvɹəbəl": 5875,
      "ʌndɹɡɹawnd": 5876,
      "fɔlɪŋ": 5877,
      "ətɹæktəd": 5878,
      "kɛməkəl": 5879,
      "stʊd": 5880,
      "fɔɹmɪŋ": 5881,
      "sætəl": 5882,
      "##ajdɪd": 5883,
      "1933": 5884,
      "tɹajəlz": 5885,
      "ɹəfɔɹm": 5886,
      "kənsp": 5887,
      "muvmənts": 5888,
      "æŋɡəl": 5889,
      "vajt": 5890,
      "ɹejsɪŋ": 5891,
      "ɪlɛkʃənz": 5892,
      "əsɹ": 5893,
      "mɔɹɡən": 5894,
      "bɹæn": 5895,
      "kəmɛm": 5896,
      "bætəlʃɪps": 5897,
      "nidz": 5898,
      "ɪndʒɹiz": 5899,
      "kænz": 5900,
      "æftɹmæθ": 5901,
      "176": 5902,
      "bætɪŋ": 5903,
      "##ɪʃənd": 5904,
      "ɛləv": 5905,
      "##əbɪlətiz": 5906,
      "pɔɹts": 5907,
      "ɑɡ": 5908,
      "sʌdən": 5909,
      "vowts": 5910,
      "ɪməɡɹ": 5911,
      "lɪθ": 5912,
      "tɑmp": 5913,
      "kɪs": 5914,
      "kwinz": 5915,
      "sɛpɹejtəd": 5916,
      "pætɹɪk": 5917,
      "##ɛnʃənz": 5918,
      "æsəd": 5919,
      "ɹejsəz": 5920,
      "swidən": 5921,
      "pɹɛdəs": 5922,
      "ɛntɹpɹajz": 5923,
      "kʌnd": 5924,
      "sɹɛndɹ": 5925,
      "bɪhejvjɹ": 5926,
      "θɪn": 5927,
      "tɛmpɹɛɹi": 5928,
      "pɹɑfət": 5929,
      "dejn": 5930,
      "1910": 5931,
      "1935": 5932,
      "lup": 5933,
      "dɪfəkəlti": 5934,
      "kɹɪmənəl": 5935,
      "ɡlɛn": 5936,
      "##əpɑl": 5937,
      "bɪtɹ": 5938,
      "1951": 5939,
      "simd": 5940,
      "dɪstɪŋɡwɪʃt": 5941,
      "bɪd": 5942,
      "##mejts": 5943,
      "1949": 5944,
      "dɪlejd": 5945,
      "ɹɪkwɛstɪd": 5946,
      "ɹitɹi": 5947,
      "fəsɪlɪti": 5948,
      "ɹɪstɔɹd": 5949,
      "##liənz": 5950,
      "sɹawndəd": 5951,
      "vɪns": 5952,
      "stændɹdz": 5953,
      "sɛnd": 5954,
      "tɹɑntow": 5955,
      "##uʃənəl": 5956,
      "ejvi": 5957,
      "ɔθɹz": 5958,
      "##wɪtʃ": 5959,
      "pɹɑsp": 5960,
      "sik": 5961,
      "##ɪktɪŋ": 5962,
      "13tiejtʃ": 5963,
      "ɹɪvɹz": 5964,
      "ɛlswɛɹ": 5965,
      "##ʌʃ": 5966,
      "##ɛtɪks": 5967,
      "howpt": 5968,
      "klejmɪŋ": 5969,
      "##əkejtɪd": 5970,
      "nɛðɹləndz": 5971,
      "bɹɪdʒəz": 5972,
      "mɹk": 5973,
      "tʃajldhʊd": 5974,
      "##zɔɹ": 5975,
      "pɛnəlti": 5976,
      "kənvɛkʃən": 5977,
      "ɹivjuɹ": 5978,
      "flowt": 5979,
      "fɹænsəs": 5980,
      "bɪzəntajn": 5981,
      "##ɡowɪŋ": 5982,
      "16tiejtʃ": 5983,
      "spɛkt": 5984,
      "ɡɹejtli": 5985,
      "##ejʃənəl": 5986,
      "ɑɹdʒənt": 5987,
      "sɹkəm": 5988,
      "stændz": 5989,
      "kənvɪnst": 5990,
      "tɛmpɹətʃɹz": 5991,
      "sajm": 5992,
      "dʒuz": 5993,
      "ɡælɹi": 5994,
      "##ɑɹow": 5995,
      "mɑdɹət": 5996,
      "ɹɪkw": 5997,
      "ɪɡzæmpəlz": 5998,
      "##pɹejʃənz": 5999,
      "##æŋɡəl": 6000,
      "kəθidɹəl": 6001,
      "ɡli": 6002,
      "##ʌltʃɹ": 6003,
      "ækw": 6004,
      "pʌblɪʃɪŋ": 6005,
      "sɛntɹz": 6006,
      "skɑlɹz": 6007,
      "##wəl": 6008,
      "##əfɪʃəl": 6009,
      "ɪnvɑlvmənt": 6010,
      "wʊdən": 6011,
      "##fajɹ": 6012,
      "əpɹowpɹi": 6013,
      "pejntəd": 6014,
      "lɔɹəns": 6015,
      "mɑnjəmənt": 6016,
      "ɪntɹnɛt": 6017,
      "hɔ": 6018,
      "ɑdiow": 6019,
      "hʌŋɡɹi": 6020,
      "##ɪbiən": 6021,
      "##ub": 6022,
      "skænd": 6023,
      "bætəlz": 6024,
      "æv": 6025,
      "hʌndɹədz": 6026,
      "nk": 6027,
      "ɪmidiət": 6028,
      "mowz": 6029,
      "twɪn": 6030,
      "lɑɹ": 6031,
      "stætʃu": 6032,
      "spɪɹz": 6033,
      "pɹsw": 6034,
      "ɹɑks": 6035,
      "ɛniwʌn": 6036,
      "ɹɪkɔɹdɪŋz": 6037,
      "7tiejtʃ": 6038,
      "##bɹts": 6039,
      "sɛv": 6040,
      "kɑnvɹs": 6041,
      "ejdʒəz": 6042,
      "##ejtʃɹ": 6043,
      "lɪmət": 6044,
      "tɹajz": 6045,
      "##ʌktʃɹ": 6046,
      "dɛkɹ": 6047,
      "dɹæɡ": 6048,
      "ɪnsɹ": 6049,
      "sʌmw": 6050,
      "əpɪɹɪŋ": 6051,
      "kɔ": 6052,
      "dʒɔɹdən": 6053,
      "lɹnɪŋ": 6054,
      "kɹɔ": 6055,
      "##ʌŋɡ": 6056,
      "ɛnkɹɪdʒd": 6057,
      "əkɑmpl": 6058,
      "dɪvajs": 6059,
      "ɛndʒoj": 6060,
      "sʌmwʌt": 6061,
      "bɛɹz": 6062,
      "sʌfɹɪŋ": 6063,
      "sɔft": 6064,
      "tɪl": 6065,
      "##ɑlɪʃt": 6066,
      "θɹow": 6067,
      "mɛʒɹz": 6068,
      "ɡɹæfɪks": 6069,
      "##ejʒə": 6070,
      "mɑnətɹ": 6071,
      "vɛdʒ": 6072,
      "tɛkniks": 6073,
      "θɛɹ": 6074,
      "1900": 6075,
      "ɹɪvɹs": 6076,
      "kɹowejʃən": 6077,
      "ɹikənstɹ": 6078,
      "powətɹi": 6079,
      "##əmɪl": 6080,
      "mɑɹdʒən": 6081,
      "nɪkn": 6082,
      "lɛdʒəslejʃən": 6083,
      "##najt": 6084,
      "owm": 6085,
      "dɪsmɪst": 6086,
      "pwɛɹ": 6087,
      "ɹəfjuz": 6088,
      "dejtɪŋ": 6089,
      "ælkə": 6090,
      "hɔɹɹ": 6091,
      "5tiejtʃ": 6092,
      "ənf": 6093,
      "ɪntɹəsts": 6094,
      "ɛnʃʊɹ": 6095,
      "fɹn": 6096,
      "##ɪɹə": 6097,
      "əsæs": 6098,
      "fejsɪŋ": 6099,
      "##əpɑlətən": 6100,
      "##vow": 6101,
      "wɛɹæz": 6102,
      "ətɛmptɪŋ": 6103,
      "tɑmpsən": 6104,
      "##ɑzə": 6105,
      "##ɪɹiən": 6106,
      "ɪkspɛɹəmənt": 6107,
      "tælənt": 6108,
      "dajəlɔɡ": 6109,
      "fajtɹz": 6110,
      "dʒɹnələst": 6111,
      "kɑnvoj": 6112,
      "##lin": 6113,
      "mətʃʊɹ": 6114,
      "towl": 6115,
      "##ɛtə": 6116,
      "mæm": 6117,
      "tæk": 6118,
      "fɪtəd": 6119,
      "pɑɹkɹ": 6120,
      "dəp": 6121,
      "ɛɡ": 6122,
      "##mət": 6123,
      "əbzɔɹ": 6124,
      "hejz": 6125,
      "pʊl": 6126,
      "##uvɪŋ": 6127,
      "pwɛɹtow": 6128,
      "ətækɪŋ": 6129,
      "bɹɑnz": 6130,
      "θawzənd": 6131,
      "tɹowfi": 6132,
      "##owslɑv": 6133,
      "ædəpt": 6134,
      "ædəptejʃən": 6135,
      "sɪnəm": 6136,
      "##əkʌltʃɹəl": 6137,
      "mɪθ": 6138,
      "fɔɹmɹli": 6139,
      "nəp": 6140,
      "kwɛstʃənz": 6141,
      "mɔɹəs": 6142,
      "kɑmənwɛl": 6143,
      "kɑmənwɛlθ": 6144,
      "vɪzəbəl": 6145,
      "06": 6146,
      "klowsɹ": 6147,
      "howldz": 6148,
      "sɹpɹ": 6149,
      "bɪɡəst": 6150,
      "tawnʃɪp": 6151,
      "6tiejtʃ": 6152,
      "pɛtɹ": 6153,
      "##ɔɹʃən": 6154,
      "##pʊt": 6155,
      "bɑk": 6156,
      "ætl": 6157,
      "lændsk": 6158,
      "##sl": 6159,
      "##judʒ": 6160,
      "ɑɹmin": 6161,
      "ɡɑɹdiən": 6162,
      "kupɹ": 6163,
      "ɛksəl": 6164,
      "æbsəns": 6165,
      "ɹʌɡ": 6166,
      "həŋɡɛɹiən": 6167,
      "dɹɛs": 6168,
      "##spi": 6169,
      "##əlɪʃən": 6170,
      "kənvɪns": 6171,
      "##ɡəm": 6172,
      "tum": 6173,
      "ʃʊɹ": 6174,
      "dɪplojd": 6175,
      "mɑdəfajd": 6176,
      "kənkluʒən": 6177,
      "powət": 6178,
      "##uk": 6179,
      "##hɑɹt": 6180,
      "dimd": 6181,
      "mɪnɪs": 6182,
      "##liə": 6183,
      "##ɪliz": 6184,
      "##æntʃəl": 6185,
      "æksəd": 6186,
      "owkl": 6187,
      "tɛɹi": 6188,
      "hjudʒ": 6189,
      "pɹɛmɪɹd": 6190,
      "əpɛɹəntli": 6191,
      "kɹus": 6192,
      "##ɑdz": 6193,
      "smu": 6194,
      "kɑmɪks": 6195,
      "##ənɛɹi": 6196,
      "awtbɹejk": 6197,
      "nfəl": 6198,
      "wejk": 6199,
      "##ædʒən": 6200,
      "nɑvəlz": 6201,
      "kɑntɹəvɹʃəl": 6202,
      "##æmətɹ": 6203,
      "sajtɪŋ": 6204,
      "lændəd": 6205,
      "bætmæn": 6206,
      "læbɹətɔɹi": 6207,
      "junəf": 6208,
      "məkɑɹ": 6209,
      "sætɹ": 6210,
      "næɹətɪv": 6211,
      "fɪŋ": 6212,
      "pɹədʌkʃənz": 6213,
      "dɪstɹɪbjətəd": 6214,
      "##ədli": 6215,
      "lɔŋɡəst": 6216,
      "##lɪs": 6217,
      "ɑpɹejt": 6218,
      "##nɹz": 6219,
      "tɛɹətɔɹiz": 6220,
      "ɪnstɹəmənts": 6221,
      "ɹilowk": 6222,
      "1913": 6223,
      "ɹɛkəɡnajz": 6224,
      "mɹtʃ": 6225,
      "suz": 6226,
      "wɛt": 6227,
      "lowkəm": 6228,
      "pejtɹi": 6229,
      "##ɪŋhæm": 6230,
      "tɹejnd": 6231,
      "##tənəns": 6232,
      "ɹilajzd": 6233,
      "vɪktəmz": 6234,
      "##ðɹd": 6235,
      "1926": 6236,
      "ətɹni": 6237,
      "wejl": 6238,
      "12tiejtʃ": 6239,
      "ɛnh": 6240,
      "kʌndəkt": 6241,
      "900": 6242,
      "##klɪn": 6243,
      "##məθ": 6244,
      "##bʊk": 6245,
      "##uəl": 6246,
      "bɹlɪn": 6247,
      "ɡɔɹ": 6248,
      "##ejsənt": 6249,
      "mejnstɹim": 6250,
      "1927": 6251,
      "ɛt": 6252,
      "ʌnsəksɛsfəl": 6253,
      "vɪzətɹz": 6254,
      "wikɛnd": 6255,
      "ɡɹis": 6256,
      "ɹɪlisɪz": 6257,
      "##ætəsf": 6258,
      "bejsən": 6259,
      "fajlz": 6260,
      "ɹɛstɹejʃən": 6261,
      "dnɑ": 6262,
      "##ɪzɛntɪŋ": 6263,
      "wɛlz": 6264,
      "ɹɛpɹɪzɛntɪŋ": 6265,
      "ɹejndʒmənt": 6266,
      "bɪlivz": 6267,
      "##ejʒənz": 6268,
      "##ədiz": 6269,
      "kæθɹ": 6270,
      "dɪpɪktəd": 6271,
      "ɪnfluɛntʃəl": 6272,
      "ownɹz": 6273,
      "lʊkt": 6274,
      "1934": 6275,
      "dɑmənejtəd": 6276,
      "##ejɡow": 6277,
      "##ɹəz": 6278,
      "1921": 6279,
      "kojnz": 6280,
      "##bɪk": 6281,
      "sɪkjʊɹd": 6282,
      "tʃɹtʃəz": 6283,
      "ɹɛzəluʃən": 6284,
      "mɔɹəl": 6285,
      "vɹtʃu": 6286,
      "pɛɹi": 6287,
      "ɡlowb": 6288,
      "klɪf": 6289,
      "kənsum": 6290,
      "ɡɑs": 6291,
      "dɪkɹi": 6292,
      "kɔɹi": 6293,
      "pajn": 6294,
      "##ɡi": 6295,
      "nowtəbli": 6296,
      "mjut": 6297,
      "ɪnfɔɹmd": 6298,
      "mɔl": 6299,
      "vɪdiowz": 6300,
      "fɔɹti": 6301,
      "##owʒɹ": 6302,
      "pɹɛɡ": 6303,
      "ajl": 6304,
      "ʌndɹstænd": 6305,
      "nilsən": 6306,
      "wɑtʃɪŋ": 6307,
      "skɑɹ": 6308,
      "hjustən": 6309,
      "fɹikwənt": 6310,
      "spik": 6311,
      "ɡɹejs": 6312,
      "##izəs": 6313,
      "lɛɡz": 6314,
      "ɪmædʒən": 6315,
      "kejt": 6316,
      "nʊɹ": 6317,
      "ɹiun": 6318,
      "dɹajvɹ": 6319,
      "ɪndiənz": 6320,
      "##nən": 6321,
      "əpd": 6322,
      "dʒejsən": 6323,
      "ɔfəsəz": 6324,
      "dʒajənts": 6325,
      "ɹʌf": 6326,
      "1912": 6327,
      "poj": 6328,
      "spaj": 6329,
      "ɹɑbɹts": 6330,
      "swidɪʃ": 6331,
      "lədʒ": 6332,
      "læŋɡwədʒəz": 6333,
      "ɔɹbət": 6334,
      "əpɛɹənt": 6335,
      "sɪmf": 6336,
      "##owniən": 6337,
      "ɹilejʃənʃɪps": 6338,
      "æftɹn": 6339,
      "pʌ": 6340,
      "mɹiə": 6341,
      "##ejvi": 6342,
      "bɹəzɪl": 6343,
      "sæntə": 6344,
      "hawzɪŋ": 6345,
      "miti": 6346,
      "tʃɑɹli": 6347,
      "08": 6348,
      "tɛstɪŋ": 6349,
      "hɪɹɪŋ": 6350,
      "##æŋɡ": 6351,
      "sɪmpsən": 6352,
      "kæʃ": 6353,
      "1932": 6354,
      "tɛɹɹ": 6355,
      "##əltejn": 6356,
      "sajməltejn": 6357,
      "##pə": 6358,
      "##ɑwə": 6359,
      "ɑbdʒɛkt": 6360,
      "##ɪlɹ": 6361,
      "wɔɹnɹ": 6362,
      "skɪlz": 6363,
      "##ætəl": 6364,
      "ɪnfluənsɪz": 6365,
      "mɛkən": 6366,
      "##ɪbɹ": 6367,
      "dajəɡn": 6368,
      "dɪtejl": 6369,
      "tɹɛk": 6370,
      "ɪmpɹɛst": 6371,
      "ʃɔn": 6372,
      "dʒɛnɹejtəd": 6373,
      "ɑpɹejʃənəl": 6374,
      "iən": 6375,
      "ɡɛɹɪsən": 6376,
      "ɹɪpɔɹtəd": 6377,
      "kæstɪŋ": 6378,
      "tɔɹnejd": 6379,
      "hʌd": 6380,
      "##ɑh": 6381,
      "ɹɪpɔɹtədli": 6382,
      "##owniə": 6383,
      "fæktɹz": 6384,
      "tɔt": 6385,
      "əpownənts": 6386,
      "bæləns": 6387,
      "hæpənd": 6388,
      "mɑnstɹ": 6389,
      "ɪmowʃənəl": 6390,
      "ænθəni": 6391,
      "ɛli": 6392,
      "ejdʒənts": 6393,
      "ənawns": 6394,
      "səksɛsɹ": 6395,
      "bɑn": 6396,
      "ɡlej": 6397,
      "suəsajd": 6398,
      "fajɹɪŋ": 6399,
      "ɛmplojiz": 6400,
      "dɹʌmz": 6401,
      "owd": 6402,
      "##ajzɹz": 6403,
      "fʊtɪdʒ": 6404,
      "ɪkspɪɹiənsɪz": 6405,
      "fɪʃɪŋ": 6406,
      "ɹʌʃ": 6407,
      "nbk": 6408,
      "kɹɪstəl": 6409,
      "dajv": 6410,
      "æɡɹəkʌltʃɹəl": 6411,
      "kæbənət": 6412,
      "pɪts": 6413,
      "vowl": 6414,
      "ɡejl": 6415,
      "##fɑ": 6416,
      "##ətajp": 6417,
      "ɹipɹəd": 6418,
      "ɡɑɡə": 6419,
      "tiθ": 6420,
      "mɑnɑɹk": 6421,
      "##θuzi": 6422,
      "sɹpɹajz": 6423,
      "##əbəlz": 6424,
      "dɪfɛndəd": 6425,
      "kɹowejʃə": 6426,
      "sajəntɪsts": 6427,
      "nəɡowʃiejʃənz": 6428,
      "09": 6429,
      "lajən": 6430,
      "ɹikɑn": 6431,
      "mejntənəns": 6432,
      "ɹɛvəluʃənɛɹi": 6433,
      "##əpl": 6434,
      "##juzɪk": 6435,
      "kɑnd": 6436,
      "ɛksəkjutəd": 6437,
      "ɪnɡ": 6438,
      "##ɑdəl": 6439,
      "fɹɛndli": 6440,
      "##æskə": 6441,
      "dɹæɡən": 6442,
      "##ɪksp": 6443,
      "ɛntɹz": 6444,
      "supɪɹiɹ": 6445,
      "dɪskʌst": 6446,
      "dawt": 6447,
      "ɡæðɹ": 6448,
      "##ɛmbəld": 6449,
      "pɹsənælɪti": 6450,
      "nɔɹməli": 6451,
      "tɹitəd": 6452,
      "1911": 6453,
      "wɪndow": 6454,
      "tɹʌbəl": 6455,
      "ajk": 6456,
      "dɪtɹojt": 6457,
      "fɹæɡ": 6458,
      "dɛzɹt": 6459,
      "juɡowslɑv": 6460,
      "1929": 6461,
      "hɑləd": 6462,
      "140": 6463,
      "##ɡɑɹd": 6464,
      "##ɛlm": 6465,
      "æləb": 6466,
      "##jəbəl": 6467,
      "tɹɪbjut": 6468,
      "##kʌmɪŋ": 6469,
      "tɑks": 6470,
      "##ɹiʃi": 6471,
      "ɪntɹstejt": 6472,
      "tʊɹɪŋ": 6473,
      "ɪzɹiəl": 6474,
      "tɛnθ": 6475,
      "æftɹnun": 6476,
      "stɹəti": 6477,
      "##vejʃənz": 6478,
      "dʒɛs": 6479,
      "##ɡejt": 6480,
      "ɹejdɑɹ": 6481,
      "dɹɔɪŋ": 6482,
      "sɪmpt": 6483,
      "vɛsəl": 6484,
      "ɹɛzədɛntʃəl": 6485,
      "dəpɑz": 6486,
      "##dʒəm": 6487,
      "mɛlbɹn": 6488,
      "mɛnʃən": 6489,
      "##ətɹn": 6490,
      "dɪfɹəns": 6491,
      "ədɹɛs": 6492,
      "##əmət": 6493,
      "dʒizəs": 6494,
      "lajsəns": 6495,
      "fɔls": 6496,
      "1931": 6497,
      "klɪntən": 6498,
      "##ɔɹə": 6499,
      "ɹɪzajnd": 6500,
      "stɔɹmz": 6501,
      "dɪtejld": 6502,
      "ənsɹ": 6503,
      "plejt": 6504,
      "ejʒən": 6505,
      "ɔɹədʒ": 6506,
      "mɑɹdʒ": 6507,
      "ɹikwajɹ": 6508,
      "##ɔɹɡən": 6509,
      "fɔɹməli": 6510,
      "##ænsi": 6511,
      "tæn": 6512,
      "ɪmpɑs": 6513,
      "dʌs": 6514,
      "ejdʒɪd": 6515,
      "ɡʊdz": 6516,
      "zɪɹow": 6517,
      "ɛvənz": 6518,
      "pɹɑmp": 6519,
      "pɹl": 6520,
      "1922": 6521,
      "ɹɪvilz": 6522,
      "pʊʃt": 6523,
      "pɹɪvɛntɪd": 6524,
      "ɪmpɹɪz": 6525,
      "pɹəfɹd": 6526,
      "zbɑks": 6527,
      "məlɪʃə": 6528,
      "it": 6529,
      "nowb": 6530,
      "smuð": 6531,
      "vejk": 6532,
      "spɪɹɪtʃ": 6533,
      "ɔɹb": 6534,
      "kipɪŋ": 6535,
      "spɑ": 6536,
      "ɹajvɪŋ": 6537,
      "##iəsli": 6538,
      "mæp": 6539,
      "##æsi": 6540,
      "ɪkspowzd": 6541,
      "##ʌɡz": 6542,
      "mɑɹʃ": 6543,
      "ajsəlejtəd": 6544,
      "fɔɹmæt": 6545,
      "ɔɹɡənəzejʃənz": 6546,
      "nejbɹhʊd": 6547,
      "məkdɑn": 6548,
      "hɛlɪk": 6549,
      "dɪstɹb": 6550,
      "æləks": 6551,
      "pɑɹtli": 6552,
      "fawndɹ": 6553,
      "##ɪkjəl": 6554,
      "ɡɹown": 6555,
      "##ɑnəm": 6556,
      "##ejniəm": 6557,
      "kɑntənɛntəl": 6558,
      "ʃɪft": 6559,
      "dɹɪŋ": 6560,
      "##ɛntʃɹz": 6561,
      "sɪstɹz": 6562,
      "səbstæntʃəl": 6563,
      "sæmjul": 6564,
      "ɔɹədʒɪnz": 6565,
      "mowmənts": 6566,
      "lɪŋkt": 6567,
      "əstɹ": 6568,
      "sæks": 6569,
      "mʌzləm": 6570,
      "ɡɹejv": 6571,
      "dejndʒɹəs": 6572,
      "bəlɡ": 6573,
      "tɹkɪʃ": 6574,
      "tinejdʒ": 6575,
      "dɪpɑɹtəd": 6576,
      "bɹaj": 6577,
      "##ɪnsən": 6578,
      "pɹɑməs": 6579,
      "ɔstɹiə": 6580,
      "fæktɹi": 6581,
      "05": 6582,
      "pajən": 6583,
      "##bɑɹ": 6584,
      "kʌlɹd": 6585,
      "tɪmbɹ": 6586,
      "##ɑi": 6587,
      "dɪzajnɹ": 6588,
      "midiəm": 6589,
      "pɹəsi": 6590,
      "kɹɛkt": 6591,
      "bɪlif": 6592,
      "ɪɡzɪstəd": 6593,
      "##ʃənəli": 6594,
      "fɪftin": 6595,
      "##ɔɹst": 6596,
      "##əsk": 6597,
      "kɑlɹɑdow": 6598,
      "ɹæŋkɪŋ": 6599,
      "kɑmpəl": 6600,
      "pɪɹiədz": 6601,
      "fɹajd": 6602,
      "bɑz": 6603,
      "mæθju": 6604,
      "wɛdɪŋ": 6605,
      "æɡ": 6606,
      "ɪkstɛnt": 6607,
      "wejn": 6608,
      "ɹinə": 6609,
      "pɑɹtɪsəpejt": 6610,
      "ɪmpɑsəbəl": 6611,
      "pojntəd": 6612,
      "ɪnstəns": 6613,
      "kwɑnt": 6614,
      "bɛnəfɪt": 6615,
      "170": 6616,
      "sikɪŋ": 6617,
      "kəmpæn": 6618,
      "wil": 6619,
      "kɹuzɹz": 6620,
      "3di": 6621,
      "ɪnstɹəmɛntəl": 6622,
      "##su": 6623,
      "##təmɔɹ": 6624,
      "bɔltəmɔɹ": 6625,
      "tejlz": 6626,
      "lɪt": 6627,
      "dʒɛɹi": 6628,
      "mɪnt": 6629,
      "tɛknik": 6630,
      "ɛɹiəl": 6631,
      "æntɪsəp": 6632,
      "dɛpjəti": 6633,
      "spɛsəmənz": 6634,
      "##jəlejt": 6635,
      "stɛf": 6636,
      "wæɡ": 6637,
      "ɹajs": 6638,
      "ɪnskɹ": 6639,
      "sʌləvən": 6640,
      "##20": 6641,
      "pɹɪm": 6642,
      "##kwɛst": 6643,
      "ɡɑ": 6644,
      "stɹɪp": 6645,
      "kɑnsɹts": 6646,
      "fɪfti": 6647,
      "lowkəmowt": 6648,
      "##owbi": 6649,
      "##əskɹ": 6650,
      "mænh": 6651,
      "ɪɡzæmən": 6652,
      "ajdil": 6653,
      "dəl": 6654,
      "ɹɛzədənt": 6655,
      "hʌnt": 6656,
      "tɹb": 6657,
      "ætətud": 6658,
      "ajəw": 6659,
      "ɹɛɹli": 6660,
      "ʃowld": 6661,
      "ænə": 6662,
      "15tiejtʃ": 6663,
      "najs": 6664,
      "vɑɹ": 6665,
      "ɑkjəpejʃən": 6666,
      "əmɛndmənt": 6667,
      "lækt": 6668,
      "##ɪlɪŋ": 6669,
      "iɡəl": 6670,
      "kɹiejtɹ": 6671,
      "ɪnhɛɹ": 6672,
      "nuzpejpɹz": 6673,
      "kɹajst": 6674,
      "ɪnhæbət": 6675,
      "pɹsp": 6676,
      "mɛɡ": 6677,
      "kəntɹɪb": 6678,
      "spɛndɪŋ": 6679,
      "dajæmətɹ": 6680,
      "hɛɹɪs": 6681,
      "fənæli": 6682,
      "##æmɹ": 6683,
      "dʌsn": 6684,
      "hæt": 6685,
      "əpɡɹejdəd": 6686,
      "pæm": 6687,
      "pɹis": 6688,
      "ɑɹməmənt": 6689,
      "wɪθdɹu": 6690,
      "##dəl": 6691,
      "mɛtɹəpɑlətən": 6692,
      "kɹæft": 6693,
      "dɹɛktɹz": 6694,
      "bæθ": 6695,
      "tajɹ": 6696,
      "ɪnkawntɹd": 6697,
      "vojədʒ": 6698,
      "##θə": 6699,
      "pɹmɪʃən": 6700,
      "kʌvɹz": 6701,
      "dʒojnɪŋ": 6702,
      "kin": 6703,
      "ælkəhɑl": 6704,
      "pawndz": 6705,
      "dɪsəɡ": 6706,
      "dajət": 6707,
      "læŋk": 6708,
      "ɡɪb": 6709,
      "ɛksəbɪʃən": 6710,
      "ɹəs": 6711,
      "##kɑɹ": 6712,
      "swɪft": 6713,
      "1928": 6714,
      "mɑɹiow": 6715,
      "bejt": 6716,
      "dɪfəkəltiz": 6717,
      "ɔstən": 6718,
      "##zəl": 6719,
      "tʃejndʒɪŋ": 6720,
      "pɑləsiz": 6721,
      "sʌmɹsɛt": 6722,
      "ɹejts": 6723,
      "10tiejtʃ": 6724,
      "mɪsɪs": 6725,
      "tɹit": 6726,
      "##ejkɪŋ": 6727,
      "lɛdʒəslejtʃɹ": 6728,
      "##bænd": 6729,
      "lowəst": 6730,
      "kɹk": 6731,
      "lim": 6732,
      "pɑɹʃəli": 6733,
      "kənkɹ": 6734,
      "mæŋ": 6735,
      "##æsəl": 6736,
      "əpɹiʃi": 6737,
      "pɹspɛktɪv": 6738,
      "tɹəts": 6739,
      "##æsk": 6740,
      "tɑk": 6741,
      "stɹɪŋ": 6742,
      "1925": 6743,
      "bowlɪŋ": 6744,
      "##fək": 6745,
      "ædvajs": 6746,
      "skɛdʒʊl": 6747,
      "mæθəmæt": 6748,
      "pk": 6749,
      "flawɹ": 6750,
      "mɹtʃənt": 6751,
      "##ajdɪŋ": 6752,
      "bɑmɹz": 6753,
      "hɛlɪkɑp": 6754,
      "majæmi": 6755,
      "##ejzɪŋ": 6756,
      "kwaj": 6757,
      "pajləts": 6758,
      "pʌt": 6759,
      "æŋɡlow": 6760,
      "mɪt": 6761,
      "fɛdɹejʃən": 6762,
      "ɡɪlbɹt": 6763,
      "ədʒejsənt": 6764,
      "juɛs": 6765,
      "kænt": 6766,
      "sɪməl": 6767,
      "##mənz": 6768,
      "flæŋk": 6769,
      "sits": 6770,
      "sɛktɹ": 6771,
      "ɹəfɹz": 6772,
      "hændəd": 6773,
      "wejvz": 6774,
      "##əbaj": 6775,
      "siætəl": 6776,
      "##əθən": 6777,
      "##ʌktɪŋ": 6778,
      "sajnz": 6779,
      "dʊɹ": 6780,
      "titʃɹ": 6781,
      "plʌs": 6782,
      "##unə": 6783,
      "ɡɑɹdənz": 6784,
      "dʌk": 6785,
      "ɡowst": 6786,
      "9tiejtʃ": 6787,
      "dɪspɹ": 6788,
      "##mɛn": 6789,
      "##owsə": 6790,
      "##ɛntʃənz": 6791,
      "##lid": 6792,
      "dɛləɡ": 6793,
      "##owtow": 6794,
      "dɪlɪv": 6795,
      "fəlɑsəfi": 6796,
      "mɑk": 6797,
      "plejnz": 6798,
      "kɑmɛnts": 6799,
      "1924": 6800,
      "pɪtʃt": 6801,
      "kɹɪtɪsajzd": 6802,
      "juɛsej": 6803,
      "ʃejks": 6804,
      "##mɑnt": 6805,
      "##səlut": 6806,
      "ajəwə": 6807,
      "faw": 6808,
      "sowldʒɹ": 6809,
      "fjun": 6810,
      "nɑtsi": 6811,
      "məz": 6812,
      "tɑd": 6813,
      "æləbæmə": 6814,
      "pɹɪti": 6815,
      "1920ɛs": 6816,
      "##ɪpʃənz": 6817,
      "ɔstɹejljənz": 6818,
      "əfɛɹ": 6819,
      "##jəmənts": 6820,
      "dɪstɹojɹz": 6821,
      "##dʒɪŋ": 6822,
      "pɹɑmptəd": 6823,
      "sojl": 6824,
      "dʒɑni": 6825,
      "mɪnəməm": 6826,
      "mɑŋɡ": 6827,
      "ɡæm": 6828,
      "ɹimuv": 6829,
      "ælt": 6830,
      "pækɪstæn": 6831,
      "mɛdəsən": 6832,
      "##kɹit": 6833,
      "bejsəz": 6834,
      "ænəl": 6835,
      "wɔkɹ": 6836,
      "mɛɹət": 6837,
      "hɔŋ": 6838,
      "pɹɪsɪp": 6839,
      "kɹɪbiən": 6840,
      "ɡɹæv": 6841,
      "pɑɹs": 6842,
      "pawɹd": 6843,
      "dʒɪmi": 6844,
      "hæbətæt": 6845,
      "kəm2": 6846,
      "ɛksk": 6847,
      "ɑt": 6848,
      "ɪndid": 6849,
      "ɑɹmɹd": 6850,
      "fɔɹsɪŋ": 6851,
      "dɪspjut": 6852,
      "tʃɑɹtɹ": 6853,
      "ɹɪbɛljən": 6854,
      "07": 6855,
      "##ɑmb": 6856,
      "wɪlst": 6857,
      "##ætɹd": 6858,
      "ɹejndʒɪŋ": 6859,
      "14tiejtʃ": 6860,
      "mænjəskɹ": 6861,
      "ɹɛfjudʒ": 6862,
      "nəpowli": 6863,
      "æsk": 6864,
      "titʃɪŋ": 6865,
      "dɛzəɡnejʃən": 6866,
      "dʒɛt": 6867,
      "pejntɪŋz": 6868,
      "##ɔɹiəs": 6869,
      "##ɛnsəz": 6870,
      "##kowp": 6871,
      "kɑpi": 6872,
      "sætəlajt": 6873,
      "1923": 6874,
      "væljuz": 6875,
      "dk": 6876,
      "ælfɹ": 6877,
      "##ədɪʃənz": 6878,
      "pɹowtæɡənəst": 6879,
      "##mow": 6880,
      "ɛksploj": 6881,
      "##ɑlədʒɪst": 6882,
      "mɑɹɡɹ": 6883,
      "pəzɛʃən": 6884,
      "sɹvajvɹz": 6885,
      "kʌvɹɪŋ": 6886,
      "əpojntmənt": 6887,
      "æθlɛtɪk": 6888,
      "##kɪnz": 6889,
      "ɛmi": 6890,
      "ɹɛstɹɑnt": 6891,
      "dɪlən": 6892,
      "##ədɑks": 6893,
      "flɛm": 6894,
      "ɹawndz": 6895,
      "əpɹuvəl": 6896,
      "##ʌmpʃən": 6897,
      "mɑɹkətɪŋ": 6898,
      "tʃɛl": 6899,
      "tɹænzɪʃən": 6900,
      "kəlæbɹejʃən": 6901,
      "dʒæm": 6902,
      "##ɪsp": 6903,
      "dɪpɛndɪŋ": 6904,
      "##boj": 6905,
      "kɹɪstəfɹ": 6906,
      "hejlow": 6907,
      "##juʒən": 6908,
      "##əmɛntejʃən": 6909,
      "kændədejts": 6910,
      "ʌndɹstændɪŋ": 6911,
      "bɛndʒ": 6912,
      "ɹɛzɹ": 6913,
      "kæntɹ": 6914,
      "powəmz": 6915,
      "kəmjunəkejʃən": 6916,
      "bʌtɹ": 6917,
      "##θən": 6918,
      "bajpæs": 6919,
      "ɪndəkejt": 6920,
      "ɪntɛntʃən": 6921,
      "##ɪŋkʃən": 6922,
      "dɑlɹz": 6923,
      "vɪktɹiz": 6924,
      "##ejzi": 6925,
      "pɑst": 6926,
      "ml": 6927,
      "##ɪtsɹ": 6928,
      "sɪtʃuejtɪd": 6929,
      "bownəs": 6930,
      "##ɛnst": 6931,
      "dɪsplejd": 6932,
      "ɡæp": 6933,
      "##ɛɡɹ": 6934,
      "mɑɹz": 6935,
      "hjumæn": 6936,
      "##ɪkʌltʃɹ": 6937,
      "##ɪnəs": 6938,
      "##əkejt": 6939,
      "mɪnəməl": 6940,
      "bətæljənz": 6941,
      "wejd": 6942,
      "lajm": 6943,
      "sɪv": 6944,
      "vɪlədʒəz": 6945,
      "ɑksədʒən": 6946,
      "əlajv": 6947,
      "ɹʌɡbi": 6948,
      "nɹs": 6949,
      "bæpt": 6950,
      "lɛdʒəslejtɪv": 6951,
      "lʌvɹ": 6952,
      "##owə": 6953,
      "fɹæŋ": 6954,
      "kɑk": 6955,
      "sil": 6956,
      "bɛldʒəm": 6957,
      "dɪɡɹiz": 6958,
      "##ndʒəl": 6959,
      "klowzɪŋ": 6960,
      "əsɪstəd": 6961,
      "klin": 6962,
      "##aji": 6963,
      "##ɛnz": 6964,
      "hɛndɹ": 6965,
      "sɪnd": 6966,
      "fɔɹəsts": 6967,
      "diejɡow": 6968,
      "æsks": 6969,
      "vajələnt": 6970,
      "əɡɹɛsɪv": 6971,
      "sɔftwɛɹ": 6972,
      "##ɛbɹ": 6973,
      "əmʌŋst": 6974,
      "hɛlpɪŋ": 6975,
      "dænsɪŋ": 6976,
      "fjunɹəl": 6977,
      "ɹɪstɔɹ": 6978,
      "plejɔfs": 6979,
      "mɪni": 6980,
      "tɛlɪŋ": 6981,
      "kɑləniz": 6982,
      "sɪmptəmz": 6983,
      "pɑɹtnɹʃɪp": 6984,
      "hʌb": 6985,
      "##sɪd": 6986,
      "##tɹə": 6987,
      "tub": 6988,
      "æktəd": 6989,
      "ɹajdɹz": 6990,
      "ɪlɪmənejtəd": 6991,
      "##əwej": 6992,
      "hjum": 6993,
      "klɑk": 6994,
      "səpowzd": 6995,
      "##ftajm": 6996,
      "ʃɛ": 6997,
      "pɹpəsəz": 6998,
      "pɛl": 6999,
      "01": 7000,
      "##ɪŋkt": 7001,
      "dɹajvɹz": 7002,
      "##ʒɹi": 7003,
      "pʊʃ": 7004,
      "##ɪmɹ": 7005,
      "bɪhejvi": 7006,
      "tɪk": 7007,
      "##ɪstənt": 7008,
      "sɹkəmst": 7009,
      "wajɹ": 7010,
      "ɹɪpɛɹz": 7011,
      "tɪs": 7012,
      "ɹejm": 7013,
      "fənæns": 7014,
      "blajnd": 7015,
      "ɹɪlaj": 7016,
      "dʒuli": 7017,
      "əkejʒənz": 7018,
      "æbsəlut": 7019,
      "kɑmpəlejʃən": 7020,
      "sən": 7021,
      "##tədʒ": 7022,
      "æmf": 7023,
      "ɹud": 7024,
      "##jutɪŋ": 7025,
      "##utəd": 7026,
      "kənkɹit": 7027,
      "1908": 7028,
      "tej": 7029,
      "lojəl": 7030,
      "əbzɹv": 7031,
      "mɪnɪsowtə": 7032,
      "##ɛpɹd": 7033,
      "1909": 7034,
      "ɪnlænd": 7035,
      "1905": 7036,
      "ədmɪnəstɹejtɪv": 7037,
      "hɑm": 7038,
      "viɛtnɑmis": 7039,
      "ɹikɑnəsəns": 7040,
      "kəs": 7041,
      "##sti": 7042,
      "##ɛpts": 7043,
      "fɹæŋklɪn": 7044,
      "##fɔɹst": 7045,
      "lɪsts": 7046,
      "swɪtʃ": 7047,
      "pʌblɪkli": 7048,
      "11tiejtʃ": 7049,
      "pɹəzɹvd": 7050,
      "ɡɹæmi": 7051,
      "pɹɛpɹejʃən": 7052,
      "bɛndʒəmən": 7053,
      "105": 7054,
      "nɑɹ": 7055,
      "##ɛntɪd": 7056,
      "21stɹit": 7057,
      "mɛntəl": 7058,
      "owvɹsiz": 7059,
      "əbɪlətiz": 7060,
      "ɑɹtəkəlz": 7061,
      "bɪznəsəz": 7062,
      "mɪtʃəl": 7063,
      "mʌŋ": 7064,
      "vojst": 7065,
      "kɑnsowl": 7066,
      "125": 7067,
      "ɔɹn": 7068,
      "hajwejz": 7069,
      "dɪfitɪŋ": 7070,
      "##ɑtən": 7071,
      "ɪlnəs": 7072,
      "lɪkw": 7073,
      "mænhætən": 7074,
      "##əbjuʃənz": 7075,
      "fin": 7076,
      "tejst": 7077,
      "ɪlæbɹ": 7078,
      "ɹowzəv": 7079,
      "##ɪbi": 7080,
      "ətɛndəns": 7081,
      "dɑlɹ": 7082,
      "ɹɪzumd": 7083,
      "ɹowzəvɛlt": 7084,
      "##awnst": 7085,
      "kəmjunəkejʃənz": 7086,
      "ɹɛzədəns": 7087,
      "##ələs": 7088,
      "kəmpitɪd": 7089,
      "bɪlivɪŋ": 7090,
      "ɪntɛnsəfajd": 7091,
      "kown": 7092,
      "ɹp": 7093,
      "əsɛs": 7094,
      "kænzəs": 7095,
      "ejndʒəl": 7096,
      "dɔn": 7097,
      "flajts": 7098,
      "##jənɪʃən": 7099,
      "æmjənɪʃən": 7100,
      "03": 7101,
      "sætəsf": 7102,
      "klæn": 7103,
      "##ɑɹts": 7104,
      "əlajnmənt": 7105,
      "##piɹ": 7106,
      "θɪŋkɪŋ": 7107,
      "##ɪfɹ": 7108,
      "##liz": 7109,
      "ɛlən": 7110,
      "ɑɹtʃb": 7111,
      "04": 7112,
      "164": 7113,
      "kawntiz": 7114,
      "sʌŋk": 7115,
      "fɛ": 7116,
      "##ajtəs": 7117,
      "sɪɹ": 7118,
      "ʌŋkəl": 7119,
      "ɛɹbɔɹn": 7120,
      "bækɪŋ": 7121,
      "ʃʊɡɹ": 7122,
      "##əɡejtɪd": 7123,
      "stɹejndʒ": 7124,
      "sajnɪŋ": 7125,
      "dɪlɪvɹ": 7126,
      "stætʃ": 7127,
      "1907": 7128,
      "hæpən": 7129,
      "fɔlən": 7130,
      "sʌbdʒɪkts": 7131,
      "dɪlɪbɹ": 7132,
      "##ajsəz": 7133,
      "əpownənt": 7134,
      "stɹətidʒɪk": 7135,
      "nowbəl": 7136,
      "##ɪkənz": 7137,
      "wɔkɪŋ": 7138,
      "əsɪsts": 7139,
      "##mɪk": 7140,
      "##ætʃmənt": 7141,
      "##ʌptɪd": 7142,
      "bjʊɹow": 7143,
      "wejtɪŋ": 7144,
      "sɑft": 7145,
      "fʌni": 7146,
      "ɪmb": 7147,
      "məkɑɹt": 7148,
      "##jow": 7149,
      "stɛps": 7150,
      "ɑdiənsəz": 7151,
      "dɪstɪŋktɪv": 7152,
      "pju": 7153,
      "juʒəwəl": 7154,
      "bæɡ": 7155,
      "dɑkjəmənts": 7156,
      "ɛθnɪk": 7157,
      "##ɛsk": 7158,
      "kɑnɹ": 7159,
      "ɔltɹnət": 7160,
      "sutəbəl": 7161,
      "pɹk": 7162,
      "pɔɹtlənd": 7163,
      "əw": 7164,
      "ɪnkw": 7165,
      "##æpɪŋ": 7166,
      "pɹəvɪn": 7167,
      "ɪntɹəstɪŋ": 7168,
      "fɪləpinz": 7169,
      "kɑɹɡow": 7170,
      "##ɑst": 7171,
      "##tw": 7172,
      "bʌn": 7173,
      "mejt": 7174,
      "ɛndʒənɪɹz": 7175,
      "##ɑlɪk": 7176,
      "kənst": 7177,
      "kæptɪv": 7178,
      "ʌzd": 7179,
      "165": 7180,
      "kɑntɛkst": 7181,
      "filɪŋz": 7182,
      "ətɑmɪk": 7183,
      "##umən": 7184,
      "dʒəm": 7185,
      "ænajm": 7186,
      "ɹɪpɛɹ": 7187,
      "pikɪŋ": 7188,
      "##əmɪljɹ": 7189,
      "##ɪʃmənt": 7190,
      "bɹɪk": 7191,
      "wʊdz": 7192,
      "##ɛntədʒ": 7193,
      "mɪsɪsɪpi": 7194,
      "dɪpɑɹt": 7195,
      "səbmɪtəd": 7196,
      "##ɪndɹ": 7197,
      "pɹsɛntədʒ": 7198,
      "kəmplitɪŋ": 7199,
      "##ɔθ": 7200,
      "ɑɹɡjəmənt": 7201,
      "kɑɹtun": 7202,
      "fʌŋkʃənz": 7203,
      "##æmɪk": 7204,
      "wɪlɪŋ": 7205,
      "kæpɪtəl": 7206,
      "nɹv": 7207,
      "tʃɛɹɪti": 7208,
      "bɪhæf": 7209,
      "fæstɹ": 7210,
      "ɡʌst": 7211,
      "ownɹʃɪp": 7212,
      "fæt": 7213,
      "##mejt": 7214,
      "næʃ": 7215,
      "æskɪŋ": 7216,
      "##ɹənz": 7217,
      "dʒɛfɹi": 7218,
      "##ʊl": 7219,
      "pʌbləkejʃənz": 7220,
      "ɔɹɡənɪzejʃən": 7221,
      "dɪsɔɹd": 7222,
      "##ɪfts": 7223,
      "ɔtəbaj": 7224,
      "tɹajbz": 7225,
      "məkdɑnəld": 7226,
      "##hɛlm": 7227,
      "ɪvɑlvd": 7228,
      "##lændz": 7229,
      "##ɑlv": 7230,
      "##ɑsə": 7231,
      "ɑɹtɪstɪk": 7232,
      "ɹitejl": 7233,
      "wɛlkəm": 7234,
      "kɹɑnəkəl": 7235,
      "tɹup": 7236,
      "pɹɪnsəp": 7237,
      "tʃɪli": 7238,
      "blow": 7239,
      "ɪksplowʒən": 7240,
      "tɑɹɡəts": 7241,
      "##stajl": 7242,
      "pɹɪnt": 7243,
      "mɑɹɡɹɪt": 7244,
      "bɹɛst": 7245,
      "##ejdɪŋ": 7246,
      "ɡɑɹdz": 7247,
      "mənu": 7248,
      "sɪnəmə": 7249,
      "pɹuv": 7250,
      "wɔɹən": 7251,
      "ɹɛdʒəstɹd": 7252,
      "ɹɪmɑɹk": 7253,
      "##ojdz": 7254,
      "##ajmz": 7255,
      "tɛnəsi": 7256,
      "sɪɡ": 7257,
      "kənsi": 7258,
      "səspɛndəd": 7259,
      "stɪk": 7260,
      "##idɪd": 7261,
      "bɹows": 7262,
      "əfɪli": 7263,
      "ʌm": 7264,
      "ɹɛvənu": 7265,
      "klɔz": 7266,
      "lajkt": 7267,
      "dɪlej": 7268,
      "##ʌbz": 7269,
      "ɹɪlʌkt": 7270,
      "muviz": 7271,
      "pɹɑmpt": 7272,
      "klɛm": 7273,
      "bjuti": 7274,
      "məkm": 7275,
      "kʌts": 7276,
      "səvɪljən": 7277,
      "##ɔfski": 7278,
      "pʊɹli": 7279,
      "hʌm": 7280,
      "##ələm": 7281,
      "hɛdɪŋ": 7282,
      "ɡɪɹ": 7283,
      "kibɔɹd": 7284,
      "klej": 7285,
      "kæmbəl": 7286,
      "fɹɪɡ": 7287,
      "##əɡɹæfɪkəl": 7288,
      "nɪkələs": 7289,
      "ɡɪlti": 7290,
      "ɪdʒɪpʃən": 7291,
      "stɛɹ": 7292,
      "pɹəvɪnʃəl": 7293,
      "##dɪkʃən": 7294,
      "ɹɪplejsɪŋ": 7295,
      "##ɑtʃ": 7296,
      "ʃɛlz": 7297,
      "ejmd": 7298,
      "ɑɹmiz": 7299,
      "##ækɹ": 7300,
      "wɹs": 7301,
      "##əndɹ": 7302,
      "##ɑmp": 7303,
      "stɔɹz": 7304,
      "ɹɪvowlt": 7305,
      "mɛʒɹd": 7306,
      "ɔfɹɪŋ": 7307,
      "##ɪh": 7308,
      "bawndɹi": 7309,
      "##fɪʃ": 7310,
      "sɪɡnəl": 7311,
      "klɪɹli": 7312,
      "luiziænə": 7313,
      "##ʃɹz": 7314,
      "ɪkspɛnsɪv": 7315,
      "##ɪɡz": 7316,
      "ɑbviəs": 7317,
      "sɹkəmstæns": 7318,
      "tɛmpɹɛɹəli": 7319,
      "fajld": 7320,
      "flɛd": 7321,
      "dɑkjəmɛnt": 7322,
      "pɹipɛɹ": 7323,
      "##əbɛk": 7324,
      "360": 7325,
      "ɛmbɹ": 7326,
      "dʒənɛtɪk": 7327,
      "##kɑk": 7328,
      "səluʃən": 7329,
      "sɑvɹ": 7330,
      "sajməltejniəsli": 7331,
      "nojz": 7332,
      "sʌfɹ": 7333,
      "ʃɪpɪŋ": 7334,
      "θiɹ": 7335,
      "stɔɹədʒ": 7336,
      "vʌlnɹ": 7337,
      "sikwənsəz": 7338,
      "##nənts": 7339,
      "spɑns": 7340,
      "wɹʃ": 7341,
      "pɪɡ": 7342,
      "ɛnɡejdʒmənt": 7343,
      "æɡɹɪkʌltʃɹ": 7344,
      "tɹejsi": 7345,
      "ɛdi": 7346,
      "ɹɛmnənts": 7347,
      "hɛlən": 7348,
      "1906": 7349,
      "lændskejp": 7350,
      "ənk": 7351,
      "fu": 7352,
      "##kɔɹ": 7353,
      "majnɪŋ": 7354,
      "ɹɛpɹəzɛnts": 7355,
      "ɑpʃən": 7356,
      "##mɪθ": 7357,
      "##æskɹ": 7358,
      "fejvɹd": 7359,
      "powlɹ": 7360,
      "duəl": 7361,
      "ɹidɹz": 7362,
      "##ajbd": 7363,
      "1904": 7364,
      "bɹθdej": 7365,
      "ejviejʃən": 7366,
      "θɔɹ": 7367,
      "##ɑnəməs": 7368,
      "wɑnts": 7369,
      "##ɪpts": 7370,
      "ɹɪwɔɹd": 7371,
      "kʌvɹədʒ": 7372,
      "kənspɪɹ": 7373,
      "sʌbɹ": 7374,
      "##tɹiɔl": 7375,
      "ʌndɹst": 7376,
      "ɪkstɹn": 7377,
      "mʌntɹiɔl": 7378,
      "sejvd": 7379,
      "məzʊɹi": 7380,
      "kɔɹəl": 7381,
      "ɹowdi": 7382,
      "pætɹnz": 7383,
      "blɑks": 7384,
      "pɹəvɪʒən": 7385,
      "##ɛpʃənz": 7386,
      "məθ": 7387,
      "hæmɹ": 7388,
      "ɪɡzæ": 7389,
      "əmɪd": 7390,
      "səlɛbɹ": 7391,
      "kəmpɛɹəsən": 7392,
      "dikəm": 7393,
      "sɹdʒɹi": 7394,
      "##ʌls": 7395,
      "əsajd": 7396,
      "##ejtən": 7397,
      "mɑnəst": 7398,
      "##iɹz": 7399,
      "səɡdʒɛstɪŋ": 7400,
      "ɡæləks": 7401,
      "ɪnstɪtuʃənz": 7402,
      "θɹtin": 7403,
      "θiætɹ": 7404,
      "ejmi": 7405,
      "##ɪŋɹ": 7406,
      "kɑmpət": 7407,
      "bɪɹ": 7408,
      "pojzən": 7409,
      "ɡejts": 7410,
      "mætɹz": 7411,
      "##ænsən": 7412,
      "ɹəflɛktəd": 7413,
      "wɑzn": 7414,
      "tejp": 7415,
      "sæŋ": 7416,
      "skɛl": 7417,
      "spajdɹ": 7418,
      "majnz": 7419,
      "pɹæktəsəz": 7420,
      "ɹibɪlt": 7421,
      "spɑtəd": 7422,
      "##əmɛntəd": 7423,
      "kɑpɹ": 7424,
      "##ətɔɹiəl": 7425,
      "ɪnstɪtuʃən": 7426,
      "tʃæ": 7427,
      "num": 7428,
      "##ɑdɪk": 7429,
      "daw": 7430,
      "##owdz": 7431,
      "fɹðɹmɔɹ": 7432,
      "pʊld": 7433,
      "sʌt": 7434,
      "wɛlθi": 7435,
      "powlz": 7436,
      "lɹ": 7437,
      "##lits": 7438,
      "bædli": 7439,
      "dɪstɹojɹ": 7440,
      "##ɑkɹəsi": 7441,
      "æŋk": 7442,
      "dɑɡz": 7443,
      "ɪnθuzi": 7444,
      "ətɹækt": 7445,
      "dʒejkəb": 7446,
      "ɛsp": 7447,
      "fɹid": 7448,
      "lɛsɹ": 7449,
      "fæstəst": 7450,
      "sæmpəl": 7451,
      "vɹd": 7452,
      "dɹowv": 7453,
      "ɪskejpt": 7454,
      "ɹæŋks": 7455,
      "sʌbspi": 7456,
      "##ɑnsən": 7457,
      "kjubə": 7458,
      "ɡɹejəm": 7459,
      "ɛkw": 7460,
      "lɛsli": 7461,
      "ɹə": 7462,
      "##əfajs": 7463,
      "əmawnts": 7464,
      "hʌntɹ": 7465,
      "ælfɹəd": 7466,
      "##ði": 7467,
      "##juəli": 7468,
      "115": 7469,
      "spɪɹɪtʃəwəl": 7470,
      "dɹʌɡz": 7471,
      "wajdɹ": 7472,
      "dʒɑbz": 7473,
      "sʌbspiʃiz": 7474,
      "kɑntɹəbjuʃənz": 7475,
      "ɹnɪŋ": 7476,
      "##haw": 7477,
      "ɪksklud": 7478,
      "kʌmfɹt": 7479,
      "dɪsajdz": 7480,
      "ɔlmjuzɪk": 7481,
      "æpləkejʃən": 7482,
      "kɛ": 7483,
      "ajdɛntəfaj": 7484,
      "slejvz": 7485,
      "##lajf": 7486,
      "##ælju": 7487,
      "kənfɛdɹət": 7488,
      "##ɹimz": 7489,
      "ɑɹɡjuz": 7490,
      "stivənz": 7491,
      "pɔɹʃənz": 7492,
      "əlɛdʒd": 7493,
      "sʌpl": 7494,
      "æbk": 7495,
      "ɑɹb": 7496,
      "flæɡʃɪp": 7497,
      "pɛɹənt": 7498,
      "mowl": 7499,
      "##ʌktɹ": 7500,
      "kəntɹowlz": 7501,
      "səvɪɹli": 7502,
      "vɹtɪkəl": 7503,
      "ɹæl": 7504,
      "tɹækt": 7505,
      "skwɑdɹənz": 7506,
      "ɛnfɔɹs": 7507,
      "ɪndiz": 7508,
      "dɪploj": 7509,
      "tul": 7510,
      "məkɑɹtni": 7511,
      "sʌmət": 7512,
      "ɪkspɹɛʃən": 7513,
      "stɹajkɪŋ": 7514,
      "stɑɹɪŋ": 7515,
      "pɹowfajl": 7516,
      "mjuzɪʃən": 7517,
      "pɹɪntəd": 7518,
      "##fɑðɹ": 7519,
      "ɹəkɹut": 7520,
      "æmbæs": 7521,
      "##vɪs": 7522,
      "mejnlænd": 7523,
      "ɪnhæbətənts": 7524,
      "dæl": 7525,
      "pɹʒən": 7526,
      "##ɪzownə": 7527,
      "##ajətiz": 7528,
      "pɹən": 7529,
      "##əkow": 7530,
      "ɹɪðəm": 7531,
      "ɪntəl": 7532,
      "ɡɪtɑɹəst": 7533,
      "ɛɹɪzownə": 7534,
      "dʒʊɹi": 7535,
      "##ɪtejʃənz": 7536,
      "dɹɛd": 7537,
      "bɑbi": 7538,
      "sætɹdi": 7539,
      "ɹistɹɪktəd": 7540,
      "mʌʃɹ": 7541,
      "kɛɹəktɹajzd": 7542,
      "##ʃɛd": 7543,
      "pɹowh": 7544,
      "sɛnsəs": 7545,
      "dejm": 7546,
      "tɹejs": 7547,
      "##əmajz": 7548,
      "##æntən": 7549,
      "kɹim": 7550,
      "ɡɑθ": 7551,
      "ɹɑdʒɹz": 7552,
      "tæməl": 7553,
      "kəmɛmɹ": 7554,
      "##ɪtɪŋ": 7555,
      "##lajt": 7556,
      "173": 7557,
      "vɪzətɪŋ": 7558,
      "sɪtɪŋ": 7559,
      "dʌst": 7560,
      "ɹejnz": 7561,
      "##æpst": 7562,
      "ɪnstɔl": 7563,
      "kəmændɪŋ": 7564,
      "plænəts": 7565,
      "ɛksələnt": 7566,
      "ɛnv": 7567,
      "lɪbɹti": 7568,
      "##səm": 7569,
      "bɹɛd": 7570,
      "spɛnd": 7571,
      "pɹowtin": 7572,
      "##nəst": 7573,
      "101": 7574,
      "bɹnz": 7575,
      "ɹɪfɔɹm": 7576,
      "hɑɹvi": 7577,
      "ɑbzɹvejʃənz": 7578,
      "tɹɪb": 7579,
      "lajts": 7580,
      "mitɪŋz": 7581,
      "lukəs": 7582,
      "##juts": 7583,
      "mɪʃɛl": 7584,
      "ɪksplejn": 7585,
      "ʌltəmət": 7586,
      "##æɡz": 7587,
      "ɪksplejnz": 7588,
      "bɑmɪŋ": 7589,
      "æθlits": 7590,
      "pejm": 7591,
      "dɛfənɪʃən": 7592,
      "dɪsɛnt": 7593,
      "ɹɪmɛmbɹ": 7594,
      "ɔɹθ": 7595,
      "ətejnd": 7596,
      "kæɹiɹz": 7597,
      "dɑmənənt": 7598,
      "dɛmənstɹejtəd": 7599,
      "hɪdən": 7600,
      "wɪkət": 7601,
      "##hɑm": 7602,
      "ɹiow": 7603,
      "ɪliɡəl": 7604,
      "kf": 7605,
      "plut": 7606,
      "klæʃ": 7607,
      "læd": 7608,
      "ɹaw": 7609,
      "pɑɹləmɛntɹi": 7610,
      "væst": 7611,
      "pæʃən": 7612,
      "kowm": 7613,
      "ɛdʒəkejʃənəl": 7614,
      "pɑnd": 7615,
      "ɹajdɹ": 7616,
      "tɹət": 7617,
      "##plejs": 7618,
      "fawndɪŋ": 7619,
      "bɹɔdwej": 7620,
      "sɪmfəni": 7621,
      "mɑt": 7622,
      "bajɑɡɹəfi": 7623,
      "mɹfi": 7624,
      "ɔstɹiən": 7625,
      "jild": 7626,
      "əkust": 7627,
      "nejbɹɪŋ": 7628,
      "sowni": 7629,
      "sɹp": 7630,
      "ɪlɛktɹɑn": 7631,
      "ɹɪvajvəl": 7632,
      "8tiejtʃ": 7633,
      "bim": 7634,
      "ɹəfɹ": 7635,
      "bɛntʃ": 7636,
      "nɔɹθwɹd": 7637,
      "##ɑlədʒɪsts": 7638,
      "mɪsɪz": 7639,
      "ɑɹkətɛkt": 7640,
      "hɑlədej": 7641,
      "wɑts": 7642,
      "ɹikow": 7643,
      "stɹɪkt": 7644,
      "lejks": 7645,
      "ɑɹtwɹk": 7646,
      "pit": 7647,
      "##ɛndɹz": 7648,
      "ənh": 7649,
      "kɑnstətuʃənəl": 7650,
      "pɹɪdɪktɪd": 7651,
      "tɔkɪŋ": 7652,
      "kɪt": 7653,
      "##ejdɹ": 7654,
      "əbʌnd": 7655,
      "duow": 7656,
      "174": 7657,
      "tɹænzət": 7658,
      "mɔɹɪsən": 7659,
      "##əstɹz": 7660,
      "##ɑsi": 7661,
      "ɪɹɑk": 7662,
      "##owvə": 7663,
      "ɪkspɛɹəmɛntəl": 7664,
      "lɛk": 7665,
      "##mɑ": 7666,
      "##sənt": 7667,
      "stɹn": 7668,
      "dajvɹs": 7669,
      "swɪtsɹ": 7670,
      "pɑtɹ": 7671,
      "bɛɹɪŋ": 7672,
      "##əmown": 7673,
      "ɹitʃəz": 7674,
      "bætʃ": 7675,
      "lɪft": 7676,
      "kɑnʃəs": 7677,
      "1901": 7678,
      "##əhowmə": 7679,
      "ʃɔ": 7680,
      "tɹʌk": 7681,
      "mæst": 7682,
      "pænəl": 7683,
      "wɛstwɹd": 7684,
      "dɛləwɛɹ": 7685,
      "bɪhejviɹ": 7686,
      "wɪlhɛlm": 7687,
      "kənvɹʒən": 7688,
      "bʌlk": 7689,
      "swɪtsɹlənd": 7690,
      "##ɛntəli": 7691,
      "hɹt": 7692,
      "fidɪŋ": 7693,
      "hawshowldz": 7694,
      "nɑmənejʃənz": 7695,
      "mud": 7696,
      "##ɹu": 7697,
      "əpɑɹtmənt": 7698,
      "##vju": 7699,
      "##mənəntli": 7700,
      "owkləhowmə": 7701,
      "kɔst": 7702,
      "əbjus": 7703,
      "ɪntɹm": 7704,
      "dʒɑnəθən": 7705,
      "dajvɹ": 7706,
      "bɑmz": 7707,
      "##ɹutɪd": 7708,
      "filz": 7709,
      "ɔθɹajzd": 7710,
      "vɪi": 7711,
      "pætɹ": 7712,
      "fənɑmən": 7713,
      "pɛt": 7714,
      "##dʒɪz": 7715,
      "##kɹw": 7716,
      "sɪɹiəsli": 7717,
      "##əmɛntɪd": 7718,
      "##hɔl": 7719,
      "hɑɹts": 7720,
      "əbtejn": 7721,
      "ɪɡ": 7722,
      "##iθ": 7723,
      "##əvejʃənz": 7724,
      "ɹɪpitɪdli": 7725,
      "lejnz": 7726,
      "##lɑk": 7727,
      "lɛstɹ": 7728,
      "jusfəl": 7729,
      "pɹɛdəsɛsɹ": 7730,
      "##ejni": 7731,
      "lejɹ": 7732,
      "swɪmɪŋ": 7733,
      "155": 7734,
      "kənsɪdɹɪŋ": 7735,
      "##tinθ": 7736,
      "fɔɹkæst": 7737,
      "ədm": 7738,
      "ɪsɛnʃəl": 7739,
      "nɪksən": 7740,
      "fɔɹtɹəs": 7741,
      "owlɪv": 7742,
      "kɑnsəkwəntli": 7743,
      "sɹkəmstænsəz": 7744,
      "θæŋks": 7745,
      "ɹiɹ": 7746,
      "##owniəm": 7747,
      "mɛlədi": 7748,
      "spɑn": 7749,
      "kæps": 7750,
      "pɛd": 7751,
      "æmətɹ": 7752,
      "lɪθəw": 7753,
      "ʃejkspiɹ": 7754,
      "##mowst": 7755,
      "mɑɹvəl": 7756,
      "stətɪstɪks": 7757,
      "tɑ": 7758,
      "pɹp": 7759,
      "fɪzɪks": 7760,
      "02": 7761,
      "bownz": 7762,
      "ɹidɹ": 7763,
      "fjuɹ": 7764,
      "fɹɛndʃɪp": 7765,
      "##mejniə": 7766,
      "sækɹəfajs": 7767,
      "1903": 7768,
      "pɹsivd": 7769,
      "dɪlɪvɹi": 7770,
      "lʊks": 7771,
      "##idə": 7772,
      "ɹejzɪŋ": 7773,
      "majɹ": 7774,
      "dʒɛntəl": 7775,
      "bits": 7776,
      "ɹɪf": 7777,
      "ɪzɹej": 7778,
      "lif": 7779,
      "##owkt": 7780,
      "1902": 7781,
      "##hɑ": 7782,
      "væljəbəl": 7783,
      "ɹowmæns": 7784,
      "flawɹz": 7785,
      "tun": 7786,
      "lɛks": 7787,
      "pɹowl": 7788,
      "stownz": 7789,
      "lɪstɪŋ": 7790,
      "towkiow": 7791,
      "stajn": 7792,
      "bɹejks": 7793,
      "ɪmpɹuvmənts": 7794,
      "ɹɪmɑɹkt": 7795,
      "dæni": 7796,
      "læns": 7797,
      "pejdʒəz": 7798,
      "tæktɪks": 7799,
      "ɹɪtejn": 7800,
      "dɛnmɑɹk": 7801,
      "sɑks": 7802,
      "##ʒim": 7803,
      "ɡɹɪf": 7804,
      "##ɛstɹəl": 7805,
      "junəfɔɹm": 7806,
      "ɹəʒim": 7807,
      "tawɹz": 7808,
      "əbs": 7809,
      "ɛɹən": 7810,
      "pɹsənəli": 7811,
      "pɹɑməst": 7812,
      "əklejm": 7813,
      "tɪkət": 7814,
      "θiətɹz": 7815,
      "##əstɹiz": 7816,
      "mitɹ": 7817,
      "##ətɛɹiən": 7818,
      "bætəlkɹw": 7819,
      "##kjəl": 7820,
      "##ænəst": 7821,
      "##ənɪs": 7822,
      "ɛɹlajnz": 7823,
      "ɛksəkjuʃən": 7824,
      "ɛnlɪstɪd": 7825,
      "ɛɹfild": 7826,
      "ætlæntə": 7827,
      "ɡɛɹi": 7828,
      "tɹnɹ": 7829,
      "##ɛtɹɪk": 7830,
      "zks": 7831,
      "kɪdz": 7832,
      "##ajnəl": 7833,
      "##wɛnt": 7834,
      "əfɛns": 7835,
      "lɑs": 7836,
      "##jumz": 7837,
      "dɪmændz": 7838,
      "##pɹət": 7839,
      "sɪkstin": 7840,
      "ɡɑdz": 7841,
      "ɪnkawntɹ": 7842,
      "stɹɛŋθənd": 7843,
      "ɹihænə": 7844,
      "ɹʊk": 7845,
      "tɹævəlz": 7846,
      "fɛmən": 7847,
      "##idiə": 7848,
      "kæmpejnz": 7849,
      "ɛləvejʃən": 7850,
      "##ɛktʃɹəl": 7851,
      "ɛkənɑm": 7852,
      "dʌm": 7853,
      "##nɹd": 7854,
      "##klən": 7855,
      "dɪmændəd": 7856,
      "hɑɹdi": 7857,
      "pejpɹz": 7858,
      "kɪlɹ": 7859,
      "##howl": 7860,
      "dɛklɹ": 7861,
      "ɑɹtʃbɪʃəp": 7862,
      "sɛntɹd": 7863,
      "kwɑləfajd": 7864,
      "səksɛʃən": 7865,
      "ɪləstɹejtəd": 7866,
      "dɪskənt": 7867,
      "kiθ": 7868,
      "sɑɹ": 7869,
      "##jɹi": 7870,
      "##ɔɡɹ": 7871,
      "məkænɪkəl": 7872,
      "mɛmbɹʃɪp": 7873,
      "klowðɪŋ": 7874,
      "vl": 7875,
      "ænsɹ": 7876,
      "ɹajli": 7877,
      "ɪnsɪstəd": 7878,
      "bejkɹ": 7879,
      "##əbl": 7880,
      "hɛns": 7881,
      "tʌf": 7882,
      "bɹɪlj": 7883,
      "168": 7884,
      "ɡɪld": 7885,
      "pɹowhɪb": 7886,
      "dɹɛst": 7887,
      "##ɛzənt": 7888,
      "ɪntɹpɹɪtejʃən": 7889,
      "ɛm2": 7890,
      "kɹɪstʃi": 7891,
      "ɹumɹz": 7892,
      "##ɪniən": 7893,
      "##ɑpɪk": 7894,
      "sɛtlɹz": 7895,
      "ɪlɛktɹɪsəti": 7896,
      "ɹulɪŋ": 7897,
      "kɑmpawndz": 7898,
      "kɪn": 7899,
      "##biə": 7900,
      "əkjum": 7901,
      "spɑɹt": 7902,
      "bæləd": 7903,
      "sɑnɪk": 7904,
      "##bɪn": 7905,
      "lajɪŋ": 7906,
      "ɑɹnəld": 7907,
      "pɹɑt": 7908,
      "vɪʒ": 7909,
      "stɹʌɡəld": 7910,
      "tɹɪk": 7911,
      "kæɹəl": 7912,
      "ɪntɹfɪɹ": 7913,
      "titʃ": 7914,
      "##ɛɹətiz": 7915,
      "pɹsənz": 7916,
      "mɪɹɹ": 7917,
      "hejt": 7918,
      "mɪstɹi": 7919,
      "ɪɹɛktəd": 7920,
      "dɪmɑlɪʃt": 7921,
      "ɛliət": 7922,
      "fɔɹtin": 7923,
      "ɪkstɛnd": 7924,
      "kɑmpəns": 7925,
      "stɹɔŋɹ": 7926,
      "tɹejdɪŋ": 7927,
      "hʊd": 7928,
      "mejsən": 7929,
      "ɪŋ": 7930,
      "dɪsɪʒənz": 7931,
      "##æpəlɪs": 7932,
      "##mɪŋhæm": 7933,
      "pɹɪnsəpəlz": 7934,
      "ɪnkɹisəz": 7935,
      "ɹajdɪŋ": 7936,
      "kənɡɹ": 7937,
      "bætsmən": 7938,
      "ɛdwɹdz": 7939,
      "##ænti": 7940,
      "mɛmɹ": 7941,
      "##iɛɹi": 7942,
      "sɪmpl": 7943,
      "##kæstɹ": 7944,
      "bɹmɪŋhæm": 7945,
      "ɪnsɛkts": 7946,
      "jæŋkiz": 7947,
      "finɪks": 7948,
      "##əsənt": 7949,
      "##dʒəl": 7950,
      "mɪlz": 7951,
      "ɹɪmuvəl": 7952,
      "kʌtɪŋ": 7953,
      "wejdʒ": 7954,
      "ɹɛkt": 7955,
      "ædvɹtajzɪŋ": 7956,
      "dɔtɹz": 7957,
      "vejɡ": 7958,
      "##əŋ": 7959,
      "##ejkɹz": 7960,
      "166": 7961,
      "wɔtɹʃɛd": 7962,
      "ɹejtʃ": 7963,
      "bɑɹn": 7964,
      "ɪmjun": 7965,
      "wɔɹfɛɹ": 7966,
      "əpɹowpɹiət": 7967,
      "dɪfənsɪz": 7968,
      "##ɔlz": 7969,
      "ɛɹlajn": 7970,
      "dɪtɪɹiɹ": 7971,
      "məlɛn": 7972,
      "ʃædow": 7973,
      "dɪvɛləpɹz": 7974,
      "##mætɪk": 7975,
      "##ʌndʒ": 7976,
      "ɪɡzæktli": 7977,
      "owvɹwɛl": 7978,
      "hɔk": 7979,
      "##wɔɹ": 7980,
      "kwɔɹtɹbæk": 7981,
      "##owsi": 7982,
      "dɪskʌvɹz": 7983,
      "owbɑmə": 7984,
      "##ɑnti": 7985,
      "ənkl": 7986,
      "mæɡəzinz": 7987,
      "ɔltɹd": 7988,
      "dɪfɛndɪŋ": 7989,
      "109": 7990,
      "ɹejndʒəz": 7991,
      "bɑmɹ": 7992,
      "ɹb": 7993,
      "kənfɹʌn": 7994,
      "fowld": 7995,
      "ɔtəmætɪk": 7996,
      "kɑnsəntɹejʃən": 7997,
      "kil": 7998,
      "mɹkjɹi": 7999,
      "θiætɹɪkəl": 8000,
      "##ɑld": 8001,
      "ɛmplojmənt": 8002,
      "ɪkstɹnəl": 8003,
      "tæŋ": 8004,
      "163": 8005,
      "sælv": 8006,
      "hʌdsən": 8007,
      "əpɹowtʃɪŋ": 8008,
      "lʌvd": 8009,
      "##ojst": 8010,
      "ɑɹmɔɹd": 8011,
      "mædəɡ": 8012,
      "kənɛt": 8013,
      "əfɛkt": 8014,
      "ɪnɔɡɹ": 8015,
      "ɹejdz": 8016,
      "##əɡɹæm": 8017,
      "##dʒəns": 8018,
      "dʒup": 8019,
      "ɪkspowʒɹ": 8020,
      "ɪstæblɪʃɪŋ": 8021,
      "ɪlɛktɹɪkəl": 8022,
      "vɛnju": 8023,
      "ædvɛntʃɹz": 8024,
      "dikɹi": 8025,
      "kɑməntɛɹi": 8026,
      "ɹejtʃəl": 8027,
      "lɪməts": 8028,
      "kənɛtəkət": 8029,
      "##ɹiəm": 8030,
      "kənɛktɪŋ": 8031,
      "mæŋɡə": 8032,
      "mʌd": 8033,
      "ɪnvɛstmənt": 8034,
      "kejv": 8035,
      "awtd": 8036,
      "ælfə": 8037,
      "ɑɹkətɛktʃɹəl": 8038,
      "##kɑt": 8039,
      "ɛkst": 8040,
      "##ajəl": 8041,
      "kæntɹbɛɹi": 8042,
      "ɑntɛɹiow": 8043,
      "bejl": 8044,
      "ʃɔɹtɹ": 8045,
      "##əfajz": 8046,
      "fɹajdi": 8047,
      "hænə": 8048,
      "ɪvælju": 8049,
      "ænsɛst": 8050,
      "pɑɹʃəl": 8051,
      "ɪndəkejtɪŋ": 8052,
      "ɑnɡowɪŋ": 8053,
      "sʌŋ": 8054,
      "##ɪsəl": 8055,
      "ɹɛsk": 8056,
      "ɹɪzɛmbəl": 8057,
      "æspɛkt": 8058,
      "lawd": 8059,
      "mɑɹkəts": 8060,
      "ɪmpɹuvmənt": 8061,
      "fjud": 8062,
      "wɪðdɹɔəl": 8063,
      "ənawnsmənt": 8064,
      "hajdɹədʒən": 8065,
      "##ælɪtiz": 8066,
      "##ɑlədʒəst": 8067,
      "ənlɛs": 8068,
      "##ɡli": 8069,
      "##əntɑlədʒi": 8070,
      "sɛləbɹejtəd": 8071,
      "mædəɡæskɹ": 8072,
      "pɛɹəs": 8073,
      "hajpɑθ": 8074,
      "kɹɪstʃiæn": 8075,
      "##ajdʒ": 8076,
      "pɹit": 8077,
      "stejʃənd": 8078,
      "ɪvækjəwejtɪd": 8079,
      "vɑlkejn": 8080,
      "ɛdətəd": 8081,
      "dɪsəpejtɪd": 8082,
      "ɪkstɹtɹɑpɪkəl": 8083,
      "ɹejdiejʃən": 8084,
      "ɹajvəlz": 8085,
      "dɛnɪs": 8086,
      "æknɑlɪdʒd": 8087,
      "pʌtɪŋ": 8088,
      "pɹmɪtəd": 8089,
      "əkɔɹd": 8090,
      "slejvɹi": 8091,
      "nævəɡejʃən": 8092,
      "tnɑ": 8093,
      "##əvɪtʃ": 8094,
      "sɹvajvəl": 8095,
      "nəpowliən": 8096,
      "ɪntəlɛk": 8097,
      "152": 8098,
      "dɪskʌʃən": 8099,
      "bum": 8100,
      "hjuz": 8101,
      "##10": 8102,
      "##ɛndɪd": 8103,
      "ɪndɪdʒ": 8104,
      "##how": 8105,
      "jʌŋɡəst": 8106,
      "sajənsəz": 8107,
      "plejsɪŋ": 8108,
      "dʌbd": 8109,
      "ɪnɪʃiejtəd": 8110,
      "pɹɪsɪpɪtejʃən": 8111,
      "##ɑɹdow": 8112,
      "ɹejndʒmənts": 8113,
      "ɪksplows": 8114,
      "ɡɹædʒuejtɪd": 8115,
      "əkustɪk": 8116,
      "sʌltən": 8117,
      "hɪndu": 8118,
      "vɑljumz": 8119,
      "howsts": 8120,
      "ɹəkʌvɹi": 8121,
      "dɛmow": 8122,
      "kwɑləfajɪŋ": 8123,
      "həwaji": 8124,
      "bɹnɪŋ": 8125,
      "majə": 8126,
      "fowtəɡɹæfs": 8127,
      "##ɹum": 8128,
      "ɪndəstɹiz": 8129,
      "hajbɹ": 8130,
      "##tʃɪz": 8131,
      "##jʊɹɪŋ": 8132,
      "dɪkt": 8133,
      "ajdəl": 8134,
      "ɡɹædʒəwət": 8135,
      "sɛvənt": 8136,
      "wɹʃəp": 8137,
      "##ɹvz": 8138,
      "flɛmɪŋ": 8139,
      "sajlənt": 8140,
      "pɛɹəʃ": 8141,
      "vojsəz": 8142,
      "dəmɪn": 8143,
      "fəmɪljɹ": 8144,
      "stɹɔŋɡəst": 8145,
      "ɹikwajɹz": 8146,
      "ɑli": 8147,
      "##niə": 8148,
      "ɹɪdʒənejtəd": 8149,
      "nɔt": 8150,
      "##ownjə": 8151,
      "æləs": 8152,
      "##sɪl": 8153,
      "bɹʊk": 8154,
      "piɛm": 8155,
      "ɛstəməts": 8156,
      "ɛmpti": 8157,
      "pɪks": 8158,
      "lɔɹdz": 8159,
      "##kuvɹ": 8160,
      "ɡejdʒ": 8161,
      "fɔɹtʃən": 8162,
      "##ifə": 8163,
      "ɹɪpɔɹtɹ": 8164,
      "dʒupətɹ": 8165,
      "skɪl": 8166,
      "pænz": 8167,
      "##ɪljənz": 8168,
      "ɹɪfɹɪŋ": 8169,
      "hændəl": 8170,
      "##ɪtən": 8171,
      "tubz": 8172,
      "dɛvəst": 8173,
      "downejtəd": 8174,
      "##mənejʃən": 8175,
      "ɛnk": 8176,
      "kənvɛnʃənəl": 8177,
      "##plejɹ": 8178,
      "##bɑb": 8179,
      "##owdʒ": 8180,
      "æksɛlɹ": 8181,
      "dʒown": 8182,
      "æfɡ": 8183,
      "vænkuvɹ": 8184,
      "##ɛkʃ": 8185,
      "##kwejk": 8186,
      "spɛsəmən": 8187,
      "ɡɪni": 8188,
      "bɹɡɹ": 8189,
      "swɪs": 8190,
      "klowsəst": 8191,
      "kɑliɡz": 8192,
      "104": 8193,
      "172": 8194,
      "hɑɹmən": 8195,
      "slip": 8196,
      "dɪskʌ": 8197,
      "majnɔɹəti": 8198,
      "##uɹ": 8199,
      "bʌfəl": 8200,
      "stɛd": 8201,
      "sawθistɹn": 8202,
      "tɹænzlejʃən": 8203,
      "ɪɹɑn": 8204,
      "kiz": 8205,
      "kæts": 8206,
      "ɹθkwejk": 8207,
      "dɹɪŋkɪŋ": 8208,
      "sɪɡnətʃɹ": 8209,
      "dɛməkɹæts": 8210,
      "ɪndəkejts": 8211,
      "tɹɔf": 8212,
      "skætɹd": 8213,
      "ɑɹkiəlɑdʒɪkəl": 8214,
      "pɔɹtʃəɡiz": 8215,
      "nowtəs": 8216,
      "pɹəmowʃənəl": 8217,
      "vɪzəts": 8218,
      "pɹowɡɹæmɪŋ": 8219,
      "tʃælədʒd": 8220,
      "sɹi": 8221,
      "##əvejtəd": 8222,
      "ətɛndɪŋ": 8223,
      "bɹædmən": 8224,
      "dɛnsəti": 8225,
      "væmp": 8226,
      "bæɹən": 8227,
      "mɪstɪɹi": 8228,
      "kɛl": 8229,
      "lɔjɹ": 8230,
      "æksəs": 8231,
      "ʊifə": 8232,
      "##hɪl": 8233,
      "tuθ": 8234,
      "mɪɹli": 8235,
      "ɡæðɹd": 8236,
      "kɑnsəntɹejtəd": 8237,
      "kejbəl": 8238,
      "ɹɪŋz": 8239,
      "bɹnd": 8240,
      "ɪɡzɔst": 8241,
      "səplajd": 8242,
      "ɹædəkəl": 8243,
      "kəlæpst": 8244,
      "dwajt": 8245,
      "ɛmfəsəs": 8246,
      "pɹɛpɹejʃənz": 8247,
      "##dɹɪk": 8248,
      "mɹs": 8249,
      "tɹədɪʃənəli": 8250,
      "dʒowk": 8251,
      "juzɹz": 8252,
      "bajɑɡɹəfɹ": 8253,
      "kowəlɪʃən": 8254,
      "pɹowkl": 8255,
      "mowld": 8256,
      "ænjuəli": 8257,
      "ɡʌvɹmənts": 8258,
      "##ajni": 8259,
      "nkæɑ": 8260,
      "tajɡɹ": 8261,
      "kʌzən": 8262,
      "ɹuθ": 8263,
      "bɑl": 8264,
      "##stɑk": 8265,
      "kənsʌlt": 8266,
      "ɹɑbən": 8267,
      "kɪlz": 8268,
      "stɹɛs": 8269,
      "ɑɹtəfɪʃəl": 8270,
      "hɛvən": 8271,
      "kæləbɹ": 8272,
      "ətʃivmənt": 8273,
      "kɹowm": 8274,
      "ɹejndʒɹz": 8275,
      "kɪtʃ": 8276,
      "##ʃʊɹd": 8277,
      "##bɪt": 8278,
      "ɛdən": 8279,
      "vɛɹ": 8280,
      "##ɔks": 8281,
      "fətɑɡɹəfi": 8282,
      "pɹejd": 8283,
      "##ændɹz": 8284,
      "kɛməstɹi": 8285,
      "mɑdʒ": 8286,
      "##ælətiz": 8287,
      "ʃɹi": 8288,
      "##kæsəl": 8289,
      "mjunɪsəpəl": 8290,
      "##kɹən": 8291,
      "##ʌŋkən": 8292,
      "pɹɪzənɹ": 8293,
      "1893": 8294,
      "pɹɑvənsəz": 8295,
      "tɑpt": 8296,
      "pɹɛdətɹz": 8297,
      "pʌblɪʃɹ": 8298,
      "##ʃʊɹəns": 8299,
      "hæmpʃɹ": 8300,
      "##ɪtɹz": 8301,
      "##ajps": 8302,
      "dɪtɛktɪv": 8303,
      "bajs": 8304,
      "pɹajsəz": 8305,
      "sizd": 8306,
      "kejdʒ": 8307,
      "##owniow": 8308,
      "əkʌmpəniɪŋ": 8309,
      "##əkjuʃən": 8310,
      "##ajɹmənts": 8311,
      "kəmpitɪŋ": 8312,
      "dɛklɹejʃən": 8313,
      "pɛɹz": 8314,
      "fejlɪŋ": 8315,
      "dʒɑ": 8316,
      "ədʒʌst": 8317,
      "ɹiɪnfɔɹsmənts": 8318,
      "ɪndɪdʒənəs": 8319,
      "ɛdənbɹow": 8320,
      "sɪɹiəl": 8321,
      "fɛɹli": 8322,
      "ɪnvɛstəɡejt": 8323,
      "350": 8324,
      "dæ": 8325,
      "##fɹz": 8326,
      "jɹejniəm": 8327,
      "nɪɡ": 8328,
      "tɔks": 8329,
      "##fɹsən": 8330,
      "junəvɹsətiz": 8331,
      "ɪbən": 8332,
      "ɹɛvəl": 8333,
      "kəndɛm": 8334,
      "1896": 8335,
      "sɛndɪŋ": 8336,
      "toj": 8337,
      "ajən": 8338,
      "pɔɹtɹejəl": 8339,
      "powz": 8340,
      "fɑstɹ": 8341,
      "##ejvɹ": 8342,
      "##ŋɡow": 8343,
      "##ɔts": 8344,
      "lajftajm": 8345,
      "vɪktɔɹiən": 8346,
      "tɛnjɹ": 8347,
      "bɹɔdkæstɪŋ": 8348,
      "ɹulɹ": 8349,
      "ajsət": 8350,
      "##fɹi": 8351,
      "tʃænd": 8352,
      "ɹɛpl": 8353,
      "ɡɑdəs": 8354,
      "ɪkspɛɹəmənts": 8355,
      "tæksown": 8356,
      "vɑləntɪɹz": 8357,
      "##ənmənt": 8358,
      "bɪniθ": 8359,
      "127": 8360,
      "111": 8361,
      "tɛɹɪtɔɹiəl": 8362,
      "flʌdəd": 8363,
      "sɹtənli": 8364,
      "fɑsəl": 8365,
      "sist": 8366,
      "ɹɪkɹɪŋ": 8367,
      "1898": 8368,
      "hɪtɪŋ": 8369,
      "mæɡnətud": 8370,
      "##ɪnθ": 8371,
      "dʒuvən": 8372,
      "sək": 8373,
      "sɔl": 8374,
      "ʃɑɹks": 8375,
      "bɔld": 8376,
      "kɑtən": 8377,
      "pu": 8378,
      "tʊɹz": 8379,
      "kɹɛst": 8380,
      "pɹəfɛʃən": 8381,
      "pɛnətɹ": 8382,
      "vowtɪŋ": 8383,
      "ɹivɛndʒ": 8384,
      "sɛntəns": 8385,
      "dɪsbænd": 8386,
      "əsɛmbəld": 8387,
      "kɑntɹəbjuʃən": 8388,
      "ɪmədʒɹi": 8389,
      "kjʊɹ": 8390,
      "ɹajfəl": 8391,
      "bɹæntʃəz": 8392,
      "dʒɪn": 8393,
      "tɹmənəl": 8394,
      "kp": 8395,
      "##bk": 8396,
      "##ajsɪv": 8397,
      "kwɛstʃənd": 8398,
      "sɔŋɹajtɹ": 8399,
      "ɡi": 8400,
      "lɪŋks": 8401,
      "hɪstɔɹɪkəli": 8402,
      "ælf": 8403,
      "kəmpænjən": 8404,
      "kɑmɛntɪŋ": 8405,
      "##owsɛkʃ": 8406,
      "ɹɪvajzd": 8407,
      "æmbæsədɹ": 8408,
      "##ʌmps": 8409,
      "ʌndɹwɛnt": 8410,
      "dʒʊɹəs": 8411,
      "kn": 8412,
      "##ɑndɹ": 8413,
      "dɹʌmɹ": 8414,
      "pɹɑks": 8415,
      "ɪmpɹɛʃən": 8416,
      "##ɪtʃt": 8417,
      "stɑps": 8418,
      "tɛksts": 8419,
      "kɪdn": 8420,
      "dɛvəl": 8421,
      "kɹɪstʃiænɪti": 8422,
      "##dɪn": 8423,
      "kəmpownənts": 8424,
      "vajɹəs": 8425,
      "kɑks": 8426,
      "pɑɹtəz": 8427,
      "dɪstɹojɪŋ": 8428,
      "ɡɹən": 8429,
      "mʌŋk": 8430,
      "hjumɹ": 8431,
      "ɹədusɪŋ": 8432,
      "ɑɹdʒəntinə": 8433,
      "bɹɛt": 8434,
      "ɹɪkʌvɹ": 8435,
      "ɹədʌkʃən": 8436,
      "məlɛniəm": 8437,
      "##awtɪŋ": 8438,
      "dɪvajsəz": 8439,
      "ɹajvz": 8440,
      "ɹɪplajd": 8441,
      "kəmpownənt": 8442,
      "mitiɔɹ": 8443,
      "##bəs": 8444,
      "ənklɪɹ": 8445,
      "lun": 8446,
      "nəv": 8447,
      "bɹtən": 8448,
      "kənsɑl": 8449,
      "dʊɹejʃən": 8450,
      "ɹiɔɹɡən": 8451,
      "##ojnd": 8452,
      "lədʒɪt": 8453,
      "niow": 8454,
      "jɔɹkʃɹ": 8455,
      "læt": 8456,
      "##ɪsf": 8457,
      "1899": 8458,
      "əpɹowtʃɪz": 8459,
      "##əmp": 8460,
      "##ajɹəl": 8461,
      "kənsɪstənt": 8462,
      "bʌfəlow": 8463,
      "kowp": 8464,
      "ajdɛntɪkəl": 8465,
      "dajz": 8466,
      "tɹnp": 8467,
      "##ɪʃənsi": 8468,
      "mʌltiplejɹ": 8469,
      "sæmpəlz": 8470,
      "##ɪnski": 8471,
      "tɔɹnejdow": 8472,
      "fow": 8473,
      "lojd": 8474,
      "1940ɛs": 8475,
      "##pɑp": 8476,
      "##ʌmbɹ": 8477,
      "kɹv": 8478,
      "##əvɪk": 8479,
      "kwɑdɹ": 8480,
      "əsum": 8481,
      "fɹikwənsi": 8482,
      "pɹəpowzəlz": 8483,
      "nutɹəl": 8484,
      "ʃælow": 8485,
      "pejl": 8486,
      "ɹɪfl": 8487,
      "mɹinz": 8488,
      "bɛŋɡ": 8489,
      "pejʃənts": 8490,
      "ɹɪkwajɹmənts": 8491,
      "fɪts": 8492,
      "jutɪl": 8493,
      "sɹɛndɹd": 8494,
      "108": 8495,
      "tɹejdɪd": 8496,
      "fɪnlænd": 8497,
      "wɛlθ": 8498,
      "spowkən": 8499,
      "mɑm": 8500,
      "tɹki": 8501,
      "kɹejɡ": 8502,
      "pɪɹs": 8503,
      "majkɹows": 8504,
      "əkawn": 8505,
      "ɑləvɹ": 8506,
      "bɹnɑɹd": 8507,
      "bæŋkɹ": 8508,
      "wɛs": 8509,
      "lɪkwəd": 8510,
      "bæst": 8511,
      "##ulə": 8512,
      "mown": 8513,
      "nɔɹfək": 8514,
      "kɑlɪnz": 8515,
      "plætfɔɹmz": 8516,
      "dejl": 8517,
      "ɡejmɪŋ": 8518,
      "pɛɹədi": 8519,
      "kənɛkt": 8520,
      "kənsivd": 8521,
      "##ədənts": 8522,
      "kɹæk": 8523,
      "ɹisɹtʃɹz": 8524,
      "əz": 8525,
      "##əskowp": 8526,
      "wɪnɹz": 8527,
      "ɹidɪz": 8528,
      "kwinzlænd": 8529,
      "ɹikənstɹʌkʃən": 8530,
      "plɑzə": 8531,
      "wʌtɛvɹ": 8532,
      "pɹəɡɹɛsɪv": 8533,
      "pɪtsbɹɡ": 8534,
      "ɪɡzæm": 8535,
      "spikɹ": 8536,
      "səlɛkt": 8537,
      "dɪstənt": 8538,
      "ɪnstɹəmənt": 8539,
      "ɹɛpɹəzɛntejʃən": 8540,
      "ɪksklusɪvli": 8541,
      "fæs": 8542,
      "169": 8543,
      "sʌdənli": 8544,
      "sv": 8545,
      "ɑns": 8546,
      "wɪsk": 8547,
      "bitən": 8548,
      "kənɛkʃənz": 8549,
      "wɔɹiɹz": 8550,
      "spɹɪŋz": 8551,
      "sɑm": 8552,
      "wɪɡ": 8553,
      "lajtɪŋ": 8554,
      "dɑnəld": 8555,
      "fejsəz": 8556,
      "sɛləbɹejʃən": 8557,
      "kɹajmz": 8558,
      "sɪŋz": 8559,
      "##ɑlədʒiz": 8560,
      "bɛldʒən": 8561,
      "tajz": 8562,
      "##vɹsəti": 8563,
      "tæ": 8564,
      "ɹɛbəlz": 8565,
      "kəntɪnjuəs": 8566,
      "kəmændɹz": 8567,
      "pɹɪdɑmən": 8568,
      "kɑnfədəns": 8569,
      "pɔ": 8570,
      "##ændz": 8571,
      "##ŋɡə": 8572,
      "dʒɛndɹ": 8573,
      "ɹɪzɛm": 8574,
      "smɑɹt": 8575,
      "kæθɹən": 8576,
      "vɛɹid": 8577,
      "maw": 8578,
      "dajɪŋ": 8579,
      "pɹejzɪŋ": 8580,
      "siəntɑlədʒi": 8581,
      "kəmpɛtətɪv": 8582,
      "bən": 8583,
      "bɑɹk": 8584,
      "læf": 8585,
      "flowz": 8586,
      "dɪsəpojn": 8587,
      "ejkɹ": 8588,
      "flejmz": 8589,
      "dɪstɹɪkts": 8590,
      "##ɔɹtədʒ": 8591,
      "kæmps": 8592,
      "skɹinplej": 8593,
      "mp": 8594,
      "##ɪkju": 8595,
      "##ɔɹtən": 8596,
      "blæst": 8597,
      "ɹəflɛkt": 8598,
      "ʃowldɹ": 8599,
      "æft": 8600,
      "##sisən": 8601,
      "##ɑɹdʒd": 8602,
      "##θɹəp": 8603,
      "ɹɑki": 8604,
      "ɹivjud": 8605,
      "pɹɑpəɡ": 8606,
      "mænʃən": 8607,
      "supɹn": 8608,
      "dɑɹwɪn": 8609,
      "sejlɪŋ": 8610,
      "kənsɪdɹz": 8611,
      "tæksəz": 8612,
      "##tʃəwəl": 8613,
      "ɹiækʃənz": 8614,
      "ædvajzd": 8615,
      "ædʒ": 8616,
      "ɛləf": 8617,
      "bojlɹz": 8618,
      "ɹɛkəmənd": 8619,
      "bɛnət": 8620,
      "ɪntɹsɛkts": 8621,
      "tɹænzlejtəd": 8622,
      "##ɪzɪŋ": 8623,
      "vʌlnɹəbəl": 8624,
      "##ʃiow": 8625,
      "səɡnɪfɪkəns": 8626,
      "æstɹən": 8627,
      "ʃɛɹz": 8628,
      "pɹəsidəd": 8629,
      "##ədɛl": 8630,
      "wɛbɹ": 8631,
      "##əsejʃən": 8632,
      "pɹɛzədənsi": 8633,
      "dɪstʃ": 8634,
      "kɑŋkwɛst": 8635,
      "tʌŋ": 8636,
      "##ɑməz": 8637,
      "##iənts": 8638,
      "bɑɹnz": 8639,
      "hɑɹvɹd": 8640,
      "mɛdəlz": 8641,
      "ʌndɹstʊd": 8642,
      "pɛɹəʃut": 8643,
      "dejviz": 8644,
      "ɑpɹtunətiz": 8645,
      "##əkju": 8646,
      "hændəld": 8647,
      "##nɪs": 8648,
      "kɹɑps": 8649,
      "dɪsɡ": 8650,
      "mæstɹz": 8651,
      "pɹɛzəntejʃən": 8652,
      "kɹejzi": 8653,
      "bɑmbɑɹdmənt": 8654,
      "awtpʊt": 8655,
      "pɔɹtɹət": 8656,
      "##vəs": 8657,
      "##ɑɹn": 8658,
      "tɹɛnd": 8659,
      "sɹf": 8660,
      "nʌmbɹd": 8661,
      "ɛnz": 8662,
      "ɹajvəlɹi": 8663,
      "mænjəfæktʃɹɪŋ": 8664,
      "##ɑkow": 8665,
      "##jəlejtɪd": 8666,
      "blæŋk": 8667,
      "kəmɪʃənɹ": 8668,
      "dajəl": 8669,
      "nɔtəkəl": 8670,
      "dɪslaj": 8671,
      "##ɡɹow": 8672,
      "mɑskow": 8673,
      "plət": 8674,
      "ɹejʃəl": 8675,
      "kɑstum": 8676,
      "kawntɹp": 8677,
      "ɪndowniʒə": 8678,
      "pɛnd": 8679,
      "ɡɪft": 8680,
      "dɹejn": 8681,
      "ɹɪspɛktɪv": 8682,
      "ʌnɪksp": 8683,
      "106": 8684,
      "æntowniow": 8685,
      "ɡɹowsɪŋ": 8686,
      "##bæks": 8687,
      "klɪɹd": 8688,
      "ɪntɹvɛntʃən": 8689,
      "##ɪvɹ": 8690,
      "tɹænspɔɹtəd": 8691,
      "##sɔ": 8692,
      "##ədən": 8693,
      "wɪi": 8694,
      "dʒtw": 8695,
      "dɪvɔɹs": 8696,
      "1897": 8697,
      "sajklownz": 8698,
      "dʒtwk": 8699,
      "mɪnəstɹz": 8700,
      "ɪkstɛndɪŋ": 8701,
      "ɪksplɪs": 8702,
      "vɪnsənt": 8703,
      "sɑɹdʒ": 8704,
      "##ænən": 8705,
      "pɹowtɛsts": 8706,
      "ɪntɹmidi": 8707,
      "154": 8708,
      "kɑɹdz": 8709,
      "mɛtɹow": 8710,
      "ɹiɪnfɔɹst": 8711,
      "##bɹi": 8712,
      "tɛləɡɹæf": 8713,
      "ɪnfɹəstɹ": 8714,
      "bajnd": 8715,
      "##ajnə": 8716,
      "mɑsk": 8717,
      "nəs": 8718,
      "ænɡəl": 8719,
      "##plɹ": 8720,
      "dʒʌdʒmənt": 8721,
      "ɑzlow": 8722,
      "tʊɹd": 8723,
      "##kɑm": 8724,
      "pɹɑtəst": 8725,
      "167": 8726,
      "pɹæktəkəl": 8727,
      "ɛɡzajl": 8728,
      "vɪʒw": 8729,
      "stɹʌktʃɹəl": 8730,
      "θɛl": 8731,
      "kænjən": 8732,
      "mɪsəl": 8733,
      "nʌnðəlɛs": 8734,
      "saw": 8735,
      "kəmɛnst": 8736,
      "kɛɹəktɹɪstɪk": 8737,
      "ɪlit": 8738,
      "dɛkɹejtəd": 8739,
      "dɪnɹ": 8740,
      "##jələs": 8741,
      "ɪɡzɪsts": 8742,
      "tɛstəd": 8743,
      "kæmɹən": 8744,
      "dɔɹz": 8745,
      "ɛkspɛkt": 8746,
      "##md": 8747,
      "lajənz": 8748,
      "##juzɪŋ": 8749,
      "lɛv": 8750,
      "mejntejnɪŋ": 8751,
      "æpləkejʃənz": 8752,
      "sæksən": 8753,
      "##ɪliən": 8754,
      "mɡ": 8755,
      "əlæskə": 8756,
      "dɹajvz": 8757,
      "lajtɹ": 8758,
      "sʌsp": 8759,
      "ɛkspɹ": 8760,
      "153": 8761,
      "kəlɛkʃənz": 8762,
      "113": 8763,
      "skɔɹz": 8764,
      "ɹɛlətɪvz": 8765,
      "sænt": 8766,
      "wɪθdɹɔn": 8767,
      "juɹow": 8768,
      "ɹændəm": 8769,
      "##idz": 8770,
      "mɪlk": 8771,
      "θɪɹiz": 8772,
      "ɹilowkejtɪd": 8773,
      "wɔləs": 8774,
      "ɛnkɹɪdʒ": 8775,
      "plɛ": 8776,
      "kɑmpawnd": 8777,
      "##ɪsejʃən": 8778,
      "##ojntɪd": 8779,
      "ʃɛpɹd": 8780,
      "æmbɹ": 8781,
      "##mɪnstɹ": 8782,
      "pɹipɛɹɪŋ": 8783,
      "tɹnpajk": 8784,
      "##ətəbəl": 8785,
      "ɹəfɔɹmz": 8786,
      "wɔɹnɪŋz": 8787,
      "itɪŋ": 8788,
      "sɑk": 8789,
      "ɹk": 8790,
      "tʃɛst": 8791,
      "pɑɹtɪsəpejʃən": 8792,
      "sɪɹiə": 8793,
      "fɹənt": 8794,
      "mænəf": 8795,
      "majkɹowsɔft": 8796,
      "mʌnθli": 8797,
      "sɛnətɹz": 8798,
      "skʌlptʃɹ": 8799,
      "ɑbl": 8800,
      "##ɪnɹ": 8801,
      "kæɹiz": 8802,
      "bs": 8803,
      "siɡə": 8804,
      "ɹajtɪŋz": 8805,
      "ɹimajnd": 8806,
      "dɪsplejst": 8807,
      "ɑbzɹvejʃən": 8808,
      "hejst": 8809,
      "ɛpɪk": 8810,
      "ɹɪpʌblɪkənz": 8811,
      "ʌnɪkspɛktɪd": 8812,
      "##jəlejtɪŋ": 8813,
      "ɹutin": 8814,
      "sɪmpəθ": 8815,
      "tiɹ": 8816,
      "kowtʃɪz": 8817,
      "##ədejʃən": 8818,
      "tɹədɪʃənz": 8819,
      "ɪntɹvjuz": 8820,
      "dʒʌdʒɪz": 8821,
      "sæv": 8822,
      "##ðz": 8823,
      "kɔɹpɹət": 8824,
      "nætʃɹ": 8825,
      "æŋɡɹi": 8826,
      "kɹɑp": 8827,
      "skɑts": 8828,
      "dɪvajn": 8829,
      "ɪntɹækʃən": 8830,
      "əmejzɪŋ": 8831,
      "mɪksɪŋ": 8832,
      "ʃɛfild": 8833,
      "bowɪŋ": 8834,
      "##əvɑɹd": 8835,
      "vɪktəm": 8836,
      "ætɹ": 8837,
      "kɹʌ": 8838,
      "ɪzɹejli": 8839,
      "ɛɹɪŋ": 8840,
      "##ɛntən": 8841,
      "kənsɹnɪŋ": 8842,
      "jɑm": 8843,
      "##tʃɛɹ": 8844,
      "lajtnɪŋ": 8845,
      "məθɑlədʒi": 8846,
      "kt": 8847,
      "blɑkt": 8848,
      "ɹɪtʃmənd": 8849,
      "ɪntɹpɹətəd": 8850,
      "dɹɛdn": 8851,
      "kɔɹsəz": 8852,
      "hɹəkejnz": 8853,
      "##ɑnɪkə": 8854,
      "lɹnz": 8855,
      "dɪsplejz": 8856,
      "dæləs": 8857,
      "stɛɹi": 8858,
      "məlejʒə": 8859,
      "kəmɹʃəli": 8860,
      "bw": 8861,
      "mʊ": 8862,
      "midi": 8863,
      "##biən": 8864,
      "tʃejmbɹz": 8865,
      "##ɪvɛləp": 8866,
      "ɑɹɡjuɪŋ": 8867,
      "pænzɹ": 8868,
      "pɑɹkwej": 8869,
      "1890": 8870,
      "ɪsɛnʃəli": 8871,
      "vɛtɹən": 8872,
      "klaj": 8873,
      "171": 8874,
      "##hɪɹ": 8875,
      "##wɹld": 8876,
      "fʊlf": 8877,
      "ənlajkli": 8878,
      "sajɹəs": 8879,
      "ɡɑlf": 8880,
      "blæks": 8881,
      "dɪpləmætɪk": 8882,
      "bəs": 8883,
      "##liəm": 8884,
      "##owdi": 8885,
      "ædz": 8886,
      "hɪɹowz": 8887,
      "sælɹi": 8888,
      "ɛld": 8889,
      "bɹʊks": 8890,
      "dʒɑnstən": 8891,
      "kənfjuʒən": 8892,
      "bʌd": 8893,
      "fbi": 8894,
      "##ʒɹz": 8895,
      "owvɹt": 8896,
      "mʌnd": 8897,
      "tɹɛʒɹ": 8898,
      "##vɹn": 8899,
      "fækəlti": 8900,
      "sɛɡmənts": 8901,
      "##kənz": 8902,
      "əst": 8903,
      "ʃɪftəd": 8904,
      "hɑstəl": 8905,
      "##ejdi": 8906,
      "pɹid": 8907,
      "vɪlə": 8908,
      "1895": 8909,
      "wɔld": 8910,
      "##ɪkɹ": 8911,
      "snejk": 8912,
      "vɑlkænɪk": 8913,
      "kwajət": 8914,
      "vəlɑs": 8915,
      "lɔɡ": 8916,
      "ɹɛdʒəmənts": 8917,
      "hɛviwejt": 8918,
      "ækjɹət": 8919,
      "kənstɪtʃu": 8920,
      "##ɔɹiə": 8921,
      "102": 8922,
      "swɪŋ": 8923,
      "##ələn": 8924,
      "but": 8925,
      "dʒɛl": 8926,
      "əpowzɪŋ": 8927,
      "##ʌŋɡəl": 8928,
      "owən": 8929,
      "slɪp": 8930,
      "ɹælf": 8931,
      "##ʌts": 8932,
      "numən": 8933,
      "dəkej": 8934,
      "pɑɹsənz": 8935,
      "spɑnsɹd": 8936,
      "##ədɪɹ": 8937,
      "##æktɹ": 8938,
      "awtkʌm": 8939,
      "##æfts": 8940,
      "##ɹinə": 8941,
      "##əkwət": 8942,
      "ənsɹtən": 8943,
      "kjʊɹi": 8944,
      "##ɛtəl": 8945,
      "lʌŋ": 8946,
      "##bɑk": 8947,
      "##bit": 8948,
      "sf": 8949,
      "mʊhɑm": 8950,
      "fiz": 8951,
      "vɛɹiejʃən": 8952,
      "vɔl": 8953,
      "ɑɹmstɹ": 8954,
      "tɑlɹ": 8955,
      "##bu": 8956,
      "ɪɡzɛm": 8957,
      "nɑkt": 8958,
      "læstɪŋ": 8959,
      "dænsɹz": 8960,
      "ɛdmənd": 8961,
      "kætəlɔɡ": 8962,
      "bʊləvɑɹd": 8963,
      "æŋɡɹ": 8964,
      "wɪʃt": 8965,
      "sɹkjəlɹ": 8966,
      "ʃum": 8967,
      "##ənəlz": 8968,
      "bɹɑm": 8969,
      "121": 8970,
      "doj": 8971,
      "ɪnɡɹ": 8972,
      "ənv": 8973,
      "wɹldz": 8974,
      "##əstɹejʃən": 8975,
      "sɹpɹajzd": 8976,
      "ʃw": 8977,
      "##jɹd": 8978,
      "tɹɛntʃ": 8979,
      "bɹəzɪljən": 8980,
      "ɪnfɹəstɹʌktʃɹ": 8981,
      "##ɑlən": 8982,
      "##æti": 8983,
      "tʃɛlsi": 8984,
      "kæd": 8985,
      "hʊk": 8986,
      "nɔɹd": 8987,
      "##ɛsənt": 8988,
      "162": 8989,
      "dipli": 8990,
      "səstejn": 8991,
      "bajbəl": 8992,
      "kɑmɹs": 8993,
      "ɑɹkejd": 8994,
      "ɹɛkɹiejʃən": 8995,
      "dejnɪʃ": 8996,
      "##udz": 8997,
      "##hən": 8998,
      "kəd": 8999,
      "ədvænsɪŋ": 9000,
      "pɪtʃɹ": 9001,
      "##sli": 9002,
      "lɛŋ": 9003,
      "ɡɹændfɑðɹ": 9004,
      "lɛɹi": 9005,
      "nɔɹθwɛstɹn": 9006,
      "ɪfɪʃənt": 9007,
      "bejli": 9008,
      "səvɪljənz": 9009,
      "ɡɹlfɹɛnd": 9010,
      "ɪɡzæmənejʃən": 9011,
      "dɹæftɪd": 9012,
      "dɪstɹbəns": 9013,
      "tɪkəts": 9014,
      "ɪkl": 9015,
      "dʒɛfɹsən": 9016,
      "ɪnkluʒən": 9017,
      "##zdi": 9018,
      "nejmɪŋ": 9019,
      "id": 9020,
      "##ətejt": 9021,
      "bajəlɑdʒɪkəl": 9022,
      "vɛɹiejʃənz": 9023,
      "pɹsut": 9024,
      "æltətud": 9025,
      "kajl": 9026,
      "##tɹow": 9027,
      "bitɪŋ": 9028,
      "ɹibɪld": 9029,
      "dɑdʒ": 9030,
      "dɪsejbəl": 9031,
      "lejz": 9032,
      "tʃɛɹi": 9033,
      "hæmlət": 9034,
      "howpɪŋ": 9035,
      "stowlən": 9036,
      "ɔɹliənz": 9037,
      "ejs": 9038,
      "bɪzi": 9039,
      "pejli": 9040,
      "itən": 9041,
      "ɹæmp": 9042,
      "ɑɹmstɹɑŋ": 9043,
      "fəzɪʃən": 9044,
      "dʒowz": 9045,
      "##plən": 9046,
      "##klɪf": 9047,
      "spɔɹtɪŋ": 9048,
      "158": 9049,
      "lajnɹ": 9050,
      "lt": 9051,
      "sʌbstətut": 9052,
      "sɛtəlmənts": 9053,
      "mʌm": 9054,
      "dɹɛkʃənz": 9055,
      "mənɪp": 9056,
      "ɪnʃʊɹəns": 9057,
      "pɹɑsɛsəz": 9058,
      "sɑɹdʒənt": 9059,
      "sɛs": 9060,
      "ɹejʃiow": 9061,
      "ɹʌnɹ": 9062,
      "tɛnʃən": 9063,
      "bɛɹiəl": 9064,
      "klɔd": 9065,
      "##ɛnsɪs": 9066,
      "pətɛnʃəli": 9067,
      "ski": 9068,
      "kɑnsəl": 9069,
      "kwɔɹtɹz": 9070,
      "lowkəli": 9071,
      "mɛnd": 9072,
      "##ejɪk": 9073,
      "##ɪŋɡ": 9074,
      "najtɹ": 9075,
      "fʌndəd": 9076,
      "tʃæləndʒɪz": 9077,
      "mɑnəstɛɹi": 9078,
      "##ɑnts": 9079,
      "##ɑksajd": 9080,
      "hɑlow": 9081,
      "stɹik": 9082,
      "sɹbiən": 9083,
      "stɪm": 9084,
      "swi": 9085,
      "ikwəli": 9086,
      "tʃɑɹtəd": 9087,
      "1861": 9088,
      "ɪdɪʃənz": 9089,
      "ʃip": 9090,
      "kɑləmz": 9091,
      "##ejʃəs": 9092,
      "əpɑlow": 9093,
      "fɑlowɹz": 9094,
      "bɛnəfɪts": 9095,
      "tajlɹ": 9096,
      "kənspɪɹəsi": 9097,
      "jukɹ": 9098,
      "sɪndɹ": 9099,
      "ɹʊki": 9100,
      "##fk": 9101,
      "##ɛɹiənz": 9102,
      "məkej": 9103,
      "ædvajz": 9104,
      "dɪsajsɪv": 9105,
      "kbz": 9106,
      "##əkə": 9107,
      "bɑɹbɹə": 9108,
      "ɪksplejnɪŋ": 9109,
      "1889": 9110,
      "ɔfʃɔɹ": 9111,
      "161": 9112,
      "pʌmp": 9113,
      "##ðɪŋ": 9114,
      "##ɛnɹ": 9115,
      "##əvejtɪd": 9116,
      "læps": 9117,
      "ejbɹ": 9118,
      "##ɛnsɹ": 9119,
      "mɹdʒd": 9120,
      "məkɑɹθɹ": 9121,
      "suzən": 9122,
      "dʌnd": 9123,
      "##fɛld": 9124,
      "ɪkstɪŋkt": 9125,
      "ɹikwajɹɪŋ": 9126,
      "ləv": 9127,
      "awtf": 9128,
      "ɹɪzɔɹt": 9129,
      "ŋk": 9130,
      "sinə": 9131,
      "pɹɪsajs": 9132,
      "bɑɹd": 9133,
      "ɪntɹf": 9134,
      "##wɑɹz": 9135,
      "dɹimz": 9136,
      "##ɛsɹz": 9137,
      "twɛnt": 9138,
      "pɹswejdəd": 9139,
      "dʒʊɹəsdɪkʃən": 9140,
      "##bɔɹɡ": 9141,
      "##ajɹi": 9142,
      "##əsin": 9143,
      "ɛɹɹ": 9144,
      "dɛltə": 9145,
      "##klowzd": 9146,
      "pitɹz": 9147,
      "slowv": 9148,
      "1000": 9149,
      "pɹowtətajp": 9150,
      "ɪsn": 9151,
      "nɛf": 9152,
      "ɡɹowz": 9153,
      "ɑpʃənz": 9154,
      "fɪɹd": 9155,
      "ɑpɹejts": 9156,
      "dɪskow": 9157,
      "##mæstɹ": 9158,
      "ɪmpɹɛsɪv": 9159,
      "hd": 9160,
      "nowvə": 9161,
      "pɹəpɔɹʃən": 9162,
      "jutub": 9163,
      "pɹəzɹv": 9164,
      "sɪməlɛɹətiz": 9165,
      "vejl": 9166,
      "wɪtnəsəz": 9167,
      "kæb": 9168,
      "kæv": 9169,
      "kwəbɛk": 9170,
      "ɪmpləmɛntəd": 9171,
      "kɑnstəntin": 9172,
      "pɹɛɡnənt": 9173,
      "ɡejnɪŋ": 9174,
      "flɛʃ": 9175,
      "ɛdʒəkejtəd": 9176,
      "fɑɹmɹz": 9177,
      "vɛtɹənz": 9178,
      "##ʌmpt": 9179,
      "owpənz": 9180,
      "1894": 9181,
      "dʒudɪʃəl": 9182,
      "ɪnkl": 9183,
      "hajpɹ": 9184,
      "ɹɑstɹ": 9185,
      "ɪnɪʃətɪv": 9186,
      "jutɔ": 9187,
      "ədɹɛst": 9188,
      "##əlin": 9189,
      "##ədʒəbəl": 9190,
      "stejtmənts": 9191,
      "ɪzl": 9192,
      "dɪsəplən": 9193,
      "stɹajks": 9194,
      "əkɑmədejt": 9195,
      "vɹtʃuəli": 9196,
      "tɪnt": 9197,
      "klowðz": 9198,
      "wajldlajf": 9199,
      "ɔɹiɛntəd": 9200,
      "fjʊɹi": 9201,
      "bɹut": 9202,
      "##owmi": 9203,
      "156": 9204,
      "135": 9205,
      "1891": 9206,
      "dɪsɔɹdɹ": 9207,
      "vəs": 9208,
      "ɹæk": 9209,
      "ɹejɡən": 9210,
      "pɹowtinz": 9211,
      "ɪndowniʒən": 9212,
      "wikənɪŋ": 9213,
      "sowʃələst": 9214,
      "pɑɹtɪsəpənts": 9215,
      "kɑɹdɪf": 9216,
      "##ɛmbɹd": 9217,
      "kəmplejnd": 9218,
      "kætəɡɔɹiz": 9219,
      "bawndɹiz": 9220,
      "ɑnɹd": 9221,
      "kəndʒ": 9222,
      "mɪləmi": 9223,
      "ɪɹʌp": 9224,
      "ɑnɹɛɹi": 9225,
      "ənw": 9226,
      "kwɪn": 9227,
      "##ɑmətɹz": 9228,
      "wɪz": 9229,
      "##ɪdz": 9230,
      "pɹsownə": 9231,
      "æbu": 9232,
      "əplaj": 9233,
      "klɪp": 9234,
      "dɪvowtəd": 9235,
      "æmɹ": 9236,
      "mɪdnajt": 9237,
      "ʃowk": 9238,
      "##ɡʌm": 9239,
      "ɹɑkət": 9240,
      "240": 9241,
      "dz": 9242,
      "fɹɛvɹ": 9243,
      "sowp": 9244,
      "mæsəkɹ": 9245,
      "stʌdiɪŋ": 9246,
      "##lu": 9247,
      "1800": 9248,
      "tɹæpt": 9249,
      "ɪntɛnt": 9250,
      "θɹɛts": 9251,
      "hɛɹow": 9252,
      "mk": 9253,
      "wɑndɹ": 9254,
      "mæps": 9255,
      "məkɪn": 9256,
      "tæktɪkəl": 9257,
      "hʌt": 9258,
      "ik": 9259,
      "bɹt": 9260,
      "dilɪŋ": 9261,
      "hajn": 9262,
      "nɛ": 9263,
      "ɡlæd": 9264,
      "ɪkstɛnsɪvli": 9265,
      "æŋkɹ": 9266,
      "dɪsəɡɹi": 9267,
      "wɪskɑnsən": 9268,
      "112": 9269,
      "ɡæləksi": 9270,
      "tɛd": 9271,
      "##ejviə": 9272,
[...]
